I 34034
Ich 23239
to 13728
a 13331
the 12767
in 11376
is 10884
zu 10771
"Ich 9444
am 8786
ist 8546
" 8223
The 8176
and 7967
und 7929
of 7606
like 6653
bin 6377
my 6302
ein 6023
. 5502
es, 5424
Die 4703
eine 4420
habe 4258
die 4242
gerne 4022
von 3954
en@@ 3820
mag 3635
der 3512
for 3511
en. 3403
en." 3336
love 3316
A 3162
liebe 3149
have 3035
." 3013
are 2956
im 2835
mich 2788
enjoy 2767
an 2750
für 2737
meine 2712
auf 2637
Das 2634
new 2551
on 2467
that 2435
das 2425
es 2394
can 2383
My 2249
Der 2236
den 2220
Ein 2185
with 2145
ich 2105
mit 2097
dass 2046
gestern 1969
t. 1875
kann 1868
"@@ 1866
sind 1819
neue 1748
heute 1742
fan 1735
good 1723
Fan 1709
einen 1637
sehr 1613
favorite 1606
very 1594
be 1571
Leben 1560
time 1510
en 1467
Zeit 1396
believe 1380
at 1363
think 1348
Mein 1325
genieße 1265
e. 1220
Eine 1163
was 1160
important 1148
so 1100
today. 1099
immer 1074
always 1054
Natur 1039
war 1020
meinen 1008
big 998
yesterday. 990
life. 972
Abend 963
go 960
me 951
great 949
mir 912
großer 911
has 904
Welt 900
uns 898
Tag 869
s. 862
more 857
um 854
it 831
einem 817
meinem 812
our 809
meiner 807
hat 777
Musik 769
would 769
glaube 768
day 764
er 763
er. 744
Menschen 737
""@@ 732
wenn 727
Meine 715
Familie 713
me. 708
mein 708
finde 701
s 699
friends 692
every 691
mehr 691
denke, 690
sich 676
all 675
gehe 673
C@@ 666
should 660
zum 654
about 651
t 650
sein@@ 639
life 634
work 626
S@@ 623
man 623
Freunden 616
when 615
day. 614
dem 614
Kaffee 609
t@@ 608
viel 604
des 596
being 595
feel 593
schätze 591
friends. 588
er@@ 586
e 584
make 584
don't 583
dankbar 582
ern@@ 577
world 574
Freunde 572
need 572
people 569
mach@@ 564
last 563
us 558
try 557
book 547
noch 546
Essen 545
nach 542
sein 540
grateful 539
muss 538
gutes 535
will 535
by 531
we 530
through 527
from 522
keine 520
music 520
nature. 520
möchte 519
nicht 519
Buch 517
wir 517
out 515
up 514
one 513
Mensch 510
Meer 509
durch 509
über 507
fühle 500
beautiful 497
world. 497
aus 496
ten 495
gute 493
many 492
take 483
un@@ 483
W@@ 482
-@@ 480
ten@@ 478
T@@ 477
Stadt 476
spending 475
wish 467
jeder 466
warm 466
full 465
walk 460
do 459
ist@@ 457
viele 457
glaube, 456
geh@@ 454
family 453
macht 453
Sport 451
alle 450
best 450
voller 448
it's 447
wichtig 447
Es 445
gut 444
travel 444
looking 441
dream 440
appreciate 439
going 438
einer 434
gibt 434
drink 433
te 433
I'm 432
spend 431
den@@ 430
person 429
find 428
coffee 427
had 426
person. 423
verbring@@ 423
city 421
lot 421
s@@ 420
beautiful. 417
own 415
Sonne 413
positive 413
learn 410
sea 410
night. 409
It 403
Himmel 401
D@@ 400
wie 400
different 398
ing 398
anderen 396
it. 392
machen 391
old 391
this 391
still 388
y 383
long 382
neuen 382
etwas 381
read 380
sun 380
wichtig, 380
Strand 379
often 375
ten. 375
ins 374
want 374
daran, 373
gen. 372
mal 371
re@@ 371
night 370
movie 367
H@@ 366
Morgen 366
te@@ 366
ge@@ 363
oft 363
trinke 361
end. 360
ver@@ 360
feeling 359
miss 359
g@@ 357
vermisse 356
als 354
"Es 349
Blumen 348
food 348
kann@@ 348
Dinge 343
people. 343
ung. 343
z@@ 343
A@@ 340
Musi@@ 340
happy 339
freue 338
ung 338
gen@@ 337
sollte 336
k. 334
nature 333
playing 332
Kulturen 331
Life 331
forward 330
brauche 329
Bücher 327
Kunst 327
glücklich 325
L@@ 323
Nature 321
chen@@ 321
e@@ 321
in@@ 319
neues 319
Garten 318
k@@ 318
sky 318
B@@ 317
live 317
prefer 316
träume 316
cup 315
fresh 315
music. 315
other 315
you 315
morning. 314
unsere 314
E@@ 312
F@@ 312
Leben@@ 312
sch@@ 312
t." 312
time. 312
Tasse 311
their 310
yesterday 310
selbst 309
Schönheit 308
Tee 307
over 307
be@@ 306
c 306
not 306
ist, 305
f@@ 304
watching 304
family. 303
reading 303
wieder 303
arbeite 302
es. 301
i@@ 301
hab@@ 300
here 300
Lieblings@@ 299
Park 299
schon 299
b@@ 296
jeden 295
n 295
verbringe 295
Reisen 294
way 294
around 293
ing. 293
schaue 293
who 292
Arbeit 290
lern@@ 288
würde 288
lich@@ 287
makes 287
Hund 286
as 286
movies. 286
Yoga 285
andere 285
draußen 285
Pizza 283
G@@ 282
bald 282
verschiedene 282
Regen 281
art 281
d. 281
haben 280
something 280
P@@ 279
Wochenende 279
denke 279
help 279
st@@ 279
.""" 278
smell 278
next 277
R@@ 276
schön 276
things 275
get 274
things. 274
too 274
Film 273
tolle 273
happy. 272
vor 272
watch 271
Gefühl 270
bei 270
car 270
Luft 268
a@@ 268
he@@ 268
cultures. 267
entspann@@ 267
flowers 267
p@@ 267
el@@ 264
Katze 260
beauty 260
g. 260
play 260
trying 260
wünsche 260
beach. 257
lange 257
ier@@ 255
m@@ 255
frisch 254
tea 254
working 254
gehen 253
better 251
free 251
could 249
into 249
Träume 248
d@@ 248
ne@@ 248
sky. 248
most 247
versuche, 247
"Das 246
friend 246
gen 246
h@@ 246
les@@ 246
others. 246
cat 244
Nacht 241
dog 241
eat 241
höre 241
ein@@ 240
Sterne 239
Auto 237
trip 237
alles 236
beste 236
Sommer 235
Winter 235
restaurant 235
beach 234
lich 234
garden. 233
habe@@ 232
know 232
Liebe 231
myself 231
ch@@ 230
park. 230
spazieren 229
guter 228
but 226
le@@ 226
Restaurant 225
food. 224
Spaziergang 223
freshly 223
können 223
morning 223
entdeck@@ 222
taking 222
is@@ 221
schön. 221
; 220
air 220
lernen 220
li@@ 220
hat@@ 219
ungen 219
Mensch@@ 218
besonders 218
eines 218
evening. 218
Mann 217
books. 217
alte 216
sports 216
seine 215
Re@@ 214
Schokolade 214
aber 214
ter 214
y. 214
Wohnung 213
stars 213
beim 212
ck@@ 212
reisen 212
Zukunft 211
achieve 211
an@@ 211
end 211
Geruch 210
been 210
r@@ 210
Herbst 209
scheint 209
"Mein 208
never 208
open 208
auf@@ 207
its 207
park 207
Vögel 206
aus@@ 206
dringend 206
könnte 206
auch 204
myself. 204
Freizeit 203
Ziele 203
really 203
auszuprobier@@ 202
v@@ 202
bevorzuge 201
concert 201
n@@ 201
spiel@@ 201
Filme 200
Freude 200
Sport@@ 200
brings 199
cozy 199
everything 199
In 198
Natur@@ 198
birds 198
gerade 198
rain 198
soll@@ 198
soon. 198
delicious. 197
learning 197
Freund 196
It's 196
Wasser 196
o@@ 196
place 196
visit 196
sie 195
urgently 195
besuch@@ 194
creative 194
hot 194
us. 194
au@@ 193
lese 193
went 193
Konzert 192
mir, 192
planning 192
stay 192
wünschte, 192
Gesundheit 191
Leidenschaft 191
nice 191
proud 191
gemacht 190
see 190
shining 190
stolz 190
value 189
Sonnenuntergang 188
ate 188
einmal 188
needs 187
power 187
tonight. 187
again. 186
K@@ 185
ks 185
manchmal 185
everyone 184
king 184
small 184
de@@ 183
leb@@ 183
evening 182
gives 182
ice 182
la@@ 182
reis@@ 182
werde 182
fit 181
Wald 180
bringt 180
es@@ 180
seh@@ 180
wunderschön 180
geht 179
wer@@ 179
Urlaub 178
al@@ 178
g 178
it@@ 178
M@@ 177
kennenzulern@@ 177
on@@ 177
Freund@@ 176
phone 176
relaxing. 176
tier@@ 176
"In 175
Co@@ 175
Reise 175
change 175
getting 175
le 175
leaves 175
books 174
davon, 174
l@@ 174
nie 174
yoga 174
c@@ 173
genieß@@ 173
hard 173
ti@@ 173
what 173
cook 172
ro@@ 171
um@@ 171
Abenteuer 170
how 170
just 170
listen 170
, 169
Lachen 169
coffee. 169
sports. 169
unser 169
Freiheit 168
Lesen 168
good. 168
könn@@ 168
spielen 168
warme 166
zur 166
ihre 165
isch@@ 165
particularly 165
wird 165
men 164
unter 164
Wir 163
fährt 163
garden 163
relax. 163
werden 163
Haus 162
Wetter 162
future. 162
listening 162
walks 162
Art 161
Kraft 161
alleine 161
city. 161
guten 161
mountains 161
se. 161
se@@ 161
trage 161
"Die 160
Duft 160
Glück 160
Yesterday, 160
bring 160
home. 160
sometimes 160
An@@ 159
Gedanken 159
Ort 159
Geschichte 158
alten 158
art. 158
m 158
outside. 158
relax 158
color 157
isch 157
kleinen 157
sunset 157
toll, 157
weather 157
Ruhe 156
fahr@@ 156
gesehen 156
interested 156
se 156
spiele 156
Berge 155
Spaß 155
meeting 155
verbringen 155
already 154
discover 154
perfect 154
dreams. 153
tolles 153
traveling 153
Tra@@ 152
water 152
Kinder 151
Kino 151
Wolken 151
d 151
or 151
y@@ 151
ed 150
enjoying 150
give 150
laut 150
tion 150
your 150
men@@ 149
sea. 149
sleep 149
ko@@ 148
Boo@@ 147
care 147
chen 147
finde, 147
schöne 147
soul. 147
than 147
vacation 147
work. 147
zu@@ 147
a. 146
at@@ 146
cold 146
summer 146
ta@@ 146
""." 145
making 145
summer. 145
while 145
Orte 144
book. 144
erreich@@ 144
peace 144
Mo@@ 143
Tiere 143
eigenen 143
fascinating. 143
important. 143
kreativ 143
tion. 143
öfter 143
Menschen, 142
delicious 142
having 142
healthy 142
interesting 142
k 142
on. 142
ra@@ 142
sind@@ 142
spielt 142
Blätter 141
bleib@@ 141
ger@@ 141
Woche 140
besser 140
in. 140
Möglichkeit, 139
Sprache 139
einfach 139
lo@@ 139
wichtige 139
ab@@ 138
bought 138
bringen 138
gesund 138
hart 138
much 138
scent 138
st 138
animal 137
eln@@ 137
esse 137
exciting. 137
goals. 137
improve 137
ffee 136
forest 136
ho@@ 136
ma@@ 136
passion 136
? 135
ar@@ 135
braucht 135
ch 135
support 135
voll 135
without 135
Wind 134
breathtaking. 134
great. 134
le. 134
nächste 134
positiv 134
Landschaft 133
i 133
irgendwann 133
koche 133
saw 133
schmeckt 133
science 133
Lächeln 132
arbeit@@ 132
can't 132
job. 132
part 132
Frau 131
Sch@@ 131
able 131
ern 131
ge 131
geb@@ 131
ood 131
start 131
there 131
Pe@@ 130
de. 130
ent@@ 130
freedom 130
interessiere 130
l 130
vacation. 130
Freundin 129
also 129
doing 129
house 129
look 129
mich@@ 129
mood. 129
ohne 129
sollten 129
wear 129
Wunder 128
bekomm@@ 128
conversation 128
essen@@ 128
glücklich, 128
right 128
wine 128
Spaziergänge 127
baked 127
früh 127
lerne 127
them. 127
ts 127
woman 127
ü@@ 127
Seele 126
To@@ 126
ce 126
clouds 126
early 126
fit. 126
große 126
his 126
ie 126
outside 126
tastes 126
w@@ 126
z 126
Job 125
Par@@ 125
apartment 125
ben 125
di@@ 125
schaf@@ 125
Fahrrad 124
See 124
end@@ 124
ig@@ 124
plane 124
visiting 124
air. 123
ft. 123
o 123
others 123
u@@ 123
""" 122
her@@ 122
joy 122
movies 122
or@@ 122
t, 122
versuche 122
weekends. 122
Hause 121
alone 121
besuche 121
langen 121
me@@ 121
places. 121
Gespräch 120
Kochen 120
Schnee 120
anzu@@ 120
autumn 120
collect 120
discovering 120
eln 120
helps 120
ie. 120
met 120
schreib@@ 120
smile 120
0 119
blühen 119
de 119
keep 119
ri@@ 119
ting 119
Farben 118
Lebens 118
fliegt 118
il@@ 118
Frühling 117
Kreativität 117
al 117
alone. 117
cooking 117
fun. 117
hier 117
th@@ 117
week. 117
wunder@@ 117
ading 116
ation 116
sehen 116
sitting 116
animals. 115
atemberaubend 115
f 115
m. 115
schön, 115
Bäume 114
V@@ 114
enthusiastic 114
fahren 114
fin@@ 114
home 114
language 114
regelmäßig 114
write 114
Bedeutung 113
Farbe 113
Z@@ 113
beruhigend 113
dreams 113
gegenüber 113
sehe 113
wonders. 113
Handy 112
St@@ 112
Straßen 112
Tages 112
chocolate 112
großartige 112
ken 112
lau@@ 112
swimming 112
trees 112
ur@@ 112
we@@ 112
wind 112
wonderful 112
Friend@@ 111
Wein 111
children 111
darüber 111
exciting 111
hält 111
lesen 111
ling 111
mountains. 111
today 111
water. 111
Geburtstag 110
Gesellschaft 110
Neues 110
gemach@@ 110
meet 110
pa@@ 110
unglaublich 110
wa@@ 110
/@@ 109
Jahr 109
Strand@@ 109
TV 109
Ta@@ 109
again 109
besucht 109
bird 109
blue 109
darauf, 109
ganzen 109
ge. 109
group 109
hilft 109
importance 109
leben 109
lässt 109
ople 109
smells 109
ss@@ 109
Freundschaft 108
Gefühl, 108
N@@ 108
besten 108
en; 108
found 108
hatte 108
health. 108
schau@@ 108
tea. 108
unter@@ 108
ä@@ 108
Freien 107
Körper 107
Stimmung 107
an. 107
bin@@ 107
ch. 107
fen 107
n. 107
often. 107
opportunity 107
pizza 107
sammle 107
tig@@ 107
Bergen 106
Geist 106
O@@ 106
Wandern 106
Wel@@ 106
ating 106
experience 106
meal 106
schnell 106
sport. 106
Herausforderungen 105
Sp@@ 105
Tag. 105
apartment. 105
e." 105
eigene 105
healthy. 105
ische 105
landscape 105
letzte 105
together. 105
I@@ 104
Sprachen 104
admire 104
entspannend 104
fa@@ 104
gekauft 104
if 104
job 104
offen 104
red 104
ride 104
view 104
year. 104
-Fil@@ 103
Hobby 103
birthday 103
dishes. 103
hör@@ 103
ir@@ 103
p 103
ready 103
under 103
Heute 102
Tier@@ 102
key 102
mo@@ 102
streets 102
to@@ 102
train 102
Bett 101
New 101
bar 101
gel@@ 101
hiking 101
mind. 101
Bildung 100
Meditation 100
excited 100
fan. 100
games. 100
geben 100
haben, 100
her 100
ly 100
series 100
si@@ 100
sound 100
te. 100
Gruppe 99
Katzen 99
Schlüssel 99
cake 99
cinema 99
colorful 99
eating 99
erleb@@ 99
ert 99
flowers. 99
helfen, 99
hobby 99
nichts 99
o. 99
ter@@ 99
Entspannung 98
Fitnessstudio 98
Lieblingsfilm 98
beobach@@ 98
each 98
experience. 98
mi@@ 98
nach, 98
ove 98
setze 98
sport 98
winter 98
wirklich 98
's 97
Abendessen 97
Kuchen 97
Technologie 97
ant 97
cken 97
colors 97
ed. 97
forest. 97
getroff@@ 97
hat, 97
ig 97
little 97
party 97
wichtiger 97
Energie 96
Fluss 96
Frieden 96
Kaffe@@ 96
ad@@ 96
calming. 96
cht 96
ers 96
hal@@ 96
hocolate 96
hätte 96
one's 96
sen@@ 96
some 96
tried 96
weekend 96
winter. 96
yoga. 96
- 95
Hunde 95
Se@@ 95
Sie 95
better. 95
bewundere 95
eigenes 95
gebe 95
ges@@ 95
helfen 95
hope 95
season. 95
someday. 95
soon 95
st. 95
watched 95
Be@@ 94
Brot 94
Gras 94
Person 94
Sonnenuntergänge 94
come 94
currently 94
energy. 94
gemütlich 94
goals 94
green 94
loud 94
novels. 94
sor@@ 94
visited 94
ö@@ 94
Geschenk 93
Pa@@ 93
Ra@@ 93
autumn. 93
bring@@ 93
ca@@ 93
challenges. 93
cream 93
cultures 93
future 93
impressive. 93
langsam 93
languages. 93
lecker 93
light 93
regularly 93
s." 93
special 93
tra@@ 93
writing 93
Erfahrungen 92
Hobbys 92
Kultur 92
Umarmung 92
back 92
begeistert 92
besuchen 92
blau 92
difficult 92
frischem 92
he 92
incredibly 92
lass@@ 92
picnic 92
po@@ 92
thoughts. 92
Autos 91
Ch@@ 91
Gute 91
Lieblingsbuch 91
Morgen@@ 91
Restaurants 91
Ver@@ 91
adventure 91
calm 91
endlich 91
kauf@@ 91
liche 91
liegt 91
museum 91
refreshing. 91
sa@@ 91
snow 91
true 91
Gerichte 90
Gutes 90
ach@@ 90
bed 90
calming 90
chocolate. 90
countries. 90
faszinierend 90
much. 90
passion. 90
schlaf@@ 90
speak 90
unseren 90
"" 89
Vorliebe 89
Wal@@ 89
body 89
con@@ 89
ent. 89
glücklich@@ 89
ooking 89
weekend. 89
wäre 89
über@@ 89
Frühstück 88
eling 88
entdecken 88
halte 88
immer, 88
kein 88
sp@@ 88
spazier@@ 88
ted 88
tun@@ 88
Himmel@@ 87
Netflix 87
after 87
beruhig@@ 87
entspannt 87
finally 87
first 87
grün@@ 87
ke 87
lake 87
living 87
nächsten 87
ometimes 87
respect 87
tr@@ 87
ung@@ 87
zen 87
zwitschern 87
Chance 86
Macht 86
Vielfalt 86
al. 86
gut@@ 86
ie@@ 86
joy. 86
köst@@ 86
lives. 86
qu@@ 86
river 86
series. 86
street 86
theater 86
together 86
trink@@ 86
up. 86
Umwelt 85
Vogel 85
Y@@ 85
aufzu@@ 85
child 85
chirping 85
dance 85
einzu@@ 85
eren 85
et 85
form 85
gt 85
h 85
komm@@ 85
place. 85
Jeder 84
Kind 84
adventures. 84
ation. 84
helf@@ 84
hug 84
liebsten 84
lot. 84
reise 84
schönen 84
ship 84
star@@ 84
sun. 84
uch@@ 84
Familie@@ 83
Gar@@ 83
ats 83
ber@@ 83
beruhigt 83
dinner 83
men. 83
mu@@ 83
slowly 83
tet 83
thinking 83
types 83
und@@ 83
unique 83
vom 83
Eltern 82
am@@ 82
bes@@ 82
bike 82
blooming 82
ck 82
jede 82
laugh 82
morgen 82
mountain 82
nothing 82
oder 82
offers 82
outdoors. 82
rain. 82
stand 82
Aussicht 81
In@@ 81
Leute 81
Teil 81
ck. 81
clear 81
create 81
express 81
friend. 81
hell 81
keinen 81
keit@@ 81
lie@@ 81
set 81
sing 81
song 81
thing 81
Möglichkeiten 80
Te@@ 80
Zug 80
auszu@@ 80
che 80
environment. 80
ess@@ 80
large 80
received 80
skin. 80
ut@@ 80
verbess@@ 80
zusammen 80
Arten 79
Aus@@ 79
Fußball 79
Musik@@ 79
Stille 79
Tanzen 79
ausprobier@@ 79
buy 79
during 79
em 79
faszinier@@ 79
fil@@ 79
gebackenem 79
hasse 79
hate 79
hen 79
ieren 79
language. 79
probier@@ 79
spät 79
suche 79
tern 79
unserer 79
walk. 79
well. 79
ying 79
He@@ 78
Moment 78
Museen 78
Picknick 78
Schreiben 78
Winter@@ 78
at. 78
diesem 78
erledig@@ 78
ft 78
gegess@@ 78
gift 78
hoffe, 78
late 78
lebe 78
les 78
looks 78
no 78
perfekte 78
provide 78
relaxation. 78
relaxing 78
towards 78
ts. 78
Museum 77
bau@@ 77
begeisterter 77
bereit, 77
bieten 77
ds 77
einzigartig 77
et@@ 77
fasziniert 77
fe@@ 77
happiness. 77
history. 77
made 77
preference 77
s, 77
short 77
sk@@ 77
tes 77
Im 76
Kunst@@ 76
Länder 76
Spaß@@ 76
flying 76
foreign 76
gym 76
hiking. 76
hören 76
ine 76
keeps 76
moon 76
ol@@ 76
plan@@ 76
sh@@ 76
tern@@ 76
wand@@ 76
Computer 75
Horizont 75
Mond 75
Sun@@ 75
Verantwortung 75
bewirken 75
breakfast 75
comfortable 75
flies 75
fun 75
neh@@ 75
ru@@ 75
ruhig 75
spring. 75
started 75
um. 75
Aut@@ 74
Einstellung 74
Ma@@ 74
Partner 74
Schwimmen 74
Weg 74
blue. 74
concerts. 74
did 74
dog. 74
ere 74
gehört 74
gelesen 74
high 74
ic@@ 74
ischer 74
ker 74
lake. 74
oneself. 74
sen 74
singing 74
ty 74
wichtig@@ 74
Ge@@ 73
ac@@ 73
b 73
back@@ 73
car@@ 73
ei@@ 73
environmental 73
frei 73
führ@@ 73
grass 73
habe, 73
ischen 73
lover. 73
meines 73
ons 73
pizza. 73
res@@ 73
riecht 73
romantic 73
treffe 73
verbessern 73
vor@@ 73
"Ein 72
Christmas 72
Erinnerungen 72
Humor 72
Japan 72
Kleidung 72
Recht 72
Respekt 72
Schuhe 72
Wirkung 72
Wissenschaft 72
Yester@@ 72
camp@@ 72
da@@ 72
diversity 72
experiences. 72
gehab@@ 72
hear 72
hobbies. 72
loudly. 72
mobile 72
room 72
selbst@@ 72
sieht 72
simply 72
sunset. 72
trip. 72
ve 72
were 72
Büchern 71
Ess@@ 71
Hand@@ 71
Haut 71
Me@@ 71
Or@@ 71
Potenzial 71
ance 71
erreichen 71
fantast@@ 71
fantastic. 71
games 71
großen 71
ing@@ 71
inspire 71
kt 71
nach@@ 71
nur 71
setz@@ 71
shower 71
strong 71
wieder@@ 71
ziehen 71
Schwäche 70
Un@@ 70
aktiv 70
animals 70
bessere 70
discovered 70
drinking 70
gemütlichen 70
inspired 70
musical 70
potential 70
thoughts 70
traveling. 70
vorbei@@ 70
-S@@ 69
Angst 69
Erfolg 69
Party 69
Ro@@ 69
besseren 69
curious 69
em@@ 69
fascinated 69
fiction 69
human 69
kalt 69
lassen 69
learned 69
perfekt 69
quiet 69
responsibility 69
singen 69
ter. 69
valuable 69
wandern 69
ze 69
Beste 68
Eis 68
Gemüse 68
Happiness 68
Harry 68
Küche 68
Land@@ 68
Rezepte 68
bo@@ 68
calms 68
culture. 68
days 68
dis@@ 68
down. 68
ent 68
frischen 68
geseh@@ 68
health 68
historical 68
iert 68
inspiriert 68
natural 68
recipes. 68
sti@@ 68
travel. 68
unden@@ 68
warm. 68
Abenteu@@ 67
Lernen 67
Selbst@@ 67
Straße 67
active 67
ak@@ 67
bad 67
beeindruckend 67
cinema. 67
colors. 67
essen 67
fascinating 67
fire 67
frische 67
herum 67
licher 67
mache 67
medi@@ 67
sing@@ 67
they 67
tired 67
umn 67
verwirklich@@ 67
En@@ 66
Stress 66
Weltreise 66
ancing 66
ba@@ 66
ce. 66
der@@ 66
elt 66
enden 66
for@@ 66
fröhlich 66
groß 66
interesting. 66
it." 66
journey 66
kochen 66
now. 66
outdoors 66
peace. 66
tive 66
Dusche 65
Fernsehen 65
Fotografie 65
Roman@@ 65
Theater 65
achte 65
atemberaub@@ 65
dazu 65
erfrischend 65
everything. 65
festivals. 65
ger 65
ihr 65
lives 65
müde 65
schwimm@@ 65
schwimmen 65
sehr@@ 65
sein, 65
spann@@ 65
tut 65
ummer 65
Ausflug 64
Entspannen 64
Fotos 64
Lieblingsgetränk 64
Sand 64
Zeit@@ 64
Zuhause 64
adventure. 64
auszudrück@@ 64
davon 64
e, 64
education 64
erreicht 64
experiences 64
genießen 64
hobby. 64
hours. 64
j@@ 64
loved 64
more. 64
offer. 64
photos. 64
pursue 64
sand 64
schläft 64
social 64
source 64
tollen 64
Baum 63
Einen 63
Family 63
Hau@@ 63
Herbst@@ 63
Schule 63
Science 63
along 63
bread 63
by. 63
cannot 63
days. 63
erfrisch@@ 63
erk@@ 63
gelernt 63
happiness 63
heart. 63
inspirieren 63
laugh. 63
leckeres 63
probiere 63
schen 63
stundenlang 63
treiben 63
verschiedenen 63
wearing 63
wonderful. 63
wor@@ 63
""The 62
Ar@@ 62
Cafés 62
Fitness 62
Freundschaften 62
Ideen 62
Lieblingsessen 62
Nach@@ 62
all@@ 62
ars 62
ation@@ 62
before. 62
board 62
co@@ 62
explore 62
interess@@ 62
interessante 62
kalten 62
kann, 62
loves 62
lowers 62
op@@ 62
painting 62
re. 62
rea@@ 62
ring 62
run 62
shines 62
spent 62
su@@ 62
swim 62
tig 62
treff@@ 62
zt 62
Ber@@ 61
Ein@@ 61
Fa@@ 61
Fähigkeiten 61
Sushi 61
Traum 61
Wichtigste 61
allein 61
beginn@@ 61
bit 61
break 61
church 61
comfort 61
fliegen 61
ha@@ 61
hike 61
house. 61
kleine 61
let 61
liebt 61
off 61
og@@ 61
sam@@ 61
school 61
sten 61
tt@@ 61
wachsen 61
way. 61
weakness 61
wind. 61
zufrieden 61
Kindern 60
Learning 60
Pflanzen 60
Quelle 60
Wor@@ 60
anderer 60
another 60
dren 60
hoch 60
ity 60
jogging 60
love. 60
mal@@ 60
ment 60
ous 60
success. 60
taste 60
took 60
use 60
wird@@ 60
Abend@@ 59
Bo@@ 59
Feuer 59
Herausforderung 59
Reis@@ 59
activities. 59
beautifully 59
beautifully. 59
between 59
dar@@ 59
ender 59
ess. 59
favourite 59
fei@@ 59
gefunden 59
got 59
heiß 59
no@@ 59
opportunities 59
relaxation 59
sam 59
sanft 59
seinen 59
u 59
ure 59
vorbei 59
well 59
Blum@@ 58
Mode 58
Zoo 58
arbeiten 58
attended 58
ausprobiert 58
bread. 58
change. 58
effect 58
en, 58
freedom. 58
grass. 58
herr@@ 58
inspirier@@ 58
laughter 58
lichen 58
relaxed 58
restaurants. 58
romantic. 58
sitz@@ 58
them 58
tun 58
upcoming 58
werde@@ 58
zwischen 58
Balkon 57
Flugzeug 57
Foo@@ 57
Internet 57
York 57
airplane 57
alth 57
ate. 57
beauty. 57
dekor@@ 57
eri@@ 57
game 57
genug 57
gra@@ 57
ime 57
loudly 57
lying 57
net@@ 57
neugierig 57
partner. 57
pe@@ 57
stories. 57
ul@@ 57
ur 57
verändern 57
wine. 57
-F@@ 56
Architektur 56
Bad 56
Sinn 56
Universum 56
activity. 56
afraid 56
ar 56
betrach@@ 56
che@@ 56
computer 56
down 56
driving 56
ende 56
entspannen 56
ess 56
exhibitions. 56
fitness 56
gu@@ 56
gut, 56
heiße 56
onn@@ 56
paint 56
pets. 56
places 56
popular 56
pp@@ 56
singt 56
stress. 56
sunsets 56
tanzen 56
traffic 56
ungs@@ 56
wimming 56
Auto@@ 55
Entspann@@ 55
Er 55
Ernährung 55
Gitarre 55
Le@@ 55
Lieblingstier 55
Obst 55
Wissen 55
Zeit, 55
across 55
aufgeregt 55
bar. 55
bietet 55
bisschen 55
children. 55
cold. 55
contribute 55
der. 55
dinner. 55
erfüllt 55
even 55
goes 55
ly. 55
morgens 55
parents 55
positiven 55
priceless. 55
reading. 55
recently 55
riting 55
road 55
running 55
sc@@ 55
schaff@@ 55
sche 55
spre@@ 55
später 55
stehen 55
tball 55
tiv@@ 55
Ehrlichkeit 54
Käse 54
Serien 54
Stad@@ 54
Tennis 54
Uhr 54
Wat@@ 54
ant. 54
bereit 54
blau@@ 54
bunt 54
ching 54
flower 54
friendship 54
ft@@ 54
gegen 54
gym. 54
idea. 54
isches 54
lasse 54
liebhaber 54
markets. 54
museums. 54
nehmen 54
relaxes 54
self-@@ 54
shopping 54
sleep. 54
sleeping 54
spannend@@ 54
stell@@ 54
tanz@@ 54
tree 54
universe 54
war@@ 54
Film@@ 53
Gra@@ 53
Kamin 53
Kultur@@ 53
Lu@@ 53
Rauschen 53
Veränderungen 53
Ziel 53
ater 53
brightly 53
cke 53
clean 53
collecting 53
committed 53
cooking. 53
cozy. 53
erhal@@ 53
everyday 53
ex@@ 53
exploring 53
f. 53
ff@@ 53
have. 53
ing." 53
ist. 53
move 53
other. 53
pay 53
schöner 53
sitzen 53
sorgen 53
sounds 53
stark 53
tan@@ 53
tion@@ 53
trees. 53
voll@@ 53
äum@@ 53
Ba@@ 52
Café 52
Ex@@ 52
Haustier 52
Herz 52
Sonnenblumen 52
Urlaub@@ 52
advocate 52
against 52
atmosphere. 52
attitude 52
ci@@ 52
clothing. 52
cook. 52
da 52
ding 52
enough 52
evenings 52
fotograf@@ 52
ges 52
gesunde 52
gr@@ 52
inner 52
kommen 52
learn. 52
lost 52
man@@ 52
ness 52
sal@@ 52
shopping. 52
steh@@ 52
steht 52
ster 52
sunny 52
unbezahl@@ 52
verfol@@ 52
warmes 52
zoo 52
Bier 51
De@@ 51
Ko@@ 51
Land 51
Laufen 51
Seel@@ 51
as@@ 51
company 51
couple 51
cream. 51
deep 51
finden 51
gemütliche 51
geschlaf@@ 51
gleich 51
großartig 51
happily 51
im@@ 51
leck@@ 51
male 51
positively 51
read. 51
room. 51
ssen 51
ste 51
tidy 51
unbedingt 51
unning 51
ute. 51
weht 51
wärmt 51
x@@ 51
Dingen 50
J@@ 50
Jahreszeit 50
Lieblingsserie 50
Pasta 50
Tr@@ 50
Wass@@ 50
anything 50
beer 50
bicycle 50
car. 50
comes 50
dieser 50
el. 50
entdeckt 50
fallen 50
gi@@ 50
grow 50
kennen@@ 50
likes 50
läuft 50
mit@@ 50
ob@@ 50
p. 50
r 50
samm@@ 50
show 50
technology 50
tief 50
tions. 50
tre@@ 50
treib@@ 50
valuable. 50
vintage 50
wel@@ 50
wunderschöne 50
y." 50
zeichn@@ 50
än@@ 50
Beziehungen 49
Eiscreme 49
Licht 49
Mu@@ 49
Ru@@ 49
Sommer@@ 49
Straß@@ 49
Tieren 49
ally 49
challenges 49
childhood. 49
convinced 49
cool 49
crime 49
das, 49
ds. 49
echter 49
ers. 49
events. 49
exercise 49
fantasy 49
feet. 49
flea 49
flo@@ 49
frischer 49
getr@@ 49
grill@@ 49
hi@@ 49
history 49
ideas. 49
ke@@ 49
kommt 49
mind 49
order 49
protect 49
ps 49
records. 49
red. 49
shows 49
society. 49
tour 49
tree. 49
ve. 49
walking 49
yc@@ 49
"Der 48
Atmosphäre 48
Augen 48
Besuch 48
Bewegung 48
Decke 48
Fenster 48
Freizeit@@ 48
Gerechtigkeit 48
Gespräche 48
Star 48
We@@ 48
attention 48
ball 48
because 48
bellt 48
best. 48
building 48
challenge 48
collection 48
dr@@ 48
ens 48
erien 48
est 48
few 48
film 48
glass 48
hobbies 48
ings 48
lachen 48
lernen, 48
moment. 48
ones. 48
outdoor 48
passionate 48
season 48
shoes. 48
team 48
tics 48
tu@@ 48
vinyl 48
warms 48
wunderbare 48
! 47
1@@ 47
Arbe@@ 47
Fr@@ 47
Freedom 47
Glas 47
Ha@@ 47
Idee 47
Ziel@@ 47
alles, 47
ber 47
bereit@@ 47
body. 47
dig@@ 47
finished 47
gently 47
gestal@@ 47
gift. 47
gs 47
hell@@ 47
jog@@ 47
kt@@ 47
les. 47
loyal 47
mis@@ 47
na@@ 47
neuer 47
parties. 47
past 47
per@@ 47
photography. 47
plan 47
poli@@ 47
protection. 47
quote 47
seit 47
shoes 47
sport@@ 47
stars. 47
tax 47
vielen 47
zeit 47
Büch@@ 46
Computer@@ 46
Frei@@ 46
Geschenke 46
Kin@@ 46
Kindheit 46
Lieblingslied 46
Nachthimmel 46
Politik 46
Umweltschutz 46
Zimmer 46
aufr@@ 46
bath 46
bereis@@ 46
birthday. 46
bu@@ 46
challenge. 46
clear. 46
enjoyed 46
especially 46
fast 46
fe 46
friendly. 46
fruit 46
ga@@ 46
gef@@ 46
gemeinsam 46
gib@@ 46
gre@@ 46
hin@@ 46
ht 46
ien@@ 46
imals 46
jetzt 46
klar 46
kurz 46
kurz, 46
lat@@ 46
moment 46
möch@@ 46
paar 46
practice 46
projects. 46
reativity 46
renov@@ 46
schreibe 46
so@@ 46
stre@@ 46
tige 46
tions 46
treibe 46
trips. 46
ty. 46
veränd@@ 46
ving 46
wait 46
young 46
Au@@ 45
Buch, 45
Hand 45
Les@@ 45
Regen@@ 45
Umgebung 45
Zukun@@ 45
and@@ 45
blanket 45
cars. 45
classical 45
d." 45
dabei 45
dance. 45
dancing 45
fireplace 45
ihnen 45
influence 45
internet 45
kre@@ 45
loud. 45
mel@@ 45
mir@@ 45
must 45
new. 45
nächstes 45
offer 45
ou@@ 45
rainy 45
ret@@ 45
riding 45
roof. 45
seinem 45
shape 45
wirk@@ 45
Überraschungen 45
Energ@@ 44
Er@@ 44
Geschmack 44
Mar@@ 44
Schwester 44
So@@ 44
U@@ 44
Welten 44
Zu@@ 44
able. 44
beeindruck@@ 44
beruhigende 44
com@@ 44
damit 44
fly 44
ings. 44
leise 44
letzten 44
motivier@@ 44
nehme 44
only 44
out. 44
partner 44
pen 44
personal 44
planen 44
plants. 44
rauscht 44
s.""" 44
slept 44
spring 44
stri@@ 44
strive 44
ständig 44
teil@@ 44
telefon@@ 44
tz@@ 44
wertvoll 44
window. 44
Abenteuer@@ 43
Freiheit, 43
Geschichten 43
Haustiere 43
Herausforder@@ 43
Ide@@ 43
Steuererklärung 43
Today, 43
Veränderung 43
Wies@@ 43
ali@@ 43
art@@ 43
besitze 43
big. 43
bl@@ 43
cheese. 43
coming 43
constantly 43
creativity. 43
early. 43
ending 43
energy 43
erweit@@ 43
far@@ 43
geno@@ 43
heit 43
ich@@ 43
inspiring. 43
kaum 43
langweili@@ 43
lauf@@ 43
lieber 43
lies 43
majestätisch 43
museums 43
möglich 43
nis@@ 43
opportunities. 43
our@@ 43
pre@@ 43
quickly. 43
schlafen 43
schreiben 43
sense 43
shows. 43
vollen 43
wach@@ 43
where 43
will@@ 43
öffnet 43
Al@@ 42
Alltag 42
Basketball 42
Besonderes 42
Brief 42
Eis@@ 42
Filmen 42
Hoffnung 42
Inspiration 42
Italian 42
Konzert@@ 42
Nachhaltigkeit 42
Potter 42
Suche 42
Technolog@@ 42
Wellen 42
ab 42
achieved 42
attend 42
auszuprobieren 42
bar@@ 42
become 42
ble. 42
deserves 42
e-@@ 42
education. 42
fro@@ 42
froh, 42
ful 42
gel 42
gend 42
gern 42
geschrie@@ 42
grünen 42
hr@@ 42
knowledge. 42
l. 42
lang 42
leuchten 42
liest 42
los 42
meadow. 42
moving 42
musik 42
pool 42
reg@@ 42
sets 42
simple 42
sprechen 42
stehe 42
today.""" 42
tro@@ 42
unterstütz@@ 42
vegetables. 42
w 42
weiß, 42
y, 42
äu@@ 42
(@@ 41
Abende 41
Dankbarkeit 41
Entscheidungen 41
Erfahrung 41
Glück@@ 41
Jazz@@ 41
Konzerte 41
La@@ 41
Pla@@ 41
Poli@@ 41
Sa@@ 41
Schön@@ 41
Verkehr 41
Vintage-@@ 41
Wasser@@ 41
abzu@@ 41
angenehm 41
any 41
anz@@ 41
app@@ 41
besondere 41
brighten 41
broadens 41
café 41
camping 41
creating 41
creative. 41
culture 41
documentaries. 41
du@@ 41
environment 41
fills 41
fließend 41
genre 41
gesch@@ 41
horizon. 41
inspiration. 41
inspiring 41
kennenzulernen 41
ocean 41
pair 41
pass@@ 41
pet. 41
sel@@ 41
shine 41
silence 41
skills. 41
sm@@ 41
snow@@ 41
sunflowers 41
tal@@ 41
tic 41
times. 41
tograph@@ 41
treat 41
trust 41
unserem 41
verbindet 41
ves 41
wei@@ 41
wohl 41
worth 41
ßen 41
äumen 41
überzeugt, 41
Grillen 40
Gut 40
Ju@@ 40
Leben, 40
Lie@@ 40
Meinung 40
Mitgefühl 40
Möglichkeiten, 40
Paar 40
Theaterstück 40
Toleranz 40
ated 40
ben@@ 40
br@@ 40
buzzing 40
cafes. 40
clothes. 40
company. 40
creativity 40
des@@ 40
drives 40
environmentally 40
er, 40
fall 40
follow 40
gekauf@@ 40
geles@@ 40
gemütlicher 40
hand@@ 40
haven't 40
ihren 40
kurzem 40
laufen 40
letter 40
liches 40
lö@@ 40
magical. 40
min@@ 40
ner. 40
now 40
ous. 40
paint. 40
pf@@ 40
pfle@@ 40
real 40
role 40
romantisch 40
ser@@ 40
sitzt 40
sportlich 40
ss. 40
street. 40
talk 40
technology. 40
tigen 40
treffen 40
true. 40
unterstütze 40
vel 40
walks. 40
weather. 40
worlds. 40
zurück@@ 40
.@@ 39
Blau 39
Blume 39
Bäumen 39
Gesund@@ 39
Lieblingszitat 39
Pers@@ 39
Somm@@ 39
Spaghetti 39
Tag, 39
Wein@@ 39
Wärme 39
Zeiten 39
ale 39
ans 39
asset. 39
aufregend 39
band 39
bleiben 39
butterfly 39
ckt 39
cleaned 39
colorful. 39
decisions. 39
denk@@ 39
develop 39
draw 39
enrich 39
erfüll@@ 39
erweitert 39
exercise. 39
experiencing 39
fashion. 39
fer 39
fre@@ 39
freundlich 39
geback@@ 39
giving 39
go@@ 39
guitar 39
har@@ 39
honest 39
horror 39
ideas 39
kreative 39
late. 39
later. 39
laute 39
leisure 39
mar@@ 39
memories. 39
mensch 39
once. 39
ons. 39
painting. 39
pet 39
phone. 39
picknick@@ 39
realize 39
same 39
save 39
schwer 39
sta@@ 39
starting 39
strength 39
successful 39
swimming. 39
us@@ 39
verbracht 39
warmen 39
ß@@ 39
Baum@@ 38
Emotionen 38
Form 38
Gebäude 38
Laptop 38
Lieblings-@@ 38
Neu@@ 38
Pause 38
Schmetterling 38
Ski@@ 38
allen 38
amusement 38
bed. 38
beg@@ 38
biggest 38
cake. 38
color. 38
countries 38
cra@@ 38
denken 38
doesn't 38
dogs 38
el 38
erhol@@ 38
erin 38
erwarten, 38
est@@ 38
exhibition 38
face. 38
feels 38
fli@@ 38
glad 38
green. 38
hart, 38
healing 38
heißen 38
hot. 38
ler 38
lichkeit 38
lung 38
lä@@ 38
par@@ 38
plane, 38
plays 38
pleasant. 38
ps. 38
satisfied 38
sit 38
spiel 38
strength. 38
surprises. 38
sushi. 38
uneh@@ 38
up@@ 38
verlor@@ 38
very@@ 38
wake 38
waves 38
är@@ 38
Beziehung 37
Bibliothek 37
Blick 37
Buch@@ 37
Deine 37
Denk@@ 37
Fahrradfahren 37
Far@@ 37
Fitnessstudi@@ 37
Kopf 37
Manchmal 37
Schlaf 37
Schneeflocken 37
Social 37
To 37
Unternehmen 37
ander@@ 37
beitragen 37
bel@@ 37
bil@@ 37
brewed 37
camping. 37
einsetz@@ 37
erfolgreich 37
ersten 37
essential 37
falls 37
funkeln 37
gesund@@ 37
goal 37
ground. 37
hours 37
ihn 37
ity. 37
meditate 37
meditation. 37
mistakes. 37
motivated 37
movie. 37
passing 37
possibilities. 37
restaurants 37
rises 37
ste@@ 37
story 37
süß 37
tim@@ 37
tomorrow. 37
video 37
which 37
wis@@ 37
works 37
"Eine 36
Fallschirmspringen 36
Fehler 36
Kunstausstellungen 36
Medizin 36
Qu@@ 36
Regenbogen 36
Sammlung 36
Schokol@@ 36
Sofa 36
Sonnenaufgang 36
Stimme 36
ability 36
active. 36
aten 36
away. 36
balcony 36
bee 36
belebt 36
bewirk@@ 36
ble 36
break. 36
bright 36
changes 36
cks 36
considering 36
ear@@ 36
einander 36
einkaufen 36
ell@@ 36
entführ@@ 36
flie@@ 36
fremde 36
gebrühtem 36
gelern@@ 36
grow. 36
großartig@@ 36
hardly 36
il 36
joggen 36
keiten 36
lead 36
letztes 36
nice. 36
or. 36
organisier@@ 36
os 36
past. 36
pasta. 36
peaceful 36
photos 36
planned 36
productive 36
raining 36
respect. 36
return. 36
sauber 36
sch 36
schlafe 36
sich@@ 36
sse 36
sunsets. 36
t; 36
talked 36
th. 36
tionen 36
trips 36
unforgettable. 36
unique. 36
weiterzuentwick@@ 36
work@@ 36
während 36
zeit@@ 36
zieht 36
All@@ 35
Beau@@ 35
Bro@@ 35
Camping 35
Eichhörnchen 35
Füßen 35
Geräusch 35
Gesicht 35
Hobby@@ 35
Jahren 35
Japan. 35
Karaoke 35
Leiden@@ 35
Lieblingsfarbe 35
Marathon 35
Netflix. 35
Sonnenuntergangs 35
Tonight 35
Tre@@ 35
Weihnachten 35
Wochenend@@ 35
Wäsche 35
abends 35
age 35
ationen 35
balance 35
ce@@ 35
clo@@ 35
cultural 35
drank 35
emp@@ 35
enthusiast. 35
fast. 35
fi@@ 35
fla@@ 35
fällt 35
growing 35
halten 35
heil@@ 35
interessanten 35
jazz 35
jedes 35
liegen 35
ll@@ 35
lover 35
ner@@ 35
news 35
parks. 35
ph@@ 35
praktizier@@ 35
pro@@ 35
quiet. 35
richtig 35
schaften 35
schnell@@ 35
schnurrt 35
schönes 35
sion 35
snowflakes 35
someone 35
sonnig 35
special. 35
spreche 35
tigkeit 35
two 35
ved 35
weg 35
weit 35
wrote 35
years. 35
'@@ 34
Bienen 34
Blü@@ 34
Boden 34
Dach 34
Fernseh@@ 34
Fußball@@ 34
Geschich@@ 34
Junge 34
Kar@@ 34
Lieblingsort 34
Man@@ 34
Medit@@ 34
Mutter 34
Mädchen 34
Plan@@ 34
Po@@ 34
Prüfung 34
Sal@@ 34
Schmetterlinge 34
Schne@@ 34
Son@@ 34
Sonnenstrahlen 34
Wanderung 34
Wiese 34
Wohn@@ 34
Yog@@ 34
aden 34
ass@@ 34
attitude. 34
barbecue 34
berührt 34
bewe@@ 34
blows 34
boy 34
ches 34
clock 34
cooked 34
country 34
countryside. 34
creates 34
ct 34
dern 34
do@@ 34
documentary 34
durch@@ 34
fahre 34
fish 34
friedlich 34
fröh@@ 34
girl 34
happ@@ 34
happily. 34
historischen 34
iding 34
independent 34
instrument. 34
interessantes 34
jogging. 34
kal@@ 34
landscape. 34
leaves. 34
leckere 34
medicine. 34
mü@@ 34
nicht, 34
nis 34
older 34
once 34
ourselves 34
ourselves. 34
pe 34
rainbow 34
regnet 34
river. 34
sing. 34
sofa. 34
softly 34
tieren 34
touches 34
ucht 34
ue 34
unseres 34
unta@@ 34
ven@@ 34
vi@@ 34
warmth 34
wert 34
""Der 33
Australien 33
Bestandteil 33
Entdeck@@ 33
Festivals 33
Fil@@ 33
Flug 33
Geld 33
Gen@@ 33
Gewitter 33
Joggen 33
Kirche 33
Komfortzone 33
Medi@@ 33
Möglichkeit 33
Schiff 33
Situation 33
Stephen 33
Straßen@@ 33
Tagen 33
Vor@@ 33
absolute 33
ality 33
aller 33
anstrengend 33
augh@@ 33
bli@@ 33
brau@@ 33
bt 33
cat. 33
cker 33
cu@@ 33
dieses 33
diet. 33
eit@@ 33
emotions. 33
endes 33
entwick@@ 33
erfrischt 33
erinnert 33
excellent. 33
expression 33
far 33
films. 33
fol@@ 33
gefund@@ 33
ic. 33
ies. 33
incredible 33
indescribable. 33
inspires 33
inter@@ 33
laughing 33
list 33
lu@@ 33
lung@@ 33
mat@@ 33
memories 33
observe 33
om@@ 33
oneself 33
opens 33
party. 33
pool. 33
precious 33
pünktlich 33
respektvoll 33
sammelt 33
schätz@@ 33
schönste 33
schütz@@ 33
ses 33
sister 33
situation. 33
snow. 33
song. 33
ss 33
stöb@@ 33
ted. 33
tem 33
unterwegs 33
verbrach@@ 33
wal@@ 33
well-being. 33
ß 33
Berggipfel 32
Biene 32
Ele@@ 32
Ferne 32
Herzen 32
Momente 32
Möglichkeit@@ 32
Pläne 32
Science-Fiction-@@ 32
Sportart 32
Str@@ 32
Tagebuch 32
Zügen 32
ach 32
architecture 32
around. 32
ate@@ 32
ates 32
ating. 32
ax@@ 32
bi@@ 32
boring. 32
char@@ 32
comedies. 32
contagious. 32
cut 32
dark 32
dogs. 32
done 32
eigen@@ 32
eing 32
erleben 32
erung 32
es." 32
falling 32
fan@@ 32
flower. 32
friendly 32
geführ@@ 32
gegangen 32
greatest 32
groß@@ 32
historische 32
hu@@ 32
ic 32
junger 32
kaputt 32
leider 32
malen 32
ment@@ 32
observing 32
off. 32
optimistic 32
piece 32
player. 32
protection 32
put 32
quickly 32
rays 32
relationships. 32
schwimmt 32
sweet 32
transport 32
und. 32
writing. 32
zeigt 32
Asian 31
Ausland 31
Bes@@ 31
DIY 31
Fel@@ 31
Freunde, 31
Game 31
Geduld 31
Gemeinschaft 31
Großes 31
Grün 31
Hum@@ 31
Instrument 31
Ka@@ 31
Meeting 31
Muse@@ 31
Risiken 31
Schallplat@@ 31
Tage 31
Unterstützung 31
Wohlbefinden 31
album 31
ance. 31
and. 31
angefangen 31
angeneh@@ 31
bre@@ 31
chance 31
conversations. 31
cre@@ 31
ct@@ 31
d, 31
daily 31
damit, 31
development. 31
difference. 31
does 31
effect. 31
engagier@@ 31
ets 31
fair@@ 31
feeling. 31
fer@@ 31
fo@@ 31
fr@@ 31
freien 31
freu@@ 31
gar@@ 31
ige 31
imm@@ 31
is. 31
istening 31
iz@@ 31
journey. 31
kitchen. 31
lieb@@ 31
liebste 31
lim@@ 31
loo@@ 31
malt 31
meal. 31
means 31
miteinander 31
ort@@ 31
peaceful. 31
problems. 31
produktiv 31
reduce 31
rustle 31
searching 31
spannend, 31
spontaneous 31
spr@@ 31
statt 31
str@@ 31
such 31
sur@@ 31
swe@@ 31
talking 31
thing. 31
toller 31
unendlich 31
verbringen, 31
week 31
wichtigste 31
wohne 31
Auf@@ 30
Ausstell@@ 30
Begleiter 30
Berg 30
Büro 30
Char@@ 30
Dra@@ 30
Ende 30
Feuerwerk 30
Gleichberechtigung 30
Grill@@ 30
Grün@@ 30
Katz@@ 30
Lieblingssportart 30
Mit@@ 30
Paris 30
Parks 30
Probleme 30
Reiten 30
Skifahren 30
TV. 30
Th@@ 30
Ther@@ 30
Training 30
Wand@@ 30
ari@@ 30
bake 30
bewusst 30
bike. 30
bis 30
blowing 30
café. 30
capable 30
cats. 30
celebrate 30
ces 30
chance. 30
classic 30
comedy 30
connected 30
cute. 30
design 30
dishes 30
do. 30
duftet 30
eg@@ 30
enk@@ 30
entspanne 30
fight 30
fu@@ 30
gefällt 30
geln 30
gend@@ 30
gespiel@@ 30
go. 30
guitar. 30
heart 30
hin 30
honesty 30
hy 30
hört 30
idea 30
ihrer 30
itz@@ 30
ja@@ 30
ken@@ 30
kreativer 30
languages 30
leuchtet 30
lichkeit@@ 30
marathon 30
moments 30
nachzudenk@@ 30
night's 30
opinion 30
prä@@ 30
relationship. 30
relax@@ 30
reminds 30
schla@@ 30
school. 30
second 30
share 30
shion 30
spüre 30
takes 30
tennis 30
touch 30
unbeschreiblich 30
various 30
weit@@ 30
well-@@ 30
wer 30
win@@ 30
wolken@@ 30
wärmen 30
you. 30
2@@ 29
Bestes 29
Chance, 29
Ecke 29
Fantasy-@@ 29
Freu@@ 29
Herz@@ 29
Hobb@@ 29
Jahr@@ 29
Klavier 29
Lieblingsjahreszeit 29
Lied 29
Pizz@@ 29
Planeten 29
Projekt 29
Rei@@ 29
Schach 29
Scho@@ 29
Serie 29
Sportarten 29
Sti@@ 29
Supermarkt 29
Tanz@@ 29
Tie@@ 29
Vertrauen 29
Warum 29
abend 29
abroad. 29
action 29
ange@@ 29
be. 29
bees 29
beleb@@ 29
bewegen 29
bicycle. 29
boo@@ 29
breakfast. 29
bus 29
changing 29
chao@@ 29
climbing 29
connects 29
ct. 29
dan@@ 29
drauß@@ 29
draw. 29
dream@@ 29
dy 29
eb@@ 29
ehrlich 29
fellow 29
fließt 29
fluently. 29
friendships. 29
gemähtem 29
geschloss@@ 29
ging 29
grand@@ 29
ground 29
gucke 29
heilende 29
high. 29
homemade 29
icht@@ 29
ischem 29
ke. 29
klar@@ 29
klingelt 29
kr@@ 29
können, 29
lebens@@ 29
light. 29
mag@@ 29
market 29
ment. 29
mm@@ 29
over@@ 29
personality. 29
positively. 29
reich 29
romantische 29
scht 29
seeing 29
situations. 29
soothing. 29
tag 29
theater. 29
tol@@ 29
tolerant 29
town 29
ty@@ 29
unverzichtbar 29
ways 29
wichtigen 29
wichtiges 29
wunderbar 29
ys 29
zuhause 29
zwei 29
Achtsamkeit 28
Br@@ 28
Di@@ 28
Dis@@ 28
Dokumentationen 28
Erlebnis 28
Fehlern 28
Flu@@ 28
For@@ 28
Geborgenheit 28
Gel@@ 28
Geräusche 28
Groß@@ 28
Hei@@ 28
Jacke 28
Laub 28
Lieblingss@@ 28
Mittagessen 28
Motorrad 28
Mut 28
Persönlichkeit 28
Prin@@ 28
Quentin 28
Radfahren 28
Regenwetter 28
Schwimmbad 28
Ski 28
Sonnen@@ 28
Spiel@@ 28
Start 28
Su@@ 28
Tau@@ 28
Träum@@ 28
Win@@ 28
abenteuer@@ 28
ade 28
alität 28
appointment 28
ar. 28
architecture. 28
atmosphere 28
aufs 28
ball. 28
bie@@ 28
biete@@ 28
class 28
conversations 28
crowded 28
ction. 28
cts. 28
dancing. 28
destination 28
dish 28
door 28
dri@@ 28
duften 28
empty. 28
ener 28
ep@@ 28
erzähl@@ 28
festival 28
flight 28
frei@@ 28
fühl@@ 28
ger. 28
gew@@ 28
gh@@ 28
glasses. 28
glau@@ 28
glo@@ 28
hand 28
hn@@ 28
hopping 28
iger 28
ihrem 28
incredible. 28
innen 28
ker. 28
kes 28
ks. 28
kühl@@ 28
low 28
lunch 28
meditate. 28
mensch@@ 28
mp@@ 28
ms 28
net 28
office 28
oing 28
omm@@ 28
organize 28
overcome 28
part@@ 28
pflan@@ 28
plans 28
plant 28
plants 28
possible 28
practicing 28
recipe 28
refreshing 28
ringing 28
rot 28
saf@@ 28
sailing 28
sand@@ 28
schwar@@ 28
sed 28
skydiving 28
solve 28
stop@@ 28
stu@@ 28
sure 28
tau@@ 28
tiert 28
topics. 28
voice 28
white 28
whole 28
wild 28
workout 28
Überzeugungen 28
"Meine 27
Action@@ 27
Aufgaben 27
Autofahren 27
Besseres 27
Christmas. 27
Couch 27
Ding@@ 27
Erlebnis@@ 27
Gesell@@ 27
Grenzen 27
Harmonie 27
Italien 27
Ja@@ 27
Jahreszeit@@ 27
Job@@ 27
Karriere 27
Koch@@ 27
Laune 27
Lieben 27
Lust 27
Ländern 27
Mel@@ 27
Musikfestivals 27
Plat@@ 27
Pop@@ 27
Radio 27
Romane 27
Sk@@ 27
Sunday 27
Welt@@ 27
accept 27
allem 27
attending 27
bast@@ 27
bauen 27
berühren 27
brightly. 27
bunten 27
bur@@ 27
celebrating 27
ces. 27
changed 27
comfortable. 27
completed 27
country. 27
ction 27
cuisine. 27
dark. 27
dessert. 27
det 27
die@@ 27
distance. 27
einige 27
elle 27
ens@@ 27
erzählen 27
ese 27
feiern 27
fes@@ 27
fest 27
fiction. 27
field. 27
flows 27
flu@@ 27
friendships 27
ful. 27
fulfilling 27
fullest. 27
fully 27
gardening. 27
harmony 27
heard 27
horizons. 27
icht 27
ies 27
inn@@ 27
inspirierend 27
lauten 27
leckeren 27
leidenschaftlicher 27
lie 27
literature. 27
local 27
ls 27
lösen 27
magisch 27
mon@@ 27
ones 27
oo@@ 27
ood@@ 27
parks 27
planet. 27
played 27
positiver 27
refle@@ 27
regularly. 27
res 27
rich@@ 27
riving 27
rock 27
say 27
sind, 27
soccer 27
something. 27
sometime. 27
sonn@@ 27
starke 27
stressful. 27
successful. 27
television. 27
tennis. 27
tik 27
train. 27
under@@ 27
vegetables 27
vertraue 27
verändert 27
vies 27
waiting 27
water@@ 27
year 27
"Jeder 26
: 26
Ausdruck 26
Auszeit 26
Ball 26
Berg@@ 26
Bild 26
Bu@@ 26
Dein 26
Frühl@@ 26
Geb@@ 26
Geheimnisse 26
Halt 26
Ho@@ 26
Kind@@ 26
Komödien 26
Leistungen 26
Lieblingsbeschäftig@@ 26
Lieblingssport 26
Mahlzeit 26
Malen 26
Meeres 26
Mensch, 26
Min@@ 26
Mon@@ 26
Neue 26
Ohne 26
Ordnung 26
Paris. 26
Partys 26
Podcasts 26
Pool 26
Por@@ 26
Produk@@ 26
Rezept 26
Sonnenaufgänge 26
Wei@@ 26
Well@@ 26
Wer@@ 26
Without 26
adventurous 26
all. 26
anti@@ 26
ated. 26
avoid 26
balcony. 26
bester 26
breathtakingly 26
bunte 26
cat@@ 26
celebrated 26
chirp 26
cocktail 26
community. 26
dafür 26
date 26
diary. 26
documentaries 26
dream. 26
dunkel 26
e's 26
elling 26
engage 26
erledigt 26
et. 26
festivals 26
fireworks 26
friendship. 26
fully. 26
gearbeit@@ 26
gestresst 26
gifts. 26
hard. 26
helping 26
hol@@ 26
ier. 26
ing, 26
justice 26
knowledge 26
lang@@ 26
library. 26
liebhaber@@ 26
majestic. 26
meaning 26
med 26
musi@@ 26
ni@@ 26
ning 26
online 26
optimistisch 26
organiz@@ 26
positive. 26
ride. 26
ris@@ 26
schaft 26
schlecht 26
schn@@ 26
schwierige 26
seen 26
son@@ 26
stadt 26
sweet. 26
television 26
ther@@ 26
tiger 26
tri@@ 26
ts@@ 26
ures 26
verbin@@ 26
waren 26
warmly 26
washed 26
waterfall 26
weil 26
weiß 26
wi@@ 26
within 26
zeichnen 26
"Manchmal 25
Ab@@ 25
Augen@@ 25
Brille 25
Comedy@@ 25
Comics 25
Erfahr@@ 25
Erfolge 25
Grund@@ 25
Horizon@@ 25
Kon@@ 25
Lauf@@ 25
Leidenschaften 25
Lieblingshobby 25
Live-@@ 25
Musik, 25
Off@@ 25
Pan@@ 25
Roadtrip 25
Sauna 25
Schat@@ 25
Schmuck 25
Schreib@@ 25
Spiel 25
Sta@@ 25
Stadt@@ 25
Stunde 25
Städte 25
Vergangenheit 25
You 25
adventures 25
ahead 25
ansteckend 25
atur@@ 25
author 25
away 25
barking 25
barks 25
beeinflussen 25
beer. 25
bells 25
bereichern 25
bit@@ 25
ble@@ 25
bloom 25
bro@@ 25
broaden 25
changes. 25
cheese 25
cht@@ 25
clothing 25
compassion 25
computer. 25
consider 25
decorate 25
drawing. 25
du 25
eh@@ 25
enguins 25
entlan@@ 25
er." 25
exotic 25
front 25
fulfilled 25
full. 25
gemüt@@ 25
gener@@ 25
ges. 25
ils 25
ind@@ 25
je@@ 25
jedem 25
kämpf@@ 25
ma 25
mean 25
milk. 25
mood 25
motiv@@ 25
musician 25
müssen 25
out@@ 25
pres@@ 25
project 25
project. 25
provides 25
puzzles. 25
skiing 25
someday 25
sorgt 25
sort 25
sto@@ 25
stressful 25
stressig 25
strong. 25
stud@@ 25
talent 25
ther 25
thinking. 25
tic. 25
tired. 25
ton@@ 25
training 25
universe. 25
unvergleich@@ 25
ven 25
verbunden 25
wahr 25
wall 25
wertvolle 25
zel@@ 25
ür@@ 25
Advent@@ 24
Art, 24
Ausstellung 24
Chancen 24
Dach@@ 24
Daumen 24
Eigen@@ 24
Erfol@@ 24
Fantasie 24
Geschen@@ 24
Gol@@ 24
Gut@@ 24
Hausaufgaben 24
Hinter@@ 24
Hund@@ 24
Inter@@ 24
Kleid@@ 24
Kuh 24
Musical@@ 24
Nähe 24
Sand@@ 24
Schul@@ 24
Schw@@ 24
Singen 24
Situationen 24
Stunden 24
Sur@@ 24
Termin 24
Traum@@ 24
Träumen 24
Video@@ 24
Wasserfall 24
Wild@@ 24
ack 24
almost 24
arts 24
attra@@ 24
aufgeräumt 24
balance. 24
bedeckt 24
berühr@@ 24
bun@@ 24
bücher 24
call 24
cand@@ 24
concerts 24
couch 24
covered 24
cow 24
dd@@ 24
diverse. 24
drive 24
einzutau@@ 24
ely. 24
es.""" 24
fair 24
fitness. 24
free. 24
freund@@ 24
fruit. 24
fruits. 24
geschau@@ 24
gespannt 24
großes 24
gutem 24
haf@@ 24
haft 24
horse 24
improvis@@ 24
ka 24
kitchen 24
konnte 24
kühl 24
la. 24
lan@@ 24
land@@ 24
laptop 24
laundry. 24
leave 24
led 24
lustig 24
meditation 24
nied@@ 24
ome@@ 24
ow@@ 24
passions. 24
perfect. 24
perfekter 24
perspectives. 24
photo 24
piano. 24
purring 24
reich@@ 24
rela@@ 24
restaurant. 24
romant@@ 24
runs 24
rustling 24
schein@@ 24
schwierigen 24
sel 24
sings 24
spar@@ 24
springt 24
sun@@ 24
sunrise 24
sushi 24
sy@@ 24
tanzt 24
tic@@ 24
time, 24
tives 24
trinken 24
trägt 24
tten 24
tzt 24
umzu@@ 24
unglaubliche 24
ute 24
wander@@ 24
x 24
ziemlich 24
zone 24
zuzu@@ 24
zweite 24
Arbeit@@ 23
Arbeitstag 23
Beitrag 23
Comic@@ 23
Cou@@ 23
E-Mails 23
Führerschein 23
Gemälde 23
Gesich@@ 23
Getränk 23
Gre@@ 23
Großeltern 23
Kan@@ 23
Konzer@@ 23
Kunsthandwerk 23
Mal 23
Menschheit 23
Milch 23
Mü@@ 23
Nachbarn 23
Nachricht 23
Nacht@@ 23
Pinguine 23
Potter. 23
Psycholog@@ 23
Rock@@ 23
Schuh@@ 23
Schöneres 23
Sorgen 23
Stärke 23
Traditionen 23
Tu@@ 23
Um@@ 23
abilities. 23
achievements 23
adop@@ 23
afternoon. 23
alt 23
artist 23
asiat@@ 23
att@@ 23
aufreg@@ 23
basketball. 23
book@@ 23
bra@@ 23
bs 23
bungee 23
center 23
cha@@ 23
chte 23
cking 23
cks. 23
comics. 23
corner 23
couch. 23
crawls 23
curious. 23
dessert 23
dress 23
driver's 23
dro@@ 23
easier. 23
eingerich@@ 23
emails. 23
ents 23
erhell@@ 23
fireplace. 23
fl@@ 23
frisch@@ 23
fruits 23
fulfill 23
further 23
gestalten 23
gifts 23
grateful. 23
größte 23
grün 23
harmon@@ 23
hl 23
holds 23
hotel 23
ier 23
imagination. 23
ins. 23
ität 23
jewelry. 23
king. 23
klingt 23
lap. 23
lese, 23
lieben 23
lifelong 23
listened 23
log@@ 23
majestät@@ 23
mistakes 23
motivate 23
near 23
neu 23
night@@ 23
optimistic. 23
parents. 23
passes 23
passi@@ 23
passt 23
person@@ 23
phones 23
physically 23
play@@ 23
pleasure. 23
prasselt 23
productive. 23
products. 23
pur@@ 23
reit@@ 23
safe 23
schaffen 23
senses. 23
ses. 23
setzen 23
skin 23
smo@@ 23
snowboar@@ 23
soup 23
strengthen 23
stär@@ 23
summt 23
support. 23
sustainability 23
table. 23
test@@ 23
tief@@ 23
tun, 23
unterstützen 23
wahrer 23
waves. 23
wechsel@@ 23
wertvoll@@ 23
wir@@ 23
writer. 23
ws 23
wür@@ 23
zufrieden@@ 23
Überrasch@@ 23
Arbeits@@ 22
Autobahn 22
Bier@@ 22
Bus 22
Cha@@ 22
Clu@@ 22
Erde 22
Erholung 22
Euro@@ 22
Familien@@ 22
Fle@@ 22
Flü@@ 22
Fotografieren 22
Fremdsprache 22
Freuden 22
Garten@@ 22
Gedichte 22
Gemein@@ 22
Gerich@@ 22
Herbstes 22
Hol@@ 22
Horrorfil@@ 22
Höhen 22
Inspira@@ 22
Je@@ 22
Konzerten 22
Kra@@ 22
Kunstwerke 22
Körper@@ 22
Liebhaber 22
Lieblingsband 22
Literatur 22
Marvel 22
Massage 22
Media 22
Meinung, 22
Meinungen 22
Musical 22
Nachrichten 22
Nä@@ 22
Oma 22
Ort, 22
Pf@@ 22
Potter@@ 22
Präsentation 22
Rad@@ 22
Reise@@ 22
Rotwein 22
Science-Fiction 22
Science-Fiction@@ 22
Sprach@@ 22
Suppe 22
Team@@ 22
Technologien 22
Thrill@@ 22
Unterhalt@@ 22
Wes@@ 22
Yoga-@@ 22
Zoo@@ 22
ally. 22
apple 22
arbeitet 22
aro@@ 22
aufge@@ 22
aut 22
aut@@ 22
b. 22
beruhigen 22
bor@@ 22
brauchen 22
browse 22
buildings. 22
busy 22
calm. 22
d-@@ 22
da. 22
de, 22
ence 22
equality 22
erkunden 22
erste 22
ester 22
expressing 22
faul 22
ferne 22
filled 22
forget 22
form. 22
funktioniert 22
funny 22
gan@@ 22
garden@@ 22
gebor@@ 22
gen, 22
gewaschener 22
gol@@ 22
hands. 22
head. 22
heißer 22
high@@ 22
hour 22
ide@@ 22
incomparable. 22
ite 22
iting 22
jo@@ 22
ju@@ 22
ka@@ 22
ked 22
knistert 22
lacht 22
landscapes. 22
lea@@ 22
lebend@@ 22
ll 22
los@@ 22
läu@@ 22
market. 22
media. 22
mer@@ 22
modern 22
motiviert 22
motorcycle 22
namens 22
ner 22
niemals 22
nights 22
nut@@ 22
näh@@ 22
one. 22
onto 22
ope 22
pasta 22
peak 22
photographs. 22
plätschert 22
podcasts 22
possible. 22
presentation 22
produc@@ 22
put@@ 22
rascheln 22
rat@@ 22
rec@@ 22
rest@@ 22
road. 22
rock. 22
roman@@ 22
row@@ 22
schauen 22
schlech@@ 22
schließ@@ 22
schön@@ 22
science. 22
ser 22
sha@@ 22
ships 22
singe 22
skydiving. 22
sometimes. 22
spe@@ 22
standing 22
stor@@ 22
sty@@ 22
stän@@ 22
super 22
swim. 22
them@@ 22
thumb 22
tiv 22
tivität 22
trans@@ 22
tur@@ 22
unvergesslich 22
ut 22
variety 22
ved. 22
ver 22
vermeide 22
versch@@ 22
viel@@ 22
view. 22
volles 22
watch. 22
wo 22
wonders 22
worked 22
working. 22
zer 22
zurück 22
7. 21
9. 21
Aufgabe 21
Australia. 21
Brettspiele 21
Empathie 21
Fenst@@ 21
Frie@@ 21
Frisur 21
Füß@@ 21
Grund 21
Haustier@@ 21
Hunde@@ 21
Insekten 21
Italy. 21
John 21
Kommunikation 21
Li@@ 21
Liebling@@ 21
Lieblingsrestaurant 21
Lö@@ 21
Menge 21
Monat 21
Muss 21
Nachthimmel@@ 21
Offenheit 21
Perspektiven 21
Persön@@ 21
Projekte 21
Raum 21
Schicksal 21
Schu@@ 21
Seri@@ 21
Spielplat@@ 21
Sushi@@ 21
Treffen 21
Unter@@ 21
Verwand@@ 21
Volleyball 21
Wars 21
Wert 21
Wo@@ 21
Zeitung 21
Zuhörer 21
alive 21
ank 21
ant@@ 21
arbe@@ 21
basketball 21
bereichern@@ 21
bestell@@ 21
boat 21
build 21
can@@ 21
cars 21
chess. 21
cho@@ 21
cities. 21
clean. 21
close 21
companions. 21
compassion. 21
concert. 21
cool. 21
countryside 21
course 21
cts 21
cycling. 21
discover. 21
dres@@ 21
ell 21
enn@@ 21
evenings. 21
expand 21
eyes 21
fahrer 21
fall. 21
field 21
flock 21
football 21
forward. 21
geheimnis@@ 21
get@@ 21
grilling 21
heiß@@ 21
immerse 21
ine. 21
inging 21
ink 21
innere 21
instrument 21
istory 21
karaoke. 21
kaufe 21
keit 21
kl@@ 21
klassische 21
kn@@ 21
kon@@ 21
least 21
less 21
less@@ 21
listener. 21
long. 21
lose 21
loving 21
markets 21
massage 21
meadow 21
medit@@ 21
meditieren 21
ments 21
mich, 21
month. 21
mus 21
need. 21
net. 21
nor@@ 21
ok@@ 21
olog@@ 21
onesty 21
opinion. 21
organized 21
ort 21
ously 21
pan@@ 21
picture 21
pla@@ 21
play. 21
pleasant 21
pon@@ 21
possibilities 21
produk@@ 21
purpose 21
racht 21
relationship 21
respektiere 21
run@@ 21
sad 21
schaft@@ 21
secrets. 21
security. 21
setting 21
softly. 21
space 21
sparkle 21
spontan 21
squirrel 21
strahlt 21
strebe 21
studi@@ 21
supermarket 21
sustainability. 21
sw@@ 21
sweets. 21
tanze 21
tei@@ 21
teu@@ 21
thankful 21
the@@ 21
thunderstorm 21
ties. 21
ting. 21
tisch 21
toes. 21
train@@ 21
traurig 21
travels. 21
treat. 21
tter. 21
tung 21
turning 21
uch 21
unterhalten 21
unterschiedliche 21
vegetarian. 21
verb@@ 21
verdient 21
versetz@@ 21
verwirklichen 21
volle 21
weakness. 21
wenig 21
winter, 21
wohn@@ 21
zei@@ 21
ün@@ 21
""Bohemian 20
4. 20
4@@ 20
8. 20
80@@ 20
Afri@@ 20
Aktivitäten 20
Balsam 20
DIY-@@ 20
Einklang 20
Entwicklung 20
Fahrradtour 20
Familie, 20
Feier@@ 20
Fer@@ 20
Fernseher 20
Filmabend 20
Ges@@ 20
Haustieren 20
Hobbies 20
I've 20
King. 20
Kleiderschrank 20
Kombin@@ 20
Lieblingsf@@ 20
Liebsten 20
Mil@@ 20
Motor@@ 20
Nachmittag 20
No@@ 20
Optim@@ 20
Pilates 20
Platz 20
Pro@@ 20
Que@@ 20
Rolle 20
Schriftstell@@ 20
Sonnenschein 20
Spinne 20
Spra@@ 20
Stück 20
Süßigkeiten 20
Talent 20
Tan@@ 20
Telefon 20
Telefon@@ 20
Themen 20
Tisch 20
Traumjob 20
Umwelt@@ 20
Weihnachts@@ 20
Weise 20
Wissen@@ 20
Wüste 20
activities 20
age. 20
bahn 20
balm 20
beantwort@@ 20
becoming 20
before 20
beginnt 20
beliebtes 20
bereits 20
besch@@ 20
bewus@@ 20
buying 20
cakes 20
chil@@ 20
childhood 20
clouds. 20
col@@ 20
collects 20
content@@ 20
cor@@ 20
coun@@ 20
crackling 20
deli@@ 20
dep@@ 20
drink. 20
echte 20
ehr@@ 20
einfachen 20
einzigar@@ 20
emotion@@ 20
emotional 20
energiegel@@ 20
enheit 20
entertaining. 20
equality. 20
erfülltes 20
erklingt 20
ernähr@@ 20
erweitern 20
ev@@ 20
events 20
eyes. 20
fahrt 20
fascinates 20
fel@@ 20
festzu@@ 20
fishing 20
foo@@ 20
fotografieren 20
geplan@@ 20
geschen@@ 20
gestell@@ 20
glich@@ 20
goal. 20
gro@@ 20
größter 20
han@@ 20
hei@@ 20
hor@@ 20
hum@@ 20
ick@@ 20
il. 20
ise 20
isen 20
jacket 20
jog 20
jumps 20
ked. 20
land 20
learning. 20
lege 20
liebe@@ 20
lifestyle. 20
lift 20
lights 20
list. 20
lokale 20
ly@@ 20
majestic 20
meditiere 20
mind@@ 20
mindestens 20
mov@@ 20
named 20
ohn@@ 20
open-minded 20
opinions 20
ordentlich 20
other@@ 20
philosoph@@ 20
photographer. 20
pi@@ 20
pl@@ 20
podcast 20
poems. 20
pri@@ 20
quite 20
radio 20
refreshed 20
sammeln 20
schlä@@ 20
schutz 20
sci@@ 20
short, 20
sie@@ 20
sight. 20
singing. 20
skiing. 20
smile. 20
some@@ 20
spannenden 20
spider 20
stal@@ 20
stand@@ 20
starry 20
stei@@ 20
stress 20
subject 20
süß@@ 20
tel 20
tell 20
temp@@ 20
th 20
tolerance 20
trei@@ 20
trä@@ 20
turn 20
unabhängig 20
unbeschreib@@ 20
uns, 20
vergessen 20
wach 20
weiter@@ 20
wil@@ 20
work-life 20
Üb@@ 20
äl@@ 20
übe 20
) 19
-Spiel@@ 19
-T@@ 19
0@@ 19
Alko@@ 19
Anblick 19
Australia 19
Bet@@ 19
Bilder 19
Cocktail@@ 19
Cocktails 19
Dinge, 19
Einfluss 19
Entscheidung 19
Fahr@@ 19
Favor@@ 19
Fe@@ 19
Feiern 19
Fenster@@ 19
Fitness@@ 19
Fre@@ 19
Frühaufsteher 19
Gal@@ 19
Geburtsta@@ 19
Genuss 19
Haare 19
Informa@@ 19
Innovation 19
King 19
Kirchenglocken 19
Ku@@ 19
Landschaften 19
Lehr@@ 19
Länder@@ 19
Mitmenschen 19
Mount 19
Out@@ 19
Pflan@@ 19
Pilze 19
Ring@@ 19
Sache 19
Schreibtisch 19
Schwimm@@ 19
Sehenswürdig@@ 19
Sofa@@ 19
Sonnenuntergän@@ 19
Talente 19
Team 19
The@@ 19
Theat@@ 19
Tür@@ 19
Verständnis 19
Wander@@ 19
Wichtigkeit 19
Wochenenden 19
Zehen 19
arbeitet@@ 19
as. 19
aufzustehen 19
backen 19
bal@@ 19
bath@@ 19
beeindruckt 19
begeister@@ 19
beobachte 19
bottle 19
broken. 19
büch@@ 19
c. 19
cakes. 19
charm. 19
coo@@ 19
cool@@ 19
crackles 19
decide 19
decorating 19
definitely 19
dein 19
destin@@ 19
developing 19
dig 19
ding. 19
dre@@ 19
drinnen 19
ehrgeiz@@ 19
ens. 19
entdecke 19
enti@@ 19
erleich@@ 19
ets. 19
exercis@@ 19
experimen@@ 19
explo@@ 19
faszinierende 19
football. 19
forests 19
forgot 19
forma@@ 19
foundation 19
freund 19
ganz 19
genomm@@ 19
geschich@@ 19
getrunk@@ 19
gier@@ 19
gleich@@ 19
gli@@ 19
grillen 19
großartiger 19
gän@@ 19
healing. 19
hervor@@ 19
hil@@ 19
hohe 19
home@@ 19
hän@@ 19
iced 19
ick 19
ihm 19
ill@@ 19
ils. 19
inspiration 19
kfast 19
kommenden 19
kusch@@ 19
kümmern 19
langer 19
lin@@ 19
list@@ 19
lus@@ 19
lustige 19
me.""" 19
melody. 19
ments. 19
mother. 19
mt 19
mutig 19
neu@@ 19
nütz@@ 19
of@@ 19
old. 19
opportunity. 19
p-@@ 19
pack@@ 19
path. 19
patient 19
per 19
physical 19
playground. 19
pleasure 19
process. 19
pu@@ 19
ran@@ 19
rede 19
reflek@@ 19
relaxed. 19
remain 19
ruft 19
schar@@ 19
schu@@ 19
schw@@ 19
schwierig 19
self-confidence. 19
sh 19
sh. 19
shing 19
shop@@ 19
shopp@@ 19
sight 19
sion. 19
sit@@ 19
skateboar@@ 19
sol@@ 19
spannende 19
speci@@ 19
spektakul@@ 19
spät, 19
squ@@ 19
ster@@ 19
stick 19
stop 19
stories 19
surpris@@ 19
tasks 19
three 19
thrillers. 19
tickt 19
tiges 19
tional 19
tive. 19
tolerance. 19
toll@@ 19
tze 19
unden 19
utterflies 19
ve@@ 19
versteh@@ 19
vielfältig 19
volleyball 19
weiterzu@@ 19
wertvolles 19
window 19
wär@@ 19
zieh@@ 19
Ä@@ 19
äch@@ 19
ät@@ 19
öffn@@ 19
"Meditation 18
"Musik 18
"Reisen 18
1. 18
30. 18
3@@ 18
American 18
App@@ 18
Arbeitsplatz 18
Artikel 18
Arzt 18
Atmosphä@@ 18
Bar@@ 18
Bi@@ 18
Bild@@ 18
Buches 18
Design 18
Ear@@ 18
Europe. 18
Fahrrad@@ 18
Faible 18
Fische 18
Foto@@ 18
Gefühle 18
Grünen 18
Ham@@ 18
Hunger 18
Indie-@@ 18
Itali@@ 18
Jahreszeiten 18
Kakao 18
Karaoke-@@ 18
Klimawandel 18
Krimis 18
Kä@@ 18
Lage 18
Lich@@ 18
Lieblingsautor 18
Lieblingsb@@ 18
Lord 18
Markt 18
Meeres@@ 18
Michael 18
Nachtruhe 18
Ne@@ 18
Op@@ 18
Pfer@@ 18
Projekten 18
Religion 18
Repar@@ 18
Runde 18
Rück@@ 18
Schauspiel@@ 18
Schokoladen@@ 18
Schokoladenkuchen 18
School 18
Sinne 18
Smart@@ 18
Sommerferien 18
Spiele 18
Stre@@ 18
Stu@@ 18
Tarantino 18
Tat 18
Tür 18
Vinyl-@@ 18
Wand 18
Wet@@ 18
Work-Life-Balance 18
Wälder 18
Zufriedenheit 18
Zusammenhalt 18
abende 18
ace 18
achieved. 18
als. 18
among 18
answer 18
antique 18
ast@@ 18
ations. 18
ausge@@ 18
awa@@ 18
baut 18
bedeuten 18
bei@@ 18
bel 18
besich@@ 18
besuch 18
bevorstehenden 18
bewusster 18
black. 18
blo@@ 18
bow@@ 18
bri@@ 18
brun@@ 18
career 18
cer@@ 18
cheer@@ 18
cocktails. 18
conta@@ 18
cookies. 18
cro@@ 18
culinary 18
cur@@ 18
current 18
daran 18
del 18
determined 18
diesen 18
distant 18
ducation 18
ene 18
enken 18
erc@@ 18
erg@@ 18
escape 18
eu@@ 18
exam 18
ey@@ 18
face 18
furniture. 18
galleries. 18
game. 18
gemein@@ 18
genau 18
geput@@ 18
gets 18
grill 18
hair. 18
hand. 18
heiten 18
heits@@ 18
homework. 18
hop@@ 18
humor@@ 18
inking 18
inves@@ 18
involved 18
ising 18
jumping 18
ke." 18
klet@@ 18
komme@@ 18
kostbar 18
kühles 18
large. 18
lebt 18
life, 18
line 18
lively. 18
married 18
meis@@ 18
mother 18
ms. 18
nich@@ 18
notwendig 18
off@@ 18
offene 18
office. 18
one@@ 18
optimistischer 18
owl 18
owl. 18
pas@@ 18
passed 18
path 18
pictures. 18
prepare 18
proje@@ 18
projects 18
quiet@@ 18
radi@@ 18
rain@@ 18
relationships 18
reliable 18
ringing. 18
risks. 18
ry 18
schlechten 18
schwimme 18
schätzen 18
selbstgemachte 18
shop 18
spiders. 18
stands 18
staying 18
streets. 18
stressed. 18
stru@@ 18
studying 18
stärk@@ 18
sunrise. 18
surrounded 18
süße 18
table 18
tel@@ 18
thing@@ 18
though 18
ties 18
tin@@ 18
transportation. 18
tru@@ 18
umgeben 18
understanding 18
unforgettable 18
until 18
unvergess@@ 18
urlaub 18
verliebt 18
verschön@@ 18
ves. 18
weckt 18
wedding 18
wing 18
wo@@ 18
y.""" 18
zeug 18
zuverlässi@@ 18
10 17
30 17
Abenteuer, 17
Adel@@ 17
Berlin 17
Best@@ 17
Bezieh@@ 17
Bücherregale 17
Café@@ 17
Che@@ 17
Du@@ 17
Engagement 17
Entwick@@ 17
Erdbeeren 17
Feld 17
Ferien 17
Fisch 17
Flohmärkten 17
Forschung 17
Fotograf@@ 17
Gartenarbeit 17
Gr@@ 17
Han@@ 17
Haus@@ 17
Hon@@ 17
Kompliment 17
Kälte 17
Kühlschrank 17
Lieblingsgericht 17
Lieblingskünstler 17
Lieblingsplatz 17
Möbel 17
On@@ 17
Oper 17
Pferd 17
Posi@@ 17
Pullover 17
Sach@@ 17
Samm@@ 17
Schach@@ 17
Schatten 17
Schla@@ 17
Schloss 17
Segel@@ 17
Seite 17
Sel@@ 17
Spe@@ 17
Spinnen 17
Steak 17
Stärken 17
Tat@@ 17
Tattoo@@ 17
Thrones. 17
Tisch@@ 17
Tomat@@ 17
Trost 17
Vortrag 17
Wol@@ 17
York. 17
Zahnarzt 17
Zeichnen 17
Zit@@ 17
achieving 17
acht 17
alcohol. 17
ality. 17
allein@@ 17
ary 17
athletic. 17
baking 17
balanced 17
ball@@ 17
barbecue. 17
bedeutet 17
begegn@@ 17
bereisen 17
bereithäl@@ 17
beschäf@@ 17
bird@@ 17
black 17
blick 17
box 17
brennt 17
cal 17
calm@@ 17
camp 17
captivate 17
career. 17
carries 17
castle 17
chess 17
class. 17
comfortably 17
comic 17
complete 17
covers 17
crafts 17
cute 17
deeply 17
dem@@ 17
desert 17
diet 17
drei 17
e.""" 17
eingel@@ 17
eit 17
eiten 17
ek@@ 17
ely 17
ement 17
enrich@@ 17
ents. 17
enzen 17
est. 17
exhausting. 17
expensive. 17
fal@@ 17
fall@@ 17
faszinieren 17
faulenz@@ 17
fly. 17
frea@@ 17
fried@@ 17
färbt 17
ganze 17
garden, 17
gefeier@@ 17
gesunden 17
glückliches 17
gn@@ 17
gratitude 17
hair 17
health@@ 17
heißt 17
here. 17
hol 17
holidays 17
hope. 17
hou@@ 17
hren 17
humanity. 17
iling 17
immersing 17
independent. 17
indie 17
ini@@ 17
interessiert 17
ire 17
junkie. 17
kenn@@ 17
klassischer 17
lasagna. 17
license 17
light@@ 17
lle 17
ma. 17
magical 17
meaning. 17
moved 17
necessary 17
neighbor@@ 17
ness. 17
oes 17
omorrow 17
openness 17
organized. 17
ort. 17
orten 17
parties 17
partys 17
photography 17
picture. 17
point. 17
politics. 17
positiv@@ 17
power. 17
pping 17
pra@@ 17
prakt@@ 17
present 17
produktiven 17
re 17
reach 17
reams 17
recipes 17
regner@@ 17
repair. 17
sad. 17
samer 17
sammele 17
san@@ 17
schwer, 17
schützen 17
search 17
sharing 17
sicher, 17
sil@@ 17
smittel@@ 17
sou@@ 17
sound@@ 17
spieler 17
ssi@@ 17
steckt 17
ster. 17
sub@@ 17
sugar. 17
surroundings. 17
talents. 17
technologies. 17
tell. 17
themselves. 17
ticking 17
titude 17
tiver 17
uchen 17
unbe@@ 17
universal 17
unk@@ 17
vegetarian 17
verdient@@ 17
vergeht 17
veränder@@ 17
ving. 17
vorbereit@@ 17
w. 17
weekends 17
wegen 17
wie@@ 17
write. 17
zeu@@ 17
zone. 17
zoo. 17
zusamm@@ 17
/ 16
2. 16
Ad@@ 16
Ak@@ 16
Astronomie 16
Ausflüge 16
Bahnhof 16
Basketball@@ 16
Beruf 16
Bl@@ 16
Blumen@@ 16
Bolognese 16
Breaking 16
Büro@@ 16
CD 16
Chef 16
Chips 16
Deutschland 16
Diese 16
Dokumentarfil@@ 16
Einsamkeit 16
Eiste@@ 16
Englisch 16
Erfahrungen, 16
Erfind@@ 16
Erfüllung 16
Fantasy@@ 16
Freizeitpark 16
Fris@@ 16
Frische 16
Früchte 16
Geburtstags@@ 16
Gedank@@ 16
Ger@@ 16
Geschenk, 16
Geschwis@@ 16
Geträn@@ 16
Glaube 16
Happy 16
Herausforderungen, 16
Herr 16
Hier 16
High@@ 16
Hoch@@ 16
Jog@@ 16
Kino@@ 16
Kir@@ 16
Klang 16
Klassi@@ 16
Kopf@@ 16
Küch@@ 16
Lagerfeu@@ 16
Lam@@ 16
Lavendel 16
Liter@@ 16
Magie 16
Medien 16
Menschen@@ 16
Musikinstrumente 16
Ob@@ 16
Outdoor-Aktivitäten 16
Philosophie 16
Picknicks 16
Postkarten 16
Reise, 16
Schlaf@@ 16
Spielen 16
Spin@@ 16
Spiritualität 16
Summen 16
Temperatur@@ 16
Thailand 16
Thrones@@ 16
Unfortunately, 16
Ve@@ 16
Verkehr@@ 16
Veränder@@ 16
Vogel@@ 16
Wars. 16
Weg, 16
Weis@@ 16
Zusammen@@ 16
abroad 16
accomplished 16
activity 16
allows 16
along. 16
amazing 16
amazing. 16
article 16
artistic 16
ator 16
ator@@ 16
atten@@ 16
atur 16
aufgeräum@@ 16
bad. 16
beings 16
beings. 16
bele@@ 16
bequeme 16
betrachte 16
bleibe 16
butterflies 16
call@@ 16
cap@@ 16
cast@@ 16
chirping. 16
confli@@ 16
crickets 16
day.""" 16
decor@@ 16
design. 16
develop@@ 16
distance, 16
dly 16
drawing 16
dreht 16
effe@@ 16
ehrliche 16
einfühlsamer 16
einzula@@ 16
empfinde 16
eng@@ 16
enjoy@@ 16
enriches 16
entire 16
erforsch@@ 16
erle@@ 16
exam. 16
exotische 16
eye 16
faszinierend, 16
feet 16
fen@@ 16
fertig@@ 16
fess@@ 16
fish. 16
fresh. 16
friend's 16
gain 16
gam@@ 16
gefallen@@ 16
gehör@@ 16
gs@@ 16
harmony. 16
highway 16
hinter 16
holidays. 16
hon@@ 16
honest. 16
hr 16
huge 16
humor. 16
ily 16
impressed 16
impro@@ 16
infinitely 16
ining 16
ink@@ 16
inner@@ 16
inspirierende 16
inst@@ 16
justice. 16
kost@@ 16
kreativen 16
kriecht 16
kämp@@ 16
kümm@@ 16
künstler@@ 16
laptop. 16
last@@ 16
later 16
laze 16
lecture 16
leist@@ 16
ler@@ 16
library 16
lif@@ 16
life.""" 16
lig 16
lock@@ 16
lohnt 16
län@@ 16
läuten 16
marathon. 16
meditating. 16
menschliche 16
mix@@ 16
modern@@ 16
müss@@ 16
name 16
negative 16
novels 16
nutzen 16
offenes 16
optimis@@ 16
pain@@ 16
paper. 16
pass 16
per. 16
performances. 16
photograph 16
physi@@ 16
political 16
pop 16
pop@@ 16
produ@@ 16
promis@@ 16
psychology. 16
pt 16
puzzle 16
reflect 16
reiten 16
renovate 16
responsible 16
rich 16
rides 16
roller 16
romantischen 16
run. 16
s-@@ 16
schwer@@ 16
schönsten 16
sects 16
sed. 16
seiner 16
self@@ 16
sensitive 16
seri@@ 16
shining. 16
side. 16
sights. 16
sme@@ 16
smoothie 16
soft 16
solu@@ 16
spectacular. 16
spiritu@@ 16
stad@@ 16
stat@@ 16
staun@@ 16
stressi@@ 16
strongly 16
surf@@ 16
surprises 16
teach 16
think. 16
thinker. 16
tho@@ 16
thrilled 16
tiefe 16
time." 16
times 16
to-do 16
tomorrow 16
top 16
traditions. 16
understand 16
unendliche 16
unglaub@@ 16
unterhaltsam 16
val 16
values. 16
vegetable 16
verreise 16
virtue. 16
wahre 16
workplace 16
wunderbar@@ 16
wunderschöner 16
wä@@ 16
ziehe 16
zogen 16
Ängste 16
übernach@@ 16
""Harry 15
"Wir 15
5 15
50. 15
5@@ 15
Abenteurer 15
Adrenal@@ 15
Asien 15
Bahn 15
Bal@@ 15
Beobach@@ 15
Beweg@@ 15
Bil@@ 15
Briefmar@@ 15
Brun@@ 15
Bur@@ 15
Bä@@ 15
Chan@@ 15
Einkauf@@ 15
Enten 15
Erlebnisse 15
Exper@@ 15
Fallschirmsprung 15
Fortschritt 15
Fotogra@@ 15
Frank@@ 15
Freundlichkeit 15
Fri@@ 15
Früch@@ 15
Frühstü@@ 15
Fähigkeit 15
Fähigkeit, 15
Geburtstag@@ 15
Ged@@ 15
Gemeinsames 15
Genieß@@ 15
Gericht 15
Gogh. 15
Handwerk@@ 15
Har@@ 15
Hawaii. 15
Heimat@@ 15
Herkun@@ 15
Hochzeit 15
Innov@@ 15
Intui@@ 15
Japanese 15
Jeans 15
Kaffee@@ 15
Kleid 15
Krimis@@ 15
Lebens@@ 15
Lebensmittel 15
Lieblingsfach 15
Ligh@@ 15
Limon@@ 15
Mat@@ 15
Math@@ 15
Mor@@ 15
Nudeln 15
Podcast 15
Positive 15
Projek@@ 15
Rezep@@ 15
Selbstvertrau@@ 15
Shawshank 15
Smoothie 15
Snowboar@@ 15
Solidar@@ 15
Sonnenbrille 15
Sonnenuntergan@@ 15
Sportveranstalt@@ 15
Sternenhimmel 15
Tag@@ 15
Techni@@ 15
Thema 15
Ton@@ 15
Universums 15
Unterschied 15
Videospiele 15
Wa@@ 15
Wahrheit 15
Workout 15
Zweck 15
absoluter 15
achievements. 15
alive. 15
ambitious 15
amerikan@@ 15
angel@@ 15
angen@@ 15
ann@@ 15
ansteck@@ 15
ast 15
ath@@ 15
aum@@ 15
ausgezeich@@ 15
authentisch 15
awakens 15
bank 15
base@@ 15
beliefs. 15
bell@@ 15
beobachten 15
bequ@@ 15
bevorstehende 15
bewund@@ 15
bilden 15
birds. 15
boss 15
bran@@ 15
bright. 15
browsing 15
brü@@ 15
by@@ 15
cafes 15
calls 15
ced 15
chan@@ 15
cher 15
choice. 15
cing 15
clu@@ 15
club 15
colle@@ 15
compliment 15
connect 15
courage 15
crafts. 15
cycling 15
darf@@ 15
dich 15
diese 15
dir 15
direc@@ 15
diversity. 15
dn't 15
dreamed 15
ei 15
einzigartige 15
ellen 15
empath@@ 15
ence. 15
eng 15
ente 15
entlang 15
enz@@ 15
ep 15
ering 15
erstell@@ 15
erwar@@ 15
evening, 15
event 15
every@@ 15
excit@@ 15
experienced 15
explor@@ 15
ffe 15
flat 15
freak. 15
friend." 15
frühstü@@ 15
ful@@ 15
funny. 15
fü@@ 15
fühlt 15
gekoch@@ 15
gewor@@ 15
gil@@ 15
glauben, 15
glücklicher 15
grandparents 15
gs. 15
heit@@ 15
help. 15
hö@@ 15
höchste 15
ideal 15
igkeit 15
indispensable 15
int@@ 15
invited 15
ish 15
isi@@ 15
japan@@ 15
k, 15
karaoke 15
kel 15
klaren 15
krabbelt 15
kreativ@@ 15
kte 15
lar@@ 15
le, 15
lebenslanger 15
lehr@@ 15
leis@@ 15
live. 15
lli@@ 15
llt 15
lungen 15
magic 15
maler@@ 15
markt 15
mental 15
mess@@ 15
morning, 15
museum. 15
muss@@ 15
newspaper 15
noise 15
oka@@ 15
opera 15
orange 15
os. 15
ous@@ 15
performance 15
persever@@ 15
persönliche 15
persönlichen 15
pets 15
phenomen@@ 15
philosophy. 15
pie@@ 15
plays. 15
probieren 15
radio. 15
rau@@ 15
rauschen 15
refresh 15
rest 15
rights 15
roll@@ 15
roo@@ 15
rote 15
round 15
s""." 15
sagen, 15
salty. 15
sauna. 15
schleicht 15
sentence 15
several 15
shel@@ 15
skills 15
solving 15
spaghetti 15
starts 15
station 15
steigen 15
still. 15
strahl@@ 15
stressed 15
stroll 15
stronger. 15
students 15
stärker 15
t.""" 15
tattoo@@ 15
te, 15
thy 15
tik@@ 15
tly 15
to. 15
tour@@ 15
transpor@@ 15
traum@@ 15
travel@@ 15
tter 15
turns 15
type. 15
universelle 15
urr@@ 15
verlassen 15
vers@@ 15
wash 15
wat@@ 15
wellness 15
within. 15
wohlsten 15
won 15
ys. 15
äf@@ 15
älterer 15
änd@@ 15
überfüll@@ 15
""I 14
100. 14
13. 14
21. 14
29. 14
39. 14
44. 14
47. 14
54. 14
56. 14
57. 14
61. 14
62. 14
63. 14
70. 14
76. 14
83. 14
98. 14
Achterbahnfahrt 14
Bar 14
Barbecue 14
Batter@@ 14
Bedürfnisse 14
Blau@@ 14
Briefe 14
Büroarbeit 14
Chi@@ 14
Chinese 14
Cold@@ 14
Cro@@ 14
Dokumentation 14
Ed 14
Einstell@@ 14
Ereig@@ 14
Everest 14
Fahrra@@ 14
Flasche 14
Floh@@ 14
Forma@@ 14
Fähig@@ 14
Geheim@@ 14
Gelegenheit, 14
German 14
Geräu@@ 14
Gesch@@ 14
Gestern 14
Gewür@@ 14
Go@@ 14
Hausarbeit 14
Hu@@ 14
Hän@@ 14
Hü@@ 14
Italy 14
Jahre 14
Ker@@ 14
Kerzenschein 14
Klima@@ 14
Kreuz@@ 14
Kunstausstellung 14
Künst@@ 14
Lat@@ 14
Lern@@ 14
Lieblingsjahresz@@ 14
Lieblingsland 14
Lon@@ 14
Man 14
Meer@@ 14
Menschenmen@@ 14
Moderne 14
Motorrad@@ 14
Moz@@ 14
Olymp@@ 14
Ozean 14
Park@@ 14
Part@@ 14
Prozess 14
Puzzle 14
Raum@@ 14
Respe@@ 14
Rhapsody@@ 14
Rätsel 14
Schwä@@ 14
Schüler 14
Sheer@@ 14
Sin@@ 14
Spanisch 14
Spiele@@ 14
Sportliche 14
Ste@@ 14
Superhel@@ 14
Symbol 14
Sü@@ 14
Thailand. 14
Tom 14
Umgeb@@ 14
Van 14
War@@ 14
Wasserfälle 14
Zuhau@@ 14
Zuhör@@ 14
action. 14
adv@@ 14
ang 14
angua@@ 14
anre@@ 14
ately 14
aufgeregt, 14
aufhell@@ 14
aufmerk@@ 14
auto@@ 14
background. 14
baking. 14
bars. 14
bedeck@@ 14
beend@@ 14
behind 14
belie@@ 14
beln 14
bene@@ 14
benötigt 14
beobachtet 14
besonderer 14
besorgt 14
bestimm@@ 14
bewahr@@ 14
bläst 14
bookshel@@ 14
box. 14
brave 14
brunch 14
bumm@@ 14
burning 14
business. 14
calmness 14
candlelight. 14
care. 14
cats 14
cher@@ 14
child. 14
circ@@ 14
cker@@ 14
climate 14
climbing. 14
co 14
cocoa 14
communication. 14
competi@@ 14
completely 14
connec@@ 14
connection 14
content 14
continue 14
covering 14
creatively. 14
cross@@ 14
cs. 14
cting 14
cup@@ 14
darauf 14
daraus 14
del@@ 14
dem, 14
des. 14
deser@@ 14
desig@@ 14
development 14
differ@@ 14
diger 14
disku@@ 14
dunkl@@ 14
ear 14
ed@@ 14
einig@@ 14
enjoys 14
enough. 14
ented. 14
entertainment. 14
enthusia@@ 14
ently 14
entscheiden, 14
entspannende 14
entspannten 14
ep. 14
episode 14
equ@@ 14
erfreu@@ 14
erfüllten 14
erst 14
erz@@ 14
experimenti@@ 14
extre@@ 14
fascinate 14
fern@@ 14
fleiß@@ 14
flexi@@ 14
fondness 14
force 14
furnished. 14
further. 14
führen 14
führt 14
gave 14
gegan@@ 14
gehen, 14
gerich@@ 14
gesundes 14
good@@ 14
grazing 14
growth. 14
handicrafts. 14
hel@@ 14
herausfordern@@ 14
herauszuhol@@ 14
herz@@ 14
humanity 14
humor 14
hät@@ 14
ied 14
impressive 14
indescribably 14
infinite 14
ingu@@ 14
inspired. 14
integr@@ 14
interessi@@ 14
interest 14
ister@@ 14
joggt 14
kan@@ 14
kind 14
klassischen 14
klein 14
kristall@@ 14
kulturelle 14
kun@@ 14
land. 14
latest 14
lazy 14
led. 14
lesen, 14
liebst@@ 14
lon@@ 14
longer 14
lü@@ 14
majestically 14
mat 14
mindfulness 14
money 14
money. 14
most. 14
moving. 14
mowed 14
murmurs 14
must. 14
nass 14
ned 14
nerv@@ 14
nä@@ 14
obsessed 14
offener 14
oll@@ 14
ordent@@ 14
ously. 14
overwhel@@ 14
pasture. 14
penguins 14
perfection@@ 14
perfectly. 14
perspective. 14
piano 14
pick@@ 14
planting 14
plat@@ 14
ple 14
pleasantly 14
pond. 14
pr@@ 14
prin@@ 14
promote 14
pulsi@@ 14
quality 14
rather 14
read@@ 14
recognize 14
remember 14
rennt 14
research 14
rie@@ 14
riechen 14
ries@@ 14
risks 14
rä@@ 14
schafft 14
sea@@ 14
seas@@ 14
seasons 14
sehen, 14
shar@@ 14
shirt 14
shooting 14
shops. 14
shower. 14
sky@@ 14
smittel 14
sneakers. 14
soccer. 14
sonnt 14
soothes 14
soul 14
soziale 14
spannendes 14
spicy 14
stamps. 14
stic 14
stice 14
stimulate 14
store 14
story. 14
strahlen 14
strongest 14
summen 14
summer, 14
sunrises 14
symbol 14
talent. 14
ther. 14
tically. 14
tick@@ 14
tions@@ 14
touren 14
trauri@@ 14
treu 14
trick@@ 14
tä@@ 14
umm@@ 14
uner@@ 14
ung, 14
unterweg@@ 14
unverzicht@@ 14
ups 14
used 14
verli@@ 14
vor, 14
werk 14
wert@@ 14
wet 14
whom 14
willing 14
wines. 14
word 14
words. 14
world@@ 14
wur@@ 14
wurde 14
y-@@ 14
yesterday.""" 14
zier@@ 14
zirpen 14
zy 14
zähl@@ 14
änder@@ 14
""Die 13
"Pinguine 13
'. 13
). 13
19. 13
20. 13
42. 13
8 13
Antiquitä@@ 13
Aquarium 13
Asia. 13
Auge 13
Aust@@ 13
Balance 13
Bars 13
Bau@@ 13
Beat@@ 13
Bli@@ 13
Blumenstrauß 13
Bow@@ 13
Brett@@ 13
Bruder 13
Bungee-Jumping 13
Ca@@ 13
Einfachheit 13
English 13
Fahrt 13
Famili@@ 13
Festival 13
Fitn@@ 13
Fitness-@@ 13
Flohmärkte 13
Flugzeu@@ 13
Franz 13
Fro@@ 13
Gelegenheit 13
Gemütlichkeit 13
Gewal@@ 13
Gleichgewicht 13
Glücks 13
Haar@@ 13
Hafen 13
Hausti@@ 13
Heim@@ 13
Jah@@ 13
Jede 13
Kleine 13
Klettern 13
Konfli@@ 13
Krea@@ 13
Kräu@@ 13
Kü@@ 13
Küchen 13
Lage, 13
Lebensstil 13
Lecker@@ 13
Lenn@@ 13
Leuten 13
Lieblingsmusik@@ 13
Lieblingssport@@ 13
Lieblingsstadt 13
Little 13
Luft@@ 13
Mathematik 13
Mexican 13
Moment@@ 13
Morgens 13
Muscheln 13
Märkte 13
Mö@@ 13
Nachdenken 13
Naturwissen@@ 13
Partner@@ 13
Picknick@@ 13
Radtour 13
Rat@@ 13
Realität 13
Ritu@@ 13
Sam@@ 13
Schau@@ 13
Schutz 13
Schweißerhelm 13
Sil@@ 13
Sozi@@ 13
Spa 13
Spiritu@@ 13
Stadi@@ 13
Studi@@ 13
Städtereis@@ 13
TV-S@@ 13
Tee@@ 13
Tei@@ 13
Therap@@ 13
Thriller@@ 13
Touristen 13
Tro@@ 13
Unabhängigkeit 13
Verabred@@ 13
Verbindung 13
Vogelschwarm 13
Vorstell@@ 13
Wahl 13
Waldspaziergang 13
Wirtschaft 13
Work@@ 13
Yoga-Stunde 13
Zusammenarbeit 13
act 13
actively 13
ad 13
ada@@ 13
aks 13
aler 13
am. 13
ambitious. 13
anspruchs@@ 13
anymore. 13
appointment. 13
ard 13
ary. 13
astro@@ 13
astronomy. 13
ates. 13
ations 13
auf, 13
aufgeschlossen 13
aum 13
baby 13
beauti@@ 13
befreiend 13
bekann@@ 13
bili@@ 13
bird. 13
blooming. 13
blüh@@ 13
blüht 13
bouquet 13
buildings 13
bunter 13
called 13
camera 13
care@@ 13
cel@@ 13
chair 13
change@@ 13
chocol@@ 13
cities 13
cleaning. 13
clear@@ 13
combination 13
come. 13
communication 13
compani@@ 13
companion. 13
confident 13
conscious 13
conscious. 13
contemp@@ 13
continu@@ 13
contribution 13
control 13
course. 13
cover 13
crystal 13
cyc@@ 13
d.""" 13
dabei, 13
danger@@ 13
darin, 13
darkness. 13
decisions 13
decorated 13
ded 13
designing 13
dies 13
different. 13
difficult. 13
ding@@ 13
dish. 13
display 13
done. 13
down@@ 13
dra@@ 13
dy. 13
ebr@@ 13
eff@@ 13
ehrenamtlich 13
ema@@ 13
empathetic 13
empathy 13
ences 13
erfolgreich@@ 13
erie 13
erstaun@@ 13
evoke 13
excur@@ 13
exhibitions 13
experimenting 13
extrover@@ 13
fami@@ 13
figh@@ 13
finish 13
fire. 13
focus 13
folge 13
fordert 13
fri@@ 13
ft, 13
furniture 13
fä@@ 13
färben 13
fürs 13
geduldig 13
gefähr@@ 13
gefühl 13
gelassen 13
gele@@ 13
genauso 13
geni@@ 13
gent@@ 13
geschaff@@ 13
geschick@@ 13
geträumt, 13
grenz@@ 13
gründ@@ 13
hair@@ 13
happens 13
happy." 13
hea@@ 13
heard. 13
heavy. 13
hekt@@ 13
helmet 13
hn 13
holiday 13
honey. 13
hur@@ 13
hustle 13
höre, 13
iere 13
igh@@ 13
indispensable. 13
industry. 13
infinite. 13
ing.""" 13
inten@@ 13
interessant@@ 13
internet. 13
intuition. 13
invigorating. 13
invite 13
its. 13
jacket. 13
jazz. 13
joys 13
jumping. 13
kaffee 13
kindness 13
knirscht 13
konzent@@ 13
konzentrier@@ 13
kti@@ 13
kur@@ 13
kurs 13
lamp 13
lands 13
landscapes 13
laughed 13
leisten 13
leisurely 13
letzter 13
li 13
life@@ 13
limits. 13
listener 13
lively 13
lowing 13
machen, 13
meals. 13
media 13
mil@@ 13
mild 13
mini@@ 13
mirac@@ 13
model 13
motiviert, 13
motorcyc@@ 13
mushrooms. 13
mysterious. 13
müde, 13
nachts 13
nat@@ 13
nehm@@ 13
nehmen, 13
on, 13
on." 13
onen 13
open@@ 13
peacefully 13
people's 13
perfek@@ 13
pft 13
pin@@ 13
platz 13
possibili@@ 13
precious. 13
properly. 13
public 13
pursu@@ 13
puts 13
pünkt@@ 13
rad@@ 13
reali@@ 13
reason. 13
receiving 13
recomm@@ 13
refreshes 13
reliable. 13
repariert 13
return 13
rise 13
riser 13
riser. 13
river@@ 13
roars 13
routine 13
ruhig@@ 13
ruhiger 13
s' 13
s/@@ 13
salad. 13
samen 13
schne@@ 13
schneller 13
sho@@ 13
siblings. 13
sicher 13
silence. 13
singer 13
skill. 13
sleeping. 13
sleeps 13
slow. 13
sna@@ 13
spaziergang 13
spaziergänge 13
stes 13
stretches 13
stsein 13
stärkste 13
stürzt 13
sunshine 13
super@@ 13
supp@@ 13
surprise 13
sweat@@ 13
syst@@ 13
tain@@ 13
tasty. 13
temperat@@ 13
there. 13
thriller 13
tics. 13
tire. 13
track 13
traditional 13
traffic. 13
tragen 13
training. 13
treasure 13
treue 13
tron@@ 13
tter@@ 13
twinkle 13
umbrella 13
umh@@ 13
umwelt@@ 13
unbes@@ 13
unde 13
unpredictable. 13
unterhalt@@ 13
unvorherseh@@ 13
utter 13
vacations. 13
vents 13
veranstal@@ 13
verantwortungs@@ 13
verfolgen 13
verfärben 13
verkauft 13
verreisen 13
verschwend@@ 13
wardrobe. 13
waste 13
weiterentwick@@ 13
welding 13
well@@ 13
wichtigsten 13
wild@@ 13
windowsill. 13
wohl@@ 13
woke 13
wonder 13
workout. 13
writ@@ 13
wunderschönes 13
ying. 13
yourself 13
zes 13
zur@@ 13
zwitsch@@ 13
züch@@ 13
älteren 13
ätze 13
äume 13
äuß@@ 13
überwin@@ 13
""Carpe 12
""D@@ 12
""Game 12
""Lebe 12
""Live 12
"Glück 12
10. 12
12. 12
14. 12
16. 12
17. 12
18. 12
22. 12
23. 12
27. 12
31. 12
36. 12
37. 12
41. 12
43. 12
53. 12
58. 12
59. 12
6. 12
64. 12
66. 12
67. 12
69. 12
73. 12
75. 12
77. 12
82. 12
85. 12
91. 12
92. 12
94. 12
96. 12
97. 12
99. 12
Album 12
Arbeitsstelle 12
Architektur@@ 12
Ausdauer 12
Australi@@ 12
Barbecu@@ 12
Bestes, 12
Blä@@ 12
Bob 12
Brücke 12
Burger 12
Cam@@ 12
Carbonar@@ 12
Col@@ 12
Computerspiele 12
Delf@@ 12
Desig@@ 12
Dunkelheit 12
Engli@@ 12
Eule 12
Faul@@ 12
Feder@@ 12
Feuers 12
Fin@@ 12
Fing@@ 12
Fisch@@ 12
Fl@@ 12
Fluss@@ 12
Formen 12
Gam@@ 12
Gedichten 12
Gefüh@@ 12
Gesten 12
Gin 12
Grundlage 12
Grupp@@ 12
Handy@@ 12
Hek@@ 12
Her@@ 12
Horror@@ 12
Hühn@@ 12
Indian 12
Individu@@ 12
Inspek@@ 12
James 12
Jane 12
Jogging@@ 12
Kaffee, 12
Kamera 12
Kollegen 12
Kreativitä@@ 12
Kreuzfahrt 12
Kunstgal@@ 12
Kurs 12
Käfer 12
Käsek@@ 12
Leonardo 12
Lieblingsauto 12
Lieblingsmahl@@ 12
Lieblingsmusik 12
Lieblingsmusikrichtung 12
Lieblingstiere 12
Lieblingswein 12
Lieblingsz@@ 12
Lär@@ 12
Menschenre@@ 12
Miteinander 12
Musikinstrument 12
Mün@@ 12
Na@@ 12
Netflix@@ 12
Obst@@ 12
Online-S@@ 12
Organis@@ 12
Party@@ 12
Paulo 12
Perspektive 12
Pilates. 12
Pingu@@ 12
Play@@ 12
Pri@@ 12
Puzzles 12
Regenschirm 12
Roll@@ 12
Salat 12
Sau@@ 12
Schneemann 12
Schulfreundin 12
Segeln 12
Selbstverwirklich@@ 12
Shakespeare. 12
Skateboar@@ 12
Smoothies 12
Sneak@@ 12
Spa@@ 12
Spanish. 12
Stairway 12
Street@@ 12
Sudoku 12
Tageb@@ 12
Tasche 12
Tennis@@ 12
Theateraufführ@@ 12
Theaterstü@@ 12
Tradi@@ 12
Trends 12
Uni@@ 12
Unternehm@@ 12
Vergebung 12
Vincent 12
Wach@@ 12
Wachstum 12
Weihnachtszeit 12
Weine 12
Witze 12
Wohlbe@@ 12
Wohnzimmer 12
Workaholi@@ 12
Wä@@ 12
Yoga@@ 12
Zeichn@@ 12
acation 12
again." 12
ages. 12
aktiver 12
alitä@@ 12
amm@@ 12
anc@@ 12
ang@@ 12
ange 12
ani@@ 12
ank@@ 12
anru@@ 12
anything. 12
aquarium 12
are. 12
arri@@ 12
ation." 12
aub@@ 12
aufges@@ 12
ausflug 12
auth@@ 12
aw@@ 12
bag 12
bake. 12
band@@ 12
batter@@ 12
beeinflu@@ 12
befriedig@@ 12
behandelt 12
beliebte 12
benutze 12
bert 12
besessen 12
bew@@ 12
bewegt 12
big@@ 12
bile 12
bing 12
bisher 12
branch. 12
break@@ 12
brechen 12
breeze 12
bridge 12
business@@ 12
busy. 12
capture 12
card 12
ccess 12
celebra@@ 12
changing. 12
chaotic. 12
cheerful 12
closed. 12
cloudless 12
cloudless. 12
clubs. 12
coffe@@ 12
collection. 12
combination. 12
comfort. 12
communic@@ 12
conomy 12
contempla@@ 12
corner. 12
cour@@ 12
created 12
cruise 12
cudd@@ 12
cut@@ 12
cy. 12
day's 12
day@@ 12
decision 12
deed 12
delight 12
deserve 12
designer 12
dge 12
diary 12
dich@@ 12
difficult@@ 12
dist@@ 12
diving 12
doctor 12
door@@ 12
druck 12
ducks 12
dy@@ 12
ea@@ 12
einsetzen 12
eis@@ 12
els 12
ena@@ 12
engagiere 12
enjoy. 12
entre@@ 12
enz 12
erfolgreicher 12
erfreue 12
erkenne 12
erkunde 12
erreichen, 12
eröffnen 12
essi@@ 12
exam@@ 12
exchange 12
experiment 12
extra 12
family." 12
far. 12
favorite. 12
ffe@@ 12
ffel 12
ffen 12
flattert 12
foods. 12
forms 12
fragr@@ 12
friedlicher 12
friend@@ 12
friends." 12
früher 12
fördern 12
gang 12
ged 12
gegenseitig 12
gehol@@ 12
geliebten 12
geräumi@@ 12
geschä@@ 12
gestres@@ 12
gestures 12
geträum@@ 12
give. 12
glasses 12
glitzert 12
goal-ori@@ 12
grandma 12
grow@@ 12
größten 12
gular 12
hairdresser 12
hairstyle 12
half 12
happiest 12
hear@@ 12
hec@@ 12
heights. 12
heißes 12
helfe 12
herauszuford@@ 12
him 12
holding 12
horizon 12
horizons 12
hungri@@ 12
hungry. 12
ice. 12
ide 12
ien 12
iga@@ 12
impact 12
indfulness 12
individu@@ 12
ined 12
ingen 12
instead 12
instruments. 12
introver@@ 12
invest 12
ir 12
ischt 12
issants 12
iten 12
itä@@ 12
jeans. 12
jemand 12
k." 12
kaltes 12
kel@@ 12
ken. 12
kennen 12
kis@@ 12
kit@@ 12
kümmere 12
laundry 12
lavender. 12
le-@@ 12
leads 12
lebendig, 12
lei@@ 12
letter@@ 12
letting 12
leuch@@ 12
liebevolle 12
life." 12
liger 12
ligh@@ 12
ling. 12
llen 12
loyal. 12
machine 12
matter 12
meat. 12
medicine 12
milk 12
mine. 12
morgend@@ 12
motor@@ 12
motto 12
moves 12
mysterious 12
nachhaltig 12
neueste 12
neugier@@ 12
nic@@ 12
night, 12
nights. 12
noises. 12
ns 12
nutrition 12
o-@@ 12
obser@@ 12
offenen 12
ond@@ 12
oney 12
online. 12
organis@@ 12
organisiert 12
pal@@ 12
patience 12
patience. 12
pattern@@ 12
pea@@ 12
pflanzen 12
pflege 12
photograph@@ 12
picnics 12
ping. 12
pm. 12
potential. 12
problem 12
profession. 12
punctual. 12
purpose. 12
rach@@ 12
rage 12
reality 12
reality. 12
recharge 12
rei@@ 12
religi@@ 12
remind 12
repai@@ 12
resol@@ 12
resour@@ 12
respek@@ 12
right. 12
rights. 12
ruhigen 12
satisf@@ 12
satisfied. 12
sau@@ 12
schine 12
schlend@@ 12
secure 12
segel@@ 12
self-expression. 12
serviert 12
setting. 12
sheep 12
short. 12
simp@@ 12
sin@@ 12
ski@@ 12
slowly. 12
snack. 12
society 12
sofa 12
soll 12
spazieren, 12
speak@@ 12
spend@@ 12
spontan@@ 12
sportarten 12
sque@@ 12
stadi@@ 12
stag 12
steak 12
stra@@ 12
strengths 12
styli@@ 12
süchtig 12
t's 12
teacher. 12
teilen 12
ten, 12
terrace. 12
terri@@ 12
tet, 12
that's 12
tically 12
tidy. 12
tience 12
tiere 12
toleran@@ 12
tomat@@ 12
tours 12
tours. 12
travelling 12
treasure. 12
treated 12
truly 12
täglich 12
uccin@@ 12
unfortunately 12
unterschied@@ 12
unterschiedlich 12
ure. 12
urm 12
valu@@ 12
vegetar@@ 12
ver. 12
viol@@ 12
volunteer 12
warmer 12
weaknesses. 12
weg@@ 12
won't 12
wonder@@ 12
wonderfully 12
works. 12
wundervolle 12
wärm@@ 12
wünschte 12
yourself. 12
zauber@@ 12
zi@@ 12
zin@@ 12
zz 12
überrasch@@ 12
überwinden 12
"Sport 11
' 11
11. 11
15. 11
4 11
60. 11
84. 11
8@@ 11
Aber 11
Abwechslung 11
Alt@@ 11
Am 11
Am@@ 11
Angebo@@ 11
Apfel 11
Ast 11
Auf 11
Ausdruck@@ 11
Autofahr@@ 11
Badewanne 11
Ballett 11
Base@@ 11
Bauch@@ 11
Bayern 11
Bel@@ 11
Blat@@ 11
Cany@@ 11
Com@@ 11
Ehr@@ 11
Ei@@ 11
Elefanten 11
Ent@@ 11
Entscheid@@ 11
Erinner@@ 11
Fahrradfahrer 11
Fanta@@ 11
Festiv@@ 11
Flughafen 11
Fotografien 11
Friseur@@ 11
Früh@@ 11
Frühlings@@ 11
Games 11
Gebir@@ 11
Geburtstage 11
Gegend 11
Gelass@@ 11
Gemü@@ 11
Geschäft@@ 11
Gitar@@ 11
Glaub@@ 11
Gleichheit 11
Glück, 11
Godfather@@ 11
Hawai@@ 11
Herausforderung, 11
Hitze 11
Hollyw@@ 11
Hotel 11
Häuser 11
Integr@@ 11
Jo@@ 11
Jugend@@ 11
Karten@@ 11
Kek@@ 11
Kellner 11
Kindes 11
Klar@@ 11
Klei@@ 11
Komödi@@ 11
Krieg 11
Krimi@@ 11
Krähe 11
Kunstwer@@ 11
Kur@@ 11
Kurzgeschich@@ 11
Künstler 11
Laun@@ 11
Lieblingsblume 11
Lieblingse@@ 11
Lieblingsfilmgenre 11
Lieblingsgemüse 11
Lieblingsschauspiel@@ 11
Lieblingssänger 11
Lös@@ 11
Malerei 11
Marvel@@ 11
Mathema@@ 11
Maus 11
Max. 11
Milch@@ 11
Mir 11
Mojito. 11
Musik-@@ 11
Nahr@@ 11
Netz 11
Northern 11
Pate@@ 11
Pau@@ 11
Pil@@ 11
Planet@@ 11
Plä@@ 11
Rad 11
Rechte 11
Rings. 11
Romantik 11
Roo@@ 11
Rückzugs@@ 11
Scha@@ 11
Schwäch@@ 11
Sicher@@ 11
Sing@@ 11
Smartphone 11
Snow@@ 11
Sonntag 11
Sonntag@@ 11
Sor@@ 11
Spanish 11
Spontan@@ 11
Sportler 11
Stadt, 11
Star@@ 11
Stra@@ 11
Strandurlaub 11
Straßenlaternen 11
Terrasse 11
To-Do-Liste 11
Tä@@ 11
U-@@ 11
USA 11
Vide@@ 11
Vielf@@ 11
Vögeln 11
Weihnach@@ 11
Weinen 11
Weltall 11
Whis@@ 11
Wochen 11
Year's 11
a-@@ 11
ably 11
absolutely 11
accomplish@@ 11
achtsam 11
actions. 11
add@@ 11
adventurous. 11
airplan@@ 11
allergic 11
allow 11
analy@@ 11
and-@@ 11
anfan@@ 11
angenehme 11
anim@@ 11
any@@ 11
aroma 11
asleep. 11
astron@@ 11
ative 11
ator. 11
auber@@ 11
aufregende 11
aur@@ 11
auszutau@@ 11
auß@@ 11
battery. 11
beetle 11
begeis@@ 11
behand@@ 11
beliebt@@ 11
besonderes 11
bestim@@ 11
betä@@ 11
bildung 11
binge-@@ 11
biographi@@ 11
bles 11
both 11
boy@@ 11
breath 11
breathing 11
breathtaking 11
burger 11
bust@@ 11
calling 11
captivating. 11
challen@@ 11
challenging 11
character@@ 11
check 11
ched 11
chi@@ 11
chicken 11
cks@@ 11
closed 11
closer 11
coast@@ 11
colleague 11
collec@@ 11
comple@@ 11
compo@@ 11
concept 11
concerned 11
consci@@ 11
cook@@ 11
cott@@ 11
cou@@ 11
crea@@ 11
crow 11
crowded. 11
crowds. 11
crunches 11
cted 11
dach@@ 11
dafür, 11
dam@@ 11
date. 11
decided 11
decision. 11
dent 11
dentist. 11
discovered. 11
distance 11
diverse 11
druck@@ 11
dunk@@ 11
easi@@ 11
eat. 11
educa@@ 11
eig@@ 11
eilen 11
einfache 11
empathy. 11
enen 11
energized 11
entertain 11
enth@@ 11
entra@@ 11
equal 11
erinn@@ 11
erstaunlich 11
erstes 11
erstre@@ 11
este 11
esten 11
excited. 11
farben@@ 11
fashion 11
felt 11
fesseln@@ 11
fing@@ 11
flutters 11
forder@@ 11
frisches 11
funk@@ 11
fur@@ 11
gardens. 11
ge, 11
ged. 11
geduldiger 11
gefüh@@ 11
gemeinsame 11
gemütliches 11
gen; 11
genießt 11
gesünder 11
girlfriend 11
gratitude. 11
great@@ 11
größtes 11
hairdresser. 11
ham@@ 11
heat 11
heels. 11
heirat@@ 11
helped 11
herbs. 11
hes 11
highest 11
hike. 11
hilfs@@ 11
him. 11
hinter@@ 11
his@@ 11
hl@@ 11
hlen 11
hungry 11
huscht 11
hy@@ 11
hängt 11
höh@@ 11
ib@@ 11
iction 11
idylli@@ 11
igen 11
ily. 11
inexhaustible 11
inside. 11
introverted 11
ir. 11
irreplaceable. 11
italien@@ 11
italienisches 11
itt 11
jogge 11
judi@@ 11
juice. 11
juicy. 11
kar@@ 11
kin@@ 11
kla@@ 11
kom@@ 11
komplizier@@ 11
kün@@ 11
laub 11
lazily 11
leicht 11
leidenschaft@@ 11
letters. 11
letz@@ 11
licht 11
lifestyle 11
ling@@ 11
lukewarm 11
mali@@ 11
management 11
marke@@ 11
mass@@ 11
math 11
me, 11
ment." 11
meow@@ 11
min 11
moments. 11
morgen@@ 11
mories 11
motivated. 11
mountain. 11
mäch@@ 11
mö@@ 11
möglich@@ 11
nar@@ 11
nature, 11
needs. 11
nervös 11
newspaper@@ 11
ning. 11
nisse 11
nowledge 11
ocean. 11
ome 11
ong 11
ood. 11
open-air 11
optimist@@ 11
order. 11
ore 11
ough 11
ource 11
owning 11
painted 11
ped 11
perfektes 11
picnics. 11
pil@@ 11
planet 11
plans. 11
plaud@@ 11
playful. 11
poems 11
postcards. 11
pper@@ 11
progra@@ 11
program@@ 11
progress. 11
protec@@ 11
rafting 11
ragen 11
re, 11
ream@@ 11
reason 11
receive 11
ref@@ 11
reflection 11
refresh@@ 11
rene@@ 11
renovated 11
requires 11
respe@@ 11
respectful 11
rewar@@ 11
richt@@ 11
rier@@ 11
ritual. 11
rolls 11
sa 11
sagen 11
sagn@@ 11
sail@@ 11
sauber@@ 11
scha@@ 11
schein 11
schie@@ 11
schlim@@ 11
schreck@@ 11
self-determin@@ 11
self-love. 11
serves 11
sewing 11
shells 11
shi@@ 11
shoe 11
sicher@@ 11
side 11
skating 11
ski 11
sli@@ 11
small. 11
sn@@ 11
snugg@@ 11
sociable 11
sofort 11
sold 11
sollte, 11
soul@@ 11
spin@@ 11
splend@@ 11
splendor. 11
spontaneous. 11
spontaner 11
spread 11
stein 11
stol@@ 11
stress@@ 11
stressigen 11
studiere 11
success 11
summ@@ 11
sunglasses 11
sunlight. 11
surround@@ 11
sustain@@ 11
sweater 11
sy 11
tage 11
tal 11
tens 11
thre@@ 11
tiven 11
tiz@@ 11
toler@@ 11
tor 11
total 11
trainiere 11
trains 11
trie@@ 11
truth 11
träum@@ 11
tät 11
tätig 11
uchs 11
umge@@ 11
umweltbewusst 11
umweltfreundlich 11
unabhängige 11
unbesch@@ 11
unerschöpfliche 11
unersetz@@ 11
unglücklich 11
uni@@ 11
uniqu@@ 11
unity 11
unver@@ 11
using 11
va@@ 11
varie@@ 11
vegan 11
vel@@ 11
vely 11
vent 11
verdienen 11
vergess@@ 11
version 11
vielfäl@@ 11
viron@@ 11
visi@@ 11
vit@@ 11
wachs@@ 11
wacht 11
waiter 11
wakes 11
wall. 11
want. 11
wasch@@ 11
watch@@ 11
weniger 11
wirkt 11
with@@ 11
worries. 11
wr@@ 11
wunderbarer 11
yellow. 11
zaub@@ 11
zaubern 11
zed 11
zipl@@ 11
zo@@ 11
zug 11
ät 11
überlege, 11
üh@@ 11
(Note: 10
-B@@ 10
2 10
24. 10
25. 10
26. 10
3. 10
32. 10
33. 10
35. 10
38. 10
45. 10
46. 10
48. 10
5. 10
52. 10
55. 10
6 10
65. 10
68. 10
71. 10
74. 10
78. 10
79. 10
80. 10
81. 10
86. 10
88. 10
89. 10
90. 10
93. 10
95. 10
Aktivitä@@ 10
Apple 10
Arbeitskolle@@ 10
Aufmerk@@ 10
Ausland@@ 10
Autorenn@@ 10
Bach 10
Betrach@@ 10
Bewusstsein 10
Blickwin@@ 10
Brief@@ 10
Bril@@ 10
Brise 10
CD@@ 10
Chines@@ 10
Chr@@ 10
Dekor@@ 10
Deta@@ 10
Dunkel@@ 10
E-Mail 10
Earth 10
Einzigar@@ 10
El@@ 10
English. 10
Erdn@@ 10
Erkenntnisse 10
FC 10
Fairness 10
Fakt@@ 10
Fehl@@ 10
Fest 10
Fir@@ 10
Freita@@ 10
French 10
Frisur@@ 10
Frühaufsteh@@ 10
Frühling@@ 10
Fu@@ 10
Gan@@ 10
Gardening 10
Gebäu@@ 10
Gemüt 10
Gemütliche 10
German@@ 10
Germany 10
Gesellschafts@@ 10
Gesellschaftsspiele 10
Gi@@ 10
Grand 10
Großmutter 10
Gump@@ 10
Gärten 10
Gärtnern 10
Hal@@ 10
Hallo@@ 10
Herbstfar@@ 10
Hilfe 10
Hoffn@@ 10
Höh@@ 10
Hör@@ 10
Hören 10
Innenstadt 10
Jacks@@ 10
Jogging 10
Kam@@ 10
Karrier@@ 10
Kill 10
Knistern 10
Kolle@@ 10
Kommunik@@ 10
Konzept 10
Kri@@ 10
Krie@@ 10
Krise 10
Kräuter 10
Kunstwerk 10
Köch@@ 10
Lapto@@ 10
Lauf 10
Lek@@ 10
Lektion 10
Lis@@ 10
Lo@@ 10
Loy@@ 10
Mal@@ 10
Marath@@ 10
Mocking@@ 10
Museums@@ 10
Möwen 10
Nachbar@@ 10
Naturdokument@@ 10
Nord@@ 10
Note 10
Nut@@ 10
Ohr 10
Oktober@@ 10
Oper@@ 10
Organ@@ 10
Podcast@@ 10
Pol@@ 10
Post 10
Problem 10
Rasen 10
Regal 10
Regent@@ 10
Regenta@@ 10
Reichtum 10
Roger 10
Roman 10
Schnit@@ 10
Schrit@@ 10
Secon@@ 10
Seit@@ 10
Selbstbewus@@ 10
Smooth@@ 10
Sommerabende 10
Sonnenblume 10
Sonnenlicht 10
Souvenirs 10
Spaziergan@@ 10
Spaß, 10
Sternschnupp@@ 10
Stimm@@ 10
Städ@@ 10
Sudoku@@ 10
Tarantino. 10
Teamplay@@ 10
Ter@@ 10
Theater@@ 10
Theaterstücke 10
Traumauto 10
Traumberuf 10
Treib@@ 10
USA. 10
Umweltschutz@@ 10
Vanil@@ 10
Vegetar@@ 10
Verspät@@ 10
Vinylplat@@ 10
Visi@@ 10
Vogelgezwitscher 10
Vorbild 10
Wahl@@ 10
Wanderungen 10
Wart@@ 10
Was 10
Wege 10
Weinpro@@ 10
Werk@@ 10
Wert@@ 10
Wochenende, 10
Wohl@@ 10
YouTu@@ 10
Zahn@@ 10
Zimt 10
Zwe@@ 10
Züge 10
abzuschal@@ 10
accep@@ 10
achieve. 10
adap@@ 10
adrenal@@ 10
adventur@@ 10
af@@ 10
affe@@ 10
aktu@@ 10
alen 10
allergisch 10
altes 10
ambi@@ 10
ane@@ 10
angefan@@ 10
angefangen, 10
angelt 10
animated 10
ans@@ 10
antly. 10
ap@@ 10
appears 10
appoint@@ 10
arbeit 10
ate." 10
athlete 10
athlete. 10
athletic 10
ational 10
atis@@ 10
aufhören, 10
ausgiebig@@ 10
aussie@@ 10
authentic. 10
awaren@@ 10
bal 10
banan@@ 10
bars 10
bathtub. 10
bequem@@ 10
bere@@ 10
bereichert 10
bess@@ 10
besser, 10
besserer 10
bla@@ 10
bleiben, 10
blooms 10
brann@@ 10
brea@@ 10
bring. 10
bringing 10
business 10
came 10
campfire. 10
can. 10
carry 10
carrying 10
cause. 10
celebr@@ 10
certain 10
challenging. 10
cheesecake. 10
chim@@ 10
city, 10
clar@@ 10
classes. 10
classi@@ 10
climb 10
clou@@ 10
colo@@ 10
color@@ 10
comb@@ 10
community 10
confident. 10
crawling 10
cri@@ 10
danc@@ 10
day, 10
dealing 10
deb@@ 10
deep. 10
delayed. 10
denen 10
dent@@ 10
dentist 10
departs 10
deta@@ 10
difficul@@ 10
dit@@ 10
dog@@ 10
downs. 10
drinks. 10
dunkle 10
dur@@ 10
educate 10
eichen 10
einfacher 10
eleph@@ 10
elix@@ 10
emails 10
ement. 10
emotions 10
empathetic. 10
employe@@ 10
ems 10
en-@@ 10
endless. 10
enery 10
ented 10
ently. 10
entschlossen, 10
entspannter 10
eping 10
er-@@ 10
er/@@ 10
eres 10
erinnern 10
erneu@@ 10
eröffn@@ 10
essert 10
ester@@ 10
etting 10
exhausting 10
exper@@ 10
faster. 10
faszinierendes 10
fear 10
fears. 10
feelings. 10
ficial 10
fiel@@ 10
finding 10
fishing. 10
flying. 10
formation. 10
fulfillment. 10
fut@@ 10
fy 10
führung 10
füreinander 10
galoppiert 10
gemacht; 10
gemächlich 10
genres 10
gestalte 10
gestri@@ 10
ght 10
glaub@@ 10
glich 10
golden 10
grandmother 10
grast 10
grou@@ 10
gönne 10
h. 10
hab 10
hanging 10
harbor. 10
harmonious 10
haus 10
heals 10
healthier. 10
hed 10
herit@@ 10
hnen 10
holi@@ 10
homel@@ 10
human@@ 10
humi@@ 10
hurry 10
hä@@ 10
ical 10
iel@@ 10
iges 10
igkeiten 10
impressi@@ 10
in-@@ 10
independence 10
independence. 10
individual 10
indoors 10
infor@@ 10
informa@@ 10
inspiriert, 10
intelligen@@ 10
invention. 10
ira@@ 10
irresistible. 10
ism 10
iss@@ 10
itat 10
itself. 10
jeans 10
jemandem 10
jemanden 10
jog. 10
jokes. 10
kaput@@ 10
ke-@@ 10
keeping 10
kes. 10
kleiner 10
kleines 10
klopft 10
knitting. 10
known 10
kombin@@ 10
komme 10
komp@@ 10
kra@@ 10
ku@@ 10
kuchen 10
köstliches 10
lage 10
lay 10
lear@@ 10
left 10
lemonade. 10
len 10
liked 10
lonely. 10
loy@@ 10
loyaler 10
luft 10
lungs. 10
läch@@ 10
magnificent. 10
mail@@ 10
maintain 10
master 10
meditating 10
meisten 10
menschlichen 10
mic 10
mittel@@ 10
moo@@ 10
morn@@ 10
motivation. 10
motorcycle. 10
mouse 10
move. 10
music@@ 10
musicals. 10
mä@@ 10
n, 10
nah@@ 10
necessary. 10
neighbor 10
neighborhood 10
neighbors 10
neugieriger 10
non-fiction 10
nutze 10
nächster 10
ob 10
oc@@ 10
ol. 10
opinions. 10
optimist. 10
ordn@@ 10
ori@@ 10
orilla 10
oul@@ 10
outfit 10
outh 10
pants. 10
particip@@ 10
patient. 10
performan@@ 10
perfume 10
persönlich 10
pfeift 10
picturesque. 10
pleasures 10
practical 10
profession@@ 10
program 10
progress 10
publi@@ 10
push 10
rac@@ 10
ral 10
ran 10
reader. 10
ready. 10
regelmäß@@ 10
region@@ 10
reichen 10
reparieren 10
respekti@@ 10
responsibility. 10
rest. 10
rezep@@ 10
rhyth@@ 10
road@@ 10
roaring 10
roof 10
ruhige 10
satisfaction. 10
sauna 10
sca@@ 10
schlechte 10
schmilzt 10
schnapp@@ 10
schre@@ 10
schreibt 10
schwit@@ 10
scurries 10
seagull 10
secon@@ 10
security 10
seems 10
self-realization. 10
send@@ 10
sent 10
ses@@ 10
she@@ 10
shes 10
shop. 10
show@@ 10
significance 10
simplicity 10
sinn@@ 10
sinnvoll 10
sister. 10
sites. 10
soli@@ 10
solidarity. 10
soothing 10
sorge 10
sorting 10
spectacle. 10
spo@@ 10
sportliche 10
spra@@ 10
st, 10
sta. 10
stehen, 10
stellung 10
step 10
stets 10
strange 10
stres@@ 10
study 10
style 10
subje@@ 10
successes. 10
sunbathing 10
sunlight 10
surround 10
survi@@ 10
switch 10
symboli@@ 10
system. 10
tast@@ 10
teach@@ 10
team. 10
techni@@ 10
telling 10
terra@@ 10
ters 10
tex@@ 10
theatre 10
thought 10
thrill@@ 10
throughout 10
ths. 10
tiful 10
tively. 10
tivity. 10
today." 10
tomato 10
tonight 10
tor@@ 10
town. 10
trainiert 10
tranquility 10
traveled 10
treibt 10
trock@@ 10
uhe 10
ulti@@ 10
umming 10
understand@@ 10
unds 10
unt 10
unusual 10
unvergessliches 10
unwidersteh@@ 10
vation. 10
vegetarische 10
verführer@@ 10
verlieren 10
versu@@ 10
verwand@@ 10
vice 10
videos. 10
vieles 10
vin@@ 10
vis@@ 10
visit. 10
visits 10
volleyball. 10
wanted 10
warmth. 10
waterfalls 10
ways. 10
web@@ 10
weeks. 10
ween 10
welt 10
wohltu@@ 10
wom@@ 10
world.""" 10
worries 10
wächst 10
wähl@@ 10
year@@ 10
years 10
zaubert 10
ze@@ 10
zeiten 10
zig@@ 10
zuhau@@ 10
zurückzu@@ 10
zusammen@@ 10
Über@@ 10
ähr@@ 10
öffentlichen 10
ör@@ 10
!@@ 9
""Das 9
"Einen 9
-Tour 9
7@@ 9
Abschlu@@ 9
Ameise 9
Ampel 9
Anfang 9
Anti@@ 9
Apfelkuchen 9
B. 9
Bade@@ 9
Ban@@ 9
Banan@@ 9
Basteln 9
Beatles. 9
Begleit@@ 9
Beispiel 9
Bereich@@ 9
Beru@@ 9
Beruhig@@ 9
Bettwä@@ 9
Billar@@ 9
Blu@@ 9
Bon@@ 9
Boot 9
Boot@@ 9
Bröt@@ 9
Bus@@ 9
Carpe 9
Coelho@@ 9
Come@@ 9
Desserts 9
Deutsch@@ 9
Dieses 9
Diskriminier@@ 9
Diskussion 9
Disney 9
Disney@@ 9
Dokument@@ 9
Durch@@ 9
Ehe@@ 9
Eiscre@@ 9
Emails 9
Entdecken 9
Ereignisse 9
Ernähr@@ 9
Espres@@ 9
Etwas 9
Experim@@ 9
Finanzen 9
For 9
Forsch@@ 9
Frau@@ 9
Freizeitaktivitäten 9
Frem@@ 9
Fußballspiele 9
Füße 9
Gad@@ 9
Ganzen 9
Geocaching 9
Geschichts@@ 9
Geste 9
Gewis@@ 9
Glüh@@ 9
Handys 9
Hea@@ 9
Hängematte 9
Hö@@ 9
Ihnen 9
Ihre 9
Interesse 9
J.@@ 9
Job, 9
Junk@@ 9
Kamer@@ 9
Kaminfeu@@ 9
Karibi@@ 9
Karne@@ 9
Kartoff@@ 9
Kerzenlicht 9
Kla@@ 9
Klamo@@ 9
Klassik@@ 9
Knacken 9
Kom@@ 9
Kr@@ 9
Kunsthand@@ 9
Kürbis@@ 9
Lebenselix@@ 9
Libelle 9
Liebe, 9
Lieblingsbier 9
Lieblingsmusiker 9
Lieblingsspeise 9
Lieblingssüßig@@ 9
Marmelade 9
Mit 9
Mitarbeit@@ 9
Mittag 9
Mond@@ 9
Motiv@@ 9
Mutter@@ 9
My@@ 9
Möwe 9
Nachbarschaft 9
Nachrich@@ 9
Nektar 9
Netz@@ 9
Nickerchen 9
Nu@@ 9
Organisation@@ 9
Origin@@ 9
Oze@@ 9
Pal@@ 9
Papier 9
Person, 9
Physi@@ 9
Poe@@ 9
Poll@@ 9
Proble@@ 9
Reality@@ 9
Regentropfen 9
Reisen, 9
Roadtrips 9
Romant@@ 9
Saturday 9
Schiffe 9
Schildkröte 9
Schlange 9
Schnee@@ 9
Schnäpp@@ 9
Schwar@@ 9
Sci-Fi@@ 9
Seg@@ 9
Selbstreflexion 9
Sha@@ 9
Sich 9
Skateboard 9
Sonne, 9
Span@@ 9
Spazier@@ 9
Spazieren@@ 9
Spinn@@ 9
Sport, 9
Sternen 9
Stor@@ 9
Street 9
Stress@@ 9
Städte@@ 9
Tages@@ 9
Tassen 9
Teilen 9
Toler@@ 9
Torte 9
Traumurlaub 9
Videos 9
Vorbil@@ 9
Wachst@@ 9
Weihnachtsmar@@ 9
Weite 9
Weiterentwick@@ 9
Weiß@@ 9
Wellness-@@ 9
Weltre@@ 9
Wil@@ 9
Wis@@ 9
Wunder@@ 9
Yoga-Kurs 9
Zeitschrif@@ 9
Zitron@@ 9
Zuck@@ 9
abl@@ 9
above 9
acc@@ 9
acci@@ 9
accomplish 9
according 9
admit 9
adventurer 9
afternoon 9
airport 9
airport@@ 9
ak. 9
aktuelle 9
al-@@ 9
album@@ 9
alleine, 9
already. 9
ame 9
anders 9
angeru@@ 9
anne 9
annivers@@ 9
anno@@ 9
ans. 9
appear@@ 9
appreci@@ 9
approach@@ 9
arbeiten, 9
arten 9
artic@@ 9
attention. 9
audio@@ 9
aufgeschlossener 9
ausdrück@@ 9
ausgeprägte 9
aware 9
bab@@ 9
backpa@@ 9
baker@@ 9
barfuß 9
based 9
beaches 9
beautiful@@ 9
beeinflusst 9
bekomme 9
beliebter 9
bellen 9
besonderen 9
beverage. 9
bildet 9
bin, 9
bloom. 9
bookworm. 9
breaks 9
broke 9
brow@@ 9
bru@@ 9
burgers. 9
butter@@ 9
buzzes 9
cal@@ 9
cally 9
carefree 9
case. 9
cast 9
center@@ 9
chatting 9
chips 9
chir@@ 9
cial 9
cie@@ 9
cleaning 9
coa@@ 9
cohesi@@ 9
colleagu@@ 9
comics 9
comm@@ 9
compon@@ 9
consciously 9
consider@@ 9
contro@@ 9
conversa@@ 9
corn 9
courage@@ 9
coz@@ 9
crack@@ 9
craf@@ 9
craft 9
ctions. 9
ctive 9
ctu@@ 9
cuisines. 9
cut. 9
cy 9
cyclist 9
danach, 9
dank@@ 9
darüber, 9
de-@@ 9
deck@@ 9
ded. 9
deer 9
demand@@ 9
denn 9
deshalb 9
desk 9
desk. 9
destination. 9
difference 9
dige 9
dili@@ 9
dinn@@ 9
discuss 9
discussion 9
displays 9
doctor. 9
don@@ 9
dragonfly 9
drin@@ 9
driving. 9
earch 9
egal 9
eher 9
eil 9
ein, 9
einfa@@ 9
eins 9
elderly 9
elegan@@ 9
enc@@ 9
ences. 9
encourage 9
ended 9
enh@@ 9
enterta@@ 9
entertain@@ 9
entfal@@ 9
entspannt, 9
environments. 9
eption@@ 9
erfordert 9
erkund@@ 9
ern, 9
ernen 9
esorten 9
essential. 9
ests. 9
eti@@ 9
everyone. 9
expands 9
experim@@ 9
faith 9
faith@@ 9
fana@@ 9
fantasy. 9
faraway 9
fate. 9
fau@@ 9
faul@@ 9
fears 9
fee@@ 9
finan@@ 9
finden, 9
fing 9
fir@@ 9
flexible 9
floor. 9
fluff@@ 9
fond 9
forgive 9
formen 9
forsch@@ 9
fulfilling. 9
fun@@ 9
fundamental 9
fäl@@ 9
führe 9
füll@@ 9
füllt 9
garten 9
gebackenen 9
gebr@@ 9
gegen@@ 9
gelauf@@ 9
geleb@@ 9
genu@@ 9
gepfle@@ 9
gere@@ 9
gerech@@ 9
gesture 9
gic 9
gin 9
glitzern 9
glücklichen 9
glücklichsten, 9
going. 9
gone 9
grandi@@ 9
grew 9
grilling. 9
growth 9
großartigen 9
gy@@ 9
hairstyle. 9
handle 9
hats. 9
heal 9
healthily. 9
hearty 9
heavy 9
heilt 9
helpful. 9
herbs 9
herum@@ 9
hig 9
highly 9
hne 9
hob@@ 9
hohen 9
hold 9
hometown. 9
host 9
host@@ 9
hätte, 9
höf@@ 9
hören, 9
ild@@ 9
illuminates 9
imagin@@ 9
improving 9
in." 9
individual. 9
ing-@@ 9
ingredi@@ 9
innovations. 9
ins@@ 9
insects. 9
inside 9
inspirierend, 9
instruments 9
inte@@ 9
interests. 9
interview 9
inviting 9
isst 9
issues. 9
ith 9
ize 9
jahr 9
journey, 9
junge 9
kasten 9
kennt 9
kenntnisse 9
key@@ 9
ki 9
kind@@ 9
klettert 9
klingen 9
knows 9
kontaktfreu@@ 9
kostbares 9
kräf@@ 9
kulturellen 9
kunst@@ 9
langes 9
language@@ 9
lation 9
laufe 9
laugh@@ 9
lavender 9
leaf. 9
lemon. 9
lemon@@ 9
less. 9
let@@ 9
liberating. 9
lief 9
lies. 9
liter@@ 9
lonely 9
long-@@ 9
low@@ 9
lows 9
loyal@@ 9
luck@@ 9
lustiger 9
ly, 9
länger 9
maintenance. 9
make@@ 9
mathematics. 9
meadow@@ 9
mehr@@ 9
mehrere 9
mei@@ 9
meister@@ 9
message 9
mexikan@@ 9
mindfulness. 9
mint 9
minut@@ 9
momentan 9
mornings. 9
multi@@ 9
musikali@@ 9
mysteries. 9
märk@@ 9
nachdenk@@ 9
natürliche 9
ned. 9
nega@@ 9
news. 9
notwend@@ 9
novel 9
näher 9
oes. 9
ogra@@ 9
ograph@@ 9
open. 9
ordered 9
organizational 9
original 9
oth@@ 9
over. 9
pants 9
pastime. 9
pengu@@ 9
philosophical 9
picnic. 9
picnicking 9
player 9
ploring 9
poetry 9
poetry. 9
pollu@@ 9
poor@@ 9
por@@ 9
power@@ 9
ppe 9
pped 9
preneur@@ 9
presents. 9
prou@@ 9
prägen 9
pumpk@@ 9
punctu@@ 9
pure 9
putting 9
ques@@ 9
quietly 9
quirrels 9
quiz 9
quo@@ 9
raining. 9
rains. 9
reflect. 9
refreshed. 9
reisen, 9
relative. 9
reminis@@ 9
ren@@ 9
repairing 9
repar@@ 9
respectful. 9
retro 9
richtigen 9
riding. 9
ritu@@ 9
rollercoaster 9
routine. 9
row 9
rust 9
rustles 9
sage 9
sauce. 9
scar@@ 9
schaut 9
schmer@@ 9
schmie@@ 9
schö@@ 9
schüch@@ 9
schützt 9
science-fiction 9
screech@@ 9
seagulls 9
seek 9
sehne 9
sehr, 9
selten 9
service. 9
session 9
set. 9
shade 9
shapes 9
shapes. 9
shir@@ 9
shy. 9
sicht@@ 9
sions. 9
sity 9
sitze 9
smartphone 9
smoothies. 9
sne@@ 9
son. 9
sondern 9
soothing@@ 9
sozi@@ 9
sozialen 9
space. 9
sparkles 9
species 9
spiegelt 9
spiritual 9
spoke 9
spontane@@ 9
spü@@ 9
star 9
store. 9
stores. 9
stour 9
strawberries. 9
strengths. 9
strolling 9
strongly. 9
sts. 9
stuff@@ 9
stör@@ 9
stür@@ 9
submit 9
successfully 9
suff@@ 9
sunflower 9
sunflowers. 9
sunglasses. 9
sunny. 9
suppor@@ 9
support@@ 9
t-@@ 9
talented 9
tall 9
task 9
tasting 9
taucht 9
telefoniere 9
temperatures. 9
tert 9
thin@@ 9
tial 9
tier 9
tierter 9
tion." 9
tired, 9
tires. 9
tives. 9
today@@ 9
togethern@@ 9
topic 9
tower 9
trade 9
trail 9
tram 9
translates 9
traurig, 9
turtle 9
ulture 9
ums 9
unabhäng@@ 9
uncomfortable. 9
unend@@ 9
ungsges@@ 9
unhappy. 9
unterhält 9
unterkrie@@ 9
upset 9
urgently. 9
urlaub@@ 9
ury 9
useful 9
uts. 9
utter@@ 9
vast@@ 9
ve.""" 9
vegan. 9
vel. 9
verantwortlich 9
verbreitet 9
verein 9
vergangene 9
vertrauenswürdig@@ 9
vo@@ 9
voice. 9
vol@@ 9
volunte@@ 9
vorgenommen, 9
wagen 9
warmem 9
wash. 9
wberries 9
web. 9
whe@@ 9
while. 9
whis@@ 9
wich 9
wider@@ 9
wissen@@ 9
wit@@ 9
wn 9
wollte 9
wood. 9
workday 9
yo@@ 9
you're 9
you@@ 9
ziel@@ 9
zing 9
zoo@@ 9
zusammenzu@@ 9
zut@@ 9
zuverlässiger 9
äck 9
üch@@ 9
ücken 9
üf@@ 9
"")" 8
""Forrest 8
""Life 8
"Sich 8
'll 8
-Studi@@ 8
00 8
40. 8
500 8
72. 8
87. 8
90@@ 8
:@@ 8
Accesso@@ 8
Africa. 8
Amaz@@ 8
America. 8
Ani@@ 8
Antar@@ 8
Antiquitäten@@ 8
Arztter@@ 8
Auslands@@ 8
Aussi@@ 8
Auswirkungen 8
Barcelon@@ 8
Basis 8
Bauern@@ 8
Bauernhof 8
Berl@@ 8
Bestimmung 8
Beyonc@@ 8
Bibliothek@@ 8
Bolognes@@ 8
Bri@@ 8
Bru@@ 8
Buchhand@@ 8
Bäcker@@ 8
Bücherwur@@ 8
Bür@@ 8
Cab@@ 8
Can@@ 8
Car@@ 8
Caribbean. 8
Chinesisch 8
Cocktail 8
DVD@@ 8
David 8
DiCapri@@ 8
Diem@@ 8
Dok@@ 8
Doku 8
Eink@@ 8
Einladung 8
Emo@@ 8
Enthusia@@ 8
Erhol@@ 8
Eve 8
Faszination 8
Fern@@ 8
Fes@@ 8
Fiction@@ 8
Film, 8
Fla@@ 8
Flie@@ 8
Flugzeuge 8
Fol@@ 8
Forrest 8
Fortbeweg@@ 8
Fortschrit@@ 8
Fotoalben 8
Fra@@ 8
Freude, 8
Frisbee 8
Fußballspiel 8
Gastge@@ 8
Gatsby@@ 8
Gedul@@ 8
Gegenstän@@ 8
Geh@@ 8
Gehirn 8
Gemüt@@ 8
Genuss@@ 8
George 8
Germany. 8
Geschäf@@ 8
Gespräch@@ 8
Gesunde 8
Gewit@@ 8
Great 8
Gär@@ 8
Haf@@ 8
Handlungen 8
Harmon@@ 8
Harry-@@ 8
Hemd 8
High 8
Hose 8
Hotel@@ 8
Hotelzimmer 8
Imm@@ 8
Independ@@ 8
Italien@@ 8
K. 8
Kaf@@ 8
Kell@@ 8
Klav@@ 8
Kleidungsstücke 8
Kno@@ 8
Kraft, 8
Kulturveranstalt@@ 8
Kämp@@ 8
Käse@@ 8
Künste 8
Lab@@ 8
Lach@@ 8
Lebenswe@@ 8
Lebensweise 8
Leich@@ 8
Leist@@ 8
Lieblingsp@@ 8
Lieblingsreiseziel 8
Lieblingssportler 8
Lipp@@ 8
Live 8
Lotto 8
Louv@@ 8
Mahl@@ 8
Marienkäfer 8
Marke@@ 8
Meeresfrüch@@ 8
Meerwasser 8
Meryl 8
Met@@ 8
Metamorpho@@ 8
Michel@@ 8
Mis@@ 8
Motto 8
Märkten 8
Nation@@ 8
Naturw@@ 8
Negativität 8
Nor@@ 8
Not 8
Notwendigkeit 8
Nü@@ 8
Obstsal@@ 8
Online-@@ 8
Open-Air@@ 8
Philosoph@@ 8
Pi@@ 8
Plan 8
Plätschern 8
Pre@@ 8
Pres@@ 8
Pulp 8
Puzz@@ 8
Pärchen 8
Quiz@@ 8
Radio@@ 8
Rauchen 8
Rede 8
Redemp@@ 8
Reh 8
Reit@@ 8
Retro-@@ 8
Rhapsody"" 8
Rout@@ 8
Rätsel@@ 8
Rö@@ 8
Safari 8
Sara@@ 8
Schreibens 8
Schritt 8
Schwan 8
Schwier@@ 8
Schü@@ 8
Sei@@ 8
Sit@@ 8
Situ@@ 8
Sonnenlich@@ 8
Sonntage 8
South 8
Spaziergän@@ 8
Spaziergängen 8
Sprache, 8
Sprachkurs 8
Strahlen 8
Stranger 8
Straßenbahn 8
Strände 8
Surfen 8
T-@@ 8
Teich@@ 8
Tes@@ 8
Tex@@ 8
Thr@@ 8
Titan@@ 8
Train@@ 8
Umgang 8
Umwel@@ 8
Ur@@ 8
Veget@@ 8
Verbesser@@ 8
Vergnügungspar@@ 8
Versuch@@ 8
Vin@@ 8
Vogelges@@ 8
Wald@@ 8
Wind@@ 8
Zeh@@ 8
Zentrum 8
Zug@@ 8
Zumba@@ 8
Zut@@ 8
able@@ 8
absolutes 8
accessor@@ 8
accompanies 8
acqua@@ 8
activ@@ 8
actor. 8
advanta@@ 8
adventure, 8
advisor. 8
affect 8
ak 8
aking 8
akzeptiere 8
ales 8
alisi@@ 8
alle@@ 8
allen@@ 8
allerg@@ 8
amaz@@ 8
amazed 8
anger@@ 8
anten 8
antiques. 8
antly 8
aries. 8
ark 8
arrived 8
ath 8
aufrich@@ 8
ausgeglich@@ 8
ausgewogene 8
ausschlafen 8
autum@@ 8
balloon 8
barbecu@@ 8
barefoot 8
bas@@ 8
basis 8
beach@@ 8
bear 8
beflü@@ 8
beginning 8
begleitet 8
beizu@@ 8
beliefs 8
bench. 8
bereich@@ 8
beruf@@ 8
beschäftig@@ 8
besseres 8
besteht 8
bewunder@@ 8
bewäl@@ 8
bezahl@@ 8
bicycles. 8
birthdays. 8
bis@@ 8
bitter. 8
blessed 8
bling 8
blossom@@ 8
blum@@ 8
bly. 8
blä@@ 8
boar@@ 8
book.""" 8
boot 8
born 8
boundaries. 8
brain 8
brings. 8
broccoli. 8
broke. 8
brother 8
café@@ 8
cafés. 8
calls. 8
camer@@ 8
carri@@ 8
caus@@ 8
challenge, 8
cher. 8
ches. 8
choose 8
cht, 8
chur@@ 8
clim@@ 8
climb. 8
climbs 8
coaster 8
coat 8
cockta@@ 8
coexistence. 8
collabor@@ 8
comforting. 8
complicated. 8
consists 8
conve@@ 8
cooper@@ 8
courage. 8
crafting. 8
craftsman@@ 8
creatures. 8
crisis 8
crowds 8
crows 8
cted. 8
ctor 8
cuisine 8
cyclist. 8
dabei@@ 8
daher 8
dances 8
dden 8
dec@@ 8
denti@@ 8
desserts. 8
dgeho@@ 8
diem@@ 8
dien@@ 8
direkt 8
discipl@@ 8
discoveries. 8
dly. 8
doctor's 8
doors. 8
dort 8
dreamt 8
drinker. 8
duf@@ 8
eas@@ 8
edly 8
edly. 8
effek@@ 8
einfühl@@ 8
einlad@@ 8
ek 8
elevision 8
eliness 8
email. 8
empty 8
enchan@@ 8
enchant 8
enchanting. 8
endless 8
enem 8
energe@@ 8
enes 8
ent, 8
entific 8
entscheidend 8
entspannendes 8
erfolgreichen 8
erfrischende 8
erhe@@ 8
ermu@@ 8
erns@@ 8
ernseh@@ 8
errands. 8
erranean 8
ests 8
ever 8
exercises. 8
exhibi@@ 8
expanding 8
factor 8
fanta@@ 8
farm 8
festival. 8
file 8
findet 8
fis@@ 8
flausch@@ 8
flavor@@ 8
flexib@@ 8
flü@@ 8
foot@@ 8
forgiveness. 8
forth 8
fra@@ 8
freie 8
fres@@ 8
freundlicher 8
fridge 8
friedliche 8
friedlichen 8
frighten@@ 8
frustr@@ 8
frustri@@ 8
frühen 8
frühstück 8
ful." 8
fulfil@@ 8
fulfill@@ 8
function@@ 8
furnis@@ 8
füh@@ 8
füttert 8
gathering 8
gefallene 8
gefunden, 8
gefühl@@ 8
gelt 8
gement 8
genden 8
genen 8
genres. 8
gentle 8
gespro@@ 8
ght. 8
ging. 8
given 8
gleiten 8
goo@@ 8
grade 8
grandparents. 8
greif@@ 8
grilled 8
größ@@ 8
grüß@@ 8
gt, 8
gä@@ 8
gönn@@ 8
halt@@ 8
hands 8
hard@@ 8
harte 8
harter 8
head 8
herzu@@ 8
highlight. 8
highway. 8
hir@@ 8
holiday. 8
hoppelt 8
hour. 8
house@@ 8
ht, 8
hug. 8
humorous 8
hurry. 8
hü@@ 8
ici@@ 8
iele 8
igur@@ 8
imagination 8
immedi@@ 8
immer@@ 8
implement 8
impo@@ 8
impres@@ 8
inc@@ 8
indis@@ 8
indrops 8
iness. 8
ingly. 8
innova@@ 8
intensi@@ 8
interpersonal 8
introvertierter 8
invest@@ 8
inviting. 8
ish. 8
ish@@ 8
it.""" 8
italienische 8
jack@@ 8
job, 8
joying 8
juic@@ 8
jum@@ 8
jump. 8
kat@@ 8
ke-up 8
kindness. 8
kinds 8
klare 8
klass@@ 8
klassi@@ 8
koch@@ 8
kommende 8
konn@@ 8
kshelves 8
ky 8
käu@@ 8
körperlich 8
kü@@ 8
kürz@@ 8
laughing. 8
lawn. 8
lease 8
leich@@ 8
leidenschaftliche 8
lesson 8
lessons 8
lets 8
level 8
libr@@ 8
limit@@ 8
litt@@ 8
lock 8
losen 8
losing 8
lotter@@ 8
louds 8
lov@@ 8
lpool 8
lustigen 8
luxuri@@ 8
magazines. 8
magic. 8
main@@ 8
mann@@ 8
married. 8
master@@ 8
math. 8
meaningful 8
mel 8
mem@@ 8
mine 8
ming. 8
missed 8
mnasti@@ 8
models. 8
moon@@ 8
movi@@ 8
mpol@@ 8
music, 8
musical. 8
musizier@@ 8
myster@@ 8
müsste 8
n't 8
nam@@ 8
naturally 8
nearby 8
negativen 8
neig@@ 8
neighborh@@ 8
newspaper. 8
nicely 8
nois@@ 8
noise. 8
nostal@@ 8
now@@ 8
nu@@ 8
num@@ 8
nutri@@ 8
occa@@ 8
occasionally 8
offenem 8
omy 8
onder@@ 8
oo 8
oor 8
opened 8
opera. 8
operas. 8
orch@@ 8
orig@@ 8
ors 8
ough. 8
ouses 8
outing 8
oven 8
overcrowded. 8
overslept 8
paints 8
pandemic. 8
parach@@ 8
paragli@@ 8
parent@@ 8
passe 8
pattering 8
peace@@ 8
pean@@ 8
ped. 8
perfektionist@@ 8
personality 8
perspectives 8
pfen 8
phic 8
phänomen@@ 8
pickt 8
pictures 8
playing. 8
plunges 8
podcasts. 8
politische 8
poll@@ 8
positives 8
post@@ 8
postcards 8
powerful 8
prayer. 8
pref@@ 8
preser@@ 8
pretty 8
pro 8
problems 8
promo@@ 8
protected. 8
präch@@ 8
puls@@ 8
pun@@ 8
purr@@ 8
purrs 8
puzzles 8
quak@@ 8
quari@@ 8
que 8
quick@@ 8
rad 8
rarely 8
rausch@@ 8
record 8
reiche 8
reiß@@ 8
rely 8
repair 8
richt 8
rieche 8
ried 8
rings 8
roadside. 8
romance 8
rum@@ 8
rush 8
rushes 8
ry. 8
sailing. 8
salad 8
salzig@@ 8
samkeit 8
savann@@ 8
schaftliche 8
schaftliches 8
schedu@@ 8
schei@@ 8
schmecken 8
schmerz@@ 8
schwei@@ 8
schwere 8
seasi@@ 8
secrets 8
self-care. 8
sem@@ 8
series." 8
shape. 8
ship. 8
shor@@ 8
shore. 8
shower@@ 8
sicht 8
side@@ 8
signific@@ 8
situ@@ 8
skat@@ 8
sle@@ 8
sman@@ 8
smelled 8
smells. 8
snake 8
so. 8
soci@@ 8
socks. 8
someone. 8
souvenirs 8
spa. 8
sparkl@@ 8
sphal@@ 8
spices. 8
spinach. 8
spir@@ 8
splashing 8
spontane 8
spor@@ 8
spot 8
squee@@ 8
ssion 8
stan@@ 8
station@@ 8
steck@@ 8
steps 8
stin@@ 8
stop. 8
strahlend 8
strate@@ 8
street@@ 8
stü@@ 8
successes 8
sunshine. 8
superhero 8
swan 8
sweeten 8
swimmer. 8
t: 8
talents 8
tary 8
tasks. 8
tasted 8
tastings. 8
tat@@ 8
tausend 8
tea." 8
technologies 8
teten 8
text 8
thank 8
therapeu@@ 8
therapeut@@ 8
therapy. 8
therefore 8
thousand 8
tie 8
tie@@ 8
tierte 8
ties." 8
tigh@@ 8
tigt 8
tischen 8
today, 8
topic@@ 8
tou@@ 8
tough@@ 8
tourists 8
traditionelle 8
travels 8
trea@@ 8
trends. 8
tress 8
treu@@ 8
treuer 8
trig@@ 8
trin@@ 8
trustworthy 8
twi@@ 8
täglich@@ 8
tägliche 8
uchtet 8
ult@@ 8
unbeatable. 8
unbeliev@@ 8
unch 8
unerträ@@ 8
unge 8
ungss@@ 8
unheim@@ 8
univers@@ 8
university 8
unk 8
uns@@ 8
untern@@ 8
ure." 8
useful. 8
usi@@ 8
v 8
vaca@@ 8
vacations 8
van 8
vegan@@ 8
verbessert 8
vereinbar@@ 8
verfolge 8
verlei@@ 8
verliert 8
vermitt@@ 8
verrück@@ 8
vertre@@ 8
verw@@ 8
vic@@ 8
views. 8
visu@@ 8
waking 8
web 8
weich@@ 8
weltweit 8
werb@@ 8
werk@@ 8
wers 8
wiederzu@@ 8
windows 8
windowsill 8
wissbegier@@ 8
wohnt 8
workaholic. 8
wound@@ 8
wra@@ 8
writes 8
wunderbares 8
x. 8
ycle 8
yet 8
yog@@ 8
youth. 8
zielstre@@ 8
zimmer 8
zubereit@@ 8
zwitschert 8
älteres 8
äng@@ 8
änger 8
änner 8
ück@@ 8
""B@@ 7
""Imagine"" 7
"Bücher 7
"Wenn 7
're 7
-Samm@@ 7
-f@@ 7
100 7
19@@ 7
20 7
Ach@@ 7
Achter@@ 7
Ang@@ 7
Anzieh@@ 7
Asi@@ 7
Astrolog@@ 7
Auszeiten 7
Autobahn@@ 7
Baby 7
Bali@@ 7
Bedürf@@ 7
Beeth@@ 7
Begegnung 7
Bein@@ 7
Bekann@@ 7
Beschäftig@@ 7
Besorgungen 7
Durchhaltevermö@@ 7
Dylan@@ 7
Ente 7
Erfahrung, 7
Ergeb@@ 7
Erkäl@@ 7
Erneu@@ 7
Errungen@@ 7
Escape 7
Europa@@ 7
Expe@@ 7
Farbenpra@@ 7
Folge 7
Fotobücher 7
Französisch 7
Freiwilligenarbeit 7
Freizeitbeschäftig@@ 7
Fremdsprachen 7
Für 7
Ga@@ 7
Gegen@@ 7
Gemüse@@ 7
Geograph@@ 7
Geschichten@@ 7
Geschma@@ 7
Geschwind@@ 7
Gitarren@@ 7
Glücklich@@ 7
Gog@@ 7
Guten 7
Haben 7
Halloween. 7
Hase 7
Heav@@ 7
Heißluftball@@ 7
Hem@@ 7
Himmels 7
Hobbysport@@ 7
Hor@@ 7
Insta@@ 7
Joggingho@@ 7
Kafka@@ 7
Kat@@ 7
Kinder@@ 7
Kindheitser@@ 7
Kleidungsstück 7
Klän@@ 7
Koff@@ 7
Konfer@@ 7
Konz@@ 7
Krank@@ 7
Kunstausstell@@ 7
Kätzchen 7
Lasag@@ 7
Lebenssti@@ 7
Lei@@ 7
Lein@@ 7
Lieblingsfar@@ 7
Lieblingsfilm@@ 7
Lieblingsger@@ 7
Lieblingsmuseum 7
Lieblingsob@@ 7
Lieblingsspe@@ 7
Lieblingste@@ 7
Lieblingstierart 7
Liste 7
Lust, 7
Länd@@ 7
Lösung 7
Lü@@ 7
Mag@@ 7
Mart@@ 7
Meet@@ 7
Mer@@ 7
Musikricht@@ 7
Nachmit@@ 7
Nachteu@@ 7
Nat@@ 7
Nich@@ 7
Näch@@ 7
Orten 7
Pap@@ 7
Per@@ 7
Perfektion@@ 7
Ph@@ 7
Pomm@@ 7
Prince@@ 7
Problem@@ 7
Prä@@ 7
Pu@@ 7
Rascheln 7
Rechnungen 7
Redemption@@ 7
Regenbö@@ 7
Regi@@ 7
Rom@@ 7
Sandbur@@ 7
Schachtel 7
Schiff@@ 7
Schlafen 7
Schöne 7
Science-F@@ 7
Shop@@ 7
Silv@@ 7
Sof@@ 7
Sommerregen 7
Sommerurlaub@@ 7
Song 7
Sonnenaufgan@@ 7
Sonnenaufgän@@ 7
Sonntags@@ 7
Spiegel@@ 7
Spr@@ 7
Spur 7
Steuern 7
Straßenlaterne 7
Stri@@ 7
Sty@@ 7
Stät@@ 7
Süßig@@ 7
T-Shir@@ 7
Talent@@ 7
Tem@@ 7
Tenn@@ 7
Terra@@ 7
Tha@@ 7
Tier 7
Tira@@ 7
Tomaten@@ 7
Tul@@ 7
Verfechter 7
Vertrau@@ 7
Verurteil@@ 7
Wahr@@ 7
Wasserf@@ 7
Welt, 7
Wichtig@@ 7
Wissenschafts@@ 7
Wunsch 7
Yoga, 7
Yoga-Kur@@ 7
Zuver@@ 7
abilities 7
acht@@ 7
acke 7
actor 7
addi@@ 7
addictive. 7
admira@@ 7
adventurer. 7
after@@ 7
ahl 7
ake 7
akzeptieren 7
allowed 7
ances. 7
ancient 7
angen 7
anime. 7
anity 7
ann 7
anstrengenden 7
antike 7
ants 7
anz 7
apply 7
appreciate. 7
appreciating 7
approach 7
approaching. 7
are@@ 7
area 7
area. 7
areas. 7
aring. 7
arti@@ 7
artists. 7
arts. 7
asiatisches 7
aufführ@@ 7
aufsteh@@ 7
auss@@ 7
ba 7
bag. 7
balance@@ 7
ballet 7
ban 7
basi@@ 7
bastle 7
bath. 7
bathes 7
beat 7
beautiful." 7
bedecken 7
bedroh@@ 7
bedürf@@ 7
beeil@@ 7
behavi@@ 7
beherr@@ 7
bell 7
bemü@@ 7
bemühe 7
bench 7
besor@@ 7
bestei@@ 7
besten, 7
betro@@ 7
betör@@ 7
bewöl@@ 7
billiar@@ 7
bir@@ 7
birgt 7
bkombin@@ 7
black@@ 7
blanket. 7
bless@@ 7
blouse 7
bookstores. 7
bor 7
botan@@ 7
bough@@ 7
bound@@ 7
branch 7
brave. 7
breaking 7
bringe 7
builds 7
built 7
bul@@ 7
bustle. 7
bustling. 7
caff@@ 7
cal. 7
calmly. 7
cc@@ 7
ce." 7
cell@@ 7
cery 7
challeng@@ 7
chas@@ 7
chat 7
chen, 7
cherish 7
cinnamon 7
classics 7
clean@@ 7
closely 7
cloth@@ 7
cloud 7
colleagues 7
comedian 7
comedy. 7
commitment 7
conc@@ 7
concentrate 7
condi@@ 7
conditioning 7
confidence 7
connoisseur. 7
conservation 7
constantly. 7
contra@@ 7
counter@@ 7
coziness 7
coziness. 7
crazy 7
creatively 7
crick@@ 7
cris@@ 7
croa@@ 7
crow@@ 7
cru@@ 7
crucial 7
cry. 7
ctive. 7
ctor. 7
curi@@ 7
curr@@ 7
custom@@ 7
daily. 7
dau@@ 7
day." 7
deal 7
declutter 7
decorations. 7
dedic@@ 7
deeply. 7
deine 7
delight. 7
demütig 7
den, 7
destiny. 7
determin@@ 7
developed 7
died 7
din@@ 7
disappointing. 7
disco@@ 7
discovery. 7
discrimination. 7
discussi@@ 7
dlich 7
do, 7
dokument@@ 7
dolphin 7
dolphin. 7
dramas. 7
dreaming 7
dreams.""" 7
driver. 7
dry. 7
drück@@ 7
duck 7
durchs 7
e/@@ 7
earth. 7
echtes 7
ect@@ 7
eich@@ 7
eigentlich 7
einand@@ 7
einfach@@ 7
einfalls@@ 7
einkauf@@ 7
ele@@ 7
electron@@ 7
elegant 7
elephant. 7
elten 7
embra@@ 7
ended. 7
endurance. 7
energiz@@ 7
enga@@ 7
engaging 7
enge 7
entdeckt, 7
entr@@ 7
entschei@@ 7
entschie@@ 7
enttäusch@@ 7
equi@@ 7
erinnere 7
ermöglichen 7
erran@@ 7
erstaunt 7
ert, 7
espres@@ 7
est." 7
eventually 7
exc@@ 7
excellent 7
exhausted. 7
exo@@ 7
expan@@ 7
expe@@ 7
expected. 7
expression. 7
extremely 7
family, 7
feath@@ 7
feelings 7
fighting 7
finanziel@@ 7
finds 7
flüge 7
focu@@ 7
foliage 7
forever. 7
forming 7
founta@@ 7
frage 7
free@@ 7
freedom@@ 7
frei, 7
fremden 7
früch@@ 7
früh@@ 7
full@@ 7
fängt 7
fördert 7
für@@ 7
g, 7
gab@@ 7
gadgets. 7
galloping 7
ged@@ 7
gegangen; 7
gegrill@@ 7
gehören 7
gemacht, 7
gemä@@ 7
gepres@@ 7
gers 7
geschme@@ 7
geschnittenem 7
gesehen, 7
gesel@@ 7
gesell@@ 7
gespr@@ 7
gesund, 7
gesunder 7
geta@@ 7
getroffen, 7
gewes@@ 7
gieß@@ 7
girl@@ 7
glückliche 7
golf. 7
gram 7
gram@@ 7
grasen 7
growing." 7
grows 7
großartig, 7
grun@@ 7
gruppe 7
größeren 7
grüne 7
gue. 7
gärtn@@ 7
hammock. 7
hard, 7
harmoni@@ 7
heal@@ 7
hearts. 7
hed. 7
heilend 7
herausge@@ 7
hill. 7
histor@@ 7
historic 7
hness 7
hof 7
hoher 7
honesty. 7
horn 7
horse@@ 7
hun@@ 7
hunt 7
hüpft 7
ics 7
id 7
idyllic. 7
ieving 7
iff@@ 7
ili@@ 7
imp@@ 7
impresses 7
improvem@@ 7
improvement. 7
increa@@ 7
indem 7
indul@@ 7
ine@@ 7
iness 7
inev@@ 7
influences 7
information 7
information. 7
informative. 7
ing! 7
inneren 7
innovation. 7
insp@@ 7
inspire. 7
inspirierenden 7
int-@@ 7
internation@@ 7
international 7
intoxicating. 7
inv@@ 7
invigor@@ 7
invitation 7
is: 7
ishing 7
istic 7
istic. 7
ists 7
itable 7
item@@ 7
iving 7
ized 7
jam 7
jam. 7
je 7
jewel@@ 7
job@@ 7
joy@@ 7
jump 7
junk@@ 7
keln 7
key. 7
keys 7
ki@@ 7
klei@@ 7
kleidungsstück 7
kling@@ 7
klär@@ 7
knis@@ 7
knit 7
komforta@@ 7
konzer@@ 7
kostbar@@ 7
kräch@@ 7
kulinarische 7
körperliche 7
kühle 7
ladybug 7
lamps 7
landet 7
lar 7
laube 7
laughs 7
leaving 7
lebe, 7
lem 7
let. 7
letzter@@ 7
liberating 7
license. 7
liebstes 7
lieve 7
lig@@ 7
lige 7
ligi@@ 7
like. 7
lip@@ 7
lists 7
liv@@ 7
living. 7
logy. 7
lohn@@ 7
lor@@ 7
lunch. 7
lux@@ 7
lädt 7
läng@@ 7
lös@@ 7
löst 7
magine 7
man. 7
manga@@ 7
may 7
meet@@ 7
melo@@ 7
memory. 7
mentale 7
merk@@ 7
message. 7
mid@@ 7
moderne 7
moment." 7
monoton@@ 7
mor@@ 7
motivating 7
mounta@@ 7
movie@@ 7
mowed. 7
mpe@@ 7
mul@@ 7
mung 7
myself." 7
mysteri@@ 7
natür@@ 7
necess@@ 7
necessity 7
nectar 7
nee@@ 7
ners. 7
nette 7
nimm@@ 7
nostalg@@ 7
nothing. 7
novel@@ 7
nuts. 7
nö@@ 7
o'@@ 7
observer. 7
occasion@@ 7
offers. 7
ole 7
olk@@ 7
olle@@ 7
open-minded. 7
openness. 7
optimistische 7
oran@@ 7
organisierte 7
oute 7
outsi@@ 7
own. 7
paint@@ 7
paper 7
park." 7
participating 7
passion@@ 7
passionately 7
past@@ 7
paths. 7
pays 7
pedestri@@ 7
pel 7
perfe@@ 7
perfect@@ 7
perfekten 7
pers@@ 7
person's 7
pieces. 7
ping 7
ple. 7
plea@@ 7
please 7
point 7
pollen. 7
portra@@ 7
positive, 7
positivity. 7
potat@@ 7
practical. 7
prass@@ 7
prepared 7
preserve 7
proble@@ 7
problem. 7
produzier@@ 7
professional 7
properly 7
pti@@ 7
pushing 7
quit 7
rab@@ 7
rainbow@@ 7
raum 7
reas@@ 7
reci@@ 7
redu@@ 7
reflects 7
refriger@@ 7
regi@@ 7
rem 7
renew 7
renn@@ 7
requ@@ 7
resear@@ 7
research. 7
respect@@ 7
respektiert 7
resul@@ 7
rett@@ 7
revitali@@ 7
rides. 7
ries. 7
ril@@ 7
rille 7
romantisches 7
roses 7
row. 7
runde 7
running. 7
ry@@ 7
sand. 7
sanf@@ 7
savoring 7
scharfes 7
schieß@@ 7
schin@@ 7
schnei@@ 7
schnit@@ 7
schnurr@@ 7
schon@@ 7
schut@@ 7
schwierig, 7
sciences. 7
scre@@ 7
scuba 7
seafood. 7
sec@@ 7
seek@@ 7
selbstgemach@@ 7
seren@@ 7
serving 7
set@@ 7
sew. 7
shadow@@ 7
shared 7
shed 7
shes. 7
sich, 7
sights 7
sign 7
silence, 7
since 7
single 7
sits 7
ski. 7
skier. 7
skil@@ 7
skirts. 7
slipper@@ 7
sm. 7
smooth@@ 7
smoothies 7
snor@@ 7
snowman 7
sollten, 7
solver. 7
somewhat 7
sonnigen 7
sonniger 7
spa 7
spaces. 7
spacious. 7
spaghetti. 7
spannt 7
spaziert 7
speaking 7
spectac@@ 7
speech 7
spek@@ 7
spices 7
spicy. 7
spirits. 7
spirituality. 7
spla@@ 7
splashes 7
sporty 7
spreads 7
sprech@@ 7
sprojekte 7
spür@@ 7
stability. 7
starte 7
stayed 7
steak. 7
stecken 7
stem 7
storytell@@ 7
stren@@ 7
strength@@ 7
strengthens 7
studio 7
sty. 7
suitable 7
sunris@@ 7
sunset." 7
supermarket. 7
supposed 7
surf. 7
surfing. 7
sustainably. 7
sweater. 7
swimm@@ 7
swims 7
sü@@ 7
table@@ 7
taken 7
tall. 7
tar@@ 7
task. 7
tasty 7
tattoo 7
tball/soccer 7
teaching 7
team@@ 7
telligen@@ 7
tem@@ 7
tensi@@ 7
test 7
thick 7
things.""" 7
thir@@ 7
thorough@@ 7
thought@@ 7
thrilled. 7
throw@@ 7
ths 7
thumb. 7
thunderstorms. 7
tical 7
ticket 7
time@@ 7
tir@@ 7
tis@@ 7
toes 7
togra@@ 7
tom@@ 7
tos 7
touched 7
tourists. 7
tradition@@ 7
traditions 7
treat@@ 7
triff@@ 7
trotzdem 7
trover@@ 7
trum@@ 7
trust. 7
tschaft 7
tz 7
unerwar@@ 7
unfair. 7
ung; 7
ungewis@@ 7
university. 7
unknow@@ 7
unschlag@@ 7
ural 7
urlaubsziel 7
urtei@@ 7
us, 7
uten 7
val. 7
val@@ 7
valley. 7
vanilla 7
vari@@ 7
vels 7
vem@@ 7
verbracht, 7
vergessen, 7
verkost@@ 7
versa@@ 7
verschmutz@@ 7
versität 7
vertrau@@ 7
videos 7
vil@@ 7
virtu@@ 7
voic@@ 7
wahr@@ 7
wahren 7
wards. 7
warm@@ 7
warten, 7
week@@ 7
weitere 7
wet. 7
wetter 7
whenever 7
where. 7
wich@@ 7
wildly 7
windig 7
windy 7
wirft 7
wonderfully. 7
woods. 7
words 7
worl@@ 7
worry 7
wunderschönen 7
wäl@@ 7
xes. 7
yaking 7
yard. 7
yester@@ 7
zahl@@ 7
zeich@@ 7
zer@@ 7
ziel 7
zielorien@@ 7
zukünf@@ 7
zulauf@@ 7
Äpfel 7
Ö@@ 7
ächt@@ 7
äftig@@ 7
ändert 7
ärchen 7
äre 7
ärk@@ 7
äufe 7
öfters 7
ön@@ 7
überall 7
ücher 7
ütz@@ 7
ützt 7
üß@@ 7
't 6
)" 6
1 6
3 6
9@@ 6
Archit@@ 6
Autor@@ 6
BBQ@@ 6
Bad@@ 6
Bla@@ 6
Bohemian 6
Bücher, 6
Camp@@ 6
Chanc@@ 6
Diskussi@@ 6
Dunk@@ 6
Dur@@ 6
E-@@ 6
Erdbe@@ 6
Fallschir@@ 6
Fallschirmspring@@ 6
Fren@@ 6
Freun@@ 6
Freundschaften, 6
Fuß@@ 6
Gebor@@ 6
Grenz@@ 6
Herbstlaub@@ 6
Hil@@ 6
Instr@@ 6
Kl@@ 6
Kompli@@ 6
Kre@@ 6
Kreativ@@ 6
Kunst, 6
Körper, 6
Laub@@ 6
Lieb@@ 6
Lieblingsfil@@ 6
Lieblingsgeträn@@ 6
Mexi@@ 6
Mitta@@ 6
Mom@@ 6
November@@ 6
Ordn@@ 6
Ori@@ 6
Potenzial, 6
Pr@@ 6
Ras@@ 6
Rau@@ 6
Regenbo@@ 6
Regenschir@@ 6
Ress@@ 6
Ressourc@@ 6
Rest@@ 6
Rotw@@ 6
Schlüss@@ 6
Schokola@@ 6
Sci@@ 6
Sna@@ 6
Spani@@ 6
Sportar@@ 6
Ster@@ 6
Stim@@ 6
Strandurlaub@@ 6
Super@@ 6
Tal@@ 6
Tee, 6
Titanic@@ 6
Träume, 6
Unabhängig@@ 6
Unterstützung, 6
Weihnachtsm@@ 6
Weise, 6
Wenn 6
Wochen@@ 6
X@@ 6
Ziele, 6
Zimmer@@ 6
Zum@@ 6
Zun@@ 6
Zusammenhal@@ 6
a, 6
admi@@ 6
aga@@ 6
aktivitä@@ 6
alco@@ 6
allem, 6
als, 6
anta@@ 6
antiqu@@ 6
atter@@ 6
attitu@@ 6
aufgere@@ 6
aufgewach@@ 6
aufstehen, 6
ausforder@@ 6
ausgewo@@ 6
authen@@ 6
ballo@@ 6
ban@@ 6
bares 6
being. 6
beitra@@ 6
beruhigend, 6
besonder@@ 6
beste@@ 6
besuchen, 6
bet@@ 6
bever@@ 6
bieten, 6
bonar@@ 6
buil@@ 6
bum@@ 6
burger@@ 6
candle@@ 6
captiv@@ 6
chmal 6
cient 6
cinema@@ 6
cipl@@ 6
cit@@ 6
ck, 6
comedi@@ 6
comforta@@ 6
compli@@ 6
compu@@ 6
concentr@@ 6
const@@ 6
cover@@ 6
crun@@ 6
cry@@ 6
cs 6
ction@@ 6
cultur@@ 6
dav@@ 6
dens 6
discover@@ 6
discu@@ 6
dish@@ 6
document@@ 6
draw@@ 6
e-J@@ 6
educ@@ 6
elec@@ 6
empfehl@@ 6
ends 6
ener@@ 6
ennt 6
enter@@ 6
entschloss@@ 6
erence 6
erfrischt, 6
eth@@ 6
expec@@ 6
expensi@@ 6
fach 6
fai@@ 6
fascin@@ 6
fashi@@ 6
fen, 6
fic 6
fle@@ 6
freundliche 6
funktion@@ 6
fär@@ 6
gallo@@ 6
gather@@ 6
geben, 6
gelass@@ 6
gelernt, 6
genießen, 6
gently. 6
geschäf@@ 6
gest 6
gewöhn@@ 6
geöff@@ 6
given@@ 6
gla@@ 6
gleitet 6
grund@@ 6
head@@ 6
heav@@ 6
hock@@ 6
hom@@ 6
ign@@ 6
illumin@@ 6
impa@@ 6
in, 6
inavi@@ 6
ingly 6
interessant, 6
istor@@ 6
ited 6
itsel@@ 6
kauft 6
ke, 6
kulinar@@ 6
kultur@@ 6
lamp@@ 6
ld 6
li. 6
lich, 6
listen@@ 6
literat@@ 6
lück@@ 6
mahl@@ 6
manage@@ 6
mathema@@ 6
miau@@ 6
misu@@ 6
moment@@ 6
mur@@ 6
mushroom@@ 6
musici@@ 6
my@@ 6
myself@@ 6
myst@@ 6
nachhal@@ 6
nie, 6
nie@@ 6
niem@@ 6
non@@ 6
näch@@ 6
oli@@ 6
om. 6
ook 6
ooth@@ 6
optim@@ 6
organ@@ 6
oril@@ 6
ov@@ 6
pe. 6
perspec@@ 6
persön@@ 6
present@@ 6
progres@@ 6
puzz@@ 6
rasch@@ 6
realiz@@ 6
recei@@ 6
reib@@ 6
reli@@ 6
respekt@@ 6
responsi@@ 6
rick@@ 6
ries 6
rill@@ 6
ring@@ 6
roa@@ 6
rück@@ 6
schauspiel@@ 6
scheln 6
schlafen, 6
schme@@ 6
schrei@@ 6
schä@@ 6
schöpf@@ 6
sei@@ 6
sen, 6
ship@@ 6
sigh@@ 6
smi@@ 6
socc@@ 6
sof@@ 6
sportar@@ 6
stret@@ 6
stron@@ 6
stücke 6
superher@@ 6
sures 6
tand@@ 6
task@@ 6
tation. 6
tele@@ 6
themsel@@ 6
thor@@ 6
til 6
tow@@ 6
tranquili@@ 6
trau@@ 6
trav@@ 6
tures. 6
turing 6
turned 6
turquoise 6
tw@@ 6
tägliches 6
tönt 6
türkis@@ 6
ulen 6
ummit 6
umweltfreundliche 6
una 6
unabhängiger 6
unbezahlbar@@ 6
uncer@@ 6
understanding. 6
understorms 6
underwater 6
unding 6
unexpected 6
ungewöhn@@ 6
unglaubliches 6
ungsvermö@@ 6
uniz@@ 6
unningly 6
unpünktlichen 6
unschätz@@ 6
unvergessliche 6
up-to-@@ 6
upé@@ 6
ure, 6
ure.""" 6
uss@@ 6
ussi@@ 6
usually 6
utsch@@ 6
vador 6
vat@@ 6
veranla@@ 6
veranstalt@@ 6
verbreit@@ 6
verdi@@ 6
verfärbt 6
vergan@@ 6
verheirate@@ 6
vermis@@ 6
verschne@@ 6
verspä@@ 6
verstorben 6
verständ@@ 6
veröffentlich@@ 6
ves@@ 6
vielversprech@@ 6
view@@ 6
vign@@ 6
violence. 6
vis 6
visit@@ 6
voca@@ 6
volu@@ 6
vö@@ 6
wache 6
walben 6
wall@@ 6
wallows 6
wan@@ 6
wants 6
war. 6
wardro@@ 6
warmly. 6
warte 6
was@@ 6
wasser@@ 6
wave 6
wechslungs@@ 6
wedd@@ 6
weekend, 6
weekend@@ 6
weh@@ 6
weiche 6
weiße 6
wen@@ 6
wesent@@ 6
whistling 6
white. 6
wind@@ 6
window@@ 6
wisdom. 6
witschern 6
woods 6
workshop. 6
worldwide. 6
wrong 6
wunderbaren 6
yed 6
yellow 6
yet. 6
ylor 6
zehn@@ 6
zell@@ 6
zelne 6
zirpt 6
zu, 6
zugleich@@ 6
zweit@@ 6
zwischenmenschlichen 6
zäh@@ 6
züg@@ 6
zün@@ 6
Öko@@ 6
ämm@@ 6
ände 6
ätig@@ 6
ätz@@ 6
öffent@@ 6
öglich@@ 6
öpf@@ 6
öß@@ 6
üb@@ 6
überwäl@@ 6
überzeu@@ 6
ünsch@@ 6
)@@ 5
?@@ 5
Acht@@ 5
Achterbahn@@ 5
Ausdau@@ 5
BB@@ 5
Bab@@ 5
Bahn@@ 5
Ball@@ 5
Bege@@ 5
Beruhigend@@ 5
Besonder@@ 5
Biblioth@@ 5
Bücher@@ 5
Chin@@ 5
Cockta@@ 5
Comedy-Show@@ 5
D 5
Delfin@@ 5
Die@@ 5
Elefan@@ 5
Empath@@ 5
Entscheidungen, 5
Essen, 5
Fei@@ 5
Fensterban@@ 5
Ferrari@@ 5
Feuer@@ 5
Flug@@ 5
Freund, 5
Fü@@ 5
Gedich@@ 5
Gele@@ 5
Geschä@@ 5
Gleich@@ 5
Godfa@@ 5
Gu@@ 5
Insek@@ 5
Instagra@@ 5
Kontak@@ 5
Kop@@ 5
Krä@@ 5
Kuchen, 5
Käl@@ 5
Kö@@ 5
Lavend@@ 5
Lebens, 5
Liebhaber@@ 5
Liebst@@ 5
Massa@@ 5
Mitmensch@@ 5
Museum, 5
Mut, 5
Nachhal@@ 5
Note: 5
Outdoor-@@ 5
Outdoor-Aktivitä@@ 5
Post@@ 5
Postkar@@ 5
Proz@@ 5
Prüf@@ 5
Q 5
R 5
Regen, 5
Road@@ 5
Romantik@@ 5
Schick@@ 5
Schmu@@ 5
Schneeflo@@ 5
Schokoladenk@@ 5
Schr@@ 5
Schut@@ 5
Sommer, 5
Sonnenblum@@ 5
Spaghetti@@ 5
Stern@@ 5
TV@@ 5
Tän@@ 5
Tänz@@ 5
Uhr, 5
Universum@@ 5
Unterstütz@@ 5
Veranstalt@@ 5
Verb@@ 5
Viel@@ 5
Volle@@ 5
Volleyball@@ 5
Vorstellungskra@@ 5
Weiter@@ 5
Wellness@@ 5
Wirk@@ 5
Wü@@ 5
Zahnar@@ 5
absol@@ 5
ach. 5
acqu@@ 5
aff@@ 5
air@@ 5
ander 5
ane 5
anstrengend, 5
aoke. 5
apart@@ 5
archit@@ 5
area@@ 5
aring 5
arm 5
asle@@ 5
atmosp@@ 5
aufgeschloss@@ 5
aul@@ 5
ausgepräg@@ 5
ausgie@@ 5
ausverkauf@@ 5
auß 5
avid 5
bare 5
be, 5
bedeut@@ 5
bein@@ 5
beweg@@ 5
bewer@@ 5
blanke@@ 5
bloom@@ 5
blü@@ 5
brauch@@ 5
breath@@ 5
bree@@ 5
brigh@@ 5
bs. 5
bst@@ 5
bt, 5
build@@ 5
bär@@ 5
cation 5
cau@@ 5
cent@@ 5
charac@@ 5
chick@@ 5
chni@@ 5
choo@@ 5
commit@@ 5
complic@@ 5
cons@@ 5
dazu, 5
decke 5
dek@@ 5
delici@@ 5
dest@@ 5
deut@@ 5
ditions 5
dolph@@ 5
dom 5
dom@@ 5
dun@@ 5
dy, 5
einsetzen, 5
ele 5
ence@@ 5
end, 5
eren, 5
ess, 5
expressi@@ 5
fest@@ 5
fien 5
find@@ 5
fire@@ 5
flat@@ 5
flower@@ 5
fon@@ 5
fondu@@ 5
fore@@ 5
fort@@ 5
fortun@@ 5
fs@@ 5
fulness 5
gegangen, 5
gelmäß@@ 5
gerne, 5
gespann@@ 5
geth@@ 5
ging@@ 5
gle@@ 5
großar@@ 5
gänge 5
gär@@ 5
halb 5
handicraf@@ 5
hat's 5
hau@@ 5
help@@ 5
hen, 5
hobbi@@ 5
hopp@@ 5
how@@ 5
häl@@ 5
höch@@ 5
if@@ 5
iff 5
ight 5
ih@@ 5
imple@@ 5
import@@ 5
influ@@ 5
innov@@ 5
inse@@ 5
invit@@ 5
invol@@ 5
irgend@@ 5
itze 5
jahr@@ 5
journe@@ 5
langua@@ 5
lasses 5
law@@ 5
laz@@ 5
leiden@@ 5
leit@@ 5
lem@@ 5
lett 5
ley. 5
lied 5
long@@ 5
loss@@ 5
lover@@ 5
lun@@ 5
majes@@ 5
mana@@ 5
mean@@ 5
mlich 5
mod@@ 5
model@@ 5
nachgeda@@ 5
nachgedacht, 5
natur@@ 5
ne, 5
ness@@ 5
net, 5
okol@@ 5
omat@@ 5
onesel@@ 5
origin@@ 5
ough@@ 5
ouse 5
park, 5
path@@ 5
people@@ 5
perat@@ 5
perfor@@ 5
pfel 5
phon@@ 5
pic@@ 5
pli@@ 5
plätsch@@ 5
practi@@ 5
pressi@@ 5
pret@@ 5
proc@@ 5
raf@@ 5
reads 5
ream. 5
rechar@@ 5
reco@@ 5
recor@@ 5
rema@@ 5
roof@@ 5
room@@ 5
rust@@ 5
sames 5
schir@@ 5
schlie@@ 5
schloss@@ 5
schm@@ 5
scho@@ 5
schüchtern, 5
seitig 5
sent@@ 5
serv@@ 5
sett@@ 5
shine. 5
sig@@ 5
sis@@ 5
sity. 5
skill@@ 5
skydi@@ 5
smart@@ 5
so, 5
soft@@ 5
spart@@ 5
spee@@ 5
spi@@ 5
sprach@@ 5
sprobier@@ 5
spä@@ 5
squirre@@ 5
stam@@ 5
stellen, 5
stim@@ 5
stimul@@ 5
stle 5
strawber@@ 5
stroll@@ 5
tain 5
tak@@ 5
theat@@ 5
thunderstor@@ 5
tieren, 5
tion, 5
tively 5
togeth@@ 5
treffen, 5
trip@@ 5
tröst@@ 5
tures 5
täu@@ 5
tön@@ 5
uche 5
unda@@ 5
universel@@ 5
unn@@ 5
ure@@ 5
urt@@ 5
venir@@ 5
verlieb@@ 5
verlä@@ 5
verschieden@@ 5
verspiel@@ 5
verstor@@ 5
verwöhn@@ 5
vie@@ 5
volun@@ 5
wasser 5
weakness@@ 5
wee@@ 5
weil@@ 5
wein 5
weiß@@ 5
wh@@ 5
wher@@ 5
whist@@ 5
who@@ 5
wol@@ 5
wort@@ 5
yball. 5
zeigen, 5
zen, 5
zep@@ 5
zielstrebig@@ 5
Ü@@ 5
äd@@ 5
äh@@ 5
é@@ 5
öff@@ 5
öh@@ 5
ücke 5
üh 5
& 4
,@@ 4
10@@ 4
7 4
9 4
Abwechs@@ 4
Ameri@@ 4
Aquari@@ 4
Arbeit, 4
Arbeitsta@@ 4
Astron@@ 4
Astronomi@@ 4
At@@ 4
B 4
Balk@@ 4
Bast@@ 4
Bess@@ 4
Bunge@@ 4
Bü@@ 4
DV@@ 4
Dankbar@@ 4
Desser@@ 4
Dies@@ 4
Erfüll@@ 4
Erinnerungen, 4
Ern@@ 4
Ever@@ 4
Fas@@ 4
Feu@@ 4
Filmab@@ 4
Filme, 4
Fitnessstudio, 4
Fo@@ 4
Französ@@ 4
Fremdspra@@ 4
Geschenke, 4
Gesprä@@ 4
Gru@@ 4
Herbst, 4
Hob@@ 4
Indi@@ 4
Indie@@ 4
Jahr, 4
Kamin@@ 4
Krim@@ 4
Kunstfor@@ 4
Lieblingstier@@ 4
Mein@@ 4
Mittagess@@ 4
Mod@@ 4
Natur, 4
Nov@@ 4
Okto@@ 4
Perspektiv@@ 4
Pul@@ 4
Radi@@ 4
Restaurant@@ 4
Rhapso@@ 4
Schönheit, 4
Schönheit@@ 4
Sinn@@ 4
Sou@@ 4
Sternschnu@@ 4
Steuer@@ 4
Stär@@ 4
Stärk@@ 4
Sy@@ 4
T 4
Tour@@ 4
Umarm@@ 4
Unterschie@@ 4
Veranstal@@ 4
Vergeb@@ 4
Veränderung, 4
Vö@@ 4
Wars@@ 4
Weihnacht@@ 4
Wissen, 4
Wohnz@@ 4
Wunder, 4
Zeiten, 4
Zeitvertreib@@ 4
Zü@@ 4
achie@@ 4
addic@@ 4
agli@@ 4
ahl@@ 4
akzep@@ 4
an, 4
ana@@ 4
ance@@ 4
anger 4
anzös@@ 4
appro@@ 4
ard. 4
ars. 4
au 4
aufgaben 4
aufre@@ 4
aufregend, 4
ause 4
avo@@ 4
ay@@ 4
bathing 4
bege@@ 4
benö@@ 4
berei@@ 4
beru@@ 4
bing@@ 4
birth@@ 4
blu@@ 4
bringen, 4
cause 4
ch, 4
child@@ 4
combin@@ 4
communica@@ 4
comp@@ 4
compe@@ 4
connoisse@@ 4
contrib@@ 4
da, 4
dafür@@ 4
darkn@@ 4
depar@@ 4
drama@@ 4
droh@@ 4
e-S@@ 4
ehrenamt@@ 4
eil@@ 4
einsam, 4
ema 4
emo@@ 4
endur@@ 4
energ@@ 4
entrum 4
environment@@ 4
eps 4
erat@@ 4
erf@@ 4
erkenn@@ 4
erleben, 4
erre@@ 4
erv@@ 4
esk@@ 4
espe@@ 4
exh@@ 4
fic@@ 4
forgiven@@ 4
frie@@ 4
fron@@ 4
fru@@ 4
fähig@@ 4
förd@@ 4
gad@@ 4
gal@@ 4
gan 4
gebrau@@ 4
gedul@@ 4
gehei@@ 4
gemäh@@ 4
gens 4
ger, 4
gious. 4
gleit@@ 4
glitz@@ 4
heir@@ 4
hibi@@ 4
hilosop@@ 4
hips 4
hol. 4
hone@@ 4
hung@@ 4
hyth@@ 4
ible 4
iction@@ 4
ier, 4
ight. 4
ill 4
illa 4
ind 4
indoor@@ 4
inspir@@ 4
inspira@@ 4
intensiv@@ 4
interessan@@ 4
intui@@ 4
inven@@ 4
irgendw@@ 4
isch, 4
issan@@ 4
ite. 4
ity, 4
jem@@ 4
jour@@ 4
kaufen, 4
kennt@@ 4
kulture@@ 4
körper@@ 4
küh@@ 4
künst@@ 4
las 4
lasagn@@ 4
lic@@ 4
loud@@ 4
low. 4
ma, 4
maga@@ 4
manch@@ 4
manchmal, 4
meaning@@ 4
ming 4
mistak@@ 4
muse@@ 4
musik@@ 4
ne 4
near@@ 4
nen@@ 4
new@@ 4
nit@@ 4
ocach@@ 4
oft, 4
omen@@ 4
opportuni@@ 4
ord 4
orizon@@ 4
patter@@ 4
perfekt, 4
phen 4
pictures@@ 4
pleas@@ 4
possi@@ 4
pricel@@ 4
profes@@ 4
prote@@ 4
psycholog@@ 4
pul@@ 4
rag@@ 4
richtung 4
riftstell@@ 4
roller@@ 4
ron@@ 4
satisfa@@ 4
satisfie@@ 4
schafts@@ 4
schied@@ 4
schnell, 4
schreiben, 4
schrit@@ 4
se, 4
secre@@ 4
selbst, 4
self-confiden@@ 4
shroom@@ 4
singen, 4
sister@@ 4
sleep@@ 4
smell@@ 4
sneak@@ 4
socie@@ 4
solidar@@ 4
spaci@@ 4
spider@@ 4
spiegel@@ 4
sse, 4
ssel 4
sste 4
stic. 4
still@@ 4
stro@@ 4
stunden@@ 4
stö@@ 4
stück 4
success@@ 4
such@@ 4
sure. 4
swit@@ 4
sziel 4
takt@@ 4
though@@ 4
thr@@ 4
tionen, 4
tivitä@@ 4
tran@@ 4
tto 4
tub. 4
twin@@ 4
tzchen 4
tür@@ 4
um, 4
umping 4
una. 4
unge@@ 4
ungen, 4
unger 4
unglaublich, 4
up-@@ 4
use@@ 4
usu@@ 4
van@@ 4
vegeta@@ 4
vend@@ 4
vermei@@ 4
versink@@ 4
vertreib@@ 4
vier 4
weak@@ 4
weath@@ 4
wed 4
wer. 4
werden, 4
wide. 4
woll@@ 4
woo@@ 4
workaholi@@ 4
xi@@ 4
zw@@ 4
zz@@ 4
Äng@@ 4
ährt 4
änder 4
ätze, 4
é 4
öst@@ 4
ühl@@ 4
,7@@ 3
-D@@ 3
Abenteur@@ 3
Apfel@@ 3
Arbeitsk@@ 3
Arbeitsst@@ 3
Astro@@ 3
Bedeut@@ 3
Begegn@@ 3
Besch@@ 3
Bestandtei@@ 3
Bücherreg@@ 3
C 3
Chancen, 3
Del@@ 3
Eig@@ 3
Erk@@ 3
Fantas@@ 3
Farben@@ 3
Ferr@@ 3
Flo@@ 3
Freizeitaktivitä@@ 3
Gemäl@@ 3
Geschichte, 3
Großel@@ 3
Hab@@ 3
Haustier, 3
Heiß@@ 3
Hobbi@@ 3
Hobbys, 3
Hunde, 3
Hung@@ 3
Idee, 3
Innen@@ 3
Kaka@@ 3
Kirchenglo@@ 3
Klet@@ 3
Konflik@@ 3
Konzert, 3
Kulturen, 3
Kör@@ 3
Lau@@ 3
Leb@@ 3
Lieblingsh@@ 3
Läch@@ 3
Länder, 3
Moment, 3
Orte, 3
Park, 3
Pasta@@ 3
Perspek@@ 3
Pick@@ 3
Pizza, 3
Projekten, 3
Q@@ 3
Reali@@ 3
Restauran@@ 3
Restaurant, 3
Risi@@ 3
Rog@@ 3
Saf@@ 3
Schatz, 3
Schmetter@@ 3
Schweiß@@ 3
She@@ 3
Sofa, 3
Sommerf@@ 3
Sonnenauf@@ 3
Sonnta@@ 3
Sternenhimmel@@ 3
Technologi@@ 3
Termin@@ 3
Tiefen, 3
Tiere, 3
To-Do-@@ 3
Tor@@ 3
US@@ 3
Umweltschut@@ 3
Urlaub, 3
Verantwort@@ 3
Vergangenheit, 3
Vorstellungsgespräch@@ 3
Wasser, 3
Wäl@@ 3
Za@@ 3
a." 3
abend@@ 3
abhän@@ 3
accompli@@ 3
accor@@ 3
achievem@@ 3
actor@@ 3
ad. 3
admir@@ 3
advis@@ 3
advoc@@ 3
again@@ 3
al, 3
allein, 3
anla@@ 3
ari 3
arm@@ 3
art, 3
athle@@ 3
audi@@ 3
ausm@@ 3
ausprobieren, 3
auszuprobieren, 3
bar, 3
beein@@ 3
befrei@@ 3
begeistert, 3
beh@@ 3
beha@@ 3
bekommen, 3
beobachten, 3
bevor@@ 3
bevorzu@@ 3
bewirken, 3
bicyc@@ 3
bild@@ 3
biogra@@ 3
bling@@ 3
bloss@@ 3
blow@@ 3
bookwor@@ 3
bouqu@@ 3
bright@@ 3
bst 3
bunge@@ 3
chaotisch, 3
chat@@ 3
cially 3
cin@@ 3
cine 3
cinnam@@ 3
commun@@ 3
concer@@ 3
confi@@ 3
confiden@@ 3
cont@@ 3
contin@@ 3
contribu@@ 3
coura@@ 3
dankbar, 3
deci@@ 3
decl@@ 3
dent. 3
dert 3
dn@@ 3
dness 3
dok@@ 3
dom. 3
draußen, 3
dru@@ 3
dür@@ 3
dürf@@ 3
eal@@ 3
ebo@@ 3
ebra@@ 3
ech@@ 3
edu@@ 3
employ@@ 3
enamt@@ 3
ening 3
entscheid@@ 3
entspannend, 3
episo@@ 3
ept 3
erfrischend, 3
ermöglich@@ 3
erstaunlich, 3
essenti@@ 3
esser@@ 3
even@@ 3
event@@ 3
exhaust@@ 3
exist@@ 3
existence. 3
experien@@ 3
experiment@@ 3
f, 3
favor@@ 3
finis@@ 3
fit, 3
fitn@@ 3
flug 3
ford@@ 3
frich@@ 3
funda@@ 3
führen, 3
galler@@ 3
galopp@@ 3
gebrüh@@ 3
gehabt, 3
gestr@@ 3
getan, 3
gets. 3
ghts. 3
gif@@ 3
glich, 3
gri@@ 3
hairsty@@ 3
hammo@@ 3
heel@@ 3
heiß, 3
heraus@@ 3
hervorrag@@ 3
heu@@ 3
ieren, 3
ife 3
incompar@@ 3
independ@@ 3
indescrib@@ 3
iness@@ 3
infin@@ 3
ings, 3
inspirieren, 3
instrument@@ 3
interest@@ 3
ists. 3
it, 3
joggen, 3
kletter@@ 3
knit@@ 3
konz@@ 3
lan 3
lassen, 3
laub@@ 3
liber@@ 3
ligen@@ 3
logn@@ 3
loss 3
lou@@ 3
läuf@@ 3
m, 3
magazin@@ 3
magi@@ 3
marath@@ 3
memor@@ 3
men, 3
menschen 3
mic@@ 3
mitt@@ 3
mom@@ 3
müssen, 3
neigh@@ 3
nick@@ 3
ny 3
od@@ 3
offen@@ 3
omi@@ 3
omy. 3
ones@@ 3
ool 3
ought 3
ould 3
park@@ 3
pathe@@ 3
peop@@ 3
perspectiv@@ 3
pfe@@ 3
phi@@ 3
photo@@ 3
phän@@ 3
picnick@@ 3
pizz@@ 3
plor@@ 3
port 3
posi@@ 3
postcar@@ 3
practic@@ 3
praktisch, 3
preci@@ 3
provi@@ 3
que. 3
regelmäßig, 3
regne@@ 3
rein@@ 3
reise@@ 3
remem@@ 3
remin@@ 3
respon@@ 3
riere 3
ruhig, 3
savor@@ 3
schaffen, 3
schr@@ 3
schrank 3
schri@@ 3
schwier@@ 3
seaf@@ 3
setzen, 3
shoo@@ 3
smit@@ 3
sooth@@ 3
spa@@ 3
specta@@ 3
spielen, 3
spro@@ 3
stain@@ 3
ste, 3
stoff@@ 3
stressig, 3
sunse@@ 3
tball. 3
tell@@ 3
ter, 3
termin@@ 3
tible 3
tici@@ 3
tivity 3
translat@@ 3
trend@@ 3
trinken, 3
tro 3
trotz@@ 3
trustwor@@ 3
tsch@@ 3
tum 3
ug@@ 3
ugg@@ 3
ular. 3
ular@@ 3
ulin@@ 3
umbre@@ 3
ument 3
ump@@ 3
unges 3
ungspar@@ 3
unik@@ 3
univer@@ 3
unpredic@@ 3
unusu@@ 3
uri@@ 3
var@@ 3
ve-@@ 3
verbunden, 3
verein@@ 3
verschw@@ 3
wait@@ 3
wed. 3
wed@@ 3
wen 3
winter@@ 3
won@@ 3
wunderbar, 3
wünsch@@ 3
würdig@@ 3
yl@@ 3
yon@@ 3
z, 3
zar@@ 3
Überraschungen, 3
Überzeu@@ 3
älter@@ 3
öf@@ 3
önn@@ 3
öte 3
überforder@@ 3
ück 3
üg@@ 3
ühr@@ 3
ünst@@ 3
’@@ 3
&@@ 2
*@@ 2
+ 2
-Show@@ 2
6@@ 2
Acc@@ 2
Anfan@@ 2
Auswirk@@ 2
Berggi@@ 2
Betra@@ 2
Beziehung, 2
Bien@@ 2
Brie@@ 2
Brille, 2
Bungee-J@@ 2
DIY@@ 2
Des@@ 2
Dingen, 2
Disne@@ 2
Einflu@@ 2
Ema@@ 2
Erfolg, 2
Erlebnisse, 2
Fahrrad, 2
Fall@@ 2
Festival, 2
Flohmärk@@ 2
Freiwil@@ 2
Freundschaft, 2
Frühling, 2
Führ@@ 2
Führer@@ 2
Gats@@ 2
Gehir@@ 2
Gerech@@ 2
Gesundheit, 2
Gleichberechtig@@ 2
Grenzen, 2
Gro@@ 2
Gärtn@@ 2
Handy, 2
Hawaii@@ 2
Heimatstadt, 2
Hobby, 2
Hun@@ 2
Hund, 2
Hängemat@@ 2
Häu@@ 2
Imagin@@ 2
J 2
Jahreszeit, 2
Kari@@ 2
Katze, 2
Kindheit@@ 2
Komfort@@ 2
Komm@@ 2
Komö@@ 2
Kurz@@ 2
Kür@@ 2
Lager@@ 2
Land, 2
Lieblingshob@@ 2
Lieblingsmusi@@ 2
Lieblingsreise@@ 2
Lou@@ 2
Mass@@ 2
Medizin@@ 2
Morgen, 2
Motorra@@ 2
Musikfestiv@@ 2
Musikinstrument@@ 2
Mäd@@ 2
Nek@@ 2
O 2
Partn@@ 2
Partner, 2
Proje@@ 2
Projekt, 2
Präsent@@ 2
Reg@@ 2
Retro@@ 2
Sar@@ 2
Satur@@ 2
Saun@@ 2
Schlan@@ 2
Schmetterling@@ 2
Schwächen, 2
Sci-F@@ 2
Science@@ 2
Selbstreflexi@@ 2
Smoothi@@ 2
Sommerre@@ 2
Sonn@@ 2
Sonnenbri@@ 2
Städter@@ 2
Tage, 2
Tarantin@@ 2
Technologien, 2
Telef@@ 2
Tugend, 2
Umgebung, 2
Unabhängigkeit, 2
Verbind@@ 2
Vergan@@ 2
Vergn@@ 2
Vinyl@@ 2
Vo@@ 2
Vog@@ 2
Vogelgezwitsch@@ 2
Vortra@@ 2
Wär@@ 2
York, 2
You@@ 2
Zeitschri@@ 2
Zim@@ 2
Zoo, 2
Zufrieden@@ 2
Zufriedenheit, 2
Zuhause, 2
[@@ 2
]@@ 2
abili@@ 2
abre@@ 2
accompan@@ 2
alist@@ 2
all, 2
aller@@ 2
allplat@@ 2
alon@@ 2
anal@@ 2
and, 2
andere, 2
anke@@ 2
anni@@ 2
anreg@@ 2
anstren@@ 2
anzusehen, 2
arant@@ 2
are, 2
ate, 2
ates, 2
atures. 2
aufräumen, 2
aurant 2
ausprobiert, 2
autor 2
avi@@ 2
bahn@@ 2
barefoo@@ 2
basketball@@ 2
beau@@ 2
beeindruckend, 2
befo@@ 2
belieb@@ 2
ben, 2
ber, 2
besit@@ 2
bevorsteh@@ 2
bewusst, 2
bles@@ 2
bou@@ 2
bow 2
buzz@@ 2
ccoli. 2
cent 2
che, 2
cheese@@ 2
childr@@ 2
chter 2
cke, 2
clea@@ 2
coco@@ 2
comfor@@ 2
comfort@@ 2
compan@@ 2
condition@@ 2
countr@@ 2
craft@@ 2
cture 2
cuisin@@ 2
dca@@ 2
dcast 2
decisi@@ 2
deep@@ 2
delay@@ 2
depend@@ 2
desser@@ 2
dies@@ 2
disappoin@@ 2
discrimin@@ 2
doc@@ 2
doctor@@ 2
dow 2
dow@@ 2
drag@@ 2
drea@@ 2
dring@@ 2
driver@@ 2
dustr@@ 2
echtig@@ 2
eiter@@ 2
elder@@ 2
ells 2
ely, 2
ensi@@ 2
enswert, 2
entdecken, 2
erklär@@ 2
erledigen, 2
erne 2
erschöpf@@ 2
esty@@ 2
et, 2
eting 2
ette, 2
eute, 2
excell@@ 2
exhau@@ 2
expand@@ 2
feel@@ 2
festiv@@ 2
fließ@@ 2
flutter@@ 2
foli@@ 2
founda@@ 2
frem@@ 2
fulles@@ 2
för@@ 2
gant 2
ge-@@ 2
geholfen, 2
genheit 2
gentlich 2
gerade, 2
geschnit@@ 2
gestalten, 2
gewasch@@ 2
gin@@ 2
gir@@ 2
grate@@ 2
gres@@ 2
hall@@ 2
hap@@ 2
he, 2
heim@@ 2
heit, 2
herauszu@@ 2
herrlich, 2
hour@@ 2
hurr@@ 2
ibli@@ 2
ie, 2
iel 2
ieß@@ 2
ign 2
im. 2
immel 2
immel@@ 2
indispens@@ 2
indro@@ 2
infinit@@ 2
ingt 2
innam@@ 2
instr@@ 2
interes@@ 2
issu@@ 2
isten, 2
itali@@ 2
itan@@ 2
itar 2
itu@@ 2
jeman@@ 2
keep@@ 2
kennengelernt, 2
kes@@ 2
kitchen@@ 2
klingelt, 2
knir@@ 2
know@@ 2
kochen, 2
kostbar, 2
kri@@ 2
krie@@ 2
künf@@ 2
l, 2
labor@@ 2
lands@@ 2
lav@@ 2
leben, 2
led@@ 2
liar@@ 2
liebe, 2
line. 2
ll. 2
lla 2
logi@@ 2
lowed 2
läne 2
magin@@ 2
magnific@@ 2
mann 2
meditieren, 2
mein@@ 2
mie@@ 2
mna@@ 2
mono@@ 2
motivieren, 2
mut@@ 2
mäl@@ 2
nass@@ 2
nchen 2
neak@@ 2
nic 2
nigh@@ 2
nis, 2
notwendig, 2
o, 2
obses@@ 2
oke. 2
ollyw@@ 2
onest. 2
open-@@ 2
oper@@ 2
opp@@ 2
opportun@@ 2
order@@ 2
orien@@ 2
oursel@@ 2
photograp@@ 2
place@@ 2
plau@@ 2
plizier@@ 2
poem@@ 2
popu@@ 2
port@@ 2
positiv, 2
ppe, 2
pray@@ 2
prepa@@ 2
pto@@ 2
purpo@@ 2
rabb@@ 2
relationshi@@ 2
repair@@ 2
requi@@ 2
res. 2
restaur@@ 2
retur@@ 2
scharf@@ 2
schauen, 2
schen, 2
schenk@@ 2
schle@@ 2
schlu@@ 2
sely 2
ser. 2
sever@@ 2
shin@@ 2
sibling@@ 2
simpli@@ 2
sion@@ 2
skir@@ 2
slow@@ 2
snowfla@@ 2
sofa@@ 2
soo@@ 2
spic@@ 2
sproje@@ 2
sst 2
stal 2
stark, 2
sted. 2
stom@@ 2
streng@@ 2
strong@@ 2
swim@@ 2
sycho@@ 2
tas@@ 2
tball@@ 2
templa@@ 2
therap@@ 2
thern 2
through@@ 2
tire@@ 2
tische 2
tivit@@ 2
to-@@ 2
top@@ 2
tra 2
tradi@@ 2
try. 2
ts, 2
tter, 2
ture 2
täusch@@ 2
uc@@ 2
uft 2
ulern@@ 2
ulinary 2
ultur 2
unded 2
unfair@@ 2
ungskra@@ 2
unter, 2
unvor@@ 2
urteil@@ 2
uter 2
verkauf@@ 2
verlässi@@ 2
verschie@@ 2
verschmut@@ 2
versit@@ 2
vide@@ 2
vir@@ 2
volle@@ 2
warm, 2
wech@@ 2
wegzudenk@@ 2
welt@@ 2
wert, 2
wertvoll, 2
whi@@ 2
wick@@ 2
wiedergesehen, 2
wunderschön, 2
währ@@ 2
ylo@@ 2
ys, 2
ysi@@ 2
ze, 2
zeln@@ 2
zem 2
zufrieden, 2
zwischen@@ 2
ämp@@ 2
änk 2
í@@ 2
öhn@@ 2
öl@@ 2
ür 2
“ 2
„@@ 2
've 1
," 1
Abend, 1
Ame@@ 1
Anblick, 1
Apf@@ 1
Atmosp@@ 1
Aufga@@ 1
Auto, 1
Autos, 1
Bas@@ 1
Baum, 1
Bay@@ 1
Beziehungen, 1
Bibliothek, 1
Bildung, 1
Blumenstr@@ 1
Brot, 1
Caribbe@@ 1
Christma@@ 1
Computer, 1
Eichhör@@ 1
Einfach@@ 1
Enga@@ 1
Entspannung, 1
Eu@@ 1
Fami@@ 1
Finan@@ 1
Fluss, 1
Freien, 1
Fremd@@ 1
Freundin, 1
Friseur, 1
Fußball, 1
Fähigkeiten, 1
Garten, 1
Gast@@ 1
Geborgenheit, 1
Gedanken, 1
Geheimnisse, 1
Geist, 1
Geocach@@ 1
Geräusche, 1
Getränk, 1
Gut, 1
Hallowe@@ 1
Haus, 1
Haustiere, 1
Hoff@@ 1
Holz, 1
Horizont, 1
Horrorfilme, 1
Hunger, 1
Inspiration, 1
Instrument@@ 1
Japan, 1
K 1
Katzen, 1
Kerzen@@ 1
Kindern, 1
Kino, 1
Kleider@@ 1
Kreativit@@ 1
Kreu@@ 1
Kunstform, 1
Lebe 1
Lieblingsge@@ 1
Lieblingsjahr@@ 1
Lieblingsjahreszeit, 1
Lim@@ 1
Lit@@ 1
M 1
Malen, 1
Maler@@ 1
Marmel@@ 1
Medizin, 1
Men@@ 1
Milch, 1
Märk@@ 1
Möglich@@ 1
Nachbarn, 1
Nachthimmel, 1
Nega@@ 1
Net@@ 1
Onlin@@ 1
Outdoor@@ 1
Party, 1
Poten@@ 1
Potenzi@@ 1
Pullover@@ 1
Rechn@@ 1
Regentro@@ 1
Rückzu@@ 1
S 1
Schicksal@@ 1
Schlaf, 1
Schlü@@ 1
Schnä@@ 1
Schoß, 1
Schweißer@@ 1
Serien, 1
Spaziergang, 1
Spiel, 1
Spielplatz, 1
Sportart, 1
Sternenh@@ 1
Stimmung, 1
Tieren, 1
Traum, 1
U 1
Umar@@ 1
Univers@@ 1
V 1
Vinta@@ 1
Vort@@ 1
W 1
Weihnachten, 1
Wen@@ 1
Wetter, 1
Wi@@ 1
Wissenschaft, 1
Work-@@ 1
Work-Life-@@ 1
Y 1
Year@@ 1
Zehen, 1
Zufrie@@ 1
Zusamm@@ 1
abenteu@@ 1
ability. 1
acht, 1
advent@@ 1
afterno@@ 1
alben 1
ance, 1
ankbar@@ 1
antwort@@ 1
anziel@@ 1
ape@@ 1
ation, 1
attern@@ 1
aus, 1
authent@@ 1
auto 1
bad, 1
balanc@@ 1
bauen, 1
bedeu@@ 1
beeindru@@ 1
beendet, 1
beet@@ 1
beginnen, 1
benut@@ 1
beque@@ 1
bequem, 1
berechtig@@ 1
bereisen, 1
bereith@@ 1
besser@@ 1
besucht, 1
bewegen, 1
bier 1
bier@@ 1
blau, 1
blick, 1
bloo@@ 1
bly 1
broa@@ 1
bum 1
bus@@ 1
bücher, 1
chees@@ 1
chn@@ 1
chno@@ 1
cir@@ 1
ckt, 1
cla@@ 1
cle@@ 1
cloud@@ 1
come@@ 1
compar@@ 1
completel@@ 1
conne@@ 1
connoisseur@@ 1
convin@@ 1
craw@@ 1
cult@@ 1
demi@@ 1
dening 1
denken, 1
der, 1
det, 1
dge@@ 1
dic@@ 1
diff@@ 1
diver@@ 1
divi@@ 1
dunkel, 1
ei, 1
einkaufen, 1
eit, 1
el, 1
ell, 1
eln, 1
elt, 1
ember@@ 1
enal@@ 1
ence, 1
ench@@ 1
enden, 1
energiegeladen, 1
enever 1
engu@@ 1
enjo@@ 1
ens, 1
entspannen, 1
erikan@@ 1
erkl@@ 1
erkunden, 1
err@@ 1
erung, 1
erzen@@ 1
essen, 1
ester, 1
eten 1
eur@@ 1
evo@@ 1
expres@@ 1
extrem@@ 1
fach@@ 1
fahren, 1
fascinat@@ 1
favour@@ 1
fe, 1
fehl@@ 1
feu@@ 1
ffe, 1
ffen, 1
forget@@ 1
fortunat@@ 1
fortunately 1
fortunately, 1
forwar@@ 1
friendshi@@ 1
fuß 1
fütter@@ 1
geführt, 1
gehört, 1
geiz@@ 1
gekauft, 1
gelacht, 1
gene 1
geplant, 1
geräu@@ 1
gesp@@ 1
gestresst, 1
gesün@@ 1
gie@@ 1
grün, 1
guitar@@ 1
gul@@ 1
hairdres@@ 1
hallen@@ 1
halten, 1
handic@@ 1
heben, 1
heirate@@ 1
herum, 1
heute, 1
hilosophi@@ 1
hnach@@ 1
honest@@ 1
hre 1
ibe 1
iegel@@ 1
iest 1
ig, 1
imme@@ 1
industr@@ 1
inning 1
inno@@ 1
inter 1
intoxic@@ 1
iso@@ 1
isp@@ 1
isten 1
isti@@ 1
ita@@ 1
itar@@ 1
itness 1
itze, 1
izz@@ 1
izza 1
justi@@ 1
ka, 1
kalt, 1
kaputt, 1
kau@@ 1
keit, 1
keiten, 1
kennenzulernen, 1
ker@@ 1
klar, 1
klein, 1
knowled@@ 1
krabb@@ 1
krist@@ 1
kt, 1
ktion@@ 1
kto@@ 1
kümmern, 1
ladung 1
lady@@ 1
landscap@@ 1
lapto@@ 1
laufen, 1
lausch@@ 1
laut, 1
leer, 1
leisure@@ 1
lifesty@@ 1
ling, 1
lix@@ 1
lungs@@ 1
lösen, 1
mainten@@ 1
majest@@ 1
malen, 1
markt, 1
mem 1
mindful@@ 1
mone@@ 1
mooth@@ 1
mpath@@ 1
mspr@@ 1
murmur@@ 1
museum@@ 1
musical@@ 1
mäß@@ 1
nec@@ 1
nervö@@ 1
nick 1
nisse, 1
oce@@ 1
olly@@ 1
olph@@ 1
omie 1
ood, 1
op 1
or, 1
orror 1
ort, 1
oug@@ 1
outdoor@@ 1
p, 1
pati@@ 1
peac@@ 1
pens@@ 1
perfu@@ 1
pes 1
pes. 1
pfei@@ 1
philosophi@@ 1
pho@@ 1
podcast@@ 1
poe@@ 1
poin@@ 1
potenti@@ 1
pren@@ 1
produktiv, 1
proper@@ 1
präg@@ 1
putzen, 1
qui@@ 1
quie@@ 1
recogn@@ 1
reflexi@@ 1
refoo@@ 1
responsibili@@ 1
restauran@@ 1
rift@@ 1
righ@@ 1
rilled. 1
ror@@ 1
ross 1
rot, 1
rout@@ 1
rying 1
sag@@ 1
sal 1
sam, 1
sbegier@@ 1
scape 1
sch, 1
scheid@@ 1
schlecht, 1
schmil@@ 1
schwarz, 1
schwimmen, 1
schöner, 1
seagul@@ 1
self-realiz@@ 1
skra@@ 1
sonnig, 1
spac@@ 1
spec@@ 1
spektak@@ 1
spira@@ 1
sportlich, 1
sprechen, 1
spät@@ 1
ss, 1
strali@@ 1
ständ@@ 1
sue 1
sugar@@ 1
super, 1
sushi@@ 1
sustainabl@@ 1
swee@@ 1
sy. 1
system@@ 1
süß, 1
tanden, 1
tanzen, 1
taus@@ 1
te: 1
technolog@@ 1
tennis@@ 1
tern, 1
thank@@ 1
that@@ 1
thei@@ 1
thous@@ 1
thum@@ 1
ticip@@ 1
tigen, 1
tikel 1
timmung 1
titu@@ 1
titude. 1
trul@@ 1
trust@@ 1
turquo@@ 1
tweit 1
uch, 1
uchen, 1
uchs@@ 1
ulinar@@ 1
ulture@@ 1
ument@@ 1
ummen 1
umpk@@ 1
unbeat@@ 1
unde, 1
unden, 1
unexpec@@ 1
unforget@@ 1
unpre@@ 1
unpünkt@@ 1
unsth@@ 1
unterhalten, 1
unterschiedlich, 1
uppe 1
urtsta@@ 1
uth 1
vegetabl@@ 1
vegetari@@ 1
verantwort@@ 1
verführ@@ 1
vermö@@ 1
versüß@@ 1
verwirk@@ 1
verändern, 1
viel, 1
vorbei, 1
wai@@ 1
wandern, 1
waren@@ 1
waschen, 1
wechs@@ 1
weg, 1
weiter, 1
wes@@ 1
widersteh@@ 1
wieder, 1
wiedergetroffen, 1
wimm@@ 1
wohlsten, 1
work-@@ 1
wäch@@ 1
x, 1
yball@@ 1
yel@@ 1
yl 1
zin 1
zinier@@ 1
zir@@ 1
zogen, 1
zt, 1
zugleich, 1
zul@@ 1
zunehm@@ 1
zurück, 1
zusammen, 1
zutau@@ 1
zwisch@@ 1
} 1
´@@ 1
älle 1
är, 1
öffentlich@@ 1
örper@@ 1
ös@@ 1
ü 1
ünkt@@ 1
ürz@@ 1
̈@@ 1
​@@ 1
니@@ 1
다@@ 1
입@@ 1
madeupword0000 0
