I 38544
the 30475
to 25142
Ich 24164
a 23118
in 22795
of 17838
and 17701
und 16776
is 16202
zu 15875
die 13868
ist 12905
"Ich 10604
der 10013
am 9441
that 9217
ein 9166
The 8645
like 7966
my 7817
es 7437
eine 7379
das 7165
von 7086
bin 6693
es, 6557
ich 6250
for 6115
an 5731
are 5471
den 5397
have 5378
Die 5174
was 5083
dass 4998
on 4921
habe 4794
wir 4725
auf 4714
für 4662
we 4640
mit 4544
you 4530
im 4286
can 4236
with 4213
it 4133
gerne 4094
mag 3686
so 3635
mich 3520
be 3516
Das 3467
love 3456
A 3365
sie 3326
this 3315
sind 3280
meine 3197
at 3190
nicht 3186
liebe 3184
new 2945
einen 2917
-- 2910
, 2883
er 2864
enjoy 2783
." 2733
sich 2711
Sie 2709
. 2672
um 2654
wie 2538
kann 2501
all 2462
very 2444
en, 2438
""@@ 2402
sehr 2400
Der 2398
about 2394
" 2393
-@@ 2349
man 2317
Ein 2302
as 2248
t, 2232
war 2216
uns 2133
our 2132
My 2114
think 2109
als 2107
en. 2099
"And 2089
er@@ 2060
time 2024
good 2023
dem 1999
neue 1984
gestern 1980
wenn 1957
heute 1955
not 1941
Leben 1923
ver@@ 1919
they 1918
s 1905
what 1884
from 1879
en 1873
en." 1830
do 1826
more 1819
des 1815
t. 1805
einem 1797
me 1785
ten 1785
t 1781
one 1768
Zeit 1753
fan 1743
people 1725
or 1715
Fan 1714
te 1707
has 1657
an@@ 1640
favorite 1640
it's 1625
t." 1596
by 1591
would 1582
when 1566
en@@ 1556
über 1556
ge@@ 1554
re@@ 1551
immer 1538
go 1529
s. 1529
s, 1523
believe 1508
in@@ 1498
ing 1492
out 1491
"@@ 1466
be@@ 1459
And 1455
t@@ 1454
mir 1449
but 1447
Menschen 1424
un@@ 1417
haben 1415
hat 1415
us 1409
diese 1405
s@@ 1390
einer 1388
going 1387
Mein 1372
aus 1367
Welt 1365
up 1362
"Und 1360
k@@ 1356
: 1348
important 1345
had 1340
just 1335
noch 1300
mehr 1297
will 1279
e 1274
S@@ 1270
their 1267
genieße 1266
oder 1261
Eine 1258
g@@ 1248
don't 1247
zum 1238
e, 1223
b@@ 1215
always 1212
also 1210
? 1199
big 1199
aber 1192
nach 1185
ung 1185
meinen 1175
great 1174
.""" 1171
auch 1167
ist, 1167
if 1161
today. 1136
p@@ 1126
e@@ 1122
y 1121
make 1119
"Es 1116
your 1116
get 1115
d@@ 1111
f@@ 1109
who 1106
Natur 1103
Es 1099
gibt 1095
a@@ 1093
s." 1071
meiner 1067
these 1066
viel 1066
how 1059
B@@ 1055
I'm 1046
keine 1031
Tag 1029
every 1024
alle 1019
life. 1008
nur 1007
mein 1006
want 1003
durch 997
Und 994
into 992
yesterday. 992
Abend 984
need 979
really 979
meinem 977
sch@@ 977
etwas 975
because 974
were 969
world 959
"Das 958
work 953
c@@ 952
m@@ 950
großer 948
st@@ 946
ein@@ 939
können 937
being 933
"So 930
he 930
see 928
i@@ 925
other 924
A@@ 922
e. 918
K@@ 916
n@@ 911
al@@ 910
y@@ 908
sein 907
ch@@ 904
many 903
di@@ 901
take 898
bei 894
should 890
life 888
li@@ 880
es. 876
which 875
aus@@ 874
viele 871
through 868
it@@ 860
werden 860
there 858
Wir 850
could 847
day 847
glaube 846
know 845
"I 843
ar@@ 837
le@@ 837
o@@ 834
unsere 834
me. 831
z@@ 828
se@@ 827
So 825
is@@ 817
es@@ 813
way 811
h@@ 810
lot 809
de@@ 807
C@@ 806
on@@ 806
D@@ 805
G@@ 804
Ver@@ 802
Musik 801
last 801
u@@ 801
been 800
y, 800
E@@ 796
denke, 796
"In 795
ab@@ 795
anderen 790
some 789
Familie 785
It 785
things 783
ation 780
e." 779
feel 778
ed 777
y. 772
wird 771
muss 768
different 764
ent@@ 762
um@@ 762
vor 762
Meine 757
"Wir 754
H@@ 752
F@@ 749
friends 744
möchte 744
hier 742
finde 741
ter 741
them 739
P@@ 738
?" 733
something 733
el@@ 727
over 726
r@@ 726
T@@ 725
try 724
most 721
l@@ 720
where 717
R@@ 714
ti@@ 714
auf@@ 711
We 710
find 710
ing. 709
al 708
An@@ 706
ate 706
dann 705
er. 693
gehe 691
– 689
"Die 687
than 686
L@@ 679
ge 673
dieser 671
own 671
at@@ 670
around 666
machen 664
ten, 664
M@@ 663
andere 663
ma@@ 663
d, 657
day. 655
; 654
en" 654
ihre 650
"" 649
N@@ 645
or@@ 643
er, 639
then 638
looking 637
Freunden 634
jeder 633
Dinge 631
gut 625
da@@ 624
actually 623
d. 622
still 622
te, 622
It's 620
Freunde 619
Kaffee 619
that's 618
ungen 617
v@@ 616
te@@ 615
m 613
its 609
gen 608
ro@@ 607
book 606
eines 605
mal 603
gute 600
schätze 597
friends. 593
ins 591
ri@@ 590
look 589
Essen 587
dankbar 585
ing, 585
first 583
ts 583
world. 583
ck@@ 582
W@@ 580
"Sie 579
her 579
Buch 575
's 574
Ge@@ 574
able 573
music 573
"But 572
"The 572
beautiful 571
glaube, 571
macht 568
long 567
best 566
selbst 559
Sch@@ 558
end 558
st 557
"Wenn 555
es." 555
me@@ 554
zur 554
Mensch 550
Stadt 550
gutes 550
ra@@ 550
sp@@ 550
grateful 549
ist." 549
his 548
O@@ 547
- 545
he@@ 545
family 543
person 541
w@@ 540
ac@@ 539
wichtig 539
i 538
learn 536
schon 535
über@@ 534
even 533
Lieblings@@ 532
little 532
city 531
back 530
de 530
o 530
Meer 529
much 529
full 527
those 525
nature. 524
only 524
no 523
ische 522
wirklich 521
fühle 520
würde 518
le 517
se 517
walk 517
we@@ 516
ad@@ 512
alles 511
♫ 511
wieder 510
warm 509
weil 509
ischen 508
wish 505
d 504
But 503
co@@ 503
ern 499
old 499
ä@@ 499
ung, 493
lo@@ 492
oft 492
spending 492
thing 490
voller 490
zu@@ 490
her@@ 488
here 488
Re@@ 485
spend 484
th@@ 484
often 483
neuen 482
"Aber 481
live 481
next 481
right 480
y." 480
am@@ 479
This 478
dream 478
po@@ 476
ie 474
tion 474
Sport 473
two 470
travel 469
p 467
Aber 466
ur@@ 466
tra@@ 465
read 464
it. 463
positive 463
ung. 459
never 458
da 457
years 457
d." 456
k 455
liche 455
Art 454
gen@@ 454
vor@@ 454
as@@ 453
got 452
seine 452
appreciate 451
for@@ 451
sea 451
sehen 451
we're 451
Ein@@ 448
diesem 448
hatte 448
dis@@ 447
food 447
help 447
Aus@@ 446
gehen 446
op@@ 446
Sonne 445
drink 445
sollte 445
einfach 444
you're 443
mo@@ 442
ten@@ 442
better 441
coffee 441
pro@@ 441
Arbeit 440
to@@ 440
end@@ 439
Ihnen 438
use 438
con@@ 437
dieses 437
come 436
ter@@ 436
daran, 434
?""" 431
geht 431
person. 431
si@@ 431
ha@@ 430
(Laughter) 429
unter 428
beautiful. 425
Be@@ 424
wichtig, 424
trying 423
In 422
Himmel 421
il@@ 421
now 421
"""I 418
Z@@ 417
haben, 417
too 417
ent 416
ihr 416
night. 415
night 414
ted 414
working 413
feeling 412
ne@@ 410
"We 409
us@@ 409
Er@@ 407
Leute 407
chen 406
makes 406
den@@ 405
happy 405
men 405
wurde 405
ch 404
jeden 404
ges@@ 403
g 402
l 402
sun 400
ers 399
it, 399
doing 398
she 396
it." 395
fe@@ 393
ungs@@ 392
diesen 391
J@@ 390
der@@ 390
lich 390
n 390
I@@ 388
give 388
did 387
ting 386
ing@@ 385
Morgen 384
Strand 384
movie 384
playing 384
au@@ 383
time. 383
"S@@ 382
Bücher 379
ten. 379
went 379
bo@@ 378
nature 378
change 377
ing." 377
kind 377
people. 377
gen, 376
gerade 376
art 375
lange 375
unter@@ 375
Kunst 374
wo 374
same 373
Se@@ 372
forward 372
bis 371
miss 371
ta@@ 371
.@@ 370
nie 370
ag@@ 369
ge, 368
"(Laughter) 367
Geschichte 367
play 367
wor@@ 366
ated 365
ber@@ 365
sh@@ 365
there's 365
a, 363
any 362
könnte 362
müssen 362
sa@@ 362
trinke 362
3@@ 361
St@@ 361
place 361
verschiedene 361
fen 360
ir@@ 360
om@@ 360
tr@@ 360
zwei 360
do@@ 359
du 359
unser 359
Blumen 358
im@@ 358
neues 358
glücklich 357
no@@ 357
vermisse 357
'@@ 355
said, 354
freue 353
made 353
qu@@ 352
werde 352
einmal 350
In@@ 349
ger@@ 349
a. 348
ex@@ 348
ig@@ 347
sten 347
watching 347
brauche 346
ho@@ 346
sein." 346
denke 345
gra@@ 345
ten." 345
ung@@ 345
jetzt 343
reading 342
Kinder 341
fresh 341
isch 341
part 341
an, 340
is, 340
ol@@ 340
ul@@ 339
unserer 339
j@@ 338
haben." 337
"This 334
ating 334
ü@@ 334
Ab@@ 333
Kulturen 333
kann." 333
ly 333
ve 333
car 332
min@@ 332
sind, 332
sk@@ 332
sky 332
down 331
gel@@ 330
power 330
Jahren 329
Mar@@ 329
beim 329
can't 329
Le@@ 328
after 326
hin@@ 326
Garten 325
Nature 325
arbeite 325
things. 325
te. 324
"Now, 323
Gefühl 323
cup 323
getting 323
h 323
prefer 323
waren 323
each 322
morning. 322
music. 322
start 322
they're 322
2@@ 321
Jahre 321
Vor@@ 320
taking 320
1@@ 319
Schönheit 319
träume 319
Zukunft 318
ke 318
ohne 318
Sp@@ 317
Tasse 317
em@@ 317
et@@ 317
par@@ 317
te." 317
war@@ 317
bald 316
called 316
damit 315
ende 315
4@@ 314
ier@@ 314
so@@ 314
su@@ 314
watch 314
free 313
lichen 313
yesterday 313
family. 312
"If 311
There 311
draußen 311
g, 311
human 311
wer@@ 311
Film 310
Tee 310
Park 309
mis@@ 309
wa@@ 309
""." 307
You 307
ben 307
ihnen 307
Er 306
friend 306
ist@@ 306
me, 306
machen." 305
man@@ 305
Jahr 304
Luft 304
Mann 303
(@@ 302
V@@ 302
open 302
Reisen 301
schön 301
small 301
hard 300
schaue 300
started 300
vom 300
Hund 299
myself 299
com@@ 298
everything 297
la@@ 297
verbringe 297
"It 296
ation. 296
br@@ 296
per@@ 296
sind." 296
tri@@ 296
besonders 295
ds 295
ic@@ 295
f 294
found 294
ine 294
z 294
Wasser 293
an. 293
ö@@ 293
hat, 292
tolle 292
sondern 291
gesch@@ 290
smell 290
st, 290
three 290
all@@ 289
bar@@ 289
n, 289
talk 289
happy. 288
know, 288
making 288
movies. 288
5@@ 287
Auto 287
Yoga 287
dies 287
res@@ 287
," 286
ger 286
Pizza 285
bi@@ 285
denn 285
kleinen 285
lernen 285
put 285
tell 285
x@@ 285
Regen 284
Wochenende 284
b 283
car@@ 283
ihn 283
kein 283
sein, 283
"You 282
eat 282
n. 282
ob 282
ste@@ 282
le, 281
on, 281
Un@@ 280
ation, 280
paar 280
water 280
Mo@@ 279
New 279
another 279
bes@@ 279
gemacht 279
"It's 278
Ma@@ 278
air 278
bl@@ 278
darüber 278
de, 278
ice 278
on. 278
pa@@ 278
ut@@ 278
Liebe 277
beauty 277
dar@@ 277
flowers 277
große 277
ieren 277
tes 277
Ar@@ 276
I've 275
They 275
al. 275
tet 275
! 274
Life 274
ale 274
having 274
können." 274
us. 274
without 274
Menschen, 273
Nacht 273
nicht, 272
star@@ 272
ak@@ 271
cultures. 271
ent. 271
ge. 271
zwischen 271
ment 270
say 270
tun 270
beste 269
wünsche 269
"W@@ 267
al, 267
g. 267
learning 267
pe@@ 267
lie@@ 266
Music 265
ally 265
between 265
ke@@ 265
pl@@ 265
ste 265
Teil 264
ap@@ 264
go@@ 264
in. 264
saw 264
why 264
Katze 263
einige 263
tion. 263
ganz 262
m, 262
sehen, 262
"So, 261
ck 261
frisch 261
se. 261
Träume 260
enden 259
gesehen 259
inter@@ 259
ar 258
beach. 258
davon 258
king 258
nichts 258
while 258
10 257
9@@ 257
alte 257
dog 257
guter 257
versuche, 257
6@@ 256
sm@@ 256
t" 256
tea 256
war, 256
Sommer 255
ali@@ 255
dr@@ 255
ern@@ 255
"My 254
Sterne 254
besser 254
se, 254
Al@@ 253
What 253
already 253
ben@@ 253
mir, 253
werden." 253
Ort 252
cat 252
gu@@ 252
ie@@ 252
manchmal 252
needs 251
,"" 250
höre 250
others. 250
red 250
sein. 250
sky. 250
"Mein 249
few 249
vielleicht 249
does 248
gen. 248
morning 248
phone 248
bit 247
off 247
We@@ 246
ff@@ 246
gt 246
k, 246
percent 246
unseren 246
En@@ 245
ihren 245
trip 245
sein" 244
sollten 244
denen 243
ganzen 243
kt 243
might 243
alten 242
restaurant 242
and@@ 241
hat." 241
k. 241
we've 241
wi@@ 241
U@@ 240
ant 240
sen@@ 240
tre@@ 240
Leben. 239
Winter 239
beach 239
bring 239
care 239
park 239
er." 238
"Er 237
ere 237
har@@ 237
ity 237
können, 237
didn't 236
eigenen 236
wissen 236
Gesundheit 235
Glück 235
ersten 235
est 235
garden. 235
gives 235
ic 235
spazieren 235
everyone 234
keep 234
tu@@ 234
ans 233
doesn't 233
stars 233
Restaurant 232
Ziele 232
iert 232
let 232
scheint 232
stay 232
Was 231
food. 231
ft 231
park. 231
ts. 231
"D@@ 230
Freund 230
create 230
ded 230
real 230
value 230
That's 229
le. 229
m. 229
reisen 229
ze 229
ach@@ 228
achieve 228
cht 228
fl@@ 228
leben 228
show 228
än@@ 228
lan@@ 227
mat@@ 227
sports 227
8@@ 226
Frau 226
brings 226
drei 226
du@@ 226
iz@@ 226
lin@@ 226
nice 226
ru@@ 226
Me@@ 225
ance 225
came 225
creative 225
geben 225
sometimes 225
"When 224
Spaziergang 224
books 224
ert 224
fol@@ 224
form 224
that, 224
Di@@ 223
freshly 223
gehen." 223
led 223
lich@@ 223
under 223
"Well, 222
che 222
fa@@ 222
mu@@ 222
ast@@ 221
ations 221
bringt 221
dazu 221
durch@@ 221
eren 221
less 221
time, 221
tions 221
"They 220
20 220
books. 220
ce 220
fac@@ 220
fit 220
genau 220
up@@ 220
Haus 219
Vögel 219
science 219
ser@@ 219
"Der 218
Wohnung 218
cre@@ 218
davon, 218
evening. 218
ging 218
set 218
spielen 218
stand 218
system 218
took 218
Auf@@ 217
Geruch 217
Schokolade 217
anzu@@ 217
ct 217
fe 217
visit 217
7@@ 216
Leidenschaft 216
gi@@ 216
id 216
interesting 216
licher 216
tion, 216
hot 215
kommen 215
used 215
Freude 214
birds 214
dringend 214
light 214
ons 214
ow@@ 214
sen 214
body 213
ens 213
ous 213
wäre 213
/@@ 212
mit@@ 212
Filme 211
Herbst 211
gr@@ 211
planning 211
rain 211
Reise 210
braucht 210
fin@@ 210
sogar 210
Freizeit 209
gegen 209
idea 209
ist" 209
lich. 209
mach@@ 209
myself. 209
th 209
50 208
ter. 208
us, 208
Gedanken 207
Körper 207
em 207
out@@ 207
pre@@ 207
sieht 207
während 207
"A@@ 206
again. 206
des@@ 206
early 206
ents 206
proud 206
vi@@ 206
comes 205
particularly 205
pp@@ 205
"Als 204
Zu@@ 204
home 204
interested 204
stolz 204
ter, 204
Unter@@ 203
dort 203
guten 203
in, 203
call 202
concert 202
soon. 202
tatsächlich 202
bevorzuge 201
de. 200
fre@@ 200
großen 200
living 200
nun 200
sion 200
work. 200
Sprache 199
bringen 199
children 199
cozy 199
delicious. 199
hn@@ 199
ich@@ 199
listen 199
them. 199
today 199
x 199
5 198
ko@@ 198
lese 198
nächste 198
ris@@ 198
say, 198
sort 198
thinking 198
together 198
ct@@ 197
ell@@ 197
ihrer 197
keinen 197
liches 197
self-@@ 197
spiele 197
win@@ 197
wünschte, 197
No@@ 196
bar 196
hi@@ 196
urgently 196
Ro@@ 195
ann@@ 195
aus. 195
ien 195
ischer 195
sagen, 195
shining 195
understand 195
woman 195
(Lachen) 194
Kraft 194
Tiere 194
Wald 194
fast 194
machen" 194
tern 194
Ex@@ 193
Konzert 193
ange@@ 193
id@@ 193
je@@ 193
kl@@ 193
sing 193
social 193
werden, 193
Kon@@ 192
age 192
cor@@ 192
good. 192
mar@@ 192
nehmen 192
ph@@ 192
ty 192
200@@ 191
experience 191
n." 191
ts@@ 191
work@@ 191
Or@@ 190
Wie 190
nächsten 190
sc@@ 190
schnell 190
Sonnenuntergang 189
Woche 189
erste 189
leaves 189
letzten 189
) 188
before 188
ent, 188
met 188
mon@@ 188
plan@@ 188
st. 188
Freiheit 187
el 187
evening 187
listening 187
mal@@ 187
tonight. 187
under@@ 187
whole 187
(Applause) 186
20@@ 186
Hause 186
Technologie 186
denken 186
house 186
means 186
Ihre 185
ary 185
ation@@ 185
jede 185
meisten 185
support 185
teil@@ 185
De@@ 184
Pro@@ 184
alleine 184
color 184
discover 184
kommt 184
may 184
meeting 184
men@@ 184
nach@@ 184
ou@@ 184
seit 184
tigen 184
voll 184
(Gelächter) 183
across 183
future 183
ga@@ 183
him 183
ich, 183
kann, 183
tion@@ 183
-S@@ 182
He 182
a." 182
che@@ 182
cook 182
future. 182
hal@@ 182
ies 182
story 182
wanted 182
wunderschön 182
Land 181
Spaß 181
Urlaub 181
Weg 181
fahren 181
finden 181
gab 181
kt@@ 181
sleep 181
tig 181
u 181
wichtige 181
"(Lachen) 180
gen." 180
ken 180
perfect 180
"H@@ 179
30 179
An 179
Person 179
become 179
ed@@ 179
hätte 179
kleine 179
ks 179
outside 179
ung." 179
zen 179
"M@@ 178
done 178
elle 178
group 178
ide@@ 178
ker 178
sagen 178
write 178
Bo@@ 177
Lesen 177
besten 177
fährt 177
gehen" 177
laut 177
others 177
sche 177
Po@@ 176
af@@ 176
das, 176
relaxing. 176
the@@ 176
weather 176
well 176
wird." 176
"N@@ 175
Lachen 175
Zeit@@ 175
enough 175
fer@@ 175
flo@@ 175
home. 175
hr@@ 175
ie. 175
lau@@ 175
t: 175
ungen. 175
yoga 175
"Ein 174
ant@@ 174
ci@@ 174
heit 174
kon@@ 174
ly, 174
over@@ 174
peace 174
sor@@ 174
tive 174
ure 174
Par@@ 173
ative 173
cu@@ 173
ever 173
mountains 173
seinen 173
sitting 173
tige 173
und@@ 173
using 173
wo@@ 173
är@@ 173
Abenteuer 172
Gesellschaft 172
Wetter 172
ce@@ 172
pres@@ 172
schen 172
ss@@ 172
verbringen" 172
"", 171
"Also 171
Ende 171
Moment 171
high 171
key 171
move 171
nothing 171
ran@@ 171
ver 171
Energie 170
bt 170
cold 170
healthy 170
technology 170
tic@@ 170
tz@@ 170
view 170
zurück@@ 170
city. 169
coffee. 169
ein. 169
ellen 169
ens@@ 169
looks 169
said 169
sports. 169
such 169
thought 169
tru@@ 169
uch@@ 169
walks 169
Selbst@@ 168
animal 168
ep@@ 168
fo@@ 168
gan@@ 168
job 168
ob@@ 168
sound 168
Also 167
Au@@ 167
Lebens 167
Th@@ 167
building 167
ch. 167
far@@ 167
hope 167
ieren." 167
school 167
stre@@ 167
ungen, 167
warme 167
art. 166
eigene 166
ge." 166
improve 166
lassen 166
learned 166
verbringen." 166
wurden 166
Berge 165
Kind 165
Orte 165
Y@@ 165
ation." 165
bere@@ 165
garden 165
iten 165
language 165
letzte 165
sal@@ 165
schöne 165
sta@@ 165
trage 165
Sie, 164
bu@@ 164
liegt 164
meet 164
ters 164
tion." 164
toll, 164
"Was 163
Gruppe 163
cken 163
dabei 163
enn@@ 163
ganze 163
les 163
or, 163
relax. 163
spielt 163
traveling 163
% 162
Duft 162
Hand@@ 162
Mon@@ 162
ed, 162
etwa 162
fra@@ 162
gl@@ 162
gs 162
sun@@ 162
tolles 162
year 162
2 161
Millionen 161
Möglichkeit, 161
Ruhe 161
brain 161
ch, 161
geh@@ 161
gener@@ 161
ings 161
ist. 161
ness 161
outside. 161
verbringen 161
"(Gelächter) 160
"T@@ 160
Hier 160
Job 160
again 160
auszu@@ 160
ed. 160
ess@@ 160
forest 160
grün@@ 160
hen 160
ile 160
relax 160
summer 160
zusammen 160
"B@@ 159
Beispiel 159
Internet 159
ander@@ 159
bought 159
build 159
bur@@ 159
coming 159
ear@@ 159
eln 159
finde, 159
hält 159
igen 159
sagte 159
sel@@ 159
sol@@ 159
ven@@ 159
Kino 158
Wolken 158
bel@@ 158
besch@@ 158
den, 158
during 158
einzu@@ 158
esse 158
fi@@ 158
lichkeit 158
mel@@ 158
sunset 158
talking 158
wer 158
Frauen 157
He@@ 157
Natur@@ 157
Qu@@ 157
langen 157
mer@@ 157
point 157
wonderful 157
"Yesterday, 156
Ta@@ 156
Tages 156
dreams. 156
freedom 156
ful 156
hatten 156
important. 156
isches 156
on." 156
ausge@@ 155
ence 155
enjoying 155
hart 155
ly. 155
passion 155
tried 155
unserem 155
ß@@ 155
öfter 155
ding 154
e-@@ 154
ik@@ 154
lang 154
second 154
sehe 154
Über@@ 154
100 153
Diese 153
Gen@@ 153
Ko@@ 153
Macht 153
Spiel@@ 153
bed 153
ble 153
c 153
en: 153
en?" 153
gegenüber 153
gesund 153
kann" 153
sea. 153
stat@@ 153
this, 153
unglaublich 153
war." 153
you. 153
ziemlich 153
For@@ 152
[@@ 152
ability 152
anything 152
conversation 152
days 152
endlich 152
machen. 152
motiv@@ 152
olog@@ 152
tic 152
warum 152
ze@@ 152
Co@@ 151
Mal 151
bra@@ 151
elt 151
est@@ 151
genug 151
il 151
irgendwann 151
jedes 151
large 151
ment@@ 151
ors 151
vielen 151
vo@@ 151
"I@@ 150
Computer 150
Landschaft 150
Su@@ 150
Wind 150
ba@@ 150
delicious 150
ill@@ 150
lässt 150
maybe 150
room 150
run 150
zurück 150
4. 149
Bedeutung 149
bad 149
ft@@ 149
goes 149
habe, 149
hol@@ 149
ous. 149
soul. 149
stra@@ 149
t? 149
vacation 149
weniger 149
Blätter 148
So@@ 148
aufzu@@ 148
blue 148
bre@@ 148
child 148
doch 148
ds. 148
inn@@ 148
kre@@ 148
lich, 148
sin@@ 148
st." 148
"He 147
ally, 147
alone 147
arbeiten 147
away 147
cra@@ 147
fer 147
früh 147
fu@@ 147
half 147
health 147
helfen 147
kreativ 147
lives 147
meines 147
men, 147
off@@ 147
re, 147
ster@@ 147
sti@@ 147
summer. 147
weiß 147
what's 147
wind 147
aten 146
ationen 146
book. 146
ein, 146
ern, 146
fascinating. 146
ig 146
net@@ 146
stehen 146
tig@@ 146
tur@@ 146
verschiedenen 146
versuche 146
4 145
Angst 145
Arten 145
Bes@@ 145
Problem 145
Seele 145
anti@@ 145
opportunity 145
told 145
wear 145
young 145
Eltern 144
Schule 144
Wenn 144
alen 144
chen. 144
ely 144
hand@@ 144
ige 144
job. 144
lu@@ 144
str@@ 144
weiter@@ 144
you, 144
en? 143
habe." 143
kte 143
lesen 143
quite 143
seen 143
später 143
true 143
weiter 143
""The 142
(Applaus) 142
Ne@@ 142
Tier@@ 142
bro@@ 142
den. 142
difficult 142
great. 142
ie, 142
or. 142
se." 142
sehen." 142
sense 142
ved 142
ves 142
women 142
Kar@@ 141
against 141
app@@ 141
isch@@ 141
mi@@ 141
tier@@ 141
wieder@@ 141
wis@@ 141
wissen, 141
wollen 141
ün@@ 141
Freundin 140
Her@@ 140
ction 140
ess 140
führ@@ 140
helps 140
mich. 140
moment 140
plane 140
tung 140
"Diese 139
"Man 139
Idee 139
See 139
Zeit, 139
chen@@ 139
goals. 139
hören 139
ihm 139
machen, 139
scent 139
someone 139
um, 139
wirk@@ 139
"E@@ 138
6. 138
Ch@@ 138
People 138
TV 138
York 138
allen 138
and, 138
ca@@ 138
dig@@ 138
emp@@ 138
energy 138
exciting. 138
fact, 138
green 138
isch. 138
land 138
offen 138
order 138
sagte: 138
simply 138
."" 137
3 137
Kultur 137
Man 137
Straßen 137
Wunder 137
bisschen 137
clo@@ 137
finally 137
helfen, 137
positiv 137
sam@@ 137
schön. 137
ving 137
19@@ 136
Gespräch 136
Im 136
Lächeln 136
Sport@@ 136
Thank 136
air. 136
ber 136
gh@@ 136
glücklich, 136
haben" 136
hel@@ 136
ical 136
jo@@ 136
million 136
speak 136
towards 136
ur 136
viel@@ 136
""" 135
Coffee 135
Da@@ 135
Farben 135
al." 135
cts 135
dern 135
exciting 135
großartige 135
interessiere 135
mer 135
möglich 135
schmeckt 135
side 135
sub@@ 135
them, 135
wine 135
... 134
Farbe 134
Schul@@ 134
able. 134
ass@@ 134
breathtaking. 134
cannot 134
collect 134
ise 134
joy 134
lit@@ 134
ready 134
seinem 134
ts, 134
ue 134
"Nun, 133
0 133
Fahrrad 133
Geld 133
day, 133
five 133
hear 133
koche 133
mor@@ 133
trees 133
wel@@ 133
welche 133
Licht 132
Welt. 132
along 132
clouds 132
darauf, 132
ern. 132
moving 132
ms 132
pri@@ 132
re." 132
times 132
weiß, 132
wunder@@ 132
Mit@@ 131
apartment 131
ask 131
clear 131
course, 131
einander 131
ern." 131
geb@@ 131
he's 131
inspirier@@ 131
once 131
writing 131
y-@@ 131
5. 130
Autos 130
Bild 130
Bäume 130
Kunst@@ 130
Wasser@@ 130
dafür 130
data 130
der, 130
fen, 130
four 130
indem 130
me." 130
mood. 130
natural 130
one's 130
together. 130
vacation. 130
world, 130
3. 129
7. 129
Bildung 129
Ideen 129
Te@@ 129
ast 129
buy 129
computer 129
ev@@ 129
every@@ 129
fully 129
gemacht. 129
la 129
mp@@ 129
stell@@ 129
tal@@ 129
tastes 129
ß 129
„@@ 129
"As 128
Kom@@ 128
Länder 128
Prozent 128
Seite 128
Spaziergänge 128
To@@ 128
any@@ 128
art@@ 128
det 128
enti@@ 128
fit. 128
incredibly 128
k." 128
konnte 128
lerne 128
ll@@ 128
number 128
one, 128
rel@@ 128
schön, 128
son@@ 128
spent 128
ster 128
swimming 128
tro@@ 128
water. 128
"Now 127
Books 127
How 127
Kochen 127
Kreativität 127
Mutter 127
almost 127
baked 127
discovering 127
hilft 127
iger 127
ke, 127
must 127
places. 127
problem 127
series 127
soon 127
sure 127
visiting 127
way, 127
ways 127
wird, 127
ör@@ 127
"Eine 126
Handy 126
Musik@@ 126
bir@@ 126
couple 126
dri@@ 126
ele@@ 126
end. 126
oo@@ 126
poli@@ 126
seiner 126
tieren 126
w 126
6 125
Ent@@ 125
Ha@@ 125
She 125
auf. 125
cooking 125
dreams 125
ess. 125
g." 125
geben, 125
here, 125
jemand 125
langsam 125
movies 125
much. 125
mus@@ 125
ps 125
radi@@ 125
ses 125
tt@@ 125
week. 125
"L@@ 124
Schnee 124
Sprachen 124
That 124
be, 124
bor@@ 124
design 124
gehört 124
kids 124
o, 124
ori@@ 124
places 124
probably 124
spiel@@ 124
ür@@ 124
Erfahrungen 123
Fl@@ 123
Gehirn 123
Geist 123
Ges@@ 123
Wissenschaft 123
animals 123
at. 123
back@@ 123
bau@@ 123
besuche 123
en; 123
gro@@ 123
ihrem 123
ite 123
landscape 123
now, 123
organis@@ 123
sich@@ 123
simple 123
th. 123
vor, 123
wir@@ 123
"O@@ 122
Frühling 122
Heute 122
I'll 122
alone. 122
ates 122
cks 122
der. 122
ent." 122
fahr@@ 122
fliegt 122
fun. 122
fun@@ 122
habe" 122
importance 122
kin@@ 122
smile 122
special 122
tun, 122
up. 122
weekends. 122
year. 122
,000 121
Herausforderungen 121
Menge 121
Min@@ 121
Probleme 121
ari@@ 121
blühen 121
chocolate 121
enc@@ 121
fil@@ 121
ieren, 121
information 121
ity, 121
let's 121
sen, 121
spe@@ 121
way. 121
wegen 121
ying 121
Gefühl, 120
] 120
animals. 120
autumn 120
bird 120
country 120
enz@@ 120
et 120
health. 120
land@@ 120
le." 120
like, 120
ling 120
nach, 120
pu@@ 120
regelmäßig 120
selbst@@ 120
stellen 120
ties 120
train 120
ve, 120
ve@@ 120
voll@@ 120
weit 120
within 120
zusammen@@ 120
"For 119
Fluss 119
Geburtstag 119
Mensch. 119
ago, 119
excited 119
mean 119
pi@@ 119
piece 119
short 119
sur@@ 119
wichtiger 119
2. 118
Man@@ 118
Schlüssel 118
ah@@ 118
an." 118
blo@@ 118
lost 118
natürlich 118
neu@@ 118
party 118
ship 118
so, 118
tä@@ 118
us." 118
versch@@ 118
veränder@@ 118
wal@@ 118
wollte 118
Nach@@ 117
Wein 117
countries 117
flu@@ 117
gar@@ 117
gebe 117
heard 117
nis@@ 117
pretty 117
sprechen 117
tel@@ 117
wür@@ 117
Com@@ 116
Erde 116
Lo@@ 116
Möglichkeiten 116
Reading 116
Sta@@ 116
Tag. 116
ack@@ 116
anc@@ 116
arbeit@@ 116
atemberaubend 116
bessere 116
besucht 116
both 116
brauchen 116
don@@ 116
eigenes 116
ged 116
hor@@ 116
ju@@ 116
ler 116
medi@@ 116
of@@ 116
rat@@ 116
street 116
streets 116
wh@@ 116
zer@@ 116
ßen 116
Frieden 115
Kindern 115
Kopf 115
Lebens@@ 115
Neues 115
Now 115
bekommen 115
d-@@ 115
dra@@ 115
end, 115
finden, 115
ft. 115
ges 115
ier 115
leb@@ 115
o. 115
provide 115
public 115
question 115
re. 115
sha@@ 115
universe 115
ziehen 115
"Wie 114
7 114
all, 114
ate@@ 114
ati@@ 114
beginn@@ 114
ches 114
daran 114
ene 114
enthusiastic 114
heraus@@ 114
immer, 114
prä@@ 114
rau@@ 114
reg@@ 114
schönen 114
setz@@ 114
steht 114
t?" 114
whether 114
wonders. 114
15 113
Bett 113
Eis@@ 113
Frage 113
ad 113
beruhigend 113
fall@@ 113
fro@@ 113
kam 113
lesen" 113
pay 113
ride 113
ry 113
tan@@ 113
tor@@ 113
zeit 113
""Ich 112
""W@@ 112
Ber@@ 112
Fe@@ 112
Gemein@@ 112
Ihr 112
asked 112
can@@ 112
eating 112
f, 112
ft, 112
gehen. 112
gekauft 112
meal 112
namens 112
ner 112
our@@ 112
pas@@ 112
personal 112
re 112
sto@@ 112
them." 112
watched 112
weis@@ 112
wohl 112
Con@@ 111
Freundschaft 111
Natur. 111
Stimmung 111
Wissen 111
bit@@ 111
chte 111
cul@@ 111
erst 111
fal@@ 111
far 111
fri@@ 111
gleich 111
halte 111
hl@@ 111
iert. 111
lernen." 111
mountains. 111
reason 111
rie@@ 111
schau@@ 111
smells 111
top 111
until 111
years, 111
ys 111
"There 110
Abendessen 110
Dar@@ 110
Geschichten 110
birthday 110
chten 110
de." 110
eigentlich 110
en.""" 110
ers. 110
leave 110
og@@ 110
rech@@ 110
richtig 110
sing@@ 110
sport 110
tea. 110
types 110
ut 110
wenig 110
z. 110
"Because 109
.000 109
500 109
9. 109
Bergen 109
Freien 109
Go@@ 109
Katzen 109
Wer@@ 109
anderer 109
den." 109
ender 109
flowers. 109
gew@@ 109
global 109
groß 109
inside 109
jedem 109
late 109
mag@@ 109
mind. 109
nis 109
pizza 109
sammle 109
sed 109
serv@@ 109
strong 109
well. 109
würden 109
80@@ 108
Um@@ 108
ank@@ 108
break 108
enk@@ 108
happen@@ 108
hat@@ 108
mm@@ 108
mobile 108
people, 108
sport. 108
sport@@ 108
tat@@ 108
team 108
ter." 108
tik@@ 108
um. 108
ve. 108
äu@@ 108
"Hier 107
"P@@ 107
Chance 107
Dis@@ 107
Vielfalt 107
War@@ 107
admire 107
company 107
currently 107
darauf 107
discovered 107
erte 107
experience. 107
gehen, 107
grand@@ 107
if@@ 107
ität 107
kn@@ 107
nicht. 107
often. 107
since 107
sive 107
stri@@ 107
ständig 107
vers@@ 107
winter 107
wär@@ 107
"At 106
Do@@ 106
I'd 106
Umwelt 106
Universum 106
Ziel 106
answer 106
apartment. 106
bereits 106
gut. 106
lon@@ 106
loud 106
museum 106
ourselves 106
respect 106
s.""" 106
song 106
source 106
ton@@ 106
wach@@ 106
zi@@ 106
"K@@ 105
8. 105
Gute 105
Jeder 105
Li@@ 105
Love 105
Mädchen 105
Neu@@ 105
Nor@@ 105
colors 105
frei 105
front 105
games. 105
gele@@ 105
gets 105
gre@@ 105
healthy. 105
reise 105
res 105
tun." 105
weise 105
"A 104
"F@@ 104
8 104
Erfolg 104
Form 104
Gegen@@ 104
Hand 104
Hobby 104
Je@@ 104
Land@@ 104
Mal@@ 104
Meditation 104
USA 104
Ur@@ 104
Wandern 104
char@@ 104
col@@ 104
dishes. 104
entspannend 104
environmental 104
genießen." 104
hate 104
herum 104
history 104
hoffe, 104
ideas 104
imp@@ 104
kurz 104
left 104
lives. 104
los 104
now. 104
ort 104
place. 104
see, 104
sum@@ 104
th, 104
tik 104
time." 104
turns 104
!" 103
' 103
Car@@ 103
Today 103
Wal@@ 103
Why 103
ce, 103
cinema 103
ck. 103
colorful 103
countries. 103
ell 103
endes 103
fan@@ 103
goals 103
hil@@ 103
male 103
out. 103
parents 103
per 103
potential 103
rather 103
setze 103
shows 103
sil@@ 103
space 103
stellen, 103
takes 103
ty@@ 103
wahr@@ 103
"C@@ 102
1 102
1. 102
40 102
Auto@@ 102
Bi@@ 102
Every 102
Geschenk 102
Inter@@ 102
Menschen. 102
Museum 102
There's 102
Unternehmen 102
Warum 102
cake 102
cream 102
cur@@ 102
entdecken 102
example, 102
fli@@ 102
heart 102
m." 102
ones 102
remember 102
setzen 102
stark 102
t-@@ 102
tet, 102
tionen 102
ven 102
visited 102
Daten 101
Grund@@ 101
Sk@@ 101
ate. 101
cke 101
erreichen 101
falls 101
game 101
gleich@@ 101
hiking 101
i, 101
komm@@ 101
kten 101
las@@ 101
ort@@ 101
person@@ 101
theater 101
ther 101
tions. 101
unique 101
use@@ 101
Kuchen 100
Mu@@ 100
Sommer@@ 100
better. 100
energy. 100
ey@@ 100
hell 100
hin 100
hobby 100
hon@@ 100
leben." 100
life, 100
morgen 100
seeing 100
ser 100
sho@@ 100
sit@@ 100
vier 100
wan@@ 100
wasn't 100
weekend 100
word 100
""I 99
All 99
Entspannung 99
Fitnessstudio 99
Gel@@ 99
Gras 99
Verantwortung 99
Ziel@@ 99
aller 99
besuchen 99
board 99
comfortable 99
dance 99
enen 99
ers, 99
essen 99
fan. 99
fire 99
gemein@@ 99
hear@@ 99
icht 99
ity. 99
ner@@ 99
oll@@ 99
river 99
rop@@ 99
single 99
video 99
Bl@@ 98
Brot 98
Dinge, 98
Gutes 98
La@@ 98
Lieblingsfilm 98
Restaurants 98
anders 98
auszuprobieren" 98
begeistert 98
bet@@ 98
blau 98
cted 98
cultures 98
days. 98
dich 98
dro@@ 98
entspannen" 98
ey 98
faszinierend 98
fes@@ 98
fiction 98
fig@@ 98
fish 98
forest. 98
gibt, 98
happ@@ 98
human@@ 98
hy@@ 98
könnten 98
län@@ 98
mache 98
money 98
regularly 98
running 98
shi@@ 98
suche 98
super@@ 98
there, 98
wir, 98
yoga. 98
China 97
Haus@@ 97
Hunde 97
Straße 97
active 97
air@@ 97
ars 97
bewundere 97
calm 97
dinner 97
education 97
flying 97
foreign 97
form@@ 97
fun 97
games 97
giving 97
ht 97
huge 97
je 97
knew 97
lernen" 97
lesen." 97
mother 97
ne, 97
onen 97
part@@ 97
perfe@@ 97
pro 97
s: 97
sagte, 97
season. 97
some@@ 97
stor@@ 97
ther@@ 97
turn 97
world." 97
"(@@ 96
Bau@@ 96
Partner 96
Raum 96
Rück@@ 96
Welt@@ 96
ade 96
biolog@@ 96
calming. 96
ce. 96
grow 96
halten 96
languages. 96
looked 96
ment. 96
mountain 96
ne 96
realize 96
received 96
uns, 96
verstehen, 96
wachsen 96
winter. 96
wunderschön. 96
American 95
Dies 95
Stat@@ 95
Wor@@ 95
adventure 95
auszuprobieren." 95
ball@@ 95
ban@@ 95
became 95
brauch@@ 95
built 95
challenges. 95
decided 95
ente 95
fly 95
gemütlich 95
get@@ 95
keit 95
known 95
lä@@ 95
men." 95
schn@@ 95
schreiben 95
someday. 95
sounds 95
z, 95
Ä@@ 95
Chocolate 94
Fahr@@ 94
Gleich@@ 94
Grund 94
Harry 94
Japan 94
Recht 94
Sometimes 94
Sonnenuntergänge 94
act 94
alles, 94
ating. 94
cho@@ 94
etwas, 94
express 94
gar 94
hand 94
happens 94
hours 94
impressive. 94
kinds 94
lecker 94
lern@@ 94
mind 94
novels. 94
pon@@ 94
schauen 94
slowly 94
snow 94
that. 94
this. 94
thoughts. 94
tut 94
unseres 94
you've 94
""N@@ 93
"Meine 93
Grün@@ 93
Ru@@ 93
Umarmung 93
aktiv 93
allein 93
autumn. 93
challenge 93
control 93
dep@@ 93
differ@@ 93
dream@@ 93
eh@@ 93
entspann@@ 93
gift 93
gut, 93
ieren. 93
imagine 93
instead 93
ists 93
leben@@ 93
lot. 93
passion. 93
plat@@ 93
she@@ 93
that." 93
trans@@ 93
ungefähr 93
years. 93
"What 92
9 92
Augen 92
Bar@@ 92
Frühstück 92
Fähigkeiten 92
Hobbys 92
These 92
ani@@ 92
belie@@ 92
bri@@ 92
eher 92
en-@@ 92
ence. 92
fact 92
frischem 92
fü@@ 92
glaub@@ 92
hoch 92
ib@@ 92
ick@@ 92
ili@@ 92
ja, 92
kom@@ 92
laugh 92
ous@@ 92
picnic 92
road 92
tic. 92
wit@@ 92
works 92
"Im 91
Fotos 91
Lernen 91
Lieblingsbuch 91
Mond 91
Schu@@ 91
ab 91
alt 91
aus, 91
bieten 91
chocolate. 91
completely 91
cool 91
entdecken" 91
erreicht 91
especially 91
exactly 91
growing 91
happened 91
heit. 91
ings. 91
isen 91
ka@@ 91
keeps 91
kennenzulernen" 91
leg@@ 91
mich, 91
nam@@ 91
ocean 91
refreshing. 91
riecht 91
schaft 91
schl@@ 91
steig@@ 91
stories 91
tieren." 91
tun@@ 91
up, 91
"An@@ 90
"That 90
Entscheidungen 90
Gerichte 90
Good 90
Har@@ 90
Ho@@ 90
Informationen 90
Jahr@@ 90
Netflix 90
Sa@@ 90
Sti@@ 90
System 90
Uhr 90
United 90
ase 90
calming 90
chan@@ 90
cl@@ 90
dire@@ 90
diversity 90
el, 90
entire 90
erg@@ 90
fünf 90
gend 90
gt, 90
han@@ 90
happiness 90
history. 90
inspired 90
journey 90
ktion@@ 90
language. 90
lernen, 90
out, 90
s-@@ 90
sagt 90
schwer 90
sen. 90
starting 90
stop 90
te: 90
tou@@ 90
trä@@ 90
tter@@ 90
wahrscheinlich 90
wes@@ 90
zier@@ 90
"Th@@ 89
Dollar 89
Eis 89
Gebäude 89
Herausforderung 89
Park. 89
Vorliebe 89
amazing 89
attention 89
bei@@ 89
bereit, 89
bike 89
chen, 89
deep 89
dig 89
dir 89
do. 89
dy 89
environment. 89
gern 89
log@@ 89
oper@@ 89
possible 89
rit@@ 89
sah 89
share 89
sicher@@ 89
spar@@ 89
train@@ 89
vel@@ 89
weekend. 89
wur@@ 89
Erfahrung 88
Vogel 88
auf, 88
aufge@@ 88
beg@@ 88
care@@ 88
created 88
creating 88
effect 88
entspannt 88
fall 88
fliegen 88
geben." 88
gel 88
gemeinsam 88
haben. 88
hat" 88
hren 88
immer@@ 88
is. 88
isn't 88
joy. 88
lake 88
liebsten 88
pan@@ 88
picture 88
play@@ 88
rich@@ 88
ron@@ 88
sli@@ 88
spät 88
sun. 88
tete 88
ume 88
wearing 88
weg 88
werden. 88
worked 88
änder@@ 88
Antwort 87
Because 87
Bu@@ 87
Himmel. 87
Zug 87
abzu@@ 87
bil@@ 87
billion 87
camp@@ 87
fascinating 87
fel@@ 87
flies 87
gave 87
gn@@ 87
heit, 87
list@@ 87
low 87
mechan@@ 87
onn@@ 87
os 87
perfekte 87
responsibility 87
schie@@ 87
seh@@ 87
series. 87
this." 87
walking 87
ziel@@ 87
zwitschern 87
’s 87
Blick 86
Flugzeug 86
Ger@@ 86
Hau@@ 86
Haut 86
Kre@@ 86
One 86
Schreiben 86
Ste@@ 86
Weise 86
all. 86
bereit 86
besseren 86
bs 86
el. 86
gere@@ 86
hum@@ 86
iel@@ 86
innov@@ 86
ja@@ 86
kaum 86
lebe 86
los@@ 86
lose 86
lö@@ 86
man, 86
med 86
mess@@ 86
moon 86
offers 86
ok@@ 86
one. 86
one." 86
ously 86
past 86
sand 86
save 86
stru@@ 86
t.""" 86
thing. 86
tiv@@ 86
tor 86
treffen 86
verändern 86
y? 86
Erinnerungen 85
Familie. 85
Kinder@@ 85
Sports 85
Stille 85
Str@@ 85
Stre@@ 85
We're 85
Your 85
ad, 85
amp@@ 85
arbeit 85
changing 85
chirping 85
cut 85
cy@@ 85
experiences 85
f. 85
fasziniert 85
gen" 85
genden 85
hug 85
lat@@ 85
les@@ 85
line 85
rä@@ 85
sche@@ 85
tes@@ 85
tics 85
verbessern 85
wurde, 85
"Dies 84
12 84
Bewegung 84
Christmas 84
Gra@@ 84
Jo@@ 84
Let's 84
Lu@@ 84
Proble@@ 84
Welt, 84
Wirkung 84
ack 84
adventures. 84
again, 84
b. 84
bedeutet 84
beruhigt 84
ched 84
course 84
culture 84
driving 84
eg@@ 84
eng@@ 84
explore 84
gelesen 84
ic. 84
igh@@ 84
innen 84
inten@@ 84
interessante 84
nisse 84
project 84
role 84
ruhig 84
sehen. 84
sens@@ 84
sollte." 84
tast@@ 84
tin@@ 84
top@@ 84
ty, 84
well, 84
wonder@@ 84
you." 84
-F@@ 83
Aussicht 83
Cooking 83
Einstellung 83
Fernsehen 83
Liebling@@ 83
Musik. 83
Organis@@ 83
Projekt 83
Schuhe 83
Strand. 83
Stunden 83
Tr@@ 83
at, 83
bauen 83
bleiben 83
cal 83
ds, 83
enter@@ 83
fallen 83
friend. 83
frischen 83
gam@@ 83
gesehen. 83
irgend@@ 83
keiten 83
kommen, 83
ktion 83
laufen 83
lea@@ 83
lic@@ 83
loved 83
micro@@ 83
name 83
ns 83
quiet 83
reich@@ 83
sein@@ 83
skin. 83
test 83
though 83
tiert 83
today, 83
uss@@ 83
ute 83
wichtig. 83
zeigen 83
zeigt 83
'll 82
Baum 82
Du 82
Plan@@ 82
Sinn 82
ach 82
and. 82
ben, 82
ble@@ 82
blooming 82
dollars 82
down. 82
drinking 82
eig@@ 82
entspannen." 82
flie@@ 82
gefunden 82
hasse 82
hatte, 82
hier@@ 82
ir 82
ket@@ 82
n" 82
opp@@ 82
organiz@@ 82
outdoors. 82
pul@@ 82
r 82
rain. 82
schließ@@ 82
singing 82
son 82
steh@@ 82
tho@@ 82
thoughts 82
thousands 82
unbedingt 82
wollen, 82
— 82
Freund@@ 81
Fußball 81
Ker@@ 81
Körper@@ 81
Lehr@@ 81
Pflanzen 81
Potenzial 81
Respekt 81
Sache 81
Teil@@ 81
Ze@@ 81
bevor 81
beweg@@ 81
bewirken 81
breakfast 81
business 81
clean 81
couldn't 81
dd@@ 81
deli@@ 81
develop 81
do, 81
econom@@ 81
effe@@ 81
einzigartig 81
felt 81
fen. 81
fir@@ 81
genommen 81
gibt." 81
here's 81
here. 81
hör@@ 81
imagin@@ 81
ink 81
itz@@ 81
kur@@ 81
loo@@ 81
matter 81
painting 81
political 81
popular 81
protect 81
recently 81
research 81
schle@@ 81
schätz@@ 81
sign@@ 81
stron@@ 81
uss 81
walk. 81
wen@@ 81
wrote 81
zieh@@ 81
Boden 80
Garten. 80
Ju@@ 80
Leute, 80
Museen 80
Planeten 80
acht 80
allem 80
ard 80
as, 80
aut@@ 80
before. 80
book@@ 80
cat@@ 80
cli@@ 80
coun@@ 80
curious 80
dessen 80
dre@@ 80
fas@@ 80
haven't 80
holi@@ 80
kämp@@ 80
lassen." 80
life." 80
läuft 80
more. 80
nich@@ 80
online 80
pati@@ 80
physical 80
pping 80
preference 80
rea@@ 80
scht 80
speci@@ 80
studi@@ 80
und, 80
valuable 80
words 80
world@@ 80
worth 80
zeigen, 80
zt 80
zweite 80
""O@@ 79
"(Applause) 79
"Life 79
Beziehung 79
Bild@@ 79
Gi@@ 79
Milliarden 79
Studi@@ 79
Theater 79
Traum 79
aler 79
anim@@ 79
bewusst 79
changes 79
contro@@ 79
erfüll@@ 79
gebackenem 79
happiness. 79
hinter 79
inc@@ 79
klar 79
ll 79
love. 79
miteinander 79
möglich@@ 79
nehmen, 79
pac@@ 79
pain@@ 79
passier@@ 79
perfekt 79
rest 79
ret@@ 79
s? 79
spann@@ 79
stellt 79
study 79
tel 79
woll@@ 79
Feuer 78
Horizont 78
Hum@@ 78
Kleidung 78
Leben, 78
Leben@@ 78
Les@@ 78
Mensch@@ 78
Möglichkeit 78
Pa@@ 78
Pe@@ 78
Picknick 78
Sand 78
Schwimmen 78
Stress 78
Zuhause 78
ann 78
are@@ 78
av@@ 78
bal@@ 78
based 78
begann 78
bin@@ 78
ei@@ 78
face 78
figure 78
fte 78
grass 78
historical 78
inspiriert 78
kennenzulernen." 78
ktiv@@ 78
lake. 78
lieb@@ 78
ly." 78
menschliche 78
ord@@ 78
produc@@ 78
relaxation. 78
relaxing 78
romantic 78
ruhig@@ 78
schein@@ 78
scre@@ 78
sehen" 78
sitzen 78
six 78
soll@@ 78
statt 78
thing." 78
tief 78
treffe 78
ump@@ 78
unbe@@ 78
"und 77
10@@ 77
50@@ 77
60 77
80 77
All@@ 77
Beste 77
Dingen 77
Fel@@ 77
Humor 77
Ide@@ 77
Krä@@ 77
Küche 77
Männer 77
Spaß. 77
Umgebung 77
Wel@@ 77
Win@@ 77
also, 77
begeisterter 77
beiden 77
cap@@ 77
chil@@ 77
ck, 77
cri@@ 77
del@@ 77
erin 77
erreichen." 77
ess, 77
finden." 77
fla@@ 77
glauben, 77
glücklich. 77
goo@@ 77
gym 77
identi@@ 77
kalt 77
lies 77
media 77
musste 77
nah@@ 77
news 77
passiert 77
schu@@ 77
000 76
Bil@@ 76
Fragen 76
Leuten 76
Medi@@ 76
Party 76
Politik 76
Produ@@ 76
Sonnen@@ 76
Tanzen 76
Veränderungen 76
ants 76
att@@ 76
be. 76
boo@@ 76
challenges 76
change. 76
changed 76
cher 76
climate 76
cultural 76
culture. 76
denk@@ 76
ends 76
erkenn@@ 76
everything. 76
fair@@ 76
fascinated 76
ful. 76
ger, 76
hiking. 76
hl 76
hr 76
hö@@ 76
ics 76
inner 76
inspire 76
könn@@ 76
mean, 76
men. 76
ments 76
mind@@ 76
mov@@ 76
musical 76
nehmen." 76
net 76
oneself. 76
quickly 76
refle@@ 76
sicher 76
spring. 76
students 76
tically 76
vis@@ 76
was@@ 76
"I'm 75
"That's 75
Bas@@ 75
Bilder 75
Büchern 75
Char@@ 75
Filmen 75
Lage 75
Proz@@ 75
Sal@@ 75
Spe@@ 75
achte 75
bleiben." 75
blue. 75
bus@@ 75
close 75
dog. 75
enten 75
enz 75
gende 75
gleichen 75
hu@@ 75
modern 75
ne. 75
offer 75
sam 75
stu@@ 75
tired 75
treiben 75
wandern 75
weg@@ 75
wä@@ 75
Architektur 74
Fall 74
Geschich@@ 74
Meeres@@ 74
Mor@@ 74
Quelle 74
Sie@@ 74
Traveling 74
Veränderung 74
Wes@@ 74
benutz@@ 74
biggest 74
bio@@ 74
bli@@ 74
colle@@ 74
concerts. 74
dem@@ 74
entdecken." 74
equ@@ 74
frag@@ 74
gri@@ 74
gs@@ 74
heißt 74
ig. 74
in." 74
ja 74
kann@@ 74
lead 74
lernen. 74
lover. 74
nu@@ 74
process 74
schwimmen 74
somebody 74
t; 74
tag 74
taken 74
ton 74
traffic 74
tree 74
vier@@ 74
vir@@ 74
zen@@ 74
"(Applaus) 73
"Dann 73
"One 73
201@@ 73
Arbeit@@ 73
Computer@@ 73
Glück@@ 73
Kat@@ 73
Lin@@ 73
Meinung 73
Per@@ 73
S 73
afraid 73
allow 73
behind 73
black 73
cer@@ 73
cir@@ 73
dach@@ 73
dent@@ 73
e.""" 73
engine@@ 73
everybody 73
experiences. 73
fantastic. 73
fühl@@ 73
grow@@ 73
hou@@ 73
ierung 73
interesting. 73
konnten 73
ks. 73
ku@@ 73
lasse 73
loves 73
mean@@ 73
nie@@ 73
offen@@ 73
pizza. 73
says, 73
schaf@@ 73
sie, 73
stuff 73
swe@@ 73
thing, 73
tour 73
trau@@ 73
wom@@ 73
you'll 73
zahl@@ 73
zin@@ 73
"Denn 72
200 72
Beziehungen 72
Col@@ 72
Denn 72
Ele@@ 72
Entwicklung 72
Herz 72
Hoch@@ 72
Menschen@@ 72
Rau@@ 72
Science 72
Situation 72
Stück 72
They're 72
Tran@@ 72
Zusammen@@ 72
ations. 72
baren 72
betrach@@ 72
denken, 72
economic 72
educ@@ 72
ence, 72
force 72
getroffen 72
gol@@ 72
hobbies. 72
hoff@@ 72
ide 72
incredible 72
ite@@ 72
jog@@ 72
kel@@ 72
knowledge 72
loudly. 72
low@@ 72
müde 72
na@@ 72
named 72
nicht." 72
opportunities 72
pfle@@ 72
rate 72
righ@@ 72
run@@ 72
squ@@ 72
sunset. 72
swim 72
talked 72
tour@@ 72
trip. 72
turned 72
ve." 72
with@@ 72
writ@@ 72
y.""" 72
!""" 71
"Ein@@ 71
,@@ 71
199@@ 71
Afrika 71
Einen 71
Hö@@ 71
M: 71
Rom@@ 71
Schwäche 71
Spiel 71
TED@@ 71
Wh@@ 71
Wo@@ 71
ab, 71
action 71
band 71
besondere 71
chance 71
cht@@ 71
comfort 71
community 71
dark 71
ents. 71
environment 71
film 71
ful@@ 71
funktioniert 71
glich 71
happen 71
head 71
high@@ 71
ismus 71
keit. 71
kochen 71
light. 71
local 71
longer 71
lots 71
lying 71
ma 71
mein@@ 71
nutzen 71
p. 71
pic@@ 71
rain@@ 71
shower 71
sind" 71
socie@@ 71
tau@@ 71
then, 71
thing@@ 71
tional 71
tollen 71
traveling. 71
vac@@ 71
vorbei 71
wert 71
..." 70
Far@@ 70
Gemüse 70
Hiking 70
Indi@@ 70
Mis@@ 70
Rezepte 70
aller@@ 70
anderes 70
ank 70
ational 70
bedeutet, 70
bringen, 70
collecting 70
conne@@ 70
cting 70
ders 70
dor@@ 70
draw 70
einigen 70
ensch@@ 70
erreich@@ 70
explo@@ 70
field 70
geln 70
gemütlichen 70
glo@@ 70
groß@@ 70
größ@@ 70
größte 70
idea. 70
ight 70
ined 70
ism 70
liebt 70
market 70
outdoors 70
p, 70
plac@@ 70
plan 70
por@@ 70
positiven 70
shape 70
shel@@ 70
singen 70
species 70
spielen." 70
ted. 70
umzu@@ 70
wander@@ 70
wechsel@@ 70
wert@@ 70
work, 70
überall 70
"These 69
Dann 69
Fin@@ 69
Fo@@ 69
Gol@@ 69
Herz@@ 69
Kaffe@@ 69
Rolle 69
aden 69
ality 69
atten@@ 69
aus." 69
beeindruckend 69
bie@@ 69
bran@@ 69
bringen." 69
calms 69
church 69
deal 69
dev@@ 69
direkt 69
einfach@@ 69
els 69
ens, 69
essen" 69
everyday 69
flower 69
gebor@@ 69
gelernt 69
genauso 69
genießen 69
girl 69
gän@@ 69
halten." 69
health@@ 69
heit@@ 69
hours. 69
ils 69
inves@@ 69
kt. 69
paint 69
photos. 69
pursue 69
regi@@ 69
reisen" 69
sel 69
spac@@ 69
sä@@ 69
tem 69
themselves 69
tlich 69
travel. 69
treat 69
vie@@ 69
white 69
you@@ 69
Atmosphäre 68
Forsch@@ 68
G: 68
Health 68
Kindheit 68
Ri@@ 68
Roboter 68
Sprach@@ 68
TED 68
Univers@@ 68
Winter@@ 68
acc@@ 68
access 68
airplane 68
are, 68
bein@@ 68
bel 68
ben. 68
bewegen 68
cells 68
ch." 68
comp@@ 68
convinced 68
cr@@ 68
else 68
erien 68
follow 68
frische 68
gle@@ 68
h, 68
here." 68
hän@@ 68
kalten 68
ked 68
kor@@ 68
later, 68
list 68
menschlichen 68
morgens 68
ned 68
niemals 68
nor@@ 68
peace. 68
read@@ 68
recipes. 68
sion, 68
sion@@ 68
suchen 68
ted, 68
tex@@ 68
tim@@ 68
tzt 68
understanding 68
usi@@ 68
val@@ 68
warm. 68
way." 68
wider@@ 68
wonderful. 68
wurde." 68
zufrieden 68
'd 67
Bet@@ 67
Bro@@ 67
Durch@@ 67
Kan@@ 67
Kin@@ 67
Learning 67
Mitgefühl 67
Vogel@@ 67
Well@@ 67
Wichtigste 67
able, 67
am. 67
ar, 67
auth@@ 67
ble. 67
bleiben" 67
cal@@ 67
chi@@ 67
cinema. 67
colors. 67
common 67
cont@@ 67
ct, 67
enst@@ 67
fear 67
fle@@ 67
freund@@ 67
fröhlich 67
geben. 67
gewal@@ 67
given 67
greif@@ 67
guy 67
heart. 67
hom@@ 67
ine@@ 67
kar@@ 67
kaufen 67
krie@@ 67
lich." 67
läu@@ 67
oren 67
other. 67
pat@@ 67
poll@@ 67
ral 67
recht 67
reis@@ 67
right?" 67
san@@ 67
sehr. 67
solve 67
taste 67
teten 67
ties, 67
verstehen 67
was, 67
zed 67
"Today, 66
"Um 66
Autumn 66
Essen. 66
Fitness 66
Fotografie 66
Gehir@@ 66
Gr@@ 66
Jetzt 66
Kur@@ 66
Op@@ 66
Plat@@ 66
Regen@@ 66
Sach@@ 66
Tra@@ 66
Ty@@ 66
Weltreise 66
adventure. 66
als, 66
athle@@ 66
be." 66
bread 66
by. 66
constantly 66
dachte 66
defin@@ 66
difficul@@ 66
ently 66
euch 66
fand 66
heiße 66
house. 66
least 66
months 66
obwohl 66
offer. 66
onto 66
ory 66
pen 66
people." 66
renov@@ 66
roll@@ 66
room. 66
sage 66
sagen: 66
schläft 66
sh 66
shar@@ 66
shopping 66
stories. 66
stän@@ 66
success. 66
tar@@ 66
tle 66
trust 66
ts." 66
ward 66
will@@ 66
wing 66
yet 66
""D@@ 65
"Wh@@ 65
Ba@@ 65
Bri@@ 65
CA: 65
Cats 65
Dusche 65
Family 65
Fil@@ 65
Freunden. 65
Für 65
Hin@@ 65
Hoffnung 65
Kaffee. 65
Kor@@ 65
Netz@@ 65
Stimme 65
Wort 65
al-@@ 65
alle@@ 65
amount 65
ang@@ 65
arbeiten." 65
ated. 65
atur@@ 65
bar. 65
bat@@ 65
besonder@@ 65
besuchen" 65
bring@@ 65
children. 65
contribute 65
da, 65
emotion@@ 65
ences 65
erfrischend 65
fahrt 65
festivals. 65
further 65
führen 65
gent@@ 65
gestellt 65
gesunde 65
goal 65
halten, 65
heil@@ 65
individu@@ 65
inspirieren 65
is." 65
isch, 65
isten 65
ity." 65
klein@@ 65
laugh. 65
lebens@@ 65
nen 65
parts 65
pen@@ 65
plays 65
pped 65
red. 65
religi@@ 65
sch 65
sei 65
several 65
sit 65
stundenlang 65
successful 65
syn@@ 65
third 65
tical 65
tragen 65
tran@@ 65
ust 65
visi@@ 65
wait 65
weitere 65
x, 65
"Für 64
"R@@ 64
Arbeit. 64
Ausflug 64
Dancing 64
Entspannen 64
Fre@@ 64
John 64
Lie@@ 64
Lieblingsgetränk 64
Medizin 64
Pal@@ 64
Punkt 64
Schlaf@@ 64
Sonn@@ 64
Tage 64
Tat@@ 64
Team@@ 64
Umwelt@@ 64
Video@@ 64
ably 64
ativ@@ 64
basically 64
bietet 64
case 64
ckt 64
class@@ 64
collection 64
committed 64
continu@@ 64
cool@@ 64
dec@@ 64
dist@@ 64
dn@@ 64
einzige 64
ener 64
entdeck@@ 64
erklär@@ 64
erstaun@@ 64
essen." 64
faszinierend. 64
fehl@@ 64
fest@@ 64
fis@@ 64
h. 64
hab@@ 64
hatten, 64
heraus, 64
hobby. 64
ingen 64
ish 64
itet 64
ize 64
kal@@ 64
ke. 64
know@@ 64
können" 64
leckeres 64
len 64
level 64
nahm 64
new@@ 64
obje@@ 64
partner 64
problems 64
rise 64
rup@@ 64
secon@@ 64
size 64
sou@@ 64
standing 64
techn@@ 64
telling 64
there." 64
think, 64
tze 64
weiterzu@@ 64
well@@ 64
zul@@ 64
"All 63
Berg@@ 63
Dieses 63
Ernährung 63
Fenster 63
Fra@@ 63
Freundschaften 63
Mas@@ 63
Suche 63
Thema 63
aufre@@ 63
beautifully 63
bekann@@ 63
boy 63
cell 63
connected 63
ctu@@ 63
dem, 63
developing 63
down@@ 63
en," 63
ende@@ 63
engag@@ 63
ering 63
esen 63
example 63
fiz@@ 63
fore@@ 63
geht, 63
gend@@ 63
ges. 63
gig@@ 63
government 63
ick 63
iere 63
ierte 63
ining 63
iten." 63
lieber 63
life@@ 63
marke@@ 63
mü@@ 63
nahmen 63
needed 63
neuer 63
neugierig 63
nä@@ 63
oben 63
ons, 63
probiere 63
proper@@ 63
relationship 63
sanft 63
schaffen 63
sorgen 63
spazier@@ 63
stärk@@ 63
surpris@@ 63
tiere 63
tig. 63
tions, 63
um." 63
vorbei. 63
weakness 63
wie@@ 63
wohl@@ 63
wunderbare 63
zeit@@ 63
üs@@ 63
"In@@ 62
18@@ 62
Cafés 62
Children 62
Chin@@ 62
D 62
Fehler 62
Flowers 62
Forschung 62
Gerechtigkeit 62
Lieblingsessen 62
Minuten 62
Regierung 62
Schl@@ 62
Schw@@ 62
Summer 62
Sushi 62
The@@ 62
Tieren 62
Zoo 62
adv@@ 62
ans@@ 62
ator@@ 62
ball 62
bezahl@@ 62
bin." 62
brought 62
cking 62
class 62
consider 62
crime 62
door 62
ed." 62
eins 62
ell, 62
entdeckt 62
erwar@@ 62
exp@@ 62
foo@@ 62
frei@@ 62
ft." 62
gerne. 62
glich@@ 62
heiß 62
ih@@ 62
inv@@ 62
iß@@ 62
later 62
leben" 62
liegen 62
mensch@@ 62
model 62
neur@@ 62
ni@@ 62
particip@@ 62
powerful 62
progra@@ 62
row@@ 62
schaffen." 62
shine 62
shines 62
slow@@ 62
spo@@ 62
ssen 62
stop@@ 62
system, 62
tanzen 62
thre@@ 62
tie@@ 62
viol@@ 62
vol@@ 62
waren, 62
wrong 62
"On 61
"There's 61
00@@ 61
Ap@@ 61
Art, 61
C 61
Denk@@ 61
Frie@@ 61
Gemeinschaft 61
Happiness 61
Herbst@@ 61
Hilfe 61
South 61
Stu@@ 61
Tagen 61
Vater 61
ance. 61
anz@@ 61
ately 61
attra@@ 61
bak@@ 61
beschäftig@@ 61
cars 61
certain 61
ctions 61
darüber, 61
depres@@ 61
deren 61
e: 61
erfüllt 61
eri@@ 61
exercise 61
feels 61
fru@@ 61
geschaf@@ 61
glass 61
heiten 61
hike 61
hoch@@ 61
ierten 61
kel 61
kennen 61
lach@@ 61
laughter 61
leicht 61
lie 61
lier@@ 61
machte 61
medical 61
mt 61
ner. 61
ning 61
nutz@@ 61
ome@@ 61
planet 61
pra@@ 61
practice 61
proje@@ 61
ren@@ 61
sat@@ 61
schaften 61
schw@@ 61
schwer@@ 61
sechs 61
shoes 61
shop@@ 61
spielen" 61
step 61
stro@@ 61
sy@@ 61
systems 61
tend 61
tern@@ 61
th." 61
tieren, 61
town 61
ves, 61
wind. 61
wohn@@ 61
ye@@ 61
öff@@ 61
Als 60
Aut@@ 60
Bad 60
Design 60
Freunde. 60
Google 60
Gu@@ 60
Na@@ 60
Schiff 60
Schön@@ 60
Sy@@ 60
Tal@@ 60
Tex@@ 60
X@@ 60
ager 60
aro@@ 60
aufgeregt 60
bare 60
began 60
bele@@ 60
body. 60
bread. 60
car. 60
chao@@ 60
dazu, 60
dge 60
dies@@ 60
drück@@ 60
ess." 60
exploring 60
fangen 60
fight 60
fitness 60
freedom. 60
führt 60
gefähr@@ 60
gegen@@ 60
gene 60
greatest 60
großes 60
have. 60
her, 60
ices 60
iert, 60
iter 60
jedoch 60
jogging 60
kam@@ 60
lassen, 60
leben. 60
lle 60
nächstes 60
prin@@ 60
pur@@ 60
saying 60
schöner 60
seems 60
sonn@@ 60
speak@@ 60
spiel 60
ste, 60
structure 60
stud@@ 60
supp@@ 60
tax 60
teach 60
tet. 60
there. 60
tiger 60
typ@@ 60
tö@@ 60
ver. 60
waiting 60
won't 60
wunderschöne 60
zeu@@ 60
ät 60
"""@@ 59
30@@ 59
Balkon 59
Bier 59
DNA 59
Earth 59
Gal@@ 59
Gener@@ 59
Ländern 59
Mode 59
Schwester 59
Star 59
Stunde 59
Sun@@ 59
Super@@ 59
Wahrheit 59
Zimmer 59
activities. 59
ada@@ 59
anstatt 59
anz 59
arbeiten, 59
ator 59
attended 59
ausprobiert 59
ball. 59
basic 59
beautifully. 59
beobach@@ 59
bild@@ 59
center 59
cht, 59
clu@@ 59
companies 59
crow@@ 59
d.""" 59
ending 59
ester@@ 59
favourite 59
freu@@ 59
fron@@ 59
fällt 59
gestal@@ 59
grass. 59
ground 59
ground. 59
he, 59
heits@@ 59
herauszu@@ 59
histor@@ 59
hören." 59
issu@@ 59
lear@@ 59
leich@@ 59
let@@ 59
mal, 59
markets. 59
moment. 59
müssen." 59
niemand 59
ons. 59
partner. 59
passionate 59
pt 59
realized 59
relaxation 59
relaxed 59
rö@@ 59
s' 59
s?" 59
sau@@ 59
schließlich 59
singt 59
sleep. 59
soziale 59
spra@@ 59
sprech@@ 59
state 59
teil 59
tet." 59
them@@ 59
trie@@ 59
upcoming 59
versteh@@ 59
vollen 59
week@@ 59
wine. 59
zähl@@ 59
überzeugt, 59
""A@@ 58
"Be@@ 58
"Da 58
"Y@@ 58
"Z@@ 58
70 58
90 58
Americ@@ 58
App@@ 58
Arbeits@@ 58
Aufgabe 58
Augen@@ 58
Frau@@ 58
Grenzen 58
Groß@@ 58
Herzen 58
Kü@@ 58
Mit 58
Platz 58
Spring 58
Straßen@@ 58
Wä@@ 58
atemberaubend. 58
ations, 58
attitude 58
beauty. 58
ction. 58
current 58
day@@ 58
deep@@ 58
designed 58
e? 58
end." 58
erzählen 58
frü@@ 58
hatte." 58
hlen 58
iden@@ 58
ima@@ 58
influence 58
informa@@ 58
invol@@ 58
ite. 58
ke." 58
können. 58
lad@@ 58
leben, 58
leist@@ 58
letter 58
likely 58
likes 58
literally 58
loudly 58
model@@ 58
mut@@ 58
particular 58
pool 58
quote 58
reach 58
reading. 58
restaurants. 58
romantic. 58
schaffen, 58
sequ@@ 58
sleeping 58
society. 58
sozi@@ 58
stand@@ 58
stellen." 58
sten, 58
stress. 58
suff@@ 58
test@@ 58
thes@@ 58
together, 58
versuchen, 58
well-@@ 58
wend@@ 58
zogen 58
"Mit 57
25 57
B: 57
Beispiel@@ 57
Ehrlichkeit 57
Fisch@@ 57
Gespräche 57
Gitarre 57
Here's 57
Kno@@ 57
Mö@@ 57
Poli@@ 57
Sh@@ 57
Sor@@ 57
To 57
Wochen 57
activity. 57
ally. 57
ass 57
bekommen. 57
ber, 57
ces 57
cold. 57
communic@@ 57
cy 57
daily 57
date 57
deine 57
dinner. 57
dio@@ 57
entier@@ 57
erfolgreich 57
es.""" 57
essen. 57
eth@@ 57
exhibitions. 57
fanden 57
fen." 57
friendship 57
genau@@ 57
gliche 57
guys 57
hnen 57
ice. 57
ier. 57
ily 57
ingly 57
irgendwie 57
ister@@ 57
kenn@@ 57
kleines 57
kost@@ 57
licht 57
lity 57
meaning 57
ms, 57
nach. 57
organ@@ 57
pass@@ 57
people's 57
pets. 57
pol@@ 57
rec@@ 57
rein@@ 57
rier@@ 57
scar@@ 57
schreck@@ 57
setzen." 57
sie@@ 57
stehen, 57
technology. 57
teilen 57
touch 57
ture 57
uner@@ 57
v 57
visu@@ 57
voice 57
w. 57
würde, 57
zeig@@ 57
zing 57
zwar 57
ße 57
"Un@@ 56
40@@ 56
Auf 56
El@@ 56
Grunde 56
Ihrem 56
Kä@@ 56
Obst 56
Rain 56
Sachen 56
Sand@@ 56
Swimming 56
Tag, 56
Team 56
Tom@@ 56
Vol@@ 56
Wellen 56
Welten 56
Wohl@@ 56
ak 56
anal@@ 56
approach@@ 56
ats 56
cker 56
cooking. 56
cour@@ 56
dein 56
deshalb 56
desig@@ 56
develop@@ 56
eller 56
entspannen 56
ermöglich@@ 56
f." 56
finished 56
fragte 56
ften 56
gegessen 56
gym. 56
happening 56
hold 56
hundreds 56
hur@@ 56
innerhalb 56
inst@@ 56
kid@@ 56
kti@@ 56
lang@@ 56
lassen. 56
lock@@ 56
mittel@@ 56
nachzu@@ 56
nehme 56
other@@ 56
pe, 56
played 56
practic@@ 56
priceless. 56
produce 56
putting 56
says 56
schlafen 56
sion. 56
smo@@ 56
spreche 56
spä@@ 56
sunsets 56
teach@@ 56
teu@@ 56
ug@@ 56
univers@@ 56
uns@@ 56
various 56
völlig 56
wake 56
waves 56
we'll 56
weit@@ 56
wichtigen 56
woo@@ 56
zeich@@ 56
zoo 56
üb@@ 56
"Also, 55
Anfang 55
Beweg@@ 55
Dan@@ 55
Führ@@ 55
Kamin 55
Käse 55
Lieblingstier 55
Mü@@ 55
Patienten 55
Rauschen 55
Regier@@ 55
Städte 55
Technologien 55
Wa@@ 55
Wissenschaf@@ 55
Writing 55
Zeiten 55
advocate 55
among 55
ar. 55
are. 55
ausges@@ 55
beginning 55
beginnt 55
best@@ 55
blü@@ 55
born 55
carbon 55
ce." 55
chen." 55
ching 55
ction@@ 55
difference 55
einge@@ 55
einig@@ 55
ence." 55
er-@@ 55
fahren." 55
father 55
feet 55
fel 55
forder@@ 55
freundlich 55
fried@@ 55
glück@@ 55
großartig 55
haft 55
hair@@ 55
happily 55
helping 55
hero@@ 55
ideas. 55
il, 55
ine, 55
ine. 55
ister 55
kamen 55
kes 55
kil@@ 55
kurzem 55
l, 55
lachen 55
laut. 55
letztes 55
li 55
liebhaber 55
ment, 55
metho@@ 55
mur@@ 55
müssen, 55
physi@@ 55
reduce 55
rich 55
schreiben." 55
sci@@ 55
seven 55
sicher, 55
sions 55
sollten." 55
such@@ 55
sü@@ 55
ular@@ 55
ums 55
utz@@ 55
wed 55
wollten 55
year, 55
yo@@ 55
ück@@ 55
"To 54
100@@ 54
Am@@ 54
Bur@@ 54
Can 54
Doch 54
Is@@ 54
Lebens. 54
Pri@@ 54
Roman@@ 54
Schlaf 54
Serien 54
Sto@@ 54
Tennis 54
Tie@@ 54
ages 54
alit@@ 54
ant. 54
as. 54
becoming 54
beer 54
belieb@@ 54
bicycle 54
boar@@ 54
brightly 54
bunt 54
cas@@ 54
creates 54
cro@@ 54
cru@@ 54
discover@@ 54
echter 54
either 54
emotional 54
ere@@ 54
erreichen" 54
ets 54
eu@@ 54
fahren. 54
fern@@ 54
gewis@@ 54
honest 54
hop@@ 54
hour 54
ind 54
issue 54
keit, 54
ment." 54
middle 54
mil@@ 54
museums. 54
ous, 54
pair 54
poor 54
publi@@ 54
relaxes 54
respon@@ 54
satz 54
schne@@ 54
sich, 54
sicht 54
sprechen, 54
starts 54
teile 54
terms 54
things, 54
things." 54
tl@@ 54
trees. 54
und. 54
water@@ 54
wähl@@ 54
zuneh@@ 54
zü@@ 54
öffnet 54
1,@@ 53
Africa 53
Boo@@ 53
Café 53
Dra@@ 53
Familien@@ 53
Filmen. 53
Gesicht 53
Glas 53
Ihren 53
Ihrer 53
Kun@@ 53
Mat@@ 53
Medien 53
Menschheit 53
Mil@@ 53
Männ@@ 53
Nachthimmel 53
Nutz@@ 53
Prozess 53
Robo@@ 53
Span@@ 53
Traum@@ 53
Tre@@ 53
Tri@@ 53
Vö@@ 53
Wahl@@ 53
Yoga-@@ 53
about, 53
akzep@@ 53
ate, 53
ater 53
atmosphere. 53
cin@@ 53
clear@@ 53
compani@@ 53
constru@@ 53
cozy. 53
darin 53
dness 53
dou@@ 53
dres@@ 53
dung 53
easy 53
ents, 53
erle@@ 53
essential 53
evenings 53
extra@@ 53
fantastisch 53
ffen 53
fic@@ 53
fing@@ 53
fruit 53
genießen" 53
getan 53
gleiche 53
grou@@ 53
grünen 53
hätten 53
ici@@ 53
iden 53
institu@@ 53
interessant 53
internet 53
involved 53
ist: 53
jemanden 53
kehr@@ 53
kle@@ 53
körper@@ 53
lab@@ 53
les. 53
lover 53
loy@@ 53
lösen 53
neu 53
oka@@ 53
older 53
ones. 53
path@@ 53
perhaps 53
perspectiv@@ 53
planen 53
positively 53
power@@ 53
psycholog@@ 53
read. 53
really, 53
ries 53
right, 53
saf@@ 53
scal@@ 53
schick@@ 53
secre@@ 53
sehr, 53
seri@@ 53
setzen, 53
shopping. 53
sicht@@ 53
side. 53
sier@@ 53
spannend 53
spring 53
stadt 53
sunny 53
tage 53
vertrau@@ 53
voll. 53
waren." 53
week 53
wil@@ 53
wollen." 53
wron@@ 53
wärmt 53
zieht 53
äre 53
"Auf 52
"Le@@ 52
2, 52
Br@@ 52
Dre@@ 52
Erfol@@ 52
Fer@@ 52
Foto@@ 52
Haustier 52
Kam@@ 52
Konzer@@ 52
Manchmal 52
Physi@@ 52
Ra@@ 52
Sonnenblumen 52
Strand@@ 52
Tat 52
Wi@@ 52
alität 52
auch, 52
bauen." 52
bee 52
bestimm@@ 52
besucht. 52
bis@@ 52
cancer 52
childhood. 52
clothing. 52
cons@@ 52
cook. 52
den" 52
det, 52
developed 52
ehr@@ 52
energ@@ 52
engage 52
enjoyed 52
entlich 52
events. 52
experiencing 52
gebau@@ 52
genre 52
geschrieben 52
größten 52
hands 52
ice, 52
impres@@ 52
ings, 52
ka 52
kleiner 52
kurz, 52
lam@@ 52
learn. 52
lieben 52
liter@@ 52
lung 52
ly@@ 52
millions 52
moved 52
near 52
net. 52
oce@@ 52
outdoor 52
paper 52
philosoph@@ 52
positiv@@ 52
quality 52
rises 52
sand@@ 52
schaft, 52
seem 52
side, 52
sn@@ 52
snow@@ 52
solche 52
spread 52
stal@@ 52
success@@ 52
survi@@ 52
thought, 52
tief@@ 52
ting. 52
traditional 52
treffen." 52
unds 52
unge@@ 52
uses 52
vely 52
very, 52
vide@@ 52
w." 52
warmes 52
wat@@ 52
weht 52
x. 52
years." 52
zu. 52
äl@@ 52
"J@@ 51
"Zum 51
17 51
Besuch 51
Buch, 51
Decke 51
Entscheid@@ 51
Experim@@ 51
Friends 51
Frü@@ 51
Gut 51
Hel@@ 51
Hol@@ 51
Kind@@ 51
Kri@@ 51
Laufen 51
Lö@@ 51
Morgen@@ 51
Ort, 51
Proje@@ 51
Running 51
Schüler 51
Sol@@ 51
Time 51
US@@ 51
Unterschied 51
Unterstützung 51
Vortrag 51
Wasser. 51
Wohn@@ 51
accompli@@ 51
als. 51
ang 51
angel@@ 51
archite@@ 51
arri@@ 51
asi@@ 51
back, 51
beruhigend. 51
besuchen." 51
bewe@@ 51
big. 51
box 51
cht. 51
cial 51
clim@@ 51
cop@@ 51
cream. 51
enjo@@ 51
ented 51
entwickeln 51
er: 51
ese 51
experim@@ 51
extremely 51
fantasy 51
feet. 51
flea 51
gemütliche 51
ger. 51
great@@ 51
grundle@@ 51
head@@ 51
hinter@@ 51
ieren" 51
ill 51
ing-@@ 51
ingu@@ 51
itä@@ 51
kan@@ 51
komplett 51
köstlich 51
liber@@ 51
liest 51
liz@@ 51
loyal 51
länger 51
medit@@ 51
mic@@ 51
mmer@@ 51
my@@ 51
new. 51
non-@@ 51
nämlich 51
pet 51
plötzlich 51
promis@@ 51
reag@@ 51
richtigen 51
risk 51
sammel@@ 51
schlä@@ 51
schwierig 51
season 51
showed 51
sitzt 51
soci@@ 51
stellung 51
stimm@@ 51
terri@@ 51
ths 51
tidy 51
tiges 51
tun. 51
type 51
unden. 51
verbunden 51
vintage 51
volle 51
wichtigste 51
ws 51
wäl@@ 51
""B@@ 50
"Doch 50
198@@ 50
Abenteu@@ 50
Asi@@ 50
Beh@@ 50
Bienen 50
Bä@@ 50
Del@@ 50
Dogs 50
Flü@@ 50
Freiheit, 50
Generation 50
Jahreszeit 50
Kle@@ 50
Krie@@ 50
Lieblingsserie 50
Los 50
Mag@@ 50
Mikro@@ 50
Mus@@ 50
Pasta 50
Por@@ 50
Reg@@ 50
Sam@@ 50
Schwe@@ 50
Stra@@ 50
Vielen 50
Vir@@ 50
Wert 50
a-@@ 50
adop@@ 50
ah 50
aktiv@@ 50
arbeiten" 50
beantwor@@ 50
bemerk@@ 50
beobachten." 50
besteh@@ 50
bom@@ 50
buil@@ 50
cars. 50
challenge. 50
classical 50
ctive 50
da. 50
dau@@ 50
dige 50
drive 50
dru@@ 50
druck@@ 50
ely. 50
ennen 50
eyes 50
fragen 50
frischer 50
froh, 50
gehabt 50
geht." 50
helfen." 50
hir@@ 50
ie." 50
ik 50
il. 50
ise. 50
kun@@ 50
lei@@ 50
leider 50
liv@@ 50
ls 50
mehrere 50
multi@@ 50
mussten 50
normal@@ 50
pick@@ 50
present 50
produzier@@ 50
reisen. 50
rin@@ 50
rü@@ 50
safe 50
sag@@ 50
schreibe 50
schreiben" 50
schul@@ 50
she's 50
sigh@@ 50
soll 50
solu@@ 50
stars. 50
tools 50
tree. 50
true. 50
truly 50
ty. 50
ular 50
up." 50
valuable. 50
verändert 50
ves@@ 50
warms 50
weltweit 50
world's 50
yourself@@ 50
zeug@@ 50
zwe@@ 50
ähn@@ 50
ön@@ 50
"Er@@ 49
"Nun 49
"She 49
17@@ 49
18 49
5, 49
Alltag 49
Ander@@ 49
Atom@@ 49
Brief 49
Büro 49
DN@@ 49
Einzel@@ 49
Emotionen 49
Film@@ 49
Freedom 49
Frei@@ 49
Gebie@@ 49
Geräusch 49
Inn@@ 49
Ja@@ 49
Jahrhunder@@ 49
Lösung 49
Nachhaltigkeit 49
Risiken 49
T 49
Verkehr 49
Vertrauen 49
World 49
absolutely 49
achieved 49
addi@@ 49
affe@@ 49
ahead 49
alisier@@ 49
architecture 49
aren't 49
bares 49
behavi@@ 49
best. 49
big@@ 49
birthday. 49
blau@@ 49
but@@ 49
cake. 49
canc@@ 49
cell@@ 49
cha@@ 49
chem@@ 49
condi@@ 49
dancing 49
del 49
ep 49
es? 49
gone 49
hell@@ 49
him@@ 49
humans 49
ia 49
ies. 49
interest@@ 49
kü@@ 49
leise 49
leuchten 49
ma, 49
mathema@@ 49
mehr@@ 49
mental 49
mir. 49
moder@@ 49
nois@@ 49
office 49
ogra@@ 49
ole 49
ourselves. 49
passing 49
pe 49
photos 49
productive 49
ps. 49
rainy 49
records. 49
rest@@ 49
resul@@ 49
rou@@ 49
shoes. 49
skin 49
soli@@ 49
sse 49
stage 49
stellte 49
thank 49
trips 49
umen. 49
unden 49
ungen." 49
ures 49
verbracht 49
vinyl 49
well." 49
words, 49
zeit. 49
äch@@ 49
""Well, 48
"Oder 48
?@@ 48
Blumen. 48
Büro@@ 48
Chinese 48
Ecke 48
Eiscreme 48
Europa 48
Fing@@ 48
Flu@@ 48
Fähigkeit 48
Geschenke 48
Geschmack 48
Gesell@@ 48
Gre@@ 48
Hu@@ 48
Indien 48
Ka@@ 48
Laptop 48
Met@@ 48
Paar 48
Pan@@ 48
Pop@@ 48
Psych@@ 48
Schn@@ 48
Scho@@ 48
Science-Fiction-@@ 48
Stadt. 48
Straß@@ 48
Tag@@ 48
U.@@ 48
Umweltschutz 48
Vergangenheit 48
Viel@@ 48
Wärme 48
Zellen 48
ago 48
all." 48
ands 48
angenehm 48
attend 48
audi@@ 48
aufs 48
balance 48
bauen, 48
bees 48
bellt 48
beruhig@@ 48
bus 48
compassion 48
ct. 48
damit, 48
dance. 48
darum 48
day." 48
dly 48
education. 48
eight 48
electri@@ 48
elem@@ 48
entfern@@ 48
erhalten 48
erkennen, 48
face. 48
faszinier@@ 48
ffe@@ 48
finden. 48
fort@@ 48
fä@@ 48
gently 48
growth 48
handel@@ 48
heu@@ 48
hier, 48
hobbies 48
hä@@ 48
iges 48
ild@@ 48
impact 48
ins@@ 48
interessanten 48
interessier@@ 48
ital 48
junger 48
knows 48
kommen." 48
kul@@ 48
letz@@ 48
lower 48
mir@@ 48
motor@@ 48
muss." 48
parties. 48
photography. 48
pla@@ 48
potenti@@ 48
projects. 48
protection. 48
psych@@ 48
reali@@ 48
reden 48
reisen." 48
sagt: 48
schlecht 48
scientists 48
selben 48
silence 48
sofort 48
sper@@ 48
technolog@@ 48
und." 48
verbin@@ 48
versuchen 48
wertvoll 48
y's 48
y?" 48
zus@@ 48
ändern 48
überzeu@@ 48
""Das 47
"Al@@ 47
"Manchmal 47
24 47
300 47
70@@ 47
A. 47
Aufgaben 47
Do 47
Dok@@ 47
Doll@@ 47
Exper@@ 47
Fir@@ 47
Firma 47
Fol@@ 47
Football 47
Gesundheits@@ 47
Hän@@ 47
Innov@@ 47
Is 47
Junge 47
Krieg 47
Lehrer 47
Nigeri@@ 47
Oder 47
Pra@@ 47
Satur@@ 47
Sing@@ 47
States 47
Tro@@ 47
Wirtschaft 47
Wis@@ 47
Wunder@@ 47
Zugang 47
abilit@@ 47
accept 47
ade@@ 47
bath 47
ben." 47
ber. 47
bereit@@ 47
bin" 47
ble, 47
blick 47
build@@ 47
capable 47
cause 47
century 47
chn@@ 47
clear. 47
complex 47
consum@@ 47
creativity 47
ctor 47
darin, 47
deserves 47
diger 47
dlich 47
do." 47
drives 47
e" 47
elli@@ 47
ement 47
entwickel@@ 47
erhol@@ 47
exis@@ 47
falsch 47
fireplace 47
forma@@ 47
forms 47
füll@@ 47
gegangen 47
gic 47
gift. 47
grill@@ 47
halt@@ 47
hed 47
hes 47
häl@@ 47
hört 47
ich. 47
intui@@ 47
jum@@ 47
kauf@@ 47
kommen. 47
kommt, 47
lar@@ 47
le-@@ 47
ließ@@ 47
ligh@@ 47
loud. 47
machine 47
möchte, 47
neben 47
neuro@@ 47
ograph@@ 47
ome 47
plant 47
plants 47
population 47
post@@ 47
process@@ 47
produ@@ 47
questions 47
reality 47
rep@@ 47
riding 47
roof. 47
row 47
rück@@ 47
sagt, 47
schauen" 47
school@@ 47
scientific 47
sen." 47
sent 47
sig@@ 47
sleep@@ 47
so. 47
sonst 47
spectac@@ 47
ssi@@ 47
strength 47
tern, 47
trei@@ 47
treibe 47
uni@@ 47
uren 47
verfol@@ 47
w, 47
welches 47
wichtigsten 47
wouldn't 47
y: 47
zwei@@ 47
Überraschungen 47
überrasch@@ 47
""Der 46
11 46
60@@ 46
Africa, 46
Animals 46
Ban@@ 46
Best@@ 46
Buch@@ 46
Cha@@ 46
Compu@@ 46
Creativity 46
Da 46
Fris@@ 46
Fußball@@ 46
Gefühle 46
Inspiration 46
Italian 46
Kollegen 46
Lat@@ 46
Lieblingslied 46
Morgen. 46
Nord@@ 46
Off@@ 46
Pause 46
Q@@ 46
S: 46
Sinne 46
Städ@@ 46
Video 46
Wort@@ 46
Yesterday 46
able." 46
absolute 46
activ@@ 46
als." 46
area 46
ationen. 46
atom@@ 46
basi@@ 46
becomes 46
beginnen 46
bequ@@ 46
berührt 46
bestimmten 46
beyond 46
blanket 46
blu@@ 46
cheese. 46
choose 46
chtig 46
cities 46
company. 46
continue 46
damals 46
decide 46
dom@@ 46
dreh@@ 46
drei@@ 46
ds." 46
einfachen 46
ended 46
erk@@ 46
erwarten, 46
fiel@@ 46
findet 46
freien 46
friend@@ 46
friendly. 46
führen." 46
gang 46
gesehen, 46
glichen 46
halten@@ 46
hardly 46
individual 46
ischem 46
ken@@ 46
klingt 46
languages 46
lecker. 46
mes 46
moments 46
museums 46
nachhal@@ 46
non@@ 46
normal 46
out." 46
performan@@ 46
pie@@ 46
plane, 46
plants. 46
poin@@ 46
pris@@ 46
program 46
quar@@ 46
quickly. 46
ration 46
reco@@ 46
self@@ 46
sexu@@ 46
sinn@@ 46
sionen 46
stehe 46
strive 46
system. 46
te" 46
thers 46
times, 46
tiny 46
trips. 46
unk@@ 46
wand@@ 46
warm@@ 46
werden@@ 46
whatever 46
würde." 46
zurück. 46
""H@@ 45
""Oh, 45
"Da@@ 45
"We're 45
-B@@ 45
:" 45
Ad@@ 45
Aktivitäten 45
Auswirkungen 45
Besonderes 45
Betra@@ 45
Bibliothek 45
Blau 45
Cars 45
Che@@ 45
Desig@@ 45
Dru@@ 45
English 45
Gebäu@@ 45
Geschichte. 45
Haustiere 45
Jazz@@ 45
Krank@@ 45
Metho@@ 45
Mittel@@ 45
Monate 45
Möglichkeiten, 45
Nachricht 45
Namen 45
National 45
Our 45
Realität 45
Reihe 45
Schritt 45
Ser@@ 45
Social 45
Spazier@@ 45
Sport. 45
Tau@@ 45
Tu@@ 45
Verbindung 45
Wander@@ 45
Werk@@ 45
analy@@ 45
are." 45
arm 45
atmosphere 45
außer 45
b, 45
besteht 45
bewus@@ 45
brech@@ 45
bright 45
creativity. 45
daher 45
dank@@ 45
destin@@ 45
desto 45
dig. 45
din@@ 45
ehrlich 45
einfache 45
enor@@ 45
entwickelt 45
ered 45
erleben 45
ern" 45
erzähl@@ 45
ett@@ 45
excit@@ 45
exist@@ 45
explain 45
fast@@ 45
fe. 45
ff 45
finding 45
fing 45
focus 45
forget 45
gebaut 45
gend. 45
gesagt, 45
gh 45
go. 45
halb 45
harmon@@ 45
hatten." 45
herum@@ 45
heute. 45
him, 45
ically 45
id, 45
imm@@ 45
independ@@ 45
independent 45
inse@@ 45
inspiring 45
ire 45
iten. 45
jetz@@ 45
justice 45
king. 45
konzentrier@@ 45
kreative 45
könnte." 45
mark@@ 45
mö@@ 45
posi@@ 45
purpo@@ 45
repar@@ 45
rock 45
schaft@@ 45
school. 45
schre@@ 45
seln 45
send 45
sett@@ 45
situ@@ 45
stress 45
stör@@ 45
tanz@@ 45
tas@@ 45
ties." 45
times. 45
too@@ 45
tradi@@ 45
training 45
unendlich 45
ver, 45
verbindet 45
verbringen. 45
version 45
wasser@@ 45
will, 45
work." 45
zerstör@@ 45
zo@@ 45
zu, 45
"Jetzt 44
've 44
., 44
?"" 44
Bab@@ 44
Beru@@ 44
Cycling 44
Einfluss 44
Energie@@ 44
Gesch@@ 44
Gewalt 44
Größe 44
Hun@@ 44
Ice 44
Jahrhundert 44
Ke@@ 44
Kl@@ 44
Kultur@@ 44
Künstler 44
Lied 44
Liste 44
Meer. 44
Nachrich@@ 44
Nähe 44
Ob@@ 44
Oze@@ 44
P 44
Part@@ 44
Potter 44
Pres@@ 44
Rad@@ 44
Sign@@ 44
Vielleicht 44
Wat@@ 44
We've 44
Wol@@ 44
Zwe@@ 44
ab. 44
add 44
ads 44
ales 44
ange 44
angefangen 44
arbe@@ 44
arbeitet 44
around. 44
away. 44
beruhigende 44
besitze 44
bul@@ 44
bum@@ 44
bun@@ 44
cle 44
clock 44
color. 44
connect 44
cost 44
dachte, 44
dafür, 44
dan@@ 44
daraus 44
darum, 44
decisi@@ 44
dent 44
dogs 44
dy@@ 44
early. 44
eli@@ 44
enth@@ 44
enzen 44
erweise 44
et, 44
exhibition 44
expression 44
fließend 44
formed 44
fotograf@@ 44
gab@@ 44
gebracht 44
gemach@@ 44
gesagt 44
gesam@@ 44
geschlossen 44
girls 44
gut@@ 44
hau@@ 44
heav@@ 44
helfen" 44
her. 44
hne 44
hrt 44
ichten 44
iling 44
inspiring. 44
iss@@ 44
itself 44
job@@ 44
junge 44
ker@@ 44
klar@@ 44
komplizier@@ 44
ktionen 44
later. 44
lös@@ 44
malen 44
manche 44
markets 44
mission 44
nennen 44
ness. 44
off. 44
oil 44
om 44
omen 44
ong 44
opportunities. 44
partic@@ 44
prote@@ 44
rank@@ 44
ration@@ 44
rauscht 44
result 44
samer 44
saying, 44
sl@@ 44
slept 44
society 44
soft 44
stehen." 44
sty@@ 44
surface 44
ther, 44
toler@@ 44
umwelt@@ 44
unglaubliche 44
univer@@ 44
uring 44
verdi@@ 44
wall 44
wann 44
water, 44
window. 44
wäre, 44
zeichn@@ 44
zig 44
"Bei 43
"Jeder 43
"Or 43
1, 43
Abend@@ 43
African 43
Am 43
Basketball 43
Ben@@ 43
Bru@@ 43
Bäumen 43
CO2 43
Dach 43
Flug 43
Freizeit@@ 43
Freunde, 43
Ham@@ 43
Innovation 43
Ist 43
Konzept 43
Mann, 43
Mann@@ 43
Markt 43
Maß@@ 43
Nacht. 43
San 43
Schreib@@ 43
Sinn@@ 43
So, 43
Stern@@ 43
Steuererklärung 43
TV@@ 43
Tanz@@ 43
Viele 43
Wür@@ 43
Yor@@ 43
activity 43
alter 43
ams 43
appe@@ 43
artist 43
ath 43
aub@@ 43
aufregend 43
bas@@ 43
begin 43
bekomm@@ 43
blood 43
brachte 43
certainly 43
challen@@ 43
contra@@ 43
decor@@ 43
die, 43
echte 43
entschie@@ 43
erinnert 43
et." 43
exper@@ 43
experiment@@ 43
faul@@ 43
feel@@ 43
fills 43
förder@@ 43
geführt 43
genen 43
generation 43
glad 43
haben@@ 43
heißen 43
home@@ 43
infe@@ 43
inge 43
inner@@ 43
kennenzulernen 43
knowledge. 43
l. 43
law 43
legen 43
less@@ 43
lights 43
majestätisch 43
mig@@ 43
ness@@ 43
nö@@ 43
o-@@ 43
on-@@ 43
or." 43
passiert, 43
perc@@ 43
phone. 43
phones 43
popul@@ 43
programm@@ 43
rely 43
responsi@@ 43
restaurants 43
robot 43
s; 43
schauen." 43
see@@ 43
showing 43
shown 43
shows. 43
sister 43
sound@@ 43
ssen. 43
steck@@ 43
street. 43
stuff@@ 43
subje@@ 43
technology, 43
there@@ 43
thern 43
throughout 43
today.""" 43
total 43
treas@@ 43
treten 43
ty." 43
ure, 43
verlassen 43
wn 43
yourself 43
ys. 43
zentr@@ 43
zuzu@@ 43
zw@@ 43
Üb@@ 43
äf@@ 43
öffentlichen 43
"After 42
"Je@@ 42
$@@ 42
:@@ 42
Abende 42
Abenteuer. 42
Artikel 42
Bereich 42
Berg 42
Bestandteil 42
Blume 42
Chris 42
Dankbarkeit 42
Gesetz@@ 42
Hon@@ 42
Im@@ 42
Klima@@ 42
Ku@@ 42
Lich@@ 42
Loo@@ 42
Luft. 42
Luft@@ 42
Mach@@ 42
Nachrichten 42
Ordnung 42
Pat@@ 42
Posi@@ 42
Programm@@ 42
Rat@@ 42
Res@@ 42
Richtung 42
Ski@@ 42
Some 42
Stelle 42
Toleranz 42
Veränder@@ 42
Vintage-@@ 42
Vorstell@@ 42
Weihnachten 42
Zukunft. 42
achen 42
agen@@ 42
antly 42
approach 42
atures 42
auszuprobieren 42
avoid 42
bahn 42
bath@@ 42
beru@@ 42
bilden 42
bol@@ 42
broadens 42
bst@@ 42
butterfly 42
cent@@ 42
charac@@ 42
che. 42
cla@@ 42
clean@@ 42
concep@@ 42
consci@@ 42
country. 42
creative. 42
ctiv@@ 42
dav@@ 42
decisions. 42
deck@@ 42
decl@@ 42
dete 42
dete@@ 42
deut@@ 42
eff@@ 42
erinnere 42
erleb@@ 42
erledigen 42
ero@@ 42
fahrer 42
feed@@ 42
gehol@@ 42
glauben 42
go, 42
grew 42
heiß@@ 42
help@@ 42
helped 42
hing 42
historischen 42
hle 42
horizon. 42
ichtig@@ 42
industri@@ 42
ität. 42
ized 42
klar, 42
ktu@@ 42
kümm@@ 42
lagen 42
langer 42
langsam@@ 42
leuch@@ 42
limit@@ 42
mali@@ 42
meadow. 42
medicine. 42
memories 42
ming 42
möch@@ 42
national 42
neighbor@@ 42
niedri@@ 42
paint. 42
peaceful 42
pet. 42
phenomen@@ 42
ppen 42
protection 42
pun@@ 42
richtige 42
right. 42
ring 42
rules 42
ry, 42
schaft. 42
schön@@ 42
search 42
searching 42
seas@@ 42
sei@@ 42
setzt 42
similar 42
sind. 42
skills. 42
something. 42
sozialen 42
spür@@ 42
starke 42
stellen. 42
story. 42
tain 42
television 42
temp@@ 42
ters, 42
text 42
theor@@ 42
tig, 42
unde 42
unique. 42
unten 42
unterschiedliche 42
urch 42
valu@@ 42
vegetables. 42
ver." 42
weeks 42
will." 42
written 42
zuerst 42
Ö@@ 42
ät@@ 42
é@@ 42
"""My 41
"Wissen 41
"Während 41
Ang@@ 41
At@@ 41
Besch@@ 41
City 41
Dank. 41
Dat@@ 41
Ear@@ 41
Fak@@ 41
Gar@@ 41
Haupt@@ 41
If 41
Jahren, 41
Kirche 41
Koch@@ 41
Konzerte 41
Las@@ 41
Lern@@ 41
Lieblingsk@@ 41
Meter 41
Nach 41
Planet@@ 41
Pol@@ 41
Spaghetti 41
Studie 41
System@@ 41
Theaterstück 41
Themen 41
Tor@@ 41
Trau@@ 41
U.S. 41
Unsere 41
Verständnis 41
Wahl 41
Weg, 41
Weil 41
Wein@@ 41
Well, 41
Zahl 41
a's 41
abo@@ 41
absol@@ 41
allows 41
anne 41
ans, 41
answer@@ 41
ations@@ 41
ators 41
au 41
aw@@ 41
aware 41
bed. 41
beeinflus@@ 41
bereich@@ 41
brighten 41
brü@@ 41
buzzing 41
café 41
calls 41
camping 41
cc@@ 41
celebrate 41
check 41
cker@@ 41
cle@@ 41
collabor@@ 41
considering 41
cris@@ 41
cts. 41
dit@@ 41
documentaries. 41
down, 41
erleben." 41
ersch@@ 41
erstes 41
erweitert 41
evol@@ 41
exercise. 41
expe@@ 41
famili@@ 41
fashion. 41
fei@@ 41
fied 41
filmen 41
flü@@ 41
gearbeitet 41
gefällt 41
genu@@ 41
gesamte 41
gewor@@ 41
gewöhn@@ 41
gt." 41
hart, 41
healing 41
heat 41
hit 41
horror 41
hot. 41
ignor@@ 41
in-@@ 41
inspiration. 41
intelle@@ 41
jemals 41
klar. 41
land. 41
late. 41
lebt 41
leisure 41
ler@@ 41
loc@@ 41
mem@@ 41
memories. 41
mix@@ 41
movie. 41
musik 41
nation@@ 41
net." 41
netz@@ 41
nic@@ 41
observe 41
optimistic 41
ort. 41
photo 41
phys@@ 41
plans 41
probieren" 41
problem, 41
projects 41
prot@@ 41
reas@@ 41
recor@@ 41
resol@@ 41
schnell@@ 41
schneller 41
schnit@@ 41
schönes 41
sieht, 41
smit@@ 41
smooth@@ 41
soccer 41
sollte" 41
speaking 41
spro@@ 41
studying 41
stück 41
sunflowers 41
ten" 41
terror@@ 41
think@@ 41
tici@@ 41
trägt 41
unterstütz@@ 41
unver@@ 41
verbre@@ 41
walks. 41
who@@ 41
worlds. 41
ätz@@ 41
äusch@@ 41
"Am 40
"And, 40
"Dieses 40
"Vor 40
Ausdruck 40
Australien 40
Danke. 40
Deine 40
Dr. 40
Du@@ 40
Effe@@ 40
Energie. 40
Formen 40
Foto 40
Fuß@@ 40
Fähigkeit, 40
Geräusche 40
Grillen 40
Hü@@ 40
Individu@@ 40
Information 40
Itali@@ 40
Lieblingszitat 40
Mi@@ 40
Nahr@@ 40
Pflan@@ 40
Pho@@ 40
Präsi@@ 40
R: 40
Reis@@ 40
Sammlung 40
Schmetterling 40
Seele. 40
Seiten 40
Sicher@@ 40
Spiele 40
Ster@@ 40
Sur@@ 40
Technik 40
Technolog@@ 40
Tel@@ 40
Tür@@ 40
Verhalten 40
abends 40
actually, 40
ally." 40
ancient 40
arten 40
ately, 40
ausprobieren 40
bast@@ 40
bedeut@@ 40
behandel@@ 40
bild 40
bloom@@ 40
cafes. 40
camera 40
chti@@ 40
cks. 40
cleaned 40
clothes. 40
cover 40
danc@@ 40
dass, 40
dekor@@ 40
democra@@ 40
discus@@ 40
druck 40
ener@@ 40
enrich 40
entwickeln." 40
environmentally 40
erzeu@@ 40
essenti@@ 40
essentially 40
fach 40
fahren" 40
famous 40
fast. 40
fen@@ 40
fest 40
ful, 40
gebie@@ 40
gelesen. 40
gemütlicher 40
genieß@@ 40
genom@@ 40
geschrie@@ 40
girl@@ 40
globalen 40
gres@@ 40
grow. 40
gte 40
guitar 40
hair 40
hell. 40
hielt 40
higher 40
humanity 40
hören" 40
image 40
initi@@ 40
international 40
ish@@ 40
ki@@ 40
kommt." 40
könnte, 40
kühl@@ 40
laugh@@ 40
laute 40
law@@ 40
lim@@ 40
lived 40
magical. 40
mand 40
mas@@ 40
meas@@ 40
merk@@ 40
motivated 40
müs@@ 40
nachdem 40
need@@ 40
nenn@@ 40
nigh@@ 40
nine 40
now." 40
nutzen, 40
once. 40
ons." 40
other." 40
ould 40
overcome 40
painting. 40
peak 40
pha@@ 40
planet. 40
pleas@@ 40
ples 40
point, 40
posed 40
possible. 40
quie@@ 40
quo@@ 40
recognize 40
refu@@ 40
robo@@ 40
roman@@ 40
romantisch 40
schlag@@ 40
shap@@ 40
sieben 40
som@@ 40
sportlich 40
sprechen." 40
stag@@ 40
stick 40
student 40
supposed 40
tag@@ 40
tal 40
tens 40
thetic 40
thir@@ 40
though@@ 40
to, 40
tomorrow. 40
totally 40
trotzdem 40
unglaub@@ 40
unterstütze 40
unterwegs 40
virtu@@ 40
vision 40
wahr 40
warmen 40
weather. 40
werk 40
werk@@ 40
wichtig@@ 40
wood 40
wusste 40
wären 40
yes, 40
yn@@ 40
zei@@ 40
zimmer 40
zir@@ 40
"CA: 39
"Then 39
)" 39
Blü@@ 39
Can@@ 39
Cra@@ 39
Entscheidung 39
Gedi@@ 39
Gehirn@@ 39
Geschichte, 39
Gesich@@ 39
Hil@@ 39
Hy@@ 39
Jahrzehn@@ 39
Karriere 39
Kra@@ 39
Lieblings-@@ 39
Mensch, 39
Mittagessen 39
Muse@@ 39
Mär@@ 39
OK, 39
Olymp@@ 39
Oper@@ 39
Organ@@ 39
Paris 39
Pul@@ 39
Rezept 39
Roll@@ 39
School 39
Smooth@@ 39
Sofa 39
Stephen 39
Struktur@@ 39
Tisch 39
Training 39
US-@@ 39
Verkehr@@ 39
Vor 39
Wald. 39
Wege 39
Wissenschaftler 39
Worte 39
Zeich@@ 39
adventur@@ 39
alls 39
amaz@@ 39
ary. 39
as." 39
asset. 39
aut 39
bar, 39
beitragen 39
belebt 39
brea@@ 39
brigh@@ 39
bringen. 39
call@@ 39
challeng@@ 39
cket 39
colorful. 39
competi@@ 39
corner 39
dabei, 39
death@@ 39
drin@@ 39
einander@@ 39
emer@@ 39
erkann@@ 39
eröff@@ 39
exercis@@ 39
explor@@ 39
extre@@ 39
eye 39
fellow 39
ffe 39
flight 39
frisch@@ 39
früh@@ 39
früher 39
fundamental 39
fur@@ 39
fy 39
fän@@ 39
fühlen 39
für@@ 39
gefunden. 39
gesetz@@ 39
hast 39
hängt 39
hören, 39
ihn@@ 39
intelligen@@ 39
is: 39
jazz 39
kept 39
klein 39
kochen" 39
kommuniz@@ 39
kt, 39
lage 39
laughing 39
ließen 39
lunch 39
milli@@ 39
morali@@ 39
musi@@ 39
necessary 39
negative 39
night, 39
occasion@@ 39
ors, 39
pack@@ 39
pass 39
past. 39
patient 39
patients 39
pf@@ 39
pick 39
precious 39
ps, 39
rac@@ 39
rights 39
roo@@ 39
satisfied 39
scale 39
sch. 39
schlim@@ 39
spielen. 39
spl@@ 39
stand, 39
stin@@ 39
strength. 39
swimming. 39
ted." 39
ties. 39
tionen, 39
touches 39
transport 39
trinken." 39
tum@@ 39
ungspro@@ 39
ure@@ 39
urlaub 39
usually 39
variety 39
verb@@ 39
verkauf@@ 39
versucht 39
verwirklichen." 39
verändern. 39
vorzu@@ 39
willing 39
zau@@ 39
zeichnen 39
zeige 39
zog@@ 39
zz@@ 39
Überrasch@@ 39
öffentliche 39
ös@@ 39
ütz@@ 39
“ 39
"Nach 38
"Stellen 38
16 38
196@@ 38
Abenteuer@@ 38
America 38
Amerik@@ 38
Beispiel, 38
Clu@@ 38
David 38
Entwickl@@ 38
Erleb@@ 38
Erlebnis 38
Fortschritt 38
Füßen 38
Garten@@ 38
Horror@@ 38
Hälfte 38
Idee, 38
Informa@@ 38
Japan. 38
Media 38
Meer@@ 38
Mitte 38
Monat 38
My@@ 38
Prüfung 38
Rock@@ 38
Schauen 38
Schokolade. 38
Situationen 38
Spielen 38
Staat@@ 38
Travel 38
Tür 38
Weis@@ 38
Wäsche 38
]@@ 38
abor@@ 38
adul@@ 38
again." 38
amusement 38
ants, 38
areas 38
arg@@ 38
ath@@ 38
ations." 38
ature 38
aufen 38
beautiful@@ 38
beobachten" 38
bleib@@ 38
book, 38
brau@@ 38
brewed 38
by@@ 38
case, 38
cen@@ 38
chter@@ 38
combin@@ 38
comfortable. 38
comm@@ 38
complete 38
computers 38
counter@@ 38
ct." 38
cut@@ 38
d: 38
das? 38
decisions 38
dest 38
determin@@ 38
development 38
died 38
dien@@ 38
digen 38
dynam@@ 38
egal 38
empath@@ 38
ems 38
enga@@ 38
entliche 38
environment@@ 38
erfolgreich@@ 38
erforsch@@ 38
exam@@ 38
examp@@ 38
feu@@ 38
fishing 38
fit@@ 38
foot 38
frage 38
fremde 38
gelernt. 38
genet@@ 38
gest 38
gewinn@@ 38
green. 38
großartig. 38
halt 38
high-@@ 38
hour@@ 38
hundred 38
images 38
interac@@ 38
it? 38
itäten 38
kaputt 38
largest 38
lied 38
lli@@ 38
macht, 38
malt 38
meditate 38
memor@@ 38
mine 38
minutes 38
mus 38
nehmer 38
nice. 38
opens 38
ordin@@ 38
p-@@ 38
performance 38
pflan@@ 38
place, 38
planned 38
pleasant. 38
police 38
polit@@ 38
pop@@ 38
possibilities. 38
ques@@ 38
ran 38
raum 38
remain 38
revolu@@ 38
samen 38
sammeln 38
sauber 38
school, 38
sed. 38
sight 38
solar 38
son, 38
special. 38
spir@@ 38
stelle 38
studier@@ 38
surprises. 38
sushi. 38
sweet 38
süß 38
teacher 38
temper@@ 38
ter-@@ 38
to. 38
truth 38
tter 38
tungen 38
täglich 38
uri@@ 38
verbra@@ 38
verloren 38
visual 38
wants 38
weap@@ 38
weich@@ 38
what@@ 38
wild 38
zeigt, 38
zen. 38
zone 38
zug 38
zuvor 38
ären 38
197@@ 37
21. 37
5,000 37
90@@ 37
Aktiv@@ 37
Arzt 37
Aufmerksamkeit 37
B 37
Bel@@ 37
Denken 37
Dieser 37
Entdeck@@ 37
Fahrradfahren 37
Fantasy-@@ 37
Flug@@ 37
Geheimnisse 37
Gemü@@ 37
Glo@@ 37
HIV 37
Haf@@ 37
Hinter@@ 37
Hobb@@ 37
Idee. 37
Ihnen, 37
India 37
Jung@@ 37
Kreuz@@ 37
Kö@@ 37
Labor 37
Marathon 37
Medit@@ 37
Meeting 37
Momente 37
Motor@@ 37
Neuro@@ 37
No 37
North 37
Nu@@ 37
Partner@@ 37
Pfle@@ 37
Pläne 37
Punk@@ 37
Puzz@@ 37
Schneeflocken 37
Schrit@@ 37
Smart@@ 37
Star@@ 37
Take 37
Technology 37
Uni@@ 37
Wand 37
Welt." 37
Zit@@ 37
allowed 37
am, 37
ance, 37
ano@@ 37
ant, 37
anyone 37
ated, 37
außerhalb 37
bab@@ 37
balcony 37
begeister@@ 37
beide 37
bene@@ 37
berühr@@ 37
besitz@@ 37
bewahr@@ 37
break. 37
calm@@ 37
camping. 37
change@@ 37
chts@@ 37
cked 37
clin@@ 37
confli@@ 37
conversations 37
cooked 37
country, 37
covered 37
crazy 37
ction, 37
cts, 37
custom@@ 37
cycl@@ 37
danach 37
design@@ 37
det." 37
diox@@ 37
dish 37
einzelnen 37
enrich@@ 37
ernähr@@ 37
evidence 37
experiment 37
fahre 37
fertig@@ 37
filled 37
final 37
formen 37
frea@@ 37
friendly 37
funkeln 37
fähig@@ 37
gaben 37
geben@@ 37
genann@@ 37
gendes 37
geni@@ 37
gib@@ 37
gingen 37
gleichzeitig 37
halten" 37
herausge@@ 37
herum. 37
holds 37
ihres 37
ilen 37
inspires 37
interest 37
introver@@ 37
isi@@ 37
ists, 37
jac@@ 37
joggen 37
journey. 37
know." 37
kombin@@ 37
krat@@ 37
leis@@ 37
magic 37
matic 37
meant 37
meditation. 37
mel 37
mistakes. 37
nahme 37
old. 37
opinion 37
optim@@ 37
organize 37
platz 37
politische 37
purpose 37
push 37
radio 37
retten 37
rund 37
sammelt 37
schar@@ 37
service 37
setting 37
signific@@ 37
sle@@ 37
softly 37
song. 37
stands 37
steu@@ 37
store 37
strahl@@ 37
streng@@ 37
subject 37
system." 37
teri@@ 37
testen 37
three-@@ 37
tions@@ 37
toller 37
travel@@ 37
treat@@ 37
trifft 37
tto 37
turning 37
tzlich 37
une 37
vari@@ 37
vent@@ 37
verbessern. 37
verbracht. 37
verlor@@ 37
volles 37
vorstellen, 37
wissenschaf@@ 37
zer 37
zeug 37
überhaupt 37
""Die 36
"G@@ 36
"We've 36
"With 36
0@@ 36
1.@@ 36
Alter 36
Ausland 36
Bezieh@@ 36
Biene 36
Blumen@@ 36
Colle@@ 36
Eig@@ 36
Erfahr@@ 36
Everyone 36
Fallschirmspringen 36
Fernseh@@ 36
Gl@@ 36
Grund, 36
High@@ 36
Hoffn@@ 36
Institu@@ 36
Instrument 36
Just 36
Kontrolle 36
Kopf@@ 36
Kunstausstellungen 36
Künstl@@ 36
Nachbarn 36
Name 36
Not 36
Person. 36
Person@@ 36
Pf@@ 36
Ph@@ 36
Regel@@ 36
Regeln 36
Regenbogen 36
Religion 36
Rich@@ 36
Schiff@@ 36
Sci@@ 36
Sekun@@ 36
Sicherheit 36
Sil@@ 36
Sonnenaufgang 36
Stadt@@ 36
Sym@@ 36
Terror@@ 36
Tes@@ 36
Tonight 36
Wanderung 36
Well 36
Wieder@@ 36
abend 36
accep@@ 36
active. 36
aktu@@ 36
alive 36
alog@@ 36
ann, 36
ante 36
asking 36
astronom@@ 36
atives 36
auto@@ 36
available 36
bekommen, 36
bekommen." 36
betrachten" 36
bewer@@ 36
billi@@ 36
blin@@ 36
body, 36
boring. 36
classic 36
compu@@ 36
crisis 36
cted. 36
danke 36
deeply 36
dier@@ 36
difference. 36
digit@@ 36
documentary 36
dreht 36
dring@@ 36
duc@@ 36
dungen 36
einkaufen 36
ema@@ 36
emotions. 36
erlau@@ 36
erleben" 36
erst@@ 36
essi@@ 36
events 36
fair 36
fe, 36
four@@ 36
frequ@@ 36
frühen 36
funktion@@ 36
fälle 36
ge-@@ 36
gebra@@ 36
gebrühtem 36
getroffen. 36
gier@@ 36
held 36
hen. 36
heraus 36
historische 36
hospit@@ 36
i. 36
igar@@ 36
ilt 36
ings@@ 36
internation@@ 36
interpre@@ 36
inven@@ 36
invited 36
jemandem 36
lag@@ 36
landscape. 36
leads 36
less. 36
major 36
meine, 36
messa@@ 36
message 36
mom@@ 36
more, 36
mou@@ 36
muss, 36
mysteri@@ 36
mäß@@ 36
nature, 36
nd 36
noise 36
notice 36
nur@@ 36
nütz@@ 36
of, 36
ore 36
organized 36
parks. 36
party. 36
pasta. 36
phon@@ 36
photo@@ 36
physic@@ 36
predi@@ 36
problems. 36
pünktlich 36
quiet. 36
recipe 36
relationship. 36
respect. 36
responsible 36
return. 36
rot 36
rul@@ 36
schauen, 36
schlafe 36
schlafen." 36
schmer@@ 36
schä@@ 36
schönste 36
selbst. 36
sex@@ 36
sing. 36
situation. 36
snowflakes 36
sollte, 36
sollten" 36
spiritu@@ 36
stab@@ 36
standen 36
statis@@ 36
sunsets. 36
system@@ 36
t's 36
tak@@ 36
teaching 36
that? 36
that@@ 36
they've 36
time@@ 36
tly 36
today." 36
together." 36
tors 36
tungs@@ 36
twas 36
unabhängig 36
unbezahlbar 36
unforgettable. 36
ur. 36
verständ@@ 36
verwand@@ 36
vin@@ 36
vorbere@@ 36
warmth 36
we'd 36
win 36
xi@@ 36
yl@@ 36
you'd 36
ze, 36
Är@@ 36
ände 36
är 36
"By 35
"I've 35
"Unsere 35
14@@ 35
3, 35
A-@@ 35
Ara@@ 35
Asian 35
Auch 35
Ball 35
Blu@@ 35
Ca@@ 35
Camping 35
Dein 35
Dro@@ 35
Ehe@@ 35
Eichhörnchen 35
Ergebnis 35
Erkennt@@ 35
Fas@@ 35
Ferne 35
Finanz@@ 35
Fri@@ 35
Friendship 35
Galax@@ 35
Geburtstag@@ 35
Gedank@@ 35
German@@ 35
Gree@@ 35
Grün 35
K: 35
Karaoke 35
Kolle@@ 35
Krebs 35
Kunst. 35
Lieblingsfarbe 35
Länder@@ 35
Mal, 35
Meinungen 35
Michael 35
Mount 35
Muster 35
Mut@@ 35
Netflix. 35
Nä@@ 35
Online-@@ 35
Optim@@ 35
Pap@@ 35
Parks 35
Pi@@ 35
Pla@@ 35
Projekte 35
Ras@@ 35
Religi@@ 35
Schat@@ 35
Schmetterlinge 35
See. 35
Sonnenuntergangs 35
Start 35
Thrill@@ 35
Tim@@ 35
Tod 35
Ton@@ 35
Verwand@@ 35
Wachstum 35
Weihnachts@@ 35
Wiese 35
Wiese. 35
Work@@ 35
You're 35
You@@ 35
agre@@ 35
anni@@ 35
anstrengend 35
appear@@ 35
arts 35
ate." 35
auszudrücken." 35
baby 35
barbecue 35
batter@@ 35
beach@@ 35
beeinflussen 35
berühm@@ 35
berühren 35
bigger 35
bilit@@ 35
bitte 35
blowing 35
bud@@ 35
business@@ 35
bücher 35
captiv@@ 35
choice 35
cken. 35
ckets 35
comple@@ 35
conserv@@ 35
cyc@@ 35
der." 35
development. 35
digital 35
drank 35
eas@@ 35
enthusiast. 35
erei 35
erie 35
erse@@ 35
essed 35
evolution 35
extrem 35
fertig 35
fine 35
fließt 35
fully. 35
gekauft. 35
gerich@@ 35
gestell@@ 35
glie@@ 35
graph@@ 35
gru@@ 35
gung 35
hervor@@ 35
highly 35
including 35
increase 35
ing) 35
inspi@@ 35
instrument. 35
interessantes 35
italien@@ 35
jogging. 35
konnte, 35
kontrollier@@ 35
kop@@ 35
krank@@ 35
ks, 35
leckere 35
lehr@@ 35
losen 35
ma. 35
mm 35
movem@@ 35
mä@@ 35
mächti@@ 35
nerv@@ 35
nuclear 35
numbers 35
od@@ 35
old, 35
oneself 35
ood. 35
other, 35
passed 35
passt 35
path 35
per. 35
ple 35
ple@@ 35
praktizier@@ 35
presentation 35
produktiv 35
profession@@ 35
progres@@ 35
provi@@ 35
rainbow 35
rays 35
regnet 35
relationships. 35
repe@@ 35
respektvoll 35
ries@@ 35
river. 35
sahen 35
schlechte 35
schnell. 35
schnurrt 35
schwierige 35
schwimmt 35
scient@@ 35
sent@@ 35
ses@@ 35
smaller 35
sonnig 35
specific 35
sts 35
success 35
table 35
taught 35
tern. 35
trou@@ 35
ultim@@ 35
verbessern." 35
verteil@@ 35
wea@@ 35
wech@@ 35
whom 35
writing. 35
wurden." 35
würden." 35
zellen 35
zes 35
üch@@ 35
"Not 34
"Of 34
"Our 34
"Se@@ 34
"Vielleicht 34
"Weil 34
/ 34
Afrik@@ 34
Anti@@ 34
Autor@@ 34
Beispiele 34
Bezug 34
Chance, 34
Coun@@ 34
Demo@@ 34
English@@ 34
Entwicklungs@@ 34
Euro@@ 34
Europe 34
Familie, 34
Festivals 34
Fische 34
Gedichte 34
Geduld 34
Geheim@@ 34
Gott 34
Grill@@ 34
Grundlage 34
H: 34
Haut. 34
Heil@@ 34
Hem@@ 34
Ira@@ 34
Isra@@ 34
Komfortzone 34
Konfli@@ 34
Leistungen 34
Lieblingsort 34
Maschinen 34
Mathematik 34
Mc@@ 34
Mut 34
Nacht@@ 34
Nicht 34
Nie@@ 34
Or 34
Ozean 34
Photography 34
Pil@@ 34
Que@@ 34
Richard 34
Schach 34
Sel@@ 34
Snow@@ 34
Sonnenstrahlen 34
Sou@@ 34
Spa@@ 34
Tum@@ 34
Tur@@ 34
Vereinigten 34
Vis@@ 34
Vo@@ 34
Web@@ 34
Wild@@ 34
Wohlbefinden 34
Zeit. 34
Zum 34
aben 34
affect 34
age, 34
album 34
ambi@@ 34
ame 34
anger@@ 34
anzen 34
article 34
attitude. 34
außergewöhn@@ 34
base@@ 34
belief@@ 34
bell@@ 34
bert 34
beste@@ 34
blows 34
boat 34
bound@@ 34
bridge 34
cand@@ 34
cat. 34
cel@@ 34
chir@@ 34
cies 34
clusi@@ 34
color@@ 34
connects 34
contagious. 34
countryside. 34
darf 34
des. 34
doct@@ 34
dolph@@ 34
effect. 34
effectiv@@ 34
eleph@@ 34
en?""" 34
entscheiden@@ 34
eres 34
erfrischend. 34
erlaub@@ 34
et. 34
examples 34
factor@@ 34
falling 34
festzu@@ 34
flows 34
forming 34
friedlich 34
fying 34
fün@@ 34
gal@@ 34
galax@@ 34
gest@@ 34
getrunken 34
gli@@ 34
glücklich@@ 34
govern@@ 34
greater 34
grenz@@ 34
grün 34
gs, 34
guess 34
gyp@@ 34
hab 34
ham@@ 34
happily. 34
hat. 34
hnung 34
hof 34
honesty 34
inclu@@ 34
industry 34
kaufen. 34
kitchen. 34
komme 34
kreativer 34
ky 34
land, 34
lands 34
lay@@ 34
leaves. 34
leuchtet 34
lled 34
lung@@ 34
lus@@ 34
main@@ 34
market. 34
masch@@ 34
math 34
mensch 34
mich@@ 34
miles 34
ms. 34
ne." 34
nimmt 34
nis, 34
now@@ 34
observing 34
olo@@ 34
ond 34
oni@@ 34
ority 34
phi@@ 34
plo@@ 34
pr@@ 34
prob@@ 34
provides 34
qui@@ 34
relax@@ 34
reminds 34
requires 34
resist@@ 34
rooms 34
runs 34
schlafen" 34
schutz@@ 34
sets 34
sie. 34
sitz@@ 34
skill@@ 34
sofa. 34
sowohl 34
spi@@ 34
spieler 34
spontaneous 34
studied 34
sw@@ 34
tat 34
tells 34
ten: 34
tigkeit 34
tische 34
today@@ 34
unda@@ 34
unt 34
unterstützen 34
unvergess@@ 34
verbringen, 34
verstehen." 34
versuch@@ 34
versucht, 34
verwenden 34
veröffentlich@@ 34
weren't 34
where, 34
wichtiges 34
window@@ 34
ym@@ 34
ys@@ 34
zel@@ 34
zep@@ 34
zurück, 34
zwitsch@@ 34
""You 33
"Heute 33
"Tatsächlich 33
"They're 33
14 33
A, 33
Ak@@ 33
Alles 33
Aspe@@ 33
Auge 33
Chancen 33
Cou@@ 33
Cre@@ 33
Den@@ 33
Eating 33
Ehr@@ 33
Emp@@ 33
Erdbe@@ 33
Fantasie 33
Frühl@@ 33
Geschle@@ 33
Gesundheit. 33
Gewitter 33
Glauben 33
God 33
Goo@@ 33
Gro@@ 33
Großes 33
Grupp@@ 33
Job@@ 33
Joggen 33
Karte 33
Klassi@@ 33
Klavier 33
Klimawandel 33
Kommunikation 33
Krise 33
Lon@@ 33
Lust 33
Menschen." 33
Musik, 33
Now, 33
Pati@@ 33
Persönlichkeit 33
Phi@@ 33
Produkte 33
Radio 33
Rain@@ 33
Rest 33
Richt@@ 33
Serie 33
Ski 33
Sorgen 33
Stärke 33
Sunday 33
Treffen 33
Umgeb@@ 33
Watching 33
Wo 33
Zusammenarbeit 33
Zügen 33
actual 33
alism@@ 33
alized 33
amerikanischen 33
ances 33
appreci@@ 33
asiat@@ 33
assen 33
ast, 33
attac@@ 33
awar@@ 33
before, 33
beings 33
berich@@ 33
bes 33
blau. 33
break@@ 33
bs. 33
calling 33
cau@@ 33
character@@ 33
childhood 33
clou@@ 33
co 33
conc@@ 33
concept 33
corre@@ 33
craft 33
cute. 33
d? 33
dama@@ 33
data, 33
death 33
definitely 33
diet. 33
dishes 33
distribu@@ 33
dogs. 33
dunkl@@ 33
earli@@ 33
ehen 33
ehmen 33
entlang 33
entweder 33
erfrischt 33
erien. 33
event@@ 33
eventually 33
excellent. 33
exhaust@@ 33
fai@@ 33
fangen, 33
feeling. 33
figh@@ 33
films. 33
financial 33
flower. 33
focused 33
folge 33
fs@@ 33
fulfilling 33
fulness 33
führen, 33
gender 33
gens 33
ges." 33
gewesen 33
ght 33
gotten 33
gt. 33
heißt, 33
high. 33
hohe 33
igkeit 33
impac@@ 33
improvis@@ 33
indescribable. 33
ing.""" 33
integr@@ 33
interessiert 33
invented 33
invest 33
iting 33
itself@@ 33
jen@@ 33
ker. 33
konnte." 33
ktor 33
leer 33
les, 33
links 33
los. 33
läch@@ 33
macht." 33
map 33
material 33
meet@@ 33
mer. 33
mid@@ 33
mind, 33
mindestens 33
mole@@ 33
mounta@@ 33
net, 33
network 33
onlin@@ 33
ouris@@ 33
persönliche 33
pictures 33
placed 33
policy 33
pool. 33
present@@ 33
princi@@ 33
punkt 33
raining 33
reduzier@@ 33
ringing 33
robots 33
rot@@ 33
ry. 33
schütz@@ 33
self 33
setzen" 33
ships 33
simp@@ 33
snow. 33
sodass 33
spic@@ 33
spüre 33
stam@@ 33
steckt 33
stoff@@ 33
strange 33
stret@@ 33
suchen, 33
symme@@ 33
tail 33
techni@@ 33
tei@@ 33
telefon@@ 33
tempor@@ 33
tennis 33
therap@@ 33
this@@ 33
throw@@ 33
tic, 33
tics. 33
tieren. 33
tragen." 33
tten 33
unch 33
universe. 33
ved. 33
vermittel@@ 33
verrück@@ 33
violence 33
vit@@ 33
walked 33
well-being. 33
werde" 33
werde." 33
wirtschaft@@ 33
wohne 33
works. 33
wunderbar 33
Über 33
önn@@ 33
überle@@ 33
übern@@ 33
ützt 33
’@@ 33
“@@ 33
""I'm 32
"An 32
"Einige 32
"Oh, 32
"Okay, 32
75 32
8, 32
AR@@ 32
Arz@@ 32
B. 32
Bal@@ 32
Begleiter 32
Bereich@@ 32
Berggipfel 32
Bestes 32
Bürger@@ 32
Chi@@ 32
Christ@@ 32
Detail@@ 32
Deut@@ 32
Dor@@ 32
Ebene 32
Evolution 32
Fach@@ 32
Fahrrad@@ 32
Farben. 32
Fic@@ 32
Filme. 32
Genau 32
Geschen@@ 32
Gleichberechtigung 32
Hi@@ 32
Hirn@@ 32
I, 32
Ingenie@@ 32
Ja, 32
Jahre, 32
John@@ 32
Journali@@ 32
Kamera 32
Leidenschaft. 32
Lieblingsmusi@@ 32
Mathema@@ 32
Milch 32
Pas@@ 32
Pool 32
Quentin 32
Rake@@ 32
Regent@@ 32
Riding 32
Sache, 32
Sat@@ 32
Schne@@ 32
Schriftstell@@ 32
Schwar@@ 32
Sonne. 32
Sportart 32
Stan@@ 32
Straße. 32
Supermarkt 32
Swe@@ 32
Tagebuch 32
Teilen 32
Tochter 32
Water 32
Wet@@ 32
Wur@@ 32
Wörter 32
age. 32
ahn 32
angeneh@@ 32
apple 32
author 32
band@@ 32
begrenz@@ 32
behavior 32
bin, 32
bing 32
bling 32
brain, 32
buildings 32
career 32
causes 32
cent 32
cheer@@ 32
ches@@ 32
cht." 32
chtes 32
city, 32
ck." 32
comedies. 32
comedy 32
commit@@ 32
completed 32
contribu@@ 32
cool. 32
crowded 32
day.""" 32
deci@@ 32
descri@@ 32
differences 32
dul@@ 32
dur@@ 32
eben 32
effici@@ 32
einiger 32
emotions 32
ency 32
entertain@@ 32
entlichen 32
entspannend. 32
ese@@ 32
estim@@ 32
fail@@ 32
fear@@ 32
fern 32
flexi@@ 32
fon@@ 32
friends, 32
fund@@ 32
fundament@@ 32
fühlt 32
führung 32
gather@@ 32
ge: 32
geschlafen 32
gestalten 32
hang 32
heir@@ 32
herunter@@ 32
heutzutage 32
hohen 32
icher@@ 32
ichts 32
iel 32
incredible. 32
ines 32
innere 32
innovation 32
intensi@@ 32
ism, 32
iten, 32
jem@@ 32
keiner 32
kennen@@ 32
kitchen 32
level@@ 32
mass 32
meal. 32
moral 32
more." 32
music@@ 32
nar@@ 32
natür@@ 32
neh@@ 32
nehmen. 32
num@@ 32
o." 32
oes 32
ollen 32
ologie 32
optimist@@ 32
ought 32
ouse 32
ously, 32
peaceful. 32
photograph@@ 32
physically 32
picnic@@ 32
ping. 32
pit@@ 32
player. 32
private 32
process. 32
project. 32
puts 32
red, 32
reichen 32
resear@@ 32
rust@@ 32
rustle 32
sailing 32
schal@@ 32
schme@@ 32
scho@@ 32
schrieb 32
schwierigen 32
schätzen 32
security 32
selbst, 32
sele@@ 32
shared 32
shop 32
slo@@ 32
sorgt 32
spannend, 32
spazieren. 32
spr@@ 32
stück@@ 32
suddenly 32
super 32
sustainable 32
ta 32
tete, 32
though, 32
thousand 32
tions." 32
tolerant 32
too." 32
transl@@ 32
trinken" 32
universal 32
useful 32
val 32
verbess@@ 32
verfolgen." 32
vergessen 32
verwandel@@ 32
ves." 32
vorher@@ 32
wers 32
wertvolle 32
wird" 32
wollte, 32
year." 32
year@@ 32
yet, 32
ys, 32
zar@@ 32
zehn 32
zell@@ 32
zufrie@@ 32
zuhause 32
zweit@@ 32
öse 32
üh@@ 32
üt@@ 32
""Was 31
"Deshalb 31
"Some 31
"Some@@ 31
"U@@ 31
10, 31
20. 31
4, 31
6, 31
Alle 31
Amerika 31
Autobahn 31
Beat@@ 31
Beobach@@ 31
Bere@@ 31
Cam@@ 31
China, 31
DIY 31
Dam@@ 31
Daten@@ 31
Entspann@@ 31
Erfin@@ 31
Ergebnisse 31
Fashion 31
Fehlern 31
Feuerwerk 31
Fi@@ 31
Food 31
Game 31
Gehen 31
Gelegenheit 31
Gemüt@@ 31
Harmonie 31
Hig@@ 31
Indian 31
Insekten 31
Jacke 31
Kil@@ 31
Kop@@ 31
Let 31
Listening 31
Live-@@ 31
Lösungen 31
Materi@@ 31
Maybe 31
Mob@@ 31
Motorrad 31
Nummer 31
Nur 31
O 31
Ohne 31
Ordn@@ 31
Playing 31
Präsentation 31
Rechn@@ 31
Revolution 31
Rä@@ 31
Skifahren 31
Sü@@ 31
TV. 31
Telefon@@ 31
Urlaub. 31
Verbesser@@ 31
Wachst@@ 31
Werte 31
Wirt@@ 31
Zeitung 31
Zell@@ 31
Zoo@@ 31
able@@ 31
abstra@@ 31
allein@@ 31
anten 31
apply 31
arbeiten. 31
ased 31
attending 31
away." 31
bake 31
benötig@@ 31
benötigt 31
bern 31
bike. 31
blei@@ 31
blick@@ 31
breakfast. 31
brow@@ 31
bust@@ 31
cast@@ 31
ces. 31
chance. 31
cher@@ 31
chter 31
chtig@@ 31
civiliz@@ 31
climbing 31
cocktail 31
community. 31
compon@@ 31
content 31
conversations. 31
cross@@ 31
dadurch 31
daughter 31
decision 31
demon@@ 31
denken. 31
detail@@ 31
diagno@@ 31
ding@@ 31
directly 31
doctor 31
e; 31
eigen@@ 31
einzigar@@ 31
etro@@ 31
expen@@ 31
experienced 31
feiern 31
fer. 31
fill 31
form. 31
foundation 31
funny 31
gehör@@ 31
genetic 31
geno@@ 31
genommen, 31
genossen 31
gesamten 31
groß. 31
guitar. 31
hard. 31
harmony 31
have, 31
he. 31
hen, 31
heutigen 31
home, 31
homemade 31
hoo@@ 31
horse 31
hus@@ 31
ies, 31
incre@@ 31
indispens@@ 31
influ@@ 31
intelligence 31
invest@@ 31
irgendwo 31
issues 31
isti@@ 31
it.""" 31
iter@@ 31
keiten. 31
künst@@ 31
laptop 31
larger 31
legal 31
liebste 31
lief 31
liert 31
like@@ 31
llen 31
lou@@ 31
machten 31
marathon 31
mark 31
mira@@ 31
möglichen 31
natürliche 31
necess@@ 31
nee@@ 31
neighb@@ 31
nete 31
ney 31
ology 31
ordn@@ 31
os. 31
parents. 31
passi@@ 31
pel 31
persönlichen 31
prec@@ 31
proble@@ 31
process, 31
pt@@ 31
ption 31
recogn@@ 31
reflek@@ 31
relationships 31
respect@@ 31
respek@@ 31
rier 31
romantische 31
romo@@ 31
round 31
s"" 31
safe@@ 31
sam. 31
sav@@ 31
sche. 31
schreiben. 31
schrie@@ 31
schwer, 31
shed 31
shopp@@ 31
sign 31
situation 31
skills 31
sla@@ 31
sowie 31
spontan@@ 31
sprechen. 31
ste. 31
sterb@@ 31
sucht 31
sugges@@ 31
surrounded 31
t," 31
tap@@ 31
tausende 31
theory 31
this? 31
through@@ 31
toll 31
trauri@@ 31
treibt 31
triff@@ 31
trin@@ 31
ungen@@ 31
ush@@ 31
uter 31
verbr@@ 31
volu@@ 31
waste 31
watch@@ 31
wave 31
welt 31
while, 31
wolken@@ 31
wusste, 31
wärmen 31
zusammen. 31
zuverlässi@@ 31
Ärzte 31
ßen, 31
äh@@ 31
ähnlich 31
äuß@@ 31
""Hey, 30
(Beifall) 30
.) 30
..@@ 30
Action@@ 30
Amerikaner 30
Astronom@@ 30
Ausstellung 30
Australi@@ 30
Besseres 30
Billi@@ 30
Birds 30
Bon@@ 30
Brief@@ 30
Brun@@ 30
Daten, 30
Deshalb 30
Dinge. 30
Ereig@@ 30
Festiv@@ 30
Fle@@ 30
Flo@@ 30
Forscher 30
Freude. 30
Fähig@@ 30
Fü@@ 30
Ga@@ 30
Gan@@ 30
Gemälde 30
George 30
Got@@ 30
Größ@@ 30
Holly@@ 30
James 30
Kamer@@ 30
Kampf 30
Kino. 30
Klassen@@ 30
Kn@@ 30
Kranken@@ 30
Kulturen. 30
Lassen 30
Lauf@@ 30
Lieblingssportart 30
Literatur 30
MR@@ 30
Malen 30
Markt@@ 30
Mars 30
Medikam@@ 30
Nun, 30
Oberfläche 30
On@@ 30
Personen 30
Persön@@ 30
Programm 30
Reak@@ 30
Rei@@ 30
Reiten 30
Schmer@@ 30
Sportarten 30
Stim@@ 30
Struktur 30
Städten 30
Syn@@ 30
T-@@ 30
T: 30
Ti@@ 30
Train@@ 30
Twitter 30
Version 30
What's 30
Wirk@@ 30
Wör@@ 30
YouTu@@ 30
Zukun@@ 30
Zweck 30
abende 30
abroad. 30
acci@@ 30
ach. 30
alon@@ 30
ance." 30
anding 30
architecture. 30
bahn@@ 30
baut 30
bedeck@@ 30
bekannt 30
benutzen 30
besuch@@ 30
beteili@@ 30
bewegen." 30
bist 30
bottom 30
brains 30
brechen 30
bru@@ 30
bunten 30
buying 30
café. 30
cam@@ 30
capture 30
cats. 30
celebrated 30
childr@@ 30
closer 30
cloud@@ 30
code 30
cover@@ 30
creati@@ 30
d?" 30
dancing. 30
dann, 30
days, 30
ded. 30
despite 30
dimension@@ 30
ding. 30
dir@@ 30
dom 30
dopp@@ 30
duftet 30
effizi@@ 30
einzelne 30
elektr@@ 30
eless 30
energi@@ 30
eness 30
enh@@ 30
eni@@ 30
ens. 30
entdecken. 30
entspanne 30
ep. 30
era 30
ers." 30
esten 30
expand 30
expla@@ 30
extra 30
eyes. 30
f-@@ 30
fahren, 30
family, 30
funktioniert." 30
führen. 30
garden@@ 30
gas 30
gas@@ 30
gekommen 30
gelan@@ 30
gestalten." 30
größer 30
handelt 30
he." 30
heit." 30
herr@@ 30
history, 30
hope@@ 30
hotel 30
hät@@ 30
häus@@ 30
ial 30
ight, 30
importantly, 30
increas@@ 30
infra@@ 30
interag@@ 30
interes@@ 30
interessan@@ 30
iso@@ 30
iste 30
itali@@ 30
journe@@ 30
jungen 30
ked. 30
kill 30
kill@@ 30
komplex@@ 30
kra@@ 30
kämpfen." 30
lag 30
lauf 30
ließ 30
lift 30
low-@@ 30
materi@@ 30
measure 30
medicine 30
mer, 30
military 30
mistakes 30
mittl@@ 30
monit@@ 30
morning, 30
movement 30
möchte." 30
nann@@ 30
natur@@ 30
night's 30
nobody 30
normalerweise 30
notwen@@ 30
nur, 30
näch@@ 30
näher 30
open-@@ 30
ors. 30
orting 30
ow, 30
pain 30
personality. 30
pleasure 30
poor@@ 30
pop 30
position 30
positiver 30
possibilities 30
ppe 30
probieren." 30
punk@@ 30
reasons 30
rechte 30
reich 30
respe@@ 30
richti@@ 30
ried 30
rief 30
ring@@ 30
room, 30
sagten: 30
scheln 30
schlechten 30
selt@@ 30
sensitive 30
sich. 30
sitzen." 30
skydiving 30
smar@@ 30
sold 30
spazieren" 30
spezi@@ 30
sque@@ 30
stan@@ 30
story, 30
stressi@@ 30
stärker 30
sup@@ 30
sym@@ 30
teachers 30
tern." 30
tert 30
theat@@ 30
theater. 30
tons 30
treff@@ 30
trinken 30
unbeschreiblich 30
untersche@@ 30
urban 30
ured 30
ush 30
verges@@ 30
vermutlich 30
verse 30
vertraue 30
wach 30
war. 30
washed 30
water." 30
wen 30
werke 30
won 30
würden, 30
zeiten 30
zoo@@ 30
zweiten 30
Öl 30
Überzeugungen 30
ücke 30
"Dieser 29
"Here 29
"Natürlich 29
"Viele 29
"Von 29
"Warum 29
2000 29
7, 29
A: 29
Alb@@ 29
Antwor@@ 29
Anzahl 29
Archite@@ 29
Bei 29
Beine 29
Bus@@ 29
Comics 29
Design@@ 29
Die@@ 29
E-Mails 29
Englisch 29
Eth@@ 29
Fehl@@ 29
Fisch 29
Frage, 29
Francis@@ 29
Freun@@ 29
Geborgenheit 29
Gedächt@@ 29
Großbrit@@ 29
Hunger 29
Hände 29
Höhen 29
Interak@@ 29
Italien 29
Janu@@ 29
Kal@@ 29
Kamp@@ 29
Kap@@ 29
King 29
Kurz@@ 29
Kön@@ 29
L: 29
Laub 29
Laune 29
Lebensmit@@ 29
Lebensmittel 29
Lieblingsjahreszeit 29
London 29
MI@@ 29
Mer@@ 29
Monaten 29
Mäd@@ 29
Nat@@ 29
Not@@ 29
Nun 29
Okay. 29
Out@@ 29
Pfer@@ 29
Picknick@@ 29
Preis 29
Projek@@ 29
Projekten 29
Radfahren 29
Reise@@ 29
Sin@@ 29
Son@@ 29
Spra@@ 29
Staaten 29
Stro@@ 29
Stun@@ 29
Telefon 29
Traditionen 29
Vari@@ 29
Wald@@ 29
Where 29
Yoga. 29
Zahlen 29
Zivilis@@ 29
above 29
activities 29
agri@@ 29
alitä@@ 29
ans. 29
anzuneh@@ 29
appointment 29
ary, 29
at." 29
atur 29
aufgrund 29
average 29
ax@@ 29
ba 29
bedeckt 29
bedeu@@ 29
begegn@@ 29
beobachten 29
bester 29
bestimmte 29
bewegt 29
bicycle. 29
bleibt 29
blä@@ 29
bon@@ 29
bott@@ 29
caf@@ 29
calcul@@ 29
capacity 29
carrying 29
caus@@ 29
cei@@ 29
celebrating 29
chron@@ 29
clearly 29
colleagues 29
communicate 29
compan@@ 29
compo@@ 29
connection 29
consequ@@ 29
conv@@ 29
conven@@ 29
convers@@ 29
cow 29
crafts. 29
cs 29
cycle 29
dark. 29
das@@ 29
de-@@ 29
defini@@ 29
denken." 29
depend@@ 29
deser@@ 29
destination 29
determined 29
diverse 29
dlichen 29
draw. 29
dritte 29
ebenso 29
einfach, 29
einz@@ 29
embra@@ 29
empty 29
er's 29
erinnern 29
erledigt 29
erreichen, 29
erung 29
expect 29
exten@@ 29
fabri@@ 29
fass@@ 29
festival 29
field. 29
filme 29
fluently. 29
fragen, 29
free. 29
friendships. 29
fting 29
ful." 29
fung 29
futu@@ 29
fäl@@ 29
gegessen. 29
gehabt. 29
gemähtem 29
gesag@@ 29
gesund. 29
gezeigt 29
globale 29
gucke 29
gy@@ 29
handeln 29
heilende 29
herrlich 29
hinzu@@ 29
holding 29
horiz@@ 29
ic, 29
ids 29
ig, 29
ily. 29
imple@@ 29
impro@@ 29
inde@@ 29
inspirierend 29
instrument@@ 29
interessant. 29
itat 29
jag@@ 29
journali@@ 29
junk@@ 29
klingelt 29
komple@@ 29
konnten." 29
leader@@ 29
leidenschaftlicher 29
leisten 29
lesen, 29
lesson 29
licherweise 29
lives." 29
married 29
maxim@@ 29
me.""" 29
memory 29
mme 29
moment, 29
mood 29
motivate 29
mögen 29
nehmen" 29
ners 29
notwendig 29
obviously 29
offensichtlich 29
opinions 29
optimis@@ 29
optimistisch 29
parks 29
positively. 29
practicing 29
products. 29
progress 29
question@@ 29
rank 29
refreshing 29
rei@@ 29
relativ@@ 29
relev@@ 29
rufen 29
ränk@@ 29
s) 29
sell 29
send@@ 29
separate 29
sharing 29
sichtlich 29
situations. 29
sitzen" 29
slow 29
software 29
solution 29
someday 29
soothing. 29
spielen, 29
springt 29
stoff 29
strong. 29
systems, 29
thinking. 29
tom@@ 29
tool@@ 29
topics. 29
tox@@ 29
track 29
train. 29
trained 29
treffen" 29
tt 29
two, 29
ual 29
umgeben 29
unterschied@@ 29
unverzichtbar 29
ups 29
ura@@ 29
verdient 29
verwen@@ 29
view. 29
ving. 29
weisen 29
weiterhin 29
wiederhol@@ 29
winz@@ 29
wirken 29
wurden, 29
ying. 29
zy@@ 29
"But, 28
"Du 28
"Even 28
"Every 28
"Just 28
10,000 28
2,@@ 28
Ach@@ 28
Also, 28
Alzheim@@ 28
Autofahren 28
Being 28
Boot 28
Brille 28
Chr@@ 28
Cor@@ 28
Couch 28
Ding 28
Dokumentationen 28
Facebook 28
Fotogra@@ 28
Fr@@ 28
Frauen, 28
Gefühl@@ 28
Gericht 28
Go 28
Großeltern 28
Hausaufgaben 28
Here 28
Herr 28
High 28
Inspi@@ 28
Jugend@@ 28
Juli@@ 28
Laugh@@ 28
Leben." 28
Leidenschaften 28
Lieben 28
Lös@@ 28
Mahlzeit 28
Masch@@ 28
Material 28
Mechan@@ 28
Musikinstrum@@ 28
Möglichkeiten. 28
Nachbar@@ 28
Nahrung 28
Organisation 28
Orten 28
Park@@ 28
Partys 28
Paul 28
Pinguine 28
Problemen 28
Prot@@ 28
Raum@@ 28
Regenwetter 28
Romane 28
Sau@@ 28
Schatten 28
Schmuck 28
Schwimmbad 28
Sehen 28
Sha@@ 28
Shakespe@@ 28
Teile 28
Temper@@ 28
Theorie 28
Träu@@ 28
Tä@@ 28
Urlaub@@ 28
Vertrau@@ 28
Washing@@ 28
Wider@@ 28
Wikipedi@@ 28
Wüste 28
Zentrum 28
abenteuer@@ 28
according 28
ad." 28
ades 28
allge@@ 28
ana 28
applic@@ 28
arbeite@@ 28
aspe@@ 28
attemp@@ 28
auto 28
bac@@ 28
back." 28
ballo@@ 28
beeindruckend. 28
bege@@ 28
begle@@ 28
beizu@@ 28
bekam 28
bewirken. 28
biological 28
bisher 28
block@@ 28
bottle 28
box@@ 28
bringing 28
bt, 28
bung 28
busy 28
c. 28
cak@@ 28
camer@@ 28
campa@@ 28
changes. 28
children, 28
cit@@ 28
cles 28
clothing 28
compli@@ 28
contex@@ 28
conver@@ 28
cooper@@ 28
ction." 28
cycling 28
dauer@@ 28
daugh@@ 28
dedic@@ 28
degre@@ 28
denken" 28
det. 28
disease 28
distance. 28
doc@@ 28
dok@@ 28
dream. 28
drop 28
drücken 28
duften 28
dunkel 28
employe@@ 28
empty. 28
endet 28
energy, 28
entr@@ 28
environment, 28
equal 28
equality 28
erfrisch@@ 28
es: 28
est, 28
evolution@@ 28
existier@@ 28
exotic 28
expres@@ 28
extraordinary 28
fall. 28
familiar 28
faster 28
faszinierende 28
fiction. 28
finally, 28
folgen 28
foot@@ 28
ford 28
forward. 28
fossi@@ 28
fresh@@ 28
friendships 28
fähig 28
gegan@@ 28
gemacht, 28
ges, 28
geschick@@ 28
gesetzt 28
gespannt 28
gh. 28
gig 28
glasses. 28
gradu@@ 28
grund@@ 28
gä@@ 28
h." 28
habe@@ 28
hand, 28
hand. 28
haus@@ 28
hea@@ 28
head. 28
him. 28
hin. 28
hunder@@ 28
hung@@ 28
iben 28
iff@@ 28
ign 28
ign@@ 28
ild 28
illa 28
iness 28
isch." 28
ite, 28
itung 28
itzen 28
kno@@ 28
kochen." 28
konzent@@ 28
ktive 28
lauten 28
laws 28
led. 28
ling. 28
listened 28
literature. 28
loss 28
lustig 28
mann@@ 28
materials 28
meditate. 28
mes@@ 28
minim@@ 28
moderne 28
myself, 28
nearly 28
need. 28
neun 28
night@@ 28
nimm@@ 28
novel 28
nutri@@ 28
occur@@ 28
oder?" 28
off." 28
okay, 28
om. 28
order@@ 28
orig@@ 28
pal@@ 28
passes 28
passiert." 28
pers 28
ping 28
play. 28
politischen 28
possibility 28
praktisch 28
problem. 28
problem." 28
prü@@ 28
rede 28
regularly. 28
remin@@ 28
rene@@ 28
right." 28
ry@@ 28
rän@@ 28
schafft 28
schwe@@ 28
seite 28
selten 28
serious 28
show@@ 28
shower@@ 28
siert 28
sings 28
skiing 28
smittel 28
so." 28
soll." 28
spannend. 28
spiegel@@ 28
spin@@ 28
spor@@ 28
sprach 28
st-@@ 28
stand. 28
star 28
steigen 28
sten. 28
step@@ 28
stitu@@ 28
strength@@ 28
strug@@ 28
style 28
successful. 28
sustainability 28
sweise 28
t;@@ 28
tag. 28
talent 28
taus@@ 28
tausend 28
technologies 28
television. 28
ten?" 28
theo@@ 28
therefore 28
this: 28
tieren" 28
tigung 28
tis@@ 28
tliche 28
tool 28
tradition@@ 28
traurig 28
tw@@ 28
two-@@ 28
uch 28
umge@@ 28
uns. 28
urr@@ 28
vegetables 28
verein@@ 28
vergan@@ 28
verletz@@ 28
vor. 28
wash 28
waves. 28
weder 28
weiteres 28
weiß@@ 28
wendung 28
wesen 28
who's 28
workout 28
wächst 28
wählen 28
yst@@ 28
zeigen. 28
zusam@@ 28
»@@ 28
Än@@ 28
ß, 28
"". 27
""S@@ 27
"Au@@ 27
"How 27
"Without 27
"Zu 27
"[@@ 27
2.@@ 27
600 27
Abschl@@ 27
Auszeit 27
Bahn@@ 27
Bank@@ 27
Barbe@@ 27
Bedürfnisse 27
Besonder@@ 27
Big 27
Blau@@ 27
Bli@@ 27
Blut@@ 27
Bre@@ 27
British 27
CE@@ 27
Christmas. 27
Cocktail@@ 27
Daumen 27
Demokratie 27
Des@@ 27
Din@@ 27
Dokument@@ 27
Dorf 27
Erfahrungen, 27
Erfolge 27
European 27
Familien 27
Feld 27
Fort@@ 27
Geräu@@ 27
Gewal@@ 27
God@@ 27
Great 27
Gri@@ 27
HIV@@ 27
Heimat@@ 27
Imp@@ 27
Inte@@ 27
Ken@@ 27
Kir@@ 27
Komödien 27
Kuh 27
La 27
Lab@@ 27
Leuten, 27
Länder. 27
Meeres 27
Micro@@ 27
Mom@@ 27
Movies 27
Musikfestivals 27
Netz 27
Neue 27
Outdoor-@@ 27
Perspektive 27
Pic@@ 27
Plas@@ 27
Plä@@ 27
Politics 27
Polizei 27
Port@@ 27
Prin@@ 27
Progra@@ 27
Pu@@ 27
Ries@@ 27
Schicksal 27
Solar@@ 27
Spezies 27
Strateg@@ 27
Studenten 27
Tee. 27
Temp@@ 27
Ter@@ 27
Then 27
Thron@@ 27
Titan@@ 27
Tom 27
Träumen 27
Universums 27
Verbin@@ 27
When 27
Willi@@ 27
abet@@ 27
abhän@@ 27
abili@@ 27
advan@@ 27
ah, 27
alb@@ 27
ality. 27
aliz@@ 27
alle, 27
allo@@ 27
amazing. 27
anced 27
anda 27
aner 27
anno@@ 27
antwor@@ 27
anybody 27
arbeitet." 27
aring 27
arm@@ 27
around, 27
artificial 27
aster 27
astrop@@ 27
aufräumen 27
bal 27
barer 27
basier@@ 27
basis 27
bau 27
beer. 27
bells 27
bereichern 27
bereis@@ 27
besser@@ 27
bestimmt 27
bewunder@@ 27
bloo@@ 27
brain@@ 27
breathtakingly 27
brightly. 27
brilli@@ 27
bs@@ 27
bunch 27
bunte 27
care. 27
cases 27
change, 27
change." 27
cheese 27
choo@@ 27
civi@@ 27
contin@@ 27
corpor@@ 27
couch 27
cuisine. 27
derung 27
des, 27
designing 27
dessert. 27
dig, 27
dings 27
disku@@ 27
distance 27
dly, 27
documentaries 27
done. 27
down." 27
drawing 27
dress 27
ein." 27
eln." 27
ely, 27
em. 27
emo@@ 27
end" 27
ender@@ 27
ene@@ 27
entlang. 27
entscheiden, 27
erkennen 27
erklären, 27
erv@@ 27
escape 27
event 27
exhibi@@ 27
extreme 27
fascin@@ 27
feiern" 27
fein@@ 27
festivals 27
fie@@ 27
fire@@ 27
fix 27
forests 27
fullest. 27
färbt 27
füh@@ 27
führen" 27
füllt 27
gain 27
gardening. 27
gebil@@ 27
gegeben 27
gegenseitig 27
gemeinsame 27
gend, 27
genutzt 27
gerichtet 27
geseh@@ 27
gesprochen 27
gestellt, 27
gestellt. 27
gesunden 27
getr@@ 27
giant 27
glitz@@ 27
großartiger 27
größeren 27
hearing 27
hed. 27
heim@@ 27
herz@@ 27
hoch. 27
horizons. 27
hr, 27
humor@@ 27
hält@@ 27
identify 27
idet 27
ied 27
individuals 27
ini@@ 27
inspiration 27
invit@@ 27
ison 27
izing 27
jähri@@ 27
jün@@ 27
kit@@ 27
klass@@ 27
kling@@ 27
kol@@ 27
kreativen 27
kulturelle 27
könnten, 27
laden 27
langweilig 27
leaving 27
leckeren 27
lesen. 27
letzter 27
ley 27
library. 27
lichke@@ 27
lichkeit. 27
liebe@@ 27
litt@@ 27
losing 27
love, 27
lows 27
machines 27
magisch 27
massive 27
media. 27
meditation 27
melt 27
mostly 27
mul@@ 27
mush@@ 27
musician 27
möglich, 27
mögliche 27
nel 27
nenne 27
newspa@@ 27
no, 27
noch@@ 27
obser@@ 27
oc@@ 27
om, 27
ometer 27
one-@@ 27
ordentlich 27
org@@ 27
ous." 27
p." 27
paid 27
passieren 27
pedi@@ 27
percent." 27
percep@@ 27
perfect. 27
perfekter 27
persön@@ 27
photograph 27
picture. 27
pleasant 27
positive. 27
prepar@@ 27
prepare 27
quarium 27
que 27
reduc@@ 27
report 27
ride. 27
ritu@@ 27
road. 27
sad 27
sames 27
schaut 27
schrei@@ 27
science. 27
ses. 27
sex 27
ski@@ 27
sna@@ 27
sometime. 27
soul 27
soup 27
splan@@ 27
ss 27
ssen, 27
stad@@ 27
statt@@ 27
stic 27
stressful. 27
studies 27
suppor@@ 27
sweet. 27
table. 27
tee 27
telefoniert 27
tennis. 27
themsel@@ 27
ther's 27
thin@@ 27
thinking, 27
thri@@ 27
tik. 27
tiz@@ 27
treiben" 27
treiben." 27
tures 27
two@@ 27
umm@@ 27
unden, 27
unterrich@@ 27
uss. 27
verfüg@@ 27
verlier@@ 27
verändern." 27
villa@@ 27
vorher 27
waterfall 27
ways, 27
wenig@@ 27
wohner 27
wol@@ 27
worden 27
worry 27
ws. 27
ze. 27
zeichnet 27
zeigte 27
zent@@ 27
ziehen, 27
Öl@@ 27
ß. 27
ücken 27
üsse 27
’t 27
""Warum 26
""Wir 26
"Dam@@ 26
"Inste@@ 26
"Nein, 26
"Unfortunately, 26
"Unser 26
)@@ 26
12. 26
1990@@ 26
Achtsamkeit 26
Arbeitsk@@ 26
Arbeitstag 26
Arm@@ 26
Bauch@@ 26
Baum@@ 26
Beitrag 26
Bio@@ 26
Boden. 26
Bost@@ 26
Brita@@ 26
Bus 26
Büchern. 26
Bühne 26
Chef 26
Dank@@ 26
Danke 26
Ding@@ 26
Drit@@ 26
Earth@@ 26
Eigenschaf@@ 26
Empathie 26
Entspannung. 26
Favor@@ 26
Fitnessstudio. 26
Freiheit. 26
Freiwilli@@ 26
French 26
Freu@@ 26
Fru@@ 26
Fuß 26
Führerschein 26
Gebur@@ 26
German 26
Geschäfts@@ 26
Grad 26
Grenz@@ 26
Haare 26
Hal@@ 26
Hallo@@ 26
Halt 26
Heim@@ 26
Herausforderungen. 26
Hitze 26
Hor@@ 26
Intelligenz 26
Ir@@ 26
Japanese 26
Klas@@ 26
Kohlenst@@ 26
Konta@@ 26
Lage, 26
Laufe 26
Licht@@ 26
Lieblingsbeschäftig@@ 26
Lieblingssport 26
Meinung, 26
Mich@@ 26
Ner@@ 26
Neur@@ 26
Offenheit 26
Papier 26
Paris. 26
Perspektiven 26
Podcasts 26
Righ@@ 26
Schau@@ 26
She@@ 26
Sommer. 26
Sonnenaufgänge 26
Stand@@ 26
Taking 26
Techn@@ 26
Theat@@ 26
Theater@@ 26
UN@@ 26
Verantwor@@ 26
Verletz@@ 26
Vier@@ 26
Wahrschein@@ 26
West 26
Wirklichkeit 26
York, 26
abilities. 26
ables 26
achievem@@ 26
aci@@ 26
aden. 26
adventurous 26
after@@ 26
akter@@ 26
anks 26
artistic 26
ategor@@ 26
ates. 26
ausprobiert. 26
authen@@ 26
balcony. 26
barking 26
bedro@@ 26
beeindruck@@ 26
bloom 26
bou@@ 26
buch 26
buch@@ 26
ca 26
catch 26
chirp 26
cing 26
cities. 26
club 26
commer@@ 26
communication 26
compassion. 26
computer. 26
conscious@@ 26
cou@@ 26
coura@@ 26
ctions. 26
cute 26
d; 26
danger@@ 26
das. 26
dene 26
destro@@ 26
destru@@ 26
deten 26
diary. 26
did." 26
digkeit 26
disc@@ 26
divi@@ 26
doctors 26
drag@@ 26
draußen. 26
driver's 26
e's 26
e?" 26
ecolog@@ 26
economy 26
ehrgeiz@@ 26
einfacher 26
electr@@ 26
elle, 26
elling 26
else@@ 26
en"" 26
enormous 26
enough. 26
entirely 26
entspannen. 26
equality. 26
equip@@ 26
erinner@@ 26
erkunden" 26
erkunden." 26
ermöglicht 26
escop@@ 26
expect@@ 26
expressing 26
fangen. 26
fantast@@ 26
favor@@ 26
fiel 26
finish 26
fireworks 26
flat@@ 26
fläch@@ 26
following 26
forgot 26
frem@@ 26
friendship. 26
fulfill 26
fulfilled 26
funn@@ 26
färben 26
ganzes 26
gedul@@ 26
gehört. 26
geschich@@ 26
geschichte 26
geschä@@ 26
gestresst 26
geträum@@ 26
gifts. 26
glau@@ 26
großar@@ 26
grü@@ 26
gut." 26
gängen 26
hands. 26
heavy 26
heben 26
hervorra@@ 26
herzu@@ 26
hnt 26
häu@@ 26
ian 26
ics, 26
improvem@@ 26
income 26
indi@@ 26
indis@@ 26
inevit@@ 26
inf@@ 26
infinite 26
ited 26
iti@@ 26
jobs 26
jumping 26
kam, 26
ke-@@ 26
kommenden 26
krimin@@ 26
kühl 26
kümmern 26
laun@@ 26
laven@@ 26
learning. 26
license 26
liebst@@ 26
lieren 26
los, 26
loving 26
lungen 26
lässt." 26
magical 26
majestic. 26
manage 26
matically 26
mation 26
meters 26
midd@@ 26
missing 26
models 26
motiviert 26
mutig 26
nachts 26
near@@ 26
nen. 26
ner, 26
ness, 26
nett 26
not@@ 26
number@@ 26
off, 26
ologen 26
original 26
overwhel@@ 26
period 26
pho@@ 26
pieces 26
plus 26
pose 26
priv@@ 26
productiv@@ 26
präsen@@ 26
raised 26
rap@@ 26
reac@@ 26
realit@@ 26
recent 26
reden, 26
related 26
rema@@ 26
resources 26
results 26
return 26
ric 26
rieren 26
ries. 26
rig@@ 26
rote 26
ruft 26
schaft." 26
scher 26
sea@@ 26
security. 26
ses, 26
shor@@ 26
simul@@ 26
slightly 26
smart@@ 26
so: 26
solchen 26
sollen 26
sollten, 26
solutions 26
spaziergang 26
spektakul@@ 26
spot 26
sprechen@@ 26
sprich@@ 26
ster. 26
sterben 26
stets 26
stim@@ 26
stol@@ 26
stopp@@ 26
stressful 26
strö@@ 26
suchen." 26
sushi 26
sweat@@ 26
tasks 26
throw 26
tie 26
tier 26
tiker 26
tiven 26
transpor@@ 26
tting 26
umen 26
un, 26
unabhäng@@ 26
understand@@ 26
unterschiedlichen 26
unvergleich@@ 26
utes 26
vel 26
velling 26
verantwor@@ 26
verhinder@@ 26
verkauft 26
vers 26
ves. 26
vieles 26
volunte@@ 26
vorbei@@ 26
wachen 26
wahre 26
wahrschein@@ 26
warmly 26
wasser 26
wber@@ 26
web 26
weir@@ 26
weiter. 26
werden" 26
whe@@ 26
whose 26
wonder 26
working. 26
wuch@@ 26
wärts 26
z.B. 26
ziel 26
ändert 26
ügen 26
“" 26
!@@ 25
""-@@ 25
""This 25
""What 25
""Why 25
"Des@@ 25
"Nicht 25
"Ver@@ 25
(Music) 25
-year-old 25
9, 25
AIDS 25
Ada@@ 25
Ame@@ 25
Anfan@@ 25
Armut 25
Außen@@ 25
Ball@@ 25
Baum. 25
Bra@@ 25
Brow@@ 25
CD@@ 25
Californi@@ 25
Cy@@ 25
Deutschland 25
E-Ma@@ 25
Einfach@@ 25
Emo@@ 25
Engagement 25
Engli@@ 25
Fan@@ 25
Fein@@ 25
Fen@@ 25
Feuer@@ 25
Fortschrit@@ 25
Fotograf@@ 25
Frise@@ 25
Fäl@@ 25
GP@@ 25
Geb@@ 25
Genau@@ 25
Geschwis@@ 25
Geschäft@@ 25
Gras. 25
Hawai@@ 25
Helden 25
Hintergrund 25
Ihn@@ 25
Inse@@ 25
Interesse 25
Jahres 25
Jede 25
Kli@@ 25
Kommunik@@ 25
Kontro@@ 25
Kreativ@@ 25
Kreis@@ 25
Kurs 25
Küch@@ 25
Lag@@ 25
Landschaft. 25
Lektion 25
Lib@@ 25
Lieblingsger@@ 25
Lieblingshobby 25
Medizin@@ 25
Middle 25
Mod@@ 25
Musical@@ 25
N. 25
Oma 25
Papier@@ 25
Revolu@@ 25
Rezep@@ 25
Roadtrip 25
Sauna 25
Schutz 25
Si@@ 25
Sim@@ 25
Singen 25
Sozi@@ 25
Spezi@@ 25
Spitze 25
Stad@@ 25
Stellen 25
Systeme 25
Termin 25
Therap@@ 25
Unabhängig@@ 25
University 25
Unterschie@@ 25
Videospiele 25
Wahr@@ 25
Wand@@ 25
Wasser, 25
Wasserfall 25
Werkzeuge 25
Yeah, 25
York. 25
Zahl@@ 25
Zeitpunkt 25
abge@@ 25
about." 25
achievements 25
adap@@ 25
adventures 25
agen 25
agra@@ 25
agree 25
alles. 25
although 25
ames 25
ane 25
angeh@@ 25
angenehm. 25
anischen 25
ansteckend 25
ants. 25
ape@@ 25
aries 25
atel@@ 25
bad. 25
bag@@ 25
balance. 25
bar." 25
barbecu@@ 25
barks 25
beding@@ 25
begannen 25
behandelt 25
besei@@ 25
bill@@ 25
birth@@ 25
bleiben, 25
brid@@ 25
broaden 25
broke 25
car, 25
carb@@ 25
ced 25
certain@@ 25
chemical 25
classi@@ 25
cle. 25
consider@@ 25
critical 25
curi@@ 25
darkn@@ 25
daten 25
dead 25
dealing 25
decorate 25
dens 25
dies, 25
dollar@@ 25
drau@@ 25
drawing. 25
dün@@ 25
e"" 25
easier. 25
ebenfalls 25
einfühl@@ 25
einzigen 25
einzutau@@ 25
enter 25
entwer@@ 25
entwickelten 25
erfas@@ 25
err@@ 25
erwähn@@ 25
essen, 25
etz@@ 25
except 25
faith 25
fangen." 25
feed 25
fields 25
fitness. 25
flus@@ 25
flüge 25
forsch@@ 25
fres@@ 25
fruit. 25
full. 25
fäll@@ 25
gab, 25
geback@@ 25
geheimnis@@ 25
gekocht 25
gelernt, 25
gesp@@ 25
gespielt 25
geworden 25
ght. 25
ging@@ 25
gkeit 25
glass@@ 25
gutem 25
habit@@ 25
haf@@ 25
hairdres@@ 25
has@@ 25
help. 25
her." 25
hätte, 25
hörte 25
ident 25
ider 25
ielle 25
ight@@ 25
imagination. 25
impossible 25
industr@@ 25
inen 25
infin@@ 25
ins. 25
istische 25
ith 25
itting 25
join 25
kannte 25
ken. 25
kid 25
klär@@ 25
ks@@ 25
ktes 25
kurs 25
köst@@ 25
köstlich. 25
kürz@@ 25
lap. 25
laub@@ 25
lay 25
leidenschaft@@ 25
lic 25
lifelong 25
losop@@ 25
machin@@ 25
manipul@@ 25
mehr, 25
mehr. 25
met@@ 25
milk. 25
minut@@ 25
mom 25
much." 25
nahe 25
necessarily 25
nehm@@ 25
nehmen@@ 25
nights 25
näh@@ 25
nützlich 25
object 25
objects 25
offene 25
office. 25
opened 25
optimistic. 25
oursel@@ 25
passen 25
passion@@ 25
peace@@ 25
perio@@ 25
perman@@ 25
place." 25
plastic 25
pleasure. 25
pret@@ 25
production 25
promote 25
published 25
puzzles. 25
ques 25
race 25
ready. 25
rechn@@ 25
red." 25
respond 25
response 25
restaurant. 25
rewar@@ 25
rhyth@@ 25
rustling 25
sagen@@ 25
sammeln." 25
sch, 25
schen." 25
schlag 25
schlagen 25
schrit@@ 25
schwimmen." 25
schöp@@ 25
schützen 25
sculp@@ 25
separ@@ 25
short, 25
side@@ 25
sie: 25
simpli@@ 25
sis@@ 25
sky@@ 25
sneak@@ 25
somewhere 25
soo@@ 25
sorg@@ 25
sorts 25
soul@@ 25
sprechen" 25
staun@@ 25
stellungen 25
stens 25
stes 25
stimul@@ 25
strau@@ 25
strengthen 25
stres@@ 25
stressig 25
support. 25
sustain@@ 25
symbo@@ 25
systeme 25
tain@@ 25
tent 25
term 25
themselves. 25
threat@@ 25
ting, 25
tired. 25
titude 25
tive. 25
trick@@ 25
trieben 25
ttern 25
tures, 25
ull@@ 25
ums@@ 25
understood 25
ungsk@@ 25
var@@ 25
verantwortlich 25
verbinden 25
verursach@@ 25
verwirr@@ 25
village 25
vulner@@ 25
weiteren 25
welcher 25
whi@@ 25
wife 25
winter, 25
wirkt 25
wonders 25
writer. 25
ya 25
yellow 25
yester@@ 25
zahl 25
ze." 25
zehn@@ 25
zero 25
zu." 25
zugän@@ 25
zurückzu@@ 25
Öff@@ 25
Öko@@ 25
öl@@ 25
"From 24
"Ihr 24
"Ja, 24
"No 24
"Obwohl 24
&@@ 24
's, 24
-Musik 24
.“ 24
19. 24
400 24
Advent@@ 24
Analy@@ 24
Arbe@@ 24
Arbeitsplatz 24
Architektur@@ 24
Arm 24
At 24
Baby 24
Bade@@ 24
Bedürf@@ 24
Beginn 24
Beruf 24
Bologn@@ 24
Buches 24
CD 24
Camp@@ 24
Debat@@ 24
Earth, 24
Elektr@@ 24
Erd@@ 24
Erfindung 24
Es@@ 24
Fa@@ 24
Fenster. 24
Feu@@ 24
Fremdsprache 24
Fun@@ 24
Gelegenheit, 24
Gesellschaft. 24
Gesellschafts@@ 24
Gott@@ 24
Herausforder@@ 24
Herbst. 24
Himmel@@ 24
History 24
Hobby@@ 24
Hör@@ 24
Industri@@ 24
Internet, 24
Ki@@ 24
Kinder. 24
Konzep@@ 24
Krankheit 24
Krebs@@ 24
Kämp@@ 24
Land, 24
Lebe@@ 24
Leistung 24
Liebe, 24
Liebhaber 24
Marvel 24
Mau@@ 24
Medikamente 24
Mir 24
Mitgefühl@@ 24
Modell 24
Moder@@ 24
More 24
Motiv@@ 24
Mund 24
Musical 24
Musli@@ 24
Nachmittag 24
No. 24
Näch@@ 24
Ok@@ 24
Parte@@ 24
Patient@@ 24
Phän@@ 24
Pilze 24
Pizza. 24
Potter@@ 24
Prinzip 24
Privat@@ 24
Publikum 24
Rechte 24
Relax@@ 24
Research 24
Ressourcen 24
Risiko@@ 24
Ritu@@ 24
Romanen 24
S-@@ 24
Saf@@ 24
Sar@@ 24
Schach@@ 24
Schlag@@ 24
Schle@@ 24
Schlüssel@@ 24
Schü@@ 24
Sho@@ 24
Sicht 24
Sohn 24
Spr@@ 24
Stamm@@ 24
Studien 24
Sunsets 24
Tas@@ 24
Theaterst@@ 24
Tit@@ 24
Treib@@ 24
Trin@@ 24
US 24
Um 24
Videos 24
Vorur@@ 24
Wer 24
Western 24
Wichtigkeit 24
Work 24
Wunsch 24
Wälder 24
Yog@@ 24
Zau@@ 24
Zelle 24
acken 24
ad. 24
adver@@ 24
afternoon. 24
agne 24
ago." 24
aks 24
aktuelle 24
alien 24
amm@@ 24
ancy 24
ander 24
appear 24
appears 24
appoint@@ 24
arch@@ 24
arms 24
artists 24
atmosp@@ 24
aufgeräumt 24
awa@@ 24
away, 24
bacteri@@ 24
basketball 24
bedeuten 24
befinden 24
befrei@@ 24
bekommt 24
believed 24
besag@@ 24
betro@@ 24
bles 24
body's 24
bringt." 24
browse 24
buildings. 24
camp 24
capit@@ 24
collective 24
commun@@ 24
community, 24
compar@@ 24
complex@@ 24
complic@@ 24
concerts 24
confidence 24
context 24
coo@@ 24
countries, 24
courage 24
ctual 24
curious. 24
cycling. 24
dasselbe 24
ded, 24
dee@@ 24
deln 24
die. 24
different. 24
diverse. 24
droh@@ 24
dum@@ 24
el." 24
elles 24
empa@@ 24
encourage 24
entführen 24
enthusi@@ 24
entsch@@ 24
entwickelt, 24
erinn@@ 24
erkunden 24
erledig@@ 24
ernd 24
este 24
ets. 24
ewi@@ 24
expan@@ 24
fand@@ 24
feld 24
ferne 24
finanz@@ 24
fire. 24
fische 24
fix@@ 24
flat 24
flüssi@@ 24
football 24
fruits. 24
fuhr 24
function@@ 24
furnis@@ 24
game. 24
gebr@@ 24
gebro@@ 24
gefühl 24
gem 24
general 24
ger." 24
gerä@@ 24
geschaut 24
gifts 24
ging. 24
goal. 24
gran@@ 24
groups 24
gruppe 24
gsten 24
harte 24
heart@@ 24
heißer 24
hill@@ 24
hinein@@ 24
his@@ 24
höchste 24
höher 24
ice." 24
iern 24
il." 24
imag@@ 24
immerse 24
ing? 24
ingredi@@ 24
int@@ 24
interact 24
istic 24
ists. 24
jap@@ 24
jene 24
keeping 24
kenne 24
keys 24
klassische 24
konnten, 24
kosten@@ 24
krit@@ 24
kräf@@ 24
kün@@ 24
künstler@@ 24
labor@@ 24
lack 24
langfris@@ 24
lassen@@ 24
last@@ 24
laundry. 24
lautet: 24
lernte 24
lese, 24
lets 24
lik@@ 24
liked 24
limited 24
lokale 24
lot, 24
low. 24
lux@@ 24
lösen." 24
maj@@ 24
majestät@@ 24
mann 24
marath@@ 24
medicin@@ 24
meistens 24
merik@@ 24
month. 24
month@@ 24
morn@@ 24
mouse 24
much, 24
multiple 24
männ@@ 24
nachdenken, 24
nennt 24
obvi@@ 24
oh, 24
opportunity. 24
orts 24
others, 24
oul@@ 24
owl 24
passen@@ 24
passions. 24
pasta 24
pattern 24
perspectives. 24
pflanz@@ 24
ph 24
piano. 24
possibly 24
pover@@ 24
prakt@@ 24
print 24
productive. 24
products 24
programs 24
präch@@ 24
purring 24
ration. 24
receive 24
reflect 24
refresh@@ 24
regul@@ 24
relativ 24
religious 24
remind 24
repor@@ 24
repres@@ 24
richtung 24
rock. 24
scen@@ 24
schir@@ 24
schnitt 24
schwier@@ 24
scop@@ 24
seemed 24
seli@@ 24
sense, 24
shot 24
sieht." 24
smart 24
spontane@@ 24
staying 24
ste." 24
steht, 24
stellt, 24
steps 24
sth@@ 24
strier@@ 24
strongly 24
sud@@ 24
sunrise 24
surve@@ 24
survive 24
swim. 24
swit@@ 24
switch 24
süß@@ 24
tanzen" 24
tanzt 24
teenag@@ 24
teilen." 24
tel, 24
temperature 24
ther." 24
therape@@ 24
thrill@@ 24
thumb 24
timm@@ 24
to." 24
treu@@ 24
trink@@ 24
um? 24
ument 24
unded 24
unglaublich. 24
unterhalten 24
urlaub@@ 24
ution 24
van@@ 24
veranstal@@ 24
veranstaltungen 24
verle@@ 24
verlieren 24
verwend@@ 24
verwendet 24
verwirklich@@ 24
verwirklichen 24
wahrer 24
wandern" 24
wandern." 24
wee@@ 24
wei@@ 24
weig@@ 24
weiter." 24
weltwe@@ 24
wenden 24
west@@ 24
wever, 24
wid@@ 24
wide 24
window 24
wör@@ 24
yar@@ 24
zeuge 24
zufällig 24
zwan@@ 24
zweif@@ 24
""Le@@ 23
""Wie 23
"All@@ 23
"Auch 23
"Do 23
"Manche 23
"OK, 23
"Wer 23
"Zweit@@ 23
,000@@ 23
-jähri@@ 23
Anblick 23
Angeles 23
Antworten 23
Audi@@ 23
Ausbildung 23
Batter@@ 23
Bedroh@@ 23
Berlin 23
Bewusstsein 23
Bot@@ 23
Brot. 23
Bruder 23
Brücke 23
Center 23
Charles 23
Dau@@ 23
Depres@@ 23
Desser@@ 23
Dy@@ 23
Education 23
Ei@@ 23
Einklang 23
Energ@@ 23
Entdeckungen 23
Erwachsen@@ 23
Experiment 23
Fallschirmspr@@ 23
Fantas@@ 23
Firmen 23
Fotografieren 23
Freuden 23
Frühling. 23
Gerich@@ 23
Geschwindigkeit 23
Gesicht. 23
Getränk 23
Großmutter 23
Haben 23
Hunder@@ 23
Häuser 23
Höhe 23
Investi@@ 23
Job. 23
Jog@@ 23
Kontin@@ 23
Konzent@@ 23
Kunstaus@@ 23
Kunstwerke 23
Kälte 23
Können 23
Land. 23
Landschaften 23
Landwirt@@ 23
Lauf 23
Like 23
Liter@@ 23
Live 23
Lou@@ 23
Milliar@@ 23
Mittel 23
Mountains 23
Muss 23
Netzwerk 23
New@@ 23
OK. 23
Ober@@ 23
Oh, 23
Okay, 23
Paul@@ 23
Peace 23
Person, 23
Pferd 23
Pha@@ 23
Postkar@@ 23
Potter. 23
Pr@@ 23
Psychologie 23
Publik@@ 23
Reise, 23
Rotwein 23
Sche@@ 23
Schokoladen@@ 23
Schreibtisch 23
Schöneres 23
Situ@@ 23
Spending 23
Stimm@@ 23
Suppe 23
Symbol 23
Tenn@@ 23
Titel 23
Tonnen 23
Umwel@@ 23
Unterschiede 23
Untersuch@@ 23
Vat@@ 23
Viet@@ 23
Vision 23
Wert@@ 23
West@@ 23
Yeah. 23
Zeu@@ 23
Zuhörer 23
abilities 23
accur@@ 23
achten 23
achten." 23
ack. 23
ada 23
ade. 23
afrikan@@ 23
airp@@ 23
ald 23
allerg@@ 23
alth 23
amerikanische 23
anen 23
anger 23
anschau@@ 23
anspruchs@@ 23
anymore. 23
anywhere 23
ao@@ 23
aren 23
aria 23
att 23
ausprob@@ 23
auszudrücken" 23
außerdem 23
aver@@ 23
base 23
basketball. 23
begonnen 23
behaup@@ 23
bemer@@ 23
beschre@@ 23
besuchen. 23
betra@@ 23
ble." 23
bodies 23
bow@@ 23
box. 23
breath@@ 23
brun@@ 23
bst 23
bungee 23
carries 23
carry 23
cats 23
caught 23
centur@@ 23
century, 23
chat@@ 23
clas@@ 23
comics. 23
compared 23
compe@@ 23
conscious 23
contempl@@ 23
cott@@ 23
couch. 23
crawls 23
cy. 23
d's 23
dcast@@ 23
design. 23
dessert 23
deutlich 23
diejenigen, 23
diet 23
discrimin@@ 23
distant 23
drinnen 23
dunk@@ 23
dürf@@ 23
eco@@ 23
einfach. 23
elet@@ 23
els. 23
emails. 23
ences. 23
eng 23
enheit 23
ening 23
enken 23
enswer@@ 23
enthäl@@ 23
entsteht 23
entwickeln, 23
eo@@ 23
ermu@@ 23
ernen 23
erweitern 23
erweitern." 23
erzählen. 23
erzählte 23
esi@@ 23
ets, 23
exam 23
excep@@ 23
fam@@ 23
fashion 23
ference 23
fessel@@ 23
fest, 23
finden" 23
findet, 23
fireplace. 23
forwar@@ 23
fran@@ 23
fruits 23
furcht@@ 23
gebacken 23
gedach@@ 23
gefühl@@ 23
gehört, 23
gelöst 23
geplan@@ 23
gering@@ 23
gers 23
gesellschaft@@ 23
gie@@ 23
graduate 23
grateful. 23
großartigen 23
größere 23
größter 23
gst 23
günsti@@ 23
hair. 23
halbe 23
happy." 23
hard@@ 23
hauptsächlich 23
hause. 23
heirate@@ 23
hielten 23
highest 23
hope. 23
höch@@ 23
ic." 23
ics. 23
ideal 23
illumin@@ 23
important, 23
increasing 23
indeed, 23
infinitely 23
instrument 23
investieren 23
invite 23
it?" 23
jewelry. 23
job, 23
kaufen." 23
ken." 23
ket. 23
km 23
kolle@@ 23
kr@@ 23
kreativ@@ 23
kte. 23
kuchen 23
kurz@@ 23
könnten." 23
kürzlich 23
lap@@ 23
lass@@ 23
leaders 23
left, 23
lem@@ 23
lessons 23
letting 23
lichem 23
liebhaber. 23
light@@ 23
limm@@ 23
lit 23
long. 23
lossen 23
lossen, 23
lucky 23
manufac@@ 23
maßen 23
medizinischen 23
meister@@ 23
mente 23
mer." 23
messen 23
meter 23
minute 23
mitten 23
money. 23
myself@@ 23
myster@@ 23
nei@@ 23
neugier@@ 23
nis. 23
nisse. 23
nut@@ 23
ological 23
opinion. 23
os@@ 23
pad@@ 23
patterns 23
per, 23
perfectly 23
perspective 23
point. 23
points 23
pos@@ 23
postcar@@ 23
prasselt 23
preci@@ 23
prepared 23
preser@@ 23
proto@@ 23
pure 23
rechten 23
record 23
reiche 23
rein 23
relationshi@@ 23
remarkable 23
remember@@ 23
represent 23
sach@@ 23
schützen." 23
see. 23
seines 23
sely 23
senses. 23
sensi@@ 23
shin@@ 23
sichten 23
sichti@@ 23
sie." 23
sieren 23
significant 23
singe 23
skydiving. 23
snowboar@@ 23
sometimes. 23
somewhat 23
somit 23
space. 23
sparkle 23
speziel@@ 23
spider 23
splas@@ 23
spontan 23
sten@@ 23
stoffe 23
strahlt 23
strateg@@ 23
stuck 23
stücke 23
summt 23
supermarket 23
surfac@@ 23
symbol 23
tation 23
team@@ 23
terrible 23
the-@@ 23
they'll 23
think. 23
tiefe 23
tierte 23
tierten 23
times." 23
tin 23
to-@@ 23
transpar@@ 23
treated 23
treffen, 23
tries 23
trotz 23
träge 23
tung, 23
twin@@ 23
uchen. 23
unk 23
unter. 23
unterschiedlich 23
unterstützen." 23
upon 23
ursprün@@ 23
verdienen 23
vergessen, 23
verliebt 23
verschie@@ 23
verwenden, 23
visible 23
voc@@ 23
wachs@@ 23
wacht 23
wagen 23
weg. 23
wein@@ 23
whenever 23
where. 23
winn@@ 23
with, 23
woke 23
worse 23
wusst@@ 23
wü@@ 23
zog 23
Ängste 23
é 23
"""A 22
""Es 22
""] 22
"Every@@ 22
"No, 22
"People 22
"Sch@@ 22
"So@@ 22
"Well 22
&amp;@@ 22
). 22
00, 22
13 22
13@@ 22
15@@ 22
16@@ 22
194@@ 22
1960@@ 22
21 22
800 22
Aff@@ 22
Algorithmen 22
Alko@@ 22
Amazon 22
Americans 22
Antiqu@@ 22
As 22
Asien 22
Ausstellungen 22
Australia 22
Babys 22
Bank 22
Beauty 22
Belo@@ 22
Bien@@ 22
Blä@@ 22
Braz@@ 22
Buch. 22
Bücher. 22
CO@@ 22
Chines@@ 22
Chirur@@ 22
Clim@@ 22
D: 22
Einstell@@ 22
Elektro@@ 22
England 22
Erholung 22
F: 22
Feier@@ 22
Fitness-@@ 22
Flasche 22
Flugha@@ 22
Frank 22
Frem@@ 22
Füße 22
Gam@@ 22
Gand@@ 22
Geist@@ 22
Gene 22
Geräte 22
Gestal@@ 22
Gewe@@ 22
Glück, 22
Herausforderungen, 22
Herbstes 22
Hit@@ 22
Hühn@@ 22
IP@@ 22
Imm@@ 22
Indu@@ 22
Information@@ 22
Infrastruktur 22
Intern@@ 22
Italy. 22
Jahreszeit. 22
Jungen 22
Kapit@@ 22
Kell@@ 22
Kinder, 22
King. 22
Klang 22
Kombination 22
Konzerten 22
Kraft, 22
Krankheiten 22
Kris@@ 22
Kultur. 22
Kunsthandwerk 22
Leonardo 22
Lieblingsband 22
Lord 22
Lü@@ 22
Many 22
Massage 22
Methode 22
Minut@@ 22
Mitmenschen 22
Moment, 22
Objekt 22
Obst@@ 22
Ohr@@ 22
Pit@@ 22
Pl@@ 22
Potenti@@ 22
Projekt, 22
Prä@@ 22
Reaktion 22
Realitä@@ 22
Red@@ 22
Reise. 22
Rel@@ 22
Restaur@@ 22
Rhapsody@@ 22
Robert 22
Rog@@ 22
Roman 22
Russi@@ 22
Rätsel 22
Schauspiel@@ 22
Schmerz 22
Science-Fiction 22
Seel@@ 22
Summen 22
Süßigkeiten 22
Tea 22
Technik@@ 22
Todes@@ 22
Toilet@@ 22
Tru@@ 22
Trä@@ 22
Typ 22
Umfeld 22
Vergleich 22
Versuch@@ 22
Von 22
Wach@@ 22
Wars 22
Weihnacht@@ 22
Weltrau@@ 22
Wirtschafts@@ 22
Wochen@@ 22
Wochenenden 22
Zuhör@@ 22
absolut 22
accoun@@ 22
ace 22
addition 22
ado@@ 22
advis@@ 22
ago. 22
ahn@@ 22
aking 22
ale@@ 22
alive. 22
allowing 22
alt. 22
an: 22
analysi@@ 22
annt 22
arbeitete 22
arran@@ 22
asi 22
asse@@ 22
assen@@ 22
ationen, 22
ativen 22
aufzustehen 22
automat@@ 22
babies 22
backen" 22
bat 22
beat 22
benutzen, 22
beobachtet 22
beruhigen 22
besser, 22
betrachten 22
bility. 22
body." 22
brauchen, 22
bsite 22
calm. 22
campen" 22
candle@@ 22
caused 22
clean. 22
combination 22
come. 22
complicated 22
computer@@ 22
concent@@ 22
coul@@ 22
countryside 22
craft@@ 22
crafts 22
crash@@ 22
cue 22
danach, 22
dann@@ 22
debate 22
deserve 22
desper@@ 22
dieselbe 22
distance, 22
dit 22
dollars, 22
drink. 22
drug 22
education, 22
effects 22
efficient 22
eindeu@@ 22
einhalb 22
electric 22
ell. 22
eln. 22
enem 22
energiegel@@ 22
entdeckt. 22
entfernt 22
ents." 22
erfolgreicher 22
erfor@@ 22
erhö@@ 22
erleich@@ 22
erneu@@ 22
erschein@@ 22
ery 22
erzählen, 22
esen, 22
falschen 22
family." 22
fantastic 22
fantastisch. 22
farm 22
faul 22
fell 22
fic 22
fighting 22
first, 22
flas@@ 22
flock 22
foc@@ 22
forschung 22
fris@@ 22
fulfil@@ 22
function 22
funktionieren 22
future, 22
fängt 22
fürs 22
gan 22
geboren 22
gebung 22
gefeiert 22
generate 22
genes 22
gespiel@@ 22
gesund@@ 22
gewaschener 22
gewonnen 22
gil@@ 22
gilt 22
gnis 22
grau@@ 22
grilling 22
ground, 22
grüne 22
gten 22
hadn't 22
head, 22
hiel@@ 22
him." 22
hn 22
humanity. 22
humor 22
hören. 22
igen, 22
iken 22
illu@@ 22
immediately 22
incomparable. 22
iness. 22
inte@@ 22
ismus, 22
itdem 22
itze 22
izz@@ 22
jump 22
jumps 22
kat@@ 22
ked, 22
keit." 22
keiten, 22
kes. 22
key@@ 22
king, 22
knistert 22
knowled@@ 22
kraft@@ 22
kä@@ 22
lacht 22
landscapes. 22
latest 22
laufen. 22
laufen." 22
leading 22
library 22
lief@@ 22
lifestyle. 22
list. 22
lives, 22
lle. 22
llt 22
lok@@ 22
man. 22
massage 22
meditieren 22
member 22
members 22
mir: 22
mittel 22
money, 22
moo@@ 22
morta@@ 22
mother. 22
motorcycle 22
moves 22
ms." 22
music, 22
müde. 22
nachzudenken." 22
nicht@@ 22
nissen 22
noticed 22
obsessed 22
offenen 22
onar@@ 22
one@@ 22
opo@@ 22
paper. 22
parties 22
photographs. 22
picknick@@ 22
pictures. 22
plätschert 22
podcasts 22
power. 22
prevent 22
previous 22
produced 22
produktiv@@ 22
produzieren 22
profit 22
project, 22
put@@ 22
puzz@@ 22
rascheln 22
reached 22
reason@@ 22
recht@@ 22
reden." 22
regelmäß@@ 22
relea@@ 22
ren 22
requi@@ 22
researchers 22
revolution 22
rid 22
riesigen 22
risks 22
rocket 22
ror 22
sagen. 22
sagten, 22
sah, 22
schlechter 22
schreib@@ 22
schönsten 22
science, 22
scri@@ 22
secure 22
sei, 22
ser. 22
setzen. 22
sister@@ 22
sm 22
small@@ 22
softly. 22
solving 22
spannende 22
speed 22
speich@@ 22
sphä@@ 22
spoke 22
spricht 22
sprung 22
sprü@@ 22
standar@@ 22
standard 22
stark. 22
station 22
stellten 22
stone 22
structure, 22
stum@@ 22
stärken 22
summer, 22
sustainability. 22
tags@@ 22
talks 22
tan 22
tax@@ 22
technologies. 22
tering 22
thank@@ 22
thankful 22
ther. 22
thrilled 22
tics, 22
tik, 22
tiv 22
tolerance 22
tonight 22
traf 22
traff@@ 22
trag 22
transi@@ 22
treat. 22
treib@@ 22
tter. 22
tung. 22
tzen 22
ums. 22
undes 22
unglück@@ 22
ungsfähig@@ 22
unvergesslich 22
uten 22
utter 22
values 22
ve.""" 22
ved." 22
vegetar@@ 22
verbringe." 22
verfolgen 22
vermeide 22
versorg@@ 22
verstand@@ 22
verw@@ 22
wachsen." 22
wachsen@@ 22
watch. 22
weakness. 22
wedding 22
wenige 22
whist@@ 22
women, 22
wussten 22
yed. 22
yra@@ 22
zeichen 22
zeichnen." 22
zeigen." 22
zen, 22
zur@@ 22
zusammenzu@@ 22
ähr@@ 22
älter@@ 22
ätze 22
überprü@@ 22
überwin@@ 22
üp@@ 22
"""The 21
""How 21
""If 21
"Dar@@ 21
"Denken 21
"Let's 21
"Me@@ 21
"Nach@@ 21
"Nur 21
"Re@@ 21
"We@@ 21
"die 21
--" 21
-K@@ 21
10.000 21
195@@ 21
50,000 21
700 21
A." 21
Abenteur@@ 21
Achterbahn@@ 21
Affen 21
Afghanist@@ 21
Africa. 21
Afrikan@@ 21
Aktivität 21
America, 21
Arbeit, 21
Australia. 21
Bedeut@@ 21
Behandlung 21
Bevölker@@ 21
Bewe@@ 21
Bild, 21
Blo@@ 21
Brettspiele 21
Bund@@ 21
Büch@@ 21
Café@@ 21
Carpe 21
Chicago 21
Commun@@ 21
Computers 21
Cro@@ 21
D. 21
DIY-@@ 21
Diskussion 21
Driving 21
Einstein 21
Ep@@ 21
Ergeb@@ 21
Erinnerung 21
Ev@@ 21
Every@@ 21
Face@@ 21
Fahrra@@ 21
Fernseher 21
Fig@@ 21
Fleisch 21
Folge 21
Fran@@ 21
Freizeitaktiv@@ 21
Fres@@ 21
Freund. 21
Frisur 21
Gitar@@ 21
Gleichgewicht 21
Glück. 21
Going 21
Grafi@@ 21
Gut. 21
Herausforderung. 21
Ill@@ 21
Imagine 21
Instrum@@ 21
Jahres@@ 21
Jan@@ 21
K 21
K. 21
Klar@@ 21
Klimawand@@ 21
Komplex@@ 21
Kosten 21
Krankenhaus 21
Käse@@ 21
Körpers 21
Leist@@ 21
Letz@@ 21
Lieblingsmusik@@ 21
Lieblingsrestaurant 21
Lieblingssport@@ 21
Liebsten 21
Magie 21
Manhat@@ 21
Mari@@ 21
Maus 21
Medien@@ 21
Ment@@ 21
Merk@@ 21
Modelle 21
Most 21
Multi@@ 21
Mä@@ 21
Märkte 21
Müll@@ 21
NAS@@ 21
Natürlich 21
Nervenz@@ 21
OK@@ 21
Oper 21
Ori@@ 21
Physik 21
Pin@@ 21
Position 21
Pre@@ 21
Publikum: 21
Radi@@ 21
Rah@@ 21
Regi@@ 21
Reisen. 21
Risiko 21
Rock 21
Runde 21
Schall@@ 21
Schwimm@@ 21
Schönheit. 21
Segel@@ 21
Sen@@ 21
Sex@@ 21
Sicht@@ 21
Skla@@ 21
Sky@@ 21
Softwar@@ 21
Spinne 21
Standar@@ 21
Student@@ 21
Stück@@ 21
Süd@@ 21
Tages@@ 21
Talent 21
Technologie, 21
Temperaturen 21
Thrones@@ 21
Tief@@ 21
Trees 21
Unterhaltung 21
Valle@@ 21
Van 21
Volleyball 21
Vorstellung 21
Waf@@ 21
Wandel 21
Weise, 21
Wil@@ 21
Winter. 21
Zehen 21
Zeichen 21
Zim@@ 21
Zufriedenheit 21
Zusammenhalt 21
Zü@@ 21
absor@@ 21
ach, 21
achieving 21
actively 21
acy 21
address 21
admit 21
afford 21
afterno@@ 21
aging 21
aku@@ 21
ala 21
algorith@@ 21
alize 21
allen@@ 21
ama 21
ambitious 21
anfangen, 21
anything. 21
appro@@ 21
appropri@@ 21
argu@@ 21
ari 21
arian 21
art, 21
ated." 21
attack 21
atures. 21
auf." 21
aufrä@@ 21
aur@@ 21
aussehen 21
avail@@ 21
bag 21
bear@@ 21
begins 21
beherr@@ 21
beinhal@@ 21
beliebtes 21
benutzt 21
beschäf@@ 21
besuch 21
beton@@ 21
bieten. 21
bili@@ 21
blas@@ 21
bloß 21
books, 21
boys 21
brain." 21
brauchte 21
breathing 21
bringen" 21
broken. 21
bub@@ 21
burning 21
chess. 21
chick@@ 21
chines@@ 21
choice. 21
city." 21
closed 21
clouds. 21
coast@@ 21
coaster 21
colleagu@@ 21
collects 21
comfort@@ 21
comic 21
communities 21
companions. 21
comput@@ 21
concerned 21
concert. 21
confid@@ 21
confident 21
constant 21
core 21
counter 21
covering 21
craw@@ 21
cryst@@ 21
dacht 21
dafür@@ 21
dahin 21
dat@@ 21
data@@ 21
degree 21
demo@@ 21
denkt, 21
dens@@ 21
dern, 21
desert 21
designers 21
deter@@ 21
diam@@ 21
dische 21
discover. 21
disea@@ 21
do? 21
done, 21
downlo@@ 21
driven 21
dy. 21
dür@@ 21
e-J@@ 21
ear 21
echt 21
einander. 21
einsetzen." 21
einzigartige 21
electro@@ 21
electronic 21
elektron@@ 21
ells 21
eln, 21
else." 21
empathy 21
empower@@ 21
enden, 21
engli@@ 21
entscheiden 21
entt@@ 21
entwicklung 21
erfahren 21
erfülltes 21
erinnern, 21
errich@@ 21
erstaunlich 21
erster 21
erwe@@ 21
erweit@@ 21
eten 21
evenings. 21
exchange 21
exist 21
families 21
fantas@@ 21
fascinates 21
female 21
fisch@@ 21
flex@@ 21
forced 21
fortun@@ 21
fotografieren 21
freed@@ 21
friends." 21
funktionier@@ 21
funktioniert, 21
gabe 21
gefall@@ 21
geleg@@ 21
gemütlich. 21
gen; 21
genannt 21
gere 21
geren 21
geschlossen@@ 21
geschnit@@ 21
getö@@ 21
gewähl@@ 21
glücklicher 21
greifen 21
griff@@ 21
grund 21
gs." 21
gänge 21
haben?" 21
hafte 21
halten. 21
ham 21
handi@@ 21
handle 21
hat's 21
heiten, 21
hellen 21
herausforder@@ 21
herauszufinden, 21
hundert 21
hungry 21
höher@@ 21
hü@@ 21
i-@@ 21
icht@@ 21
iegel@@ 21
ierter 21
immedi@@ 21
inci@@ 21
indic@@ 21
information, 21
ing: 21
invigor@@ 21
irre@@ 21
ishing 21
isol@@ 21
ität, 21
jacket 21
jahr@@ 21
judg@@ 21
kali@@ 21
kam." 21
karaoke. 21
kaufe 21
kennengelernt 21
kick@@ 21
klet@@ 21
klo@@ 21
kommen" 21
konstru@@ 21
kus@@ 21
large. 21
led, 21
lemon@@ 21
letter@@ 21
li. 21
lichkeit, 21
liqu@@ 21
listener. 21
luck@@ 21
lustige 21
läs@@ 21
lösen, 21
magazin@@ 21
main 21
majes@@ 21
management 21
master 21
meadow 21
men" 21
ments. 21
mit, 21
molecules 21
mother, 21
musici@@ 21
mär@@ 21
n't 21
neighborhood 21
newspaper 21
nieder@@ 21
nom@@ 21
not, 21
novel@@ 21
nutzen." 21
obvious 21
og 21
olle@@ 21
open-minded 21
openness 21
pair@@ 21
peac@@ 21
ped 21
pers@@ 21
person, 21
persönlich 21
pfel 21
pha 21
photographer. 21
photography 21
player 21
poems. 21
practical 21
predict 21
prescri@@ 21
primary 21
privile@@ 21
product 21
pull 21
putzt 21
quantum 21
question, 21
question: 21
quick@@ 21
rapidly 21
raus 21
raus@@ 21
re-@@ 21
refer@@ 21
regar@@ 21
reli@@ 21
reliable 21
religion 21
resource 21
respektiere 21
reve@@ 21
riechen 21
roller 21
rolling 21
rooms. 21
runter@@ 21
rural 21
räume 21
sammlung 21
satz@@ 21
schen@@ 21
schi@@ 21
schreiben, 21
schri@@ 21
schutz 21
schwierig, 21
schwimmen" 21
seag@@ 21
secrets. 21
selber 21
shoo@@ 21
shooting 21
sight. 21
signals 21
sions. 21
spec@@ 21
spiele. 21
sprachen 21
spread@@ 21
springen 21
spät, 21
squirrel 21
staat@@ 21
stecken 21
stehen" 21
stopped 21
story." 21
strebe 21
streets. 21
sunglass@@ 21
surro@@ 21
sweets. 21
süße 21
tanden 21
tanze 21
tar 21
tauchen 21
tel. 21
tele@@ 21
teste 21
thin 21
thunderstorm 21
thy 21
tiere. 21
tiert. 21
tigen, 21
tives 21
tlichen 21
toes. 21
toll. 21
trade 21
traditionellen 21
transforma@@ 21
traveled 21
travels. 21
tsam 21
tun" 21
ture, 21
turing 21
ular. 21
ull 21
unbeschreib@@ 21
unpredict@@ 21
unusual 21
usion 21
ute. 21
varie@@ 21
vegetarian. 21
vem@@ 21
veran@@ 21
vergleich@@ 21
vern@@ 21
verschwin@@ 21
versteck@@ 21
verwirklichen" 21
vorstellen 21
wa 21
wand 21
want. 21
warten, 21
websit@@ 21
week, 21
weiße 21
windowsi@@ 21
wisdom 21
wissenschaftliche 21
wissenschaftlichen 21
wohin 21
worst 21
wäs@@ 21
y"" 21
yed 21
you.""" 21
zess 21
ziehe 21
zone. 21
zumindest 21
änder 21
ändern." 21
änger 21
äußerst 21
""Bohemian 20
""No@@ 20
"Lassen 20
"Once 20
"Reisen 20
-L@@ 20
1." 20
1970@@ 20
2,000 20
23 20
30. 20
50. 20
Africa@@ 20
Ahn@@ 20
Air@@ 20
Alex@@ 20
Ali@@ 20
Angebo@@ 20
Anru@@ 20
Are 20
Außer@@ 20
Balsam 20
Beach 20
Behandl@@ 20
Bei@@ 20
Bein@@ 20
Biologie 20
Bir@@ 20
Blut 20
Bor@@ 20
Briefe 20
Brück@@ 20
Bunge@@ 20
Bäu@@ 20
Chips 20
Cocktails 20
Comic@@ 20
D-@@ 20
DV@@ 20
Dach. 20
Don@@ 20
Dutz@@ 20
East 20
Ed@@ 20
Einkauf@@ 20
Em@@ 20
Erinner@@ 20
Ernähr@@ 20
Erwar@@ 20
Everest 20
Fahrradtour 20
Faktor@@ 20
Filmabend 20
Flüchtl@@ 20
Frankreich 20
Frau, 20
Funk@@ 20
Füßen. 20
Genie@@ 20
Genuss 20
Gerä@@ 20
Geschenk, 20
Gesetz 20
Gesetze 20
Gestern 20
Geträn@@ 20
Haiti 20
Handlungen 20
Hause. 20
Haustieren 20
Have 20
He's 20
Heal@@ 20
Hobbies 20
Hotel 20
Instagra@@ 20
Intelligen@@ 20
Interess@@ 20
Intuition 20
Iran 20
Ital@@ 20
Jack@@ 20
Jahre. 20
Jun@@ 20
Karrier@@ 20
Kern 20
Kirchenglocken 20
Kleiderschrank 20
Kleidung. 20
Kleidungs@@ 20
Konzerte. 20
Kriegs@@ 20
Lach@@ 20
Lagerfeu@@ 20
Lar@@ 20
Limon@@ 20
Linie 20
Mandel@@ 20
Maschine 20
Men@@ 20
Milli@@ 20
Million 20
Mr. 20
Musik) 20
Mutter@@ 20
Mün@@ 20
Nachthimmel. 20
Nick@@ 20
Objekte 20
Ox@@ 20
Plan 20
Problem. 20
Produkt 20
Punkte 20
Rö@@ 20
Samm@@ 20
Satel@@ 20
Schimpan@@ 20
Schloss 20
Schwäch@@ 20
Secon@@ 20
Selbstvertrau@@ 20
September 20
Show 20
Sonnenschein 20
Stadt, 20
Sternenhim@@ 20
Steuer@@ 20
Strahl@@ 20
Street 20
Strom 20
Stärken 20
Stör@@ 20
Südafri@@ 20
Süß@@ 20
Tatsache, 20
Teen@@ 20
Test@@ 20
Those 20
Traumjob 20
Tö@@ 20
U-@@ 20
Universität 20
V 20
Ve@@ 20
Ven@@ 20
Verfügung 20
Vi@@ 20
Weg. 20
Who 20
Wind. 20
Zahn@@ 20
Zahnarzt 20
Zer@@ 20
Zu 20
Zwei 20
Zä@@ 20
achten" 20
acqu@@ 20
action. 20
adi@@ 20
advance 20
airplan@@ 20
ala@@ 20
alin@@ 20
along. 20
alternative 20
amm 20
amoun@@ 20
ancest@@ 20
anderem 20
anderen. 20
anon@@ 20
anzusehen 20
artige 20
asle@@ 20
assum@@ 20
ast. 20
ative, 20
atta@@ 20
audience 20
awes@@ 20
back. 20
background 20
balm 20
bank 20
beeindruckt 20
beeinflusst 20
beet@@ 20
beleb@@ 20
below 20
beobachte 20
bereisen." 20
bewirk@@ 20
bewusster 20
bewusstsein 20
bietet." 20
big, 20
brauchen." 20
breaking 20
broken 20
bruch 20
burg 20
butterflies 20
ca. 20
cast 20
cells, 20
chair 20
chess 20
chte, 20
cipl@@ 20
cken, 20
climb 20
coffe@@ 20
cogni@@ 20
collap@@ 20
college 20
colon@@ 20
come, 20
considered 20
costs 20
country." 20
crackling 20
dabei@@ 20
dauert 20
deb@@ 20
deinen 20
designer 20
direct 20
diseas@@ 20
dish@@ 20
display 20
dium 20
dliche 20
domin@@ 20
doors 20
dramat@@ 20
drit@@ 20
driver@@ 20
drücke 20
dunkle 20
easi@@ 20
easily 20
echten 20
effective 20
ehrliche 20
eingeladen 20
eleg@@ 20
email 20
emis@@ 20
en) 20
ends. 20
ennt 20
enough, 20
entdecke 20
entertaining. 20
entschied 20
entwickelte 20
erklingt 20
erledi@@ 20
erscheint 20
erstre@@ 20
erzählen." 20
ese. 20
eso 20
establi@@ 20
execu@@ 20
expected 20
expensive. 20
experienc@@ 20
extrover@@ 20
eze 20
faith@@ 20
faszinierend, 20
fe." 20
feelings 20
ffizi@@ 20
finanzier@@ 20
fisher@@ 20
fly. 20
food, 20
fragt, 20
fragten 20
frustr@@ 20
fröhlich. 20
fühlen, 20
fühlen." 20
führer 20
führte 20
gefunden, 20
gefä@@ 20
gegangen. 20
gehören 20
geis@@ 20
geschlafen. 20
getrunken. 20
given@@ 20
glu@@ 20
go." 20
government, 20
graphic 20
gründen 20
gun 20
haus 20
healing. 20
health, 20
heiß. 20
highway 20
hinaus 20
hol 20
home." 20
häufig 20
iPo@@ 20
ich: 20
ideas, 20
idem@@ 20
idylli@@ 20
iert." 20
important." 20
impressed 20
instance, 20
instin@@ 20
intelligent 20
interessant, 20
intern@@ 20
ish. 20
island 20
its. 20
itäten. 20
jahr 20
jog 20
kap@@ 20
kein@@ 20
ken, 20
kis@@ 20
klu@@ 20
kne@@ 20
knowing 20
kraft 20
ktoren 20
lamp@@ 20
language, 20
langweilig. 20
legs 20
lem 20
levels 20
light, 20
lines 20
lohnt 20
long, 20
long-term 20
lor 20
lun@@ 20
lustig. 20
ma." 20
magnific@@ 20
majestic 20
malen." 20
mals 20
many, 20
markt 20
mate 20
matters 20
meditiere 20
meditieren" 20
meis@@ 20
meln 20
melody. 20
metaph@@ 20
milit@@ 20
milk 20
missed 20
modernen 20
momentan 20
months, 20
musical@@ 20
müsste 20
neig@@ 20
nicht-@@ 20
ning. 20
none 20
norm@@ 20
nun, 20
occ@@ 20
of. 20
offici@@ 20
on't 20
onder@@ 20
opam@@ 20
ope 20
opening 20
optimistischer 20
organization 20
origin@@ 20
oxygen 20
path. 20
paying 20
pel@@ 20
person's 20
planting 20
plas@@ 20
ples. 20
podcast 20
poetry 20
possible, 20
problem@@ 20
problems." 20
pursu@@ 20
pünkt@@ 20
quali@@ 20
quanti@@ 20
rais@@ 20
rali@@ 20
recent@@ 20
refreshed 20
regen 20
regner@@ 20
relaxed. 20
retur@@ 20
rides 20
riech@@ 20
riesige 20
risks. 20
road@@ 20
ross 20
routin@@ 20
run. 20
sac@@ 20
sagen." 20
sail@@ 20
saving 20
schirm 20
schlafen. 20
schwar@@ 20
schwere 20
schwimmen. 20
schüch@@ 20
second, 20
sed, 20
selling 20
serve 20
sever@@ 20
sexual 20
shir@@ 20
shoul@@ 20
sibling@@ 20
singing. 20
skateboar@@ 20
skiing. 20
smile. 20
socc@@ 20
sogenannte 20
soil 20
son. 20
son: 20
sozus@@ 20
spannenden 20
spee@@ 20
spirit 20
spiritual 20
später, 20
starry 20
stick@@ 20
stie@@ 20
stieg 20
still@@ 20
stock 20
strategi@@ 20
stände 20
ständig@@ 20
stärkt 20
suit@@ 20
sul@@ 20
surger@@ 20
synthes@@ 20
tack@@ 20
tail@@ 20
task 20
taten 20
teilt 20
test, 20
thal@@ 20
thi@@ 20
thing: 20
thinks 20
thro@@ 20
tic." 20
tigt 20
tisch 20
tischen 20
tolerance. 20
toos 20
topic 20
tow@@ 20
town. 20
trop@@ 20
träum@@ 20
ttert 20
tti@@ 20
umul@@ 20
unbeliev@@ 20
unding 20
unendliche 20
ungewöhn@@ 20
ungskraft 20
unterweg@@ 20
ure. 20
ute, 20
vast 20
verab@@ 20
verbesser@@ 20
verbreitet 20
verbringe" 20
verloren. 20
vermeid@@ 20
verschmutz@@ 20
versi@@ 20
view, 20
virtual 20
vollkommen 20
voraus@@ 20
vorstell@@ 20
wachsen. 20
wards 20
waschen 20
ways." 20
weekends 20
weiter, 20
welt@@ 20
wesentlich 20
wheel@@ 20
whis@@ 20
wirst 20
women." 20
work-life 20
zugleich 20
zy 20
züch@@ 20
Ü@@ 20
älter 20
älteren 20
änz@@ 20
ärtn@@ 20
ökonom@@ 20
übe 20
ünstler 20
ürz@@ 20
""K@@ 19
"(Musik) 19
"(Video) 19
"Another 19
"Fir@@ 19
"First 19
"He@@ 19
"Je 19
"Most 19
"Secon@@ 19
"You're 19
"Zuerst 19
't, 19
(Video) 19
-Filmen 19
-to-@@ 19
000@@ 19
11. 19
17. 19
21st 19
35 19
50, 19
Abend. 19
Acc@@ 19
Angst, 19
Anima@@ 19
Ant@@ 19
Arg@@ 19
Atmosphäre. 19
Ausdruck@@ 19
Aust@@ 19
Autos. 19
Bauern@@ 19
Bay@@ 19
Begriff 19
Bevölkerung 19
Blick@@ 19
Breakfast 19
Bud@@ 19
Butterflies 19
Bürger 19
C: 19
CO2-@@ 19
Chanc@@ 19
Chemik@@ 19
Christi@@ 19
DH: 19
Definition 19
Dere@@ 19
Dingen, 19
Dinosau@@ 19
Dire@@ 19
Dokumentar@@ 19
Don't 19
Dunkelheit 19
Eben@@ 19
Ed 19
Elefanten 19
Entdeckung 19
Ereignisse 19
Erfahrung. 19
Erlebnis. 19
Erzähl@@ 19
Europe. 19
Fabri@@ 19
Fall@@ 19
Famili@@ 19
Flohmär@@ 19
Flugzeu@@ 19
Folgen 19
Frage: 19
Freizeit. 19
Frühaufsteher 19
Frühstück@@ 19
Ganz@@ 19
Gefäng@@ 19
Gemeinde 19
Geor@@ 19
Glau@@ 19
Glaube 19
Grand 19
Großteil 19
Gru@@ 19
Gruppen 19
Haar 19
Harv@@ 19
Haut@@ 19
Heimat 19
Herr@@ 19
Hobby. 19
Honesty 19
Hope 19
Horizont. 19
Hotel@@ 19
Hören 19
Identität 19
India, 19
Indie-@@ 19
Infe@@ 19
Jahren. 19
Jer@@ 19
Jogging@@ 19
Keny@@ 19
Kompliment 19
Konferenz 19
Konflikte 19
Kühlschrank 19
LE@@ 19
Lang@@ 19
Lebensstil 19
Liebe. 19
Lieblingsm@@ 19
Lit@@ 19
Lärm 19
Melodie 19
Mengen 19
Mess@@ 19
Moleküle 19
Moment@@ 19
Mond@@ 19
Musi@@ 19
Mutter, 19
Möbel 19
National@@ 19
Obje@@ 19
Opfer 19
Pfe@@ 19
Philosophie 19
Pilates 19
Ple@@ 19
Politik@@ 19
Prinzi@@ 19
Proto@@ 19
R 19
Red 19
Rede 19
Regel 19
Ren@@ 19
Reparatur 19
Republi@@ 19
Respe@@ 19
Resul@@ 19
Sauerstoff 19
Schaf@@ 19
Schneem@@ 19
Schri@@ 19
Schulen 19
Schutz@@ 19
Schweiß@@ 19
See@@ 19
Sehenswürdig@@ 19
Selbst 19
Software 19
Sonnenauf@@ 19
Sonnenlicht 19
Sonnenunter@@ 19
Spielzeug 19
Spin@@ 19
Spinn@@ 19
Spinnen 19
Stimmen 19
Strategi@@ 19
Stur@@ 19
Talente 19
Tatsach@@ 19
Tausende 19
Test 19
Teu@@ 19
Tier 19
Tiere, 19
Trag@@ 19
Trends 19
Uhr@@ 19
Unser 19
Vegetar@@ 19
Veranstal@@ 19
Vergn@@ 19
Verlust 19
Verstand 19
Waffen 19
Wahrnehmung 19
Wei@@ 19
Weiter@@ 19
Weiß@@ 19
Will@@ 19
Wochenende. 19
Wohnung. 19
Yester@@ 19
Zeichnen 19
aband@@ 19
abel@@ 19
abl@@ 19
abzubauen" 19
ac 19
acceler@@ 19
account 19
achie@@ 19
aching 19
agno@@ 19
ak. 19
alone, 19
altern@@ 19
aly@@ 19
amerikan@@ 19
amo@@ 19
and-@@ 19
andere, 19
anische 19
annien 19
ansehen, 19
antly. 19
argue 19
arme 19
arten. 19
artic@@ 19
astro@@ 19
at-@@ 19
ates, 19
atively 19
ator. 19
aufführ@@ 19
aufgeregt, 19
aufhören, 19
aul@@ 19
awak@@ 19
backen 19
bacteria 19
bad@@ 19
balanced 19
bank@@ 19
befrie@@ 19
beings. 19
beispiel@@ 19
bekomme 19
bemü@@ 19
bende 19
benutze 19
besie@@ 19
besorgt 19
besseres 19
better, 19
bilder 19
bine 19
bly 19
brit@@ 19
brother 19
business, 19
bö@@ 19
cally, 19
capitali@@ 19
card 19
career. 19
castle 19
celebra@@ 19
chain 19
charm. 19
che, 19
chose 19
chtigkeit 19
chur@@ 19
cially 19
citi@@ 19
citiz@@ 19
class. 19
coco@@ 19
come@@ 19
comfor@@ 19
comfortably 19
concentr@@ 19
crackles 19
crat@@ 19
creation 19
crowded. 19
cuis@@ 19
culinary 19
cy." 19
darüber@@ 19
decorating 19
deinem 19
deliver 19
demic 19
devast@@ 19
disco@@ 19
disor@@ 19
distra@@ 19
divers@@ 19
due 19
easier 19
edit@@ 19
einzul@@ 19
elder@@ 19
elev@@ 19
emen 19
en's 19
entisch 19
entrepreneur@@ 19
entwickeln" 19
erc@@ 19
erhalten. 19
erhalten." 19
erhöh@@ 19
erkun@@ 19
erlei 19
erschaffen 19
erzeugt 19
ests 19
etc." 19
evening, 19
eviden@@ 19
evolu@@ 19
existing 19
experiments 19
expression. 19
feder@@ 19
film@@ 19
finden@@ 19
folgt 19
food." 19
football. 19
force, 19
fourth 19
freie 19
freund 19
furniture. 19
further. 19
garden, 19
geber 19
gefe@@ 19
geführt. 19
gehal@@ 19
geko@@ 19
gelassen 19
gen: 19
gene@@ 19
genommen. 19
geschlo@@ 19
gesün@@ 19
gewohn@@ 19
gif@@ 19
ging, 19
gles 19
good, 19
grade 19
grandparents 19
grillen 19
grillen" 19
grown 19
growth. 19
großartig@@ 19
guar@@ 19
hanging 19
hier." 19
humor. 19
iPh@@ 19
ically, 19
iced 19
ide, 19
ide. 19
ies." 19
ihnen, 19
ila 19
illa@@ 19
improving 19
ina 19
inform@@ 19
inher@@ 19
instru@@ 19
insul@@ 19
integra@@ 19
intelli@@ 19
interaction 19
introduced 19
ior 19
iron@@ 19
isier@@ 19
isst 19
itself. 19
itte 19
jam@@ 19
juic@@ 19
jung@@ 19
justice. 19
kannst 19
kaufen, 19
keit@@ 19
keln 19
kennen." 19
kers 19
klaren 19
komplexe 19
kontrollieren 19
ktiv 19
ktr@@ 19
lab 19
landscapes 19
langsam. 19
lass 19
lassi@@ 19
lauf@@ 19
lean 19
leunig@@ 19
level, 19
ley. 19
liegen" 19
lowed 19
luft 19
läche 19
magnetic 19
mani@@ 19
marri@@ 19
marrie@@ 19
master@@ 19
meaning. 19
mented 19
ments, 19
mysterious 19
möchten 19
nannte 19
narra@@ 19
nation 19
nervös 19
news. 19
nochmal 19
notic@@ 19
ober@@ 19
ordinary 19
ose 19
oxy@@ 19
parado@@ 19
partner@@ 19
passierte 19
pe." 19
perfor@@ 19
person." 19
pets 19
physics 19
piano 19
picked 19
pill@@ 19
planet@@ 19
plann@@ 19
plau@@ 19
playground. 19
please 19
poetr@@ 19
point." 19
politics 19
possi@@ 19
possible." 19
poverty 19
power, 19
pregn@@ 19
pressu@@ 19
price 19
profes@@ 19
promo@@ 19
protected 19
qualität 19
question. 19
quick 19
rarely 19
realiz@@ 19
recipes 19
repair 19
res. 19
richten 19
richtungen 19
risk@@ 19
room@@ 19
ropä@@ 19
routine 19
sagten 19
satisfac@@ 19
schaffen" 19
schaften, 19
schlu@@ 19
schon, 19
schools 19
schrift 19
seek 19
sees 19
sein? 19
self-confidence. 19
sending 19
sentence 19
shift 19
ship. 19
short@@ 19
sichtbar 19
sieh@@ 19
simpl@@ 19
site 19
sobald 19
solved 19
something, 19
sorgen. 19
space, 19
specific@@ 19
spring@@ 19
stac@@ 19
stattdessen 19
stayed 19
stein 19
stein@@ 19
sters 19
sthe@@ 19
still. 19
stimmt 19
stitute 19
storytell@@ 19
stration 19
stream 19
strie 19
structu@@ 19
stun@@ 19
stü@@ 19
suchte 19
sugar. 19
surprise 19
swi@@ 19
t"" 19
tem@@ 19
teuer 19
there? 19
thor@@ 19
thrillers. 19
tickt 19
tili@@ 19
tiver 19
tomorrow 19
ton, 19
too, 19
tos 19
transform 19
translat@@ 19
treatment 19
trig@@ 19
tz 19
täglich@@ 19
umher 19
umin@@ 19
umping 19
una 19
una. 19
unend@@ 19
ung: 19
ung? 19
unt@@ 19
unternehmen 19
upset 19
ury 19
ushed 19
utter@@ 19
ved, 19
verbreite@@ 19
versuchte 19
verändern, 19
vielfältig 19
views 19
volleyball 19
volunteer 19
wandern. 19
wardro@@ 19
wegzu@@ 19
wein 19
weißen 19
welchen 19
wertvolles 19
wet@@ 19
who, 19
wieso 19
wild@@ 19
will" 19
wise 19
wissenschaften 19
women's 19
words. 19
write. 19
wunderschöner 19
wundervolle 19
währ@@ 19
wünschte 19
zeichnen" 19
ziehen." 19
zipl@@ 19
zz 19
zähle 19
ßen." 19
öst@@ 19
übrigens 19
""Game 18
""We 18
""Wenn 18
"Again, 18
"Fin@@ 18
"Here's 18
"Meditation 18
"Musik 18
"Then, 18
"V@@ 18
)." 18
-J@@ 18
0,@@ 18
13. 18
18. 18
22. 18
45 18
AID@@ 18
Abl@@ 18
Adel@@ 18
African@@ 18
Al 18
Altern@@ 18
Angel@@ 18
Apfel@@ 18
Athle@@ 18
Auto. 18
BG: 18
Back@@ 18
Balance 18
Balle@@ 18
Begegn@@ 18
Bestimm@@ 18
Betrie@@ 18
Bewusst@@ 18
Bill@@ 18
Bob 18
Botschaft 18
Brasili@@ 18
Brenn@@ 18
Brü@@ 18
Bücherregale 18
Comedy-S@@ 18
Dem@@ 18
Druck 18
Dä@@ 18
Echtze@@ 18
Eigenschaften 18
Eing@@ 18
Einsamkeit 18
Eltern@@ 18
Erfüllung 18
Erklär@@ 18
Eu@@ 18
Faible 18
Faul@@ 18
Feder@@ 18
Fernsehen. 18
Fliegen 18
Flohmärkten 18
Fluss. 18
Französ@@ 18
Friend@@ 18
Fro@@ 18
Früh@@ 18
Fällen 18
Gang 18
Gat@@ 18
Geburt@@ 18
Geburtstags@@ 18
Gegend 18
Gegenwar@@ 18
Gerät 18
Geschä@@ 18
Geschäfte 18
Gewohn@@ 18
Golf@@ 18
Green@@ 18
Grünen 18
Handwerk@@ 18
Handys 18
Happy 18
Having 18
Hawaii 18
Herkunft 18
Herstell@@ 18
Hir@@ 18
Holo@@ 18
Homo 18
Ihres 18
Initi@@ 18
Inner@@ 18
Inst@@ 18
Interessen 18
Jahreszeiten 18
Jeans 18
Jobs 18
Jus@@ 18
Kakao 18
Karaoke-@@ 18
Kern@@ 18
Klein@@ 18
Kleine 18
Kohl@@ 18
Kraft@@ 18
Krimis 18
Lan@@ 18
Langu@@ 18
Lieblingsautor 18
Lieblingsfilm@@ 18
Long 18
Macht, 18
Maga@@ 18
Materialien 18
Mein@@ 18
Mexican 18
Mig@@ 18
Milch@@ 18
Militär@@ 18
Mitarbeiter 18
Molekü@@ 18
Museen. 18
Nachbarschaft 18
Nachtruhe 18
Nam@@ 18
Nelson 18
Nep@@ 18
Ni@@ 18
Nicht@@ 18
OK 18
OK?" 18
Oli@@ 18
Open 18
Painting 18
Pakist@@ 18
Parkin@@ 18
Pass@@ 18
Penguins 18
Platt@@ 18
Prior@@ 18
Professor 18
Prozess@@ 18
Quanten@@ 18
Radio@@ 18
Region 18
Reich@@ 18
Reicht@@ 18
Ret@@ 18
Ruhe. 18
S, 18
Schallplatten 18
Schokoladenkuchen 18
Schrei@@ 18
Schwierigkeiten 18
Seh@@ 18
Shopping 18
Sommerferien 18
Sozial@@ 18
Spiritualität 18
Straßenlat@@ 18
Säuge@@ 18
Tarantino 18
Terra@@ 18
Thail@@ 18
Thailand 18
Them@@ 18
Ther@@ 18
Tour@@ 18
Trost 18
Umgang 18
Unterstütz@@ 18
Verab@@ 18
Vern@@ 18
Versch@@ 18
Vinyl-@@ 18
Virgini@@ 18
Visi@@ 18
Visiting 18
W: 18
Westen 18
Wett@@ 18
Wie@@ 18
Wohnzimmer 18
Work-Life-Balance 18
Zeug 18
Zucker 18
Zwei@@ 18
aber, 18
abi@@ 18
ace@@ 18
achieved. 18
acht@@ 18
actor@@ 18
addres@@ 18
age@@ 18
akterien 18
alcohol. 18
algorithms 18
amen 18
ano 18
another, 18
ansteck@@ 18
anthrop@@ 18
antique 18
appar@@ 18
argument 18
aris@@ 18
ases 18
assist@@ 18
associ@@ 18
associated 18
aten. 18
ativ 18
atur. 18
aufgeräum@@ 18
aufmerksam 18
auftau@@ 18
ausreich@@ 18
autonom@@ 18
b." 18
baking 18
batt@@ 18
because, 18
bee@@ 18
befindet 18
before." 18
beginnen." 18
beln 18
belon@@ 18
benefit 18
benefits 18
bens 18
bereithäl@@ 18
beschwer@@ 18
besserer 18
bestell@@ 18
betrachte 18
betrachten." 18
bevorsteh@@ 18
bevorstehenden 18
beängsti@@ 18
billions 18
black. 18
bled 18
boss 18
brachten 18
breaks 18
breath 18
brell@@ 18
brennt 18
bubble 18
buzz@@ 18
büchern 18
café@@ 18
central 18
chair@@ 18
chea@@ 18
chem 18
chemic@@ 18
chens 18
chicken 18
cie@@ 18
cil 18
cocktails. 18
collected 18
condition@@ 18
conflict 18
cookies. 18
corn 18
crimin@@ 18
crun@@ 18
ctions." 18
ctive. 18
culture, 18
dangerous 18
dauer 18
de" 18
deca@@ 18
definition 18
dekorieren" 18
democracy 18
demp@@ 18
dere 18
ders, 18
derzeit 18
des." 18
describe 18
dimensional 18
disappoin@@ 18
disease, 18
diver@@ 18
diversity. 18
dokument@@ 18
dozens 18
dritten 18
durchs 18
durchschnit@@ 18
eds 18
ehrenam@@ 18
eing 18
elle. 18
else. 18
employ@@ 18
enable 18
ence: 18
entdeckt, 18
episode 18
equally 18
equivalent 18
erfordert 18
erhe@@ 18
erledigen. 18
erzählt 18
erzählt, 18
es?" 18
esen. 18
exotische 18
experience, 18
experience." 18
experimen@@ 18
farben@@ 18
farmers 18
father@@ 18
fess@@ 18
fici@@ 18
fish, 18
fits 18
five-@@ 18
flow 18
flower@@ 18
flug 18
fotografieren" 18
friend." 18
from, 18
fter 18
fulfill@@ 18
funden, 18
fördern 18
fügen 18
fühlte 18
g-@@ 18
galleries. 18
gebe@@ 18
gebracht. 18
geführ@@ 18
gelieb@@ 18
gement 18
gemä@@ 18
gen? 18
gende@@ 18
gendes@@ 18
gentle@@ 18
geschieh@@ 18
gezeigt, 18
gling 18
gold 18
governments 18
gratitude 18
grill 18
hack@@ 18
hall@@ 18
happin@@ 18
harder 18
harmony. 18
heimlich 18
herrlich. 18
hidden 18
hier. 18
hob@@ 18
holen 18
homework. 18
honest. 18
hospital 18
house, 18
hrend 18
hun@@ 18
hunderte 18
hungrig 18
hust@@ 18
hätte." 18
hätten, 18
höf@@ 18
ible 18
ich." 18
ie-@@ 18
iegel 18
ihr, 18
iled 18
industry. 18
inste@@ 18
int 18
invent@@ 18
investig@@ 18
ious 18
ist?" 18
istisch 18
jah@@ 18
kann. 18
keits@@ 18
kennen, 18
kennt 18
klassischer 18
kostbar 18
kostet 18
ktar 18
kten, 18
kten. 18
ktiven 18
ktor@@ 18
käu@@ 18
kühles 18
language." 18
laptop. 18
laufen" 18
le: 18
lecture 18
led." 18
left-@@ 18
lichkeits@@ 18
liegt." 18
life.""" 18
light." 18
limits 18
linken 18
live. 18
lively. 18
maler@@ 18
mamm@@ 18
may@@ 18
medizin@@ 18
mern 18
metal 18
metal@@ 18
mie@@ 18
minds 18
modi@@ 18
moment@@ 18
month 18
mouth 18
mptom@@ 18
mung 18
myth@@ 18
mächtig@@ 18
n-@@ 18
nah 18
nap@@ 18
natürlich, 18
nde 18
neben@@ 18
negativen 18
neighborhoo@@ 18
novels 18
ocean. 18
offenes 18
omas 18
ooper@@ 18
opera 18
operating 18
or's 18
oral 18
orange 18
ored 18
organisiert 18
organized. 18
orientier@@ 18
ors." 18
ort, 18
osit@@ 18
ot 18
owl. 18
pag@@ 18
parent@@ 18
pay@@ 18
penguins 18
people@@ 18
plor@@ 18
politics. 18
posit@@ 18
power." 18
pper@@ 18
prefer@@ 18
probieren 18
proc@@ 18
produktiven 18
promise 18
puzzle 18
range 18
realizing 18
receiving 18
red@@ 18
release 18
research, 18
retin@@ 18
ringing. 18
romantisch. 18
rough@@ 18
räu@@ 18
sammele 18
satis@@ 18
sauber@@ 18
saß 18
schaffen. 18
schaften. 18
schaute 18
schlaf@@ 18
schriften 18
schuldig@@ 18
schwarzen 18
schwierig@@ 18
schwimme 18
schwit@@ 18
sco@@ 18
scrat@@ 18
sect@@ 18
selbstgemachte 18
setzte 18
sing, 18
skop@@ 18
smi@@ 18
somehow 18
spaghetti 18
sparkl@@ 18
speech 18
spiders. 18
splatz 18
staf@@ 18
stag 18
stamp@@ 18
stand." 18
starken 18
stellungen. 18
stir@@ 18
stream@@ 18
stressed. 18
structures 18
städ@@ 18
sunrise. 18
symptom@@ 18
talk, 18
tank@@ 18
technology." 18
teilung 18
tere@@ 18
terra@@ 18
they'd 18
tice 18
ticking 18
tika 18
tragen" 18
transport@@ 18
transportation. 18
treiben. 18
trillion 18
tritt 18
trug 18
trust@@ 18
träumen 18
tsch@@ 18
tual 18
tur 18
twice 18
tzu@@ 18
ument@@ 18
un 18
unfair@@ 18
unforgettable 18
unfortunately 18
unge 18
unger 18
uniqu@@ 18
universelle 18
unless 18
values. 18
vat@@ 18
ve? 18
venirs 18
verbessert 18
vermögen 18
verrückt 18
verschieden@@ 18
verschön@@ 18
versuchte, 18
vic@@ 18
vielfäl@@ 18
voic@@ 18
vorhan@@ 18
vö@@ 18
wakes 18
wall. 18
want, 18
wasch@@ 18
weisen, 18
werde, 18
west 18
wet 18
wherever 18
which, 18
wieder. 18
wiederum 18
wiss@@ 18
wollte." 18
won@@ 18
workplace 18
works, 18
worthy 18
wra@@ 18
wäch@@ 18
zität 18
zunächst 18
zäh@@ 18
äng@@ 18
öffent@@ 18
öffnen 18
’re 18
#@@ 17
--@@ 17
Aufmerk@@ 17
Bibliothe@@ 17
Coo@@ 17
Dunkel@@ 17
Fit@@ 17
Frank@@ 17
Gefän@@ 17
Gesund@@ 17
Kla@@ 17
Komm@@ 17
Lap@@ 17
Mexic@@ 17
Music) 17
Q 17
Schnee@@ 17
Sm@@ 17
Stär@@ 17
Syst@@ 17
Tradi@@ 17
X 17
Zentr@@ 17
ahr@@ 17
anstren@@ 17
aries. 17
ause 17
barkeit 17
berfläche 17
colleag@@ 17
conta@@ 17
contri@@ 17
cook@@ 17
countri@@ 17
curr@@ 17
dcast 17
dic@@ 17
doll@@ 17
eben@@ 17
ember@@ 17
enough@@ 17
erne 17
erre@@ 17
erstör@@ 17
fashi@@ 17
faszin@@ 17
furn@@ 17
gespro@@ 17
getroff@@ 17
gs. 17
illi@@ 17
indescrib@@ 17
instrum@@ 17
issen 17
know. 17
knüp@@ 17
krabb@@ 17
krist@@ 17
ktur@@ 17
kulturellen 17
lasagna. 17
laughed 17
lazy 17
leck@@ 17
licen@@ 17
lichsten 17
lifestyle 17
like. 17
like." 17
lium 17
lowing 17
luck 17
lässi@@ 17
läuten 17
mahl@@ 17
maintain 17
managed 17
meaningful 17
meist 17
mensch. 17
mention@@ 17
mikro@@ 17
mill@@ 17
mind." 17
ministra@@ 17
minutes. 17
mistake 17
mod@@ 17
molecular 17
moment." 17
museum. 17
musikali@@ 17
mutz@@ 17
nature." 17
neg@@ 17
negativ@@ 17
nennen." 17
ness." 17
nicht.""" 17
nungs@@ 17
nutrition 17
occup@@ 17
of." 17
offic@@ 17
omob@@ 17
oned 17
ood@@ 17
opath@@ 17
opposite 17
organisms 17
orrow 17
os, 17
osaur@@ 17
others." 17
ough 17
ously. 17
painted 17
partys 17
pattern@@ 17
perfect@@ 17
persever@@ 17
peti@@ 17
pflich@@ 17
pher@@ 17
picknicken" 17
planet, 17
plea@@ 17
portra@@ 17
pre-@@ 17
primi@@ 17
princip@@ 17
privac@@ 17
proce@@ 17
professional 17
profi@@ 17
progress. 17
psychological 17
psychology. 17
punctu@@ 17
pushing 17
questions, 17
quickly, 17
ration, 17
reaching 17
reality. 17
reason. 17
recei@@ 17
rechar@@ 17
recom@@ 17
ree 17
reflection 17
regne@@ 17
reje@@ 17
remember, 17
rennt 17
renovate 17
repair. 17
repair@@ 17
require 17
resourc@@ 17
ridi@@ 17
rigin@@ 17
robotic 17
roll 17
romantischen 17
room." 17
rt 17
rum@@ 17
rush@@ 17
sad. 17
sage, 17
sat 17
satisfie@@ 17
scann@@ 17
schon@@ 17
schreibt 17
schwarz 17
schwarze 17
schöpf@@ 17
scra@@ 17
secur@@ 17
see." 17
seien 17
serves 17
setzung 17
shadow@@ 17
shapes 17
shirt 17
shouldn't 17
shr@@ 17
side." 17
sierung 17
singen" 17
sis 17
small, 17
smus 17
sof@@ 17
soft@@ 17
sogar@@ 17
spricht, 17
stamm@@ 17
stimulate 17
stood 17
stores. 17
strahlen 17
strategy 17
stressed 17
stronger. 17
struggle 17
stuff." 17
sture. 17
style. 17
ständen 17
stöb@@ 17
stöbern" 17
stürzt 17
subst@@ 17
succ@@ 17
surge@@ 17
surgery 17
surprised 17
surroundings. 17
tained 17
talents. 17
tatsäch@@ 17
tell. 17
tere 17
theit 17
themat@@ 17
theme 17
thum@@ 17
tible 17
title 17
to-do 17
toge@@ 17
trains 17
tranqui@@ 17
tremend@@ 17
trenn@@ 17
treu 17
trit@@ 17
tro 17
type. 17
typical 17
tön@@ 17
ulp@@ 17
unbezahlbar. 17
unerwar@@ 17
unfortun@@ 17
uns." 17
unterhaltsam 17
unvorherseh@@ 17
upp@@ 17
urb@@ 17
vegan@@ 17
vegetable 17
vegetarian 17
vehicle 17
vely. 17
vember 17
verfolgen" 17
vergeht 17
verhalten 17
verpas@@ 17
versus 17
verursacht 17
victim@@ 17
viel. 17
vielleicht, 17
virtue. 17
voices 17
völker@@ 17
waff@@ 17
warten 17
was." 17
ways. 17
weakness@@ 17
weib@@ 17
weigh@@ 17
where@@ 17
wicht 17
wirt@@ 17
wirtschaftlichen 17
wissen." 17
wr@@ 17
wunderbar. 17
wunderschönes 17
y,"" 17
yl 17
zoo. 17
zukünftige 17
zurück." 17
zwis@@ 17
zös@@ 17
ähnliche 17
älterer 17
ändern, 17
ökolog@@ 17
önnen 17
überwinden 17
übri@@ 17
ül@@ 17
"To@@ 16
Amaz@@ 16
Beau@@ 16
Brea@@ 16
Brit@@ 16
Bü@@ 16
Europe@@ 16
Hom@@ 16
Klei@@ 16
L 16
M 16
Mitta@@ 16
Motorra@@ 16
Mounta@@ 16
Nation@@ 16
Perspe@@ 16
Pun@@ 16
Some@@ 16
Sonnenbl@@ 16
Spiritu@@ 16
Vide@@ 16
Vortra@@ 16
Weltre@@ 16
Wir@@ 16
Wü@@ 16
actu@@ 16
aghe@@ 16
ant." 16
arti@@ 16
beha@@ 16
beschreib@@ 16
bevorzu@@ 16
celebr@@ 16
chen" 16
chocol@@ 16
cloth@@ 16
cure 16
draw@@ 16
entscheid@@ 16
entwick@@ 16
etzt 16
fach@@ 16
fordert 16
funden 16
gemüt@@ 16
geschie@@ 16
gesell@@ 16
hig@@ 16
hyth@@ 16
kaput@@ 16
krä@@ 16
kümmer@@ 16
listen@@ 16
lity. 16
llig 16
long-@@ 16
mus, 16
omat@@ 16
onom@@ 16
ool 16
ooth@@ 16
opini@@ 16
orth 16
ources 16
ov@@ 16
ror@@ 16
schafts@@ 16
sear@@ 16
swimm@@ 16
titu@@ 16
tly. 16
uf 16
unverzicht@@ 16
veröffent@@ 16
wissenschaft@@ 16
year-old 16
«@@ 16
ärt@@ 16
%@@ 15
AS@@ 15
Bla@@ 15
Brett@@ 15
Demokra@@ 15
Dur@@ 15
E 15
Fremd@@ 15
G 15
Kaf@@ 15
Künst@@ 15
Lieblingsjahres@@ 15
Melo@@ 15
N 15
Past@@ 15
Road@@ 15
S. 15
Sauerst@@ 15
Schwä@@ 15
Sonnenuntergan@@ 15
Sum@@ 15
Süda@@ 15
Tageb@@ 15
Vergan@@ 15
Wichtig@@ 15
ambiti@@ 15
attitu@@ 15
aturen 15
auszuprob@@ 15
bb@@ 15
bend 15
bers 15
bicy@@ 15
bildung 15
büch@@ 15
cally 15
dinn@@ 15
document@@ 15
elec@@ 15
ened 15
ently. 15
entreprene@@ 15
equi@@ 15
erwä@@ 15
excell@@ 15
finis@@ 15
fröh@@ 15
gelern@@ 15
haps 15
ichte 15
ket 15
lis@@ 15
magic@@ 15
medic@@ 15
nat@@ 15
natu@@ 15
ny 15
ol. 15
opping 15
ourc@@ 15
platten 15
quari@@ 15
reach@@ 15
restaur@@ 15
richt 15
romant@@ 15
scheid@@ 15
stren@@ 15
surround@@ 15
teili@@ 15
tell@@ 15
ushi. 15
vent 15
vermis@@ 15
viron@@ 15
volle@@ 15
ware 15
ween 15
wher@@ 15
yel@@ 15
ys." 15
zed. 15
zukünf@@ 15
ächlich 15
öhn@@ 15
"Yester@@ 14
't 14
2-@@ 14
Bat@@ 14
Dunk@@ 14
E-@@ 14
Elek@@ 14
Fitnessstudi@@ 14
Gelegen@@ 14
Häus@@ 14
Imag@@ 14
Jah@@ 14
Jap@@ 14
Kombin@@ 14
Mediz@@ 14
Möglichke@@ 14
Netfli@@ 14
Pingu@@ 14
Post@@ 14
Schre@@ 14
Schwier@@ 14
Science-Fic@@ 14
Som@@ 14
Theor@@ 14
Verfüg@@ 14
ading 14
again@@ 14
ateboar@@ 14
beitra@@ 14
bic@@ 14
bility 14
blan@@ 14
const@@ 14
creativ@@ 14
diesel@@ 14
dly. 14
eingel@@ 14
enschein 14
exc@@ 14
famil@@ 14
farmer@@ 14
fee 14
füg@@ 14
gelö@@ 14
gestres@@ 14
gir@@ 14
gle 14
hinder@@ 14
ight. 14
impan@@ 14
ino 14
interessant@@ 14
intro@@ 14
kay, 14
kehr 14
kennt@@ 14
laundr@@ 14
mana@@ 14
mas 14
massi@@ 14
min 14
mmen 14
movi@@ 14
ood 14
opportun@@ 14
opportuni@@ 14
phic 14
q@@ 14
rage 14
regel@@ 14
schwimm@@ 14
sogenann@@ 14
sprache 14
spru@@ 14
sug@@ 14
swee@@ 14
tra 14
undation 14
unik@@ 14
unta@@ 14
verbun@@ 14
whate@@ 14
wichti@@ 14
worl@@ 14
xim@@ 14
y-S@@ 14
zte 14
äd@@ 14
äus@@ 14
ünsti@@ 14
"Ob@@ 13
"You@@ 13
"Zu@@ 13
&amp@@ 13
(Lach@@ 13
Auswirk@@ 13
Chem@@ 13
Chic@@ 13
Diskus@@ 13
F 13
Fallschir@@ 13
Identi@@ 13
Jac@@ 13
Kühl@@ 13
Leb@@ 13
Mahl@@ 13
Mex@@ 13
Oka@@ 13
Pen@@ 13
Prü@@ 13
Publi@@ 13
Ress@@ 13
Rol@@ 13
Technologi@@ 13
W 13
Weihnach@@ 13
Wäl@@ 13
ability. 13
alifor@@ 13
anten@@ 13
bauen" 13
beauti@@ 13
begann@@ 13
berf@@ 13
besor@@ 13
bewusst@@ 13
bod@@ 13
crack@@ 13
deu@@ 13
dimen@@ 13
enorm@@ 13
evi@@ 13
fa. 13
fen" 13
fig 13
fließ@@ 13
fore 13
fut@@ 13
gee 13
gekauf@@ 13
geräum@@ 13
global@@ 13
grei@@ 13
gste 13
heal@@ 13
hid@@ 13
hing@@ 13
igkeiten 13
ihr@@ 13
introduc@@ 13
itu@@ 13
kle 13
kri@@ 13
neak@@ 13
nec@@ 13
nick@@ 13
ologi@@ 13
omen@@ 13
onic 13
ord 13
past@@ 13
prou@@ 13
r. 13
riere 13
rill@@ 13
sech@@ 13
simil@@ 13
stic@@ 13
thunderstor@@ 13
togra@@ 13
toll@@ 13
twi@@ 13
ually 13
ulti@@ 13
ummer 13
unterschie@@ 13
ushing 13
vehic@@ 13
vid 13
vil@@ 13
wünsch@@ 13
« 13
(Applaus@@ 12
00 12
Beg@@ 12
Berl@@ 12
Besser@@ 12
Bücher@@ 12
Comed@@ 12
Ever@@ 12
Familie@@ 12
Fitness@@ 12
Foo@@ 12
Franc@@ 12
Fren@@ 12
Herkun@@ 12
Horizon@@ 12
Jour@@ 12
Komödi@@ 12
Lär@@ 12
Män@@ 12
Net@@ 12
Säu@@ 12
Tarant@@ 12
Vinyl@@ 12
Wochenen@@ 12
augh@@ 12
ause@@ 12
außer@@ 12
beein@@ 12
benö@@ 12
busin@@ 12
communi@@ 12
conf@@ 12
distri@@ 12
ence-@@ 12
est. 12
exhau@@ 12
exo@@ 12
farbe 12
festiv@@ 12
fores@@ 12
geha@@ 12
gras@@ 12
griff 12
hibi@@ 12
iko 12
istor@@ 12
its@@ 12
landsc@@ 12
langua@@ 12
lossen@@ 12
much@@ 12
ource 12
phen@@ 12
photogra@@ 12
picn@@ 12
predict@@ 12
q 12
samkeit 12
struktur 12
stütz@@ 12
taph@@ 12
technologi@@ 12
til 12
tomorrow@@ 12
tät 12
uchen 12
unabhän@@ 12
ungskra@@ 12
unterstü@@ 12
unächst 12
utzutage 12
windigkeit 12
wus@@ 12
zeitig 12
zy. 12
í@@ 12
–@@ 12
Begle@@ 11
Beifall) 11
Bür@@ 11
Engl@@ 11
Fern@@ 11
Fes@@ 11
Fu@@ 11
Fä@@ 11
Geschäf@@ 11
Harmon@@ 11
Histor@@ 11
K, 11
Kak@@ 11
Lieblingsb@@ 11
Philosoph@@ 11
Rät@@ 11
Schicks@@ 11
Tar@@ 11
Taus@@ 11
Toler@@ 11
Wär@@ 11
ail@@ 11
aliforni@@ 11
andel 11
angen@@ 11
apart@@ 11
arily 11
ativer 11
auszudrück@@ 11
berü@@ 11
cause, 11
child@@ 11
countr@@ 11
cultu@@ 11
dding 11
dies. 11
encou@@ 11
ensch 11
enswür@@ 11
etc@@ 11
falt 11
geheim@@ 11
hm@@ 11
iele 11
ingt 11
interessi@@ 11
ivi@@ 11
izon@@ 11
justic@@ 11
kennenzulern@@ 11
kulture@@ 11
langweili@@ 11
laub 11
libr@@ 11
maga@@ 11
manu@@ 11
meadow@@ 11
müss@@ 11
obses@@ 11
op 11
requ@@ 11
say@@ 11
sofor@@ 11
stain@@ 11
stür@@ 11
sächlich 11
teen@@ 11
tion-@@ 11
tol@@ 11
tom 11
top. 11
trotz@@ 11
typic@@ 11
umen@@ 11
unken 11
zufä@@ 11
Achter@@ 10
Algorith@@ 10
Cho@@ 10
Defin@@ 10
Eiscre@@ 10
Europ@@ 10
Feh@@ 10
Frühaufsteh@@ 10
Gedul@@ 10
Gere@@ 10
Geschma@@ 10
Him@@ 10
Holl@@ 10
ID@@ 10
Kunsthand@@ 10
Lebenssti@@ 10
Leiden@@ 10
Möglich@@ 10
TE@@ 10
U 10
Veget@@ 10
Vie@@ 10
Volle@@ 10
Wissenschaft@@ 10
abri@@ 10
aling 10
ancing 10
ao 10
aufmerk@@ 10
avo@@ 10
beau@@ 10
cktail 10
cocktail@@ 10
cture 10
cture. 10
desser@@ 10
diejen@@ 10
don 10
dow@@ 10
duf@@ 10
eah@@ 10
elef@@ 10
email@@ 10
escap@@ 10
even@@ 10
finan@@ 10
fär@@ 10
gebo@@ 10
gehab@@ 10
gewicht 10
iff 10
jewel@@ 10
jud@@ 10
kauft 10
mas. 10
meaning@@ 10
meist@@ 10
minis@@ 10
molecul@@ 10
mone@@ 10
muse@@ 10
män@@ 10
och 10
ox@@ 10
possibili@@ 10
primar@@ 10
rele@@ 10
rying 10
samm@@ 10
spon@@ 10
spü@@ 10
sunse@@ 10
tze@@ 10
ushi@@ 10
verl@@ 10
vile@@ 10
weak@@ 10
well-bein@@ 10
wick@@ 10
wirr@@ 10
zie@@ 10
ç@@ 10
Acht@@ 9
Bestand@@ 9
Dies@@ 9
Eink@@ 9
Erhol@@ 9
Kompli@@ 9
Nachmit@@ 9
Pain@@ 9
Schmetter@@ 9
Telef@@ 9
Tem@@ 9
Vin@@ 9
Was@@ 9
Yeah@@ 9
advent@@ 9
ahl@@ 9
alco@@ 9
ateg@@ 9
aub 9
aufsteh@@ 9
bling@@ 9
bow 9
bute 9
childh@@ 9
cording 9
dence 9
diff@@ 9
einzel@@ 9
erfol@@ 9
exac@@ 9
fluss 9
för@@ 9
haltung 9
hood 9
io@@ 9
isp@@ 9
konn@@ 9
kör@@ 9
lang. 9
lker@@ 9
oder@@ 9
open-min@@ 9
peop@@ 9
pite 9
plö@@ 9
rar@@ 9
refres@@ 9
remark@@ 9
rom 9
steri@@ 9
stress@@ 9
strument@@ 9
stär@@ 9
stö@@ 9
televisi@@ 9
teuer@@ 9
teur@@ 9
thousand@@ 9
uft 9
unden." 9
usam@@ 9
utz 9
ve-@@ 9
veling 9
verme@@ 9
verur@@ 9
web@@ 9
winter@@ 9
year-@@ 9
zä@@ 9
ähri@@ 9
ó@@ 9
öß@@ 9
Anim@@ 8
Ath@@ 8
Bege@@ 8
Bib@@ 8
Childr@@ 8
Ech@@ 8
Empath@@ 8
Gebor@@ 8
Gesprä@@ 8
H 8
Infra@@ 8
Japan@@ 8
Kul@@ 8
Kör@@ 8
Nachhal@@ 8
Potenzi@@ 8
Ressourc@@ 8
Rotw@@ 8
Schneeflo@@ 8
Schokola@@ 8
Schwes@@ 8
Schwi@@ 8
Tol@@ 8
Umar@@ 8
aper 8
arbeiter 8
autum@@ 8
auß@@ 8
butter@@ 8
cinema@@ 8
confiden@@ 8
delici@@ 8
denti@@ 8
dun@@ 8
einf@@ 8
elo@@ 8
ems. 8
enever 8
ept 8
evisi@@ 8
exe@@ 8
ferenz 8
fessor 8
ffe, 8
ficial 8
guins 8
hungri@@ 8
import@@ 8
indu@@ 8
inn 8
irs 8
ith@@ 8
ition 8
j 8
jour@@ 8
kau@@ 8
knis@@ 8
kontrolli@@ 8
laf 8
lex@@ 8
linge 8
magn@@ 8
maz@@ 8
mistak@@ 8
mlich 8
nother 8
nov@@ 8
obby 8
ones@@ 8
osau@@ 8
ow 8
pli@@ 8
pras@@ 8
rem 8
respekt@@ 8
sehr@@ 8
seitig 8
selbe 8
selbstgemach@@ 8
snowfla@@ 8
sugar@@ 8
tball 8
thou@@ 8
tures. 8
unbezahl@@ 8
veget@@ 8
Überzeug@@ 8
ächt@@ 8
ödi@@ 8
öße 8
"Di@@ 7
"Man@@ 7
"On@@ 7
(Geläch@@ 7
(Laugh@@ 7
;@@ 7
= 7
Comm@@ 7
Dri@@ 7
Fam@@ 7
Fernse@@ 7
Fla@@ 7
Hey, 7
Hob@@ 7
Kleid@@ 7
Life@@ 7
Mitmensch@@ 7
Photograph@@ 7
Präsent@@ 7
Regenbo@@ 7
Repar@@ 7
Rest@@ 7
Ris@@ 7
Vereinig@@ 7
Verständ@@ 7
Wahrnehm@@ 7
Zahnar@@ 7
Zufrieden@@ 7
advoc@@ 7
afri@@ 7
aufgere@@ 7
aul 7
beh@@ 7
besu@@ 7
bevor@@ 7
broa@@ 7
capac@@ 7
craf@@ 7
decke 7
denten 7
door@@ 7
dow 7
ema 7
emplo@@ 7
enn 7
entific 7
entre@@ 7
erfolgre@@ 7
flan@@ 7
hei@@ 7
idd@@ 7
iding 7
important@@ 7
inary 7
insp@@ 7
jeman@@ 7
künf@@ 7
leicht, 7
most@@ 7
openn@@ 7
perfek@@ 7
plizier@@ 7
rasch@@ 7
regn@@ 7
remem@@ 7
research@@ 7
schnurr@@ 7
splat@@ 7
sprob@@ 7
sprün@@ 7
sunris@@ 7
telle@@ 7
tely 7
throp@@ 7
tikel 7
trem@@ 7
umindest 7
unkt 7
unte@@ 7
wetter 7
zuver@@ 7
ñ@@ 7
ück 7
” 7
… 7
♫@@ 7
"St@@ 6
"Tat@@ 6
$ 6
(Applause@@ 6
+ 6
21@@ 6
<@@ 6
Aben@@ 6
Af@@ 6
Appl@@ 6
Bohemian 6
Brie@@ 6
Dog@@ 6
Erfüll@@ 6
Geläch@@ 6
Gemäl@@ 6
Kleider@@ 6
Käl@@ 6
Lear@@ 6
Liebha@@ 6
Lieblingsgetr@@ 6
Läch@@ 6
Musikin@@ 6
Pick@@ 6
Resear@@ 6
Run@@ 6
Schrift@@ 6
Septem@@ 6
Wiki@@ 6
abhängig@@ 6
afra@@ 6
ahl 6
ameri@@ 6
atember@@ 6
ativity 6
chnolog@@ 6
coll@@ 6
concer@@ 6
ctly 6
d" 6
ders. 6
describ@@ 6
die@@ 6
does@@ 6
enschaf@@ 6
entsche@@ 6
episo@@ 6
erfris@@ 6
fortunately, 6
frie@@ 6
fulles@@ 6
ge" 6
genheit 6
geschl@@ 6
gestr@@ 6
hate@@ 6
haup@@ 6
ilet@@ 6
inspir@@ 6
iti 6
keep@@ 6
kontro@@ 6
langu@@ 6
ld 6
lust 6
mel. 6
nim@@ 6
okol@@ 6
ortra@@ 6
ouldn't 6
rapid@@ 6
rela@@ 6
selt 6
sili@@ 6
skydi@@ 6
spect@@ 6
sudden@@ 6
templ@@ 6
ture. 6
ularly 6
understor@@ 6
ungefä@@ 6
unser@@ 6
uten, 6
uz@@ 6
verbring@@ 6
weili@@ 6
willi@@ 6
witsch@@ 6
your@@ 6
ysi@@ 6
ßen. 6
á@@ 6
ã@@ 6
ängsti@@ 6
è@@ 6
ür 6
""Wh@@ 5
(L@@ 5
*@@ 5
-life 5
Atmosphä@@ 5
Educ@@ 5
Elefan@@ 5
Filma@@ 5
Flüch@@ 5
Gele@@ 5
Gleichberechtig@@ 5
Großmut@@ 5
Grü@@ 5
Happ@@ 5
Intui@@ 5
Lager@@ 5
Lieblingsh@@ 5
Lim@@ 5
Micha@@ 5
Milit@@ 5
Music@@ 5
Schmu@@ 5
Schokoladenk@@ 5
Spir@@ 5
Zo@@ 5
aben@@ 5
anci@@ 5
andel@@ 5
antas@@ 5
aoke. 5
arum 5
aufgaben 5
beeindru@@ 5
bess@@ 5
bey@@ 5
colog@@ 5
ferien 5
gain, 5
gall@@ 5
getro@@ 5
gla@@ 5
glocken 5
grate@@ 5
hobbi@@ 5
hol. 5
hosp@@ 5
igeri@@ 5
incredi@@ 5
jus@@ 5
ketball. 5
kolog@@ 5
konom@@ 5
kta@@ 5
left@@ 5
ligi@@ 5
literat@@ 5
magne@@ 5
mosphä@@ 5
nervö@@ 5
onesel@@ 5
partici@@ 5
perspe@@ 5
plätsch@@ 5
prakti@@ 5
recip@@ 5
röh@@ 5
senschaf@@ 5
sive. 5
stom@@ 5
tenti@@ 5
they@@ 5
tograf@@ 5
trover@@ 5
um: 5
usual 5
vegetab@@ 5
vermut@@ 5
verurs@@ 5
vorherseh@@ 5
wai@@ 5
β@@ 5
♪ 5
"Dies@@ 4
"The@@ 4
"With@@ 4
& 4
Balk@@ 4
Behand@@ 4
Beitra@@ 4
Caf@@ 4
DIY@@ 4
Entwick@@ 4
Ere@@ 4
Fenst@@ 4
Großel@@ 4
Häl@@ 4
Ihr@@ 4
J 4
Komfor@@ 4
Konz@@ 4
Krim@@ 4
Lieb@@ 4
Lieblingsser@@ 4
Peop@@ 4
Polize@@ 4
Rhapso@@ 4
Smar@@ 4
Sternen@@ 4
Stru@@ 4
Vog@@ 4
Y 4
Z 4
absolut@@ 4
activi@@ 4
admir@@ 4
antum 4
atemberaub@@ 4
autor 4
cling 4
colate 4
confidence. 4
convinc@@ 4
elect@@ 4
enam@@ 4
entin 4
esty 4
eting 4
geiz@@ 4
gess@@ 4
gessen. 4
ghan@@ 4
hap@@ 4
hund@@ 4
ific@@ 4
itar@@ 4
kommun@@ 4
leun@@ 4
mob@@ 4
nali@@ 4
nchen 4
nähr@@ 4
offn@@ 4
organi@@ 4
pian@@ 4
plex@@ 4
prene@@ 4
pricel@@ 4
reci@@ 4
reds 4
schö@@ 4
spre@@ 4
story@@ 4
strali@@ 4
ständ@@ 4
säch@@ 4
thand@@ 4
uneh@@ 4
ussi@@ 4
valent 4
very@@ 4
vious 4
wimm@@ 4
wün@@ 4
° 4
ø@@ 4
ünst@@ 4
ī@@ 4
”@@ 4
›@@ 4
( 3
(Appl@@ 3
> 3
>@@ 3
Afri@@ 3
Auß@@ 3
Bücherreg@@ 3
DI@@ 3
Eichhör@@ 3
Enga@@ 3
Hobbi@@ 3
Kirchen@@ 3
List@@ 3
Nerv@@ 3
Plän@@ 3
Science-@@ 3
Sof@@ 3
Tha@@ 3
Zivi@@ 3
anspru@@ 3
asion@@ 3
berechtig@@ 3
bot@@ 3
cele@@ 3
chin@@ 3
confi@@ 3
contagi@@ 3
enhaus 3
epres@@ 3
espe@@ 3
experi@@ 3
friendshi@@ 3
gebrü@@ 3
gessen 3
gewasch@@ 3
guitar@@ 3
haupts@@ 3
haven@@ 3
incompar@@ 3
izi@@ 3
kingly 3
laug@@ 3
liebha@@ 3
lifesty@@ 3
lymp@@ 3
müt@@ 3
neigh@@ 3
nick 3
othe@@ 3
ou 3
outdo@@ 3
posite 3
prac@@ 3
relation@@ 3
sim@@ 3
sligh@@ 3
stronom@@ 3
stunden@@ 3
sych@@ 3
sön@@ 3
ter) 3
tet: 3
tivi@@ 3
tograph@@ 3
tot@@ 3
trilli@@ 3
ulern@@ 3
unbed@@ 3
usammen@@ 3
ut, 3
utzu@@ 3
versu@@ 3
vesti@@ 3
vul@@ 3
² 3
ë@@ 3
ï@@ 3
ürlich 3
​@@ 3
’ 3
‹ 3
+@@ 2
@@@ 2
Afghan@@ 2
Berggi@@ 2
Chil@@ 2
HI@@ 2
Ita@@ 2
Kuns@@ 2
Life-@@ 2
Midd@@ 2
Mole@@ 2
Nachthim@@ 2
Schick@@ 2
Schlüs@@ 2
Schokol@@ 2
Soft@@ 2
Symbo@@ 2
Veran@@ 2
Virg@@ 2
Wik@@ 2
^ 2
aga@@ 2
agn@@ 2
aurant 2
balcon@@ 2
cogn@@ 2
consi@@ 2
country@@ 2
countrysi@@ 2
dächt@@ 2
eler@@ 2
elson 2
etz 2
etze 2
festy@@ 2
frieden@@ 2
furnitu@@ 2
fühl 2
gefund@@ 2
genie@@ 2
geschlaf@@ 2
geschn@@ 2
gorith@@ 2
icro@@ 2
igor@@ 2
ikro@@ 2
ilie@@ 2
itar 2
ktur 2
kultu@@ 2
landscap@@ 2
lasagn@@ 2
line-@@ 2
lück@@ 2
melod@@ 2
mosp@@ 2
ologn@@ 2
olph@@ 2
onnen 2
pens@@ 2
phen 2
poe@@ 2
redu@@ 2
regular@@ 2
rout@@ 2
schrank 2
schwi@@ 2
stit@@ 2
strong@@ 2
strum@@ 2
sung@@ 2
tenzi@@ 2
umn 2
unken. 2
unterhal@@ 2
vegetari@@ 2
wandel 2
zies 2
zitat 2
´@@ 2
Ç@@ 2
à 2
änk 2
äusch 2
í 2
Ō@@ 2
—@@ 2
‚@@ 2
‟ 2
‟@@ 2
• 2
"Wä@@ 1
=@@ 1
Afric@@ 1
Bibli@@ 1
Butter@@ 1
Eich@@ 1
Fallschirm@@ 1
Gemä@@ 1
I'@@ 1
Ih@@ 1
Lieblingsjahr@@ 1
Video) 1
Vinta@@ 1
Work-@@ 1
Work-Life-@@ 1
\@@ 1
^@@ 1
`@@ 1
akist@@ 1
appoin@@ 1
astic 1
ategi@@ 1
athon 1
barbe@@ 1
beisp@@ 1
believ@@ 1
bereith@@ 1
breathta@@ 1
chall@@ 1
chs@@ 1
ehic@@ 1
elefon@@ 1
enswürdig@@ 1
extremel@@ 1
favour@@ 1
ffee 1
galleri@@ 1
haupt 1
ingre@@ 1
interess@@ 1
itely 1
izza 1
leiden@@ 1
lifel@@ 1
majest@@ 1
metter@@ 1
offee 1
oke. 1
onardo 1
pare 1
relle 1
scul@@ 1
sere 1
spekta@@ 1
telli@@ 1
unfor@@ 1
unforget@@ 1
unsch 1
uth 1
verbrin@@ 1
verwirk@@ 1
vidu@@ 1
volution 1
whel@@ 1
xt 1
zens 1
zicht@@ 1
} 1
@@ 1
@@ 1
£ 1
£@@ 1
©@@ 1
²@@ 1
³ 1
º@@ 1
» 1
½ 1
¾ 1
à@@ 1
ê@@ 1
ù@@ 1
ü 1
ünkt@@ 1
ć@@ 1
ĥ@@ 1
œ@@ 1
̈@@ 1
…@@ 1
‹@@ 1
€ 1
♪@@ 1
니@@ 1
다@@ 1
입@@ 1
madeupword0000 0
madeupword0001 0
madeupword0002 0
madeupword0003 0
madeupword0004 0
madeupword0005 0
