a 26963
to 17550
de 17451
the 15598
is 15046
. 14697
I 11908
of 10592
The 10264
é 10206
que 9383
A 8558
O 7788
para 7765
o 6562
in 6520
and 6083
e 5904
s. 5469
unha 4537
for 4498
do 4425
be 4412
a. 4160
can 4049
as 3823
Non 3812
"@@ 3577
my 3502
that 3485
da 3415
ser 3222
with 3171
." 3064
me 3058
en 3055
un 2941
pode 2881
are 2846
o. 2750
um 2705
an 2618
uma 2584
We 2486
not 2456
te. 2338
os 2333
se 2306
was 2276
have 2256
on 2230
need 2176
Th@@ 2161
you 2095
na 2077
like 2073
em 2038
am 2014
no 2014
es 1869
very 1738
está 1737
Os 1736
don't 1725
la 1670
our 1665
miña 1647
your 1594
this 1582
My 1556
Estou 1548
meu 1543
L@@ 1464
com 1455
o@@ 1453
es. 1451
we 1440
non 1430
te 1416
máis 1412
co@@ 1402
do. 1392
ción@@ 1377
da@@ 1349
more 1349
y 1337
an@@ 1323
S@@ 1311
a@@ 1305
dos 1299
H@@ 1278
it 1246
por 1241
e@@ 1236
re@@ 1231
in@@ 1230
D@@ 1229
al. 1220
so@@ 1218
""@@ 1213
con 1205
forma 1202
i@@ 1172
at 1163
das 1144
as. 1141
C@@ 1136
I'm 1121
vida 1104
como 1092
dade@@ 1079
way 1078
, 1076
? 1056
ci@@ 1055
moi 1050
from 1038
ca@@ 1019
ro@@ 1015
important 1014
W@@ 999
La 992
ar. 982
feel 976
on't 968
about 964
must 956
el 948
ado@@ 941
As 929
súa 911
ao 908
sa@@ 902
lo@@ 892
son 884
help 872
used 869
era 865
en@@ 849
nos 849
importante 845
all 843
ar@@ 842
has 841
will 839
new 829
una 826
z@@ 825
should 820
make 808
It 804
by 800
what 794
You 783
facer 782
vida@@ 780
their 778
di@@ 774
podemos 760
são 759
to@@ 759
s 757
I@@ 750
it@@ 749
know 747
if 746
mais 745
ra@@ 744
mo@@ 741
ar 731
life. 730
os. 730
Preciso 726
ing 723
always 715
ou 713
sei 712
ti@@ 705
do@@ 703
want 698
ta@@ 691
cannot 688
A@@ 685
T@@ 685
M@@ 684
love 675
de@@ 670
so 669
ere 666
al@@ 665
E@@ 660
Não 658
s@@ 654
me. 653
hai 646
B@@ 644
estou 640
ho@@ 640
á 630
us 624
todo 621
ter 616
co 615
when 614
sobre 612
but 611
t@@ 611
good 608
P@@ 606
ca. 604
li@@ 604
po@@ 601
al 598
si@@ 598
í@@ 595
how 594
time 593
gusta 590
O@@ 584
te@@ 579
many 575
Me 574
one 574
u@@ 574
F@@ 570
or 568
El 567
to. 564
"Non 557
g@@ 557
vi@@ 555
foi 553
ón@@ 551
let 549
e. 546
antes 542
no@@ 541
find 538
s." 533
coa 530
go 530
think 530
.""" 528
favorite 527
muito 527
c@@ 525
ado 521
best 520
des@@ 520
mellor 520
er@@ 519
É 517
estar 516
can't 513
túa 506
sure 504
work 504
un@@ 502
"A 501
ma@@ 500
nosa 500
los 497
minha 497
sempre 497
algo 494
á@@ 493
d. 490
his 490
life 486
people 486
take 478
se@@ 477
something 477
R@@ 472
as@@ 470
any 469
d@@ 468
seu 467
vo@@ 467
"O 464
ver 462
No 461
n@@ 458
going 454
great 454
aprender 453
b@@ 453
essential 452
or. 452
key 451
es@@ 450
ing. 450
s, 450
is. 448
ri@@ 448
ando 446
than 443
-@@ 442
or@@ 442
tempo 442
ten 442
ha@@ 440
were 439
who 433
men@@ 429
ed 427
lugar 427
without 427
l@@ 426
amor 422
p@@ 421
não 418
tes 417
x@@ 415
ás 412
ada@@ 408
learn 407
up 407
made 406
pa@@ 404
"D@@ 401
Precisamos 397
ment@@ 397
ã@@ 396
música 391
you. 391
ad@@ 390
be@@ 390
cos 390
t 390
fundamental 389
is@@ 389
its 389
ir 388
pero 386
place 385
ife 384
nada 384
ada 383
car@@ 383
different 383
Debemos 382
mi 380
pe@@ 380
tion 380
Eu 379
con@@ 378
el@@ 377
r@@ 377
t's 377
le@@ 376
nas 376
res. 375
at@@ 373
pola 373
sen 373
necessary 372
able 371
bo@@ 371
too 369
isto 367
sta@@ 366
improve 365
better 364
lo 363
before 362
er. 362
me@@ 362
la@@ 360
Teño 359
it. 358
dis@@ 355
é@@ 355
other 353
ted 350
Your 349
needs 349
indicador 348
m. 348
mi@@ 348
est@@ 347
cada 345
st@@ 345
can@@ 344
most 343
Este 342
ai@@ 342
súas 342
cando 341
it's 340
ca 339
mun@@ 338
ation 337
f@@ 337
indicator 337
out 337
se. 337
er 336
j@@ 335
ac@@ 334
re. 334
y@@ 334
vel@@ 333
ç@@ 333
sexa 332
ver@@ 332
makes 331
de. 330
use 328
ante 327
would 327
fi@@ 326
Co@@ 324
ab@@ 324
estaba 324
pi@@ 324
everything 323
t. 323
polo 322
world. 322
manter 321
ent@@ 320
noso 319
ch@@ 316
todos 315
éxito 315
ta 314
for@@ 313
natural 312
boa 311
a." 309
day 308
ble. 307
had 307
m@@ 305
sound 305
teu 304
y. 304
ción 300
on@@ 300
ación 299
being 299
tra@@ 299
i 298
per@@ 298
ação 296
keep 296
todas 295
ção 295
ce@@ 294
clave 294
light 294
este 293
podo 293
puede 293
's 292
ant@@ 291
ome@@ 291
try 291
making 290
pro@@ 290
tomar 290
ne@@ 289
k@@ 288
dades@@ 287
equipo 287
h@@ 287
pre@@ 287
gran 286
nothing 286
"S@@ 285
animal 284
ve@@ 284
ñ@@ 284
Sinto 283
ru@@ 283
ga@@ 282
this. 282
quero 281
l. 280
never 280
aos 279
requires 279
su@@ 279
meus 278
va@@ 278
see 277
et's 276
min@@ 276
own 276
par@@ 276
ur 276
ate 275
mellorar 275
ten@@ 275
through 275
seguro 274
mundo 273
ía 273
ari@@ 271
just 271
las 271
ma. 271
social 271
esta 269
ex@@ 269
man@@ 269
tar@@ 269
team 269
change 268
mas 268
G@@ 267
ability 267
mos 267
novo 267
some 267
tem 267
fai 266
arte 265
others. 265
option 264
pra@@ 264
gra@@ 263
lack 263
m 261
get 260
cor@@ 259
día 259
çã@@ 259
d 258
things 258
ation. 257
ados 256
seus 256
del 255
go. 255
poden 255
animais 254
res 254
cal@@ 253
cha@@ 253
lot 253
n 253
difficult 252
más 252
atopar 251
moito 251
pas@@ 251
! 250
Gústame 250
Temos 250
luz 250
music 249
popular 247
v@@ 247
Hai 246
fe@@ 246
perso@@ 246
sal@@ 246
sentir 246
ce. 245
dar 245
deixes 245
fonte 245
go@@ 245
solución 245
car 244
source 244
ting 244
hat 243
mar@@ 243
mente 243
gu@@ 242
human 242
human@@ 242
require 242
zo@@ 242
situation 241
dor@@ 240
give 240
ses 240
cre@@ 239
into 238
ira@@ 238
op@@ 238
utilizado 238
cer@@ 237
eu 237
isto@@ 237
deixar 236
sua 236
there 235
people. 234
trabal@@ 233
che@@ 232
fa@@ 232
só 232
those 232
Re@@ 231
evitar 230
fazer 230
after 229
persoas 229
time. 229
u 229
saúde 228
diferentes 227
form 227
solution 226
tan 226
working 226
amen@@ 225
falta 225
seguir 225
In@@ 224
levar 224
traballar 224
he@@ 223
du@@ 222
ou@@ 222
ove 222
problema@@ 222
full 221
le. 220
may 220
work. 220
cu@@ 219
over 219
ve. 219
red 218
à 218
ag@@ 217
every 217
fo@@ 217
emocion@@ 216
her 216
also 215
hacer 215
ir@@ 215
n. 215
tiv@@ 215
precisa 214
reduce 214
encontrar 213
ce 212
helps 212
ó@@ 212
Su@@ 211
che 211
le 211
they 211
cousas 210
habilidade 210
miñas 210
right 210
ve 210
Gosto 209
opportunity 209
been 208
dí@@ 208
allow 207
dunha 207
esencial 207
fal@@ 207
here 207
parte 207
situation. 207
éx@@ 207
N@@ 206
Quero 206
bi@@ 206
ces 206
feeling 206
ts 206
around 205
lu@@ 205
nosos 205
perfect 205
times 205
a, 204
inter@@ 204
maintain 204
ren@@ 203
situación 203
ter@@ 203
adas 202
mesmo@@ 202
much 202
ni@@ 202
axudar 201
na@@ 201
prevent 201
tu@@ 201
day. 200
nova 200
ol@@ 200
success. 200
ba@@ 199
deste 199
ity 199
ment 199
problema 199
us@@ 199
veces 199
der@@ 197
opção 197
p 197
problemas 197
ali@@ 196
traballo 196
long 195
understand 195
cas 194
learning 194
tion. 194
us. 194
aç@@ 193
tar 193
Vamos 192
com@@ 192
debe 192
ds 192
hi@@ 192
achieve 191
only 191
thing 191
respect 190
ts. 190
city 189
iso 189
Pe@@ 188
entre 188
healthy 188
could 187
deve 187
que@@ 187
ven@@ 187
while 187
yourself 187
avoid 186
control 186
face 186
inten@@ 186
moment@@ 186
momento 186
oportunidade 186
solve 186
va 186
Cada 185
am@@ 185
enjoy 185
ers 185
imp@@ 185
xente 184
dan@@ 183
difícil 183
mental 183
Estamos 182
ajuda 182
ating 182
doesn't 182
part 182
/@@ 181
ding 181
il@@ 181
importan@@ 181
world 181
adi@@ 180
care 180
demasiado 180
ly 180
towards 180
les 179
sta 179
where 179
durante 178
jo@@ 178
moitas 178
opción 178
qui@@ 178
cidade 177
l 177
pessoas 177
really 177
tempo@@ 177
trying 177
d." 176
personal 176
poder 176
ais 175
ces. 175
little 175
o, 175
ti 175
Acho 174
Adoro 174
She 174
believe 174
c 174
den@@ 174
persoa 174
reducir 174
true 174
water 174
able. 173
create 173
dema@@ 173
dor 173
os@@ 173
others 173
soci@@ 173
teus 173
So@@ 172
es, 172
gar@@ 172
he 172
solution. 172
mar 171
sabor 171
tal@@ 171
amos 170
beleza 170
ble 170
dun 170
live 170
novas 170
nunha 170
pouco 170
muitas 169
nunca 169
onde 169
overcome 169
ine 168
situa@@ 168
amento 167
each 167
solu@@ 167
vou 167
xo@@ 167
ambiente 166
capaz 166
cri@@ 166
crucial 165
doing 165
fac@@ 165
felt 165
gi@@ 165
quando 165
tri@@ 165
Vou 164
fin@@ 164
food 164
ge@@ 164
habilidades 164
ted. 164
tool 164
animals 163
cia 163
están 163
favorito 163
plan@@ 163
produ@@ 163
stop 163
ur@@ 163
diferen@@ 162
pu@@ 162
seems 162
sto@@ 162
ajudar 161
podem 161
sol 161
ese 160
having 160
information 160
ó 160
bl@@ 159
mal@@ 159
mu@@ 159
often 159
pen@@ 159
tão 159
ano@@ 158
favor@@ 158
fácil 158
ge 158
grande 158
valuable 158
vez 158
axuda 157
gar 157
información 157
outras 157
possible 157
still 157
w 157
felicidade 156
temos 156
usado 156
move 155
nun 155
tas 155
them 155
willing 155
happy 154
im@@ 154
person 154
quality 154
that. 154
unique 154
beauty 153
d, 153
enci@@ 153
health. 153
here. 153
it." 153
pensar 153
sa 153
emotional 152
idea 152
positive 152
problem 152
sin@@ 152
someone 152
y." 152
Necesito 151
ma 151
r 151
res@@ 151
tor@@ 151
bar@@ 150
look 150
preci@@ 150
relax@@ 150
To@@ 149
amigos 149
comida 149
ct 149
des 149
educación 149
ous 149
parece 149
gen@@ 148
gosto 148
nature. 148
resolver 148
lead 147
mis@@ 147
necesaria 147
pri@@ 147
si 147
aquí 146
debemos 146
mesmo 146
son@@ 146
dad 145
der 145
futu@@ 145
hard 145
interes@@ 145
small 145
sol@@ 145
bo 144
buscar 144
chave 144
comple@@ 144
didn't 144
protect 144
te." 144
za 144
0 143
V@@ 143
anti@@ 143
art 143
ben@@ 143
ccess 143
estás 143
ga 143
les. 143
nosas 143
nossas 143
society. 143
au@@ 142
f 142
medo 142
tos 142
ú@@ 142
Tes 141
ap@@ 141
during 141
fica@@ 141
ly. 141
maneira 141
nature@@ 141
posi@@ 141
sing 141
têm 141
wa@@ 141
""." 140
Nunca 140
calquera 140
cultura 140
som 140
ambi@@ 139
bra@@ 139
cer 139
es." 139
fu@@ 139
ho 139
mon@@ 139
problem. 139
sem 139
usar 139
w@@ 139
way. 139
capacidade 138
deci@@ 138
ing@@ 138
k. 138
such 138
"No 137
Per@@ 137
alimentos 137
ance 137
easy 137
health 137
sti@@ 137
atención 136
cultural 136
ferramenta 136
superar 136
túas 136
usada 136
act 135
ben 135
cor 135
ear@@ 135
esa 135
har@@ 135
outros 135
permite 135
sistema 135
áreas 135
bu@@ 134
et@@ 134
idea. 134
mor@@ 134
start 134
utilizada 134
" 133
Con@@ 133
En@@ 133
clear 133
ente 133
melhor 133
necesario 133
neste 133
amente 132
ata 132
ati@@ 132
auto@@ 132
ban@@ 132
beautiful 132
permitir 132
support 132
y, 132
ão 132
cur@@ 131
forma@@ 131
ks 131
nesta 131
pela 131
Isto 130
come 130
equi@@ 130
forget 130
open 130
person. 130
th@@ 130
tro@@ 130
la. 129
nossa 129
outro@@ 129
san@@ 129
xe@@ 129
Será 128
already 128
between 128
cal 128
cho@@ 128
mind 128
nu@@ 128
physical 128
st 128
Esta 127
aba 127
ed. 127
en. 127
encanta 127
even 127
favorita 127
ha 127
pesso@@ 127
re 127
Estoy 126
common 126
ity. 126
mp@@ 126
problems. 126
qu@@ 126
sinto 126
uso 126
ên@@ 126
K@@ 125
ament@@ 125
bri@@ 125
heart 125
lan@@ 125
success 125
hen 124
hora 124
k 124
option. 124
preciso 124
ser@@ 124
ador@@ 123
casa 123
cións 123
paz 123
pelo 123
super@@ 123
ving 123
ón 123
Xa 122
are@@ 122
dades 122
estão 122
mento 122
now. 122
perder 122
allows 121
confianza 121
deal 121
friends 121
re's 121
sp@@ 121
ant 120
attention 120
col@@ 120
ll@@ 120
power 120
tamén 120
ul@@ 120
ador 119
agor@@ 119
constant 119
decisi@@ 119
down 119
ds. 119
especi@@ 119
high 119
hor@@ 119
matter 119
taking 119
te, 119
anything 118
ball 118
cambiar 118
cion@@ 118
crear 118
ey 118
first 118
ite 118
showed 118
talk 118
Los 117
Unha 117
algún 117
ami@@ 117
ele@@ 117
et 117
frequentemente 117
ideal 117
muy 117
relación 117
ying 117
Ex@@ 116
ct@@ 116
cultu@@ 116
decision. 116
found 116
ment. 116
motiv@@ 116
má@@ 116
play 116
sun 116
Ela 115
coas 115
future. 115
grateful 115
king 115
mentres 115
momentos 115
on. 115
ow 115
puedo 115
special 115
tions 115
aquí@@ 114
ated 114
bem 114
book 114
dar@@ 114
despois 114
emp@@ 114
fil@@ 114
forte 114
funcion@@ 114
hope 114
leave 114
mo 114
natureza 114
ning 114
offer 114
set 114
strong 114
that's 114
Que 113
against 113
as, 113
does 113
family 113
led 113
moment 113
pin@@ 113
prefer 113
sor@@ 113
worry 113
ções 113
Sempre 112
bro@@ 112
cul@@ 112
demais 112
físi@@ 112
ga. 112
gran@@ 112
ia 112
noi@@ 112
proces@@ 112
tan@@ 112
tipo 112
zo 112
Es 111
amigo@@ 111
bor@@ 111
cli@@ 111
color 111
felici@@ 111
goals. 111
nossos 111
sha@@ 111
train 111
trees 111
água 111
De@@ 110
ach 110
city. 110
ensure 110
future 110
meio 110
oportunidades 110
rel@@ 110
sea 110
today. 110
usic 110
"Não 109
"P@@ 109
Te@@ 109
der. 109
emo@@ 109
famili@@ 109
financial 109
informa@@ 109
liber@@ 109
mes@@ 109
ro 109
tes. 109
teño 109
tr@@ 109
xa 109
"C@@ 108
"O@@ 108
affect 108
arse 108
away 108
capable 108
cl@@ 108
duca@@ 108
fear 108
ing, 108
ing." 108
maior 108
night. 108
sen@@ 108
trust 108
Fri@@ 107
ava 107
contro@@ 107
ers. 107
futuro 107
lidar 107
local 107
mind. 107
organiz@@ 107
podes 107
relationships. 107
s.""" 107
socie@@ 107
trans@@ 107
worry, 107
Des@@ 106
J@@ 106
axu@@ 106
bal@@ 106
cin@@ 106
comi@@ 106
cont@@ 106
conta 106
deix@@ 106
difíci@@ 106
effective 106
inner 106
longo 106
verdadeira 106
úni@@ 106
bought 105
c. 105
ck@@ 105
ob@@ 105
ra 105
ste@@ 105
toda 105
ven 105
Un 104
aro@@ 104
body 104
cambi@@ 104
grandes 104
happiness 104
ople 104
product 104
together 104
ty 104
wait 104
ári@@ 104
anima@@ 103
cal. 103
comp@@ 103
falar 103
fascin@@ 103
historia 103
ideas 103
ings 103
ita 103
moitos 103
ori@@ 103
outra 103
proceso 103
relationship 103
situação 103
"" 102
age 102
ally 102
ba 102
cent@@ 102
corre@@ 102
ded 102
muitos 102
ness 102
order 102
vol@@ 102
accept 101
ary 101
iras 101
ito@@ 101
lin@@ 101
ors 101
public 101
rou@@ 101
sou 101
useful 101
an. 100
base 100
cabelo 100
cer. 100
dia 100
eran 100
estamos 100
estava 100
friends. 100
ju@@ 100
rain 100
relacións 100
sed 100
tentar 100
; 99
Ele 99
apren@@ 99
because 99
calm 99
contra 99
esperar 99
happiness. 99
her@@ 99
lost 99
ry 99
system 99
vari@@ 99
vivir 99
1@@ 98
attitude 98
ck 98
fun 98
hair 98
ms 98
plan 98
production 98
skills 98
things. 98
tu 98
xen@@ 98
"A@@ 97
"Os 97
An@@ 97
Di@@ 97
Go@@ 97
confi@@ 97
food. 97
fra@@ 97
man 97
ments 97
positiv@@ 97
siempre 97
t, 97
tanto 97
vai 97
well 97
Ha@@ 96
actitude 96
all@@ 96
cambio 96
cla@@ 96
constante 96
entender 96
fez 96
judge 96
looking 96
mejor 96
merca@@ 96
next 96
person@@ 96
process. 96
produtos 96
prote@@ 96
quen 96
resposta 96
segu@@ 96
ship 96
ama@@ 95
av@@ 95
did 95
left 95
mellor@@ 95
mercado 95
oportuni@@ 95
preocupes, 95
reali@@ 95
seman@@ 95
symbol 95
símbolo 95
Debo 94
actu@@ 94
again. 94
anz@@ 94
ction 94
decora@@ 94
end 94
home 94
moder@@ 94
nature 94
necesita 94
provide 94
together. 94
very@@ 94
you're 94
z 94
adap@@ 93
ativ@@ 93
carne 93
certain 93
come@@ 93
conexión 93
dade 93
debería 93
due 93
ence 93
environment. 93
est 93
far@@ 93
feito 93
help. 93
interesting 93
interi@@ 93
market 93
mes 93
minhas 93
preparar 93
receitas 93
roupa 93
sas 93
thinking 93
ario 92
connection 92
define 92
foundation 92
gui@@ 92
ide@@ 92
mer@@ 92
pes@@ 92
presen@@ 92
put 92
rai@@ 92
room 92
sh@@ 92
simple 92
ways 92
ço 92
Fo@@ 91
began 91
ber@@ 91
bon@@ 91
cuando 91
dura@@ 91
environment 91
fan 91
feliz 91
figura 91
free 91
libro 91
lle 91
low 91
mountain 91
posible 91
rar 91
rei 91
remember 91
sab@@ 91
show 91
sinal 91
val@@ 91
única 91
aliz@@ 90
ch 90
familia 90
gre@@ 90
importantes 90
music. 90
over@@ 90
produto 90
ses. 90
skills. 90
vali@@ 90
walk 90
ça 90
al." 89
açúcar 89
cabe@@ 89
cen@@ 89
connect 89
feliz@@ 89
flo@@ 89
g 89
means 89
oper@@ 89
process 89
professional 89
self-@@ 89
sion 89
ties. 89
travel 89
ade@@ 88
air 88
chan@@ 88
consider@@ 88
corpo 88
ent 88
esti@@ 88
game 88
ira 88
mb@@ 88
medi@@ 88
moita 88
port@@ 88
seem 88
su 88
tener 88
times, 88
tive 88
tiña 88
tre@@ 88
we@@ 88
Tengo 87
another 87
arme 87
ations 87
banqueta 87
capturar 87
cien@@ 87
dish 87
enough 87
eta@@ 87
experiencia 87
him 87
less 87
living 87
mell@@ 87
ments. 87
people's 87
preocupes 87
problems 87
propia 87
re, 87
sel@@ 87
sociedade 87
until 87
x 87
buy 86
cake 86
ce, 86
cel@@ 86
client@@ 86
consigo 86
control. 86
cro@@ 86
ess 86
forza 86
fre@@ 86
garantir 86
gener@@ 86
growth 86
iro 86
lica@@ 86
limit@@ 86
lives 86
movie 86
nivel 86
phone 86
sur@@ 86
técnica 86
aliment@@ 85
appropriate 85
atra@@ 85
baix@@ 85
based 85
bed 85
build 85
cause 85
contra@@ 85
dores 85
fest@@ 85
myself 85
smell 85
stay 85
suas 85
value 85
ves 85
você 85
which 85
aire 84
delicious 84
empres@@ 84
end@@ 84
experience 84
explo@@ 84
festa 84
focus 84
foods 84
fun@@ 84
idade 84
listen 84
nov@@ 84
os, 84
pare@@ 84
polos 84
pratos 84
solução 84
t." 84
them. 84
tren 84
wor@@ 84
¿@@ 84
alta 83
arti@@ 83
back 83
cheiro 83
continu@@ 83
emotions 83
excellent 83
hold 83
hon@@ 83
negativ@@ 83
objects 83
pasar 83
ral 83
siento 83
star@@ 83
stool 83
tecnoloxía 83
understanding 83
vo 83
xi@@ 83
ato@@ 82
ax@@ 82
continue 82
dir@@ 82
disposto 82
dra@@ 82
ela 82
ficar 82
forward. 82
limpeza 82
lose 82
moment. 82
nós 82
ons 82
oso 82
planning 82
presente 82
recursos 82
rock 82
room. 82
under 82
çõ@@ 82
Algúns 81
Isso 81
U@@ 81
aceptar 81
anyone 81
bit 81
bran@@ 81
bur@@ 81
clo@@ 81
days. 81
eco@@ 81
endo 81
excited 81
experimentar 81
family. 81
ficou 81
ge. 81
influence 81
lugares 81
necesito 81
negoci@@ 81
ner@@ 81
path 81
pinach 81
prato 81
ready 81
several 81
sion. 81
spend 81
type 81
vista 81
Creo 80
Pro@@ 80
adecu@@ 80
camiñ@@ 80
chegar 80
decided 80
diversidade 80
ele 80
formas 80
fru@@ 80
gan@@ 80
med 80
músi@@ 80
necesidades 80
noite 80
paciencia 80
powerful 80
rode@@ 80
say 80
skin 80
teñen 80
tus 80
ut 80
Minha 79
areas 79
ble@@ 79
bus@@ 79
changes 79
cial 79
clean 79
cualquier 79
desde 79
destin@@ 79
determin@@ 79
din@@ 79
essencial 79
fresh 79
getting 79
house 79
inspira@@ 79
mal 79
medio 79
night 79
off 79
opportunities 79
place. 79
qualquer 79
security 79
sin 79
skill 79
th 79
tired 79
ton@@ 79
torrão 79
yourself. 79
útil 79
No@@ 78
alcanzar 78
aten@@ 78
char@@ 78
complex 78
decisión 78
dent@@ 78
escolha 78
espe@@ 78
exist@@ 78
final 78
large 78
ler 78
material 78
options 78
post@@ 78
preferido 78
project. 78
same 78
sign 78
table 78
tortilla 78
vin@@ 78
zas 78
ña 78
bio@@ 77
busca 77
cara 77
cheese 77
communication 77
deben 77
erro@@ 77
esper@@ 77
expression 77
flu@@ 77
gr@@ 77
han@@ 77
inclu@@ 77
lado 77
level 77
lí@@ 77
menos 77
miss 77
natur@@ 77
política 77
safety 77
sive 77
sky 77
sobremesa 77
started 77
the@@ 77
tion." 77
uts 77
ência 77
Hay 76
alguén 76
art. 76
calidade 76
choice 76
clientes 76
conectar 76
crescimento 76
culture. 76
diverti@@ 76
fijar 76
gas 76
importance 76
nome 76
opini@@ 76
party 76
pay 76
perfume 76
rápi@@ 76
s? 76
sion@@ 76
suitable 76
transporte 76
tton 76
wind 76
Você 75
abóbada 75
aqu@@ 75
café 75
car. 75
cold 75
cora@@ 75
defin@@ 75
emocións 75
everyone 75
example 75
fica 75
ina 75
instrumento 75
ir. 75
ja 75
les@@ 75
pain 75
perfe@@ 75
present 75
recipes. 75
rit@@ 75
saber 75
sendo 75
shouldn't 75
sión 75
stress. 75
tarde 75
tin@@ 75
trabalho 75
uni@@ 75
"As 74
activ@@ 74
canto 74
capture 74
ciencia 74
comezou 74
company 74
concer@@ 74
cooking 74
creative 74
data 74
dedica@@ 74
educa@@ 74
energy 74
eram 74
fer@@ 74
hay 74
home. 74
insul@@ 74
job 74
mit@@ 74
moving 74
necesari@@ 74
peace. 74
protexer 74
reach 74
sauda@@ 74
step 74
traffic 74
tudo 74
vent@@ 74
ver. 74
Po@@ 73
Todo 73
alo@@ 73
appiness 73
areas. 73
axudar@@ 73
bat@@ 73
big 73
comes 73
complica@@ 73
demá@@ 73
diante 73
do, 73
dri@@ 73
elemento 73
ent. 73
fl@@ 73
fri@@ 73
ger@@ 73
heard 73
history 73
itar 73
licor 73
límites 73
mañ@@ 73
meat 73
name 73
nuvem 73
obxectos 73
old 73
past 73
precisamos 73
senti@@ 73
stu@@ 73
team. 73
times. 73
took 73
using 73
valor 73
vital 73
went 73
!" 72
"E@@ 72
Imos 72
Y@@ 72
ales 72
ani@@ 72
birds 72
cap@@ 72
ces@@ 72
ches 72
coche 72
cole@@ 72
company. 72
cous@@ 72
dance 72
decisions. 72
delici@@ 72
desafi@@ 72
desta 72
dire@@ 72
ear 72
essa 72
his/her 72
indica@@ 72
information. 72
lev@@ 72
poder@@ 72
polas 72
quem 72
regi@@ 72
segurança 72
sesión 72
toler@@ 72
transfer 72
través 72
up. 72
viaxe 72
wi@@ 72
Ás 72
õ@@ 72
ante@@ 71
b 71
bom 71
cama 71
celebrar 71
cobre 71
comfortable 71
comprar 71
conti@@ 71
cr@@ 71
defen@@ 71
e, 71
economic 71
encia 71
environmental 71
experi@@ 71
ful. 71
gue 71
hot 71
há 71
important. 71
indo 71
learned 71
lembrar 71
mostra 71
nuestra 71
nó@@ 71
online 71
out@@ 71
peace 71
play@@ 71
ran@@ 71
red. 71
rela@@ 71
ron@@ 71
tent@@ 71
todo@@ 71
xun@@ 71
"M@@ 70
Comprei 70
Hoxe 70
Le@@ 70
al, 70
animals. 70
at. 70
avi@@ 70
break 70
confidence 70
cy 70
diseases. 70
excelente 70
figure 70
friend 70
fundament@@ 70
ideas. 70
mat@@ 70
mol@@ 70
persever@@ 70
pon@@ 70
reci@@ 70
soñ@@ 70
sub@@ 70
tapar 70
tema 70
ties 70
tions. 70
various 70
weight 70
xestión 70
ño 70
2@@ 69
agree 69
amizade 69
auga 69
better. 69
building 69
business 69
children 69
comez@@ 69
couldn't 69
cover 69
decisións 69
entes 69
escoitar 69
express 69
ime 69
impresion@@ 69
individu@@ 69
innov@@ 69
ke@@ 69
lar@@ 69
love. 69
mm@@ 69
myself. 69
nosso 69
ns 69
objeto 69
obxectiv@@ 69
papel 69
pat@@ 69
perfecto 69
rich 69
ris@@ 69
sos 69
tiempo 69
tivo 69
voz 69
waste 69
... 68
Comp@@ 68
actuar 68
aking 68
available 68
aybe 68
cción 68
celebra@@ 68
chocolate 68
cias 68
cultures. 68
equipment 68
esquivar 68
ever 68
f-@@ 68
happy. 68
highly 68
identidade 68
je@@ 68
losing 68
lugar@@ 68
melhorar 68
mis 68
mosquetão 68
od 68
peso 68
posso 68
produción 68
relax. 68
remo@@ 68
rin@@ 68
seemed 68
stas 68
technique 68
technology 68
teodolito 68
tes@@ 68
types 68
ved 68
vento 68
xu@@ 68
óns 68
ões 68
Estás 67
algodão 67
appreciate 67
bola 67
ce." 67
chuva 67
conseguir 67
disfrutar 67
ger 67
hand@@ 67
heart. 67
helped 67
hood 67
inver@@ 67
leg@@ 67
nada@@ 67
ne 67
one. 67
partes 67
perigo@@ 67
proxe@@ 67
pássaros 67
saw 67
seen 67
short 67
strength 67
tratar 67
Se@@ 66
account 66
ale@@ 66
ality 66
changing 66
chi@@ 66
choose 66
cloud 66
completely 66
comuni@@ 66
correct@@ 66
cus@@ 66
element 66
elev@@ 66
esquezas 66
frustra@@ 66
garden 66
impacto 66
isso 66
jun@@ 66
market. 66
obter 66
of@@ 66
paí@@ 66
pl@@ 66
playing 66
point 66
political 66
respecto 66
resultado 66
seguridade 66
sensación 66
ty. 66
verdade@@ 66
zar 66
ace 65
acordo 65
alto 65
amendoim 65
ank 65
ar, 65
aventura 65
bul@@ 65
celebrate 65
cing 65
clar@@ 65
comer 65
cti@@ 65
culture 65
dur@@ 65
education 65
espa@@ 65
exciting 65
exemplo 65
fro@@ 65
house. 65
igh@@ 65
impact 65
ingrediente 65
ist@@ 65
king. 65
medit@@ 65
mentos 65
more. 65
novos 65
nutri@@ 65
object 65
p. 65
passion 65
piece 65
políticas 65
present@@ 65
regul@@ 65
share 65
st. 65
stand 65
starting 65
tocar 65
tru@@ 65
vas 65
watching 65
work@@ 65
én 65
"F@@ 64
/her 64
Mo@@ 64
Ne@@ 64
agradecido 64
aria 64
ats 64
aínda 64
bad 64
bles 64
br@@ 64
carabiner 64
criar 64
dream 64
emocionado 64
emotions. 64
evolu@@ 64
expresión 64
finance@@ 64
importa 64
ingredient 64
medidas 64
meet 64
mother 64
ms. 64
mucho 64
máxi@@ 64
necesit@@ 64
obra 64
oil 64
possible. 64
sk@@ 64
sugar 64
traball@@ 64
trend 64
tried 64
turn 64
visit@@ 64
vit@@ 64
y.""" 64
I'll 63
Tra@@ 63
aca@@ 63
achieving 63
activity 63
alidade 63
alone. 63
ations. 63
chu@@ 63
comfort 63
corazón 63
dentes 63
denti@@ 63
des. 63
duro 63
empresa 63
establish 63
estado 63
fres@@ 63
función 63
habit@@ 63
liberdade 63
lives. 63
necesitamos 63
party. 63
prepar@@ 63
riqueza 63
sense 63
sky. 63
ter. 63
well. 63
"La 62
Podemos 62
Pre@@ 62
algumas 62
alking 62
apetece 62
arnos 62
ará 62
bre@@ 62
bring 62
causar 62
comezar 62
competi@@ 62
constru@@ 62
creating 62
creativity 62
ctive 62
cunha 62
dade, 62
delica@@ 62
dog 62
done 62
esco@@ 62
extra@@ 62
greater 62
gs 62
hacia 62
hos 62
in. 62
ino@@ 62
ithout 62
limp@@ 62
long-term 62
nuestros 62
obxectivo 62
opinión 62
pens@@ 62
ph@@ 62
popul@@ 62
pou@@ 62
que. 62
respe@@ 62
rest@@ 62
retener 62
saír 62
saú@@ 62
servi@@ 62
situations. 62
skull 62
taste 62
tei 62
tur@@ 62
vulner@@ 62
ze 62
5 61
access 61
acións 61
ask 61
avanz@@ 61
back@@ 61
carga 61
clothes 61
community. 61
comunicación 61
consu@@ 61
correc@@ 61
cted 61
deu 61
drink 61
estilo 61
estres@@ 61
ful@@ 61
head 61
hu@@ 61
ice 61
lon@@ 61
mas@@ 61
osos 61
ous. 61
peaceful 61
pel 61
película 61
perfec@@ 61
pos@@ 61
profesion@@ 61
safe 61
smo@@ 61
sports 61
system. 61
tado 61
tipos 61
verdade 61
worth 61
às 61
"Ao 60
Aquela 60
Gustaríame 60
acariciar 60
answer 60
aprendiz@@ 60
arri@@ 60
baixo 60
bebida 60
brin@@ 60
carreira 60
ced 60
colle@@ 60
cra@@ 60
cé@@ 60
estr@@ 60
fixo 60
glass 60
goal 60
gos 60
ings. 60
iros 60
itos 60
ked 60
last 60
leaves 60
lib@@ 60
modern 60
máti@@ 60
nai 60
osa 60
pal@@ 60
rece@@ 60
recuperar 60
responsible 60
sabor@@ 60
sala 60
showing 60
stica@@ 60
table. 60
tesouro 60
th. 60
tional 60
trabalhar 60
valores 60
vibration 60
view 60
ável 60
Anhelo 59
Parece 59
adores 59
agu@@ 59
antena 59
antenna 59
asi@@ 59
até 59
beach. 59
cam@@ 59
carapuço 59
case 59
ciones 59
controlar 59
cs 59
cy. 59
cómo 59
deberías 59
den 59
dreams. 59
emocional 59
escova 59
fair 59
follow 59
habili@@ 59
inspiration 59
intentar 59
io 59
las@@ 59
line 59
mai@@ 59
moments 59
mudar 59
musical 59
necesidade 59
negative 59
ness. 59
ourselves 59
out. 59
pan@@ 59
pedir 59
porque 59
preparing 59
quite 59
resources 59
result@@ 59
sit@@ 59
soap 59
solavanco 59
sou@@ 59
specific 59
tic 59
tradi@@ 59
trip 59
up@@ 59
whole 59
ân@@ 59
ín@@ 59
5@@ 58
Est@@ 58
Por 58
aconte@@ 58
action 58
adventure 58
amosou 58
anzol 58
aqueles 58
arei 58
bastante 58
caused 58
concentra@@ 58
cru@@ 58
customer 58
decision 58
diver@@ 58
diversi@@ 58
document@@ 58
dro@@ 58
efectiv@@ 58
ener@@ 58
exchange 58
experience. 58
hook 58
ito 58
jo 58
mil@@ 58
obstácu@@ 58
opcións 58
opper 58
pe 58
player 58
real 58
sabonete 58
touch 58
uns 58
weather 58
within 58
xí@@ 58
éti@@ 58
"Se 57
Dis@@ 57
Penso 57
Sinto-me 57
balance 57
bandit 57
beach 57
become 57
bril@@ 57
brill@@ 57
cali@@ 57
camp@@ 57
caviar 57
ceo 57
condu@@ 57
creatividade 57
cura@@ 57
dishes. 57
dist@@ 57
diversity 57
e." 57
earn 57
espinafre 57
fracaso 57
histori@@ 57
increase 57
inst@@ 57
ke 57
min 57
noise 57
noti@@ 57
pequenas 57
police 57
ses@@ 57
smile 57
tell 57
veis 57
verdadeiro 57
voice 57
watch 57
water. 57
wing 57
zos 57
?" 56
Acredito 56
Al@@ 56
Aprender 56
Ar@@ 56
afraid 56
am. 56
ame 56
amo@@ 56
ações 56
bilidade 56
both 56
camino 56
chat 56
desa@@ 56
dicir 56
dimensión 56
dio 56
effort 56
em@@ 56
enerxía 56
enten@@ 56
escu@@ 56
fin 56
fish 56
flores 56
force 56
hidroplano 56
lle@@ 56
lograr 56
main 56
objetos 56
offers 56
ofrecer 56
ould 56
paso 56
pe. 56
proteger 56
qualidade 56
relax 56
sentirme 56
stra@@ 56
surprise 56
sustainable 56
tiva 56
tura 56
ves. 56
war@@ 56
xogo 56
: 55
abadia 55
age. 55
aling 55
amigo 55
area. 55
assombro 55
beautiful. 55
cado 55
conect@@ 55
consegu@@ 55
consider 55
ction. 55
dimension 55
escrit@@ 55
espada 55
fe 55
ill@@ 55
joy 55
ling 55
liv@@ 55
management 55
meta@@ 55
ned 55
ninguén 55
parque 55
plans 55
plantas 55
preocupa@@ 55
presence 55
products 55
re." 55
reading 55
responsabilidade 55
result 55
search 55
sleep 55
temor 55
theodolite 55
tá@@ 55
ura@@ 55
values 55
zapatos 55
áti@@ 55
ñas 55
Espero 54
Esse 54
ace@@ 54
ayuda 54
body. 54
ca, 54
caus@@ 54
cleaning 54
cociña 54
coisas 54
compartir 54
complete 54
construír 54
consul@@ 54
cultiv@@ 54
culturas 54
decisions 54
dou@@ 54
ed@@ 54
ento 54
eri@@ 54
erra@@ 54
excep@@ 54
gri@@ 54
hun@@ 54
ida@@ 54
ido 54
ine@@ 54
intercambiar 54
lit@@ 54
ll 54
ls 54
me, 54
mesa 54
movi@@ 54
pan 54
pla@@ 54
políti@@ 54
practi@@ 54
preferida 54
ps. 54
rede 54
refle@@ 54
research 54
resistant 54
saliva 54
sar 54
seek 54
sorpren@@ 54
tou 54
ura 54
usados 54
utiliz@@ 54
whistle 54
works 54
ótima 54
"Cando 53
Mi 53
Todos 53
Toler@@ 53
action. 53
ainda 53
altura 53
análise 53
axeit@@ 53
back. 53
calma 53
cas@@ 53
chea 53
chnology 53
cine 53
cks 53
comeza 53
datos 53
discover 53
docu@@ 53
don@@ 53
escol@@ 53
estra@@ 53
everything. 53
ful 53
gh@@ 53
gift 53
gro@@ 53
infe@@ 53
instru@@ 53
mastro 53
money 53
now 53
ones 53
opportunities. 53
parecia 53
pinheiros 53
poli@@ 53
posición 53
pressure 53
punto 53
realizar 53
regular 53
relationship. 53
respect. 53
roer 53
seguri@@ 53
seguro@@ 53
service 53
será 53
situacións 53
soft 53
solucionar 53
tando 53
usu@@ 53
vida, 53
viol@@ 53
vir@@ 53
xer@@ 53
zepelim 53
¡@@ 53
ôni@@ 53
"Por 52
2 52
3 52
Debes 52
abbey 52
admirable. 52
ater 52
atience 52
attention. 52
benefici@@ 52
brush 52
ch. 52
costume 52
cuestión 52
cuisine. 52
current 52
cí@@ 52
deb@@ 52
debido 52
deserve 52
equipamento 52
força 52
fotografia 52
front 52
gastar 52
growth. 52
helicopter 52
helicóptero 52
high@@ 52
históri@@ 52
honestidade 52
il. 52
kes 52
knowledge 52
late 52
lea@@ 52
opinion 52
piques 52
prepare 52
prepared 52
priori@@ 52
públi@@ 52
software 52
sonar 52
star 52
stration 52
ting. 52
tolerate 52
top 52
vac@@ 52
wonderful 52
ê@@ 52
""" 51
(@@ 51
Es@@ 51
Gra@@ 51
Qu@@ 51
Tenho 51
ables 51
adversi@@ 51
agora 51
ake 51
among 51
anos 51
apito 51
apoi@@ 51
aron 51
blo@@ 51
cheo 51
ck. 51
comportamento 51
comunica@@ 51
correr 51
có@@ 51
depor@@ 51
deser@@ 51
domin@@ 51
dr@@ 51
días 51
eat 51
energy. 51
enquanto 51
erros 51
escoit@@ 51
estu@@ 51
fears 51
fight 51
flavor 51
forward 51
goals 51
got 51
happen@@ 51
humildade 51
hydroplane 51
ignore 51
incrí@@ 51
intent@@ 51
jolt 51
len@@ 51
liña 51
medição 51
mí@@ 51
nor@@ 51
propio 51
religião 51
risk 51
running 51
sil@@ 51
swe@@ 51
tada 51
também 51
tenho 51
ther@@ 51
transportation 51
univer@@ 51
valioso 51
veces, 51
veri@@ 51
vez@@ 51
wal@@ 51
white 51
xardín 51
xe 51
óri@@ 51
Au@@ 50
afe@@ 50
ajudam 50
alone 50
ares 50
ate. 50
bath 50
bebidas 50
camin@@ 50
change. 50
común 50
construir 50
contagi@@ 50
cremallera 50
cts 50
da, 50
eng@@ 50
entalhe 50
establecer 50
esty 50
everyone. 50
exercise 50
explor@@ 50
finding 50
fundação 50
hair@@ 50
hands 50
indi@@ 50
já 50
número 50
orden@@ 50
outro 50
personaliz@@ 50
plan. 50
por@@ 50
position 50
proper 50
ps 50
pueden 50
quality. 50
queijo 50
realmente 50
rest 50
saud@@ 50
seguro/a 50
semp@@ 50
shoes 50
space 50
speak 50
stone 50
temp@@ 50
traspaso 50
virtu@@ 50
wear 50
you." 50
óleo 50
Las 49
acor@@ 49
alegría 49
arrepio 49
ating. 49
attitude. 49
az@@ 49
cio 49
coffee 49
colo@@ 49
congel@@ 49
courage 49
coñe@@ 49
cto 49
ctos 49
cy@@ 49
daily 49
dese@@ 49
ends 49
ensin@@ 49
esto 49
evo@@ 49
expres@@ 49
facing 49
física 49
ging 49
impressive. 49
limits 49
liz@@ 49
mellores 49
melo@@ 49
mirror 49
montanha 49
motivación 49
orient@@ 49
pain@@ 49
personas 49
prevenir 49
protección 49
queda 49
rado 49
renov@@ 49
requ@@ 49
right. 49
sar@@ 49
seja 49
series 49
severance 49
significa 49
simply 49
singing 49
some@@ 49
sorriso 49
suave 49
sweet 49
sword 49
sí@@ 49
tasty 49
tel@@ 49
tiene 49
tinha 49
underestimate 49
xeito 49
xulgar 49
ética 49
Senti 48
TV 48
aban 48
acep@@ 48
aci@@ 48
afectar 48
agem 48
ano 48
atu@@ 48
barco 48
bright 48
care@@ 48
castidade 48
cau@@ 48
ceder 48
cerca 48
ches. 48
close 48
completamente 48
confor@@ 48
considered 48
constan@@ 48
coraz@@ 48
dentro 48
design 48
dest@@ 48
dicir@@ 48
diferente 48
efficient 48
especial 48
expresar 48
facendo 48
flavor. 48
fraca@@ 48
frigideira 48
grow 48
hear@@ 48
inclinación 48
influenced 48
instrument 48
international 48
irrit@@ 48
lease 48
life, 48
logi@@ 48
m, 48
medication 48
mes. 48
mistakes. 48
move@@ 48
needs. 48
neg@@ 48
nuestras 48
park. 48
pedra 48
performance. 48
places. 48
positiva 48
preocu@@ 48
processo 48
protection 48
pun@@ 48
rain@@ 48
realiz@@ 48
reli@@ 48
remolque 48
resi@@ 48
respeito 48
rights 48
risco 48
sed. 48
siste@@ 48
society 48
solucións 48
sometimes 48
tendência 48
typical 48
té@@ 48
vezes, 48
viaxar 48
ws 48
you, 48
zipper 48
ár@@ 48
3@@ 47
Eres 47
Essa 47
ad. 47
apoio 47
area 47
aviar 47
biscoitos 47
cambios 47
carre@@ 47
ched 47
combin@@ 47
considerar 47
coração 47
cores 47
creación 47
customers. 47
desmoron@@ 47
dragóns 47
ero 47
espelho 47
espiritu@@ 47
espremedor 47
esque@@ 47
estalactite 47
face. 47
fantasia 47
favor, 47
fren@@ 47
friend. 47
heavy 47
job. 47
ld 47
logical 47
long@@ 47
me? 47
network 47
ora 47
ors. 47
ose 47
ow@@ 47
palabras 47
plen@@ 47
practice 47
praia 47
products. 47
project 47
próximo 47
pul@@ 47
read 47
responsibility 47
rocha 47
sai@@ 47
shiver 47
song 47
stalactite 47
sustent@@ 47
tal 47
tua 47
visit 47
vontade 47
wn 47
0@@ 46
Esto 46
Necesitamos 46
Talvez 46
actions. 46
acu@@ 46
acumulação 46
af@@ 46
air@@ 46
algúns 46
alth 46
ance. 46
axeitada 46
biquíni 46
branch 46
careful 46
carried 46
challenges 46
couro 46
covered 46
creativ@@ 46
culos 46
dark 46
de." 46
deberiamos 46
deberíamos 46
deporte 46
dete@@ 46
distra@@ 46
entos 46
ferramentas 46
fun. 46
fí@@ 46
gave 46
gives 46
hand 46
inte@@ 46
journey 46
libros 46
liquidar 46
lista 46
loca@@ 46
me." 46
mistakes 46
necessary. 46
number 46
objetiv@@ 46
park 46
parti@@ 46
pelos 46
pressing 46
público 46
realejo 46
sentido 46
sof@@ 46
strength. 46
sts 46
tension 46
test@@ 46
throat 46
toma@@ 46
traditional 46
urban@@ 46
vaca@@ 46
velocidade 46
w. 46
wanted 46
warm 46
well-@@ 46
win@@ 46
year. 46
Podo 45
anymore. 45
ature 45
aventura@@ 45
behind 45
cabeza 45
cansado 45
cliente 45
clothes. 45
cookies 45
cs. 45
depois 45
ding. 45
eep 45
electric 45
emoción 45
empezar 45
equipe 45
espuma 45
flowers 45
fruit 45
frí@@ 45
function 45
galho 45
hurt 45
ine. 45
inf@@ 45
ini@@ 45
inspiración 45
internet 45
io@@ 45
ity." 45
minu@@ 45
molho 45
montaña 45
navi@@ 45
oneself 45
paix@@ 45
paixón 45
part@@ 45
patience 45
perspectiva 45
plac@@ 45
potential 45
quen@@ 45
repugn@@ 45
respec@@ 45
s' 45
sa, 45
se, 45
sensi@@ 45
seres 45
serious 45
so, 45
to, 45
trabajo 45
trapézio 45
under@@ 45
union 45
washing 45
És 45
ías 45
"Às 44
4@@ 44
9@@ 44
Che@@ 44
Devemos 44
Mantén 44
X@@ 44
actividade 44
adora 44
affected 44
algo@@ 44
almente 44
als. 44
ambient@@ 44
ame@@ 44
amentos 44
balanced 44
bandeira 44
bar 44
barbecue 44
beginning 44
bir@@ 44
board 44
cabrito 44
call 44
castelo 44
castle 44
committed 44
confiar 44
connected 44
cozin@@ 44
cted. 44
cting 44
ctions. 44
d.""" 44
descan@@ 44
dessert 44
devem 44
diet. 44
dio@@ 44
dragão 44
ely 44
ess. 44
eyes 44
fast 44
flag 44
fol@@ 44
gañar 44
ges 44
giving 44
glo@@ 44
greatest 44
group 44
gru@@ 44
identi@@ 44
improve. 44
industri@@ 44
lat@@ 44
marca 44
much. 44
mudanças 44
need. 44
nuestro 44
ollow 44
other. 44
ourselves. 44
pac@@ 44
peri@@ 44
perten@@ 44
plants 44
prob@@ 44
produção 44
projetos 44
propiciar 44
qué 44
ragons 44
redes 44
relaxar 44
respectar 44
run 44
sh 44
she 44
side 44
significa@@ 44
situ@@ 44
solo 44
solutions 44
spe@@ 44
speed 44
ste 44
teléfono 44
tendencia 44
valiosa 44
valor@@ 44
van@@ 44
ve." 44
visión 44
"Sen 43
Ira 43
Sé 43
acab@@ 43
admire 43
air. 43
angel 43
animal. 43
aurora 43
banho 43
behavior. 43
blue 43
camiño 43
choi@@ 43
church 43
churrasco 43
coming 43
comport@@ 43
conser@@ 43
country 43
ct. 43
ctive. 43
day@@ 43
decision@@ 43
descubrir 43
dessert. 43
dirección 43
dispostos 43
divin@@ 43
dress 43
elegan@@ 43
empez@@ 43
esfor@@ 43
esse 43
ets 43
ev@@ 43
explore 43
farol 43
faz 43
fur@@ 43
gal@@ 43
game. 43
gente 43
global 43
gust@@ 43
history. 43
horas 43
ias 43
identity 43
impac@@ 43
industry. 43
investigación 43
ke. 43
kind 43
lies 43
loved 43
macarrão 43
maintaining 43
mans 43
masco@@ 43
mill 43
mir@@ 43
moinho 43
nee@@ 43
objective 43
places 43
pol@@ 43
pres@@ 43
presión 43
reduzir 43
remédio 43
resistente 43
resol@@ 43
respo@@ 43
riscos 43
rí@@ 43
rú@@ 43
saí@@ 43
shape 43
sintas 43
soul. 43
study 43
style 43
tain 43
tamborim 43
tas@@ 43
teach 43
televi@@ 43
tenda 43
tics 43
tou@@ 43
two 43
use@@ 43
vos 43
won't 43
words 43
í 43
ín 43
acción 42
actividades 42
adapt 42
add 42
agit@@ 42
alma 42
alternativ@@ 42
ang@@ 42
anjo 42
apreciar 42
ation@@ 42
boas 42
boss 42
canela 42
capaces 42
cena 42
cha 42
ching 42
clara 42
comunidade 42
cook 42
correct 42
ctions 42
ctiv@@ 42
cuidado 42
curta 42
dangerous 42
desex@@ 42
dragon 42
easily 42
encan@@ 42
energi@@ 42
enjoying 42
escal@@ 42
esperanza 42
exaggerate 42
explorar 42
ferro 42
fútbol 42
garganta 42
gol@@ 42
grupo 42
hace 42
have. 42
ignorar 42
iguana 42
il 42
impe@@ 42
lembr@@ 42
let's 42
lou@@ 42
low@@ 42
medos 42
mic 42
ming 42
money. 42
pasado 42
piled 42
played 42
presi@@ 42
primeiro 42
pur@@ 42
rain. 42
relacion@@ 42
requer 42
request 42
role 42
session. 42
stress 42
stri@@ 42
sucesso 42
talking 42
think. 42
transforma@@ 42
tree 42
triste@@ 42
uccess 42
urban 42
utilizados 42
vest@@ 42
vizinhança 42
án@@ 42
"Ás 41
Emp@@ 41
Expresar 41
Prefiro 41
abri@@ 41
acces@@ 41
ado, 41
ahondar 41
ants 41
arre@@ 41
ated. 41
ativity 41
bility 41
canción 41
causa 41
chastity 41
check 41
cociñ@@ 41
comprensión 41
constantly 41
coordin@@ 41
costu@@ 41
country. 41
critical 41
ctu@@ 41
dece@@ 41
del@@ 41
dela@@ 41
develop 41
devemos 41
dica@@ 41
discovery 41
discrimin@@ 41
dish@@ 41
dreams 41
económi@@ 41
emos 41
enfermidades 41
entendo 41
espinafres 41
et. 41
exige 41
f. 41
fall@@ 41
fresco 41
frying 41
imagin@@ 41
immediate 41
inteli@@ 41
interpre@@ 41
juicer 41
language 41
life." 41
lá@@ 41
measures 41
medica@@ 41
memor@@ 41
monta@@ 41
neighborhood 41
opinions 41
organizar 41
organize 41
paci@@ 41
pes 41
profes@@ 41
progra@@ 41
promote 41
pú@@ 41
quickly. 41
revi@@ 41
signal 41
simplemente 41
stronger 41
tempor@@ 41
throughout 41
tion, 41
tor 41
tran@@ 41
trepidação 41
vaso 41
ved. 41
vibração 41
visi@@ 41
vén 41
xogador 41
xuntos 41
yoga 41
zona 41
á-@@ 41
ças 41
) 40
Já 40
Pa@@ 40
Supoño 40
aber@@ 40
absor@@ 40
acceso 40
activities 40
admira@@ 40
ado/a 40
amor@@ 40
analysis 40
any@@ 40
apreci@@ 40
are. 40
atop@@ 40
audi@@ 40
axudarnos 40
battery 40
boat 40
bol@@ 40
books 40
borracha 40
brings 40
clas@@ 40
clu@@ 40
complex@@ 40
comum 40
confu@@ 40
consumo 40
depen@@ 40
dereitos 40
development 40
device 40
difícil, 40
dispositivo 40
doce 40
doenças 40
dé@@ 40
dín 40
ence. 40
envol@@ 40
equilibrio 40
etting 40
facía 40
faun 40
fauno 40
fied 40
filled 40
fit 40
fore@@ 40
fó@@ 40
gem 40
harmony 40
help@@ 40
história 40
importancia 40
include 40
infor@@ 40
inse@@ 40
ligi@@ 40
liqueur 40
mas. 40
mejorar 40
mer 40
mient@@ 40
misteri@@ 40
mul@@ 40
médico 40
nen@@ 40
one's 40
ones. 40
ory 40
pacien@@ 40
paisa@@ 40
parede 40
policies 40
potencial 40
practical 40
problem@@ 40
progress. 40
recibir 40
recover 40
reg@@ 40
related 40
responsabili@@ 40
sauce 40
saudável 40
senón 40
separ@@ 40
sozin@@ 40
store 40
suficiente 40
suppose 40
task 40
temente 40
tentando 40
thi@@ 40
treated 40
truth 40
valued 40
viable 40
ving. 40
vitamin 40
wel@@ 40
whe@@ 40
working. 40
write 40
xeo 40
ying. 40
área 40
"Para 39
Bo@@ 39
Car@@ 39
Era 39
Vi@@ 39
acudir 39
ain@@ 39
ajud@@ 39
alambique 39
alar@@ 39
all. 39
amo 39
appro@@ 39
ara 39
assi@@ 39
at's 39
ation." 39
cir@@ 39
compani@@ 39
computer 39
conf@@ 39
conheci@@ 39
contacto 39
cou 39
cut 39
deep 39
demostrar 39
desollar 39
eficien@@ 39
el. 39
emb@@ 39
emer@@ 39
envi@@ 39
err@@ 39
espon@@ 39
estoy 39
estrelas 39
explain 39
fermo@@ 39
filme 39
gor@@ 39
green 39
head. 39
ino 39
interior 39
intoler@@ 39
jar 39
justi@@ 39
kept 39
library 39
lighthouse 39
meaning 39
mel@@ 39
montan@@ 39
ningu@@ 39
ningún 39
objects. 39
oce@@ 39
organized 39
pa 39
pagar 39
pain. 39
pencil 39
poten@@ 39
prevención 39
privacidade 39
quali@@ 39
ras 39
receita 39
reco@@ 39
refreshing 39
relaxing 39
res, 39
roo@@ 39
sand 39
science 39
seeing 39
seri@@ 39
significant 39
soul 39
suce@@ 39
sé 39
temblar 39
tendo 39
tesoura 39
them." 39
transportar 39
truly 39
use. 39
ust 39
vex@@ 39
vezes 39
vitamina 39
volver 39
wine 39
xustiza 39
zeppelin 39
zing 39
áni@@ 39
'@@ 38
8@@ 38
able@@ 38
accep@@ 38
ant. 38
aplica@@ 38
ard 38
aroma 38
atenção 38
attra@@ 38
bandoleiro 38
bater 38
behavior 38
biblioteca 38
bicicleta 38
business. 38
caixa 38
campo 38
carro 38
challenge 38
coller 38
condi@@ 38
conta@@ 38
coñecer 38
cuidar 38
dando 38
defensa 38
defense 38
descoberta 38
destru@@ 38
disco@@ 38
door 38
doub@@ 38
dry 38
elas 38
enfoque 38
enfrentar 38
entre@@ 38
esca@@ 38
esforzo 38
essential. 38
estaban 38
extre@@ 38
fagas 38
fen@@ 38
ficación 38
geo@@ 38
ges. 38
height 38
horse 38
hur@@ 38
id 38
ima@@ 38
ining 38
itu@@ 38
ix@@ 38
known 38
lav@@ 38
lim@@ 38
looked 38
managed 38
mane@@ 38
medicamento 38
mudança 38
médi@@ 38
nat@@ 38
nenos 38
pair 38
pasta 38
pastel 38
planificación 38
porta 38
pr@@ 38
preven@@ 38
properly. 38
raça 38
recor@@ 38
redu@@ 38
regular@@ 38
relationships 38
represent@@ 38
roupas 38
rápido 38
screen 38
sent@@ 38
sions 38
skin. 38
stos 38
suéter 38
sweater 38
tarefa 38
tarta 38
taught 38
tow@@ 38
transport 38
variety 38
vin 38
vision 38
águ@@ 38
çar 38
Aprende 37
Breaking 37
Desoín 37
Perdín 37
Tiña 37
Un@@ 37
aberta 37
ability. 37
accompli@@ 37
aces@@ 37
ach@@ 37
aconchego 37
again 37
age@@ 37
aju@@ 37
alguém 37
als 37
anil 37
apa@@ 37
ape@@ 37
apneia 37
aprendizaxe 37
armar 37
ates 37
ative 37
awa@@ 37
carry 37
children. 37
choiva 37
clock 37
colaboración 37
compar@@ 37
compass 37
comunhão 37
conclu@@ 37
conversation 37
creo 37
críti@@ 37
cun 37
days 37
demás 37
devi@@ 37
diversity. 37
dream@@ 37
equação 37
estrés 37
face@@ 37
fascinating 37
fication 37
freedom 37
fy 37
gado 37
ground 37
guar@@ 37
ham 37
honest 37
igers 37
ight 37
inclination 37
incredible 37
innovation 37
interesting. 37
itas 37
ity, 37
kilometers 37
kitchen 37
knowing 37
lavar 37
le, 37
learning. 37
liberar 37
listening 37
llo 37
manage 37
mismo 37
motivation 37
multi@@ 37
needed 37
opti@@ 37
orégano 37
pausa 37
perfecta 37
pil@@ 37
prefer@@ 37
programa 37
proje@@ 37
raio 37
read@@ 37
requi@@ 37
rica 37
risks 37
rou 37
sapatilha 37
save 37
serie 37
sign@@ 37
size 37
sleep. 37
smo 37
sociais 37
spit 37
ta, 37
technical 37
televisión 37
tigres 37
toma 37
tools 37
tores 37
traba@@ 37
trailer 37
universal 37
unning 37
vault 37
vel 37
violino 37
visitar 37
ví@@ 37
wall 37
waterfall 37
why 37
wo@@ 37
ys 37
ário 37
Aínda 36
Caminar 36
Foi 36
activities. 36
ailure 36
alcançar 36
almost 36
alu@@ 36
answer. 36
approach 36
arran@@ 36
arrebat@@ 36
aría 36
ational 36
ativa 36
atur@@ 36
bag@@ 36
baiacu 36
bloque@@ 36
breathing 36
built 36
bússola 36
cari@@ 36
cars 36
ccumulation 36
challenge. 36
cinema 36
ción, 36
cle@@ 36
cobra 36
coma 36
community 36
compet@@ 36
const@@ 36
contact 36
contagious. 36
contamin@@ 36
cosas 36
culinária 36
cultivar 36
deli@@ 36
destapar 36
determinación 36
deteñ@@ 36
dishes 36
dodge 36
efica@@ 36
empatía 36
enig@@ 36
entrecosto 36
equation 36
especiarias 36
ess@@ 36
eventos 36
expression. 36
facelo 36
fon@@ 36
football 36
foron 36
fotos 36
goal. 36
gustaría 36
hol@@ 36
igualdade 36
imos 36
imperador 36
importância 36
innamon 36
invest 36
kiss 36
kitchen. 36
language. 36
lar 36
lla@@ 36
longer 36
manequim 36
mannequin 36
mediante 36
migra@@ 36
movie. 36
nave@@ 36
nervi@@ 36
oy 36
país 36
perdi@@ 36
perfect@@ 36
preto 36
promo@@ 36
quer 36
queres 36
raridade 36
relação 36
respect@@ 36
saudable 36
sea. 36
sobrevi@@ 36
sofistica@@ 36
solutions. 36
sports. 36
suficien@@ 36
sun@@ 36
t.""" 36
taken 36
textura 36
ther 36
thing. 36
thought 36
tion@@ 36
tolerar 36
tren@@ 36
tráfico 36
ure 36
versatile 36
vesti@@ 36
vibr@@ 36
violin 36
viver 36
ã 36
ído 36
= 35
Asi@@ 35
Fi@@ 35
I've 35
abili@@ 35
abilidade 35
aburri@@ 35
actions 35
actitu@@ 35
adventure. 35
alizar 35
altamente 35
animal@@ 35
areia 35
artesan@@ 35
através 35
aware 35
bikini 35
bolso 35
captu@@ 35
centro 35
cere@@ 35
certas 35
changed 35
char 35
chocolate. 35
classic 35
climate 35
clonagem 35
comparti@@ 35
conci@@ 35
construction 35
creation 35
creativity. 35
cómo@@ 35
deixou 35
detal@@ 35
doen@@ 35
down. 35
down@@ 35
driving 35
dul@@ 35
effe@@ 35
eficiente 35
elementos 35
empresas 35
enti@@ 35
este@@ 35
exerci@@ 35
exis@@ 35
fli@@ 35
fortale@@ 35
games 35
garden. 35
gover@@ 35
humano 35
image 35
impose 35
impost@@ 35
impoñer 35
impression@@ 35
instead 35
intense 35
internacion@@ 35
ith 35
justice 35
ki@@ 35
led. 35
lei@@ 35
ligh@@ 35
list 35
loning 35
mac@@ 35
melhor@@ 35
mere@@ 35
monu@@ 35
mus@@ 35
mã@@ 35
nieve 35
now@@ 35
ocu@@ 35
oferece 35
onto 35
options. 35
our@@ 35
overcoming 35
parts 35
pequena 35
per 35
pessoa 35
pira@@ 35
poltrona 35
precisam 35
provação 35
práctica 35
quente 35
release 35
reloxo 35
respon@@ 35
rexi@@ 35
risa 35
ritmo 35
rá@@ 35
satisfactori@@ 35
sau@@ 35
sco@@ 35
se." 35
sería 35
shows 35
sintonia 35
sociedad 35
spending 35
stars 35
sões 35
teaches 35
tecido 35
tensión 35
teri@@ 35
these 35
traballando 35
truth. 35
té 35
valoriz@@ 35
var 35
varias 35
variedade 35
viajar 35
viax@@ 35
voca@@ 35
waiting 35
walking 35
wash 35
xefe 35
ze@@ 35
és 35
ós 35
/a 34
Admiro 34
Deixa 34
according 34
actitud 34
adver@@ 34
agradeci@@ 34
aler@@ 34
alimento 34
aliviar 34
ally. 34
ancia 34
ancient 34
ans 34
antar 34
appearance 34
argu@@ 34
arrepen@@ 34
assion 34
atenuar 34
ation, 34
atividades 34
avestruces 34
axeitado 34
axudarte 34
bil@@ 34
bot@@ 34
bowl 34
cally 34
caminho 34
cat@@ 34
celular 34
challenges. 34
cidad@@ 34
cilindros 34
clima 34
configura@@ 34
correctly. 34
crecemento 34
culpa 34
dado 34
deepest 34
demonstration 34
depending 34
dere@@ 34
desenvolver 34
desfrutar 34
difficult, 34
dir 34
divine 34
do/a 34
dome 34
dy 34
economy 34
efervescência 34
elección 34
electróni@@ 34
elevar 34
elevação 34
energia 34
engan@@ 34
erro 34
es? 34
eso 34
farinha 34
fix@@ 34
fla@@ 34
following 34
forward." 34
fran@@ 34
fáci@@ 34
gavião 34
goes 34
guarantee 34
home@@ 34
hours 34
ic 34
improvement 34
influir 34
interesante 34
ive 34
logr@@ 34
lápis 34
man. 34
marketing 34
measure 34
media 34
media. 34
mini@@ 34
mobile 34
moda 34
mort@@ 34
mostrando 34
mostrar 34
natu@@ 34
necess@@ 34
objetivos 34
obser@@ 34
opinion. 34
oria 34
osas 34
performance 34
personali@@ 34
positivo 34
presenza 34
profission@@ 34
propi@@ 34
própria 34
puiden 34
pé@@ 34
ran 34
rar@@ 34
rarity 34
redor 34
reliable 34
reser@@ 34
respeto 34
responsibility. 34
resultados 34
reuni@@ 34
ricos 34
rid 34
saluda@@ 34
secre@@ 34
segue 34
sexan 34
sexual 34
solving 34
stimul@@ 34
stor@@ 34
stories 34
striches 34
stuck 34
sweetness 34
team@@ 34
temperatura 34
thanks 34
tical 34
tigela 34
titude 34
tiz@@ 34
trip. 34
ustomiz@@ 34
usually 34
vestido 34
via 34
video 34
vor@@ 34
years 34
zes 34
én@@ 34
ían 34
"El 33
-se 33
.@@ 33
0. 33
Ba@@ 33
Grazas 33
Ho@@ 33
a-@@ 33
achieve@@ 33
acti 33
adicion@@ 33
afetar 33
afford 33
ante, 33
após 33
aspe@@ 33
atividade 33
ator 33
aumentar 33
azeitonas 33
before. 33
book. 33
buena 33
cachoeira 33
cactos 33
can. 33
ceu 33
chope 33
circu@@ 33
circul@@ 33
commitment 33
compare 33
compromi@@ 33
comunicação 33
conversa 33
cos@@ 33
cost@@ 33
costumes 33
cular 33
curi@@ 33
custo@@ 33
céu 33
ded. 33
defe@@ 33
delegate 33
deslumbr@@ 33
determination 33
dieta 33
doçura 33
effervescence 33
emocionante 33
empreg@@ 33
enter@@ 33
entire 33
ería 33
específi@@ 33
espírito 33
estru@@ 33
experiment@@ 33
expressão 33
fall 33
faz@@ 33
feita 33
fir@@ 33
fish@@ 33
flight 33
fole 33
fontes 33
fregar 33
herramienta 33
historical 33
humanos 33
ies 33
implica@@ 33
impul@@ 33
inici@@ 33
innovative 33
involved. 33
irmán 33
is, 33
labor@@ 33
leque 33
limit 33
lo, 33
lã 33
maj@@ 33
manipul@@ 33
manu@@ 33
mast 33
materi@@ 33
maxi@@ 33
mellora 33
metas 33
mility 33
mim 33
new. 33
normal 33
oportunidad 33
palab@@ 33
paper 33
parties 33
ped 33
pen 33
perspective. 33
probar 33
produce 33
profunda@@ 33
quickly 33
ros 33
session 33
shel@@ 33
shine 33
short@@ 33
sing@@ 33
snow 33
sorri@@ 33
spi@@ 33
ss. 33
stro@@ 33
sty@@ 33
suspen@@ 33
takes 33
tarefas 33
termin@@ 33
thro@@ 33
tic. 33
training 33
tranqui@@ 33
up, 33
vaia 33
vamos 33
varios 33
você@@ 33
volume 33
web@@ 33
words. 33
ários 33
ências 33
ñar 33
ñe@@ 33
Aprendín 32
Deix@@ 32
Ro@@ 32
Um 32
abilities. 32
afec@@ 32
affects 32
afrontar 32
algunha 32
alive. 32
alternative 32
altos 32
amortiguar 32
ana 32
anivers@@ 32
antasy 32
apple 32
ase 32
assistir 32
atmosphere 32
axudarche 32
bandido 32
barulho 32
beer 32
bem-@@ 32
bia 32
bien 32
bombóns 32
brother 32
calf 32
calm@@ 32
canario 32
canary 32
catch 32
cho 32
cionar 32
clean@@ 32
coida@@ 32
colheitadeira 32
começar 32
communication. 32
cono@@ 32
contigo 32
contribu@@ 32
conven@@ 32
coragem 32
craf@@ 32
culin@@ 32
cumprir 32
curso 32
cámar@@ 32
cúmpli@@ 32
debruçado 32
delve 32
descreve 32
describes 32
despotismo 32
disfru@@ 32
easier 32
equit@@ 32
espectador 32
extra 32
fabric 32
failure 32
faith 32
far 32
few 32
fix 32
flexi@@ 32
follow@@ 32
galochas 32
gg@@ 32
goo@@ 32
horizon@@ 32
infla@@ 32
influenciada 32
integração 32
it, 32
jos 32
landscape 32
leaning 32
lent@@ 32
limpar 32
linders 32
livro 32
lot. 32
low. 32
manten@@ 32
manual 32
mari@@ 32
morning. 32
motor@@ 32
mé@@ 32
nea 32
neighbors 32
ol. 32
one@@ 32
oume 32
pati@@ 32
peixe 32
perseverance. 32
perspectiv@@ 32
ping 32
pipe 32
planificar 32
poderosa 32
potism 32
previr 32
program 32
prácti@@ 32
radi@@ 32
range 32
realidade 32
reality. 32
reason 32
recipes 32
remedy 32
resili@@ 32
response 32
results. 32
righ@@ 32
rights. 32
ruído 32
scissors 32
sigue 32
sister 32
situations 32
skill. 32
solo@@ 32
ster@@ 32
story 32
tecnolo@@ 32
tely 32
terra@@ 32
tolerancia 32
trapezoid 32
trata 32
veloci@@ 32
viagem 32
virtude 32
voice. 32
wouldn't 32
zon@@ 32
árvores 32
Chope 31
Fun 31
Xulgar 31
adapt@@ 31
adequ@@ 31
agarrar 31
agrada@@ 31
alimentação 31
ality. 31
amiz@@ 31
anything. 31
appearance. 31
aproveitar 31
armchair 31
attract 31
aument@@ 31
avam 31
ave 31
basic 31
birthday 31
boo@@ 31
bási@@ 31
caf@@ 31
candle 31
cat 31
certo 31
circular 31
coffee. 31
colabor@@ 31
comprometi@@ 31
consequences. 31
contar 31
cool 31
cura 31
curación 31
dead@@ 31
decorative 31
dent 31
dig@@ 31
discu@@ 31
doctor 31
eating 31
elements 31
enda 31
enri@@ 31
enro@@ 31
equality 31
evi@@ 31
exclusi@@ 31
exercicio 31
eyes. 31
falling 31
fantas@@ 31
fashion 31
festas 31
flour 31
flow@@ 31
focused 31
forever. 31
fortun@@ 31
fruits 31
fully 31
gada 31
ged 31
h 31
haber 31
había 31
head@@ 31
hipopótamos 31
ig@@ 31
ignor@@ 31
inas 31
ins 31
kid 31
kin@@ 31
lab@@ 31
lights 31
ly." 31
m." 31
magical 31
member 31
nes@@ 31
nos@@ 31
obras 31
ocuparnos 31
opinións 31
ores 31
oría 31
osity 31
ous@@ 31
parties. 31
patience. 31
perda 31
perdendo 31
permitas 31
perseveranza 31
persist@@ 31
pieces 31
pleasant 31
power. 31
prancha 31
precisar 31
prejudi@@ 31
present. 31
preservação 31
prin@@ 31
proce@@ 31
programa@@ 31
progres@@ 31
quei 31
quei@@ 31
ras@@ 31
resist@@ 31
restaur@@ 31
roman@@ 31
screw 31
seco 31
sensação 31
sex@@ 31
sexas 31
sexu@@ 31
shining 31
ship. 31
show@@ 31
sido 31
sions. 31
sistemas 31
sli@@ 31
smoke 31
soon 31
spent 31
squ@@ 31
street 31
strong@@ 31
summer. 31
swi@@ 31
sóli@@ 31
tain@@ 31
tele@@ 31
tivas 31
tly 31
tomar@@ 31
topic 31
torn@@ 31
treat 31
trenó 31
ve, 31
verificar 31
várias 31
was@@ 31
well-being. 31
whi@@ 31
writing 31
you@@ 31
á-lo 31
ótimo 31
ô@@ 31
"Cada 30
2. 30
Aqu@@ 30
Cor@@ 30
Customização 30
E 30
Fai 30
Mi@@ 30
Ti@@ 30
absolu@@ 30
accións 30
afi@@ 30
agri@@ 30
along 30
amwork 30
and@@ 30
ansioso 30
apo@@ 30
approach. 30
approach@@ 30
apresent@@ 30
arios 30
arma@@ 30
ather 30
audience 30
barn 30
becoming 30
benefits 30
bos 30
box 30
care. 30
castiçal 30
caveira 30
cegonhas 30
celeiro 30
chácara 30
colori@@ 30
colors 30
compro@@ 30
compromiso 30
connecting 30
construção 30
cooper@@ 30
coñece@@ 30
crânio 30
culo 30
dan 30
debes 30
defini@@ 30
delicious. 30
desentona 30
dispoñible 30
divi@@ 30
diñe@@ 30
dru@@ 30
eléctri@@ 30
enfo@@ 30
ensinar 30
eraser 30
esgot@@ 30
exemp@@ 30
facer@@ 30
fai@@ 30
fears. 30
feel@@ 30
finan@@ 30
fishing 30
flore@@ 30
flying 30
foo@@ 30
fron@@ 30
guide@@ 30
h. 30
hablar 30
hair. 30
happen 30
har 30
honest@@ 30
hou@@ 30
humil@@ 30
ill 30
imediat@@ 30
impostor 30
incer@@ 30
inspiration. 30
interested 30
irmá 30
ks. 30
leather 30
let@@ 30
levant@@ 30
lling 30
matic 30
me.""" 30
medical 30
meeting 30
melhores 30
mesma 30
meta 30
modelo 30
modi@@ 30
mostrou 30
mudan@@ 30
muita 30
mági@@ 30
necesitas 30
negoti@@ 30
nigh@@ 30
obri@@ 30
obstacles. 30
obstáculos 30
on, 30
one, 30
opportunity. 30
outdoor 30
pad@@ 30
panturrilha 30
parafuso 30
pas 30
passion. 30
pizza 30
planet. 30
populares 30
possí@@ 30
postura 30
precise 30
pressão 30
previsão 30
primeira 30
pron@@ 30
properly 30
proud 30
próxima 30
pó@@ 30
quilômetros 30
quími@@ 30
raz@@ 30
regeneration 30
regeneração 30
resources. 30
rust 30
sacrifice 30
say. 30
secure 30
segur@@ 30
shed 30
silêncio 30
sophisticated 30
story. 30
strategy 30
sua@@ 30
surrounded 30
tam@@ 30
television 30
terapia 30
this? 30
tido 30
tle 30
tos, 30
trabalhos 30
tratamento 30
tun@@ 30
ture 30
turned 30
vam 30
wide 30
xes 30
xestionar 30
years. 30
ze. 30
árbores 30
ér@@ 30
"Co@@ 29
're 29
Asomou 29
Encender 29
Para 29
Pode 29
Siempre 29
activity. 29
acudiu 29
adoro 29
alguien 29
allowed 29
alo 29
amar 29
ambiental 29
angústia 29
armos 29
athy 29
authentic 29
balan@@ 29
bili@@ 29
bility. 29
bre 29
broke 29
brus@@ 29
cantidade 29
children's 29
cking 29
come. 29
começ@@ 29
construí@@ 29
control@@ 29
cres@@ 29
crumble. 29
customers 29
debo 29
decreased 29
deman@@ 29
demostración 29
dente 29
design. 29
desper@@ 29
determine 29
di 29
diab@@ 29
dias 29
dinner. 29
direction 29
distin@@ 29
diñeiro 29
efe@@ 29
efectiva 29
ei 29
empathy 29
environments. 29
equilibra@@ 29
er, 29
ering 29
esenci@@ 29
esquecer 29
estran@@ 29
every@@ 29
evit@@ 29
foam 29
forces 29
fort@@ 29
forzas 29
fur 29
gan 29
gañ@@ 29
gh 29
gift. 29
goat 29
guide 29
hado 29
hel@@ 29
hes 29
high. 29
him. 29
humility 29
igu@@ 29
impressive 29
improving 29
indepen@@ 29
inv@@ 29
ital 29
iu 29
ição 29
juntos 29
knowledge. 29
lanterna 29
libre 29
management. 29
maneiras 29
mest@@ 29
mientras 29
mobili@@ 29
most@@ 29
mou 29
necesitar 29
not@@ 29
obtain 29
obxectivos 29
par 29
path. 29
pequen@@ 29
perspective 29
pila 29
plane 29
prazo 29
preso 29
price 29
profession@@ 29
profun@@ 29
pti@@ 29
pufferfish 29
purpose 29
quere 29
ques 29
race 29
rate 29
razón 29
receive 29
recipe 29
recovery 29
recuperación 29
reedom 29
religious 29
rem 29
rob@@ 29
salvação 29
scent 29
security. 29
sentimentos 29
shi@@ 29
silence 29
simp@@ 29
solicitude 29
solid 29
sons 29
sorry 29
sounds 29
speci@@ 29
state 29
stop@@ 29
sus 29
só@@ 29
tare@@ 29
teach@@ 29
tengo 29
tica 29
tis@@ 29
toque 29
torta 29
tranquil@@ 29
treasure 29
uses 29
var@@ 29
veget@@ 29
vegetarian 29
vention 29
view@@ 29
vinho 29
wisdom 29
wrong 29
xogar 29
y? 29
young 29
ços 29
íamos 29
ír 29
"Este 28
"Si 28
/she 28
7. 28
Agora 28
Desenganchar 28
Quiero 28
Soy 28
abra@@ 28
aching 28
ad 28
ain 28
amiento 28
amiga 28
amount 28
ansie@@ 28
anxiety 28
aparencia 28
así 28
ative. 28
atraer 28
aves 28
biombo 28
books. 28
break. 28
buscando 28
caix@@ 28
cancel@@ 28
canoa 28
canoe 28
caso 28
cast@@ 28
cios 28
cked 28
coi@@ 28
color. 28
confiança 28
consecu@@ 28
consecuencias 28
conver@@ 28
convers@@ 28
corpor@@ 28
corrup@@ 28
ction@@ 28
cuidado@@ 28
cultur@@ 28
decoration 28
decoração 28
dejar 28
delegado 28
delicate 28
derro@@ 28
descendeu 28
development. 28
devorador 28
dido 28
difference 28
differences 28
difficult. 28
difíce@@ 28
discus@@ 28
disfarce 28
distan@@ 28
draw@@ 28
dura 28
dá 28
economi@@ 28
economía 28
empa@@ 28
empresari@@ 28
ens 28
equitable 28
escape 28
estab@@ 28
estavam 28
eti@@ 28
exaxerar 28
exercise. 28
fire 28
firmeza 28
folhas 28
freedom. 28
garden@@ 28
ght. 28
gon@@ 28
gravidade 28
growing 28
hands. 28
harvester 28
hawk 28
he/she 28
humor 28
identify 28
import@@ 28
inovação 28
inside 28
inspire 28
institu@@ 28
intentando 28
internal 28
intui@@ 28
investi@@ 28
invit@@ 28
irds 28
justify 28
k, 28
key. 28
learn. 28
legal 28
lenço 28
light. 28
line. 28
lles 28
marabillo@@ 28
mark@@ 28
mej@@ 28
memory 28
mensa@@ 28
metros 28
mist@@ 28
mood. 28
moves 28
necesi@@ 28
necesitan 28
nin 28
online. 28
open@@ 28
osing 28
other@@ 28
passar 28
pequeno 28
pescador 28
pet 28
pho@@ 28
pitting 28
poida 28
pombos 28
posed 28
posibili@@ 28
possibili@@ 28
projects. 28
purcha@@ 28
pá@@ 28
quer@@ 28
rapida@@ 28
refrescan@@ 28
regret 28
rehusar 28
respiración 28
sali@@ 28
scar@@ 28
see@@ 28
segura 28
sensor 28
sentiment@@ 28
set. 28
shar@@ 28
sharing 28
shopping 28
sieve 28
spea@@ 28
species 28
spilled 28
stain@@ 28
starts 28
store. 28
summer 28
tación 28
tea 28
tecnologia 28
temperature 28
terms 28
terra 28
there's 28
this.""" 28
tics. 28
topic. 28
transparen@@ 28
transport@@ 28
tras 28
técni@@ 28
tú@@ 28
uti@@ 28
val 28
val. 28
view. 28
visu@@ 28
vizinhos 28
winter 28
xogos 28
único 28
"Des@@ 27
7@@ 27
Amo 27
Brazilian 27
Como 27
Coração 27
Im@@ 27
ack 27
acolle@@ 27
afternoon. 27
agra@@ 27
agre@@ 27
alegr@@ 27
algu@@ 27
ambientes 27
antioxid@@ 27
application 27
aqui 27
arm@@ 27
asking 27
auto-@@ 27
ball@@ 27
basketball 27
batería 27
beauty. 27
best. 27
brought 27
buen 27
calidad 27
camaleão 27
candea 27
candlestick 27
capaci@@ 27
cen 27
cep@@ 27
chama@@ 27
chamada 27
chil@@ 27
cional 27
classical 27
closer 27
clothing 27
clásica 27
clássi@@ 27
cober@@ 27
combater 27
confli@@ 27
conforto 27
contento 27
cortar 27
cour@@ 27
course 27
cozinhar 27
coñecemento 27
crystal 27
cure 27
dados 27
danos 27
dela 27
determination. 27
disciplina 27
diversas 27
dou 27
elegant 27
encender 27
engine 27
enough. 27
ents. 27
equ@@ 27
escribir 27
esgo@@ 27
estalo 27
event@@ 27
events 27
examp@@ 27
exper@@ 27
facilmente 27
famíli@@ 27
fas@@ 27
father 27
fear. 27
ffe@@ 27
fill@@ 27
fish. 27
frotar 27
fóra 27
g. 27
gain 27
generate 27
go, 27
gou 27
hard. 27
helping 27
her. 27
hug 27
identity. 27
igreja 27
inci@@ 27
instal@@ 27
instin@@ 27
investment 27
invi@@ 27
jan@@ 27
knew 27
kno@@ 27
lamp 27
leaving 27
lingu@@ 27
liquor 27
loo@@ 27
look. 27
manter@@ 27
model 27
moments. 27
motor 27
mp 27
mutu@@ 27
oblig@@ 27
observ@@ 27
ol 27
ollos 27
ou're 27
partido 27
pavio 27
pelota 27
pending 27
peneira 27
perseverance 27
persona 27
personality. 27
personalized 27
poco 27
pork 27
possibilities. 27
precious 27
predict 27
preparado 27
preparados 27
priority 27
progreso 27
recuper@@ 27
reflection 27
relaxing. 27
relieve 27
religi@@ 27
rely 27
remos 27
remédios 27
respeit@@ 27
retain 27
rindas 27
risk. 27
romantic 27
saltar 27
sam@@ 27
scre@@ 27
seeking 27
shared 27
shine. 27
shoes. 27
sidade 27
simples 27
sole@@ 27
space. 27
sponge 27
stud@@ 27
successful 27
surpreen@@ 27
surprised 27
talento 27
territori@@ 27
ters. 27
tir@@ 27
totalmente 27
treatment 27
try. 27
ts, 27
ty, 27
ty@@ 27
tóxi@@ 27
uncover 27
uno 27
upda@@ 27
usando 27
usuarios 27
utilizar 27
vers 27
versity 27
vibrating 27
violencia 27
visão 27
vive 27
weekend. 27
what's 27
won 27
year@@ 27
you.""" 27
ándo@@ 27
áveis 27
ório 27
óti@@ 27
-me 26
/She 26
00 26
5. 26
Estaba 26
Ouviase 26
Pero 26
Podes 26
Prefiero 26
aco@@ 26
alumbrar 26
alvation 26
amansar 26
amp@@ 26
animado 26
apenas 26
appreci@@ 26
aprendendo 26
arrived 26
artistas 26
asun@@ 26
ativi@@ 26
atten@@ 26
avanzar 26
ball. 26
base@@ 26
bel@@ 26
black 26
blood 26
brasile@@ 26
caballo 26
carne@@ 26
carniça 26
catador 26
cegonha 26
chees@@ 26
cle 26
cling 26
coco 26
colocar 26
comfortable. 26
condicións 26
consequences 26
consi@@ 26
contemp@@ 26
continuar 26
cream 26
crecer 26
cts. 26
curio@@ 26
cómodo 26
deeper 26
dele 26
deni@@ 26
dereito 26
ders. 26
descri@@ 26
descu@@ 26
desfiladeiro 26
después 26
difficulties 26
digital 26
discrimination. 26
dit@@ 26
electri@@ 26
emoções 26
ently 26
estabilidade 26
estea 26
estratégia 26
estud@@ 26
etas 26
ets. 26
experto 26
facão 26
financi@@ 26
firm@@ 26
foli@@ 26
follas 26
fora 26
foram 26
formación 26
forms 26
fotogra@@ 26
fountain 26
galo@@ 26
gam@@ 26
good. 26
grãos 26
harmon@@ 26
healthier 26
herir 26
holi@@ 26
honor 26
hours. 26
ili@@ 26
ily 26
impro@@ 26
industria 26
inesper@@ 26
infec@@ 26
infin@@ 26
ingredi@@ 26
inmediat@@ 26
inspiração 26
interest 26
interest@@ 26
involved 26
ion@@ 26
je 26
justificar 26
late. 26
later. 26
least 26
lemb@@ 26
looks 26
machete 26
mado 26
makeup 26
manifest@@ 26
marin@@ 26
measuring 26
meeting. 26
merece 26
moleta 26
motorcycle 26
mountains. 26
moved 26
movies 26
musi@@ 26
national 26
necessidades 26
negó@@ 26
neve 26
new@@ 26
non-@@ 26
numb@@ 26
obstacles 26
ofre@@ 26
organización 26
ouse 26
pag@@ 26
pai@@ 26
partner 26
países 26
pena 26
perceive 26
perman@@ 26
pis@@ 26
pizza. 26
ply 26
podía 26
policy 26
position. 26
pot@@ 26
pping 26
precau@@ 26
precisa@@ 26
precision 26
preda@@ 26
prefiro 26
presented 26
pressure. 26
profunda 26
progress 26
proper@@ 26
protected 26
pru@@ 26
puzz@@ 26
questão 26
quick 26
rada 26
realize 26
rebote 26
ride 26
road. 26
ron 26
ry. 26
satis@@ 26
seas@@ 26
second 26
sei@@ 26
she@@ 26
simpli@@ 26
sincer@@ 26
sinta 26
sións 26
son. 26
sorry, 26
spice 26
suces@@ 26
swor@@ 26
talent@@ 26
tame 26
tation 26
technological 26
thing@@ 26
tivi@@ 26
técnicas 26
típica 26
tó@@ 26
virtue 26
window 26
winter. 26
xar 26
xo 26
xog@@ 26
án 26
ância 26
ém 26
óxi@@ 26
4. 25
6@@ 25
Apren@@ 25
Christmas 25
Está 25
Fue 25
Mon@@ 25
Nada 25
Par@@ 25
Roman 25
Rubi 25
Ser 25
Sol@@ 25
aberto 25
abrazo 25
acompan@@ 25
adjust 25
agar@@ 25
agrião 25
alegria 25
aller@@ 25
aman@@ 25
amazed 25
aram 25
aspecto 25
ast 25
autoridades 25
axud@@ 25
be. 25
bele@@ 25
belong@@ 25
bird 25
blan@@ 25
bolero 25
bolo 25
brave 25
brea@@ 25
break@@ 25
brillar 25
cachimbo 25
calcul@@ 25
career 25
ced. 25
chameleon 25
choice. 25
churras@@ 25
cipoal 25
clients. 25
climáti@@ 25
clumsy 25
co, 25
cocin@@ 25
cola@@ 25
cold. 25
comentarios 25
comerci@@ 25
comú@@ 25
condition@@ 25
conditions. 25
confir@@ 25
consumption 25
contac@@ 25
contex@@ 25
coxinhas 25
cushion 25
cycles 25
debili@@ 25
decoración 25
dee@@ 25
depend 25
depender 25
desafí@@ 25
desajeitado 25
desatar 25
descubri@@ 25
desi@@ 25
dificultades 25
discutir 25
diseño 25
display 25
diálogo 25
dres@@ 25
duras 25
education. 25
effort. 25
elo 25
emotion 25
encontrado 25
end. 25
enfermidade 25
enseñ@@ 25
enterrar 25
eres 25
espaço 25
esponxa 25
essence 25
ethical 25
exces@@ 25
exhaus@@ 25
expan@@ 25
expe@@ 25
expectativas 25
external 25
fair@@ 25
fisherman 25
foun@@ 25
fr@@ 25
fuer@@ 25
games. 25
gasol@@ 25
ground. 25
hab@@ 25
healing 25
hing 25
hygien@@ 25
igeons 25
imperfe@@ 25
insult 25
its. 25
jogo 25
lada 25
lasting 25
laughter 25
lemon 25
literatura 25
ll. 25
llaboration 25
luz@@ 25
lâmpada 25
magia 25
mala 25
manera 25
mantener 25
materiais 25
medir 25
mentira 25
mira@@ 25
mission 25
moon 25
mountain@@ 25
máquina 25
móbil 25
necessidade 25
ner 25
obje@@ 25
offen@@ 25
ondas 25
origem 25
ouro 25
party? 25
physi@@ 25
po 25
ponto 25
posição 25
practicar 25
presença 25
preser@@ 25
prioridade 25
projects 25
propósito 25
proxecto 25
próxi@@ 25
queixo 25
queri@@ 25
regalo 25
relaj@@ 25
relaxed 25
relixi@@ 25
reunión 25
ring 25
river 25
sabe 25
sad 25
sangrar 25
satura@@ 25
sentindo 25
servizo 25
side. 25
sig@@ 25
silenci@@ 25
sity. 25
smi@@ 25
solit@@ 25
somb@@ 25
something. 25
sorpresa 25
sources 25
stre@@ 25
sujetar 25
t? 25
tari@@ 25
taste. 25
teatro 25
tempos 25
ters 25
tex@@ 25
texture. 25
theater 25
ther. 25
tivos 25
trabalha@@ 25
tranquilo 25
trapped 25
tt@@ 25
ular 25
unexpected 25
usto@@ 25
vale 25
vegetari@@ 25
vehicle 25
vidas 25
violence 25
virtue. 25
volu@@ 25
vulnerable 25
want. 25
week. 25
yed 25
za, 25
ál@@ 25
ás@@ 25
ños 25
ón, 25
"N@@ 24
Asegúrate 24
Come@@ 24
Havia 24
Ocupar 24
Tal 24
Ten@@ 24
abelhas 24
able, 24
acto 24
actor 24
ading 24
advan@@ 24
aer@@ 24
agitada 24
alcoholic 24
aled 24
alguns 24
alleviate 24
anza 24
aper@@ 24
aphragmatic 24
aque@@ 24
ase@@ 24
asse@@ 24
asu@@ 24
ato 24
axudalo 24
ayudar 24
bag 24
bañ@@ 24
baño 24
beat 24
beb@@ 24
became 24
bibliote@@ 24
bicicle@@ 24
bike 24
cabritos 24
campainha 24
cans@@ 24
capacidad 24
case@@ 24
censura 24
challeng@@ 24
champanhe 24
changes. 24
characteris@@ 24
chegar@@ 24
chifres 24
chor@@ 24
ciar 24
clási@@ 24
coidado 24
comb@@ 24
companies 24
compassion 24
condicion@@ 24
conversa@@ 24
conversation. 24
convinced 24
corner 24
corri@@ 24
coste@@ 24
cousa 24
creati@@ 24
cultivate 24
cultures 24
defend 24
develo@@ 24
devourer 24
diet 24
difíciles 24
diu 24
doorbell 24
dão 24
dúbi@@ 24
early 24
económico 24
electrical 24
ercress 24
erto 24
espazo 24
estima@@ 24
estudo 24
evol@@ 24
exciting. 24
expli@@ 24
faded 24
failure. 24
fatores 24
feelings 24
feelings. 24
fing@@ 24
fire@@ 24
flowers. 24
free@@ 24
friend@@ 24
friendly 24
froitas 24
féri@@ 24
gargarejo 24
gel@@ 24
gn@@ 24
govern@@ 24
grandmother 24
gration 24
habit 24
handle 24
haps 24
heard. 24
high-quality 24
histórias 24
homemade 24
honesty 24
humana 24
impedir 24
ined 24
infanti@@ 24
ing? 24
initi@@ 24
innovación 24
integra@@ 24
integrate 24
integridade 24
interfer@@ 24
internacional 24
interpersonal 24
investig@@ 24
ire 24
itali@@ 24
ixa 24
jogos 24
jui@@ 24
jury 24
justa 24
labi@@ 24
lac@@ 24
largo 24
laun@@ 24
leadership 24
load 24
ma, 24
magn@@ 24
matter. 24
med@@ 24
micro@@ 24
misión 24
mover 24
night@@ 24
noctur@@ 24
normas 24
nun@@ 24
office 24
office. 24
orar 24
organi@@ 24
organization. 24
pasear 24
pasión 24
pasteis 24
path@@ 24
perfeito 24
permitirnos 24
perseverancia 24
pesar 24
pie 24
posibles 24
pped 24
pregun@@ 24
prevenção 24
principais 24
privacy 24
problem, 24
propias 24
prosper@@ 24
ques@@ 24
raposa 24
re? 24
recommended 24
reducing 24
repeti@@ 24
respectful 24
rest. 24
restaurant 24
restaurante 24
rewar@@ 24
risks. 24
ro, 24
rock. 24
rápida 24
scrat@@ 24
sentir@@ 24
sentín 24
seren@@ 24
sinxelo 24
sle@@ 24
soccer 24
solution." 24
soños 24
spin@@ 24
spirit 24
sport 24
sto 24
style. 24
superfici@@ 24
tac@@ 24
termos 24
thank 24
thetic 24
tonight. 24
tropical 24
tí@@ 24
universe. 24
uri@@ 24
usadas 24
vacation. 24
values. 24
ves@@ 24
visual 24
wearing 24
wh@@ 24
wish 24
with@@ 24
worked 24
y's 24
óxica 24
​​@@ 24
""The 23
..." 23
100 23
Déixame 23
Ensoño 23
Gi@@ 23
Gran@@ 23
Poder@@ 23
Sopla 23
Só 23
Te 23
abrir 23
accident@@ 23
acer@@ 23
ache@@ 23
aches 23
active 23
adecuada 23
alización 23
apoya 23
ath@@ 23
atrás 23
authenti@@ 23
autoestima 23
barri@@ 23
bañar 23
beiju 23
blame 23
boar@@ 23
bomb@@ 23
bonito 23
buil@@ 23
cabeça 23
came 23
camiñar 23
campa@@ 23
carefully 23
cargo 23
ccion@@ 23
celebration 23
cent 23
center 23
certa 23
certifica@@ 23
ceñ@@ 23
chamar 23
child@@ 23
ciclos 23
cle. 23
cociñar 23
code 23
coisa 23
colors. 23
compaix@@ 23
compares 23
compañ@@ 23
compra 23
comu@@ 23
conmi@@ 23
connection. 23
contempor@@ 23
correct. 23
coun@@ 23
countries. 23
creativi@@ 23
cristal 23
código 23
damage 23
decepcion@@ 23
dedication 23
defender 23
deixa 23
dele@@ 23
delicatessen 23
dende 23
derly 23
desafíos 23
desbloquear 23
desenvolvemento 23
destituição 23
deter@@ 23
direitos 23
discuss 23
disfra@@ 23
divertido 23
economy. 23
educational 23
ei@@ 23
eles 23
embar@@ 23
empre@@ 23
encontr@@ 23
equilíbrio 23
er." 23
escalada 23
escolher 23
espectacul@@ 23
específica@@ 23
essen@@ 23
estal@@ 23
estiv@@ 23
esto@@ 23
estra 23
evento 23
execu@@ 23
exercícios 23
expect 23
experiência 23
exter@@ 23
extreme 23
ey@@ 23
factor 23
fan@@ 23
fascinating. 23
fast@@ 23
feedback 23
felicidad 23
fell 23
festiv@@ 23
fici@@ 23
fle@@ 23
fomentar 23
frequ@@ 23
frutas 23
fying 23
gando 23
gato 23
glas@@ 23
gnition 23
grand@@ 23
gues 23
hang 23
humor@@ 23
ida 23
identificar 23
ilumin@@ 23
imaxe 23
impida 23
increí@@ 23
ing.""" 23
inging 23
interrup@@ 23
issue. 23
laugh@@ 23
leads 23
level. 23
life@@ 23
liquidate 23
loc@@ 23
longer. 23
lumin@@ 23
madeira 23
mark 23
material. 23
mean@@ 23
middle 23
miner@@ 23
mos@@ 23
moto 23
movies. 23
mática 23
naturale@@ 23
nav@@ 23
nuevos 23
oneself. 23
opinions. 23
oral 23
org@@ 23
origin@@ 23
pai 23
parecer 23
parella 23
passa@@ 23
past. 23
peace@@ 23
peix@@ 23
pelliz@@ 23
pensamentos 23
percep@@ 23
persoal 23
pesca 23
plat@@ 23
pocket 23
poñ@@ 23
pp@@ 23
receiving 23
reciproci@@ 23
recoñecemento 23
ref@@ 23
refin@@ 23
remain 23
ren 23
repar@@ 23
resist 23
resource 23
respira@@ 23
routine. 23
rural 23
rus@@ 23
saciar 23
sacrifi@@ 23
sadness 23
sair 23
salud 23
sand@@ 23
schedule 23
seguridad 23
services. 23
since 23
skinning 23
slowly 23
sobre@@ 23
spicy 23
spread 23
stage 23
stal@@ 23
stic 23
sting 23
street. 23
strong. 23
succes@@ 23
sun. 23
tados 23
task. 23
threat 23
ties." 23
tive. 23
tomorrow. 23
tori@@ 23
tradicional 23
traveling 23
treat@@ 23
tristeza 23
turas 23
unforgettable 23
us." 23
ustice 23
valuable. 23
versátil 23
vir 23
viru@@ 23
water@@ 23
well-being 23
wick 23
zi@@ 23
zou 23
¿Qué 23
ária 23
ço@@ 23
ério 23
índice 23
ú 23
última 23
"Aínda 22
30 22
6. 22
Algu@@ 22
Biscoitos 22
Depender 22
Devo 22
Eles 22
Galician 22
Japanese 22
Si@@ 22
Uma 22
Yor@@ 22
abordar 22
acal@@ 22
accin@@ 22
account. 22
achment 22
adequada 22
adiante 22
ads 22
advantage 22
afer@@ 22
agens 22
alternativa 22
altitude 22
answ@@ 22
anxiety. 22
apoyo 22
appe@@ 22
appear@@ 22
arqui@@ 22
arquite@@ 22
arro@@ 22
artists 22
assault 22
ast@@ 22
avan@@ 22
avo@@ 22
balance. 22
baloncesto 22
bed@@ 22
begins 22
better@@ 22
bod@@ 22
braid 22
brillante 22
bruñir 22
busy 22
but@@ 22
cabal@@ 22
cade@@ 22
camping 22
capazes 22
carecer 22
causou 22
chang@@ 22
charge 22
charuto 22
chemical 22
chew 22
cicatrices 22
cigar 22
cigar@@ 22
cinema. 22
circunstan@@ 22
citizenship. 22
ciudad 22
clients 22
clou@@ 22
coheren@@ 22
collaboration 22
collective 22
combine 22
communica@@ 22
competición 22
compren@@ 22
comprender 22
comput@@ 22
concert 22
conflicts. 22
conne@@ 22
consist@@ 22
constructive 22
coo@@ 22
cooki@@ 22
creatu@@ 22
crimin@@ 22
crowd 22
crucial. 22
ctor 22
culturais 22
cumpri@@ 22
damos 22
date 22
de, 22
debulhador 22
decide 22
decidiu 22
dedicación 22
delicadeza 22
depende 22
desenganchar 22
deseño 22
desire 22
destruction 22
detail@@ 22
detalles 22
diabéticos 22
dif@@ 22
differen@@ 22
difficul@@ 22
dimen@@ 22
dinner 22
discovering 22
dispoñi@@ 22
diz@@ 22
dora 22
drag@@ 22
dre@@ 22
drinking 22
duración 22
e-@@ 22
ecol@@ 22
economia 22
edi@@ 22
egoí@@ 22
eleg@@ 22
emergen@@ 22
empe@@ 22
en, 22
enfren@@ 22
enfron@@ 22
ensorship 22
ents 22
ero@@ 22
especialmente 22
esperança 22
espor@@ 22
est. 22
estrela@@ 22
ests 22
evidence 22
expectations 22
expectativ@@ 22
extin@@ 22
falla 22
fas 22
fat@@ 22
fly 22
foot@@ 22
forgot 22
fox 22
fresca 22
friendship 22
fulfilling 22
gastrono@@ 22
gent@@ 22
gif@@ 22
gorge 22
great@@ 22
hand. 22
happen. 22
hear 22
hermo@@ 22
hesitate 22
historias 22
hobby. 22
hoo@@ 22
horn 22
humanity. 22
ido@@ 22
igre@@ 22
illa 22
immune 22
inspir@@ 22
instrumentos 22
investimentos 22
iron 22
ish@@ 22
it.""" 22
itude 22
job@@ 22
joy. 22
lad@@ 22
learn@@ 22
leva 22
lexislación 22
licar 22
liderança 22
limited 22
lúa 22
maiores 22
mate 22
mean 22
medida 22
ment." 22
menta 22
menti@@ 22
messa@@ 22
metal 22
missal 22
mix@@ 22
morning 22
motivation. 22
mou@@ 22
mysterious 22
nacion@@ 22
nas@@ 22
necessário 22
nervous 22
news 22
normal@@ 22
nível 22
ocasi@@ 22
olo@@ 22
one." 22
or, 22
organization 22
ort@@ 22
ouri@@ 22
ouvi@@ 22
pacientes 22
pack@@ 22
pado 22
palm 22
paren@@ 22
pase@@ 22
perform 22
person's 22
pezas 22
peça 22
plant@@ 22
plantação 22
plena 22
port 22
possibilities 22
possible." 22
posta 22
pren@@ 22
progre@@ 22
proof 22
psi@@ 22
psycho@@ 22
quar@@ 22
real@@ 22
reality 22
recommend 22
reminder 22
rough 22
scare 22
school 22
season. 22
seguranza 22
sensitive 22
sharp 22
sho@@ 22
sient@@ 22
significado 22
sing. 22
sino 22
sleeping 22
snow. 22
soaked 22
sometimes. 22
somos 22
soubo 22
spectacular 22
spiritual 22
start. 22
str@@ 22
strengthen 22
structu@@ 22
support. 22
sustain@@ 22
sy@@ 22
syn@@ 22
sé@@ 22
taining 22
talent 22
tam 22
también 22
technology. 22
therapy 22
threw 22
tic@@ 22
tion.""" 22
tir 22
tradition 22
tranquili@@ 22
transcen@@ 22
trat@@ 22
trato 22
tubarões 22
und 22
uras 22
usi@@ 22
value. 22
variar 22
vary 22
verdadeiros 22
verde 22
vers. 22
vers@@ 22
vibrava 22
visto 22
wild 22
wit@@ 22
worn 22
writ@@ 22
xardí@@ 22
xuí@@ 22
yer 22
yourself." 22
zed 22
zonas 22
Anotar 21
Cul@@ 21
Earth. 21
Eso 21
Euro@@ 21
Gu@@ 21
Inter@@ 21
Mis 21
New 21
Trata 21
aceite 21
acion@@ 21
admi@@ 21
adversity. 21
afor@@ 21
ala 21
alerta 21
alle@@ 21
amar@@ 21
amazing 21
amontonadas 21
anotar 21
ans. 21
ansiedade 21
artistic 21
asalto 21
assu@@ 21
ate@@ 21
att@@ 21
attac@@ 21
attemp@@ 21
autenti@@ 21
avoiding 21
azul 21
balón 21
bas@@ 21
beating 21
bebedouro 21
benestar 21
bling 21
blocked 21
bury 21
calor 21
camera. 21
caminha@@ 21
capacete 21
case. 21
castor 21
castores 21
causing 21
cele@@ 21
cheia 21
cheio 21
chocolates 21
ciclo 21
citizens. 21
ciuda@@ 21
claro 21
cocos 21
compa@@ 21
complicated 21
compras 21
conectado 21
construción 21
conveni@@ 21
corporate 21
coxinha 21
criatividade 21
criti@@ 21
crítica 21
dance. 21
danç@@ 21
dare 21
dawn 21
debaixo 21
desaguar 21
desarme 21
descanso 21
desig@@ 21
destrución 21
detailed 21
determinar 21
detrás 21
diafragma 21
difficulty 21
dimension@@ 21
discriminación 21
dise@@ 21
divertida 21
dly 21
dobrar 21
dog@@ 21
ed." 21
ell 21
encontra@@ 21
ente@@ 21
entrar 21
ernos 21
es.""" 21
escen@@ 21
esfuer@@ 21
espera 21
espéci@@ 21
estimul@@ 21
exac@@ 21
experiencing 21
expressing 21
factors 21
faga 21
fainos 21
farm 21
frecu@@ 21
frescos 21
ft 21
gate 21
gañou 21
ged. 21
gia 21
girl 21
goal@@ 21
gol 21
graf@@ 21
grow@@ 21
grupos 21
guei 21
hambúrgu@@ 21
happening. 21
hed 21
herit@@ 21
hidra@@ 21
hip@@ 21
hit 21
hope@@ 21
hy@@ 21
idio@@ 21
ign 21
igual@@ 21
inclusion 21
informações 21
infra@@ 21
inspira 21
integral 21
intelligent 21
intimi@@ 21
investir 21
ira, 21
issue 21
journey. 21
justice. 21
keys 21
land 21
land@@ 21
landscape. 21
leep 21
legendary 21
lic 21
lici@@ 21
lower 21
macaco 21
machine 21
maravilho@@ 21
mbi@@ 21
metal@@ 21
meth@@ 21
mind@@ 21
minor@@ 21
mizar 21
monkey 21
motion 21
muscle 21
mãos 21
mí 21
músicos 21
naturais 21
noche 21
nosotros 21
nuevas 21
objetivo 21
off. 21
ológi@@ 21
opções 21
orgulloso 21
others, 21
paisaxe 21
pass 21
pedras 21
pele 21
pequenos 21
perdas 21
permi@@ 21
plantation 21
poe@@ 21
poesía 21
policy. 21
posing 21
power@@ 21
preserv@@ 21
preserve 21
previ@@ 21
prime@@ 21
promover 21
propos@@ 21
práti@@ 21
public. 21
raised 21
re.""" 21
received 21
recompen@@ 21
recoñe@@ 21
refrescante 21
regano 21
remove 21
reprodu@@ 21
requiren 21
resolución 21
responsab@@ 21
responsable 21
roller 21
rules 21
río 21
sacrificar 21
scal@@ 21
seal 21
secret 21
sector. 21
sele@@ 21
sentia 21
shing 21
slow 21
sound. 21
special. 21
spectator 21
speed. 21
spir@@ 21
spo@@ 21
stork 21
subesti@@ 21
subi@@ 21
substitu@@ 21
surpri@@ 21
surprising 21
systems. 21
terri@@ 21
thoughts 21
thre@@ 21
tions." 21
torno 21
total 21
treasure. 21
tremble 21
ts." 21
understanding. 21
ups 21
us, 21
utiliza 21
vacacións 21
vas@@ 21
vermel@@ 21
viaj@@ 21
video@@ 21
widely 21
word 21
â@@ 21
"Estamos 20
"Excúsame, 20
10 20
9. 20
American 20
As@@ 20
Carecemos 20
Ci@@ 20
Da@@ 20
Decidín 20
Fiz 20
Fui 20
Había 20
Irá 20
Qué 20
Ruby 20
Senti@@ 20
aborda@@ 20
accordion 20
address 20
advanta@@ 20
affe@@ 20
agic 20
alcan@@ 20
aliança 20
aliva 20
almo@@ 20
ants. 20
anyone. 20
apar@@ 20
ared 20
argling 20
arias 20
arrinconar 20
asumir 20
atender 20
attend 20
authorities 20
authoriz@@ 20
away. 20
bardo 20
bas 20
baseada 20
bathroom 20
bbing 20
bed. 20
bet 20
bla@@ 20
boun@@ 20
brake 20
branco 20
brisa 20
bs 20
cabalgar 20
calm. 20
ce.""" 20
celebrating 20
cellphone 20
cendo 20
chegou 20
chibata 20
chifre 20
cido 20
class 20
clear. 20
cobras 20
cocinar 20
collabor@@ 20
collea@@ 20
commitment. 20
communicate 20
competition 20
comprensi@@ 20
computer. 20
conce@@ 20
confident 20
conflitos 20
conhecer 20
consumi@@ 20
convenient 20
countries 20
creatividad 20
crime 20
crit@@ 20
culinary 20
curious 20
células 20
cía 20
cútis 20
damente 20
decidi@@ 20
delivered 20
demasi@@ 20
democra@@ 20
demonstrate 20
dependence 20
depends 20
deportes 20
desenvolvimento 20
destino 20
details 20
diafragmática 20
digo 20
disciplin@@ 20
discipline 20
distance 20
distribu@@ 20
dol@@ 20
duration 20
dust 20
débe@@ 20
eager 20
educação 20
elimin@@ 20
emergency 20
empathy. 20
ench@@ 20
encias 20
enfermi@@ 20
environ@@ 20
equip@@ 20
era@@ 20
error 20
escondidinho 20
espectáculo 20
espinha@@ 20
ester@@ 20
estrutura 20
estudar 20
está@@ 20
evalu@@ 20
event 20
exclusive 20
exi@@ 20
experiencias 20
explicar 20
exten@@ 20
fazendo 20
festival 20
fiel 20
field 20
field. 20
for. 20
foto 20
freshly 20
friendship. 20
gently 20
gets 20
giveness 20
gradu@@ 20
graphi@@ 20
grazas 20
grow. 20
habil@@ 20
happines@@ 20
him@@ 20
himself 20
hope. 20
ible 20
illnes@@ 20
ils. 20
impres@@ 20
imprevi@@ 20
incomparable. 20
indicate 20
inho 20
innovation. 20
inov@@ 20
ins. 20
inscrición 20
inspired 20
inspires 20
int 20
inteligen@@ 20
inven@@ 20
invest@@ 20
involun@@ 20
irre@@ 20
ish 20
iting 20
justiça 20
ked. 20
later@@ 20
lease, 20
leite 20
less. 20
lider@@ 20
lish 20
loss 20
mag@@ 20
manh@@ 20
mathema@@ 20
meaningful 20
mel 20
mesmos 20
meters 20
monar@@ 20
monit@@ 20
mother. 20
multip@@ 20
mutual 20
mystery 20
máqu@@ 20
near 20
necessary." 20
neighbor 20
net 20
net@@ 20
nice 20
notur@@ 20
ods 20
of. 20
olhos 20
optimi@@ 20
ore 20
organized. 20
outside 20
ow, 20
películas 20
pensando 20
perdido 20
perfu@@ 20
permiti@@ 20
plano 20
plu@@ 20
poñer 20
precipit@@ 20
preferen@@ 20
presentou 20
preservar 20
priva@@ 20
product. 20
production. 20
programas 20
proporcion@@ 20
propri@@ 20
protex@@ 20
proteção 20
próprio 20
pública 20
rainy 20
rebound 20
recogni@@ 20
recurso 20
reflect 20
refriger@@ 20
refu@@ 20
regras 20
renovar 20
represents 20
reza 20
ried 20
rival 20
roidery 20
romano 20
rubi 20
rup@@ 20
ré@@ 20
sado 20
sal 20
salv@@ 20
satisfac@@ 20
saying 20
selar 20
serenar 20
serve 20
services 20
sett@@ 20
señ@@ 20
situações 20
soil 20
sonar, 20
sonido 20
soon. 20
spices 20
sten@@ 20
strategy. 20
strength@@ 20
succe@@ 20
sunny 20
sup@@ 20
sure. 20
swimming 20
tamanho 20
tamente 20
tant@@ 20
tea. 20
tered 20
textu@@ 20
thy 20
ties, 20
time, 20
tolerance 20
tool. 20
trail 20
transportation. 20
travel. 20
trilha 20
true. 20
turning 20
uncertain@@ 20
unci@@ 20
valorar 20
via@@ 20
vuelo 20
waves 20
wil@@ 20
win 20
xemel@@ 20
zu@@ 20
éri@@ 20
ífi@@ 20
"Se@@ 19
3. 19
7 19
8. 19
Amar 19
Concordo 19
Deixei 19
Emperor 19
English@@ 19
French 19
Intenta 19
Italian 19
Muitos 19
Sacrificar 19
Xadear 19
aband@@ 19
abcessos 19
abetics 19
acci@@ 19
accura@@ 19
achieved 19
acústica 19
adaptar@@ 19
addi@@ 19
adventu@@ 19
adventure, 19
afect@@ 19
afeta 19
agir 19
agitou 19
ago@@ 19
agrad@@ 19
ai 19
amable 19
amantes 19
amontonados 19
anywhere. 19
apnea 19
apologi@@ 19
apon@@ 19
apro@@ 19
aproxima@@ 19
aquela 19
argument@@ 19
arma 19
arrojou 19
ars 19
aspect 19
assets 19
associated 19
atmos@@ 19
atmosphere. 19
attack 19
aumento 19
ayudarte 19
baixa 19
barre@@ 19
bb@@ 19
beaver 19
beijo 19
beneficial 19
beyond 19
bicycle 19
birth 19
birthday. 19
bloo@@ 19
bolsa 19
bra 19
brand 19
breeze 19
bus 19
calibra@@ 19
casu@@ 19
catapult 19
catapulta 19
champagne 19
choosing 19
choring 19
chronic 19
chá 19
cidadania 19
civi@@ 19
cks. 19
climbing 19
cloning 19
cloth@@ 19
colgar 19
colorful 19
combat 19
comigo 19
concentrate 19
concre@@ 19
conducir 19
confron@@ 19
confun@@ 19
cong@@ 19
conscien@@ 19
conse@@ 19
contin@@ 19
contribute 19
convi@@ 19
crian@@ 19
cuer@@ 19
cuida@@ 19
curren@@ 19
cycli@@ 19
decidi 19
decir 19
dei 19
demos 19
dene@@ 19
deny 19
departamento 19
desactivar 19
desbo@@ 19
descontos 19
dessa 19
destro@@ 19
details. 19
dificult@@ 19
disast@@ 19
discrimination 19
disease 19
diversos 19
door@@ 19
durmir 19
dy@@ 19
elétri@@ 19
emotion@@ 19
empatia 19
employe@@ 19
encontrada 19
ende@@ 19
enemy 19
ensur@@ 19
era. 19
erra 19
escritor 19
escupir 19
especiali@@ 19
especially 19
esperan@@ 19
esportes 19
estivesse 19
estratégi@@ 19
ethics 19
everyday 19
exhibi@@ 19
exig@@ 19
expert 19
expla@@ 19
exteri@@ 19
fa 19
fabri@@ 19
facil@@ 19
fail@@ 19
fascinated 19
favorite. 19
featu@@ 19
fera 19
fighting 19
financiera 19
finish 19
finish@@ 19
firme 19
first. 19
fit@@ 19
flower 19
foods. 19
fully. 19
garanti@@ 19
gentle 19
geometri@@ 19
gerar 19
geta@@ 19
gober@@ 19
government 19
granxear 19
grou@@ 19
guarda-@@ 19
hac@@ 19
hard@@ 19
hate 19
heat 19
helmet 19
hosp@@ 19
humble 19
igualdad 19
imagine 19
imaxin@@ 19
implica 19
impossible 19
incen@@ 19
incerte@@ 19
incluir 19
increasingly 19
indica 19
indicates 19
inscri@@ 19
instructions 19
integr@@ 19
interese 19
interven@@ 19
intimida@@ 19
intri@@ 19
isn't 19
jar@@ 19
journey, 19
k." 19
liar 19
lla 19
llas 19
located 19
logro@@ 19
lun@@ 19
líderes 19
manex@@ 19
massa@@ 19
materials. 19
medio@@ 19
meditation 19
mejor@@ 19
melan@@ 19
memory. 19
memóri@@ 19
mentar 19
mir 19
mmer 19
multidão 19
museu@@ 19
musicians 19
neck 19
nephe@@ 19
ner. 19
objectives. 19
oking 19
once 19
ons. 19
operation 19
oriz@@ 19
ovos 19
paixão 19
pants 19
partici@@ 19
patient 19
pellar 19
percibir 19
pes. 19
phone. 19
pintura 19
plásti@@ 19
podería 19
policía 19
posibilidades 19
precisão 19
preventing 19
prevention 19
prexuí@@ 19
principi@@ 19
profundi@@ 19
programming 19
pré@@ 19
puido 19
quanti@@ 19
quanto 19
queren 19
racial 19
rans@@ 19
rather 19
reaching 19
realistic 19
recur@@ 19
relaxado 19
religion 19
representa 19
road 19
románti@@ 19
rua 19
run@@ 19
sacrifici@@ 19
satisfy 19
satisfying 19
sea@@ 19
sell 19
sentirse 19
served 19
service. 19
setting 19
sight 19
sive. 19
slee@@ 19
sm@@ 19
snow@@ 19
sola@@ 19
solar 19
someone. 19
sonhos 19
sono 19
sor 19
soñar 19
spirit. 19
sque@@ 19
ster 19
stran@@ 19
strange 19
sts. 19
subestimes 19
suffer@@ 19
support@@ 19
surfboard 19
sus@@ 19
sushi. 19
sustento 19
tasks 19
teeth 19
terapi@@ 19
term. 19
teña 19
thoughts. 19
til@@ 19
time." 19
toxic 19
traballamos 19
track 19
tranquilidade 19
transformar 19
trança 19
tratada 19
tratam@@ 19
travel@@ 19
unhas 19
united 19
van 19
vanta@@ 19
veci@@ 19
verse 19
versi@@ 19
veter@@ 19
vinta@@ 19
violence. 19
volunt@@ 19
worried 19
xiety 19
xurado 19
xusta 19
xusti@@ 19
yearn 19
áre@@ 19
"Ex@@ 18
"Precisamos 18
Ad@@ 18
Agrade@@ 18
Bra@@ 18
Care@@ 18
D 18
Levo 18
Neces@@ 18
Nu@@ 18
Onde 18
Pasear 18
Preci@@ 18
Qual 18
abandono 18
acceder 18
accident. 18
accomplice." 18
acoplamento 18
added 18
admirable 18
advanced 18
ages 18
ago 18
amazing. 18
ank@@ 18
anta 18
appreciated 18
arrendamento 18
arroz 18
arru@@ 18
artí@@ 18
asal@@ 18
athle@@ 18
autoesti@@ 18
automa@@ 18
autorización 18
auténti@@ 18
avaliar 18
avers 18
awkward 18
ay@@ 18
ayud@@ 18
azul@@ 18
bacteri@@ 18
bail@@ 18
barcos 18
beber 18
begin 18
beings. 18
beverages 18
bien@@ 18
blue. 18
bondade 18
bonds 18
bottle 18
boy 18
bright@@ 18
broken. 18
caminar 18
cano@@ 18
canudo 18
capacity 18
caracter@@ 18
career. 18
certos 18
cima 18
cimiento 18
circumstances. 18
cións, 18
classi@@ 18
clear@@ 18
clonación 18
coastal 18
coat 18
colaboração 18
color@@ 18
começou 18
company's 18
complicated. 18
comprei 18
comunidades 18
concha 18
condições 18
controle 18
convencido 18
cooked 18
cooperación 18
couple 18
crianças 18
cros@@ 18
cré@@ 18
cuali@@ 18
cuber@@ 18
cump@@ 18
cuse 18
customer@@ 18
darkness 18
daughter 18
debts 18
deciding. 18
decisão 18
decorated 18
degra@@ 18
dejes 18
deliciosa 18
demônio 18
dent. 18
dependendo 18
depres@@ 18
desparramaron 18
dino@@ 18
dinossauros 18
direction. 18
discounts 18
discoura@@ 18
distancia 18
dog. 18
domesti@@ 18
dormir 18
dy. 18
económica 18
econômi@@ 18
ef@@ 18
efectos 18
efforts 18
eficaz 18
eira 18
eli@@ 18
else. 18
ends. 18
enhance 18
enjo@@ 18
equal 18
errores 18
escuri@@ 18
esencia 18
espu@@ 18
eta 18
evacu@@ 18
exaxer@@ 18
excessive 18
excesso 18
exposición 18
exóti@@ 18
fago 18
failu@@ 18
fantasy 18
femin@@ 18
fer 18
filla 18
fim 18
financeira 18
fixe@@ 18
flavor@@ 18
frozen 18
fruta 18
fullest. 18
fume 18
garantizar 18
general 18
gens 18
gent 18
gers 18
gost@@ 18
guitar 18
h, 18
hacerlo 18
hambur@@ 18
hando 18
hardware 18
ideias 18
iding 18
illuminating 18
iluminando 18
incluso 18
increas@@ 18
inflama@@ 18
influenciar 18
integrity 18
interpon@@ 18
inverno 18
invited 18
ising 18
ismo 18
jantar 18
jewel@@ 18
journe@@ 18
jump 18
jump@@ 18
kes. 18
knows 18
lantern 18
legen@@ 18
lesi@@ 18
leve 18
lha 18
life.""" 18
limi@@ 18
listen@@ 18
lively 18
livros 18
lls 18
llu@@ 18
líder 18
líquido 18
maintenance 18
mante@@ 18
measu@@ 18
measurement 18
med. 18
medicamentos 18
milit@@ 18
minimali@@ 18
mistake. 18
miz@@ 18
mode@@ 18
modo 18
motivate 18
naturaleza 18
necesarios 18
necesidad 18
necessária 18
nenh@@ 18
nie@@ 18
noise. 18
now." 18
occupy 18
océ@@ 18
olóxi@@ 18
oney 18
outdoors. 18
oxi@@ 18
paciência 18
para@@ 18
pasado, 18
passionate 18
patri@@ 18
pegada 18
pel@@ 18
pelas 18
películ@@ 18
pensab@@ 18
people@@ 18
perfect. 18
perigo 18
pesca@@ 18
peças 18
pices 18
picnic 18
pir@@ 18
pit@@ 18
placa 18
planos 18
plays 18
poetry 18
poin@@ 18
policial 18
ppe@@ 18
ppopotamuses 18
practice. 18
preocupar@@ 18
prever 18
princip@@ 18
principal 18
produced 18
property 18
protects 18
protegi@@ 18
proteí@@ 18
prove@@ 18
prática 18
rascar 18
reac@@ 18
recognize 18
recomenda@@ 18
reflexionar 18
regain 18
regre@@ 18
rendi@@ 18
renew 18
renovación 18
repe@@ 18
research. 18
respected 18
respectu@@ 18
response. 18
responsibilities. 18
restricións 18
ria 18
ribs 18
rico 18
romp@@ 18
rose 18
rules. 18
s! 18
sagra@@ 18
sando 18
sapos 18
saur@@ 18
scen@@ 18
sección 18
segunda 18
self-esteem. 18
sentence 18
servir 18
settle 18
shoe 18
site. 18
sneaker 18
solici@@ 18
solicitu@@ 18
someone's 18
sour@@ 18
spiritu@@ 18
sport@@ 18
stability. 18
standing 18
stories. 18
strategic 18
stret@@ 18
subestimar 18
suf@@ 18
sugar. 18
surfac@@ 18
surface 18
symbo@@ 18
sá@@ 18
sível 18
sólo 18
tasty. 18
tação 18
tears 18
teat@@ 18
tely. 18
temperat@@ 18
tempestade 18
tempo, 18
tension. 18
tes, 18
teñas 18
theme 18
themselves 18
thresher 18
tiem@@ 18
tinu@@ 18
tividade 18
tolerant 18
topi@@ 18
tory 18
traspasar 18
tratado 18
treasury 18
tress 18
trigo 18
trust. 18
une 18
user 18
vacation 18
valu@@ 18
varied 18
vict@@ 18
vio@@ 18
wat@@ 18
weak@@ 18
week@@ 18
weeks. 18
whatever 18
who@@ 18
wind. 18
wine. 18
xuíz 18
xé@@ 18
zin@@ 18
ística 18
"Com 17
"Estou 17
' 17
-nos 17
1 17
Acariciar 17
Acu@@ 17
Deberiamos 17
Gústanme 17
Há 17
Latin 17
Lembra 17
Melhor 17
Meu 17
Nós 17
Poderías 17
Quizais 17
Renacer 17
Sou 17
Vi 17
abil@@ 17
above 17
abu@@ 17
acadar 17
acreditar 17
acrificing 17
acti@@ 17
actividad 17
actualiz@@ 17
additional 17
adecuado 17
admired 17
adul@@ 17
advice 17
aging 17
alcanz@@ 17
alcanç@@ 17
alcohólicas 17
alert 17
algum 17
alize 17
almacen@@ 17
amic 17
anks 17
ança 17
aring 17
ary. 17
asked 17
aster 17
ataque 17
ating@@ 17
ats. 17
aula 17
autoriz@@ 17
aving 17
bac@@ 17
balls 17
benefíci@@ 17
bles@@ 17
box. 17
breath 17
cantar 17
card 17
carefully. 17
caress 17
casos 17
casti@@ 17
cate@@ 17
celebr@@ 17
certeza 17
child 17
chocolat@@ 17
cimento 17
cina 17
civil 17
clase 17
clearly 17
climbing. 17
colhe@@ 17
combination 17
combusti@@ 17
comfort@@ 17
commonly 17
compaixón 17
compassion. 17
completa 17
concerto 17
configu@@ 17
confort@@ 17
conhecimento 17
conqui@@ 17
consci@@ 17
conserv@@ 17
considerado 17
considering 17
conten@@ 17
cooking. 17
corren@@ 17
correspon@@ 17
corro@@ 17
coupling 17
coz@@ 17
cozinha 17
craz@@ 17
crer 17
criaturas 17
crime. 17
cristal@@ 17
crow@@ 17
crunchy 17
cup 17
curity 17
customiz@@ 17
cuts 17
cáli@@ 17
d? 17
danger. 17
danza 17
dazzling. 17
deixe 17
dependencia 17
desafio 17
desarrollo 17
dese 17
desempen@@ 17
desesper@@ 17
desinfe@@ 17
desinfectar 17
detección 17
diabóli@@ 17
dibu@@ 17
difficulties. 17
disappe@@ 17
disgusting 17
disinfe@@ 17
dizer 17
dle 17
drive 17
dubides 17
dú@@ 17
dúas 17
ears 17
ecological 17
efficiency 17
ejercicio 17
elec@@ 17
energ@@ 17
eno@@ 17
enrolar 17
ensina 17
entertain@@ 17
entrada 17
er's 17
escapar 17
esp@@ 17
especializ@@ 17
eter@@ 17
exagger@@ 17
excel@@ 17
exci@@ 17
excur@@ 17
exotic 17
expectations. 17
experien@@ 17
experimentou 17
extract 17
família 17
faróis 17
fascinates 17
faul@@ 17
fazia 17
feeling. 17
ference 17
fes@@ 17
fire. 17
fixed 17
forest 17
fork 17
frio 17
frío 17
function@@ 17
gender 17
ger. 17
geralmente 17
gho@@ 17
glú@@ 17
grain 17
grati@@ 17
gratidão 17
gratifican@@ 17
gratitud 17
guil@@ 17
guitar. 17
hacer@@ 17
harmonia 17
haven't 17
hearts 17
held 17
hen@@ 17
hin@@ 17
ho, 17
homem 17
horror 17
hydra@@ 17
hábito 17
illuminate 17
image. 17
importo 17
including 17
inju@@ 17
instrucións 17
interpondrá 17
interromp@@ 17
involucra@@ 17
irs. 17
issues. 17
ista 17
jud@@ 17
keeps 17
kindness 17
laran@@ 17
laundry 17
lavagem 17
law@@ 17
leader 17
lef@@ 17
leis 17
levou 17
lifesty@@ 17
liked 17
limão 17
lipsti@@ 17
lleno 17
logy 17
lost. 17
loyal 17
luga@@ 17
luzca 17
machine. 17
manexo 17
manutenção 17
maravil@@ 17
match 17
meal 17
meal. 17
measures. 17
medicin@@ 17
medicina 17
medicine. 17
meditación 17
memories 17
menor 17
mera 17
merece@@ 17
meter 17
mirar 17
mission. 17
mit 17
miti@@ 17
muchas 17
myself@@ 17
nadar 17
neces@@ 17
neighbor@@ 17
nervo@@ 17
news. 17
nostalgi@@ 17
nuevo 17
ní@@ 17
obstacle. 17
obstáculo 17
offer. 17
ome 17
oni@@ 17
ordenador 17
order. 17
origin 17
painting 17
pantalla 17
parecía 17
past, 17
payment 17
pensamento 17
pergun@@ 17
perpe@@ 17
pestici@@ 17
photo 17
ping. 17
planej@@ 17
plas@@ 17
play. 17
poderia 17
policies. 17
practicing 17
preço 17
proye@@ 17
queremos 17
quiet 17
quil@@ 17
ra, 17
radio 17
ram 17
rapidamente 17
read. 17
reason@@ 17
recoñecer 17
recti@@ 17
recy@@ 17
refined 17
refres@@ 17
region. 17
regions. 17
relajar@@ 17
reminded 17
replace 17
rer@@ 17
resistir 17
responsabilidades 17
responsi@@ 17
restri@@ 17
retro@@ 17
review 17
rhythm 17
ries 17
rig@@ 17
rindas, 17
rotina 17
rush 17
rying 17
salad 17
sand. 17
satisfied 17
sca@@ 17
scientific 17
sector 17
secu@@ 17
segre@@ 17
segundo 17
sens@@ 17
separate 17
servizos 17
shake 17
shes 17
simbo@@ 17
sist@@ 17
situation@@ 17
sm. 17
smile. 17
smooth@@ 17
sob 17
solucion@@ 17
species. 17
spinach 17
spon@@ 17
ss 17
sta, 17
straw 17
stressful 17
stron@@ 17
subje@@ 17
successfully 17
sue@@ 17
suffer 17
sympto@@ 17
séri@@ 17
sí 17
tail@@ 17
tamaño 17
tarxeta 17
tasks. 17
tenemos 17
terr@@ 17
test 17
thouses 17
told 17
tone 17
tool@@ 17
tornar 17
town 17
tranquility. 17
traz 17
trein@@ 17
tro 17
truck 17
truth@@ 17
trânsito 17
tuning 17
títulos 17
ual 17
vag@@ 17
velo@@ 17
vem 17
verdadeiramente 17
versión 17
very. 17
vibrar 17
victi@@ 17
virtual 17
voar 17
wall. 17
ways. 17
we're 17
wood 17
writer 17
ye 17
yoga. 17
zer 17
âni@@ 17
éndo@@ 17
íci@@ 17
ógi@@ 17
"Debemos 16
'll 16
Ax@@ 16
Esa 16
Esper@@ 16
Halloween 16
Impoñer 16
Muitas 16
Nat@@ 16
Ofre@@ 16
Son 16
Voy 16
aba@@ 16
abilities 16
abolición 16
acei@@ 16
aco 16
acopl@@ 16
actites 16
activar 16
adequate 16
adiestrar 16
ages. 16
agul@@ 16
aje 16
ajustar 16
ameaça 16
aming 16
ampla 16
anno@@ 16
apart@@ 16
aplicación 16
applica@@ 16
apresentava 16
aquatic 16
arrebatou 16
asegurarnos 16
associ@@ 16
asust@@ 16
ath 16
avail@@ 16
avião 16
avó 16
ayu@@ 16
ban 16
banheiro 16
basis 16
belong 16
ber 16
betra@@ 16
biggest 16
blin@@ 16
bonita 16
bordado 16
bosqu@@ 16
braking 16
bread 16
brilliant 16
broken 16
c, 16
cab@@ 16
cake. 16
called 16
camar@@ 16
caz@@ 16
cedo 16
cei 16
ceiling 16
cemos 16
charac@@ 16
chur@@ 16
cian 16
cient@@ 16
cir 16
citizen@@ 16
cleare@@ 16
cock@@ 16
coexistence. 16
colate 16
coment@@ 16
comments. 16
compañe@@ 16
compañía 16
comply 16
compromise 16
concentrar 16
considerados 16
consistent 16
constante@@ 16
continuous 16
corda 16
correo 16
correu 16
corte 16
corvos 16
coti@@ 16
cou@@ 16
courage@@ 16
creer 16
crimes 16
crisis. 16
cál@@ 16
câncer 16
círculo 16
daqu@@ 16
decoration. 16
dedication. 16
demasiada 16
dencia 16
dendo 16
deputado 16
derechos 16
desarmar 16
despe@@ 16
detail 16
detall@@ 16
detectar 16
deten@@ 16
determined 16
deteñas 16
devil 16
dge 16
diaphragm 16
diferenza 16
dificul@@ 16
disfraz 16
distance. 16
dix@@ 16
downward 16
dívidas 16
econom@@ 16
ef. 16
elabor@@ 16
elonging 16
els. 16
else 16
else@@ 16
ene@@ 16
ening 16
enjoyed 16
enor@@ 16
entusias@@ 16
equilibrada 16
escri@@ 16
esgotar 16
esi@@ 16
especiais 16
especie 16
espect@@ 16
esquilo 16
estas 16
estudi@@ 16
estímulo 16
excelentes 16
excell@@ 16
exceptional 16
excitement 16
exercises 16
experiences 16
experiences. 16
expressar 16
facemos 16
facili@@ 16
famo@@ 16
fanáticos 16
ferencia 16
festivals 16
fiel@@ 16
figh@@ 16
financeiro 16
flexible 16
flor@@ 16
focu@@ 16
folding 16
fondo 16
forest@@ 16
forgive 16
formed 16
foto@@ 16
frango 16
friendshi@@ 16
fulfill 16
funciona 16
gargan@@ 16
gas@@ 16
ge, 16
glob@@ 16
grato 16
grão 16
guitarra 16
hacerse 16
hal@@ 16
health@@ 16
hes@@ 16
high-@@ 16
horizon. 16
igrexa 16
illness. 16
imple@@ 16
impostores 16
incl@@ 16
inclinação 16
incredibly 16
incómo@@ 16
inferi@@ 16
ingu@@ 16
inspiring. 16
intelligence 16
investimento 16
invitation 16
invite 16
jornada 16
keeping 16
landscap@@ 16
lascívia 16
led@@ 16
level@@ 16
levels. 16
libr@@ 16
light@@ 16
limpa 16
linha 16
liquid 16
listo 16
llar 16
lled 16
llena 16
llev@@ 16
loud 16
lump 16
luxu@@ 16
macizo 16
madurez 16
magic 16
mando 16
matemáti@@ 16
materials 16
meat@@ 16
melh@@ 16
men 16
message 16
mista@@ 16
mobilidade 16
mobility 16
moral 16
mostra@@ 16
mpro@@ 16
much@@ 16
multiplicación 16
mundi@@ 16
muscles 16
muse@@ 16
mãe 16
mó@@ 16
nacional 16
nel 16
ners. 16
nervous. 16
nessa 16
notch 16
now? 16
nuev@@ 16
nursing 16
obstacle 16
obxe@@ 16
ocupar 16
ofi@@ 16
ofrece 16
oll@@ 16
oregano 16
orias 16
original 16
orix@@ 16
others." 16
ously 16
outono 16
overwhel@@ 16
paisagem 16
parar 16
parecem 16
particip@@ 16
passed 16
passion@@ 16
pastries 16
patter@@ 16
peda@@ 16
pego 16
peinar 16
peque@@ 16
perceived 16
performing 16
period 16
personalidade 16
pesco@@ 16
pesqui@@ 16
photograph@@ 16
plane@@ 16
planeta 16
poderoso 16
poes@@ 16
pois 16
porto 16
portrayed 16
positivos 16
possa 16
possível 16
pou 16
pper 16
predi@@ 16
presentación 16
preservation 16
primavera 16
priority. 16
processes. 16
processos 16
profesional 16
promoting 16
protecting 16
puntos 16
puri@@ 16
puxo 16
pô@@ 16
públicas 16
quad@@ 16
quarto 16
queix@@ 16
queria 16
rapaza 16
reason. 16
recep@@ 16
recomend@@ 16
refuse 16
regardless 16
rehabilit@@ 16
relacionado 16
religions 16
religiões 16
rende@@ 16
renewal 16
rep@@ 16
rescue 16
resilient 16
resolve 16
respecta 16
responder 16
responsabilidad 16
reve@@ 16
ropa 16
rosa 16
sabores 16
salu@@ 16
satisfaction 16
saying. 16
segui@@ 16
senso 16
sentimento 16
shin@@ 16
shirt 16
shower 16
significan@@ 16
simplest 16
simplicidade 16
site 16
smell@@ 16
sna@@ 16
sobremes@@ 16
socio@@ 16
software. 16
solidarity 16
soluções 16
song. 16
specialized 16
spee@@ 16
squirrel 16
stan@@ 16
state@@ 16
storm 16
stres@@ 16
subject 16
suspe@@ 16
t-@@ 16
tambalear 16
tat@@ 16
technolo@@ 16
ted." 16
tel 16
temper@@ 16
tería 16
that? 16
thicket 16
thir@@ 16
this." 16
thou@@ 16
thought. 16
thrilled 16
tindo 16
traffic. 16
trai@@ 16
tranquility 16
transfer@@ 16
transform 16
transporting 16
trees. 16
trembling 16
turbul@@ 16
tén 16
ud@@ 16
udging 16
ultiplication 16
uncomfortable 16
und. 16
unidos 16
users 16
vacinação 16
vacy 16
vation 16
vely. 16
verdader@@ 16
versáti@@ 16
veículo 16
vibra@@ 16
violation 16
viu 16
voo 16
wake 16
walk. 16
warmth 16
wasn't 16
wasting 16
wealth 16
wed 16
wedding 16
wet 16
win. 16
worldwide. 16
wrong. 16
ximnasi@@ 16
xunto 16
xénero 16
águas 16
ático 16
âmica 16
época 16
ída 16
último 16
"Vaia, 15
%@@ 15
+ 15
-lo 15
1. 15
10@@ 15
4 15
8 15
African 15
Ainda 15
Algun@@ 15
Bañar 15
Bi@@ 15
Col@@ 15
Deberíamos 15
Estab@@ 15
Fran@@ 15
Gar@@ 15
Gastar 15
God. 15
Gracias 15
Great 15
Iso 15
Lev@@ 15
Masticar 15
Puedo 15
S 15
Ser@@ 15
Ti 15
Z@@ 15
abandon@@ 15
abertos 15
able." 15
abolition 15
abstra@@ 15
accessible 15
accidents. 15
aceler@@ 15
ached 15
achieve. 15
acho 15
acompañ@@ 15
acumul@@ 15
addres@@ 15
adjusted 15
advertising 15
advice. 15
affection 15
affection. 15
agrade@@ 15
agricultural 15
agrí@@ 15
ajudou 15
alcance 15
amily 15
amin@@ 15
ams 15
anas 15
andar 15
antigas 15
appropriate. 15
approval 15
apre@@ 15
aproveit@@ 15
architectu@@ 15
architecture 15
arra@@ 15
arrogan@@ 15
ass@@ 15
assust@@ 15
atistics 15
ativas 15
atro@@ 15
attack. 15
autono@@ 15
auténtico 15
aventura, 15
axe 15
bad@@ 15
bandi@@ 15
bandon@@ 15
barbecue. 15
bard 15
barul@@ 15
bebi@@ 15
being. 15
benef@@ 15
bens 15
beso 15
bikinis 15
bli@@ 15
blu@@ 15
bolas 15
bras 15
breath@@ 15
bub@@ 15
budget@@ 15
busines@@ 15
cabra 15
cadeira 15
call@@ 15
camente 15
cansa@@ 15
canti@@ 15
capa@@ 15
características 15
carnaval 15
cases. 15
castración 15
catadores 15
cell 15
chain 15
chance. 15
charu@@ 15
cheddar 15
ching. 15
chão 15
cia, 15
cip@@ 15
circun@@ 15
co-@@ 15
colina 15
cometer 15
coming. 15
compasión 15
compañeiros 15
compli@@ 15
comprometidos 15
comunicar@@ 15
concentr@@ 15
concentration 15
conexão 15
conflict 15
conflito 15
confortável 15
confused. 15
consciente 15
conseguiu 15
continue. 15
conveniente 15
cool@@ 15
cop@@ 15
cordi@@ 15
cordo 15
corrida 15
cot@@ 15
courage. 15
coñeci@@ 15
cream@@ 15
credi@@ 15
criminal 15
cuar@@ 15
cuestion@@ 15
cuisine 15
cumplean@@ 15
curiosity 15
cutting 15
d's 15
dabon@@ 15
dam 15
daquela 15
darkness. 15
day! 15
day, 15
deafening. 15
debu@@ 15
decisiones 15
declar@@ 15
deixando 15
dem@@ 15
dense 15
deputy 15
desafios 15
desajeit@@ 15
descar@@ 15
desen@@ 15
desintegrar 15
desis@@ 15
desse 15
detalhes 15
diagno@@ 15
dialogue 15
diapasón 15
dies. 15
dignidade 15
disconnect 15
disguise 15
disponí@@ 15
dispu@@ 15
distân@@ 15
dium 15
dness 15
doct@@ 15
dom@@ 15
dos, 15
dow@@ 15
dreaming 15
drink. 15
drá@@ 15
dência 15
e? 15
easi@@ 15
easy. 15
edit@@ 15
effort@@ 15
eggs 15
eiro 15
elegante 15
eliminar 15
eling 15
email 15
embrace 15
empat@@ 15
emperor 15
employees. 15
encar@@ 15
ender 15
endless 15
enfrentando 15
engra@@ 15
ensu@@ 15
entor@@ 15
ers' 15
escoller 15
especiaria 15
espel@@ 15
espetáculo 15
espin@@ 15
espinhaço 15
espí@@ 15
estavan 15
estes 15
eternal 15
exam. 15
exhau@@ 15
eye 15
fair. 15
fans 15
feren@@ 15
feri@@ 15
ffiti 15
ficien@@ 15
fits 15
flat 15
floor. 15
formation 15
fortalecer 15
fumaça 15
funcionando 15
function. 15
ge." 15
gers. 15
gest@@ 15
gestão 15
gether 15
ght@@ 15
gin@@ 15
government. 15
gozar 15
grabbed 15
grafite 15
grains 15
gratitude. 15
guarante@@ 15
guard 15
gue@@ 15
habitación 15
harm 15
harmful 15
harmony. 15
healthy. 15
heav@@ 15
hell 15
hill 15
hitting 15
hobbi@@ 15
honestidad 15
hood. 15
hou 15
hour. 15
háb@@ 15
i-@@ 15
idan 15
immediately. 15
imposible 15
imprescindible 15
inclusão 15
incre@@ 15
indicator@@ 15
individual 15
influenci@@ 15
influencia 15
influír 15
insects 15
intercambio 15
invaded 15
invadiu 15
investments 15
irá 15
itable 15
ite@@ 15
itself. 15
ión 15
jardin@@ 15
jumping 15
justo 15
kni@@ 15
law 15
laying 15
leer 15
lei 15
len 15
lendario 15
leta 15
library. 15
licen@@ 15
lifestyle. 15
limits. 15
lines 15
lish@@ 15
lity 15
llevar 15
loita 15
loja 15
loving 15
ly, 15
maci@@ 15
main@@ 15
mali@@ 15
mano 15
marca@@ 15
maríti@@ 15
masti@@ 15
mble. 15
mbo@@ 15
meaning. 15
meat. 15
mechani@@ 15
mecáni@@ 15
medicine 15
members. 15
membros 15
memoria 15
miento 15
minutes. 15
mistak@@ 15
mitigate 15
mize 15
mming 15
mochil@@ 15
montar 15
mouth. 15
movimento 15
mulle@@ 15
mur@@ 15
mão 15
mú@@ 15
negocio 15
ners 15
ningunha 15
noites 15
nostal@@ 15
numer@@ 15
númer@@ 15
occasion. 15
ofe@@ 15
ofer@@ 15
officer 15
ofrecer@@ 15
oil. 15
on." 15
opportun@@ 15
oppres@@ 15
organizing 15
orgâni@@ 15
ories. 15
ough 15
oun@@ 15
ouvir 15
oí@@ 15
pande@@ 15
pant@@ 15
pantal@@ 15
paradi@@ 15
participar 15
pelu@@ 15
peor 15
perce@@ 15
perfumes 15
perseverança 15
período 15
pets. 15
photography. 15
pickers 15
pirâmides 15
planear 15
plants. 15
pleasant. 15
please 15
pleasure 15
pode@@ 15
points 15
político 15
potential. 15
pover@@ 15
pper@@ 15
precisando 15
precisión 15
presas 15
presentation 15
problema, 15
procurado 15
producir 15
productivity. 15
promi@@ 15
pronto 15
propios 15
prosperi@@ 15
protege 15
prova 15
provi@@ 15
própri@@ 15
publi@@ 15
puni@@ 15
putting 15
pés 15
queima@@ 15
querer 15
quie@@ 15
quiero 15
radio@@ 15
rag@@ 15
raise 15
recordar 15
regarding 15
regiões 15
regulación 15
regulation 15
relaciones 15
remain@@ 15
remedies 15
remote 15
repa@@ 15
reserving 15
resh 15
resilience 15
ress 15
resto 15
resulta 15
results 15
rice 15
rowing 15
ruido@@ 15
run. 15
rão 15
saborosa 15
sadness. 15
safe. 15
salt 15
salvar 15
satisfacción 15
satisfaction. 15
sax@@ 15
scu@@ 15
section 15
segredo 15
selection 15
self-confidence. 15
self. 15
semana 15
seria 15
serious@@ 15
sermos 15
setor 15
sever@@ 15
shaking 15
shell 15
shone 15
sled 15
slow@@ 15
sm 15
snake 15
sonor@@ 15
speaking 15
stir@@ 15
stock 15
stood 15
structure 15
studying 15
submar@@ 15
success@@ 15
sul@@ 15
sunrise 15
suor 15
superi@@ 15
suporte 15
suporto 15
surfi@@ 15
surrounding 15
survi@@ 15
sw@@ 15
symptoms 15
sín@@ 15
tamos 15
tance 15
tante 15
tantes 15
teams 15
technique. 15
tecnologi@@ 15
tecting 15
teira 15
teléfon@@ 15
tern@@ 15
texture 15
that@@ 15
theat@@ 15
thin@@ 15
thri@@ 15
tight 15
tion? 15
tious 15
tissu@@ 15
tivation 15
toast 15
toothbrush 15
topo 15
torna 15
tos@@ 15
tourist 15
traditions. 15
traer 15
training. 15
transfor@@ 15
transforming 15
transi@@ 15
transparencia 15
transpor@@ 15
trombeta 15
trumpet 15
tráfego 15
turing 15
ulation 15
umbrella 15
unaccep@@ 15
uncertainty. 15
understan@@ 15
universo 15
update 15
upon 15
usa 15
vegetariana 15
vemos 15
vi 15
viaxes 15
vidade 15
vie@@ 15
vision. 15
vivi@@ 15
volta 15
vul@@ 15
wants 15
wardro@@ 15
wheat 15
window. 15
wonder 15
wool 15
xardin@@ 15
xusto 15
youn@@ 15
éi 15
ê 15
úti@@ 15
""Bohemian 14
""O 14
""O@@ 14
"De 14
"Hai 14
"É 14
)@@ 14
,@@ 14
20 14
9 14
Acabo 14
Agra@@ 14
Algumas 14
Although 14
Aprove@@ 14
Aquel 14
Aquelha 14
Atreverse 14
Axu@@ 14
Earth 14
Fixen 14
Jo@@ 14
Khan 14
Mudar 14
Obrigado 14
Pare@@ 14
Percibín 14
Precisas 14
Rhapsody@@ 14
Rodeei 14
Sent@@ 14
Sentín 14
TV@@ 14
Todas 14
Uni@@ 14
abi@@ 14
abismo 14
absolute 14
acari@@ 14
active. 14
actual 14
adaptarse 14
addiction. 14
adop@@ 14
adrenal@@ 14
advi@@ 14
afecta 14
african@@ 14
again@@ 14
agreement. 14
ak 14
alone, 14
altern@@ 14
aparición 14
aparência 14
aprendi@@ 14
armon@@ 14
arrive 14
artifici@@ 14
artificial 14
aspectos 14
astern 14
asustar@@ 14
atar 14
atoparemos 14
atos 14
atrá@@ 14
attitu@@ 14
atura 14
audience. 14
aul@@ 14
avali@@ 14
baby 14
bai@@ 14
banana 14
bank 14
barra 14
batt@@ 14
begin@@ 14
behavi@@ 14
bill@@ 14
bit@@ 14
book@@ 14
boots 14
born 14
brillaba 14
cabo 14
cados 14
caer 14
carreg@@ 14
caught 14
causes 14
cauti@@ 14
celestial 14
challenging 14
champ@@ 14
chas 14
cher@@ 14
cies. 14
cionais 14
circle 14
cisticercose 14
clari@@ 14
clarify 14
cles. 14
clásico 14
coci@@ 14
colectiv@@ 14
combina 14
combinación 14
comen@@ 14
compatible 14
compañeiro 14
compla@@ 14
compre@@ 14
compreen@@ 14
compres@@ 14
comprometido 14
concert. 14
condition. 14
cone 14
cone@@ 14
conhecido 14
conscientes 14
conscious 14
conve@@ 14
conveniencia 14
cooperation 14
correctamente 14
countryside 14
cremo@@ 14
cresci@@ 14
crise 14
critici@@ 14
cry@@ 14
críticas 14
cta 14
curiosidade 14
cycle 14
dades, 14
decidir 14
decisões 14
decre@@ 14
decrease 14
definan@@ 14
definir 14
deixedes 14
deliciosas 14
dem 14
demands 14
dence. 14
depart@@ 14
der, 14
desani@@ 14
deserves 14
desparramó 14
desperdi@@ 14
detection 14
diabó@@ 14
dies 14
different. 14
dinheiro 14
direito 14
discoun@@ 14
disease. 14
disfar@@ 14
disinfect 14
disman@@ 14
dispon@@ 14
diverse 14
dose 14
downs. 14
drama 14
dream. 14
drinks. 14
durable 14
easy, 14
easy-to-@@ 14
editation 14
efficient. 14
embra@@ 14
emotional. 14
ended 14
energía 14
enfrontar 14
enga@@ 14
engenharia 14
enriquece@@ 14
ensaladas 14
ental 14
eria 14
eron 14
escoitei 14
esperando 14
estable@@ 14
estación 14
estatísticas 14
estrada 14
estratexia 14
estre@@ 14
ests. 14
ethi@@ 14
event. 14
everywhere. 14
evidencia 14
exax@@ 14
exist. 14
existe 14
fall. 14
famous 14
fascinante 14
fast. 14
favourite 14
festi@@ 14
festivais 14
ff@@ 14
ficado 14
fiction 14
fidelidade 14
filling 14
fills 14
film 14
fine 14
firm 14
floor 14
flor 14
formar 14
fort 14
fuerza 14
full@@ 14
futebol 14
fé 14
ganas 14
gardens 14
ghten@@ 14
going. 14
graves 14
gue. 14
guerra 14
guided 14
guitar@@ 14
gul@@ 14
guía 14
gy@@ 14
gym 14
gê@@ 14
gú@@ 14
haber@@ 14
hacen 14
handkerchief 14
handling 14
happened. 14
happening 14
heada@@ 14
here." 14
hobby 14
homes 14
honesto 14
hot. 14
hydro@@ 14
ign@@ 14
ils 14
imagem 14
implement@@ 14
importar 14
improve@@ 14
improvement. 14
imun@@ 14
inapropi@@ 14
inconveni@@ 14
indicated 14
indí@@ 14
informed 14
inimi@@ 14
instrument. 14
integrar 14
intelixencia 14
interesado 14
interess@@ 14
interests. 14
invent@@ 14
investigar 14
investment. 14
issues 14
itch 14
jas 14
judg@@ 14
juego 14
key@@ 14
keys. 14
l, 14
langu@@ 14
laugh 14
laugh. 14
lead@@ 14
lectura 14
legs 14
leit@@ 14
letas 14
lif@@ 14
lines. 14
lingua 14
livre 14
liza 14
loading 14
loitar 14
loso@@ 14
ly@@ 14
managing 14
margin@@ 14
market@@ 14
mascavo 14
massage 14
may@@ 14
mañá 14
mechanical 14
meditar 14
mello@@ 14
mente, 14
mentes 14
mia 14
migos 14
minds 14
mirror. 14
mistakes, 14
mites 14
miú@@ 14
moment." 14
motocicletas 14
mountain. 14
mpkin 14
muller 14
museum 14
métri@@ 14
mía 14
mútu@@ 14
nam@@ 14
negli@@ 14
ney 14
ning@@ 14
object. 14
ocul@@ 14
oferta 14
offer@@ 14
ok@@ 14
older 14
oli@@ 14
ology 14
orange 14
ore@@ 14
organic 14
orz@@ 14
ous, 14
ousness 14
out." 14
own. 14
palav@@ 14
palmeira 14
parency 14
parez@@ 14
partir 14
pasa 14
passado 14
passen@@ 14
perfeita 14
permane@@ 14
perspectivas 14
pessoal 14
pet. 14
photography 14
photos 14
pier@@ 14
piqueni@@ 14
planet 14
planning. 14
plans. 14
pluma@@ 14
pollu@@ 14
poor 14
pop 14
possibility 14
pouca 14
preferi@@ 14
pressu@@ 14
prezo 14
princi@@ 14
priv@@ 14
private 14
profi@@ 14
provides 14
provo@@ 14
publicidade 14
pulled 14
pursue 14
ramento 14
rapide@@ 14
rare 14
raí@@ 14
rec@@ 14
recei@@ 14
recemos 14
recipe. 14
recognized 14
reflexo 14
regenerar 14
regenerate 14
registration 14
reiro 14
renew@@ 14
renewable 14
represented 14
rer 14
resiliencia 14
respirar 14
reti@@ 14
revie@@ 14
rigor@@ 14
robo@@ 14
ros@@ 14
rosas 14
rub 14
ruido 14
running. 14
sabedoria 14
sad. 14
sailing 14
salads. 14
samente 14
scar 14
scared 14
scien@@ 14
searching 14
sembrar 14
sers 14
serviços 14
shape. 14
shook 14
shop 14
shoul@@ 14
simplesmente 14
simplicity 14
siti@@ 14
skilled 14
skin@@ 14
sob@@ 14
solidari@@ 14
solidariedade 14
sosti@@ 14
sse@@ 14
stack 14
stars. 14
strar 14
stro 14
strongly 14
structure. 14
sty 14
subir 14
sueños 14
sufrir 14
suit@@ 14
superficie 14
superfíci@@ 14
surfer@@ 14
surprise. 14
survival 14
survival. 14
sustentabilidade 14
sweat@@ 14
syste@@ 14
síntomas 14
tamborilear 14
tendency 14
testemu@@ 14
therapy. 14
this, 14
thor@@ 14
tional. 14
tions, 14
tivity 14
together@@ 14
tomato 14
touching 14
tropica@@ 14
tude 14
turismo 14
turn. 14
técnico 14
unity 14
universe 14
unlock 14
unnecessary 14
ure. 14
urgent 14
utensili@@ 14
utilização 14
valentía 14
ve.""" 14
ver, 14
versos 14
verti@@ 14
veu 14
violación 14
vizinho 14
viño 14
vu@@ 14
wall@@ 14
watched 14
weap@@ 14
weapon 14
well." 14
well@@ 14
while. 14
wis@@ 14
wonderful. 14
workers. 14
worl@@ 14
world, 14
world@@ 14
xas 14
zap@@ 14
zir 14
zz@@ 14
á-la 14
ácido 14
áfi@@ 14
árvo@@ 14
ásti@@ 14
áticos 14
últi@@ 14
!@@ 13
"En 13
"Eu 13
"Na 13
"Polo 13
"Qu@@ 13
"Xa 13
% 13
-to-@@ 13
000 13
19@@ 13
6 13
Agarró 13
Algunhas 13
Ao 13
Braz@@ 13
Cabe 13
Cantar 13
Carezco 13
Coido 13
Cuspir 13
Déixate 13
Encántame 13
Juntos 13
Oferecemos 13
Ori@@ 13
Ouvi 13
P 13
Portug@@ 13
Ru@@ 13
Sería 13
Sigue 13
Sin@@ 13
Tam@@ 13
abondo 13
abor@@ 13
abordagem 13
abyss 13
accepted 13
aceit@@ 13
acha 13
ación, 13
acredito 13
across 13
activi@@ 13
acus@@ 13
ada, 13
adapted 13
ade 13
admirábel 13
adoran 13
afectados 13
agari@@ 13
agreement 13
ais, 13
alar 13
alização 13
alla 13
além 13
an, 13
analy@@ 13
anger 13
annoy@@ 13
answer." 13
antigos 13
anto 13
anxious 13
apaixon@@ 13
apasion@@ 13
apoyar 13
appla@@ 13
applications. 13
appoint@@ 13
aquellos 13
arian 13
aridade 13
arquitectura 13
asegurar 13
asegurarse 13
asilo 13
assaul@@ 13
assim 13
assun@@ 13
aster@@ 13
astonishment 13
atel@@ 13
ativos 13
atractiv@@ 13
auth@@ 13
authori@@ 13
authorization 13
aveia 13
axi@@ 13
axudoume 13
años 13
bailar 13
baile 13
bathe 13
bedroom. 13
beginning. 13
bel 13
beliefs. 13
belt 13
berry 13
bleed 13
blow@@ 13
bomba 13
bored. 13
bs. 13
buildings 13
by@@ 13
cable 13
cachorro 13
cakes 13
caminhar 13
camisa 13
cancer 13
canoes 13
captur@@ 13
carác@@ 13
casal 13
castra@@ 13
catapul@@ 13
ccup@@ 13
chan 13
chaves 13
cheese. 13
chicken 13
cicli@@ 13
ciendo 13
cious 13
climático 13
clouds 13
coast. 13
coast@@ 13
coconut 13
collaborative 13
comecei 13
compan@@ 13
competition. 13
complex. 13
compreensão 13
conceder 13
concentration. 13
concep@@ 13
concern 13
conectados 13
confiden@@ 13
conflicts 13
congelar 13
conmigo 13
consuming 13
contradi@@ 13
conv@@ 13
convenience 13
conviven@@ 13
cortina 13
corvo 13
counter@@ 13
course. 13
cozy 13
cre 13
creative. 13
credit 13
cruel@@ 13
cuidados 13
culpar 13
curto 13
customs 13
cut. 13
cían 13
dal@@ 13
dama@@ 13
dani@@ 13
data. 13
day." 13
deactivate 13
defeat 13
deixarse 13
democr@@ 13
democracy. 13
depar@@ 13
department 13
desactiv@@ 13
desbloque@@ 13
desconectar 13
desenvol@@ 13
desigualdade 13
desintegr@@ 13
despite 13
desta@@ 13
detalle 13
detect 13
dirty 13
disappoin@@ 13
disarmament 13
discovered 13
discussion. 13
diseases 13
disgui@@ 13
disintegra@@ 13
distintas 13
distintos 13
divino 13
done. 13
door. 13
draw 13
dried 13
dro 13
ds, 13
durar 13
earth 13
eat@@ 13
edade 13
edifici@@ 13
effectively. 13
effectiveness 13
effects 13
eficacia 13
eficiência 13
eg@@ 13
electronic 13
elix@@ 13
ellizcou 13
elétrica 13
emocionais 13
empty 13
encontro 13
encourage@@ 13
end." 13
enemi@@ 13
engadir 13
engineering. 13
eno 13
entertainment 13
enting 13
ently. 13
entrepreneur@@ 13
entrete@@ 13
envel@@ 13
envolvi@@ 13
equipos 13
eras@@ 13
escapada 13
escon@@ 13
escupas 13
esforz@@ 13
establi@@ 13
ested 13
estilos 13
estratéxi@@ 13
esté 13
etapa 13
everything, 13
evidence. 13
evolution 13
excessi@@ 13
exclu@@ 13
exercíci@@ 13
exp@@ 13
expand 13
expect@@ 13
expecting 13
expen@@ 13
experienced 13
exploring 13
extrato 13
extremely 13
factor@@ 13
faith. 13
faithful 13
fam@@ 13
familiar 13
fantasi@@ 13
fashi@@ 13
father. 13
fauna 13
favoritas 13
feli@@ 13
ficando 13
fiesta 13
file 13
filmes 13
filo@@ 13
firma@@ 13
fixen 13
force. 13
forração 13
fortes 13
fotografi@@ 13
fotografía 13
founda@@ 13
fronte@@ 13
fue 13
fío 13
galeão 13
galleon 13
garant@@ 13
gat@@ 13
gather 13
geren@@ 13
gic 13
gluten-free 13
grande@@ 13
gratul@@ 13
gravity 13
groups 13
grown 13
gry. 13
guests 13
guetes 13
guia 13
guilt 13
guish 13
ha, 13
hacerte 13
harmonious 13
haya 13
healthcare 13
helme@@ 13
herb@@ 13
hidden 13
historic 13
horiz@@ 13
horns 13
humi@@ 13
hurdy-gurdy 13
hábitos 13
illuminates 13
imagination 13
imagination. 13
imaxinación 13
imits 13
impact. 13
improve." 13
inappropriate 13
independen@@ 13
indispensable 13
industrial 13
industry 13
inflama 13
inha 13
inmo@@ 13
inspirar 13
intolerance. 13
introdu@@ 13
invitados 13
irmá@@ 13
irs 13
issu@@ 13
ist 13
itting 13
jes 13
jogar 13
jue@@ 13
ket 13
law. 13
lean@@ 13
ley@@ 13
libre@@ 13
limón 13
lingü@@ 13
liqui@@ 13
little. 13
longa 13
loyalty 13
lá 13
lógi@@ 13
m-@@ 13
machin@@ 13
mantenerse 13
manti@@ 13
maqui@@ 13
marabil@@ 13
marabillosa 13
marath@@ 13
masa@@ 13
mate@@ 13
maternidade 13
mazá 13
mbing 13
medios 13
mereces 13
meti@@ 13
metri@@ 13
midst 13
mie@@ 13
miedo 13
milk 13
mness 13
mo, 13
moderna 13
moderni@@ 13
mood 13
mos, 13
mother's 13
motivated 13
movement 13
mundo, 13
mystery. 13
myth@@ 13
máximo 13
negr@@ 13
neu@@ 13
neuro@@ 13
nib@@ 13
niños 13
non@@ 13
note 13
novation 13
observar 13
observe 13
oca@@ 13
od@@ 13
odo@@ 13
ofensi@@ 13
offered 13
ologi@@ 13
oloxía 13
oning 13
operating 13
opposing 13
ordin@@ 13
organ 13
orgul@@ 13
ous." 13
outon@@ 13
outside. 13
overall 13
pacífica 13
palabra 13
palavras 13
panor@@ 13
parecen 13
pareza 13
parques 13
participate 13
particul@@ 13
passo 13
pattern@@ 13
paxaros 13
pe, 13
pedal 13
pein@@ 13
perceber 13
perdeu 13
perdón 13
pernas 13
philoso@@ 13
photo@@ 13
piano 13
pie@@ 13
pinch 13
pinched 13
plo@@ 13
pobo@@ 13
point. 13
politi@@ 13
pollution 13
posture 13
poñerse 13
ppos 13
preguntas 13
preocupacións 13
presion@@ 13
proactiv@@ 13
proactive 13
problem-solving 13
promoción 13
promoção 13
propriedades 13
propó@@ 13
provided 13
pue@@ 13
puedes 13
question 13
rarse 13
realização 13
rebo@@ 13
reche@@ 13
reck@@ 13
reflexion@@ 13
reflexión 13
refreshing. 13
refuxi@@ 13
reje@@ 13
relaxante 13
relações 13
relev@@ 13
relo@@ 13
remembered 13
rendemento 13
resident@@ 13
resistant. 13
resistentes 13
resisti@@ 13
respons@@ 13
responsibilities 13
responsável 13
resul@@ 13
result. 13
reto 13
retos 13
return 13
rever@@ 13
revisión 13
richness 13
risk@@ 13
roda 13
routine 13
ruin 13
sabidur@@ 13
sac@@ 13
safety. 13
said 13
sail@@ 13
satisfa@@ 13
sauce. 13
savory 13
scratching 13
sculptu@@ 13
servido 13
ses, 13
shoo@@ 13
significativo 13
silencio 13
sity 13
smaller 13
sneakers 13
snowboar@@ 13
som@@ 13
sombra 13
sophistica@@ 13
soun@@ 13
spectacle 13
spectacular. 13
spine 13
st, 13
stac@@ 13
stant@@ 13
sted 13
stones 13
stored 13
strategies 13
strugg@@ 13
sudden 13
suficientes 13
suggestions 13
symboliz@@ 13
série 13
tad 13
tains 13
tarea 13
tase 13
taza 13
tching 13
teacher 13
techniques. 13
tecnología 13
telling 13
temas 13
temporal 13
teñ@@ 13
thing." 13
though 13
tick@@ 13
tienes 13
timate 13
tired. 13
to/a 13
together, 13
togra@@ 13
tooth@@ 13
topo@@ 13
touch. 13
trabaj@@ 13
trabajar 13
transformation. 13
transmiti@@ 13
triste 13
triun@@ 13
tros 13
tw@@ 13
téri@@ 13
típico 13
unable 13
underwater 13
unica@@ 13
unir 13
unknown 13
ury. 13
usel@@ 13
valent@@ 13
valente 13
valoriza 13
vegetab@@ 13
verses 13
version 13
violência 13
visit. 13
visited 13
vivo 13
volunteers 13
vulcáns 13
vão 13
want@@ 13
waved 13
way." 13
weaknesses. 13
weather. 13
wed. 13
wn. 13
wonders 13
xado 13
xardíns 13
xía 13
ya 13
you? 13
z, 13
zar@@ 13
zation 13
zed. 13
zement 13
¡La 13
¿Cómo 13
áci@@ 13
âmi@@ 13
ão, 13
ísti@@ 13
óni@@ 13
úe 13
ü@@ 13
"Co 12
-rich 12
50 12
Aprendamos 12
Asegura 12
Busca 12
Castrar 12
Chri@@ 12
Christ@@ 12
Correr 12
Esquecín 12
Europe@@ 12
Fale@@ 12
Fotografar 12
Gabriel 12
García 12
Indian 12
Levantou 12
Mas 12
Mexican 12
Minhas 12
Mu@@ 12
Necesitas 12
Nuest@@ 12
Ou 12
Ou@@ 12
Quebrei 12
Quei@@ 12
Realmente 12
Segue 12
Sexa 12
Spani@@ 12
Tent@@ 12
abaix@@ 12
abel@@ 12
about. 12
abraz@@ 12
abru@@ 12
abundan@@ 12
acaba 12
acabado 12
accompany 12
accumul@@ 12
accumulation 12
accurate 12
aceptación 12
acha@@ 12
aconche@@ 12
adaptación 12
ades 12
admirado 12
aeronave 12
affecting 12
afternoon 12
again." 12
agradecer 12
alco@@ 12
algun@@ 12
algunhas 12
alimentación 12
alist 12
ambo@@ 12
american@@ 12
ampli@@ 12
analyze 12
ancest@@ 12
ancla@@ 12
announ@@ 12
another. 12
ansi@@ 12
ap. 12
apar 12
aparen@@ 12
apart. 12
apost@@ 12
ar-@@ 12
arque@@ 12
arrimar 12
asegurate 12
ata@@ 12
ate, 12
ativo 12
atrapado 12
atraves@@ 12
attentive 12
aughter 12
auty 12
aver@@ 12
avión 12
axude 12
axust@@ 12
bait 12
balon@@ 12
banda 12
bati@@ 12
belief@@ 12
bes 12
beverages. 12
big. 12
bigger 12
biological 12
bled 12
bless@@ 12
board. 12
boats 12
bottom 12
boundaries 12
brain 12
brar 12
breathe 12
cabalo 12
cadea 12
cafe@@ 12
cambiou 12
camera 12
camión 12
canso 12
captiv@@ 12
car's 12
carbon 12
cardiovas@@ 12
carni@@ 12
carros 12
cass 12
casting 12
centuri@@ 12
ceremon@@ 12
cerve@@ 12
ces, 12
chair 12
challen@@ 12
charity 12
cheer@@ 12
chol@@ 12
chosen 12
cing. 12
cinto 12
civiliz@@ 12
clay 12
closed. 12
coidar 12
comedy 12
comfor@@ 12
comfort. 12
comichão 12
commit@@ 12
communities 12
communities. 12
compasi@@ 12
compassionate 12
compati@@ 12
component 12
componente 12
compri@@ 12
comunicar 12
comunit@@ 12
conditions 12
conexi@@ 12
confirm 12
connects 12
conoci@@ 12
consequ@@ 12
consumption. 12
continua 12
contr@@ 12
contribuir 12
controlled 12
conversar 12
convivência 12
coronavirus 12
correcto 12
correndo 12
cortes 12
cos, 12
covering 12
created 12
crema 12
crescer 12
criticism. 12
crumble 12
cróni@@ 12
cuenta 12
curry 12
curtain 12
curtains 12
cuán@@ 12
cã@@ 12
cére@@ 12
dad@@ 12
dark@@ 12
darlle 12
darme 12
das, 12
dding 12
dealing 12
debi@@ 12
decide. 12
deepen 12
deixei 12
deixo 12
delicacy 12
demais, 12
democratic 12
demográfico 12
demonstra@@ 12
dence 12
dental 12
ders 12
desafío 12
desajeitada 12
desastres 12
desbotada 12
descansar 12
descobrir 12
desenvolve@@ 12
desgast@@ 12
det@@ 12
diabolical 12
diabos 12
diamon@@ 12
did. 12
diet@@ 12
diferenças 12
difference. 12
diminu@@ 12
dinero 12
director 12
disappointed 12
disarm 12
dit. 12
drain 12
drinks 12
dying 12
día, 12
echoed 12
ecosystem. 12
ed.""" 12
edificio 12
ejerci@@ 12
ek 12
eliness 12
els 12
eléctrica 12
emble@@ 12
emociones 12
emotionally 12
enable 12
encomen@@ 12
encontrados 12
encuent@@ 12
ene 12
enferme@@ 12
ensal@@ 12
ented 12
enthusias@@ 12
entrega 12
enviar 12
equivoca@@ 12
escolhi@@ 12
escondidin@@ 12
escrever 12
escuridade 12
esenciais 12
esforço 12
espacio 12
established 12
estampa 12
estate 12
estrela 12
euro@@ 12
evaluate 12
events. 12
excesi@@ 12
exhausted. 12
expensive 12
explan@@ 12
explica@@ 12
exposure 12
facerme 12
faster 12
fati@@ 12
feasi@@ 12
feet. 12
ff 12
ficar@@ 12
fields. 12
finish. 12
fique 12
flas@@ 12
flash@@ 12
flashlight 12
flexibilidade 12
floating 12
flow 12
fogo 12
fold 12
fondos 12
foot 12
footprint 12
forest. 12
form. 12
formul@@ 12
fornecer 12
fortaleza 12
fose 12
frag@@ 12
freezing 12
frente 12
frequen@@ 12
fresh@@ 12
froze 12
fter 12
funny. 12
função 12
future." 12
fácil, 12
gen 12
gent. 12
genu@@ 12
gio 12
gir@@ 12
gna@@ 12
graphy 12
gratitude 12
gráfi@@ 12
gs. 12
gular 12
gym. 12
happ@@ 12
harder 12
hava 12
healing. 12
heres 12
histórico 12
hixi@@ 12
hoje 12
honey 12
house@@ 12
hoxe 12
humanity 12
humid@@ 12
humility. 12
hysi@@ 12
idado 12
ide 12
idioma 12
idos 12
illuminated 12
ilumina 12
impulsi@@ 12
inco@@ 12
increased 12
incri@@ 12
inesquecí@@ 12
inete 12
inexhaustible 12
inflammation 12
injuries. 12
innecesari@@ 12
insetos 12
inspi@@ 12
instruments. 12
insur@@ 12
integri@@ 12
intelligen@@ 12
interface 12
intoxi@@ 12
inversión 12
involve 12
involves 12
irmness 12
iro, 12
irresisti@@ 12
ise 12
jardim 12
jugar 12
know@@ 12
laboral 12
laborat@@ 12
lago 12
lam@@ 12
languages. 12
lap@@ 12
latest 12
lation 12
lawyer 12
laz@@ 12
leaders 12
lección 12
ledge 12
lesson 12
letting 12
levo 12
lidade 12
life's 12
lighting 12
linguaxe 12
lining 12
literature 12
lived 12
living. 12
locais 12
logy. 12
long. 12
lor@@ 12
loud. 12
loyalty. 12
lux@@ 12
lágrimas 12
língu@@ 12
mada 12
make. 12
making. 12
marabillas 12
marcar 12
mary 12
master@@ 12
mature 12
mau 12
mayor 12
measure@@ 12
meditate 12
memb@@ 12
ment, 12
mergul@@ 12
met 12
might 12
mine 12
mism 12
missing 12
mistake 12
mistura 12
month. 12
mor 12
music@@ 12
musica@@ 12
mán 12
nad@@ 12
naqu@@ 12
nari@@ 12
navegação 12
negar 12
neighborhood. 12
nerv@@ 12
ning, 12
nio 12
nit@@ 12
noisy 12
note@@ 12
noticias 12
novela 12
num 12
objectives 12
obstac@@ 12
ocup@@ 12
odolite 12
offee 12
oldest 12
olding 12
olor 12
ológico 12
omelette 12
omen 12
ope 12
operación 12
operation. 12
orders 12
orientación 12
ories 12
origin. 12
oring 12
orio 12
ornament@@ 12
ory. 12
otherhood 12
ought 12
ounos 12
ours. 12
pace 12
pace. 12
paint. 12
pais 12
paper. 12
paraí@@ 12
parking 12
participa@@ 12
partner. 12
partículas 12
passage@@ 12
pasta@@ 12
pattern 12
penso 12
pente@@ 12
perfect, 12
persoais 12
perspectives 12
pesado 12
peti@@ 12
peza 12
phy 12
pia 12
pick 12
picni@@ 12
pien@@ 12
pile 12
pista 12
plant 12
ple@@ 12
plying 12
po, 12
poderei 12
pportunities 12
praticar 12
preen@@ 12
presenta 12
presentation. 12
processed 12
productiv@@ 12
produtividade 12
produzido 12
profit@@ 12
promes@@ 12
promotion 12
properties 12
protexi@@ 12
proteínas 12
provocar 12
próprias 12
pé 12
quase 12
quebra@@ 12
quebrou 12
reciprocidade 12
recommenda@@ 12
recorda@@ 12
reduci@@ 12
reflect. 12
region 12
regulations. 12
relationship@@ 12
relaxes 12
relevant 12
repen@@ 12
report 12
respetu@@ 12
respiratory 12
retratados 12
revel@@ 12
rhyth@@ 12
rib 12
ries@@ 12
rir 12
river. 12
rme 12
rope 12
round 12
ry, 12
rúa 12
sabedoría 12
sabia 12
sabía 12
sacar 12
sailors 12
sandwi@@ 12
sangu@@ 12
satisfacer 12
satisfeito 12
saur 12
saída 12
scarf 12
scattered 12
school. 12
sear@@ 12
see. 12
seguindo 12
seguros 12
selección 12
self-esteem 12
semáfor@@ 12
sensation 12
seriousness 12
server 12
servidor 12
serving 12
shipping 12
ships 12
side@@ 12
silence. 12
sla@@ 12
smart 12
snac@@ 12
soa@@ 12
socializ@@ 12
soledad 12
solid@@ 12
someday. 12
soportar 12
sores 12
sorte 12
sosten@@ 12
sound@@ 12
special@@ 12
spr@@ 12
spre@@ 12
sso 12
stability 12
stable 12
stacked 12
stag@@ 12
standar@@ 12
staríame 12
staying 12
streets 12
stroke 12
stronger@@ 12
stru@@ 12
struggle 12
stunning. 12
suavemente 12
subject. 12
sufri@@ 12
sugestões 12
sunset 12
supoñía 12
surprises. 12
survive 12
suspi@@ 12
sweating 12
sweet@@ 12
swim 12
tail 12
tained 12
tambores 12
tangle 12
tanta 12
tation. 12
tatu@@ 12
tax@@ 12
tecnolóxi@@ 12
ted, 12
temporar@@ 12
teni@@ 12
terremo@@ 12
terror 12
text 12
teza 12
themselves. 12
tie 12
tien@@ 12
toca@@ 12
todo, 12
tomate 12
tomorro@@ 12
total@@ 12
tough@@ 12
tourism 12
tradicións 12
traditions 12
trained 12
tramp@@ 12
transformando 12
transformação 12
transparency 12
traveling. 12
trem 12
tribu@@ 12
tril@@ 12
trá@@ 12
turistas 12
típi@@ 12
umas 12
unciar 12
und@@ 12
unique@@ 12
unir@@ 12
up." 12
users. 12
vely 12
vered. 12
vering 12
verán 12
veñen 12
vibrate. 12
victory. 12
virtud 12
visiting 12
voi@@ 12
warning 12
we'll 12
weak 12
weaknes@@ 12
weal@@ 12
wee@@ 12
winning 12
woman 12
women. 12
work, 12
workers 12
works. 12
world." 12
wra@@ 12
xencia 12
xión 12
xorn@@ 12
year 12
yellow 12
yester@@ 12
yield 12
zone. 12
¿Has 12
Ábrete 12
á-las 12
ási@@ 12
éuti@@ 12
ês 12
í, 12
índo 12
óli@@ 12
úas 12
""I 11
"Isto 11
"Juntos, 11
"Já 11
20@@ 11
60 11
?@@ 11
Afron@@ 11
Amigos 11
Anclarse 11
Aprendi 11
Aprendo 11
Aprovamos 11
Atrévete 11
B 11
Beijar 11
Bloque@@ 11
Bus@@ 11
Cultivar 11
Day. 11
Debería 11
Deci@@ 11
Escupir 11
Europa 11
Extraño 11
Fico 11
Indi@@ 11
Jap@@ 11
Le 11
Levant@@ 11
Mad@@ 11
Madurar 11
Mantenha 11
Organi@@ 11
Organicei 11
Percibo 11
Pertencer 11
Posso 11
Queria 11
Vin 11
Zeppelin 11
a-se 11
abcesso 11
abled. 11
abon@@ 11
abrazos 11
abscess 11
abuse 11
acade@@ 11
acas 11
accessi@@ 11
accidente 11
accompanied 11
aclar@@ 11
acon@@ 11
acous@@ 11
acoustic 11
addiction 11
address. 11
adqui@@ 11
ads. 11
aes@@ 11
afron@@ 11
agricultura 11
aircraft 11
ak@@ 11
alarm 11
alg@@ 11
algar 11
alguma 11
alive 11
alliance 11
alliance. 11
alou 11
amor, 11
analysis. 11
anch@@ 11
antigo 11
aplau@@ 11
aplicações 11
apones@@ 11
apostes 11
apou 11
apoy@@ 11
app@@ 11
appear 11
application. 11
applied 11
apreciada 11
apresur@@ 11
apropi@@ 11
aproxi@@ 11
aquilo 11
aries 11
arise 11
armed 11
arrenda@@ 11
arrojou-se 11
arruinar 11
artes 11
aré 11
aside 11
assemble 11
assist@@ 11
assistance 11
asunto 11
atrévete 11
attended 11
attracting 11
attractive 11
aut@@ 11
autumn 11
avogado 11
axú@@ 11
azer 11
bab@@ 11
bagun@@ 11
baixar 11
bath@@ 11
bathroom. 11
bea@@ 11
bear 11
becomes 11
beer. 11
behind. 11
bei@@ 11
beings 11
believed 11
bene@@ 11
benefit 11
bleeding 11
blowing 11
bol 11
boring. 11
boundari@@ 11
breaking 11
budget 11
bura@@ 11
butter 11
butter@@ 11
bá@@ 11
bú@@ 11
cabelos 11
cacho@@ 11
cami@@ 11
candies 11
car, 11
carbono 11
cares@@ 11
carp@@ 11
causado 11
caval@@ 11
cave@@ 11
ccións 11
cel 11
cender 11
cermos 11
ch, 11
character. 11
check-@@ 11
chess 11
chewing 11
church. 11
ciais 11
cicatri@@ 11
cicatriz 11
científica 11
circumstan@@ 11
city@@ 11
claramente 11
clare@@ 11
class. 11
clean. 11
cleaning. 11
cles 11
climaterio 11
climb 11
coches 11
coexist@@ 11
cogni@@ 11
cola 11
colaborar 11
collaboration. 11
collection 11
colored 11
colum@@ 11
combined 11
comforting. 11
commercial 11
commun@@ 11
communicating 11
compartilhar 11
competitive 11
completar 11
complexo 11
complexos 11
compromis@@ 11
conchas 11
condition 11
confiável 11
conjunto 11
constantemente 11
construction. 11
contato 11
content. 11
conversación 11
cope 11
coraxe 11
cortinas 11
cosme@@ 11
cosméti@@ 11
cost 11
cotidi@@ 11
count 11
country's 11
craft 11
cratching 11
creativos 11
criação 11
criticism 11
cross 11
crítico 11
ction, 11
cuestións 11
cumprín 11
curiosidad 11
customize 11
customized 11
cá@@ 11
códi@@ 11
cómoda 11
d-@@ 11
damage. 11
damaged. 11
dangerous. 11
dap@@ 11
dd@@ 11
deactiv@@ 11
death. 11
deba@@ 11
deberían 11
defeated 11
delighted 11
delivery 11
democracia 11
demon@@ 11
dep@@ 11
depri@@ 11
depth 11
derre@@ 11
descul@@ 11
desfru@@ 11
desga@@ 11
desmentir 11
despejar 11
desserts. 11
destacou 11
destination 11
devida 11
devo@@ 11
diag@@ 11
diagnosed 11
die 11
differences. 11
dificuldades 11
dignity 11
direct@@ 11
directly 11
directrices 11
direção 11
discipl@@ 11
discurso 11
dito 11
document 11
dom 11
domé@@ 11
drums 11
ears. 11
earthquake 11
easily. 11
ecos@@ 11
ed, 11
edades 11
eding 11
ef 11
efecto 11
ego@@ 11
elevation 11
ema@@ 11
emotion. 11
emprego 11
ena 11
end, 11
enfer@@ 11
engineering 11
engrenagem 11
enjoy@@ 11
enop@@ 11
enorme 11
enos 11
enrique@@ 11
ensinache 11
ente, 11
enthusiast@@ 11
entr@@ 11
entrevi@@ 11
envío 11
equipment. 11
erdo 11
ering. 11
esas 11
escap@@ 11
esforzos 11
esférica 11
espal@@ 11
espremer 11
esquina 11
estacion@@ 11
estratexias 11
estrel@@ 11
exam@@ 11
excessivo 11
exciting." 11
exercises. 11
exist 11
experts 11
explicar@@ 11
fabrica@@ 11
facial 11
facilitate 11
factors. 11
facíao 11
failures 11
falling. 11
fastidi@@ 11
favo@@ 11
fear@@ 11
feature 11
fei@@ 11
feitos 11
felices 11
fic 11
ficción 11
figure. 11
fins 11
firme@@ 11
fiz 11
flavors 11
flexí@@ 11
fluctu@@ 11
fone 11
formi@@ 11
freeze 11
friend's 11
friends, 11
fuente 11
full. 11
fullest." 11
functioning 11
fundo 11
futur@@ 11
gante 11
gear 11
generations. 11
generous 11
get@@ 11
gether, 11
gir 11
gislation 11
gl@@ 11
gobier@@ 11
groups. 11
guen 11
gum 11
gur@@ 11
gustan 11
gusto 11
gy 11
happens 11
happier 11
harvest 11
he's 11
heal@@ 11
heigh@@ 11
height. 11
heiro 11
hero@@ 11
herself 11
hide 11
higien@@ 11
hinese 11
homen@@ 11
honra 11
hotography 11
huge 11
humildad 11
humilde 11
hung 11
idamos 11
ideais 11
ideia 11
ight@@ 11
igno@@ 11
iluminar 11
ily. 11
ily." 11
importante, 11
impressed 11
impru@@ 11
incorpor@@ 11
incredible. 11
incrível 11
indigenous 11
indústria 11
infer@@ 11
inje@@ 11
inosaurs 11
insensi@@ 11
insultar 11
intelli@@ 11
intereses 11
interfere 11
investidores 11
involve@@ 11
iso, 11
isure 11
itch@@ 11
item 11
itself 11
jac@@ 11
jacket 11
jaz@@ 11
jor@@ 11
jungle 11
la, 11
laptop 11
lava-@@ 11
leader. 11
leadership. 11
lealdade 11
leas@@ 11
leash 11
leav@@ 11
leaves. 11
lega@@ 11
legi@@ 11
legislation 11
les, 11
lessness 11
liderado 11
limitations. 11
linguistic 11
lit 11
litt@@ 11
lixe@@ 11
lli@@ 11
lonxe 11
los@@ 11
love, 11
loves 11
luxo 11
luxury 11
luzes 11
límite 11
macacos 11
magi@@ 11
magin@@ 11
mainten@@ 11
malo 11
manchas 11
mani@@ 11
manteiga 11
manufac@@ 11
maquillaxe 11
marcas 11
marinheiros 11
matters 11
matur@@ 11
mb 11
mbo 11
medieval 11
meditate. 11
meditation. 11
members 11
memories. 11
mensaxe 11
mida 11
minds. 11
ministra@@ 11
minori@@ 11
missão 11
molha@@ 11
monos 11
month@@ 11
motori@@ 11
movement. 11
mpre 11
muchos 11
multiple 11
museo 11
mutuamente 11
my@@ 11
mysteri@@ 11
míni@@ 11
móbil@@ 11
músculos 11
n, 11
navigation 11
negle@@ 11
neo 11
nervioso 11
nival 11
numa 11
nur@@ 11
nutrients. 11
offi@@ 11
old. 11
olhar 11
olives 11
olvi@@ 11
omb@@ 11
opponent 11
opportuni@@ 11
orixin@@ 11
others.""" 11
otra 11
oulle 11
outcome. 11
p, 11
paint 11
painting. 11
palp@@ 11
panturri@@ 11
paredes 11
parks 11
parri@@ 11
participation 11
particles 11
patients 11
paying 11
pei 11
peixes 11
penci@@ 11
pensan 11
perigoso 11
permit@@ 11
permitir@@ 11
permitirei 11
permitiulle 11
perseguir 11
personi@@ 11
peru@@ 11
pesquisa 11
petición 11
phenomen@@ 11
picante 11
piece. 11
pieces. 11
pimenta 11
pio 11
plastic 11
ply. 11
podr@@ 11
poi@@ 11
pon 11
population. 11
portas 11
ports 11
possuem 11
possui 11
poñía 11
predicting 11
pregunta 11
preocup@@ 11
preparando 11
presents 11
press 11
prevented 11
principles. 11
proba 11
procurar 11
profundas 11
project@@ 11
proposta 11
pros 11
psicol@@ 11
pub@@ 11
publici@@ 11
pure 11
purpose. 11
pursu@@ 11
push 11
pyramids 11
qual@@ 11
quebr@@ 11
queen 11
queira 11
queles 11
quentes 11
question. 11
quete 11
quick@@ 11
rab@@ 11
radica@@ 11
rage 11
rainha 11
rapidez 11
rapidly. 11
ras, 11
ray 11
razo@@ 11
razóns 11
realistic. 11
reasons 11
recipro@@ 11
reciprocity 11
recomen@@ 11
recre@@ 11
refeição 11
refer@@ 11
reflected 11
reflecting 11
reflexi@@ 11
relaxation 11
renacer 11
renda 11
replac@@ 11
replaced 11
reputación 11
reputation 11
resent@@ 11
resistance 11
resistência 11
revisar 11
riding 11
ring@@ 11
rique@@ 11
rise 11
roller@@ 11
roots 11
rusa 11
ruí@@ 11
rón 11
sada 11
safe@@ 11
saia 11
salgada 11
samos 11
sanit@@ 11
sapato 11
scru@@ 11
seat 11
section. 11
seguinte 11
self-love. 11
self@@ 11
selva 11
send 11
sense. 11
senten@@ 11
shares 11
shiny 11
shir@@ 11
shock 11
siga 11
sincere 11
sinceridade 11
sink 11
sinxela 11
ski@@ 11
skill@@ 11
slope 11
snack. 11
soa 11
sobri@@ 11
sobriño 11
sofi@@ 11
solitary 11
sonora 11
soo@@ 11
sopa 11
sorprender@@ 11
sospe@@ 11
soul@@ 11
soño 11
spa@@ 11
spare 11
spectac@@ 11
speech 11
speech@@ 11
spherical 11
spiration 11
spoke 11
step. 11
stica 11
sticercosis 11
street@@ 11
stretch 11
strive 11
subli@@ 11
success." 11
sueño 11
sunlight 11
supermarket. 11
supported 11
surpresa 11
surprising. 11
surround@@ 11
surve@@ 11
synonymous 11
systems 11
taba 11
take. 11
tamb@@ 11
tapete 11
tato 11
technologies 11
tecnológi@@ 11
teeth. 11
teis 11
temptation 11
teor 11
tering 11
test. 11
that, 11
therapi@@ 11
there. 11
thering 11
thes@@ 11
thing, 11
thinking. 11
threat. 11
threaten@@ 11
tienen 11
til 11
timel@@ 11
tire 11
tiven 11
today? 11
tolerância 11
top. 11
torio 11
torno@@ 11
tors 11
tort@@ 11
tortil@@ 11
tranquila 11
transparência 11
trapezium 11
tripul@@ 11
trying. 11
tual 11
udo 11
unidade 11
união 11
unpredictable. 11
upward 11
urar 11
uro@@ 11
usti@@ 11
utensil@@ 11
valiosas 11
valued. 11
vehi@@ 11
vehicles 11
vehí@@ 11
vencer 11
ver's 11
verb@@ 11
ves, 11
viaxe@@ 11
vibrate 11
victory 11
vigil@@ 11
vindo 11
visitantes 11
vitamin@@ 11
viven@@ 11
vizinhan@@ 11
volati@@ 11
vor 11
vários 11
vía 11
vídeo 11
víti@@ 11
walk@@ 11
walls 11
war 11
warm. 11
washer 11
waters 11
windows 11
wise 11
wonder@@ 11
wood. 11
wooden 11
workplace. 11
worries. 11
worse. 11
x. 11
xad@@ 11
xin@@ 11
xornada 11
ys. 11
zing. 11
¿Quieres 11
ábel 11
árias 11
ãos 11
ça, 11
"V@@ 10
-free 10
Afri@@ 10
Agar@@ 10
B1@@ 10
Cab@@ 10
Polo 10
Pue@@ 10
Vo@@ 10
absces@@ 10
accoun@@ 10
aces 10
acred@@ 10
adeira 10
ail@@ 10
algui@@ 10
alized 10
alon@@ 10
amon@@ 10
anal@@ 10
arg@@ 10
arm 10
assa@@ 10
avent@@ 10
beli@@ 10
bever@@ 10
biquín@@ 10
ble, 10
cemento 10
ciu@@ 10
coche, 10
compas@@ 10
convin@@ 10
coup@@ 10
cture 10
culp@@ 10
cán@@ 10
cê@@ 10
danger@@ 10
descen@@ 10
diaboli@@ 10
dign@@ 10
dinossaur@@ 10
dom. 10
dress. 10
ely. 10
encia, 10
erat@@ 10
erros, 10
escondi@@ 10
esféri@@ 10
esqu@@ 10
eve 10
even@@ 10
faci@@ 10
feed@@ 10
fisher@@ 10
funda@@ 10
fú@@ 10
gação 10
geome@@ 10
gh. 10
given@@ 10
gni@@ 10
gía 10
gúrate 10
hipo@@ 10
ies. 10
im 10
inar 10
inesque@@ 10
influen@@ 10
itamos 10
ken 10
kitch@@ 10
less@@ 10
líqui@@ 10
macar@@ 10
maest@@ 10
meaning@@ 10
meet@@ 10
mers 10
met@@ 10
mexican@@ 10
moto@@ 10
mús@@ 10
navig@@ 10
necessar@@ 10
ning. 10
ny 10
oc@@ 10
occa@@ 10
ofen@@ 10
overwhelme@@ 10
pael@@ 10
panel 10
paraly@@ 10
participação 10
partidas 10
passions. 10
past@@ 10
pedido 10
peli@@ 10
pelo@@ 10
pensei 10
pepper 10
perdi 10
perdoar 10
perfor@@ 10
perro 10
pesquisas 10
pha@@ 10
phar@@ 10
phy. 10
picker 10
pink 10
plani@@ 10
plataforma 10
plea@@ 10
please." 10
pobre@@ 10
pobreza 10
poetry. 10
points. 10
polici@@ 10
polish 10
poluição 10
polí@@ 10
pool 10
port. 10
pose 10
posibilidade 10
positively 10
possi@@ 10
poucas 10
praticantes 10
presa 10
prescri@@ 10
prevents 10
prey 10
prey. 10
prima 10
princes@@ 10
prior 10
privi@@ 10
proceed 10
procrastin@@ 10
profis@@ 10
program. 10
programación 10
proporcionar 10
prosecu@@ 10
prós@@ 10
pursuit 10
quería 10
question@@ 10
questions 10
questions. 10
quinoa 10
rados 10
ral@@ 10
rapi@@ 10
rava 10
raíces 10
reach. 10
realized 10
reasons. 10
recibi@@ 10
record 10
red@@ 10
redução 10
reek 10
refe@@ 10
refuge 10
regal@@ 10
rememb@@ 10
reminds 10
repu@@ 10
resiliência 10
resistencia 10
respuesta 10
resta@@ 10
restrictions 10
restrictions. 10
revigor@@ 10
revolu@@ 10
riso@@ 10
rivers 10
rocks 10
roider@@ 10
rom 10
rom@@ 10
roots. 10
rostro 10
rugby 10
rutina 10
sabi@@ 10
sacred 10
sados 10
sairá 10
saiu 10
salir 10
sapatilhas 10
sapatos 10
sapo 10
sat@@ 10
satur@@ 10
scare@@ 10
scene 10
scene. 10
scesses 10
schedu@@ 10
season 10
sec@@ 10
sectors. 10
seeds 10
seems. 10
sely 10
sely. 10
semos 10
sensa@@ 10
sent 10
senti 10
sentiu 10
sets 10
señal 10
sh. 10
shop. 10
shopping. 10
shower. 10
siendo 10
sight. 10
significativas 10
similar 10
simplici@@ 10
sinalización 10
sinalizar 10
singer 10
sit 10
sitio 10
situaciones 10
situation." 10
situation? 10
slow. 10
smooth 10
snack 10
solely 10
solidar@@ 10
soltar 10
solved. 10
sonal 10
soon@@ 10
sorprender 10
sosteni@@ 10
sport. 10
spring 10
sse 10
stage. 10
staria 10
starry 10
station. 10
status 10
steal 10
steha 10
sto/a 10
stop. 10
stopped 10
storm. 10
strategi@@ 10
strono@@ 10
students 10
substituir 10
suelo 10
superación 10
supervivencia 10
superá-la 10
supportive 10
surface. 10
sust@@ 10
sustainability 10
sustentável 10
sy. 10
tact 10
tall 10
tambour@@ 10
tart 10
tast@@ 10
te-de-leão 10
team's 10
techniques 10
tecidos 10
tells 10
temperature. 10
tend 10
tenden@@ 10
th." 10
that.""" 10
theory 10
thers 10
thin. 10
things, 10
three 10
tied 10
times@@ 10
tion's 10
today@@ 10
tomou 10
tors. 10
tour@@ 10
tourists 10
toys 10
tradición 10
tradição 10
train@@ 10
tranças 10
trate 10
trazer 10
tres 10
trips. 10
trist@@ 10
triz 10
trouble 10
trouxe 10
ts.""" 10
twin@@ 10
tódolos 10
uddenly, 10
unbearable. 10
uncertain. 10
underestima@@ 10
understand@@ 10
undred 10
unless 10
unlocking 10
unpredict@@ 10
unt 10
untie 10
unwa@@ 10
uphol@@ 10
urgently. 10
urin@@ 10
used. 10
ustic 10
usto 10
ustro@@ 10
usão 10
valida@@ 10
varie@@ 10
vação 10
vehículo 10
vejo 10
vel, 10
vendo 10
ventil@@ 10
vere@@ 10
verify 10
veí@@ 10
vicio 10
vio 10
vitoria 10
volatilidade 10
voluntari@@ 10
volunte@@ 10
vonta@@ 10
váli@@ 10
waste. 10
waterfall. 10
wave 10
web 10
weekend 10
welcome 10
will@@ 10
willingness 10
withstand 10
woolen 10
work." 10
worries 10
worse 10
xadear 10
xato 10
xear 10
xener@@ 10
xenerosidade 10
xul@@ 10
xur@@ 10
xías 10
ye@@ 10
yet. 10
yourself, 10
zación 10
zado 10
zação 10
Às 10
Áfri@@ 10
áis 10
ándonos 10
árque@@ 10
çada 10
ção, 10
én, 10
éni@@ 10
épo@@ 10
éxito, 10
ñan 10
óns, 10
órgan@@ 10
órios 10
útiles 10
:@@ 9
Ameri@@ 9
Bei@@ 9
Gali@@ 9
Mel@@ 9
Ouvi@@ 9
Pen@@ 9
T 9
abun@@ 9
aeron@@ 9
aprove@@ 9
autum@@ 9
batter@@ 9
bru@@ 9
bús@@ 9
cante 9
capace@@ 9
cell@@ 9
cidos 9
citiz@@ 9
cket 9
compartil@@ 9
conhe@@ 9
control, 9
courag@@ 9
cân@@ 9
cír@@ 9
de-@@ 9
decep@@ 9
demo@@ 9
desast@@ 9
desfi@@ 9
eas@@ 9
effectiv@@ 9
effectiven@@ 9
effici@@ 9
efficien@@ 9
employ@@ 9
engine@@ 9
entreg@@ 9
erci@@ 9
figu@@ 9
forne@@ 9
forwar@@ 9
fíci@@ 9
fút@@ 9
ghter 9
glu@@ 9
habl@@ 9
han 9
harmoni@@ 9
hibi@@ 9
hist@@ 9
hour@@ 9
há@@ 9
immedi@@ 9
inflam@@ 9
inflamma@@ 9
inva@@ 9
ito, 9
iving 9
judi@@ 9
ker@@ 9
ket@@ 9
lación 9
licación 9
logo 9
los, 9
loy@@ 9
mach@@ 9
mater@@ 9
maz@@ 9
mber 9
mirr@@ 9
mosqu@@ 9
naval 9
ok 9
ollar 9
outdo@@ 9
peop@@ 9
perd@@ 9
perdo@@ 9
perm@@ 9
prepare@@ 9
primaver@@ 9
print 9
pt 9
quí@@ 9
reas@@ 9
reng@@ 9
respir@@ 9
rusa, 9
scho@@ 9
scienti@@ 9
segun@@ 9
sis 9
softwa@@ 9
spira@@ 9
stir 9
superviven@@ 9
surf@@ 9
surro@@ 9
taman@@ 9
terno@@ 9
tesour@@ 9
ti, 9
titude. 9
toxi@@ 9
traballo, 9
treasu@@ 9
trump@@ 9
umb@@ 9
utensi@@ 9
valori@@ 9
versati@@ 9
vide@@ 9
wea@@ 9
women@@ 9
woo@@ 9
zol@@ 9
çado 9
éticos 9
ínti@@ 9
ísticas 9
ómi@@ 9
útil@@ 9
- 8
..@@ 8
Eng@@ 8
H 8
Portu@@ 8
Ze@@ 8
aboli@@ 8
acer 8
acol@@ 8
adel@@ 8
admirá@@ 8
agree@@ 8
alogue 8
altitu@@ 8
amea@@ 8
aminar 8
amoun@@ 8
anten@@ 8
anxi@@ 8
análi@@ 8
apari@@ 8
arme@@ 8
arrog@@ 8
ases. 8
atmosp@@ 8
autori@@ 8
auté@@ 8
aw@@ 8
barbecu@@ 8
beauti@@ 8
bell 8
borra@@ 8
bos@@ 8
brilh@@ 8
bín 8
campain@@ 8
carbon@@ 8
chá@@ 8
clum@@ 8
constant@@ 8
contos 8
coul@@ 8
countrysi@@ 8
cuent@@ 8
cui@@ 8
cúti@@ 8
dação 8
deira 8
depu@@ 8
dly. 8
egg@@ 8
ellos 8
enas 8
equili@@ 8
erse 8
esquil@@ 8
exit@@ 8
eze 8
ferrament@@ 8
figur@@ 8
fill 8
filosof@@ 8
grar 8
gy. 8
habilit@@ 8
havi@@ 8
iamos 8
imag@@ 8
impo@@ 8
impre@@ 8
inclin@@ 8
indis@@ 8
indispens@@ 8
indúst@@ 8
intern@@ 8
intro@@ 8
jardi@@ 8
jour@@ 8
ju 8
kin 8
knowled@@ 8
lear@@ 8
lex@@ 8
lighted 8
lock 8
lt 8
mbr@@ 8
mbrar 8
melho@@ 8
miñ@@ 8
mnasi@@ 8
mone@@ 8
morro@@ 8
mother@@ 8
motocicle@@ 8
nex@@ 8
obli@@ 8
ofere@@ 8
orgullo@@ 8
oursel@@ 8
pani@@ 8
per. 8
pica@@ 8
piz@@ 8
posto 8
posure 8
ramient@@ 8
remedi@@ 8
ries. 8
sad@@ 8
scissor@@ 8
secon@@ 8
sect@@ 8
sinton@@ 8
sinx@@ 8
sis. 8
smar@@ 8
soc@@ 8
soli@@ 8
sombr@@ 8
supp@@ 8
surroun@@ 8
sycho@@ 8
te-@@ 8
tece 8
techni@@ 8
territ@@ 8
them@@ 8
tima@@ 8
touris@@ 8
tul@@ 8
tum@@ 8
ue@@ 8
uring 8
uten@@ 8
vaz@@ 8
wan@@ 8
whist@@ 8
wk 8
yrami@@ 8
átil 8
énero 8
óle@@ 8
úa 8
-term 7
/ 7
C 7
Có@@ 7
Extra@@ 7
Fix@@ 7
Ga@@ 7
Hallo@@ 7
Que@@ 7
aby@@ 7
abób@@ 7
acú@@ 7
afterno@@ 7
agne 7
alegri@@ 7
allow@@ 7
amonton@@ 7
archi@@ 7
aremos 7
arrincon@@ 7
artísti@@ 7
asegu@@ 7
asegur@@ 7
ationshi@@ 7
basket@@ 7
beau@@ 7
bey 7
birth@@ 7
cand@@ 7
caste@@ 7
certain@@ 7
circ@@ 7
comm@@ 7
countr@@ 7
cruci@@ 7
cuis@@ 7
daugh@@ 7
deber@@ 7
dered 7
des, 7
desent@@ 7
digni@@ 7
dings 7
disa@@ 7
disap@@ 7
donos 7
dren 7
drin@@ 7
effor@@ 7
enou@@ 7
espectac@@ 7
espetá@@ 7
estion@@ 7
estrar 7
eting 7
excite@@ 7
exha@@ 7
expected 7
eza 7
ffer@@ 7
fore 7
forget@@ 7
frien@@ 7
fute@@ 7
gare@@ 7
grav@@ 7
hion 7
hão 7
ight. 7
imprescindi@@ 7
incompar@@ 7
influ@@ 7
kee@@ 7
ling. 7
ller@@ 7
manag@@ 7
mous 7
musici@@ 7
necessi@@ 7
nois@@ 7
od. 7
oppon@@ 7
ort 7
oth 7
oth@@ 7
palme@@ 7
pare 7
party@@ 7
paste@@ 7
pir 7
prior@@ 7
procura@@ 7
pró@@ 7
pássar@@ 7
quant@@ 7
rais 7
reconfort@@ 7
recu@@ 7
redi@@ 7
regar@@ 7
reo 7
respost@@ 7
ress. 7
sabedor@@ 7
sati@@ 7
societ@@ 7
spect@@ 7
ssor@@ 7
stress@@ 7
tempest@@ 7
ther, 7
timi@@ 7
tip@@ 7
trou@@ 7
turi@@ 7
turis@@ 7
tê@@ 7
ugh@@ 7
univers@@ 7
ury 7
ush 7
vência 7
ward 7
warm@@ 7
window@@ 7
xinha 7
áli@@ 7
óis 7
ô 7
’@@ 7
Deber@@ 6
Ear@@ 6
Intent@@ 6
Itali@@ 6
Mant@@ 6
R 6
ach. 6
ache 6
achiev@@ 6
ahon@@ 6
allo@@ 6
anding 6
api@@ 6
appli@@ 6
apres@@ 6
asar 6
axe@@ 6
açú@@ 6
basi@@ 6
bbed 6
becu@@ 6
believ@@ 6
bir 6
bow@@ 6
cachor@@ 6
chemi@@ 6
cipl@@ 6
cipo@@ 6
cken 6
climb@@ 6
common@@ 6
compu@@ 6
concent@@ 6
confidence. 6
conjun@@ 6
consell@@ 6
curar 6
cú@@ 6
dazz@@ 6
demôni@@ 6
desarro@@ 6
desenvolvi@@ 6
dev@@ 6
dificulta@@ 6
eag@@ 6
efici@@ 6
ej@@ 6
empati@@ 6
entreco@@ 6
escr@@ 6
espreme@@ 6
estamp@@ 6
estrate@@ 6
ety 6
fican@@ 6
gant@@ 6
gin 6
happi@@ 6
harm@@ 6
healthi@@ 6
ility 6
imper@@ 6
inste@@ 6
jus@@ 6
lear 6
lend@@ 6
literat@@ 6
lti@@ 6
maca@@ 6
namon 6
ona 6
orth 6
ote@@ 6
oul@@ 6
performan@@ 6
perspe@@ 6
perío@@ 6
pes, 6
phi@@ 6
plata@@ 6
polu@@ 6
porte 6
pow@@ 6
pran@@ 6
queta 6
regener@@ 6
remin@@ 6
routin@@ 6
rul@@ 6
rá 6
sacri@@ 6
saurs 6
sculp@@ 6
set@@ 6
silên@@ 6
simples@@ 6
sito 6
soport@@ 6
stand@@ 6
stic. 6
stity 6
strate@@ 6
stry 6
sufici@@ 6
sué@@ 6
sy 6
tec@@ 6
tee@@ 6
telo@@ 6
tem@@ 6
ternal 6
to-@@ 6
tom 6
tomas 6
traffi@@ 6
tratados 6
ull 6
ult 6
ultip@@ 6
unforget@@ 6
vete 6
vizin@@ 6
volun@@ 6
víde@@ 6
where. 6
wri@@ 6
zeitonas 6
Á@@ 6
ún 6
!, 5
&@@ 5
've 5
+@@ 5
."@@ 5
Fu@@ 5
Hab@@ 5
Lembr@@ 5
Tal@@ 5
abó@@ 5
accu@@ 5
acept@@ 5
achi@@ 5
achie@@ 5
affor@@ 5
algú@@ 5
astonish@@ 5
aventu@@ 5
bando@@ 5
befo@@ 5
bet@@ 5
bisco@@ 5
bly 5
cantes 5
ccu@@ 5
cem 5
che, 5
cica@@ 5
cidadani@@ 5
cine@@ 5
circum@@ 5
coffe@@ 5
compen@@ 5
compon@@ 5
consequen@@ 5
coxin@@ 5
ctar 5
ctur@@ 5
ctura 5
célul@@ 5
deleg@@ 5
desco@@ 5
descober@@ 5
desser@@ 5
dest 5
dice 5
dispost@@ 5
diá@@ 5
electr@@ 5
empre 5
equilí@@ 5
espectá@@ 5
esqui@@ 5
estión 5
estratexi@@ 5
exag@@ 5
expl@@ 5
facilit@@ 5
fideli@@ 5
fuma@@ 5
gger 5
gies 5
gora 5
helo 5
heren@@ 5
herramient@@ 5
honesti@@ 5
iden 5
iled 5
ilu@@ 5
intu@@ 5
ived 5
lanter@@ 5
ler@@ 5
lhas 5
lica 5
lication 5
mache@@ 5
madure@@ 5
maquilla@@ 5
mbling 5
mid@@ 5
mite 5
mon 5
moun@@ 5
noso@@ 5
onic 5
orn@@ 5
osidade 5
otic 5
perci@@ 5
pizz@@ 5
possible@@ 5
prati@@ 5
prene@@ 5
q@@ 5
rament@@ 5
rami@@ 5
recommen@@ 5
ree@@ 5
remol@@ 5
rich@@ 5
rito 5
rol@@ 5
ror 5
search. 5
sidad 5
signi@@ 5
slo@@ 5
sneak@@ 5
staría 5
stitu@@ 5
sugg@@ 5
símbo@@ 5
teste@@ 5
themsel@@ 5
tising 5
trombe@@ 5
ud 5
udar 5
ulgar 5
unch@@ 5
unloc@@ 5
ware 5
wron@@ 5
xar@@ 5
yel@@ 5
yo@@ 5
yourself@@ 5
Í@@ 5
íame 5
't 4
@@@ 4
Esque@@ 4
Gabri@@ 4
K 4
M 4
Manten@@ 4
Melh@@ 4
Min@@ 4
N 4
Qui@@ 4
Quiz@@ 4
Ren@@ 4
X 4
advent@@ 4
alcoh@@ 4
amendo@@ 4
angústi@@ 4
aso 4
atic 4
ave@@ 4
avestru@@ 4
azu@@ 4
ballo 4
bigg@@ 4
brilli@@ 4
bruñ@@ 4
cará@@ 4
ceil@@ 4
company@@ 4
compassion@@ 4
conec@@ 4
cortin@@ 4
crí@@ 4
ctri@@ 4
dader@@ 4
data@@ 4
de-leão 4
dea 4
debru@@ 4
delicade@@ 4
desfilade@@ 4
deslu@@ 4
elon@@ 4
ental@@ 4
enví@@ 4
est." 4
estat@@ 4
etics 4
florest@@ 4
frigi@@ 4
froz@@ 4
gle 4
grate@@ 4
gun@@ 4
hamb@@ 4
harves@@ 4
heiros 4
husar 4
hí@@ 4
indu@@ 4
inoa 4
internet@@ 4
involu@@ 4
irm@@ 4
ken. 4
leal@@ 4
leiro 4
leon 4
leão 4
lighthou@@ 4
ling@@ 4
liqu@@ 4
lite 4
make@@ 4
maravi@@ 4
mexi@@ 4
omelet@@ 4
onkeys 4
orto 4
paral@@ 4
parnos 4
ped@@ 4
pical 4
pling 4
pos 4
possu@@ 4
potenti@@ 4
prepa@@ 4
prevent@@ 4
pués 4
pyrami@@ 4
quera 4
reat 4
respu@@ 4
riv@@ 4
sabed@@ 4
sabone@@ 4
scri@@ 4
shop@@ 4
simple@@ 4
sinc@@ 4
sme@@ 4
stores 4
sugar@@ 4
sujet@@ 4
tecnol@@ 4
term 4
through@@ 4
tifica@@ 4
ting." 4
tivar 4
touri@@ 4
tra 4
trás 4
tubar@@ 4
unbe@@ 4
vacin@@ 4
vidu@@ 4
vine 4
wards 4
xaros 4
xestion@@ 4
xão 4
yiel@@ 4
zco 4
zido 4
² 4
ômi@@ 4
€@@ 4
,"@@ 3
@ 3
Admi@@ 3
Ase@@ 3
Cómo 3
Déix@@ 3
Escu@@ 3
F 3
Q@@ 3
V 3
Y 3
accor@@ 3
accordi@@ 3
acolled@@ 3
acredi@@ 3
acro@@ 3
afri@@ 3
anc@@ 3
antioxi@@ 3
appropri@@ 3
archite@@ 3
arroj@@ 3
ast. 3
atisti@@ 3
awk@@ 3
bier@@ 3
bil 3
brou 3
carabin@@ 3
carb@@ 3
cata@@ 3
champan@@ 3
character@@ 3
check@@ 3
chif@@ 3
chron@@ 3
cicl@@ 3
cilin@@ 3
clon@@ 3
cocon@@ 3
cois@@ 3
colheit@@ 3
crunch@@ 3
cuesti@@ 3
dden 3
delicates@@ 3
descre@@ 3
desmor@@ 3
develop@@ 3
devou@@ 3
disgu@@ 3
drá 3
dubi@@ 3
elin@@ 3
engen@@ 3
ensor@@ 3
ep 3
especí@@ 3
espinaf@@ 3
faith@@ 3
fere 3
ficial 3
forra@@ 3
gently. 3
geons 3
ght 3
gratitu@@ 3
guarda@@ 3
guit@@ 3
hador 3
handkerchi@@ 3
hap@@ 3
hri@@ 3
ider@@ 3
igue 3
ilo 3
immun@@ 3
inos 3
iramente 3
isco@@ 3
ith@@ 3
jet@@ 3
kilo@@ 3
landsca@@ 3
lip@@ 3
lique@@ 3
lâ@@ 3
lâmp@@ 3
manage@@ 3
manuten@@ 3
minim@@ 3
mmer. 3
mobi@@ 3
mpli@@ 3
n't 3
nol@@ 3
onas 3
onesel@@ 3
ou-se 3
patos 3
pest 3
phe@@ 3
portra@@ 3
problem-@@ 3
projet@@ 3
propor@@ 3
propost@@ 3
recia 3
recom@@ 3
refri@@ 3
responsibili@@ 3
sci@@ 3
secur@@ 3
self 3
self-este@@ 3
simil@@ 3
simpl@@ 3
sn@@ 3
spectacul@@ 3
spheri@@ 3
sticerco@@ 3
sugges@@ 3
sura 3
symp@@ 3
tambal@@ 3
tarx@@ 3
temb@@ 3
this@@ 3
though@@ 3
tig@@ 3
tograph@@ 3
trab@@ 3
transp@@ 3
trân@@ 3
trévete 3
tting 3
unbear@@ 3
undari@@ 3
viar 3
vés 3
won@@ 3
zeit@@ 3
zio 3
Ó@@ 3
ássi@@ 3
è@@ 3
íti@@ 3
ór@@ 3
& 2
* 2
Brazili@@ 2
G 2
Gos@@ 2
Gúst@@ 2
J 2
Jun@@ 2
abadi@@ 2
accompani@@ 2
acher 2
adjus@@ 2
alcoholi@@ 2
alli@@ 2
almac@@ 2
amili@@ 2
analysi@@ 2
anme 2
anxiet@@ 2
apaix@@ 2
aphragm 2
apne@@ 2
arren@@ 2
ased 2
ataque@@ 2
balonces@@ 2
behin@@ 2
bi 2
brasi@@ 2
carap@@ 2
chibat@@ 2
cient 2
clarse 2
cni@@ 2
commer@@ 2
comun@@ 2
coron@@ 2
coronavi@@ 2
coura@@ 2
cín 2
descobri@@ 2
devor@@ 2
diafrag@@ 2
does@@ 2
dolos 2
dros 2
earthqu@@ 2
echo@@ 2
econ@@ 2
efervesc@@ 2
elha 2
engenh@@ 2
engren@@ 2
ening. 2
erc@@ 2
escapa@@ 2
escoi@@ 2
escre@@ 2
esen@@ 2
espir@@ 2
espre@@ 2
essenti@@ 2
fací@@ 2
fiti 2
funn@@ 2
genous 2
gical 2
gluten@@ 2
gráfico 2
helicop@@ 2
helicóp@@ 2
heri@@ 2
hing. 2
his@@ 2
hotograph@@ 2
iga 2
ilidade 2
imprescin@@ 2
ind@@ 2
inda 2
intere@@ 2
itate 2
jeit@@ 2
kis@@ 2
lands@@ 2
lul@@ 2
lín@@ 2
mall@@ 2
materni@@ 2
mbros 2
meri@@ 2
mero 2
mna@@ 2
mostr@@ 2
mulo 2
nde 2
neak@@ 2
nego@@ 2
neigh@@ 2
nú@@ 2
obst@@ 2
odoli@@ 2
offe@@ 2
ones@@ 2
oran@@ 2
ossaur@@ 2
osso 2
pastri@@ 2
pato 2
pay@@ 2
perí@@ 2
pick@@ 2
pirâmi@@ 2
pis 2
posa 2
preneur@@ 2
proble@@ 2
prog@@ 2
purpo@@ 2
quere@@ 2
quilô@@ 2
quin 2
reaking 2
regr@@ 2
remédi@@ 2
rescu@@ 2
resour@@ 2
rg@@ 2
ribu@@ 2
rincon@@ 2
rock@@ 2
romá@@ 2
rus 2
ró 2
sabe@@ 2
scat@@ 2
soft@@ 2
sola 2
sophi@@ 2
steri@@ 2
stin@@ 2
stración 2
stun@@ 2
suave@@ 2
suc@@ 2
tali@@ 2
tambi@@ 2
tape@@ 2
tero 2
thres@@ 2
thy. 2
tidi@@ 2
tiemp@@ 2
to-me 2
trapé@@ 2
ulle 2
unde@@ 2
urora 2
va-@@ 2
vered 2
vermell@@ 2
winter@@ 2
worldwide@@ 2
ymous 2
zepeli@@ 2
|@@ 2
Á 2
éci@@ 2
íli@@ 2
ólicas 2
ö@@ 2
úr@@ 2
́@@ 2
“@@ 2
… 2
., 1
=@@ 1
@@ 1
Ador@@ 1
Algú@@ 1
Apro@@ 1
Cast@@ 1
Dé@@ 1
Fotogra@@ 1
L 1
Mexi@@ 1
Ocu@@ 1
Pase@@ 1
Q 1
Sop@@ 1
U 1
abces@@ 1
aborar 1
ace. 1
allevi@@ 1
amorti@@ 1
aphrag@@ 1
artes@@ 1
ately. 1
atin 1
bemos 1
bey@@ 1
beyon@@ 1
bibli@@ 1
biqu@@ 1
bito 1
brou@@ 1
cabr@@ 1
cachi@@ 1
carab@@ 1
carapu@@ 1
celesti@@ 1
chame@@ 1
ció@@ 1
countri@@ 1
cremall@@ 1
cual@@ 1
cáni@@ 1
cántame 1
ddar 1
denly, 1
desaf@@ 1
desemp@@ 1
desmen@@ 1
despar@@ 1
desparra@@ 1
despotis@@ 1
deta@@ 1
diap@@ 1
disarma@@ 1
disea@@ 1
dispoñ@@ 1
dn't 1
doç@@ 1
dy-@@ 1
earth@@ 1
ecu@@ 1
effervesc@@ 1
elliz@@ 1
ercíci@@ 1
eror 1
estí@@ 1
exa 1
fav@@ 1
favori@@ 1
ferves@@ 1
festy@@ 1
fiero 1
firo 1
gien@@ 1
gure 1
hambúr@@ 1
heli@@ 1
idea., 1
illed 1
illumin@@ 1
invol@@ 1
j 1
jetos 1
jol@@ 1
lade@@ 1
leader@@ 1
legend@@ 1
lágri@@ 1
madu@@ 1
masca@@ 1
mech@@ 1
mediev@@ 1
mely 1
mian 1
mulation 1
myster@@ 1
mó 1
notar 1
nuest@@ 1
objectiv@@ 1
occup@@ 1
oler@@ 1
olin 1
ono 1
oín 1
paraf@@ 1
partícul@@ 1
pedr@@ 1
pleas@@ 1
point@@ 1
poltr@@ 1
postes 1
prima@@ 1
principl@@ 1
procra@@ 1
pros@@ 1
quilla@@ 1
rapa@@ 1
reale@@ 1
rench 1
savor@@ 1
sche@@ 1
schedul@@ 1
seguin@@ 1
slation 1
somou 1
spen@@ 1
spiri@@ 1
sten 1
suppor@@ 1
tama@@ 1
tambori@@ 1
tasi@@ 1
tech@@ 1
thema@@ 1
titu@@ 1
tranqu@@ 1
transpar@@ 1
trapezo@@ 1
treas@@ 1
trepi@@ 1
treverse 1
tráfe@@ 1
títul@@ 1
uar 1
ught 1
underes@@ 1
usias@@ 1
uspir 1
v 1
veces@@ 1
vest 1
vig@@ 1
vitam@@ 1
wide@@ 1
¿H@@ 1
À 1
Ábre@@ 1
à@@ 1
ânio 1
égan@@ 1
ícul@@ 1
ífica 1
ñen 1
”@@ 1
…@@ 1
madeupword0000 0
