#version: 0.2
i n
e n
e r
c h</w>
c h
I ch</w>
, I</w>
a n
e n</w>
i n</w>
e s
u n
t h
l i
e r</w>
r e
i s
e in
a r
. ,</w>
t i
o r
a u
in g</w>
t o</w>
i t
o n
h a
e l
" ,</w>
th e</w>
a l
i s</w>
z u</w>
i e</w>
e s</w>
b e</w>
a t
s ch
s t
d a
v e</w>
a n</w>
b e
a m</w>
in g
o n</w>
" Ich</w>
h e</w>
k e</w>
un d</w>
o u
e in</w>
ein e</w>
m a
an d</w>
m i
is t</w>
, T
n e
en ,</w>
v er
s .</w>
i e
l o
t er
,T he</w>
o f</w>
g e
l e
y .</w>
s i
s p
r o
li ke</w>
. ",</w>
r a
b in</w>
t e</w>
m y</w>
er n
o l
s e
li e
e i
e .</w>
o o
es ,</w>
en d
r i
u r
a t</w>
l a
d er</w>
o m
w a
D ie</w>
i m
en .,</w>
f a
en t
f ü
ha be</w>
d ie</w>
en ",</w>
d e
l e</w>
ern e</w>
en .",</w>
o r</w>
t ,</w>
c k
v on</w>
t a
m e</w>
g erne</w>
h e
un d
i l
j o
g es
u l
f f
ma g</w>
f or</w>
ing .</w>
t r
i ch
es .</w>
i g
lo ve</w>
l y</w>
re a
lie be</w>
ar e</w>
a s</w>
t e
i r
m e
i m</w>
t o
, A</w>
or t
i er
ha ve</w>
s s</w>
en jo
d en</w>
F re
ein en</w>
u m
g en
ei t</w>
D as</w>
s t</w>
an d
da y.</w>
d e</w>
h r
u e</w>
enjo y</w>
fü r</w>
m o
o p
m eine</w>
s h
e b
s s
u si
in d</w>
mi ch</w>
l au
u t
w or
au f</w>
b es
u te</w>
un g
t .</w>
k e
ne w</w>
d .</w>
z u
h r</w>
li ch
, M
b r
d i
g e</w>
a ch
p er
r es
en d</w>
th at</w>
S ch
da s</w>
" "
c an</w>
t en</w>
n o
c e</w>
w it
k an
b l
D er</w>
c a
d en
ver y</w>
e d</w>
p a
l d</w>
ö n
E in</w>
oo d</w>
i ch</w>
it e</w>
ti on
v or
c o
e m</w>
w e
mi t</w>
wit h</w>
an t</w>
ter n</w>
a b
f t</w>
p p
l an
L eb
t er</w>
im m
da ss</w>
i el
L ie
p e
,M y</w>
ges tern</w>
p ort
f ri
c i
un g</w>
t .,</w>
f e
k ing</w>
ol l
b i
t ra
kan n</w>
e x
ma ch
m ein
au s
s ind</w>
in k</w>
er e</w>
ti v
g ro
s u
ne ue</w>
ch e</w>
d er
al l
g ood</w>
b er
ff e
M en
d r
he ute</w>
f an</w>
li f
m or
b a
F an</w>
ou ld</w>
p ar
en t</w>
p o
T a
f or
w ar
bl ing
fri end
g en</w>
i t</w>
R e
Lie bling
fa vor
f ul
in e</w>
favor ite</w>
N at
t z
f u
Fre und
h o
es ter
e ,</w>
d o
se hr</w>
wa s</w>
ie ß
br ing
A b
M ein</w>
es s
w er
gen ieß
a m
ti me</w>
f r
p ro
ti g
be lie
c on
fu l</w>
ti on</w>
gro ß
g i
el l
Liebling s
e t
da y</w>
p la
y s</w>
h t</w>
im port
au f
c om
g re
belie ve</w>
be au
ou t</w>
Z eit</w>
f in
th ink</w>
Men sch
j e
y ester
at e</w>
G e
al l</w>
F a
ä n
er .</w>
g lau
is ch
Leb en</w>
genieß e</w>
w h
f re
w ich
s el
G es
m u
re .</w>
A u
, "
s o</w>
on n
S p
E ine</w>
c ol
sch a
is t
b oo
m an
i z
on .</w>
ur e</w>
e l</w>
. "</w>
W el
s e</w>
i c
g r
u m</w>
in ter
a l</w>
import ant</w>
u r</w>
on e</w>
imm er</w>
sch ön
an n
m usi
g u
ffe e</w>
er ,</w>
M usi
to day.</w>
ti m
s k
l ü
wa ys</w>
ou r</w>
a d
li ch</w>
ul t
g an
beau ti
fü h
al ways</w>
i r</w>
w at
S onn
ä u
d an
s ein
es t
sp ann
y ing</w>
, I
per s
wa r</w>
g ut
' s</w>
re la
m einen</w>
ou g
bi g</w>
k .</w>
yester day.</w>
c it
it ,</w>
n at
lif e.</w>
t re
s o
ha t</w>
o g
g o</w>
g o
u ch
gre at</w>
t s</w>
le .</w>
mo v
ma l</w>
a ch</w>
Ab end</w>
pe op
om e
u re.</w>
e m
ig h
l y.</w>
ha pp
Fa mi
groß er</w>
un s</w>
Nat ur</w>
ver bring
ha s</w>
A r
u ch</w>
ü n
ti ve</w>
M e
, C
mi r</w>
m is
o th
ne u
n ing</w>
ö r
h n
a c
ge h
b er</w>
mor e</w>
iel e</w>
h el
v er</w>
w al
z ier
or t</w>
d ar
u p</w>
W o
' t</w>
l u
i b
un s
q u
le ar
ein em</w>
om m
tion .</w>
c k</w>
s si
mein em</w>
e u
tra v
mein er</w>
s a
, S
K a
s ti
E s</w>
Wel t</w>
d s</w>
fa mi
l l
d is
po si
ar be
h eit</w>
p lan
g er
un ter
e .,</w>
dan k
w ould</w>
t s.</w>
h l
t y</w>
glau be</w>
s m
Ta g</w>
w en
k s</w>
ha b
th ing</w>
er en</w>
tz e</w>
f res
ke ,</w>
b y</w>
e v
M eine</w>
v ie
P ar
F il
E r
a pp
h i
wen n</w>
er t</w>
ü ber</w>
E n
fin de</w>
au r
s ,</w>
o w
rela x
wich tig
st ar
o b
ult ur
es s</w>
m ein</w>
s ome
g a
t ri
st a
lü ck
lo o
c e.</w>
ä r
H er
b u
fa hr
v es</w>
end ,</w>
ü ch
friend s</w>
Musi k</w>
ful .</w>
e very</w>
t ing</w>
den ke,</w>
v oll
S pa
g el
me hr</w>
s oll
d es</w>
e h
ich t</w>
g ra
at e
s un
ge he</w>
sp ort
b ein
w il
und er
f lo
Fami li
on der
äu me</w>
on g</w>
de m</w>
sh ould</w>
si ch</w>
S ta
zu m</w>
sch ä
m ö
lif e</w>
F r
ou r
st r
al s</w>
ab out</w>
l es
rea d
ön n
o f
a .</w>
in n
m an</w>
ba r</w>
m e.</w>
d ur
s am
Mensch en</w>
w ir
h ig
re ci
p h
ch en
Famili e</w>
fa s
g h
k önn
wor k</w>
c .</w>
ch en</w>
E ss
S tr
wh en</w>
in sp
d u
m ü
i es.</w>
e k
Sonn en
sp iel
oug h</w>
d on
B l
f ro
h ar
ent spann
N ach
"" "</w>
er .,</w>
b o
tr y</w>
igh t.</w>
el ing</w>
g lück
B e
c t</w>
le b
ch te</w>
be ,</w>
Z u
bein g</w>
t en
Re is
fe el</w>
di ff
u s</w>
oo d.</w>
ung en</w>
schä tze</w>
T e
le a
friend s.</w>
t en,</w>
vie l</w>
c al
p r
ma ke</w>
in s</w>
th ing
lich ,</w>
don 't</w>
in d
b st
ä ch
. """</w>
dank bar</w>
wor ld</w>
wor l
w is
ou t
ne ed</w>
v ing</w>
ü r
peop le</w>
e p
Sta d
gr ate
ver y
la st</w>
ti g</w>
i ck
c re
ung ,</w>
scha ft</w>
l ern
, L
, ""
V er
,"" "
b t</w>
ent .</w>
b ier
r u
en ce</w>
boo k</w>
b rea
no ch</w>
end ing</w>
an ,</w>
z en</w>
th r
c in
au s</w>
h ör
grate ful</w>
sh i
mu ss</w>
wil l</w>
w e</w>
gut es</w>
o ff
re is
k l
en n
ch t</w>
c oo
scha f
g ar
h er
Ka ffee</w>
end e</w>
br au
thr ough</w>
b ir
w under
K un
e very
re f
z e</w>
he al
G er
fro m</w>
nat ure.</w>
musi c</w>
k eine</w>
mö chte</w>
w ir</w>
füh le</w>
er n</w>
w imm
n ach</w>
m y
s it
J a
dur ch</w>
v is
f e</w>
b st</w>
Freund e</w>
man y</w>
iz z
B uch</w>
e ar
e it
beauti ful</w>
worl d.</w>
n icht</w>
Freund en</w>
f il
g ute</w>
de ,</w>
, W
d re
mach t</w>
ev en
t ter</w>
B üch
b al
bes s
d o</w>
T r
B er
t u
ha l
ta ke</w>
tr in
ss e</w>
k es</w>
ch an
te d</w>
M or
te ,</w>
ex per
sp ending</w>
um m
is ch</w>
ün sch
in .</w>
l ou
Ess en</w>
, P
wichtig ,</w>
n i
aur ant</w>
O r
a r</w>
wis h</w>
w ünsch
sp a
je der</w>
m ar
g t</w>
ful l</w>
diff er
de ck
a tion</w>
app reci
k o
wal k</w>
st e</w>
m p
gan g</w>
Ar be
v iele</w>
al ly</w>
Me er</w>
tiv it
li st
glau be,</w>
un i
g en,</w>
g ,</w>
flo wer
fami ly</w>
D ing
se h
sch au
l l</w>
k ,</w>
T he</w>
el l</w>
b ar
G ar
bes t</w>
ou s</w>
insp i
ig ht</w>
, H
t .",</w>
my sel
voll er</w>
it 's</w>
ß en</w>
t oll
o k
trav el</w>
ein er</w>
S e
war m</w>
f an
al le</w>
s ch</w>
loo king</w>
ge t
a ss
I n
dre am</w>
sch ie
appreci ate</w>
go ing</w>
K in
wat ch
per fe
gi bt</w>
kan n
dr ink</w>
da y
' m</w>
sp end</w>
cit y</w>
K ultur
ver su
fr isch
pers on</w>
og a</w>
f ind</w>
rea m
co ffee</w>
Bl um
ha d</w>
pers on.</w>
p res
f o
lo t</w>
aus zu
er i
beauti ful.</w>
par t
ow n</w>
bes uch
w .</w>
un ta
posi tive</w>
h ei
ad v
ter n
s .,</w>
Stad t</w>
ol d</w>
se a</w>
lear n</w>
n ight.</w>
,""" I</w>
at ing</w>
a th
ü h
sp e
es t</w>
e t</w>
Sp ort</w>
schön ,</w>
ge b
ent ly</w>
pro bier
es s.</w>
dis co
w ie
g lich
p ref
end .,</w>
w in
w ie</w>
res t
i en
K at
sam m
differ ent</w>
Spa zier
com p
a de</w>
K on
ke it
th is</w>
rea d</w>
heal th
Ge füh
Sonn e</w>
oth er
and eren</w>
Sch ön
Fre i
to gra
k eit</w>
m ent</w>
En t
de li
ar t</w>
a tion
P o
z in
sti ll</w>
neu en</w>
l ong</w>
fres h
pa ssi
et was</w>
u ft</w>
su n</w>
im me
wir k
ber u
ou s.</w>
spa zier
p l
oth er</w>
of ten</w>
S omm
,I t</w>
w ant</w>
st ü
mi r
ex cit
M ö
re ib
dar an,</w>
t en.,</w>
mo unta
a li
t ol
imme l</w>
y o
no t</w>
n ight</w>
il d
ent deck
a ga
a f
mov ie</w>
izz a</w>
a s
a k
Nat ur
Ges ch
con c
st re
no w</w>
ver mis
trin ke</w>
v i
v al
ung .,</w>
lich e</w>
b le
mis s</w>
fe eling</w>
an ce</w>
Au s
lo g
Men sch</w>
wich tig</w>
c rea
w ür
vermis se</w>
s ing
an n</w>
beru hig
wa y</w>
o ft</w>
e p</w>
ä l
we ek
s umm
war m
ver schie
t ",</w>
n ing.</w>
for war
Sonnen unter
fre ue</w>
col or
S t
I n</w>
verschie den
v a
k s.</w>
is t,</w>
f ol
" Es</w>
tim e.</w>
k enn
f ood</w>
t ter
s le
k ing.</w>
ei gen
ar o
Wo chen
,I 'm</w>
ti c
ti v</w>
is che</w>
gu a
deli ci
d e.</w>
peop le.</w>
k omm
d ream
ach ie
p s</w>
i fe</w>
f li
w onder
sein ,</w>
, A
v e.</w>
it .</w>
Kon z
happ y</w>
gu t</w>
t al
ern ,</w>
er g
, F
soll te</w>
ca l</w>
adv ent
d it
W ass
w er</w>
ti er
nat ure</w>
f .</w>
E in
pla ying</w>
R est
sun se
m in
lan gua
it n
it ing</w>
g ht</w>
fres h</w>
forwar d</w>
st ell
brau che</w>
al s.</w>
Leb en,</w>
H aus
h ere</w>
g .,</w>
el n</w>
Ding e</w>
w el
n .</w>
g än
ent eu
H immel</w>
v el
c u
Mö glich
er re
k auf
Blum en</w>
mü t
, B
ge l</w>
Nat ure</w>
fas cin
an t
neu es</w>
inter es
sk y</w>
ge .</w>
w r
p .</w>
li ve</w>
dr au
r ie
pref er</w>
lau b
yo u</w>
tr äume</w>
musi c.</w>
la ss
c up</w>
, Nature</w>
uns ere</w>
mor ning.</w>
cal m
ä hr
n is
th ei
t y.</w>
Ta sse</w>
Mor gen</w>
yester day</w>
v ol
ti ge</w>
thei r</w>
be i</w>
zin ier
l ä
flower s</w>
fas zinier
ul ar
o ver</w>
mi ch
va ca
k en</w>
watch ing</w>
lich .,</w>
ges ch
ge mach
read ing</w>
on ,</w>
fami ly.</w>
M u
z ie
t t
ok ol
ung en,</w>
ist or
arbe ite</w>
Sp ra
k .,</w>
Büch er</w>
sch on</w>
is e</w>
ch e,</w>
Kultur en</w>
T ier
S tra
t an
re g
ho b
all en
Sch okol
Ab enteu
ge t</w>
ch o
verbring e</w>
je den</w>
k un
schau e</w>
gar den
aro und</w>
wh o</w>
H ob
out si
ge müt
exper ien
G eb
h om
ne e
le i
in ing</w>
Str and</w>
s ein</w>
ma kes</w>
f lie
en z
ch il
wür de</w>
wie der</w>
arbe it
Fre iz
x t</w>
mov ies.</w>
v e
e it,</w>
v ir
st u
l at
ch no
ch allen
b le</w>
verschieden e</w>
n äch
n ach
el n
some thing</w>
happ y.</w>
to o</w>
m ent.</w>
hel p</w>
den ke</w>
col le
Kun st</w>
sm ell</w>
re s</w>
hel f
bal d</w>
Schön heit</w>
ro man
ne xt</w>
c ar
Reis en</w>
j u
i g</w>
Leb en
thing s</w>
s er
for der
thing s.</w>
sel bst</w>
h istor
be ach
and ere</w>
A n
c ultur
tol le</w>
p ho
f i
ä t</w>
wat ch</w>
mo st</w>
at .</w>
S tern
pla y</w>
g .</w>
ca r</w>
ä t
i de
le ck
g es</w>
f lu
d en,</w>
W al
F ar
g en.,</w>
cultur es.</w>
d ig
co un
c es.</w>
L ei
f ut
b all</w>
a tion.</w>
Te e</w>
re c
p ing</w>
lan ge</w>
U m
F lu
tim es</w>
ca p
Wo hn
Fil m</w>
ke it,</w>
inspi ri
drau ßen</w>
co z
au t
H und</w>
Gefüh l</w>
wünsch e</w>
tr ying</w>
th e
l and
fre e</w>
, D
tri p</w>
i es</w>
f un
beau ty</w>
U n
Fre u
y c
vir on
ular ly</w>
ri ll
bes onder
ab le</w>
Re gen</w>
Fa hr
sch n
read y</w>
pla ce</w>
l ing</w>
fri end</w>
beach .</w>
M y</w>
v or</w>
Zu kun
Gar ten</w>
än der
re d</w>
p ic
c lo
Y oga</w>
M o
wor king</w>
te a</w>
rest aurant</w>
Gesch ich
ta st
en .</w>
,M usi
w i
ti es.</w>
st e
ke d</w>
he it,</w>
be tter</w>
Lei den
, R
res pe
no w
c c
m ent
k t</w>
in to</w>
c ould</w>
versu che,</w>
t h</w>
sk y.</w>
ne h
ei ch
en viron
ch mal</w>
auszu probier
Kun st
,Musi c</w>
,L ife</w>
v ed</w>
other s.</w>
d s.</w>
sp r
fr isch</w>
an t.</w>
la f
c at</w>
a ir</w>
" Das</w>
t 's</w>
st eh
sein ",</w>
k rea
disco ver
be vor
ba ck
b en</w>
Kat ze</w>
g ently</w>
e at</w>
Arbe it</w>
, E
ü hl
hör e</w>
do g</w>
U r
Mensch en,</w>
ä um
it s</w>
Tr äume</w>
Ges und
pa in
groß ar
d es
b in
aus forder
sch ein
c ult
b all
ti c</w>
st res
s ci
gän ge</w>
P er
ur r
st or
s en
i hr
erre ich
we it
i ce</w>
a part
H and
week end
oug h
op port
be ach</w>
Her ausforder
um ent
ta king</w>
ges eh
ges .</w>
garden .</w>
fascin at
bes te</w>
ü ber
sein .",</w>
k now</w>
ha be
Y ester
Wochen ende</w>
mysel f</w>
glück lich,</w>
ern .,</w>
t on
is ter
ge f
chno log
f es
be w
L and
F o
posi tiv
gut er</w>
ein es</w>
F itn
hab en</w>
b ri
Au to
lo w
l .</w>
c an
bu t</w>
Fahr ra
t ur
list en
ck t</w>
c e
Au to</w>
te .,</w>
par k.</w>
Par k</w>
Leb en.,</w>
B es
th ing.</w>
mor ning</w>
m on
fresh ly</w>
f ood.</w>
be ge
Stern e</w>
mir ,</w>
in ter</w>
glück lich</w>
fü hr
w ei
ul ern
t el
p u
day ,</w>
aut um
V ö
S port
s ou
m it
it y</w>
inter est
ci al</w>
L uft</w>
L e
ß ,</w>
u he</w>
tion s.</w>
mach en,</w>
kenn enz
kennenz ulern
," I</w>
un der</w>
p ra
even ing.</w>
c t
Ent spann
boo ks.</w>
Str and
M ann</w>
st .</w>
sport s</w>
sh o
le tz
inter ess
besonder s</w>
all es</w>
al te</w>
s eine</w>
par k</w>
p f
mu se
h ou
cho col
al .</w>
und e</w>
imm el
and er
ab er</w>
a ir
Rest aurant</w>
t en.",</w>
st en</w>
schön .,</w>
s ur
au b
an im
S u
L es
v es.</w>
be im</w>
C h
star s</w>
m en</w>
lich en</w>
de .,</w>
achie ve</w>
s ie</w>
könn en</w>
ge th
do or
be en</w>
b le.</w>
Spazier gang</w>
ü ck
o hn
n ess</w>
isch ,</w>
al ten</w>
op en</w>
ne ver</w>
m al
dr ing
ar t.</w>
Somm er</w>
Ger uch</w>
" Mein</w>
se .</w>
k e.</w>
ist ",</w>
ges s
f t,</w>
T he
P ro
Lie be</w>
schein t</w>
ra in</w>
könn te</w>
dring end</w>
to geth
jo g
h il
z z
t es</w>
st ra
se ,</w>
on e.</w>
mysel f.</w>
g am
fr ie
bevor zu
Vö gel</w>
zie h
ver sa
t en",</w>
s c
re ally</w>
mach en.",</w>
d ,</w>
c ke</w>
Ka ffe
ro a
pr ä
ie ,</w>
fre e
d y</w>
au ch</w>
we ath
w är
st ol
conc ert</w>
c yc
bevorzu ge</w>
y ,</w>
pr ou
im pro
do w
every thing</w>
coz y</w>
bring s</w>
aur an
an i
Nach t</w>
Ja hr
G r
sp iele</w>
so on.</w>
m ung</w>
isch en</w>
bir ds</w>
K o
schön e</w>
pro du
or iz
m en,</w>
lear ning</w>
lan g
is i
el y</w>
di es
delici ous.</w>
com for
Wohn ung</w>
Mu se
vis it</w>
su pp
sch ö
ge ht</w>
ein fa
dr u
con versa
ur gently</w>
ph one</w>
it .,</w>
ent s</w>
c ra
at er</w>
Fitn ess
pe a
mo tiv
ho t</w>
crea tive</w>
b ie
ab le.</w>
w ent</w>
ur t
togra f
spazier en</w>
mach en",</w>
les e</w>
j a
ger ade</w>
an c
wünsch te,</w>
u s.</w>
trav el
sta y</w>
plan ning</w>
P izza</w>
z eu
str en
prou d</w>
ni ce</w>
me di
g end
bege ister
at e.</w>
K ra
stol z</w>
sh ining</w>
ble ib
val ue</w>
se e</w>
s am</w>
er es</w>
em ber
d ri
Freiz eit</w>
we e
ti c.</w>
s or
c lou
wi th
ton ight.</w>
po wer</w>
nee ds</w>
ne ,</w>
kann .",</w>
ein mal</w>
chan ge</w>
L a
Hob b
Fami lie
," My</w>
te t</w>
h um
d ing</w>
aga in.</w>
Per s
, G
mach en</w>
land s
e d.</w>
c el
sm all</w>
ist .",</w>
every one</w>
au m
se tz
m ä
et ing</w>
da v
Ges chen
,I t's</w>
wer de</w>
w and
gi ves</w>
even ing</w>
do m</w>
be i
be ein
Z iele</w>
B a
plan e</w>
fü ll
f all
co ffe
auf ,</w>
au m</w>
W et
W e
Er fahr
w hat</w>
tre ff
ember aub
bring t</w>
at emberaub
Konz ert</w>
Her bst</w>
toll ,</w>
sch en</w>
pres si
ne t</w>
man chmal</w>
h op
at t
mich ,</w>
lau gh
er s</w>
er frisch
ch e
c es</w>
W ir</w>
Stra ß
Mensch ,</w>
sch reib
ri ch
r is
dav on,</w>
Se el
Sch w
relax ing.</w>
rea tivit
geh en",</w>
el t</w>
brea th
L ach
Ge dank
t y
lea ves</w>
lau b</w>
lands cap
get ting</w>
de c
ch .</w>
Sonnenunter gang</w>
Schokol ade</w>
y oga</w>
un k
sh ow
sh op
or gan
n ich
h u
h ol
en th
th ough
n ie</w>
me dit
har d</w>
g le
boo ks</w>
Fre und</w>
z ,</w>
verbring en",</w>
v o
urt sta
s st</w>
interess an
coo k</w>
Um wel
- F
w ell
usi a
th em
se as
n a
m .</w>
in king</w>
ge ,</w>
dr en</w>
M ar
Geb urtsta
list en</w>
ju st</w>
uns er</w>
sport s.</w>
s ol
s ind
ess en</w>
coffe e.</w>
b .</w>
H immel
wimm ing</w>
w ort
th .</w>
su cc
schö n</w>
on s.</w>
lich er</w>
g ood.</w>
f t
W ol
W is
Fil me</w>
,T here</w>
ähr t</w>
stu di
k t
k a
co lo
," Yester
zu r</w>
war me</w>
p ut
k ur
gr ün
Fr ühl
wir d</w>
tic ularly</w>
s y
par ticularly</w>
n ic
me ,</w>
mar ke
ihr e</w>
ho w</w>
wor k.</w>
ob ach
n er</w>
com e</w>
bi li
K ar
sch wimm
relax .</w>
r y</w>
m en
inspiri er
ge tr
gar den</w>
f ährt</w>
f ir
enth usia
e ch
Wass er</w>
G lü
," In</w>
ö f
wal ks</w>
verbring en.",</w>
ung en.,</w>
s en</w>
perfe k
listen ing</w>
fut ure.</w>
en erg
W inter</w>
V or
M it
Fre un
ver bess
tra ge</w>
passi on</w>
mounta ins</w>
it u
interes si
gut en</w>
gu t,</w>
cit y.</w>
bir th
b un
at ed</w>
,W e</w>
we g
ung laub
tiv e.</w>
some times</w>
sch e</w>
ohn e</w>
m om
hom e.</w>
ca mp
breath ta
br ing</w>
S tim
Lach en</w>
J e
" Die</w>
y ear
togra ph
stren g
sp ro
insp ir
gi ve</w>
gemach t,</w>
et s</w>
D uft</w>
wat er</w>
v in
shi p</w>
rela x</w>
outsi de.</w>
fes tiv
Zukun ft</w>
N e
K lei
weath er</w>
sunse t</w>
pla y
kl einen</w>
colo r</w>
Ges ell
wh i
ro w
interes ted</w>
fahr en</w>
R o
N eu
Musi k
M a
Ges prä
ti es</w>
t ro
pe ac
p er</w>
me eting</w>
in ess</w>
ie d</w>
geh en.",</w>
al t</w>
Freu de</w>
z ig
ver b
s ing</w>
r e</w>
perfe ct</w>
on es
disco ver</w>
al ready</w>
Sch ne
H au
Glü ck</w>
Ar t</w>
,C o
ver .</w>
trav eling</w>
toll es</w>
kann ",</w>
ing ,</w>
in cre
incre di
hab en,</w>
g ing</w>
c t.</w>
c ou
Un ter
Reis e</w>
I de
Bl ä
,"Yester day,</w>
ü ß
än d
mo sp
ern .",</w>
dream s.</w>
dis h
Wet ter</w>
Q u
P a
Möglich keit
wa ch
pro te
oug ht</w>
l ,</w>
e ma
y our</w>
h and
g ier
enjo ying</w>
d ra
sle ep</w>
se a.</w>
sch laf
p s.</w>
out door
op tim
f it</w>
f ic
ent s.</w>
be obach
ar i
Or t</w>
se d</w>
er k
b lo
val u
vaca tion</w>
th an</w>
spro bier
sou l.</w>
sch me
oo l</w>
fin de,</w>
ern ",</w>
e t.</w>
d inn
c are</w>
advent ur
Wal d</w>
ö h
z i
t or
summ er</w>
sp re
sel f
s mi
ell s</w>
d en.,</w>
col d</w>
L u
Gesund heit</w>
B o
whi le</w>
vol l</w>
tr au
summ er.</w>
schaf t,</w>
ne .,</w>
ma king</w>
en s</w>
all eine</w>
Wol ken</w>
F u
är k
u res</w>
tig ,</w>
pea ce</w>
geh en,</w>
fil m</w>
ess e</w>
e du
de ut
colle c
bri gh
boo k.</w>
aus e</w>
H aus</w>
Frei heit</w>
Fr üh
Ab end
öf ter</w>
z ep
un ter</w>
sein .,</w>
re fresh
p lea
on e
l ar
in s.</w>
import ant.</w>
i li
g er</w>
fascinat ing.</w>
el e
eigen en</w>
c le
Z eit
W and
R uhe</w>
N et
Les en</w>
Konz er
Gedank en</w>
uni ver
sch w
pl or
ko ch
ir gend
interest ing</w>
health y</w>
ha ving</w>
delici ous</w>
ca f
au sprobier
Kin der</w>
z t</w>
reis en</w>
es z
er le
c ri
Ur laub</w>
Ta g,</w>
Leiden schaft</w>
p on
lie b
fa st</w>
dru ck
En erg
wich tige</w>
ti tu
sp ort</w>
p ur
he d</w>
g y
f l
ch it
bes ch
Möglich keit,</w>
H e
Fitness studi
, Re
sle ep
si mp
se l</w>
sc ent</w>
r un
mu ch</w>
lern en</w>
c la
b ought</w>
K ör
w om
tre ib
lan g</w>
irgend w
impro ve</w>
go als.</w>
fr u
fan ta
excit ing.</w>
einfa ch</w>
ani mal</w>
Natur ,</w>
Fu ß
F ra
sel bst
ne d</w>
ne c
lie bst
isch .,</w>
in v
for est</w>
ck en</w>
ch ir
P f
,T ra
,A n</w>
with out</w>
un ver
un be
supp ort</w>
str on
spiel t</w>
on s</w>
ge kauf
er leb
brau cht</w>
aus ,</w>
L äch
H ar
ä f
wunder schön,</w>
v iel
stü ck</w>
näch ste</w>
gre at.</w>
comfor ta
breathta king.</w>
bl üh
beauti ful
Y og
Net fli
Her bst
Ber ge</w>
,Co ffee</w>
si ch
sci ence</w>
schme ckt</w>
sa w</w>
om .</w>
mä ß
lou d
irgendw ann</w>
ing s.</w>
hab en",</w>
ha t
er c
conc er
Or te</w>
Kra ft</w>
B ild
B al
w o
t ei
qu ie
pro je
pp e</w>
me t</w>
ma j
li m
ko che</w>
gel mäß
ge gen
es pe
en s
d .,</w>
can 't</w>
W ei
M om
,B oo
th ere</w>
s we
par t</w>
nach ,</w>
bess er</w>
be komm
Lieblings b
G ra
E is
C af
ü h</w>
w ick
vaca tion.</w>
star t</w>
se hr
lern en,</w>
jo b.</w>
interessi ere</w>
har t</w>
free dom</w>
ex plor
es e</w>
end en</w>
Sch reib
M on
K reativit
B ro
wor k
we ar</w>
soll ten</w>
self -
m ood.</w>
loo k</w>
krea tiv</w>
hou se</w>
geseh en,</w>
g s</w>
do ing</w>
al so</w>
Läch eln</w>
Fra u</w>
C o
B et
w ine</w>
sti c</w>
ri ght</w>
ra in
posi tiv</w>
opport un
it y.</w>
hei ß
er füll
coun tri
conversa tion</w>
be g
bar ,</w>
an .</w>
T an
wom an</w>
them .</w>
re gelmäß
l erne</w>
ge back
ern seh
diff ic
ba ked</w>
b or
Wo che</w>
Spra che</w>
Sch u
J o
- S
wit sch
ut ter
tast es</w>
outsi de</w>
ma g
h is</w>
groß e</w>
fr üh</w>
environ ment
ear ly</w>
de vel
clou ds</w>
b y.</w>
S el
K om
7 .</w>
wer t
po ssi
p e</w>
ie .,</w>
hob bi
h äl
f t.,</w>
f ar
b au
apart ment</w>
Yog a
Sch wimm
R om
Blä tter</w>
B uch
y si
vis iting</w>
spiel en</w>
s eri
m ,</w>
l le</w>
b re
ar y</w>
Par t
0 .</w>
vor bei
uch en</w>
u p
other s</w>
h er</w>
h ell
geh en</w>
di ver
air .</w>
a k</w>
Re gen
Ja p
Geschich te</w>
,Tra v
zig ar
weekend s.</w>
te m</w>
t w
s w
mov ies</w>
mich .,</w>
jo y</w>
jo b</w>
ing s</w>
in ,</w>
he it.,</w>
habe ",</w>
h n</w>
ant wort
an zu
S ci
F or
Abenteu er</w>
,P e
,Boo ks</w>
versu che</w>
t ball</w>
pla ces.</w>
den k
com ing</w>
ar t
al one</w>
S o
S k
D e
z witsch
w inter
uns er
u che</w>
st er</w>
smi le</w>
ing t</w>
häl t</w>
hel ps</w>
discover ing</w>
colle ct</w>
autum n</w>
an k</w>
ab ili
Schokol a
Musi k,</w>
G ut
Freund en,</w>
Er fol
3 .</w>
tr an
ra l</w>
pers on
l s</w>
ke ep</w>
hi bi
h ät
gr ou
ges und
en ce.</w>
c urr
Gesprä ch</w>
F ernseh
2 .</w>
ö ff
tter .</w>
tr u
pho tograph
g en.",</w>
flie gt</w>
beein druck
Mensch .,</w>
Arbe it
9 .</w>
6 .</w>
zu samm
z en,</w>
wee k.</w>
tion s</w>
t un
sch ei
no vel
li gh
im pressi
fun .</w>
fre und
edu ca
d en.",</w>
coo king</w>
auran ts</w>
al one.</w>
Wel t,</w>
S te
Ger ich
Gefüh l,</w>
Fr ie
, Art</w>
tt le</w>
tivit y.</w>
tig keit</w>
ti al</w>
stell ung</w>
sit ting</w>
s ha
roman t
muse um
le d</w>
l es</w>
hi er</w>
brea k
ad ing</w>
a o
W under</w>
Ver änder
Tier e</w>
Fo tograf
Be deut
ü hr
v en
ung s
se .,</w>
s al
lan gen</w>
j our
it ed</w>
hab en.",</w>
gel es
ex hibi
ex erc
diffic ul
bes uche</w>
auf ger
anim als.</w>
The at
Spazier gänge</w>
Sel bst
Schne e</w>
G ru
4 .</w>
wr ite</w>
lo w</w>
langua ge</w>
ig n</w>
hom e</w>
g en",</w>
enthusia stic</w>
be wirk
Land schaft</w>
Freund in</w>
C om
ö st
ä hig
wonder s.</w>
vie w</w>
sp i
se he</w>
or t,</w>
les en",</w>
gegen über</w>
es t.</w>
e ffe
dream s</w>
an ce.</w>
Sp iel
- Fil
,Re ading</w>
, 0</w>
Ü ber
wonder ful</w>
tre es</w>
s wimming</w>
ones el
o ,</w>
m en.,</w>
großar tige</w>
el le</w>
ein zigar
chocol ate</w>
ch en,</w>
b ig
ar d</w>
Te chnolog
Klei d
1 .</w>
wat er.</w>
w ind</w>
to day</w>
schaf t
ri end
ra sch
passi on.</w>
mounta ins.</w>
le ,</w>
jour ne
in str
h our
excit ing</w>
end lich</w>
chil dren</w>
bew und
b en,</w>
aus .,</w>
P r
Ko chen</w>
Bedeut ung</w>
und .</w>
u ral</w>
ten .</w>
rec ei
p es</w>
me et</w>
ful fil
fli es</w>
dar auf,</w>
blo om
b ly</w>
ar s</w>
Je der</w>
F eu
"" ."</w>
sm ells</w>
regelmäß ig</w>
or ro
op le</w>
lä sst</w>
isch er</w>
import ance</w>
il y</w>
i be</w>
hil ft</w>
helf en,</w>
grou p</w>
gan zen</w>
f it.</w>
do c
dar über</w>
bring en</w>
bl ue</w>
b el
aga in</w>
Stra ßen</w>
Re zep
Me dit
te a.</w>
s now
q ue</w>
pla ce.</w>
o c
ie l</w>
health .</w>
fo und</w>
flower s.</w>
en ;</w>
bir d</w>
an k
P ick
Kin o</w>
Haus ti
8 .</w>
stü tz
samm le</w>
ra ch
r en
opportun ity</w>
om e</w>
of ten.</w>
o ve</w>
lich keit</w>
hat te</w>
gel ern
g li
em p
doc ument
blüh en</w>
ad mir
W inter
W ind</w>
S ti
Natur .,</w>
K ä
Hand y</w>
Fahrra d</w>
,T o
pro vi
p izza</w>
opport uni
o v
me al</w>
ma de</w>
ig ,</w>
ier t</w>
i ence</w>
f ort
f on
exper ience</w>
erle dig
eich n
eb r
e is
der n</w>
d ca
c ts.</w>
Sch lü
F ähig
Be zieh
togeth er.</w>
t ä
ro ff
res pon
oriz on
letz te</w>
landscap e</w>
it ar
health y.</w>
ha t.",</w>
get roff
g rill
eigen e</w>
apart ment.</w>
Kreativit ät</w>
5 .</w>
year .</w>
y og
wa y.</w>
to s</w>
ri de</w>
imm er,</w>
i f</w>
fre i
ex pres
de p
com m
auf zu
at ur
admir e</w>
T V</w>
Familie ,</w>
,Pe ople</w>
" "</w>
ä d
we ak
sp on
schaf t.,</w>
rela tion
me .,</w>
inn er
habe .",</w>
h igh
em a</w>
ein ,</w>
dish es.</w>
comp an
ck ta
birth day</w>
W i
Far be</w>
"" ",</w>
u s
tra in</w>
stre ets</w>
respon si
pa ss
oo th
n igh
mach en.,</w>
lich es</w>
er z
er weit
b la
b en
V iel
Rom an
He ute</w>
C hr
ver wirk
s sel</w>
ref le
organ iz
o o</w>
min d.</w>
lo y
ke y</w>
in i
hi king</w>
genieß en.",</w>
f ur
ein zu
e hr
Neu es</w>
Ne w</w>
H orizon
B äume</w>
wie der
te .",</w>
so und</w>
seri es</w>
p re
n er
lern en.",</w>
ist ma
h än
h au
gemach t.,</w>
gef und
gam es.</w>
fr öh
excit ed</w>
bl u
ac tiv
Wis sen
Freun de,</w>
s an
s ."</w>
pra c
off en</w>
no w.</w>
in ess.</w>
i c</w>
hob by</w>
hn ach
gi f
fi re
en ce
e ating</w>
cu ri
color ful</w>
cin ema</w>
ca ke</w>
c ing</w>
Me di
Gru ppe</w>
F e
win ter</w>
wer den</w>
th er
st and</w>
se tze</w>
schaf ten</w>
prote c
nich ts</w>
il l
geh ör
experien ce.</w>
entspann en",</w>
e ach</w>
d y.</w>
auszuprobier en",</w>
Wei hnach
Stim mung</w>
Liebling ss
wirk lich</w>
wichtig er</w>
ti e
th er</w>
succ ess
s low
re ,</w>
li ttle</w>
li ght</w>
lern en",</w>
ha t,</w>
ge ta
for est.</w>
color s</w>
bes ten</w>
b lau
an y
Viel f
U mar
T ei
Schlü ssel</w>
Lieblings film</w>
K am
Jahr esz
Freund schaft</w>
,To day</w>
yog a.</w>
winter .</w>
week end</w>
trin k
tr ied</w>
s ome</w>
one 's</w>
m at
k öst
hät te</w>
ho col
hocol ate</w>
eit .,</w>
ein .,</w>
calm ing.</w>
at s</w>
an ta
Ta g.,</w>
Spa ß,</w>
Ge mü
G ro
,F riend
ü tz
watch ed</w>
ta li
st and
some day.</w>
so on</w>
seas on.</w>
scha ff
plea s
par ty</w>
our sel
muse um</w>
men sch
lo s
lau g
hop e</w>
gekauf t,</w>
ge be</w>
er f
en em</w>
eigen es</w>
bewund ere</w>
be tter.</w>
ar ing</w>
an gen
al e</w>
Wochen end
S ie</w>
Jo b</w>
H a
Gro ß
, Sp
vis ited</w>
verbring en</w>
sch le
novel s.</w>
ni c</w>
lou d</w>
le is
k om
ig e</w>
ic tion
h on
gre en</w>
go als</w>
ges und</w>
f en,</w>
energ y.</w>
curr ently</w>
ck .</w>
b li
Ta ges</w>
Flu g
wr iting</w>
wr it
tig .,</w>
st ri
sport .</w>
spe cial</w>
sh in
reis en,</w>
reg ularly</w>
rea li
langua ges.</w>
impressi ve.</w>
he a
g n
fut ure</w>
faszinier end,</w>
d ie
cult ures</w>
cre am</w>
challen ges.</w>
cel ebr
autum n.</w>
auszuprobier en.",</w>
Ge d
Far ben</w>
F en
Bet t</w>
wunder schön.,</w>
verbring en,</w>
unglaub lich</w>
though ts.</w>
stra hl
spe c
reis e</w>
pl at
pic nic</w>
or .</w>
n er.</w>
incredi bly</w>
h oriz
g la
frisch em</w>
f ly</w>
difficul t</w>
de d</w>
cla ssi
at titu
ach t</w>
Wand ern</w>
V in
Ur laub
L ife</w>
Kaffe e,</w>
Ja hr</w>
I tali
E l
Chr istma
,L ove</w>
tr ue</w>
tol er
te chnolog
st al
schön en</w>
s now</w>
refresh ing.</w>
p to
me an
lie gt</w>
kennenzulern en",</w>
entdeck en",</w>
ent wick
ch en.,</w>
cal m</w>
c lim
ba ck</w>
advent ure</w>
a hl
Strand ,</w>
G ute</w>
,C hocolate</w>
ö s
ve geta
uns eren</w>
tivit ä
t ball
spe ak</w>
se t</w>
s onn
mu ch.</w>
m m
k now
ger ne,</w>
eri en</w>
d y
countri es.</w>
chocol ate.</w>
calm ing</w>
bi cyc
be d</w>
at is
at es</w>
W ir
U ni
T o
Pro je
Lieblingsb uch</w>
K uchen</w>
,M o
wär e</w>
weekend .</w>
sit y</w>
s ie
rie cht</w>
oo king</w>
les en.",</w>
la r</w>
i d</w>
g t,</w>
ex p
ch es</w>
bo dy</w>
W ein</w>
Vor liebe</w>
M an
K ind
In ter
Gut es</w>
G lück
B est
Au ssi
Au f
weit er
sp ä
schei d
re d.</w>
po li
peac e
l es.</w>
ke ep
k ein</w>
ho li
hal te</w>
ha t",</w>
fo re
fic tion</w>
fe el
f is
er ie</w>
d en",</w>
bu ild
at ing.</w>
Par k.,</w>
M ein
Kör per</w>
Haus e</w>
Flu ss</w>
ö ß
sch t</w>
ro o
respe ct</w>
p ri
ome times</w>
ol .</w>
o ver
näch sten</w>
m s.</w>
li ving</w>
i er</w>
fir st</w>
fin ally</w>
el y.</w>
e mo
devel op
day s.</w>
con nec
ba d</w>
af ter</w>
a ge</w>
Z eit,</w>
W ich
Umar mung</w>
Er inner
,S port
zu frie
z ur
ver änd
togeth er</w>
sur pr
stre et</w>
stra li
ser ies.</w>
sch ut
sch ir
ri ver</w>
lo ss
li ves.</w>
la ke</w>
keit en</w>
jo y.</w>
füh l
f le
f ei
do w.</w>
Se e</w>
Geburtsta g</w>
Frühl ing</w>
Frei en</w>
Fahrra d
w s</w>
the ater</w>
te ",</w>
t ing.</w>
o .</w>
n ick
helf en</w>
dan ce</w>
da ys</w>
chir ping</w>
chil d</w>
ber ühr
begeister t</w>
at mosp
W or
Sci ence
I 'm</w>
Himmel .,</w>
Au strali
, Y
u p.</w>
sun .</w>
schn ell
sch lä
r au
p ing.</w>
oo r</w>
ob ser
le uch
k ti
ier en",</w>
hu g</w>
f en</w>
er s.</w>
dep end
d ist
coun tr
ch ing</w>
ch ar
bi le</w>
ber eit,</w>
b is
adventur es.</w>
Theat er
L i
K ind</w>
Hob by</w>
,S ometimes</w>
,E very</w>
z eit</w>
vo m</w>
uni que</w>
und en
um ,</w>
ty pes</w>
th inking</w>
slow ly</w>
qu ick
po ten
mi c
ma gi
lo t.</w>
le t
i l</w>
har mon
gr and
friend shi
f itn
es .,</w>
er ence</w>
en ga
dinn er</w>
de t</w>
com e
c lea
brigh t
at h</w>
angen eh
an ge
an der</w>
Wel t.,</w>
V o
Spra chen</w>
Science -F
Hobb y
Har ry</w>
D ok
B rie
,R a
,C ooking</w>
ß .,</w>
zwitsch ern</w>
ut er</w>
t our</w>
st ,</w>
spon tan
relation shi
ra in.</w>
ra di
outdoor s.</w>
off ers</w>
o der</w>
no thing</w>
mounta in</w>
me mor
m el
le d
laug h</w>
l on
je de</w>
ha ber
ges tal
erk und
entspann en.",</w>
bloom ing</w>
bi ke</w>
beg inn
Mensch en.,</w>
M acht</w>
Kat zen</w>
H unde</w>
Ge ist</w>
F anta
D u
Ch ance</w>
,Sport s</w>
verwirk lich
s s.</w>
s ong</w>
produ c
optim is
op ini
neh m
liebst en</w>
k einen</w>
gr öß
geh en.,</w>
friend .</w>
ffe ,</w>
fan .</w>
fahr en,</w>
f oo
expres s</w>
ern en</w>
en k
e -
dr ück
cre ate</w>
clea r</w>
c row
beruhig t</w>
Vo gel</w>
Tei l</w>
Strand .,</w>
Sonnenunter gänge</w>
Musi k.,</w>
Gesell schaft</w>
Caf é
Ber gen</w>
A l
w ing</w>
tion en</w>
sk in.</w>
s atis
responsi bili
recei ved</w>
leck er,</w>
lar ge</w>
lang sam</w>
l ung</w>
ier en</w>
hei l
f la
environ ment.</w>
en ter
dec or
ber eit
Tr aum
Rest aurants</w>
K la
ä hl
well .</w>
wal k.</w>
voll ,</w>
unser er</w>
t ou
su che</w>
sp ek
schw ier
neu gier
n is</w>
mor gen</w>
lau t</w>
langua ge.</w>
he u
ha te</w>
ha sse</w>
ha ir
geback enem</w>
frie d
for ma
e .",</w>
dur ing</w>
c ed</w>
bu y</w>
activ i
Vielf alt</w>
Umwel t
Sonnen auf
Po ten
Pf lan
Frie den</w>
Ess en,</w>
war ds</w>
to wards</w>
t ell
si l
seh en",</w>
relax ing</w>
relax ation.</w>
provi de</w>
perfek te</w>
pa th
p es.</w>
n o</w>
loo ks</w>
ll t</w>
le be</w>
l ate</w>
instr um
il s</w>
i cal</w>
ho ffe,</w>
go t</w>
gi ft</w>
ge gess
dies em</w>
atemberaub end,</w>
Z iel
Ver antwort
R espe
Poten zi
Par k,</w>
Le ute</w>
J og
Geschen k</w>
Ger äu
Gar ten.,</w>
Flug zeu
Familie .,</w>
Aussi cht</w>
Ar ten</w>
ti gen</w>
ta g</w>
spann end,</w>
sh ort</w>
pref erence</w>
p izz
nic k</w>
n y</w>
mo re.</w>
me tter
l er</w>
könn en.",</w>
kl ar
histor y.</w>
happ iness.</w>
ha be,</w>
geb en</w>
fo tograf
e ",</w>
dec isi
ck ,</w>
begeister ter</w>
b ro
ali ty</w>
Wir k
Sch metter
Abend essen</w>
A ll
än k</w>
z en",</w>
z eichn
sp ät</w>
s y</w>
ru hig
ou s
mo on</w>
keep s</w>
ier t,</w>
hi king.</w>
gy m</w>
ge mein
fun k
fore ign</w>
flu g</w>
fl ying</w>
eln ,</w>
d oor</w>
ch ,</w>
c or
be t
aus ge
Y or
Pick nick</w>
Leben s,</w>
L auf
I m</w>
H o
Gerich te</w>
Ent scheid
Bild ung</w>
An g
ta k
sti c.</w>
star ted</w>
spr ing.</w>
p op
n ut
l äu
krea tiv
kennenzulern en.",</w>
h ome
ge hab
ge .,</w>
g ent
fu n</w>
e y
d est
con tri
comforta ble</w>
break fast</w>
aufger e
ar y.</w>
a s.</w>
Wel tre
W ell
Technolog ie</w>
Stad t,</w>
S in
Netfli x</w>
Mon d</w>
Himmel ,</w>
El tern</w>
sing ing</w>
schn ell</w>
s h</w>
pu ter
onesel f.</w>
o .,</w>
los op
la ke.</w>
j um
isch es</w>
in depend
hig h</w>
hi losop
gle ich
e qu
do g.</w>
di d</w>
concer ts.</w>
blu e.</w>
b ur
an .,</w>
am m
Möglichkeit en,</w>
Fe hl
Erfahr ungen</w>
Entspann ung</w>
Ar chit
,Trav eling</w>
,G ood</w>
," Life</w>
z ahl
y ."</w>
ver fol
treff e</w>
surpr is
sch re
roman tic</w>
ren ov
r y.</w>
produ k
our ce</w>
mein es</w>
keit .,</w>
k n
in t
gra ss</w>
for m</w>
flie ß
environment al</w>
entspann t</w>
d n
comp li
cin ema
ch ild
ali ty.</w>
G itar
G en
w ere</w>
ta ble.</w>
t om
sunse t.</w>
st än
st le</w>
simp ly</w>
sie ht</w>
roo m</w>
p t</w>
mo bile</w>
me a
loud ly.</w>
les en</w>
le ich
lau t,</w>
hobbi es.</w>
he ar</w>
glück lich.,</w>
experien ces.</w>
diver sity</w>
day ."""</w>
be tra
b ell
at ten
ab sol
a si
Zu g</w>
Hobb ys</w>
G el
Fitnessstudi o</w>
Er leb
Ein en</w>
,M e
,H i
" Ein</w>
Über rasch
tri p.</w>
str ong</w>
sind ",</w>
show er</w>
sch la
roa d</w>
possi bili
pizz a.</w>
ol le
n ur</w>
lo ver.</w>
lo ve.</w>
lie bt</w>
inspir e</w>
groß en</w>
gam es</w>
fanta stic.</w>
fan tast
Verantwort ung</w>
Science-F iction
K ir
Herausforder ungen</w>
Ein stellung</w>
z w
wer s</w>
vol le</w>
verb rach
vegeta bl
travel ing.</w>
though ts</w>
stu d
sp ar
so und
sit u
sch r
poten tial</w>
par ents</w>
musi cal</w>
k on
inspi red</w>
ic e.</w>
gro und.</w>
gemüt lichen</w>
fol gre
faszinier t</w>
exper im
ess en,</w>
er folgre
en er</w>
dr inking</w>
discover ed</w>
con si
comp le
besuch t,</w>
besuch en,</w>
bess ere</w>
b il
anim als</w>
ab hän
Umwel t</w>
Tan zen</w>
Re cht</w>
Potenzi al</w>
Lieblings getr
Früh stück</w>
Auto s</w>
A t
,Hi king</w>
ün st
wer den,</w>
valu able</w>
tra ff
te l</w>
st es</w>
st er
sk y
s on
responsibili ty</w>
reis en",</w>
quie t</w>
lear ned</w>
l än
know led
k u
k r
k it
k ar
k al
hum an</w>
her e.</w>
h l</w>
getroff en,</w>
fascinat ed</w>
ess en",</w>
entdeck en.",</w>
eln .",</w>
curi ous</w>
child h
ch ur
bess eren</w>
au th
We g</w>
Spa ß</w>
Spa ß.,</w>
Gra s</w>
Ch anc
z en.,</w>
z ei
wa hr
travel .</w>
t our
st y
s au
reci pes.</w>
prac ti
nat ural</w>
le t</w>
it en</w>
histor ical</w>
heal th</w>
h in
h en</w>
gen s</w>
frisch en</w>
el ,</w>
ein ander</w>
dow n.</w>
des er
d res
cult ure.</w>
cle an
calm s</w>
c ie
app iness</w>
Wich tig
Nach th
H ei
Ge mein
F es
Er n
B ien
Archit ek
,P izza</w>
,A ut
z .,</w>
um or</w>
um n</w>
ti red</w>
the y</w>
ter .</w>
ta ge</w>
st ad
sind .",</w>
se c
pho to
organ is
neh men</w>
maj est
mach e</w>
lieb haber
lern en.,</w>
l and</w>
ing en</w>
ig .,</w>
ier en.",</w>
her r
fr ische</w>
fir e</w>
fascin ating</w>
end ed</w>
en te</w>
e ct
dca st
d om.</w>
d ly</w>
con t
color s.</w>
cinema .</w>
bleib en",</w>
b roa
b low
all es,</w>
aga in
ac tive</w>
W ar
Schw ä
Rezep te</w>
R au
Pers on,</w>
Frei heit,</w>
Fr is
Erinner ungen</w>
Dok ument
At mosp
Ang st</w>
A k
, V
wer k</w>
tier en.",</w>
th in
t s
sta in
st unden
spi ra
seh en</w>
seh en,</w>
satis f
ro ll
peac e.</w>
outdoor s</w>
n ,</w>
majest ät
journe y</w>
it ra
interest ing.</w>
ie .</w>
gut .,</w>
gen u
g he
exerc is
er kl
du f
document ar
d ent
anc ing</w>
an ti
a ,</w>
Sti lle</w>
Somm er
Schreib en</w>
R ad
Proje k
Mom ent</w>
J ob
Fuß ball
Bes te</w>
Atmosp h
,S un
,Aut umn</w>
zur ück
we en</w>
unter stütz
umm er</w>
so cie
sehr ,</w>
s ue</w>
s qu
pro ble
p le</w>
oo k</w>
mi l
maj es
li ves</w>
kann ,</w>
geseh en.,</w>
every thing.</w>
entspann end,</w>
einzigar tig</w>
e al
com mit
boo k
besuch en",</w>
ber eich
bel eb
b utter
ar chit
ant ly</w>
ach te</w>
a king</w>
Sp ort,</w>
Seel e,</w>
S on
S itu
Muse en</w>
Fuß ball</w>
F all
E hr
Abenteu er,</w>
A si
,C ats</w>
wichtig .,</w>
tu t</w>
toll en</w>
stres s
so cial</w>
sk i
sh i</w>
s ource</w>
s en,</w>
s and</w>
pur sue</w>
photo s.</w>
m t</w>
m ind
m .,</w>
lo ved</w>
könn en",</w>
it ze</w>
inspi ra
in e.</w>
i hr</w>
hour s.</w>
hob by.</w>
g ab
fa st.</w>
experien ces</w>
ess er
end er</w>
en ti
educa tion</w>
bl um
ber eis
be fo
auszu drück
auf reg
auf .,</w>
ation en</w>
advent ure.</w>
R a
Kaffe e.,</w>
In spira
Freiz eit
Ern ähr
Christma s</w>
? ,</w>
,D ancing</w>
ä llt</w>
wor ks</w>
wonder ful.</w>
well -
we aring</w>
verschieden en</w>
u se
tim es.</w>
ti k</w>
te t,</w>
su stain
su per
stunden lang</w>
spe ci
schön er</w>
sch ein</w>
qu o
probier e</w>
p an
off er.</w>
leck eres</w>
laugh .</w>
he art.</w>
happ iness</w>
g ing.</w>
flo wer</w>
fin is
erreich en</w>
enter ta
dest in
can not</w>
brea d</w>
beruhig end,</w>
ation s.</w>
ath on</w>
al ong</w>
Wissen schaft</w>
W ander
Sonnenunter gan
Sch nee
S and</w>
Muse um</w>
Lieblings ti
K r
Gar ten,</w>
Fall schir
Ess en.,</w>
Bro t</w>
Be weg
Aus flug</w>
ver änder
sw im</w>
sp ent</w>
shin es</w>
ru n</w>
rec or
r ing</w>
passi on
pain ting</w>
optim ist
lo wers</w>
lo ves</w>
leb en",</w>
k alten</w>
it ."</w>
interessan te</w>
ing u
h ause</w>
h ,</w>
gemüt lich</w>
g s.</w>
explor e</w>
ex c
enjo y
de k
ch en",</w>
bo ard</w>
bewirk en,</w>
befo re.</w>
bal con
ba s
b en.,</w>
Weltre ise</w>
Schwä che</w>
Mo tor
Medit ation</w>
Man chmal</w>
K ü
Jap an</w>
Freund en.,</w>
Fami ly</w>
Buch ,</w>
Ber g
,Y our</w>
,F lowers</w>
"" The</w>
äum en,</w>
weak ness</w>
vorbei .,</w>
ve get
un besch
u re
steh en</w>
st ärk
sehr .,</w>
schlä ft</w>
sch ool</w>
sam ,</w>
rest auran
pf le
p ick
p fe
op en
nis se</w>
me d</w>
m ind</w>
kl eine</w>
ir itu
il y.</w>
ig er</w>
hou se.</w>
hi ke</w>
hal t
ful ly</w>
faszinier end.,</w>
ev isi
er inn
end es</w>
ein g</w>
da von</w>
comfor t</w>
co ver
chur ch</w>
cal .</w>
brea k</w>
bew us
bar .,</w>
Um geb
Seel e</w>
Schwimm en</w>
Respe kt</w>
R u
N o
L ernen</w>
G rill
G leich
Fo tos</w>
, O
, Family</w>
äf tig
zieh en</w>
z en.",</w>
wir d
win d.</w>
v our
v em
u se</w>
ta ste</w>
t ook</w>
succ ess.</w>
spiel en",</w>
so ft
seh en.",</w>
put er</w>
on es.</w>
m a</w>
ligh t.</w>
leb en</w>
k lass
ich t
hn en</w>
ges p
ger ne.,</w>
fa vour
erreich en.",</w>
er war
ear ning</w>
archit ect
app o
an other</w>
ak tiv</w>
a st
Wirk ung</w>
T enn
Po li
P il
Lieblingsgetr änk</w>
E u
Com puter
B li
B as
,S ummer</w>
, Be
än der</w>
um .,</w>
tz t</w>
tivit y</w>
tel e
ss en</w>
sch ütz
s einen</w>
relax ation</w>
ra ining</w>
pri cel
opportuni ties</w>
o p</w>
no v
li fe
ko st
k er</w>
jog ging</w>
ing ."</w>
hör en</w>
hilosop h
favour ite</w>
es ter</w>
contri b
con fi
c lear
bleib en.",</w>
bi t</w>
bet ween</w>
beautiful ly</w>
beautiful ly.</w>
b arbe
an ke
activi ties.</w>
abili ty</w>
Umwelt schut
Straß en
St äd
Qu elle</w>
Netfli x
Lieblings sport
L änder</w>
D i
Café s</w>
B r
A ch
,C hil
zw ischen</w>
wer de
w ell</w>
ver trau
up coming</w>
unbe zahl
th em</w>
streng th
roman tic.</w>
ri l
restauran ts.</w>
relax ed</w>
pop u
ph ysi
of f</w>
ne igh
n ie
m spr
laugh ter</w>
h or
gra ss.</w>
ges t</w>
ge gan
free dom.</w>
f iel
effe ct</w>
chan ge.</w>
cal ly</w>
brea d.</w>
att ended</w>
atemberaub end.,</w>
an z
Part ner</w>
Par ty</w>
P lan
K ri
K op
Eis cre
,Chil dren</w>
y l</w>
win e.</w>
ult ur</w>
stor ies.</w>
schä tz
s ."""</w>
re ich
p i
nich t,</w>
mo tor
loud ly</w>
l ying</w>
inspiri ert</w>
in flu
gle it
ga me</w>
g lich</w>
festiv als.</w>
f au
ex pressi
et s.</w>
ess en.",</w>
eln ",</w>
des ig
dek or
chil dr
ca re
c tion
bl anke
beeindruck end,</w>
beau ty.</w>
arbe it</w>
air plane</w>
Wochenend e,</w>
Wi es
Ver ke
Mor gen,</w>
Kunst aus
Kar ao
H und
Feu er</w>
Fes tiv
Fallschir mspr
Du sche</w>
Bal k
B lu
,H eal
,H appiness</w>
," The</w>
z one</w>
y ou
vi de
ver bin
unver gess
traff ic</w>
tra in
tei l
te d.</w>
sur ro
sunse ts</w>
su b
ro ss</w>
ra id</w>
pto p</w>
popu lar</w>
pla ces</w>
pe ts.</w>
part ner.</w>
pain t</w>
ma z
leb en.",</w>
ke tball
ier en,</w>
hi g</w>
heiß e</w>
gesch loss
genu g</w>
for get
flie gen</w>
fitn ess</w>
fa shi
exhibi tions.</w>
ei er
dri ving</w>
drau ß
dow n</w>
con st
comp uter</w>
che es
c at
betra ch
beruhig end</w>
belie b
ation ,</w>
an stal
al ,</w>
af raid</w>
ac tivity.</w>
V ide
Sport ar
Sonnen blum
Lieblings z
L änder
K ultur</w>
Ide en</w>
Freun de.,</w>
,S wimming</w>
,Ra in</w>
zusamm en</w>
weiter zu
w ed</w>
ver s
ver di
v ing.</w>
un forget
tier en,</w>
tier en",</w>
ter ,</w>
stres si
stres s.</w>
sky di
run ning</w>
ri ch</w>
rec ently</w>
ream .</w>
read ing.</w>
r iting</w>
pu zz
pricel ess.</w>
positiv en</w>
per spec
n ä
kur z,</w>
k ü
ier t.,</w>
go es</w>
gen heit</w>
f är
ev en</w>
erz ähl
erre icht</w>
dinn er.</w>
countr ysi
contrib ute</w>
col d.</w>
childr en.</w>
bie tet</w>
bekomm en,</w>
at ter
an s</w>
adv oc
ac ross</w>
V og
Tr aum</w>
T er
Sk i
Pro ble
P izz
Gr ün
Freund schaften</w>
Flugzeu g</w>
E r</w>
B il
Ak tivitä
,H e</w>
ün kt
z we
univer se</w>
tre e</w>
to w
ss en,</w>
spä ter</w>
spiel en.",</w>
so cc
sleep ing</w>
sleep .</w>
sing t</w>
shop ping</w>
sh ine</w>
san ft</w>
s wimm
relax es</w>
pfe l</w>
pa ti
p ie
ou t.</w>
on .,</w>
n it
n ess.</w>
museum s.</w>
marke ts.</w>
lo gi
la sse</w>
l ös
k ühl
imm er
im e</w>
ide a.</w>
ib li
h .</w>
gy m.</w>
gen d</w>
geles en,</w>
gelern t,</w>
g ir
friend ship</w>
fre u
f er
erreich en",</w>
erfüll t</w>
ein setz
d el
ac c
abhän g
Zu samm
W ind
Ste u
Lieblingsti er</w>
Kunst ,</w>
Kin dern</w>
F üß
D is
vorbei ,</w>
tre es.</w>
tra di
tr ä
tom orro
tig er</w>
tele fon
tel evisi
ta kes</w>
sound s</w>
si on</w>
s er</w>
perfe kt</w>
pa y</w>
p ünkt
oth er.</w>
o ce
mo ve</w>
m s</w>
les en,</w>
le .,</w>
il s.</w>
ha ve.</w>
genieß en",</w>
gefund en,</w>
ge gen</w>
ge füh
explor ing</w>
every day</w>
er hal
d ro
coz y.</w>
coo king.</w>
commit ted</w>
collec ting</w>
cle an</w>
bright ly</w>
bis schen</w>
be we
b are</w>
Zusamm en
Zukun ft,</w>
Wo hl
Wichtig ste</w>
Schu le</w>
S amm
Rau schen</w>
Pflan zen</w>
M il
H off
Freu de,</w>
Energ ie</w>
E is</w>
D I
,W riting</w>
,Sp ring</w>
,S he</w>
, Yoga</w>
, Sport</w>
z oo</w>
wer den.",</w>
warm es</w>
ut ter</w>
tion ,</w>
tern ,</w>
sun ny</w>
ste ht</w>
sle pt</w>
shop ping.</w>
ri es</w>
r ing
person al</w>
mor gens</w>
m er
lo st</w>
lear n.</w>
lau t.,</w>
lat z</w>
lass en</w>
ja hr
ges unde</w>
gen re</w>
fre i</w>
even ings</w>
end s</w>
en ough</w>
coo k.</w>
co ckta
clo thing.</w>
chno logi
ch en.",</w>
c ause</w>
bie ten</w>
attitu de</w>
atmosp here.</w>
ander er</w>
again st</w>
advoc ate</w>
a me</w>
a .,</w>
Str ess</w>
Sch uhe</w>
Me er,</w>
K ur
J u
Hoff n
Ba d</w>
Arbe it,</w>
,L earning</w>
, Yester
we ht</w>
versu m</w>
unbe d
unbed ingt</w>
un ning</w>
tt i</w>
tro ver
tiv en</w>
ti dy</w>
ss .,</w>
spontan e
soll te.",</w>
sing en</w>
roa d.</w>
ro om.</w>
ris es</w>
rea d.</w>
re tur
positiv ely</w>
on d
mag in
lie d</w>
leb en,</w>
la s</w>
inn er</w>
ing .,</w>
ibli oth
hei m
he it
he ,</w>
happ ily</w>
ghe tti</w>
gesund ,</w>
gesch laf
gemüt liche</w>
gab en</w>
fr üh
est y</w>
ess en.,</w>
ep t</w>
de ep</w>
cou ple</w>
compan y</w>
comm un
clim b
c ut
c ream.</w>
bu zz
bin .",</w>
besch äftig
b üch
appo int
ange fan
ab zu
Yoga -
Uni versum</w>
T V
Sin n</w>
Gesch ma
Gemü se</w>
Erleb nis
En gli
Balk on</w>
B iblioth
B aum</w>
B aum
,R unning</w>
,F oo
,D og
ü f
wär mt</w>
wunder schöne</w>
warm ,</w>
wach sen</w>
vin tage</w>
valu able.</w>
unbesch reib
technolog y</w>
sta un
sit zen</w>
schreib en",</w>
schie d
sch e,</w>
sa me</w>
s oo
ru hig</w>
ro te</w>
ro of
reis en.,</w>
marke t</w>
mal e</w>
li kes</w>
li br
ko chen</w>
ind es
indes cri
indescri b
i h
gro w</w>
getr unk
g lo
fin it
entdeck en</w>
eln .,</w>
dies er</w>
da zu</w>
da s,</w>
con vin
con ta
com es</w>
ch .,</w>
car .</w>
c all
bla u</w>
bicyc le</w>
besuch t.,</w>
be er</w>
aufgere gt</w>
arbeit en",</w>
any thing</w>
T al
Me er
M al
Leiden schaft,</w>
Inter net</w>
Horizon t</w>
Herausforder ungen,</w>
Ger ech
Fotograf ie</w>
Co ckta
Caf é</w>
,Dog s</w>
"" .",</w>
wal king</w>
wa sch
ung e</w>
un ch</w>
tre e.</w>
tion al</w>
ste ck
st .,</w>
socie ty.</w>
sm it
si gh
sho w</w>
schaf ten,</w>
s hed</w>
recor ds.</w>
re li
qu e.</w>
prote ct</w>
pa ir</w>
p reci
p ool</w>
or der</w>
ol er
off en
neugier ig</w>
l ing.</w>
köst lich,</w>
komm t</w>
it at</w>
ide as.</w>
i f
histor y</w>
frisch er</w>
fle a</w>
fe et.</w>
fanta sy</w>
f el
exerc ise</w>
ev ents.</w>
erfrisch end,</w>
erf all</w>
en gu
cri me</w>
convin ced</w>
ci ally</w>
childh ood.</w>
challen ges</w>
bu s
besuch en.",</w>
beruhig end.,</w>
auf steh
all ein</w>
Z iel</w>
Vog el
T h
Su per
S a
Pers ön
Kü che</w>
H un
F lo
Ehr lichkeit</w>
A m
-Fil men,</w>
,Friend s</w>
wunder schön</w>
wunder bare</w>
warm s</w>
vin yl</w>
verbess ern,</w>
ung er</w>
tic s</w>
te am</w>
spazier en,</w>
sho es.</w>
seas on</w>
se t.</w>
se ar
schön es</w>
passion ate</w>
out door</w>
mom ent.</w>
läu ft</w>
l in
kü mm
ke tball</w>
hobbi es</w>
h ö
gla ss</w>
ge br
fröh lich</w>
fro h,</w>
fin den,</w>
fe w</w>
fall en</w>
f ,</w>
ex o
eri en,</w>
entdeck t,</w>
ech ter</w>
cra ck
coo l</w>
collec tion</w>
challen ge</w>
ca tion</w>
ca ke.</w>
c ue</w>
build ing</w>
bes t.</w>
be cause</w>
b ra
au fr
atten tion</w>
a maz
Wor k
Vide o
U hr</w>
Te e,</w>
P ingu
Mor gen
Lu ft,</w>
Lieblingss erie</w>
Lieblings musi
Leben s.,</w>
Lauf en</w>
L it
K üch
Geb äu
Fanta sy
F el
E x
Com puter</w>
Co mic
C ar
,T e
,A n
" Der</w>
über zeu
we ch
viel en</w>
ver anstal
unter weg
th er.</w>
ta x</w>
star s.</w>
spiel en,</w>
sho es</w>
se it</w>
schle ch
schau en",</w>
sa il
reis en.",</w>
quo te</w>
protec tion.</w>
pla ys</w>
pl an</w>
photograph y.</w>
par ties.</w>
pa st</w>
p e.</w>
neu er</w>
ne w
lass es.</w>
l ing
k alt</w>
großar tig,</w>
gif t.</w>
geb en,</w>
ge w
finis hed</w>
fantast isch,</w>
fall s</w>
es ."</w>
e ur
e dom</w>
dr in
comp ani
clo th
bo dy.</w>
bin ",</w>
ber eit</w>
Yor k</w>
W ä
Straß e</w>
Steu er
O p
Nach hal
Leben s</w>
Ja zz
Gesund heit,</w>
G las</w>
Fähig keiten</w>
Fre edom</w>
Eu ro
Blum en.,</w>
Bes onder
zufrie den</w>
yo ung</w>
wo hl
wa it</w>
voll .,</w>
unter schied
tre ibe</w>
t ät</w>
t ;</w>
strahl en</w>
st a</w>
sk ill
show s</w>
se d.</w>
schre ibe</w>
s es</w>
s es.</w>
reativit y</w>
proje cts.</w>
practi ce</w>
pers ön
per for
pa s
pa ar</w>
n 't</w>
mö ch
mom ent</w>
m ärk
lei den
leiden schaft
k en
ir re
inn en</w>
im als</w>
har t,</w>
gi b
genieß en</w>
gegess en,</w>
g s
fru it</w>
friend ly.</w>
espe cially</w>
enjoy ed</w>
di g</w>
den s</w>
cu is
confi den
con sci
clear .</w>
ck .,</w>
challen ge.</w>
caf é
c ts</w>
c our
bo ar
birth day.</w>
beein flu
b row
b ath</w>
ank bar
Z ü
The ater</w>
Sta r</w>
O bst</w>
Möglichkeit en</w>
Lieblings lied</w>
Kör per
Ged ich
Flo h
Arbe it.,</w>
,P ho
äum en</w>
äum en.,</w>
z ut
wel t
warm .</w>
the at
sy cho
st at
sor gen,</w>
sha pe</w>
sein em</w>
sch wer
s ü
roof .</w>
ri ding</w>
rain y</w>
off er</w>
näch stes</w>
neigh bor
ne w.</w>
mü de</w>
mu st</w>
motor cyc
loy al</w>
lou d.</w>
lo ver</w>
l or
inter net</w>
influ ence</w>
i hnen</w>
gemein sam</w>
fre m
fire place</w>
f it,</w>
erkl är
dan cing</w>
dan ce.</w>
d d
consi der
come di
classi cal</w>
car s.</w>
blanke t</w>
bell t</w>
be deck
ate d.</w>
an y</w>
Wis sen</w>
W a
Sp an
Sonnenblum en</w>
Sch at
N ä
Lieblings jahr
Lieblings essen</w>
Kunstaus stell
Hau t,</w>
Gitar re</w>
D ankbar
D ach
,T ime</w>
,C reativity</w>
,An imals</w>
, Freedom</w>
win dow.</w>
wei ß,</w>
verbring en.,</w>
un er
trau ri
t ure</w>
stri ve</w>
spr ing</w>
s ent
ri er
rea s
re it
plan ts.</w>
part ner</w>
oo d
on ly</w>
neh me</w>
lu s
letz ten</w>
leb ens
kenn en
it s.</w>
ier e</w>
ie gel
helf en",</w>
gehab t,</w>
g al
en er
ein kauf
di vi
cou ra
ch ao
c and
beruhig ende</w>
b um</w>
au ber
an z</w>
am .</w>
Wass er
Ta geb
Sch laf
Reis en,</w>
Motor ra
Mor gen.,</w>
Lieblingsjahr esz
Kin o,</w>
K u
Geschma ck</w>
Gen u
G u
Fen st
E mo
,Yester day</w>
,W inter</w>
,Foo tball</w>
,C yc
,C ars</w>
ä mp
z t,</w>
z icht
wil l
wh ere</w>
wei li
voll en</w>
unver zicht
te m
sycho log
sen se</w>
schwimm en</w>
sam keit</w>
re tt
re t
quick ly.</w>
pr äch
opportuni ties.</w>
o li
museum s</w>
li es</w>
leck er.,</w>
lau f
lang weili
keit en,</w>
ke l</w>
ka put
k aum</w>
ju sti
ja ck
inspir ing.</w>
gre at
ger ich
gen o
ge -
fin den</w>
erklär ung</w>
enterta in
enga gier
energ y</w>
eb o
ear ly.</w>
divi du
der ,</w>
dcast s</w>
da m
crea tivity.</w>
const antly</w>
ck s</w>
chees e.</w>
c ro
blau ,</w>
bes itze</w>
beobach ten.",</w>
be qu
be itra
be e</w>
ausprobier t,</w>
Zu hause</w>
Z oo</w>
Z immer</w>
Wohl be
To day,</w>
T oler
Steuer erklärung</w>
Stad t.,</w>
Sport .,</w>
S al
Nach bar
L and</w>
Kleid ung</w>
Haus tier
Fre m
Erfol g</w>
Energ ie,</w>
De cke</w>
B ü
Abenteu er
,S ci
,Me dit
,Heal th</w>
,Cyc ling</w>
," Today,</w>
überzeu gt,</w>
z em</w>
vegetabl es.</w>
ur laub
und en</w>
to day."""</w>
tie f</w>
th rill
stron g
ste he</w>
simp le</w>
se ts</w>
schreib en.",</w>
schn urr
re min
re .,</w>
p en</w>
on es</w>
nach .,</w>
mö glich</w>
mov ing</w>
mea dow.</w>
lie ber</w>
li ter
li st</w>
li est</w>
könn en,</w>
knowled ge.</w>
k re
k er.</w>
je tzt</w>
in .,</w>
ig en</w>
hn e</w>
heu te.,</w>
hel l</w>
grün en</w>
gro w
gesch rie
ges tr
gefüh l</w>
exc ell
entspann end</w>
educa tion.</w>
e k</w>
do w</w>
deser ves</w>
da mit</w>
d esser
c lu
bekomm en.,</w>
be come</w>
att end</w>
ali tät</w>
achie ved</w>
Vin ta
Unter stütz
T ele
Su shi
Su che</w>
So fa
Schnee flo
Nach t,</w>
Hausti er</w>
Ent deck
Bes uch</w>
öff n
äl ter
z z</w>
wort h</w>
wand ern</w>
ver gess
unser em</w>
um welt
tun ,</w>
tru st</w>
tri ps.</w>
tre at</w>
ter min
sun flowers</w>
st ei
sp or
soll te",</w>
skill s.</w>
sil ence</w>
rau scht</w>
probier en",</w>
perfor man
pe t.</w>
p li
ond ere</w>
oce an</w>
nec ess
n ess
mis tak
liebhaber ,</w>
lich keit,</w>
l ine</w>
l ess</w>
k ämp
it ar</w>
is .</w>
inspiri eren</w>
inspira tion.</w>
inspir ing</w>
hum an
horiz on.</w>
he ar
fil ls</w>
environ ment</w>
e ar</w>
dur ch
documentar ies.</w>
der .</w>
cult ure</w>
crea tive.</w>
cre ating</w>
cra f
camp ing</w>
caf é</w>
c er
bu il
broa dens</w>
brigh ten</w>
bes ondere</w>
arbeit en</w>
all ein
all .</w>
al le
achie vem
Wass er.,</w>
W är
Vinta ge-
T hr
St är
Schw ester</w>
Mensch en
Me er.,</w>
H umor</w>
Geschen ke</w>
Gerech tigkeit</w>
Ge wit
Ge heim
Entspann en,</w>
E le
Büch ern</w>
B au
Abenteu er.,</w>
,Pho tograph
,P a
worl ds.</w>
weath er.</w>
wal ks.</w>
wach s
voll es</w>
veränd ern,</w>
ven 't</w>
ve d.</w>
unter stü
unterstü tze</w>
tu n</w>
tru e.</w>
tri ps</w>
technolog y.</w>
tan zen</w>
tal k</w>
ta sk
stre et.</w>
stand ing</w>
sit zt</w>
se con
ro le</w>
ri gh
re pa
pf lan
pain t.</w>
p urr
open -
no is
nehm en.",</w>
magi cal.</w>
m ooth
leuch ten</w>
le tter</w>
la chen</w>
kur zem</w>
kl ing
k ünst
it ä
ihr en</w>
i magin
ha ven't</w>
ger n</w>
gemüt licher</w>
ge mä
fol low</w>
fahr en",</w>
fa ir
erwar ten,</w>
environment ally</w>
entdeck en,</w>
dri ves</w>
crea tivity</w>
compan y.</w>
cloth es.</w>
ck ing</w>
ck en,</w>
chan ge
caf es.</w>
buzz ing</w>
big .</w>
besuch t</w>
ba hn
aufger äum
ation .,</w>
ath le
at ebo
an steck
af ter
Urlaub ,</w>
Tier en</w>
Regen bo
Po tter
Per spek
Mit ta
Her z</w>
Ge tr
D enk
Büch er,</w>
Bü ro
Brie f</w>
B ier</w>
,W at
är e</w>
zu denk
warm en</w>
w an
verbin det</w>
veget ari
under stor
un eh
tic s.</w>
ter t</w>
t ur</w>
swimm ing.</w>
success ful</w>
su shi
su re.</w>
streng th</w>
star ting</w>
sp ra
sm ooth
show s.</w>
selbst ,</w>
schreib en,</w>
sa ve</w>
s is
respe kt
reali ze</w>
pick nick
pe t</w>
pain ting.</w>
orro r</w>
on ce.</w>
og ra
o d
memor ies.</w>
leis ure</w>
lau te</w>
lat er.</w>
lat e.</w>
krea tive</w>
koch en",</w>
it ali
interessan t,</w>
ide as</w>
hör en",</w>
hon est</w>
hell .,</w>
hell ,</w>
h ung
h orror</w>
gu itar</w>
groß ,</w>
gestr es
gehör t</w>
gebr üh
g ol
fließ end</w>
festiv als</w>
fashi on.</w>
fahr en.,</w>
fahr en.",</w>
f äl
f lü
experien cing</w>
exercis e.</w>
ex hau
ess en
ent ly.</w>
engu ins</w>
en rich</w>
em path
el .,</w>
e g
dra w</w>
devel op</w>
decisi ons.</w>
color ful.</w>
clean ed</w>
butter fly</w>
bein g.</w>
as set.</w>
ac compli
Zukun ft.,</w>
Z oo
Wal d.,</w>
W er
Veränder ungen</w>
Theater stück</w>
Schokola de,</w>
S tre
S mooth
Ro ad
Ra di
Pr üf
Pa ar</w>
Mein ung</w>
Lieblingsz itat</w>
Kom ö
Job ,</w>
Itali an</w>
H and</w>
Gr und
Ges ich
Ged ul
G ame</w>
Fernseh en</w>
Eiscre me</w>
E -
C ou
Ber u
Be gleit
Architek tur</w>
,W or
,Sci ence</w>
,""" My</w>
, Fa
z eit,</w>
x i
wa ves</w>
wa ke</w>
w ähr
ver lor
use ment</w>
trink en.",</w>
sushi .</w>
surpris es.</w>
streng th.</w>
sp ic
si t</w>
se k
satisf ied</w>
s üß
ru st
re du
pleas ant.</w>
plan e,</w>
pi an
ort .</w>
my st
m bo
lass en.",</w>
k t,</w>
k es.</w>
ing ly</w>
ier en.,</w>
ic .</w>
hör en.",</w>
ho t.</w>
hei ßen</w>
heal ing</w>
h an
gre en.</w>
gla d</w>
gi ving</w>
ge macht</w>
feel s</w>
fa ce.</w>
f all</w>
exhibi tion</w>
es n't</w>
erweit ert</w>
er hol
ent ,</w>
ell ing</w>
eit en</w>
ech tig
e t,</w>
dru ck</w>
do gs</w>
do esn't</w>
di c
dan c
countri es</w>
color .</w>
big gest</w>
beobach ten",</w>
be d.</w>
ba hn</w>
b and</w>
am usement</w>
am bi
Sp inn
Seel e.,</w>
Se e,</w>
S erien</w>
Reis e,</w>
Poli tik</w>
Par ty
P u
O ut
Lu ft.,</w>
Lieblings -
La un
Kam in</w>
In str
H or
Geschich te,</w>
Ernähr ung</w>
Ding en</w>
C am
Besonder es</w>
,I ce</w>
zu ,</w>
wh ich</w>
wat er
vide o</w>
verwirklich en.",</w>
verbrach t,</w>
v end
v ari
ul in
tw end
tomorro w.</w>
ti ere</w>
t au
stor y</w>
st ö
sp ür
snow fla
sh el
sh .</w>
schr ank</w>
rest aurants</w>
rea l</w>
r or
r ise</w>
r an
qu ari
possibili ties.</w>
ph one.</w>
pass ing</w>
neh men,</w>
n chen</w>
mov ie.</w>
motiv ated</w>
mistak es.</w>
medit ation.</w>
medit ate</w>
l ess
kur z</w>
is t.</w>
i hn</w>
hour s</w>
ho ch</w>
go al</w>
geles en.,</w>
fü r
fahr t</w>
essen tial</w>
erfolgre ich
er sten</w>
den ken</w>
dca st</w>
d ."</w>
c tion</w>
c tion.</w>
bre wed</w>
ausprobier en,</w>
atemberaub end</w>
Zu hau
Yoga ,</w>
Wär me</w>
Well en</w>
Ver trau
Schneeflo cken</w>
L icht</w>
Komö di
Kat z
Jahresz eit,</w>
Herausforder ung,</w>
Gar ten
Feu er
F er
Ent wick
D eine</w>
C ome
Arbeit s
,Trav el</w>
,Medit ation</w>
,B ir
üß ig
äu me,</w>
zut au
zie ht</w>
währ end</w>
weiterzu entwick
w ur
w ind
v ar
uns ,</w>
uni que.</w>
unforget table.</w>
unbezahl bar,</w>
u g
tun .",</w>
to pic
tiv ,</w>
tal ked</w>
ta ble</w>
sunse ts.</w>
sta .</w>
st op
spec ta
soll ten",</w>
so fa
schnell ,</w>
retur n.</w>
respe ct.</w>
r y
produc tive</w>
plan ned</w>
pho tos</w>
ph en</w>
peace ful</w>
pa sta.</w>
pa st.</w>
nic e.</w>
m ur
letz tes</w>
lea d</w>
la und
kon z
ke -
in dis
if f</w>
ich hör
hör en,</w>
her um,</w>
har dly</w>
hab en.,</w>
gro w.</w>
geseh en</w>
gehör t,</w>
gef eier
gebrüh tem</w>
ge koch
frem de</w>
fort un
erledig en,</w>
erleb en",</w>
ent führ
dig ,</w>
de termin
de ep
da bei</w>
consider ing</w>
comforta ble.</w>
ck er
chan ges</w>
ch t,</w>
bri ght</w>
brea k.</w>
bo w</w>
betrach ten",</w>
beitra gen</w>
be weg
ball .</w>
balcon y</w>
ba th
arbeit en.",</w>
and tei
all y.</w>
ac tive.</w>
a way.</w>
Z a
Wel ten</w>
Wass er,</w>
W ein
Verke hr</w>
Schmetter ling</w>
Schmetter ling
Sch ul
S un
S ach
Pingu ine</w>
Pers on</w>
Nachth immel
Nach t.,</w>
Mo de</w>
M äd
M ath
Lit er
Kä se</w>
Kultur ,</w>
Kra ft,</w>
Kop f</w>
Hor ror
H al
Fo to
Floh märk
Energ ie.,</w>
Emo tionen</w>
E ichhör
Best andtei
Au gen</w>
,V is
,E very
" Eine</w>
z y</w>
year s.</w>
y ball</w>
win dow
w rote</w>
verbess ern.,</w>
veranstal t
ver sch
uneh m
un end
un a</w>
tw o</w>
tion .,</w>
ti k
stad t</w>
st o
spre che</w>
speci al.</w>
some one</w>
snowfla kes</w>
sk il
si de.</w>
ser v
schla fe</w>
sch o
sam .,</w>
s wee
s es
s and
re m</w>
quie t.</w>
pur po
pra kti
prakti zier
plan en</w>
perspec tiv
p hilosoph
on ight</w>
ol e</w>
ne ws</w>
m ei
lu sti
leb en.,</w>
le tter
lass en,</w>
je des</w>
ja zz</w>
interessan ten</w>
interess ant
in ten
im .</w>
helf en.",</w>
he .,</w>
gro wing</w>
gi ous.</w>
gemä h
ge plan
ge d
finit ely</w>
fil men,</w>
enthusia st.</w>
dr ank</w>
der .,</w>
de d.</w>
d unk
d a</w>
cult ural</w>
camp ing.</w>
bevor steh
bal ance</w>
auszuprobier en</w>
ab ends</w>
a p
Zu hör
Wies e.,</w>
Wel t
Th rill
Stim me</w>
Se e.,</w>
Samm lung</w>
Regenbo gen</w>
Pr in
Pf er
Kultur en,</w>
Kom fort
Grill en</w>
Gesprä che</w>
Geb or
Fil m
Eichhör nchen</w>
Ding e,</w>
Dankbar keit</w>
B ar
Ab ende</w>
-Fil men.,</w>
,Friend ship</w>
,E x
öff net</w>
wo hl</w>
wer .</w>
warm th</w>
w ol
ver lä
ut sch
uns eres</w>
uni k
uch en,</w>
treib en</w>
tran s
tou ches</w>
titu de</w>
ti l</w>
ti k,</w>
soft ly</w>
sofa .</w>
socc er</w>
si on
sh ing</w>
se a
schlaf en",</w>
s ing.</w>
s al</w>
ri ver.</w>
respe kti
rain bow</w>
per .</w>
oursel ves</w>
oursel ves.</w>
or dent
on ce</w>
ol der</w>
new spa
mor n
mir .,</w>
medi cin
medicin e.</w>
mar kt</w>
leck ere</w>
leb end
lea ves.</w>
lang er</w>
landscap e.</w>
l y
l end
k le</w>
jog ging.</w>
interessant es</w>
instrum ent.</w>
independ ent</w>
i ding</w>
histor ischen</w>
heu te,</w>
happ ily.</w>
gir l</w>
gesch ich
g ungen</w>
funk eln</w>
fis h</w>
fahr e</w>
est y
eri en.,</w>
er staun
entspann en</w>
enn t</w>
en ing</w>
e asi
document ary</w>
de l</w>
d ür
cre ates</w>
cra w
countrysi de.</w>
coun try</w>
coo ked</w>
clo ck</w>
cap tiv
br an
bo y</w>
blow s</w>
barbe cue</w>
b ild
attitu de.</w>
att oo
at ely</w>
all er
a way</w>
a ge.</w>
Umgeb ung</w>
Te am
T re
St unde</w>
Sonnenauf gang</w>
Schön heit,</w>
Schokola de.,</w>
Schmetterling e</w>
Sch la
S or
S ha
R isi
P au
Mäd chen</w>
Ma hl
Lieblings far
Le ist
Kunst wer
J unge</w>
Frem d
Erfahr ungen,</w>
Entscheid ungen</w>
Berg gi
B rett
B oo
B lü
Atmosph ä
,T his</w>
,Photograph y</w>
,P la
," T
werde ",</w>
well- being.</w>
var ie
uns th
unsth and
tran spor
th understor
ter .,</w>
te t.,</w>
te mp
stö b
st en,</w>
ss ,</w>
specta c
sp latz</w>
son g.</w>
soll ten.",</w>
situ ation.</w>
sis ter</w>
se cre
schön ste</w>
schlaf en.",</w>
samm elt</w>
sam er</w>
s now.</w>
s na
rich t
reg net</w>
r at
pro fes
preci ous</w>
po ol.</w>
po em
part y.</w>
op er
op ens</w>
onesel f</w>
obser ve</w>
ne t,</w>
ne t
ne ga
mü de,</w>
memor ies</w>
laugh ing</w>
l li
klar ,</w>
kit chen
kauf en,</w>
is h</w>
inspi res</w>
indescrib able.</w>
incredi ble</w>
hal ten</w>
ge ment</w>
ge führ
ful ly.</w>
freund lich</w>
fil ms.</w>
fa r</w>
f ällt</w>
excell ent.</w>
erleb en.",</w>
erinn ert</w>
erfrisch end.,</w>
erfolgre ich</w>
ent r
en rich
emo tions.</w>
dies es</w>
die t.</w>
de ci
dam it,</w>
ch e.,</w>
c at.</w>
bring en,</w>
bleib en</w>
ber echtig
bau en.",</w>
b it
au gh
atur ,</w>
all plat
all er</w>
al s,</w>
after no
absol ute</w>
a wa
a d</w>
Wander ung</w>
Wal d,</w>
W ach
Unter nehmen</w>
Ta g
Ste phen</w>
Sonnen strahlen</w>
Sch iff</w>
Sch ach
Nach rich
Möglich keit</w>
Mit gefühl</w>
Mar athon</w>
Lie be,</w>
K unsthand
K re
K omm
Jahr en</w>
I tal
Hoffn ung</w>
Herbst ,</w>
Herausforder ung</w>
Hau se,</w>
Geräu sch</w>
Gel d</w>
Frühl ing,</w>
Früh stü
For m</w>
Fahrrad fahren</w>
E- Ma
Chanc e,</w>
Bien en</w>
Bestandtei l</w>
B la
B ier
Ach t
,I n
, 5
"" Der</w>
zei gt</w>
z iel
z auber
y l
writ ing.</w>
w eit</w>
verbrach t.,</w>
ver li
v el</w>
un t</w>
un abhäng
tu i
trink en",</w>
tran sport</w>
ta g,</w>
swe et</w>
steh en.",</w>
spazier en.,</w>
sp iritu
so zi
se ver
schwimm t</w>
schlaf en</w>
schau en.",</w>
relationshi ps.</w>
re par
ra ys</w>
quick ly</w>
pu t</w>
protec tion</w>
pie ce</w>
pic tur
pic nic
par ks.</w>
optimis tic</w>
obser ving</w>
ne ak
myst eri
mo d
ma ss
liter at
lif esty
lie be
li ma
lei der</w>
l er
komm en</w>
k onn
j unger</w>
histor ische</w>
her um</w>
hei ß</w>
great est</w>
getroff en.,</w>
gemüt lich,</w>
gel n</w>
gekauf t.,</w>
friend ly</w>
flower .</w>
fall ing</w>
f rea
en zen</w>
ei l
do gs.</w>
dar k</w>
d one</w>
d ge</w>
cu t</w>
comedi es.</w>
co mic
ck en.,</w>
bor ing.</w>
blau .,</w>
bau en",</w>
aro und.</w>
architect ure</w>
ar ant
an ge</w>
all en</w>
Za hn
Weihnach ts
Vin yl
Veränder ung</w>
T ie
T ha
Sonnenunter gän
Son ne,</w>
Somm er,</w>
Pu zz
Pers on.,</w>
Or t,</w>
Or dn
O ff
Nachth immel</w>
Nachhal tigkeit</w>
Mitta gess
La ptop</w>
Komfort zone</w>
K lima
Gleich berechtig
Gebäu de</w>
G ele
Flu g</w>
Fehl er</w>
Bro t,</w>
Bli ck</w>
Berggi pfel</w>
Atmosph äre</w>
,Wat ching</w>
,S u
,R iding</w>
,E ating</w>
ü ck</w>
Über zeu
z e
wür dig
wird ",</w>
wichtig ste</w>
wee k</w>
w ohne</w>
vol le
v ent
treff en</w>
toll er</w>
ten nis
tal king</w>
su ch</w>
star k,</w>
spontane ous</w>
smit tel
si on.</w>
sec ur
sear ching</w>
schnurr t</w>
schaft s
ru stle</w>
res t</w>
redu ce</w>
ra f
proble ms.</w>
prac tic
peace ful.</w>
par ents.</w>
p ens
musi ci
mit einander</w>
mean s</w>
me al.</w>
m erk
liebst e</w>
li vel
les s.</w>
le ise</w>
kitchen .</w>
k ind
journe y.</w>
itali en
ist ening</w>
instr ument
in trover
in forma
in dividu
im pres
ib le</w>
hea d</w>
gu itar
getrunk en,</w>
gen heit,</w>
gelern t.,</w>
fur nit
f an,</w>
entspann end.,</w>
ent lan
effe ct.</w>
dür f
dra w
do k
do es</w>
do ct
dis cu
differ ence.</w>
develop ment.</w>
da ily</w>
d un
conversa tions.</w>
conta gious.</w>
comp u
comm uni
chan ce</w>
bie ten,</w>
berühr t</w>
auszudrück en.",</w>
atebo ar
al bum</w>
Urlaub .,</w>
Umweltschut z</w>
Tenn is
Sonnenuntergan gs</w>
Sch o
Sch au
Sch allplat
S and
Risi ken</w>
Pr ä
Pick nick
Part n
Or gan
Mom ente</w>
Kunst .,</w>
Konzer te</w>
Komm unik
Ho ch
Hau t.,</w>
Har mon
Groß es</w>
Gewit ter</w>
Geschich ten</w>
Geschen k,</w>
Ge müt
Fr üch
F ort
Ch in
Blu me</w>
Bien e</w>
Beweg ung</w>
Bas ketball
B ess
Aus stell
Asi an</w>
Ar t,</w>
,W ater</w>
,Pla ying</w>
,L istening</w>
,Every one</w>
,C om
, En
, 9
ü n</w>
ü b
you .</w>
worl d
wol ken
we tter</w>
viel fäl
vari ous</w>
und en,</w>
um p
um ent</w>
u sst</w>
tou ch</w>
th um
th re
t to</w>
sü ß,</w>
sub je
spür e</w>
spazier en",</w>
sp iel</w>
si tive</w>
si g
shi on</w>
sh are</w>
secon d</w>
scho ol.</w>
s en.,</w>
respekt voll</w>
remin ds</w>
relationshi p.</w>
probier en.",</w>
pra ss
po st
pa ble</w>
ous ly</w>
opini on</w>
on ar
nis se,</w>
nigh t's</w>
ni fic
nach zudenk
n am
n .,</w>
mom ents</w>
mar athon</w>
m p</w>
m ess
län e</w>
low s</w>
langua ges</w>
kreativ er</w>
je wel
instrum ent</w>
indis pens
ihr er</w>
ide a</w>
hör t</w>
hr ,</w>
hon esty</w>
her um.,</w>
hei ß,</w>
he d.</w>
he art</w>
h y</w>
guitar .</w>
gesp iel
gegan gen,</w>
gefund en.,</w>
gef ällt</w>
ful ness</w>
for d
fis h
feel ing.</w>
f ight</w>
exhau st
entspann e</w>
en en</w>
dish es</w>
da bei
cut e.</w>
cont in
connec ted</w>
come dy</w>
classi c</w>
che er
chan ce.</w>
ch ni
celebr ate</w>
cat s.</w>
ca pable</w>
c tu
bun t</w>
blow ing</w>
bi ke.</w>
bew usst</w>
ba ke</w>
b is</w>
aufreg end,</w>
asi at
arant in
a x
a vo
Z eichn
Ver gan
V olle
Tier e,</w>
T ro
T arantin
Su shi</w>
Straß e.,</w>
Schw äch
Sch mu
S tu
Re gent
R ück
Po tter</w>
Pa sta
P ul
P op
Liebling sh
Lie b
Leiden schaft.,</w>
L ich
L au
Kir che</w>
H öh
Gu t,</w>
G är
Fremd spra
Fitnessstudi o,</w>
Fitn ess</w>
Fil men,</w>
Fallschirmspr ingen</w>
Er hol
DI Y</w>
D es
Come dy
C har
Büch ern,</w>
Blum en
Am eri
,Mo unta
, 4
Überrasch ungen</w>
zwe i</w>
wird .",</w>
wichtig es</w>
wich tigen</w>
wand ern,</w>
wa i
w ohn
vor ,</w>
verlä ssi
unter halt
un ge
treib en,</w>
tow n</w>
tern .,</w>
te ach
st ro
soo thing.</w>
situ ations.</w>
sit zen",</w>
se eing</w>
schwer ,</w>
sch war
s n
romant ische</w>
re fres
positiv ely.</w>
play er.</w>
person ality.</w>
om at
off .</w>
no twend
nehm en",</w>
mon e
marke t.</w>
mar t
mal t</w>
majestät isch</w>
leuch tet</w>
k t.,</w>
k nis
isch em</w>
home made</w>
high .</w>
heil ende</w>
hal ten",</w>
gu cke</w>
gro und</w>
go .</w>
gesp ann
gemäh tem</w>
gehab t.,</w>
g res
ful les
friendshi ps.</w>
fr on
flu ently.</w>
fließ t</w>
fel low</w>
einkauf en</w>
e ."</w>
dra w.</w>
coo k
connec ts</w>
com bin
climb ing</w>
chan ging</w>
café .</w>
bu s</w>
bring en.",</w>
break fast.</w>
bicyc le.</w>
be es</w>
angefan gen,</w>
ac tion</w>
ac ke</w>
abili ty.</w>
ab road.</w>
ab enteu
Zeit en</w>
Winter ,</w>
War um</w>
Tha il
Tenn is</w>
TV .</w>
T radi
T au
Par ks</w>
O bst
N or
L is
Kultur en.,</w>
Kleid ung,</w>
Kin o.,</w>
Ide e,</w>
Gesell schaft,</w>
Früh aufsteh
Feuer werk</w>
Far ben.,</w>
D unk
Cockta il
Architek tur
An ti
Ab end,</w>
A ction
,W hy</w>
,Bir ds</w>
x .</w>
work out</w>
wh ole</w>
wh ite</w>
wer k
w on
vo ice</w>
vi er</w>
ve -
ut en</w>
unter ,</w>
ult ure
topic s.</w>
toler ant</w>
theat er.</w>
te u
t isch</w>
surro und
stän dig</w>
sta g</w>
st änd
st e,</w>
ss en.,</w>
sport lich</w>
spann end
sol ve</w>
skydi ving</w>
se t
sch ar
sail ing</w>
sa f
s ure</w>
ruhig ,</w>
ro om
ring ing</w>
ri ere</w>
res ear
repa ir
reg ne
refresh ing</w>
reci pe</w>
ra b
pres ent
practic ing</w>
possi ble</w>
plan ts</w>
plan s</w>
over come</w>
organiz e</w>
o s</w>
o ing</w>
nie m
mo ther</w>
medit ate.</w>
mbo l</w>
m äl
m lich</w>
lo w.</w>
li c
lass es</w>
l ö
l unch</w>
klar .,</w>
k en,</w>
incredi ble.</w>
ih rem</w>
ig keit</w>
her auszu
hea v
ha p
h and</w>
großar tig.,</w>
gle ich</w>
gen omm
ged ul
g lasses.</w>
funk tion
frei ,</w>
for e</w>
fli ght</w>
festiv al</w>
f en.,</w>
expressi on</w>
ent in</w>
ens würdig
en heit</w>
en h
emp ty.</w>
duf tet</w>
dis h</w>
des ign</w>
danc ing.</w>
crow ded</w>
conversa tions</w>
cla ss</w>
ck s.</w>
ck e,</w>
c ent
bie te
besuch en</w>
ber ,</w>
aufr äumen,</w>
auf s</w>
auf ge
atmosp here</w>
ation en.,</w>
architect ure.</w>
appoint ment</w>
ambi ti
ali tä
abenteu er
Zü gen</w>
Z eh
Toler anz</w>
Sportar ten</w>
Spazier gän
Son ne.,</w>
Situ ation</w>
Science-Fiction -
Ro tw
Re iten</w>
Re gen,</w>
R ei
Qu entin</w>
Proble me</w>
P läne</w>
P lat
Musi cal
Medi zin
M ass
Lieblings ort</w>
Jap an.</w>
In nov
I t</w>
Hei mat
Ha wai
Glück ,</w>
Gesund heit.,</w>
Freund ,</w>
Freu de.,</w>
Fantasy -
Erfol g,</w>
Erfahr ung,</w>
En de</w>
Ein k
Blä tter
Bla u</w>
Bezieh ungen</w>
Ber g</w>
B ür
A fri
- T
,T onight</w>
,R el
, 7
, 1
ät sch
Überzeu gungen</w>
zu verlässi
y ear</w>
wa iting</w>
vi es</w>
vertrau e</w>
vegetabl es</w>
ular ly.</w>
treff en.",</w>
treff en",</w>
tra in.</w>
tiv er</w>
ten nis</w>
televisi on.</w>
success ful.</w>
stress ful.</w>
steh en",</w>
star ke</w>
sp o
some time.</w>
some thing.</w>
sit y.</w>
sind ,</w>
schr it
sch wer</w>
sch lie
sa y</w>
ro ck</w>
ri ving</w>
ri es.</w>
respe ct
reg ularly.</w>
quie t
pro gres
positiv er</w>
play ed</w>
plan et.</w>
pl ätsch
p un
open- min
om en
oli tics</w>
mi c</w>
m path
log n
lo s,</w>
lo cal</w>
literat ure.</w>
lie gen</w>
li gen
li e</w>
leidenschaft licher</w>
leck eren</w>
lau ten</w>
kennenzulern en</w>
k üh
k ulture
it z
is t.,</w>
horiz ons.</w>
he ard</w>
harmon y</w>
gro ß</w>
gib t.",</w>
gesund .,</w>
gegess en.,</w>
garden ing.</w>
fulles t.</w>
fulfil ling</w>
friendshi ps</w>
frei en</w>
for sch
flo ws</w>
fiel d.</w>
fic tion.</w>
fei ern",</w>
fau l
f ess
ex pe
est s</w>
erfrisch t</w>
ein ige</w>
drauß en,</w>
do .</w>
dist ance.</w>
destin ation</w>
dar k.</w>
d ing.</w>
cuis ine.</w>
countr y.</w>
comple ted</w>
col lea
chnolog y</w>
change d</w>
celebr ating</w>
bun ten</w>
bright ly.</w>
bewirk en.,</w>
ba st
b s</w>
b an
auf geschloss
auf gaben</w>
att ending</w>
app ro
and .</w>
anc e,</w>
an s
an gel
acc ept</w>
Ziel e,</w>
We is
V e
Unterstütz ung</w>
Tageb uch</w>
St art</w>
Spa ghetti</w>
Sch ick
S üßig
S erie</w>
P ause</w>
P an
Out door
Nach mit
Lu st</w>
Lieblingsh ob
Lieblingsfar be</w>
Lieblings f
Lau b</w>
Kre u
Ko ch
Instr ument</w>
Hund ,</w>
F ühr
E ig
E ar
De utsch
D ra
Christma s.</w>
Bess eres</w>
All tag</w>
,Te chnology</w>
,P olitics</w>
,Mo vies</w>
,L augh
,Be au
, 2
" Meine</w>
zusamm en,</w>
z oo
with in</w>
wer den.,</w>
wer den",</w>
wei ß
wei l</w>
wat erfall</w>
warm ly</w>
wa shed</w>
vol un
veränd ern.,</w>
verfol gen.",</w>
ver mei
v en</w>
un da
tie f
ti cally</w>
th out</w>
tennis .</w>
televisi on</w>
t ische</w>
swee t.</w>
squ irre
spre chen</w>
spann end.,</w>
sonn ig</w>
shop p
seh en.,</w>
se en</w>
schwier ige</w>
schaff en.",</w>
sch e.,</w>
rie d</w>
ri de.</w>
ri cht</w>
rest aur
positiv e.</w>
pa the
p ul
off ice</w>
o -
nä h
ner v
mi an</w>
mel o
mean ing</w>
me is
majes tic.</w>
list .</w>
libr ary.</w>
li dar
l le,</w>
konz ent
koch en.",</w>
knowled ge</w>
k ingly</w>
justi ce</w>
il .</w>
hum or
herr lich,</w>
hel ping</w>
he mian</w>
har d.</w>
hap so
hal ten.",</w>
glück lich
gif ts.</w>
geschrie ben,</w>
ge wasch
ge arbeit
führ en",</w>
friendshi p.</w>
fire works</w>
ff en</w>
fe u
f al
erkund en",</w>
er t,</w>
entdeck en.,</w>
enga ge</w>
en al
ehr lich</w>
e 's</w>
duf ten</w>
du k
dream .</w>
di ary.</w>
da ,</w>
commun ity.</w>
com par
cockta il</w>
co a
chir p</w>
celebr ated</w>
cap e</w>
c ru
bun te</w>
bun ge
breathta kingly</w>
bli ck</w>
bes ter</w>
balcon y.</w>
b loo
avo id</w>
ausprobier t.,</w>
ation al</w>
arbeit en,</w>
adventur ous</w>
Z it
Wind ,</w>
Weihnach ten</w>
Vertrau en</w>
Uni vers
Te e.,</w>
Te chnologi
Ta gen</w>
Str ess
Sonnenauf gänge</w>
Somm er.,</w>
Schla f</w>
Rezep t</w>
R hapso
Pro duk
Po st
Pizz a,</w>
P or
Outdoor -
O n
O hne</w>
Netflix .</w>
Meer es
M in
M ich
M el
Lieblings beschäftig
Kunstausstell ungen</w>
Kri mis
Kreu z
K ünst
In sek
Horizon t,</w>
Herausforder ungen.,</w>
Hau t</w>
H ü
Groß el
Gedul d</w>
Ge mäl
For sch
Fitnessstudi o.,</w>
Fil me,</w>
Fernseh en,</w>
Entspann ung.,</w>
E cke</w>
D ein</w>
Bo hemian</w>
Biblioth ek</w>
Aus druck</w>
Acht samkeit</w>
Ach ter
,T o</w>
,H umor</w>
,Fa shion</w>
," A
" Jeder</w>
! ,</w>
ü r</w>
zu .,</w>
z immer</w>
y oursel
wert volle</w>
wert voll</w>
werde .",</w>
w all</w>
verbess ern</w>
ur laub</w>
unver gleich
univer se.</w>
u re,</w>
tu res</w>
treib en",</w>
tiv .,</w>
tig keit,</w>
ti red.</w>
thin king.</w>
te gr
te chnologi
tal ent</w>
ta in</w>
t n
sun ris
stron g.</w>
stress ful</w>
sti ll
stat t</w>
spre chen",</w>
spiel en.,</w>
spiel e,</w>
spazier gang</w>
sor gt</w>
some day</w>
ski ing</w>
sich ,</w>
sh es</w>
setz en.",</w>
selbst gemach
schnell .,</w>
schlaf en,</w>
s ort</w>
ri lle</w>
ri ft
puzz les.</w>
provi des</w>
proje ct</w>
proje ct.</w>
po in
per atur
p ,</w>
on line</w>
o u</w>
n s</w>
musici an</w>
mil k.</w>
mensch ,</w>
me m
me an</w>
m ood</w>
li gi
l ung.,</w>
l ung,</w>
inspirier end,</w>
inspirier en,</w>
in k
in compar
i ff
hop ping</w>
hel p
hal ten,</w>
ha ber</w>
h y
h ir
gli tz
getr äum
geschlaf en,</w>
gen er
geh ei
g ing
fär ben</w>
fulfil led</w>
ful l.</w>
fron t</w>
f ör
f ra
f er</w>
exo tic</w>
entlan g.,</w>
en si
dri ver
draw ing.</w>
dr enal
documentar ies</w>
decor ate</w>
d u</w>
d ate</w>
consi der</w>
compu ter.</w>
com passion</w>
clou d
clo thing</w>
che ese</w>
chan ges.</w>
bu st
broa den</w>
bloo m</w>
bes tim
beeindruck end.,</w>
be er.</w>
bas ketball
barbe cu
bar ks</w>
bar king</w>
b y
b ow
b ells</w>
auth or</w>
ar tic
an stren
allein e,</w>
advent ures</w>
ab ly</w>
a head</w>
Z we
Yoga .,</w>
Wi thout</w>
W ü
Ta ge</w>
Super markt</w>
Sk i</w>
S ur
Möglichkeit en.,</w>
M utter</w>
Lieblingsmusi k
Lieblings fil
Lie bst
Li ve-
Les en,</w>
Körper ,</w>
Kreativit ä
Kla ssi
Kind heit</w>
Kar riere</w>
Gra s.,</w>
Gra s,</w>
Ge ist,</w>
Führ er
Fen ster</w>
Far ben,</w>
Entspann ung,</w>
Blum en,</w>
Bild ung,</w>
Biblioth ek
Bezieh ung</w>
Best es</w>
Ber gen,</w>
B ur
B lau
Aktivitä ten</w>
,T aking</w>
,B eing</w>
, 6
" Manchmal</w>
zwe ite</w>
zu zu
zie mlich</w>
wunder bar,</w>
wil d</w>
wer t,</w>
wei ß</w>
wech sel
war en</w>
wand ern",</w>
wa hr</w>
w ander
unglaub liche</w>
und er,</w>
um zu
um h
trä gt</w>
tra ining</w>
to -
tiv es</w>
tiv ely.</w>
ti me,</w>
ti eren</w>
tan zt</w>
tan zen",</w>
ta tion.</w>
t at
sy st
sun rise</w>
su shi</w>
star k</w>
ssi on</w>
spr ingt</w>
sit zen.",</w>
sing s</w>
schö pf
schwier igen</w>
sch eln</w>
s tim
rust ling</w>
romant isch,</w>
ril led</w>
rift stell
restaur ant.</w>
re ma
r ying</w>
r uns</w>
purr ing</w>
pro c
pian o.</w>
pho to</w>
perspectiv es.</w>
perfek ter</w>
perfe ct.</w>
passi ons.</w>
p oll
p ft</w>
op enn
ok e.</w>
nie d
n y.</w>
musi k,</w>
ment al</w>
medit ation</w>
ma b
m in</w>
lic en
lea ve</w>
laund ry.</w>
la ptop</w>
köst lich.,</w>
kämp f
konn te</w>
kit chen</w>
ka holi
k au
je dem</w>
j unk
impro vis
hr .,</w>
hor se</w>
ho w
hair sty
hair dres
h of</w>
gu tem</w>
groß es</w>
gleich ,</w>
gestal ten.",</w>
gespann t</w>
gesch au
genieß en,</w>
g er,</w>
fru its.</w>
fru it.</w>
fitn ess.</w>
fa ir</w>
f est
es ."""</w>
erz en
erleb en</w>
erkund en.",</w>
er ung</w>
ein zutau
ein fühl
e d
dri ve</w>
dow n
diver se.</w>
de cke</w>
da für</w>
d vent
d au
cover ed</w>
coura ge</w>
cou ch</w>
concer ts</w>
co w</w>
c all</w>
bun t,</w>
bal ance.</w>
b ,</w>
at tra
at or
ar ts</w>
ar .</w>
al most</w>
ak tivitä
ab end</w>
a stron
U S
T raining</w>
Stad t
Spra ch
Spazier gan
Schwimm bad</w>
Prüf ung</w>
Prä sent
Proje kt</w>
Pizz a.,</w>
Pa sta</w>
Ordn ung</w>
N u
Mu t</w>
Motorra d</w>
Me eres</w>
Lieblingssport art</w>
Ku h</w>
Kla vier</w>
K erzen
Jog gen</w>
Her zen</w>
Haus aufgaben</w>
H um
H inter
Gleichberechtig ung</w>
Getr än
Ges präch
Geburtsta g,</w>
G re
Füß en,</w>
Fil mab
Fen ster
Fehl ern</w>
F ei
Eig en
D au
Büch ern.,</w>
Brie f
Bo logn
Bo den.,</w>
Baum .,</w>
B äumen</w>
Aus land</w>
Auf gaben</w>
,Sun sets</w>
,Ra in
, 8
, 3
öff ent
äu me.,</w>
zie l</w>
z ing</w>
z el
y ing.</w>
writ er.</w>
warm .,</w>
wand ern.",</w>
wahr er</w>
wa ves.</w>
w ber
vir tu
ver antwort
ven ir
uch en.,</w>
u su
ti me
ti cal</w>
them sel
th y</w>
telefon iert,</w>
ta g.,</w>
t est
t ar
t ."</w>
sustain ability</w>
supp ort.</w>
summ t</w>
strength en</w>
st ür
sou p</w>
snow boar
sk in</w>
sh room
sh ir
sen ses.</w>
self- confiden
se i
schwimm en.",</w>
schwimm en,</w>
schlie ß
sch u
sau ber</w>
sa gn
sa fe</w>
s mo
ret ten,</w>
re ig
ra c
r out
qu i
pünkt lich</w>
pu bli
produc tive.</w>
produ cts.</w>
plea sure.</w>
physi cally</w>
pass es</w>
optimis tic.</w>
oc ca
nigh t
ne ar</w>
motiv iert,</w>
motiv ate</w>
mis takes</w>
lo hn
listen ed</w>
lif el
lifel ong</w>
liebhaber .,</w>
les e,</w>
le er,</w>
la p.</w>
kl ingt</w>
kenn t
kauf en.,</w>
kau ft</w>
kal t,</w>
k i
jewel ry.</w>
iz e</w>
itra g</w>
ist s</w>
is tic</w>
in vol
imagin ation.</w>
ier .</w>
hol ds</w>
ho tel</w>
ho ch,</w>
größ te</w>
grate ful.</w>
gif ts</w>
führ en.",</w>
fär bt</w>
fur ther</w>
fulfil l</w>
fru its</w>
fre e.</w>
fire place.</w>
fi re.</w>
f .,</w>
exp ensi
er hell
ep .</w>
entspann t,</w>
entspann en,</w>
emo tion
ema ils.</w>
em pathe
ein gerich
easi er.</w>
driver 's</w>
dres s</w>
dig er</w>
d be
curi ous.</w>
cri ck
craw ls</w>
cou ch.</w>
cor ner</w>
comic s.</w>
co ol
ch a
cent er</w>
bunge e</w>
besuch en.,</w>
belie f
be hand
be deut
basketball .</w>
ba res</w>
b s.</w>
b atter
auszudrück en",</w>
au to</w>
ation en,</w>
at en</w>
art ist</w>
alle m</w>
al er</w>
al co
afterno on.</w>
ad op
ad en,</w>
achievem ents</w>
abili ties.</w>
ab ende</w>
a da
Zuhau se,</w>
Zu frie
Wass erfall</w>
W ild
Theater stü
Ta ges
Sp iritu
Sofa ,</w>
Situ ationen</w>
Sci ence</w>
Schön eres</w>
Schokola denk
S of
Road trip</w>
Ro ck
Regen wetter</w>
Rad fahren</w>
Par is</w>
P lä
O ze
Mein ung,</w>
Ma g
M ü
Lieblingshob by</w>
Leist ungen</w>
L o
Kr ä
Kom pli
Karao ke</w>
K an
J acke</w>
Inspira tion</w>
Ide e.,</w>
Hobby s,</w>
Harmon ie</w>
H än
Gr ün</w>
Frei heit.,</w>
Fort schrit
Fenst er,</w>
F erne</w>
Er dbe
Entspann en</w>
E-Ma ils</w>
E reig
E mpath
DI Y
C he
Ber l
Be itrag</w>
Ba hn
Aus stellung</w>
Au gen
0 0</w>
- Spiel
- Musik.,</w>
,W al
,T her
,Sp ending</w>
,Mounta ins</w>
,I n</w>
Ü b
z eit.,</w>
z eich
z ed</w>
y s.</w>
wor king.</w>
wor ked</w>
wonder s</w>
wis sen
wech s
we g</w>
watch .</w>
vie w.</w>
vermei de</w>
verbess ern.",</w>
veget ar
varie ty</w>
unterweg s,</w>
unterstütz en</w>
unglaub lich,</w>
uch t</w>
tä glich
tier en.,</w>
ti ci
thum b</w>
th ank
ter ra
t le</w>
sw im.</w>
spä t,</w>
spi der
sp lend
sp la
some times.</w>
skydi ving.</w>
sing en,</w>
sing e</w>
shi ps</w>
setz en",</w>
selbst .,</w>
sci ence.</w>
sch ,</w>
s he
ro ck.</w>
re i
r on
pro mo
pro gra
present ation</w>
post car
possi ble.</w>
po dcasts</w>
photograph s.</w>
ph ones</w>
pea k</w>
pa sta</w>
pa sst</w>
p hi
ough .</w>
ou se</w>
ort en</w>
or ig
or i
or d</w>
on to</w>
nigh ts</w>
niem als</w>
ne u</w>
nam ens</w>
möch te.",</w>
motorcyc le</w>
mom ent
medi a.</w>
man a
mal en</w>
lich t</w>
li x
li mit
le d.</w>
landscap es.</w>
la cht</w>
l er,</w>
it e.</w>
incompar able.</w>
her vor
heiß er</w>
hand s.</w>
h our</w>
h is
h en,</w>
groß .,</w>
glau b
gewasch ener</w>
geb or
geb en.,</w>
geb en.",</w>
fur nis
funktion iert</w>
fun ny</w>
fried lich</w>
for get</w>
fin den",</w>
fil led</w>
f erne</w>
expres sing</w>
experim en
ex tre
ess ert</w>
es te</w>
er öffn
er ste</w>
equ ality</w>
entspann en.,</w>
end .</w>
en s,</w>
el t,</w>
el e</w>
drauß en.,</w>
desser t.</w>
dabei ,</w>
d -
con tro
com fort
chen glo
camp en",</w>
calm .</w>
ca re.</w>
build ings.</w>
bu sy</w>
brow se</w>
bl ä
beleb t</w>
be l</w>
be .</w>
back en",</w>
b ab
at es.</w>
app le</w>
angeneh m.,</w>
angeneh m,</w>
an streng
a vi
a oke.</w>
Zusammen hal
Zufrie den
Zahn ar
Wä sche</w>
Wal d
Wa hr
W es
W ein,</w>
Unter halt
Tele f
Technolog ie,</w>
T omat
Städ te</w>
Spiel plat
So cial</w>
Sch ü
Sch r
S ter
S mart
Rhapso dy
R ät
Post kar
Plan et
P hilosoph
Nä he</w>
Nach t
N a
Mo de,</w>
Mittagess en</w>
Mahl zeit</w>
M ärk
M al</w>
Lieblings ger
Lie ben</w>
Land schaft.,</w>
Konzer t
Kir chenglo
K äl
K olle
Jahresz eit.,</w>
Hawai i
Haustier e,</w>
Hausti ere</w>
H ol
Gebor genheit</w>
G og
Führer schein</w>
Frühl ing.,</w>
Frühl ing
Freu den</w>
Fremdspra che</w>
Frei en,</w>
Festiv als</w>
Famili en
F lü
F le
F la
Dau men</w>
D ur
C lu
C hi
Buch .,</w>
Bro t.,</w>
Bezieh ungen,</w>
Be at
B us</w>
B all</w>
Auto s,</w>
Australi en</w>
Auf ga
Achter bahn
A stron
A pp
-F an,</w>
- Musik,</w>
,Wor k</w>
,T re
,Rel ax
,""" A</w>
ö hn
z ir
z in</w>
work -
winter ,</w>
window si
wert voll,</w>
weak ness.</w>
we d
w o</w>
volun te
verwirklich en",</w>
verbring e.",</w>
vegetari an.</w>
unterschied liche</w>
un endlich</w>
tur ning</w>
tre at.</w>
travel s.</w>
to es.</w>
tion en,</w>
ti ck
thunderstor m</w>
thank ful</w>
tball .</w>
tan ze</w>
swe ets.</w>
sustain ability.</w>
super market</w>
stre be</w>
st er.</w>
squirre l</w>
spon t
spiel e.,</w>
spek tak
spar kle</w>
spa ce</w>
soft ly.</w>
sich .,</w>
set ting</w>
secur ity.</w>
secre ts.</w>
schwimm en",</w>
schreib en.,</w>
sch loss
sch .,</w>
sa d</w>
s se,</w>
s inn
rich tig</w>
respekti ere</w>
relation ship</w>
ra g
quari um</w>
qu itä
purpo se</w>
pun ctu
pro per
prass elt</w>
possibili ties</w>
plätsch ert</w>
pleas ant</w>
pic ture</w>
perfe ct
organiz ed</w>
opini on.</w>
op e</w>
onn en,</w>
on esty</w>
o log
nee d.</w>
n or
mü ssen</w>
mü de.,</w>
mö glich
mon th.</w>
ment s</w>
mea dow</w>
mass age</w>
marke ts</w>
ma ,</w>
m äch
m nis
lon g.</w>
lo ving</w>
lo se</w>
listen er.</w>
lich keit.,</w>
les en.,</w>
lea st</w>
lau fen,</w>
lass en.,</w>
kur s</w>
komm en",</w>
knis tert</w>
kling elt</w>
klass ische</w>
kauf e</w>
kar aoke.</w>
jog gen</w>
je man
istor y</w>
inspirier t,</w>
inn ere</w>
ing ing</w>
immer se</w>
ier ,</w>
hea d.</w>
ha m
grill ing</w>
geno ssen,</w>
gekoch t,</w>
gehei mnis
ge iz
g ul
g ri
g aller
forwar d.</w>
foo tball</w>
fo unda
flo ck</w>
fin den.,</w>
fin d
fiel d</w>
ey es</w>
exp and</w>
even ings.</w>
er en,</w>
ent schei
ent .,</w>
energ iegel
e- J
discover .</w>
de m
cyc ling.</w>
cour se</w>
countrysi de</w>
concer t.</w>
compani ons.</w>
com passion.</w>
clo se</w>
cle an.</w>
ck er</w>
ci ties.</w>
ch ess.</w>
ch er
car s</w>
ca mer
buil d</w>
bring en.,</w>
bo at</w>
bes tell
bes or
ber ei
be frei
bas ketball</w>
arbeit et</w>
anzu sehen,</w>
anstreng end,</w>
ali ve</w>
ab ,</w>
a w
a st</w>
a ke</w>
a b</w>
We g,</w>
Wass erf
Wach st
W äl
Vor stell
Ver wand
Un abhäng
Tre ffen</w>
Tradi tionen</w>
Thr ones
T ür
T em
Sushi ,</w>
Spra chen,</w>
Sonn ta
Somm erf
S eit
Reis en.,</w>
Reis e
R ing
R aum
Po dcasts</w>
P sycholog
Organ is
On lin
Nach richt</w>
Men ge</w>
Mar vel</w>
Lieblingsb and</w>
Lieblings sport</w>
La vend
L ö
Klei der
Kind heit,</w>
Kam er
Ka ka
K rie
Jo hn</w>
Jahr ,</w>
Ital y.</w>
In die
Ide e</w>
Hun de
Herbst .,</w>
H af
Geräu sche</w>
Fil me.,</w>
Ein flu
Des ig
Dach ,</w>
C ol
Büch er.,</w>
Ber ge,</w>
Begleit er,</w>
Be dürf
Bas ketball</w>
Bal ance</w>
B ru
B all
Australi a.</w>
Anti quitä
A ut
,Tre es</w>
,Ther e's</w>
,D riving</w>
,B rea
," Without</w>
, N
' ve</w>
ör per
äf er</w>
Ä n
Än g
zu hau
z eit
work- life</w>
wi der
verdi ent</w>
verbring e",</w>
ver setz
unverzicht bar,</w>
und en.,</w>
un ded</w>
ulin ary</w>
u t</w>
tur n</w>
tun ",</w>
tr on
toler ance</w>
ti k.,</w>
ta l</w>
t rea
t ell</w>
t and
swe at
subje ct</w>
stres s</w>
strahl t</w>
star ry</w>
squ e
spi der</w>
spann enden</w>
sp end
smi le.</w>
ski ing.</w>
sing ing.</w>
sigh t.</w>
sich er,</w>
si de</w>
sh ort,</w>
sea gul
schle cht</w>
schaf ten.,</w>
sch ne
sam es</w>
s ung
refres hed</w>
re co
rasch eln</w>
radi o</w>
r itu
qu ite</w>
pra kt
poem s.</w>
po dcast</w>
photograph er.</w>
perfek t,</w>
par ks</w>
pa st
p sycholog
opini ons</w>
open-min ded</w>
ol ph
ol le</w>
o my</w>
nut ri
na med</w>
mind est
mindest ens</w>
medi tieren",</w>
majes tic</w>
lo k
lok ale</w>
ligh ts</w>
lifesty le.</w>
lie ben</w>
li ft</w>
lear ning.</w>
lau fen</w>
langweili g,</w>
ku sch
komm en,</w>
ke d.</w>
jum ps</w>
jo g</w>
jack et</w>
it an
is h.</w>
inv it
inv ig
invig or
interessan t.,</w>
im p
ier .,</w>
ic k</w>
hö ch
hop p
hand ic
h urr
größ ter</w>
gr und
go al.</w>
glau ben,</w>
gi c</w>
ges tell
ges chen
gemüt lich.,</w>
geles en</w>
geführ t,</w>
fröh lich.,</w>
fle x
fish ing</w>
fin den.",</w>
fest zu
fascinat es</w>
f igh
ey es.</w>
expe c
ev ents</w>
erreich en,</w>
ern ähr
erkl ingt</w>
erfüll tes</w>
er in,</w>
equ ality.</w>
entertain ing.</w>
en ces</w>
en am
enam t
einsetz en.",</w>
einfa chen</w>
e chte</w>
drin k.</w>
da zu,</w>
d es.</w>
crack ling</w>
cont ent
collec ts</w>
clou ds.</w>
childh ood</w>
ch i
cand le
bu ying</w>
bereit s</w>
bereis en.",</w>
bereich ern</w>
bequ em
belieb tes</w>
be fore</w>
be coming</w>
be antwort
be .,</w>
bau en</w>
bal m</w>
aut or</w>
arbe ,</w>
ar ri
anz unehm
am es</w>
activi ties</w>
ach ten",</w>
Work -
Wind .,</w>
Wi ese</w>
Vergan genheit</w>
Ver b
V ort
Telef on</w>
Tele fon
T her
Straß e,</w>
St ück</w>
Spra che,</w>
Sport veranstalt
Spinn e</w>
Sor gen</w>
Ski fahren</w>
Schu he,</w>
Sch riftstell
Sch ach</w>
S ingen</w>
Rest auran
Reis e.,</w>
Radi o</w>
R olle</w>
Qu e
Op tim
Nachthimmel .,</w>
Musik festiv
Mel od
Medi zin</w>
Me eting</w>
Länder ,</w>
Lie d</w>
Leben ss
L ek
Kur s</w>
Kunsthand werk</w>
Konzer te.,</w>
Kom bin
Job .,</w>
Horror fil
Hobb y,</w>
H ör
Gr und</w>
Gesich t.,</w>
Gesell schafts
Geschich te.,</w>
Gemäl de</w>
Gemein schaft</w>
G ol
G an
Fenst er.,</w>
Fahrrad tour</w>
F eier
Erfahr ung</w>
Er füll
Er de</w>
Ele fan
Dokument ationen</w>
Dis ne
D el
Cou ch</w>
Car pe</w>
Bür o</w>
Büch erre
Bal sam</w>
Ba de
B ä
Aufga be</w>
Abend essen,</w>
8 0
,S o
,Pa in
,C lim
"" Bohemian</w>
ü be</w>
Überrasch ungen,</w>
zusamm en
zu hause</w>
zeichn en",</w>
wunder bar
win dow</w>
will ",</w>
wert volles</w>
wen ig</w>
war dro
wa ss
w ho
w eb
volle yball</w>
viel ,</w>
verwirk lichen</w>
vergess en,</w>
utter flies</w>
ular .</w>
ul ti
tre u
trauri g,</w>
tow n.</w>
toler ance.</w>
to day
tig es</w>
ti kel</w>
thrill ers.</w>
thre e</w>
task s</w>
t ten</w>
sur f
stre t
stor ies</w>
stim ul
sti ck</w>
st op</w>
sport ar
spektak ul
spann ende</w>
sp in
sor gen.,</w>
so ci
sk ateboar
si ght</w>
setz en</w>
self-confiden ce.</w>
schlaf en.,</w>
schau spiel
schaff en",</w>
samm eln.",</w>
s se.,</w>
s li
rema in</w>
relax ed.</w>
refle k
read y.</w>
re de</w>
rab b
produk tiv</w>
po e
play ground.</w>
physi cal</w>
pati ent</w>
par k
pa th.</w>
pa ck
opportun ity.</w>
ol d.</w>
o s.</w>
ne t.,</w>
n ütz
mu shroom
mo ther.</w>
mo dern</w>
ment s.</w>
melo dy.</w>
medi tiere</w>
me ."""</w>
mar ath
mal en.",</w>
lusti ge</w>
lo s.,</w>
ll en</w>
lie gen",</w>
li ber
le mon
lau be</w>
la sagn
la ge</w>
komm enden</w>
kom me</w>
keit en.,</w>
kaput t</w>
k örper
k lei
k la
k is
k in
k fast</w>
k en.</w>
ju ic
ist en,</w>
inspira tion</w>
ill a</w>
ih m</w>
ic ed</w>
ho he</w>
heal ing.</w>
handic raf
großar tiger</w>
grill en",</w>
geträum t,</w>
getrunk en.,</w>
geschlaf en.,</w>
gel n,</w>
gel ass
gefeier t,</w>
gef all
geback en,</w>
ge fühl
founda tion</w>
for got</w>
for ests</w>
foo tball.</w>
flü ge</w>
fe -
faul enz
faszinier ende</w>
fan .,</w>
fami l
fall .</w>
f est</w>
exp lo
exp and
ex i
erweit ern.",</w>
erledig t,</w>
erle ich
erfrisch end</w>
er kenn
entdeck t.,</w>
ent ed</w>
ent decke</w>
en c
em s</w>
em ent</w>
el y,</w>
ehr geiz
eh enswürdig
e ten</w>
dr innen</w>
develop ing</w>
decor ating</w>
deci de</w>
de finitely</w>
d olph
d ein</w>
crow ded.</w>
crack les</w>
char m.</w>
ch er</w>
c ry
bro ken.</w>
bring en",</w>
br un
bo ttle</w>
bess er,</w>
bess er
bes tei
beobach te</w>
aufzu stehen</w>
aufgere gt,</w>
auf führ
arbeit et
app ear
angeneh m</w>
al t,</w>
al on
al en</w>
al -
ak zep
ak tu
ach ten.",</w>
ach t
abzu bauen",</w>
absol ut
a u</w>
a rea
Work- Li
Work-Li fe-
Wochenend e.,</w>
Winter .,</w>
Wich tigkeit</w>
Weihnach t
W under
Vort ra
Ver ständ
Unter schie
Univers um
Tan z
T our
Sun day</w>
Su ppe</w>
Stim m
Stern enh
Sport art</w>
Schön heit.,</w>
Schau spiel
S ehenswürdig
Roman en,</w>
Pro z
Party s,</w>
P latz</w>
P la
Mo unt</w>
Mensch heit</w>
Mein ungen</w>
Medit ation,</w>
Math ema
Länder .,</w>
Lieblings restaurant</w>
Le hr
Land schaft,</w>
L ern
Küch e,</w>
Kunstwer ke</w>
Kultur .,</w>
Kleider schrank</w>
Katz e,</w>
K rea
K l
K ell
Jog ging
Inspira tion,</w>
In forma
Haus ,</w>
Hand werk
Großel tern</w>
Gr enzen</w>
Gesell schaft.,</w>
Ges icht</w>
G al
Fähig keit,</w>
Fris eur
Freiz eit.,</w>
Filmab end</w>
Fil m,</w>
Fernseh er</w>
Fanta sie</w>
Fahrra d,</w>
Fa vor
F iction
Eink lang</w>
Einflu ss</w>
Bo den</w>
Bil d</w>
B ril
B an
Auto fahren</w>
Auto bahn</w>
Australi a</w>
Al ko
-S how
- fiction</w>
,H onesty</w>
,H istory</w>
,H a
,C on
,Brea kfast</w>
,B utterflies</w>
, K
ü g
y el
y ."""</w>
wieder ,</w>
wed ding</w>
wand ern.,</w>
w oo
vi ol
veränder n</w>
ver schön
ver schw
ve gan
unforget table</w>
under standing</w>
un til</w>
uch ,</w>
transpor tation.</w>
tr uhe</w>
togra p
tici p
ti ckt</w>
th ough</w>
süß e</w>
surro unded</w>
sunris e.</w>
su gar
stud ying</w>
stres sed.</w>
stre ets.</w>
str u
stand s</w>
sta ying</w>
st e.,</w>
spider s.</w>
so f
sig nific
sho p</w>
selbstgemach te</w>
schwimm en.,</w>
schw im
schwim me</w>
schlech ten</w>
s neak
s in
ro ad
ris ks.</w>
ring ing.</w>
ren e
reli able</w>
relationshi ps</w>
proje cts</w>
proc ess.</w>
pre p
prep are</w>
pleas ure</w>
pla y.</w>
pictur es.</w>
pho tograp
per at
peop le
pas sed</w>
p ath</w>
p -
ow l</w>
ow l.</w>
out h</w>
optimist ischer</w>
optimist isch</w>
ones t.</w>
offen e</w>
off ice.</w>
neighbor h
nach hal
musi k</w>
musi c
motiv ier
mensch .,</w>
mar ried</w>
ma in
ma hl
livel y.</w>
life ,</w>
lebend ig,</w>
lauf en",</w>
lar ge.</w>
l ung
l er.,</w>
kühl es</w>
konzent rier
kom me
koch en,</w>
kennen gelernt,</w>
k let
k es
jum ping</w>
jog gen,</w>
itn ess</w>
it t</w>
it h</w>
is o
is ing</w>
invol ved</w>
inv es
im pa
i dy
idy lli
home work.</w>
her aus
heiß .,</w>
heit s
hand .</w>
hair .</w>
ha f
h in</w>
gri ll</w>
gir l
gi ven
gestres st</w>
gestal ten</w>
geplan t.,</w>
genomm en,</w>
gen e</w>
gen au</w>
gen ;</w>
ge put
gam e.</w>
galler ies.</w>
g önn
furnit ure.</w>
fulfil l
fröh lich,</w>
fotograf ieren",</w>
fortun at
fantast isch.,</w>
fa ch</w>
fa ce</w>
ex am</w>
es cape</w>
erzähl en</w>
er in</w>
er forsch
er ."</w>
entführ en,</w>
ent eur
ener gi
ein and
du cation</w>
dist ant</w>
dies en</w>
determin ed</w>
dekor ieren",</w>
de u
dar an</w>
d essert</w>
curr ent</w>
ct ure</w>
cra ft
cook ies.</w>
communi ca
com pe
cockta ils.</w>
co ol.</w>
ck s
ch ed</w>
care er</w>
ca kes.</w>
c ur
c ulinary</w>
büch er</w>
blu me</w>
bla ck.</w>
biete t.",</w>
bewus ster</w>
bevorsteh enden</w>
bes ten,</w>
bes ich
berei th
ben ö
beginn t</w>
bedeck t</w>
be deu
be .",</w>
bau t</w>
bal anc
b ou
b onar
arbe it,</w>
anti que</w>
ans wer</w>
and .,</w>
am ong</w>
all erg
al .,</w>
achie ved.</w>
a y
a ffe
a ff
a el</w>
a de,</w>
a ce</w>
Zit ron
Wü ste</w>
Wohn ung.,</w>
Wohlbe finden,</w>
Well ness
W ert</w>
Vinyl -
Ve get
Traum job</w>
Ter ra
Tag es,</w>
T itan
T at</w>
Straßen lat
St unden</w>
Sp iel</w>
Sonnen schein</w>
Schokola den
Schallplat ten,</w>
Sch ut
Sa una</w>
S y
Regen schir
Re par
R unde</w>
Po si
Plan eten</w>
Perspek tiven</w>
Partn er,</w>
Par k
Par is.</w>
Off enheit</w>
O ma</w>
Ne ue</w>
Nach truhe</w>
Muse en.,</w>
Mo d
Mich ael</w>
Mass age</w>
Mal en</w>
M utter
Lieblingsfil m
Lieblings künst
Lieblings autor</w>
La ger
La ge</w>
L ös
L ord</w>
Kä se,</w>
Kleid ung.,</w>
Kirchenglo cken</w>
Kat zen,</w>
Karao ke-
Höh en</w>
Horizon t.,</w>
Hobby .,</w>
Hob bi
Ho tel
Herbst es</w>
Hausti eren</w>
H alt</w>
Gut .,</w>
Ger man
Füß en.,</w>
Frühstü ck,</w>
Fris ur</w>
Freund .,</w>
Flu ss.,</w>
Fil men.,</w>
Fa ible</w>
Euro pe.</w>
Erlebnis .,</w>
E ver
Dach .,</w>
DIY -
D esser
Chin es
C a
Bücherre g
Buch es</w>
B unge
B rille</w>
Arbeit stag</w>
Ar tikel</w>
Ameri can</w>
Ab enteur
Ab end.,</w>
,Vis iting</w>
,Pain ting</w>
,F ood</w>
,F itness</w>
,D is
" Reisen</w>
" Musik</w>
" Meditation</w>
ühl schrank</w>
über ,</w>
ü cke</w>
är ,</w>
ä tz
zusamm en.,</w>
zufrie den,</w>
zoo .</w>
zeichn en</w>
z one.</w>
wär men</w>
writ e.</w>
wirk en,</w>
weekend s</w>
weak ness
we gen</w>
we ckt</w>
vor bereit
verfol gen",</w>
verdi ent
verb unden</w>
ver geht</w>
vegetari an</w>
unterstütz en.",</w>
univer sal</w>
un pre
umm en</w>
um .</w>
trin ken</w>
tr aum
toler an
tig t</w>
tier ter</w>
ti cking</w>
themsel ves.</w>
tell .</w>
tel ligen
technologi es.</w>
tan zen,</w>
tal ents.</w>
t win
t ure.</w>
surround ings.</w>
sugar .</w>
stöb ern",</w>
st sein</w>
st am
spre chen,</w>
spar kl
sp ort,</w>
sp ac
sing en",</w>
sh oo
sh aring</w>
sei tig</w>
sear ch</w>
se tt
schütz en</w>
schätz en</w>
schaff en</w>
samm ele</w>
sal zig
sa gen,</w>
sa g
sa d.</w>
s ooth
romant isch.,</w>
ro t,</w>
repair .</w>
reg ner
reci pes</w>
ream s</w>
reali z
rea ch</w>
re mem
re gi
re char
ra cht</w>
r es.</w>
profes sion
produk tiven</w>
pres ent</w>
pp ing</w>
poli tics.</w>
poin t.</w>
po wer.</w>
po wer
picknick en",</w>
pic ture.</w>
photograph y</w>
pf en</w>
par ties</w>
par ticip
p per
orro w</w>
organiz ed.</w>
or ,</w>
openn ess</w>
om orrow</w>
o es</w>
necess ary</w>
n on
my ster
mov ed</w>
men schen</w>
mean ing.</w>
magi cal</w>
mag isch,</w>
lös en,</w>
lo ss</w>
lo ck
ligi on</w>
ligh t
licen se</w>
le ge,</w>
lasagn a.</w>
la pto
la d
la .</w>
komm t.",</w>
kom bin
klass ischer</w>
ke .,</w>
kauf en.",</w>
k ün
k te</w>
k rabb
je m
ist s.</w>
independ ent.</w>
in tui
in fin
in die</w>
immer sing</w>
il ing</w>
ic tion</w>
i ra
human ity.</w>
hop e.</w>
holi days</w>
hol .</w>
ho ch.,</w>
hervor rag
herr lich.,</w>
heiß t</w>
harmon i
ha ir</w>
h one
grün ,</w>
gra titude</w>
glück liches</w>
gesund en</w>
ger .,</w>
gelern t</w>
geb en",</w>
gearbeit et,</w>
ge ts</w>
gar den,</w>
gan ze</w>
gan z</w>
freund lich,</w>
fortunat ely,</w>
forder t</w>
for m.</w>
fau l</w>
f ly.</w>
f lat
f it.,</w>
expressi on.</w>
expensi ve.</w>
exhaust ing.</w>
erhal ten.,</w>
ep iso
en e</w>
en -
emo tional</w>
ele ph
ein gel
ehr enamt
e ."""</w>
dre i</w>
dok ument
die t</w>
des ert</w>
deep ly</w>
dar kn
da für
d rea
d ness</w>
craf ts</w>
cover s</w>
comple te</w>
comforta bly</w>
coa ster</w>
co mic</w>
cla ss.</w>
ch t
ch ess</w>
care er.</w>
car ries</w>
captiv ate</w>
ca stle</w>
ca mp</w>
ca kes</w>
c ute</w>
c run
bre e
brau chen</w>
bo x</w>
bla ck</w>
bir d
bestim m
berühr en,</w>
bereith äl
bequ e
bege gn
bedeu tet</w>
be h
barbecu e.</w>
balanc ed</w>
ba king</w>
b or</w>
ausprobier t</w>
aur ant
auf re
au t</w>
au ss
au l
athle tic.</w>
at ,</w>
ant ly.</w>
anstren gend</w>
an ger
alco hol.</w>
al s.,</w>
achie ving</w>
a re
a pe
a bl
Zoo ,</w>
Zeit ung</w>
Zeit .,</w>
Wäl der</w>
Vortra g</w>
Verständ nis</w>
Tier e.,</w>
Ter min
T ug
T u
Sonnen bri
Se gel
Sch weiß
Sch ool</w>
S pe
S inn
S ich</w>
S he
S erien,</w>
Rotw ein</w>
Rest aurant
Re gen.,</w>
Präsent ation</w>
Projek te</w>
Po tter.</w>
Pasta ,</w>
P ool</w>
Nu d
Nachbar n</w>
Musi cal</w>
Muse um,</w>
Medizin ,</w>
Medit ation.,</w>
Länder n</w>
Liebst en</w>
Lieblingskünst ler</w>
Lieblings essen,</w>
Laun e,</w>
L änd
Komödi en,</w>
Kompli ment</w>
Kaka o</w>
K ühlschrank</w>
H on
Genu ss.,</w>
Gemü se,</w>
Geheim nisse,</w>
Gedank en,</w>
Ge fühle</w>
Frie den,</w>
Freizeit aktivitä
Flohmärk ten</w>
Euro pa
Ernähr ung,</w>
Erlebnis ,</w>
Entspann en.,</w>
En ga
Ein stell
Dunk el
Chanc en</w>
Brett spiele</w>
Beweg ung,</w>
B äumen.,</w>
B i
B arbe
Auto s.,</w>
Aus zeit</w>
Aus land
Aus dau
Atmosphä re.,</w>
Architektur ,</w>
Arbeit splatz</w>
A del
1 0</w>
-F an.,</w>
- D
,Y ou</w>
,S a
,Pe ace</w>
,P enguins</w>
,Beau ty</w>
,"A t</w>
," W
, New</w>
üb ern
än ger</w>
zurück .,</w>
zie he</w>
z og
z er</w>
wunder schöner</w>
work place</w>
wieder getroffen,</w>
wahr e</w>
w ä
virtu e.</w>
ver reise</w>
venir s</w>
vegeta ble</w>
valu es.</w>
v an
unvergess lich,</w>
unpre dic
univer sel
unend liche</w>
under stand</w>
under stand
unbezahl bar.,</w>
unbeschreib lich,</w>
un a.</w>
um geben</w>
um bre
tri p
tran qu
tranqu ili
tradi tions.</w>
tra gen",</w>
tomorro w</w>
to- do</w>
to p</w>
time ."</w>
tier t,</w>
tie fe</w>
thin ker.</w>
thin k.</w>
ther ape
th rilled</w>
th o
te ach</w>
te :</w>
ta r</w>
t schaft</w>
t in
surpris es</w>
su res</w>
stän dig,</w>
strong ly</w>
stressi g,</w>
stor es.</w>
steh en,</w>
ste ckt</w>
stad t,</w>
spectac ular.</w>
soll ",</w>
sol u
so ft</w>
smooth ie</w>
sigh ts.</w>
shin ing.</w>
sen sitive</w>
sein er</w>
sec ts</w>
schwier ig</w>
schut z</w>
satisf ie
samm eln</w>
samm eln",</w>
s me
s man
s cre
run .</w>
romant ischen</w>
romant isch</w>
roll er</w>
ri des</w>
responsi ble</w>
respe k
renov ate</w>
refle ct</w>
rea king</w>
re ly</w>
rach t,</w>
ra titude</w>
r ück
puzz le</w>
psycholog y.</w>
prä g
pro mis
poli tical</w>
photograp h</w>
performan ces.</w>
pa per.</w>
op p
om y.</w>
ogra ph
offen es</w>
od fa
ob ses
novel s</w>
nega tive</w>
nat ür
na me</w>
mü ss
möch te",</w>
mit t
mi x
mensch lichen</w>
mensch liche</w>
medit ating.</w>
medi tieren.",</w>
marath on.</w>
mal en",</w>
lös en",</w>
lus tig,</w>
lohn t</w>
life ."""</w>
libr ary</w>
le ist
le cture</w>
lat er</w>
lass en",</w>
lapto p.</w>
langweili g.,</w>
la ze</w>
la z
la st
l ungen</w>
künst ler
küh l</w>
kreativ en</w>
ki ing</w>
kes pea
kauf en",</w>
ka ,</w>
k uchen</w>
k riecht</w>
justi ce.</w>
j it
it ät</w>
it sel
inspirier ende</w>
in st
in no
in finitely</w>
in ess
impres sed</w>
hum or.</w>
hu ge</w>
holi days.</w>
hin .,</w>
high way</w>
harmon y.</w>
ha ft,</w>
h onest.</w>
h inter</w>
gehör t.,</w>
ga in</w>
g t.",</w>
g il
g ie
früh stü
friend 's</w>
fresh .</w>
fis h.</w>
fe et</w>
fahr er</w>
fahr er,</w>
f s
f er.,</w>
ey e</w>
experim ent
exo tische</w>
ex am.</w>
erweit ern</w>
erledig en.,</w>
eri kan
erhal ten,</w>
enti re</w>
ent schloss
enrich es</w>
en g
en chan
en ces.</w>
emp finde</w>
eit er
einzu la
einfühl samer</w>
ehr liche</w>
edu c
e ver</w>
e -S
du str
dre ht</w>
dra wing</w>
dist ance,</w>
desig n.</w>
de m,</w>
ct or</w>
crick ets</w>
contri bu
con ne
con fli
con di
collea gu
co co
chir ping.</w>
char ac
ch ick
ca st
ca .</w>
butter flies</w>
br ennt</w>
bou qu
bleib en,</w>
ble ibe</w>
bl ü
bie ten.,</w>
bewirk en</w>
bewe gen</w>
betra chte</w>
beque me</w>
bein gs</w>
bein gs.</w>
beeinflu ssen,</w>
b ing
b ele
auth ent
auth en
au ß</w>
as le
artic le</w>
art istic</w>
ar ies.</w>
appro ach
app y</w>
and ,</w>
an s.</w>
an e</w>
amaz ing</w>
amaz ing.</w>
alon g.</w>
al lows</w>
accompli shed</w>
ac tivity</w>
ac k</w>
ab road</w>
ab .,</w>
Zuhör er</w>
Wohn ung,</w>
Wochen enden</w>
W under,</w>
W ein.,</w>
W at
Ver geb
Un fortunately,</w>
Tro st</w>
Theat er.,</w>
Tem peratur
T ür</w>
T ra
T attoo
T at
Ster ne,</w>
Sof a</w>
Sha kespea
Schu h
Schreib tisch</w>
Schick sal</w>
Sch iff
Sach e</w>
S ummen</w>
S now
R as
Pil ze</w>
Pa p
Mon at</w>
Mo jit
Mit menschen</w>
Mar kt</w>
M exi
Lieblings spe
Liebling splatz</w>
Leben swe
Lager feu
L im
L am
Küch e.,</w>
Kunst for
Kop f
Kon fli
K let
K lang</w>
Jahresz eiten</w>
Itali en,</w>
Insek ten</w>
Hund .,</w>
Hun de,</w>
Her r</w>
He a
Hal lo
Ha ar
H il
H igh
H ier</w>
Gr enz
Getr änk</w>
Gesich t,</w>
Gesch wis
Geburtsta gs
Geburtsta g.,</w>
G odfa
Freund in,</w>
Fr ische</w>
Fr en
Fotograf ieren</w>
For rest</w>
Fernseh en.,</w>
F ü
F ische</w>
F isch</w>
F erien</w>
Er find
Empath ie</w>
Eis te
Dur ch
Dokument ar
Di ese</w>
Computer ,</w>
Cam p
C D</w>
Blätter ,</w>
Best es,</w>
Ber gen.,</w>
Bau ern
B reaking</w>
Aut or
Atmosphä re,</w>
3 0</w>
,Wor king</w>
,Te a</w>
,T omorrow</w>
,T h
,S kiing</w>
,S inging</w>
,P lan
,H ope</w>
,G ratitude</w>
,G oing</w>
,E ducation</w>
, School</w>
, Ar
, .</w>
' re</w>
über füll
älter er</w>
zurück ,</w>
z unehm
y ball
with in.</w>
well ness</w>
weiterzuentwick eln.",</w>
weiterzuentwick eln",</w>
wachs en.",</w>
wa sh</w>
w sh
wsh ank</w>
w on</w>
veränder t</w>
verbess ern",</w>
verb reit
ver gan
va tion.</w>
unvergleich lich.,</w>
unter .,</w>
universel le</w>
un vor
um in
ty pe.</w>
tur ns</w>
tradi tion
toll .,</w>
tig en.",</w>
the ma
tan zen.,</w>
t ti
t or</w>
t ly</w>
t isch,</w>
t attoo
su per</w>
stud ents</w>
strong er.</w>
stro ll</w>
stres sed</w>
star ts</w>
star k.,</w>
sta tion</w>
st al</w>
spazier en.",</w>
spa ghetti</w>
sp ir
sol ving</w>
smit tel</w>
skil ls</w>
si bling
shop .</w>
sever al</w>
sent ence</w>
schle icht</w>
sal ty.</w>
sa una.</w>
ru ft</w>
ro und</w>
righ ts</w>
reich ,</w>
reco gn
re fresh</w>
radi o.</w>
pres er
po p</w>
play s.</w>
philosoph y.</w>
ph en
phen omen
persön lichen</w>
persön liche</w>
performan ce</w>
per sever
pe ts</w>
pa ss</w>
p in
oper a</w>
occa sion
o s,</w>
o mi
no stal
no ise</w>
newspa per</w>
ne t.</w>
nachzudenk en",</w>
musi k
mur mur
mu tig</w>
mu ss
morn ing,</w>
mal er
magi c</w>
ma thema
ma ga
lus tig.,</w>
lu x
lo ver
lo s</w>
ll a</w>
li ve.</w>
lebens langer</w>
leb t</w>
le hr
l en</w>
kämpf en.",</w>
krabb elt</w>
kr ist
kn ir
klar en</w>
kennt nisse</w>
kennenzulern en,</w>
kar ao
karao ke</w>
k to
k ens</w>
ja pan
is h
ir e</w>
inv ited</w>
indispens able</w>
in finit
ill umin
höch ste</w>
heraus ford
hel p.</w>
he iten</w>
h ü
grill en.",</w>
grand parents</w>
gr am</w>
glück licher</w>
ghe tti
gh ts.</w>
gh t.</w>
geschau t,</w>
geplan t,</w>
gent ly.</w>
geno ssen.,</w>
gefeier t.,</w>
ge wor
fühl t</w>
fun ny.</w>
friend ."</w>
fr üch
fl at</w>
fil men.,</w>
faszinier en</w>
fa i
fa ch
experien ced</w>
ex h
even ing,</w>
ev ent</w>
er t.,</w>
er stell
er ran
er ing</w>
entschei den,</w>
end .",</w>
end ",</w>
einzigar tige</w>
eb ra
drea med</w>
dn 't</w>
diver sity.</w>
dig .,</w>
dies e</w>
di rec
di r</w>
de mp
dar in,</w>
dar f
da .,</w>
d ing
d ich
craf ts.</w>
conne ct</w>
compli ment</w>
comple tel
clu b</w>
ch t.,</w>
camp en.",</w>
call s</w>
caf es</w>
c ris
c ir
c au
bur ger
brow sing</w>
brigh t.</w>
br ü
bo und
bo ss</w>
bir ds.</w>
bevorsteh ende</w>
belief s.</w>
beginn en",</w>
beein dru
be ver
be end
ba se
b um
awa kens</w>
ausge zeich
aus gie
aufr äumen.,</w>
aufgeräum t,</w>
atur .,</w>
arbeit en.,</w>
anz ös
ansteck end</w>
an z,</w>
an ese</w>
ambiti ous</w>
am erikan
allein e.,</w>
all ein,</w>
alitä t,</w>
ali ve.</w>
al t.,</w>
achievem ents.</w>
absol uter</w>
ab re
a d.</w>
Zwe ck</w>
Zu ck
Weihnacht sm
We ise</w>
W and</w>
Vor bil
Volle yball</w>
Veränder ung,</w>
Verb ind
Umweltschut z,</w>
Umwel t,</w>
Tr äumen</w>
Ter min</w>
Technologi en</w>
Te chni
Te am</w>
Tal ent</w>
Sushi .,</w>
Städ ter
Straß en.,</w>
Spra chen.,</w>
Sp in
Sommerf erien</w>
Sommer urlaub
Sha wshank</w>
Selbst vertrau
S ing
Ru he.,</w>
Roman e</w>
Repar atur,</w>
Re demp
Po dcast</w>
Po dcast
Persön lichkeit,</w>
Par is
O ri
No te:</w>
Nachthimmel ,</w>
Nachrich ten</w>
Musik festivals</w>
Mom ent,</w>
Mil ch,</w>
M at
Liter atur,</w>
Lis te</w>
Lim on
Lieblingsjahresz eit</w>
Lieblingsjahresz eit,</w>
Lieblingsger icht</w>
Lieblings tier
Lieb haber
Leben s
L at
Kä se.,</w>
Konzer t,</w>
Kommunik ation</w>
Kleid ungs
Klassi k
Kin o
Kam in,</w>
Ka f
K ö
K ing.</w>
Jap anese</w>
Jahresz eit</w>
Herausforder ung.,</w>
Her kun
H em
Gär tn
Glück .,</w>
Gesch ä
Gen ieß
Gemein sames</w>
Gele genheit,</w>
Gedich te</w>
Geburtsta g
Ge gen
Fähig keiten,</w>
Fußball ,</w>
Frühaufsteh er</w>
Fr ank
Fotograf ie,</w>
Fer ne.,</w>
Fei ern</w>
F riend
F in
Enga gement</w>
En ten</w>
Eis ,</w>
Dis ku
Cam ping</w>
C ha
Bücherreg ale</w>
Bunge e-J
Brief mar
Bo den,</w>
Be obach
Be ge
Basketball ,</w>
Bahn hof</w>
B äumen,</w>
Arbeits st
All tag,</w>
Ab wechs
-S erien,</w>
,T he
,Sun rises</w>
,So cial</w>
,Rain y</w>
,M aking</w>
,Laugh ing</w>
,Ha ving</w>
,G o</w>
,F res
,C am
,A tt
," Unfortunately,</w>
, Ju
"" Harry</w>
" Wir</w>
än de</w>
äl le</w>
Äng ste</w>
zufrie den.,</w>
zeu g</w>
zeichn en.",</w>
z ähl
yester day."""</w>
wur de</w>
wunder bar.,</w>
wor ds.</w>
wor d</w>
win es.</w>
will .",</w>
wil ling</w>
wieder gesehen,</w>
who m</w>
wh el
wert voll.,</w>
wer t</w>
we t</w>
we g,</w>
wan del</w>
wachs en",</w>
wa it
wa ch</w>
vie w
verschw end
verlor en.,</w>
ver treib
ver mö
v al</w>
unterweg s.,</w>
unbeschreib lich</w>
unbeschreib lich.,</w>
un abhän
unabhän gi
unabhängi g</w>
ulin ar
ug g
uch s
u sed</w>
u ps</w>
u c
tu b.</w>
tri ck
treff en,</w>
tre i
tr a</w>
tion s
tig keit.,</w>
tic ally.</w>
ti ble</w>
ter s</w>
tem pla
telefon iert.,</w>
ta in
t äu
t ."""</w>
syst em
sy mbol</w>
super her
sun rises</w>
summ er,</w>
summ en</w>
stärk er</w>
stärk en,</w>
stron gest</w>
stra wber
stor y.</w>
stor e</w>
stimul ate</w>
sti ce</w>
stam ps.</w>
st roll
spre chen.,</w>
spont an</w>
spic y</w>
spann endes</w>
sozi ale</w>
sou l</w>
sooth es</w>
sonn t</w>
soll .",</w>
socc er.</w>
so lidar
sneak ers.</w>
smittel ,</w>
sm art
sing en.",</w>
shop s.</w>
shoo ting</w>
sho wer.</w>
shir t</w>
sh ar
seas ons</w>
schn u
schaff t</w>
sch üch
sch ri
sch al
satis fa
s wit
s ister
ris ks</w>
richt ung</w>
rich tig,</w>
ri es
resear ch</w>
remem ber</w>
regne t",</w>
recogn ize</w>
re ich</w>
ra ther</w>
ra d
qu ality</w>
puter s</w>
pul si
promo te</w>
pr in
pon d.</w>
pleas antly</w>
plan ting</w>
pl ant</w>
pictur es
pian o</w>
perspec tive.</w>
perfect ly.</w>
perfe ction
pe l</w>
past ure.</w>
p enguins</w>
over whel
ous ly.</w>
ort .,</w>
orig in
organis ier
oll y
ok a
off ener</w>
oc ach
obses sed</w>
nut zen</w>
nis se.,</w>
nis ,</w>
neh men.,</w>
nat ur
n en
musi k.,</w>
murmur s</w>
mu st.</w>
mu s</w>
mov ing.</w>
mone y</w>
mone y.</w>
mod ern
mo wed</w>
mo st.</w>
mind fulness</w>
men sch</w>
man n</w>
man ch
manch mal
majestät isch,</w>
majes tically</w>
mach t.",</w>
lös en.",</w>
ly mp
lon ger</w>
lon g
ll .</w>
let t</w>
leis ure
lei ß
le m
le ge</w>
lauf en.,</w>
lat est</w>
lang sam.,</w>
la zy</w>
l .,</w>
kulture lle</w>
krist all
kreativ ,</w>
komm en.,</w>
klass ischen</w>
kaput t,</w>
k lar</w>
junk ie.</w>
it able</w>
inv en
interessi ert</w>
inter n
inter est</w>
instrum ente</w>
inspirier end.,</w>
inspi red.</w>
infin ite</w>
indescrib ably</w>
in tegr
in se
in nov
in dustr
in door
impro vem
impressi ve</w>
il l</w>
ide al</w>
hy th
human ity</w>
hum or</w>
hl en</w>
herauszu hol
he el
handicraf ts.</w>
hal b</w>
grün den.,</w>
grow th.</w>
gra zing</w>
gleit et</w>
gib t",</w>
gesund es</w>
gespiel t.,</w>
gespiel t,</w>
gekoch t.,</w>
geh t.",</w>
geh ol
gegan gen.,</w>
gefund en</w>
ga ve</w>
ga ther
g ood
g an</w>
führ t</w>
furnis hed.</w>
fur ther.</w>
fotograf ieren.",</w>
for ce</w>
fon dness</w>
fi c</w>
ff ice</w>
ff e</w>
fei ern.",</w>
fei ern,</w>
fascin ate</w>
f leiß
f er,</w>
ex ist
ev o
es si
erfüll ten</w>
er freu
er en.,</w>
er en.",</w>
episo de</w>
entspann ten</w>
entspann ende</w>
entertain ment.</w>
ent ed.</w>
enjo ys</w>
en ough.</w>
eingerich tet,</w>
ein ig
e t.,</w>
e i</w>
e a
dunk el,</w>
dun kl
dis ku
di ch</w>
develop ment</w>
dekor ieren.",</w>
de par
de mi
de .",</w>
de ",</w>
dar aus</w>
cyc ling</w>
cu p
cro ss
crea tively.</w>
cover ing</w>
contin ue</w>
cont ent</w>
connec tion</w>
completel y</w>
compe ti
communica tion.</w>
coco a</w>
co zin
climb ing.</w>
clim ate</w>
ck e.,</w>
cir c
ci pl
cho ice.</w>
chil d.</w>
candle light.</w>
calm ness</w>
c ting</w>
c s.</w>
c ent</w>
c ats</w>
büch er,</w>
bus iness.</w>
bur ning</w>
bra ve</w>
book shel
bo x.</w>
blä st</w>
bi ogra
bewe gen,</w>
besor gt</w>
besonder er</w>
bes te
bereis en.,</w>
ben e
beleb t,</w>
bekomm en",</w>
beh ind</w>
beeindru ckt</w>
be wahr
be mü
bal lo
back ground.</w>
ba thing</w>
ba king.</w>
b umm
b a</w>
ausge präg
auf merk
auf hell
au to
arbeitet .",</w>
ar t,</w>
ar s.</w>
anti qu
an gua
ach ,</w>
ac tion.</w>
Zusammenhal t</w>
Zeit en,</w>
Z um
Wo che.,</w>
Wis sen,</w>
Wies e,</w>
Wand ern,</w>
W en
W eiter
W ars</w>
W ahl
Volle yball
Veränder ungen,</w>
V an</w>
Tr äume,</w>
To -D
To-D o-
Theat er,</w>
Tal ent
Tages .,</w>
T rain
T eich
Sy mbol</w>
Super hel
Stär ken</w>
Stern schnu
Sportar t,</w>
Sport liche</w>
Spiel e
Spaziergan g,</w>
She er
Schweiß er
Sch loss</w>
S ü
Rät sel</w>
Roman en.,</w>
Restauran t,</w>
Regent a
R aum</w>
Pfer d</w>
Part ner
Or te.,</w>
Or te,</w>
O kto
Musik instrumente</w>
Motorra d
Mom ent
Mod erne</w>
Menschen men
M er
Lieblings land</w>
Lie d.,</w>
Li ve</w>
Leiden schaften,</w>
La sag
La pto
Käl te</w>
Kr äu
Konzer ten,</w>
Klima wandel</w>
Kind heit.,</w>
Kaffe e
K er
Inspira tion.,</w>
In tui
In di
Haustier e.,</w>
Haus .,</w>
Hand y
Ha are</w>
Geschen k.,</w>
Ges tern</w>
Gerich te,</w>
Ger man</w>
Gedank en.,</w>
Ge wür
G laube</w>
Freiz eit,</w>
Forsch ung</w>
For ma
Fo togra
Flug ha
Fla sche</w>
Fitness ,</w>
Fallschirmspr ung</w>
F ri
F lie
Ex per
Ever est</w>
Erfol ge</w>
Entscheid ung</w>
Ein kauf
Ein fach
E d</w>
Dokument ation</w>
Ding en,</w>
Ding e.,</w>
Deutsch land</w>
Col d
Cockta ils</w>
Blumen str
Bezieh ung,</w>
Beru hig
B u
B run
B atter
Ausstell ungen,</w>
Aus flüge</w>
Alko hol
Abenteu ern,</w>
Abend essen.,</w>
A pf
3 0.</w>
1 0
,Relax ation</w>
,P ets</w>
,O ffice</w>
,Heal thy</w>
,Fres h</w>
,Ex erc
,Com puters</w>
,Co zy</w>
,Cam ping</w>
,A dvent
,"Yester day</w>
,""" The</w>
) "</w>
"" I</w>
über wind
äu ß
älter en</w>
zz .</w>
zir pen</w>
ziel stre
zeichn en.,</w>
z üch
z t.,</w>
z es</w>
z aub
yoursel f</w>
y ed</w>
y -
wär men,</w>
wunder schönes</w>
work out.</w>
won der</w>
wo ke</w>
windowsi ll.</w>
wil d
wel ding</w>
weiter entwick
we g.,</w>
wass er</w>
wardro be.</w>
wa ste</w>
w äl
w oll
w en</w>
w ein</w>
vielfäl tig,</w>
verantwort ungs
ver w
ver lieb
vaca tions.</w>
unvor her
unvorher seh
unvergess lich.,</w>
unter halten</w>
unpredic table.</w>
un usu
un n
un bes
umbre lla</w>
um ping</w>
twin kle</w>
treib en.,</w>
tre ue</w>
traff ic.</w>
tradi tional</w>
tra ck</w>
tr ul
tr ess</w>
to .</w>
tivit ät</w>
tion en.,</w>
ti re.</w>
ti ert</w>
thrill er</w>
ther e.</w>
th or
th ern</w>
th at
tern .",</w>
tem perat
teil en",</w>
tast y.</w>
tand en,</w>
tal ent.</w>
t reas
treas ure</w>
surpr ise</w>
sun shine</w>
stür zt</w>
stärk ste</w>
stret ches</w>
spre chen.",</w>
spre ch
spr uchs
sport lich,</w>
spannend ",</w>
sp iegel
sleep s</w>
sleep ing.</w>
skil l.</w>
sing er</w>
sil ence.</w>
sibling s.</w>
shin e.</w>
schütz en.",</w>
schätz en.",</w>
schnell er</w>
schau en,</w>
sch warm</w>
sch m
sau ber,</w>
sam en</w>
sal ad.</w>
s low.</w>
s /
s -
ruhig er</w>
rout ine</w>
roll er
ro ars</w>
ris er</w>
ris er.</w>
ri ver
retur n</w>
repar iert</w>
reli able.</w>
refresh es</w>
recei ving</w>
reas on.</w>
re qui
re in
re comm
rau schen</w>
rau sch
r ä
r ennt</w>
put s</w>
pur su
publi c</w>
proper ly.</w>
produk tiv,</w>
preci ous.</w>
pre t
poten ti
pli zier
pla ce
pfle gen",</w>
people 's</w>
peace fully</w>
par k,</w>
p lau
p .,</w>
or e</w>
or ange</w>
or .,</w>
onn en.,</w>
of t,</w>
nigh t,</w>
nachzudenk en.",</w>
n e</w>
mysteri ous.</w>
mysel f
mushroom s.</w>
museum .</w>
mo del</w>
mo del
min i
mi rac
medi tieren,</w>
medi a</w>
me hr
me als.</w>
ma .</w>
lä uten</w>
low ing</w>
livel y</w>
listen er</w>
limit s.</w>
lieb haber</w>
letz ter</w>
leisure ly</w>
leis ten</w>
leis e,</w>
leck er</w>
laug hed</w>
lang sam,</w>
landscap es</w>
lan g,</w>
la w
la mp</w>
la mp
la chen.",</w>
könn en.,</w>
kr äf
komme .",</w>
kn it
kind ness</w>
kal t.,</w>
k ulinar
k ind</w>
jum ping.</w>
jog gt</w>
jog gen",</w>
jo ys</w>
jack et.</w>
ja zz.</w>
is san
invigor ating.</w>
inv ite</w>
intui tion.</w>
inter net.</w>
ing ."""</w>
infinit e.</w>
industr y.</w>
indispens able.</w>
imp le
i ving</w>
i est</w>
hö re,</w>
hu stle</w>
hr en</w>
hone y.</w>
holi day</w>
her z
hel met</w>
hel m</w>
heav y.</w>
hear d.</w>
he kt
he ben,</w>
happ y."</w>
happ ens</w>
h ur
grün d
gr enz
geschloss en,</w>
gesch ick
gesch aff
ger äu
geput zt,</w>
gen i
gen aus
genaus o</w>
gel e
geführ t.,</w>
gef ähr
ge öff
ge wich
gal opp
gal lo
für s</w>
furnit ure</w>
frea k,</w>
fotograf ieren</w>
fortun ately</w>
fol ge</w>
fo c
foc us</w>
fl utter
finis h</w>
fi en</w>
fer tig
fei ern</w>
faszinier end</w>
f ern
experiment ing</w>
exhibi tions</w>
exc ur
ex trover
evo ke</w>
erkund en</w>
er st</w>
enn is</w>
en heit,</w>
empathe tic</w>
empath y</w>
emp loy
ell en</w>
ele c
el le,</w>
ei ,</w>
e th
e ff
dun kel</w>
don e.</w>
dish .</w>
dis play</w>
difficul t.</w>
differ ent.</w>
desig ning</w>
denk en",</w>
decor ated</w>
decisi ons</w>
darkn ess.</w>
dar auf</w>
dan ger
dafür ,</w>
d ent.</w>
d ."""</w>
cry stal</w>
cour se.</w>
contro l</w>
contribu tion</w>
contin u
consci ous</w>
consci ous.</w>
confiden t</w>
conc entr
con temp
con s
compli c
compani on.</w>
communi cation</w>
combin ation</w>
com e.</w>
co ver</w>
clean ing.</w>
ck en",</w>
ci ties</w>
ci ent</w>
che .",</w>
ch oo
ch at
ch air</w>
camer a</w>
cal led</w>
c s</w>
c ine</w>
build ings</w>
br unch</w>
bouqu et</w>
bloom ing.</w>
bewus st,</w>
beruhig en",</w>
beobach tet</w>
benö tigt</w>
ben ut
bedeut en</w>
be kann
be ",</w>
bar s.</w>
bab y</w>
b .,</w>
avi d</w>
authent isch</w>
aufsteh en,</w>
aufreg end.,</w>
aufre gend</w>
ation s</w>
at tern
at en,</w>
astron omy.</w>
ast ro
appoint ment.</w>
anzu bauen.",</w>
any more.</w>
ann e</w>
ander e,</w>
an spruchs
an g</w>
an al
ambiti ous.</w>
all es.,</w>
ad mi
activ ely</w>
ach t,</w>
ac t</w>
ac qu
abre d
a ks</w>
a den</w>
Zeh en,</w>
Wä sche,</w>
Wohlbe finden</w>
Wo che,</w>
Wen n</w>
Wei de.,</w>
Wasserf älle</w>
Wald spaziergang</w>
Wahr heit</w>
Vogel schwarm</w>
Verbind ung</w>
Ver abred
Veget ar
Unabhäng ig
Umgeb ung,</w>
US A
Thrill er
Ther ap
Team play
Städter eis
Stu di
Sti lle,</w>
Sta di
Spiel en</w>
Sonnenuntergän ge,</w>
Sonnenuntergan g.,</w>
Sonnenuntergan g,</w>
Sofa .,</w>
So zi
Schü ler</w>
Schwimm en,</w>
Schweißer helm</w>
Schmu ck</w>
Schat ten</w>
Ru he,</w>
Rad tour</w>
R og
Puzz le</w>
Projek ten,</w>
Po ol
Pil ates</w>
Picknick s</w>
Persön lichkeit</w>
O lymp
Ne tz
Natur wissen
Mö bel</w>
Muse en,</w>
Mo de.,</w>
Lu ft
Lieblingsjahresz eit.,</w>
Lie be.,</w>
Le uten</w>
Le cker
Le be</w>
La ge,</w>
L igh
L enn
Küch en</w>
Kur z
Kra ft.,</w>
Klei d</w>
Kla v
Kl eine</w>
Kar rier
Kam in
Je de</w>
In nen
I t's</w>
Hinter grund
Her z
Hausti er.,</w>
Hausti er,</w>
H äu
H am
Gleich gewich
Gespräch e,</w>
Ge wal
G ump
G am
Fußball .,</w>
Fris ur
Freund schaften,</w>
Freund schaft,</w>
Frei en.,</w>
Fr anz</w>
Fahrra d.,</w>
Fahr t</w>
Erfol g.,</w>
Entwick lung</w>
Engli sh</w>
E i
Di es
D ach</w>
Comic s,</w>
Che f</w>
Büro arbeit</w>
Büch er
Brie fe</w>
Bologn ese</w>
Ber ge.,</w>
Baum ,</w>
Ba st
Ba hn</w>
B äume,</w>
B ad
Auto .,</w>
Auto ,</w>
Au st
Asi a.</w>
Arbeit sk
An blick</w>
A drenal
,Vis it</w>
,T rying</w>
,T ennis</w>
,S le
,Mo dern</w>
,L angua
,Ju stice</w>
,I 've</w>
,Exerc ising</w>
,D reams</w>
,D r
,D e
"" Die</w>
" Pinguine</w>
über win
über rasch
über .,</w>
ö te</w>
är chen</w>
ä h
z o
yoursel f.</w>
wünsch te</w>
wär m
wunder volle</w>
wor ks.</w>
wor kaholi
wonder fully</w>
won 't</w>
wirk en.,</w>
wichtig sten</w>
wh er
weakness es.</w>
wasch en,</w>
warm er</w>
w eich
volunte er</w>
veränder t,</w>
veränd ern",</w>
ver kauf
ver färben</w>
vend er.</w>
ut h</w>
unterstütz en",</w>
uns .,</w>
univer s
ungs ges
unglaub lich.,</w>
un fortunately</w>
uch t,</w>
uc cin
tun .,</w>
trul y</w>
tru st
trea sure.</w>
tre ated</w>
trav elling</w>
trans lat
train ing.</w>
tr o</w>
tour s</w>
tour s.</w>
tom at
tiv ely</w>
titu de.</w>
ti ence</w>
ti dy.</w>
thr ough
that 's</w>
terra ce.</w>
tern ",</w>
ter ri
teil en</w>
teil en.",</w>
teach er.</w>
t ung</w>
sty li
stressi g</w>
stressi g.,</w>
strength s</w>
stei gen</w>
ste ak</w>
ste ad</w>
sta di
spiel ,</w>
spe e
spe ak
sor tieren.",</w>
sol l</w>
sof a</w>
socie ty</w>
sna ck.</w>
smittel .,</w>
sm ell
slow ly.</w>
sk ra
simp li
she ep</w>
sh ort.</w>
sett ing.</w>
self- expression.</w>
sec ure</w>
se gel
schütz en",</w>
schwar z,</w>
schließ en",</w>
sch lend
satisfie d.</w>
s üch
s ste</w>
s er.</w>
s '</w>
s ""."</w>
ruhig en</w>
ro t</w>
righ ts.</w>
righ t.</w>
ret ten.,</w>
res our
res ol
repa i
reli gi
reis e
refle xi
rechar ge</w>
reali ty</w>
reali ty.</w>
rea ds</w>
re mind</w>
re ",</w>
ra ge</w>
purpo se.</w>
punctu al.</w>
profes sion.</w>
proble m</w>
probier en</w>
potenti al.</w>
plau d
plat z</w>
picnic s</w>
pic nick
pati ence</w>
pati ence.</w>
p ort</w>
p m.</w>
p attern
p atter
p al
organis ieren",</w>
ordent lich</w>
oo d,</w>
one y</w>
onar do</w>
olly w
offen en</w>
nutri tion</w>
nois se
nois es.</w>
nigh ts.</w>
neu este</w>
nerv ö
ne ar
nach ts</w>
mysteri ous</w>
mov es</w>
motiv iert</w>
mor gend
mo tto</w>
min e.</w>
mil k</w>
medi cine</w>
mean ing
me at.</w>
mat ter</w>
majestät isch.,</w>
mag nific
mach t",</w>
mach ine</w>
life ."</w>
liebe volle</w>
lieb ten</w>
li ger</w>
let ting</w>
le y.</w>
le ad
lead s</w>
laund ry</w>
land s</w>
la vender.</w>
la chen",</w>
l o</w>
l i</w>
kümm ere</w>
knir scht</w>
kal tes</w>
k letter
k er
k en.,</w>
jem and</w>
je ans.</w>
is ti
is e.,</w>
ir way</w>
inv est</w>
inten si
instrument s.</w>
inspirier en.",</w>
inn am
in stead</w>
impa ct</w>
ig a
i en</w>
i de</w>
hung ry.</w>
hung ri
horiz ons</w>
horiz on</w>
hol ding</w>
herauszu ford
hel fe</w>
heiß es</w>
hei ghts.</w>
he c
he .",</w>
happ iest</w>
hal f</w>
hairsty le</w>
hairdres ser</w>
h t,</w>
h in,</w>
h im</w>
gu lar</w>
grün den.",</w>
grün den",</w>
größ ten</w>
grill en</w>
grand ma</w>
go al-
goal- ori
glitz ert</w>
gi ve.</w>
gew öhn
gew onnen,</w>
ges ün
ges tures</w>
geräu mi
gend en</w>
gegen seitig</w>
ge zwitsch
ge mat
ge liebten</w>
ge d</w>
g är
g t.,</w>
g lasses</w>
fun da
früh er</w>
friend s."</w>
fried licher</w>
fried lich,</w>
frie dig
freund liche</w>
freund in</w>
frea k.</w>
fra gr
for ms</w>
for given
foo ds.</w>
flat tert</w>
favor ite.</w>
far .</w>
famil y."</w>
f ä
experim ent</w>
ex tra</w>
ex change</w>
ex am
ess enti
erweit ern",</w>
erledig t.,</w>
erleb en,</w>
erkenn e</w>
erk unde</w>
erfrisch t,</w>
erfolgreich er</w>
er t.",</w>
er freue</w>
ep s</w>
ent re
ens wert,</w>
enjo y.</w>
engagier en.",</w>
engagier e</w>
en ken</w>
en a
el ho
el .</w>
eis ure</w>
einzigar tig,</w>
ehrenamt lich</w>
du cks</w>
dok u</w>
doct or</w>
diffic ult
di ving</w>
di ary</w>
deser ve</w>
deli ght</w>
del ay
decisi on</w>
de ed</w>
day 's</w>
d om
cu dd
cru ise</w>
cre ated</w>
cor ner.</w>
con templa
con omy</w>
con noisse
commun ic
comfort .</w>
combin ation.</w>
collec tion.</w>
cloud less</w>
cloud less.</w>
clo sed.</w>
ck t.,</w>
chees e
cheer ful</w>
chao tic.</w>
chan ging.</w>
cel ebra
cc ess</w>
car d</w>
cap ture</w>
c y.</w>
bus y.</w>
bus iness
bun t.,</w>
bri dge</w>
bree ze</w>
bre chen</w>
bran ch.</w>
book wor
blüh en,</w>
bli ck,</w>
bis her</w>
bir d.</w>
bil den</w>
bes uch</w>
bes essen</w>
beruhig en</w>
ber eit.,</w>
ber .,</w>
benut ze</w>
belieb te</w>
behand elt</w>
befrei end</w>
beeindruck end</w>
be friedig
be et
ba ke.</w>
ba g</w>
b ing</w>
b and
ausprobier en.,</w>
ausge wo
aufzu stehen",</w>
aufge wach
auf ges
au di
at e,</w>
at .,</w>
arbeit e.",</w>
anzu schauen",</w>
any thing.</w>
angefan gen</w>
an ru
an g
ak tiver</w>
again ."</w>
ac cor
a quarium</w>
a k.</w>
a gli
a ges.</w>
a cation</w>
Ziel e.,</w>
Z im
Yor k,</w>
Yoga- Stunde</w>
Y ou
Y ear
Work out</w>
Wor kaholi
Wirk ung,</w>
Wir tschaft</w>
Wand ern.,</w>
W eine</w>
Vogel gezwitsch
Vin cent</w>
Verke hr
Unterschie d</w>
Tr äume.,</w>
Toler anz,</w>
To m</w>
Titan ic
Thr ones.</w>
Theater aufführ
The men</w>
The ma</w>
Tennis ,</w>
Te e
Tarantin o</w>
Tal ente</w>
T ä
T on
Süßig keiten,</w>
Stär ke</w>
Stre et
Ste ak</w>
Sta irway</w>
Spiritu alität</w>
Spaziergän ge,</w>
Span ish.</w>
Sp iele</w>
So lidar
Snow boar
Selbst verwirklich
Se geln</w>
Science-F iction</w>
Schul freundin</w>
Schreib en,</w>
Scho ß,</w>
Schnee mann</w>
Schmu ck,</w>
Schlaf ,</w>
S ou
S neak
S il
S au
S am
S af
Rück zu
Roman e,</w>
Re g
R oll
R ess
R at
Potter ,</w>
Po sitive</w>
Pla y
Perspek tive</w>
Pau lo</w>
Partn er.,</w>
Part y,</w>
P h
Outdoor- Aktivitä
Onlin e-S
O per
Nud eln</w>
Netflix ,</w>
Nachmit tag</w>
Nach denken</w>
Musikfestiv als,</w>
Mu ss</w>
Mu scheln</w>
Mor gens</w>
Menschen re
Me et
Mar vel
Mar ath
Mal er
M ün
Lieblings wein</w>
Lieblings stadt</w>
Lieblings mahl
Lieblings ge
Lieblings fach</w>
Lieblings essen.,</w>
Lieblings auto</w>
Lieb haber</w>
Lich t,</w>
Lebenss til</w>
Leben smittel</w>
Le onardo</w>
L är
Kä sek
Kunstaus stellung</w>
Kunst gal
Kreativitä t.,</w>
Kreativitä t,</w>
Klet tern</w>
Kerzen schein</w>
Karao ke,</w>
Kamer a</w>
K äfer</w>
K uchen,</w>
Je an
J ane</w>
Ital y</w>
Indie -
In spek
Ide en.,</w>
Hü hn
Hän gemat
Her z,</w>
Haus arbeit</w>
Hau se.,</w>
Hallo we
H u
H ek
Grün en</w>
Grund lage</w>
Gru pp
Geschich ten,</w>
Gele genheit</w>
Früch te</w>
Flu ss
Fitness -
Fil men</w>
Fe der
Fallschirmspr ing
F l
F ing
F aul
Eu le</w>
Erhol ung</w>
Erfüll ung</w>
Entscheid ungen,</w>
Einfach heit</w>
D ie
D V
Comic s</w>
Co elho
Car bonar
C ro
Br ücke</w>
Bo b</w>
Blätter .,</w>
Blumenstr auß</w>
Bibliothek ,</w>
Beweg ung.,</w>
Berl in</w>
Ber eich
Bedürf nisse</w>
Be tra
Ball .,</w>
Ba y
B ow
B ab
Au gen,</w>
Astron omi
Apf el
Al bum</w>
6 1.</w>
2 9.</w>
,Wal ks</w>
,W e
,Trav elling</w>
,T ake</w>
,S now</w>
,S m
,S e
,Laugh ter</w>
,L eisure</w>
,H um
,Friend ships</w>
,F or
,Dr inking</w>
,Dis covering</w>
,Com puter</w>
,C el
,B u
,"W hen</w>
, Or
, "</w>
) .</w>
"" Live</w>
"" Lebe</w>
"" Game</w>
"" D
"" Carpe</w>
über lege,</w>
zieh en,</w>
zi pl
z eiten</w>
yel low.</w>
y on
y ball.</w>
wunderbar er</w>
wor ries.</w>
wolken los,</w>
wirk t</w>
wider steh
wh ist
wen iger</w>
war en
wait er</w>
wa kes</w>
w äch
w ant.</w>
w all.</w>
vis i
verlor en,</w>
verfol gen</w>
verb unden,</w>
verb ind
ver stor
ver spiel
ver sion</w>
ver lassen</w>
ver führ
vel y</w>
v it
v ent</w>
ur m</w>
unterweg s</w>
uni qu
ungsges präch
ung spar
ung skra
ung lück
ung es</w>
uner setz
uner schöpf
unerschöpf liche</w>
unabhäng ige</w>
umh er.,</w>
umh er,</w>
um ge
u sing</w>
u ri
täu sch
tä glich</w>
tz chen</w>
trust wor
treib en.",</w>
tre u</w>
trauri g</w>
train iere</w>
tra ins</w>
tr y.</w>
tr uth</w>
tr ie
tr end
to tal</w>
to p
ti z
ti re
ta s
ta kt
t ön
t um</w>
t sch
t e.</w>
swe ater</w>
sung lasses</w>
sun light.</w>
succ ess</w>
su ch
stü cke</w>
stöb ern.",</w>
stud iere</w>
stressi gen</w>
stell en",</w>
spontane ous.</w>
spontan er</w>
splend or.</w>
spiel t.",</w>
spektakul är,</w>
spa ci
sp ät
sp read</w>
sou l
sor tieren",</w>
soll te,</w>
soci able</w>
so for
sofor t</w>
sn ugg
sm all.</w>
sk i</w>
sk ating</w>
sich er
sho e</w>
sh ells</w>
ser ves</w>
self- realiz
self- love.</w>
self- determin
se wing</w>
schön sten</w>
schre ck
schau en</w>
sch mil
sch lu
sch lim
sch ine</w>
sch enk
sch en.",</w>
s ort
s old</w>
s end
respect ful</w>
requi res</w>
renov ated</w>
regne t.",</w>
refle ction</w>
ref oo
recei ve</w>
reas on</w>
re war
raf ting</w>
rach t.,</w>
ra gen</w>
progres s.</w>
progra m
postcar ds.</w>
poem s</w>
play ful.</w>
plan s.</w>
plan et</w>
plan en.",</w>
place able.</w>
picnic s.</w>
ph än
pf ei
perfek tes</w>
perfek t.,</w>
per fu
part ys</w>
pain ted</w>
p il
p ed</w>
ow ning</w>
ou rage</w>
or der.</w>
or der
open- air</w>
on tan
on ."</w>
om a</w>
oce an.</w>
now led
nowled ge</w>
notwend ig,</w>
newspa per
nee ds.</w>
nat ure,</w>
nachhal tig</w>
nach denk
na ss</w>
na h
n ar
n ",</w>
muss .",</w>
musi cal
mounta in.</w>
motiv iert.,</w>
motiv ated.</w>
mor ies</w>
mom ents.</w>
mi e
ment ."</w>
me ow
mat h</w>
mar kt,</w>
mal en,</w>
maga zin
mach e",</w>
ma li
m ut
m ing</w>
lö sen</w>
lu ke
luke warm</w>
lifesty le</w>
li g</w>
li .</w>
letter s.</w>
laz ily</w>
la v
kümm ern</w>
kost bar</w>
kom plizier
ke ."</w>
k rie
k ri
juic y.</w>
ju ice.</w>
ju di
jog gen.,</w>
jog ge</w>
italien isches</w>
it a
it ",</w>
isch t</w>
is su
is s
is en</w>
irre placeable.</w>
ir .</w>
introver ted</w>
inspirier end</w>
ind fulness</w>
in side.</w>
in exh
inexh aus
inexhaus tible</w>
in ed</w>
imm er.,</w>
ig n
ich er
hän gt</w>
hung ry</w>
hu scht</w>
hilosop hi
hil fs
high est</w>
hi ke.</w>
herausford ern
her bs.</w>
help ed</w>
hei rat
hei r
heel s.</w>
he at</w>
han ging</w>
hairdres ser.</w>
h öh
h inter
h im.</w>
h es</w>
h en",</w>
grün den,</w>
grün .,</w>
größ tes</w>
großar tig</w>
gra titude.</w>
girl friend</w>
gesün der</w>
gestal ten",</w>
geschrie ben.,</w>
gesch ä
genieß t</w>
gemüt liches</w>
gemein same</w>
gefüh l,</w>
gef allen
gedul diger</w>
ge d.</w>
ge bo
ge .",</w>
garden s.</w>
g ue</w>
g t",</w>
g in
g er.</w>
g ad
frisch es</w>
fried lich.,</w>
fri ch
freund ,</w>
flutter s</w>
flex ib
fle xi
fess eln
fashi on</w>
far ben
f ing
f elt</w>
experim enti
exist ence.</w>
excit ed.</w>
es ten</w>
erhol sam,</w>
er stre
er stes</w>
equ al</w>
entr um</w>
enterta in</w>
ent scheid
ent ra
energi zed</w>
end ur
en s.,</w>
en g</w>
en ?,</w>
empath y.</w>
ell ,</w>
el der
einzutau chen.",</w>
einzigar tig.,</w>
einsetz en",</w>
eingel aden,</w>
einfa che</w>
einand er,</w>
ei g
e at.</w>
dro h
dra ma
dra g
do ku
diver se</w>
dist ance</w>
discover ed.</w>
desig ner</w>
dent ist.</w>
den ing</w>
decisi on.</w>
deci ded</w>
dar über,</w>
cuis in
crun ches</w>
crow ds.</w>
cro w</w>
concer ned</w>
conc ept</w>
com po
collea gue</w>
co tt
co ast
clo ser</w>
clo sed</w>
chick en</w>
che ck</w>
charac ter
challen ging</w>
captiv ating.</w>
call ing</w>
c ted</w>
c o</w>
bring t",</w>
breath taking</w>
brea thing</w>
bre ath</w>
bo y
bo th</w>
blü ht</w>
blo ss
bl es</w>
biogra phi
bing e-
beweg en.",</w>
besonder es</w>
bes ten.,</w>
bereis en",</w>
beginn en.",</w>
begeister t.,</w>
bege is
beet le</w>
be tä
batter y.</w>
back en.",</w>
auszu schlafen",</w>
ausgie big
aus zutau
aus verkauf
aus m
aus flug</w>
aufreg ende</w>
aufgeräum t.,</w>
au ß
ation ."</w>
at m
asle ep.</w>
ar oma</w>
ar d.</w>
anzunehm en.",</w>
anzu sehen.",</w>
ann i
angeneh me</w>
anal y
an la
an ger</w>
an fan
an ce
aller gic</w>
al low</w>
air plan
adventur ous.</w>
ad vis
ad en.,</w>
ad dic
ad d
accompli sh
ac tor
ac tions.</w>
absolut ely</w>
a tive</w>
a ."</w>
Zuhau se.,</w>
Zeit schri
Yor k.</w>
Year 's</w>
Wunder .,</w>
Work-Life- Balance</w>
Wet ter,</w>
Weis e,</w>
Weihnach ten.,</w>
War s.</w>
U hr,</w>
U -
Tr ends</w>
Tie fen,</w>
T or
Su doku</w>
Stär ke,</w>
Straßenlat ernen</w>
Sternenh immel</w>
Spielplat z,</w>
Span ish</w>
Span isch</w>
Sonnta g
Sonnen lich
Selbst reflexi
Se ite</w>
Sci -F
Schr it
Schick sal
Schat z,</w>
S icher
S eri
S atur
Ro ck,</w>
Restaurant s,</w>
Respe kt,</w>
Regenschir m</w>
Re chte</w>
Re alität</w>
Re ali
R oo
Pul lover</w>
Proz ess</w>
Plat ten,</w>
Planet en,</w>
Philosoph ie</w>
Pflan zen.,</w>
Pau se,</w>
P ri
P ate
Oze an</w>
O per</w>
Nor thern</w>
Na hr
N ek
Musik -
Mil ch.,</w>
Mil ch
Melod ie,</w>
Medi en</w>
M ir</w>
M an</w>
Lit tle</w>
Lieblingss änger</w>
Lieblingsmusik richtung</w>
Lieblingsge mü
Lieblingsfilm genre</w>
Lieblingsbeschäftig ungen,</w>
Lieblings schauspiel
Lieblings blume</w>
Liebling se
Les en.,</w>
Leiden schaften</w>
Land schaften</w>
Land .,</w>
Kurz geschich
Krä he</w>
Krimis ,</w>
Kri mi
Kri m
Konzer ten.,</w>
Komödi en.,</w>
Kell ner</w>
Kar ten
Kar i
K ür
K lar
K ing</w>
K ek
Jap an,</w>
J ames</w>
Itali en</w>
Indi an</w>
In sta
In dividu
Hun de.,</w>
Horrorfil me,</w>
Hobby s.,</w>
Hobbi es</w>
H ö
H appiness</w>
Gu t</w>
Gog h.</w>
Godfa ther
Gleichgewich t</w>
Ges ten</w>
Gerich te.,</w>
Genu ss,</w>
Gemein schaft,</w>
Gel ass
Geb ir
G o
G laub
G in</w>
Fü ßen</w>
Fähig keit</w>
Frühling s
Freizeit park</w>
Fr au
Fr anzös
Fotogra fien</w>
Fanta s
F ol
Erleb nis</w>
Erfol ge,</w>
Erdbe eren</w>
Engli sch</w>
Ein samkeit</w>
E ma
Comedy -Show
C any
Bologn es
Blau ,</w>
Bl at
Bil der</w>
Bier ,</w>
Bezieh ung.,</w>
Bau ch
B ars</w>
B B
Australi en,</w>
Aus druck
Au ge</w>
Au f</w>
Ar zt</w>
An gebo
An fan
Al t
Abenteur er</w>
Ab er</w>
A m</w>
8 3.</w>
7 0.</w>
6 2.</w>
4 2.</w>
2 1.</w>
1 9.</w>
-Fil me.,</w>
,V acation</w>
,Su ccess</w>
,Sm all</w>
,Pa tience</w>
,Me mories</w>
,M oney</w>
,M indfulness</w>
,Clim bing</w>
,C ourage</w>
,Be ach</w>
," S
," O
," A</w>
, Fr
" Sport</w>
" In</w>
" Glück</w>
ür z
überwin den</w>
öffent lichen</w>
ätz e,</w>
zurück zu
zuhau se.,</w>
zuhau se,</w>
zielstre big
year s</w>
y lan
wäch st</w>
world ."""</w>
wor ries</w>
wohl tu
wi de.</w>
wer k,</w>
weiterzu bild
weit er.,</w>
week s.</w>
we d.</w>
water falls</w>
warm th.</w>
wan ted</w>
wachs en.,</w>
wa ys.</w>
w ähl
w us
volle yball.</w>
vis its</w>
vis it.</w>
viel es</w>
vide os.</w>
versetz en,</w>
vergess en.,</w>
verführ er
verdient ",</w>
verdi enen</w>
ver wand
ver rück
ver mitt
ver liebt</w>
ver ein
vegetar ische</w>
ve gan</w>
ur ries</w>
up -
unvergess liches</w>
unusu al</w>
unglück lich</w>
unend lich,</w>
und s</w>
un widersteh
un ity</w>
umwelt bewusst</w>
ump k
umm ing</w>
um s
tz t,</w>
tro tz
trink en,</w>
treib t</w>
travel ed</w>
transpor tieren,</w>
tranquili ty</w>
tra gen.",</w>
tour en</w>
ton ight</w>
today ."</w>
to ma
toma to</w>
to ff
tig en",</w>
tier t.,</w>
ti ful</w>
through out</w>
ther ap
theat re</w>
th s.</w>
th ought</w>
ten s</w>
tell ing</w>
te x
te chni
te am.</w>
tan zen.",</w>
t ür
t s,</w>
süch tig</w>
sy mbo
symbo li
swit ch</w>
surro und</w>
sur vi
sun light</w>
sun bathing</w>
success es.</w>
sty le</w>
stu dy</w>
str ange</w>
stell en.",</w>
stell en,</w>
stad t.,</w>
st ets</w>
st er,</w>
st ep</w>
sport liche</w>
spiel er,</w>
spectac le.</w>
spazier gänge</w>
spannend .",</w>
sort ing</w>
soo thing</w>
sonn ig,</w>
solidar ity.</w>
so li
sister .</w>
sinn voll</w>
simpli city</w>
signific ance</w>
sich er</w>
self-realiz ation.</w>
secur ity</w>
seagul l</w>
se ems</w>
se af
schüch tern,</w>
schwier ig,</w>
schreib t</w>
schn it
schn app
schmil zt</w>
schle chte</w>
sch wit
sch en,</w>
sc urries</w>
satisfa ction.</w>
sa vor
sa una</w>
s ziel</w>
s y.</w>
s ent</w>
s ca
ruhig e</w>
roll s</w>
ro of</w>
ro aring</w>
ritu al.</w>
responsibili ty.</w>
res t.</w>
res isti
resisti ble.</w>
repar ieren</w>
rein ander</w>
regi on
reflek tieren.",</w>
rea der.</w>
re zep
re iten</w>
re .",</w>
r hyth
r an</w>
pünkt lich,</w>
put zen,</w>
pu sh</w>
progres s</w>
pro gram</w>
praktizier en.",</w>
practi cal</w>
pra y
pr en
plea sures</w>
pictures que.</w>
picknick en.",</w>
pfle gen.",</w>
persön lich</w>
perfu me</w>
pati ent.</w>
pan ts.</w>
p hilosophi
p en,</w>
ou l
or dn
optimist isch.,</w>
optimis t.</w>
opini ons.</w>
o b</w>
näh en",</w>
näch ster</w>
nut ze</w>
non -fiction</w>
nis tern</w>
nis .,</w>
nich t.,</w>
neugier iger</w>
neighborh ood</w>
neighbor s</w>
neigh bor</w>
necess ary.</w>
ne .",</w>
nach ge
nachge da
mäch lich</w>
musical s.</w>
mov e.</w>
motorcyc le.</w>
mind ful
medit ating</w>
medi tieren</w>
me m</w>
me ister
manchmal ,</w>
mana gement</w>
mal en.,</w>
main tain</w>
magnific ent.</w>
mag isch</w>
mag isch.,</w>
ma inten
ma il
m ouse</w>
m oo
m na
lung s.</w>
loy aler</w>
loy al.</w>
lon ely.</w>
lo pft</w>
lie gen.",</w>
lich ",</w>
li ked</w>
let e.</w>
lemon ad
lemonad e.</w>
le ft</w>
le er.,</w>
le -
lauf en.",</w>
land .</w>
la y</w>
la bor
l äch
l y,</w>
l ine.</w>
l es,</w>
köst liches</w>
kreativ .,</w>
kom p
know n</w>
knit ting.</w>
kling elt,</w>
kl eines</w>
kl einer</w>
kennen gelernt.,</w>
keep ing</w>
kaput t.,</w>
ka ffee</w>
ka .,</w>
k ra
k lopft</w>
k i</w>
k a</w>
jog gen.",</w>
jo kes.</w>
jo g.</w>
jo b,</w>
jeman dem</w>
itsel f.</w>
it y,</w>
issan ts</w>
is p
is m</w>
ir resistible.</w>
ir ness</w>
inven tion.</w>
inspirier en.,</w>
indoor s</w>
individu al</w>
independ ence</w>
independ ence.</w>
ind ro
in telligen
in for
in -
ig es</w>
hurr y</w>
hu mi
hr e</w>
hom el
hi ps</w>
her it
health ier.</w>
he ese</w>
he als</w>
harmoni ous</w>
har bor
harbor .</w>
ham mo
ha b</w>
h ä
gönn e</w>
gär tn
grand mother</w>
gra st</w>
gol den</w>
gestres st.,</w>
gestell t.,</w>
gestal te</w>
ges tri
genieß en.,</w>
gen heit.,</w>
gemach t;</w>
gefühl .,</w>
geback en.,</w>
ge mächlich</w>
ge kauft</w>
ge fahren,</w>
galopp iert</w>
g lich,</w>
führ en,</w>
fü reinander</w>
fulfill ment.</w>
fu ß</w>
freund lich.,</w>
fl ying.</w>
fish ing.</w>
fin ding</w>
fi cial</w>
feel ings.</w>
fe hl
fe ars.</w>
fe ar</w>
fe ,</w>
faszinier endes</w>
fa ster.</w>
f y</w>
f en
exhaust ing</w>
ev ent
et ting</w>
ess ,</w>
erkund en,</w>
erinn ern</w>
erforsch en",</w>
er ung.,</w>
er neu
er möglich
er en",</w>
er /
ep ing</w>
entschloss en,</w>
entführ en.,</w>
ener y</w>
end less.</w>
employ e
empathe tic.</w>
emo tions</w>
ema ils</w>
em ent.</w>
el t.,</w>
ek or
eich tum</w>
educ ate</w>
e lix
dunk le</w>
drin ks.</w>
doct or
do g
di es</w>
der t</w>
depar ts</w>
dent ist</w>
denk en.",</w>
den en</w>
delay ed.</w>
deep .</w>
dec l
de ta
de t,</w>
de b
de al
deal ing</w>
dank bar,</w>
dan ach,</w>
da zu.,</w>
da ch
d y,</w>
d ge
d ate.</w>
craw ling</w>
confi dent.</w>
commun ity</w>
com b
clu bs.</w>
clim b</w>
ck win
ck ing
cit y,</w>
cheese cake.</w>
challen ging.</w>
ch im
cer tain</w>
cau se.</w>
car rying</w>
car ry</w>
can .</w>
camp fire.</w>
ca me</w>
c lasses.</w>
c lar
c innam
c co
bus iness</w>
bur ger</w>
bring t.",</w>
bring ing</w>
br ing.</w>
br ann
bloom s</w>
bl es
biete t",</w>
bi er</w>
bewus st.,</w>
betrach ten.",</w>
besser er</w>
bes it
berühr en</w>
beruhig en,</w>
beru f</w>
bereit en",</w>
bereis en</w>
ber t</w>
ber e
bequem ,</w>
beobach ten,</w>
belieb t
bel ,</w>
begeister t,</w>
beantwort en.,</w>
be ha
bath tub.</w>
bar s</w>
ban an
back en</w>
ba refoo
ba l</w>
ba d.</w>
authen tic.</w>
auszuprobier en.,</w>
auszuprobier en,</w>
auss ie
auf hören,</w>
atur es.</w>
athle tic</w>
athle te</w>
ath lete.</w>
ate ."</w>
at s
at or</w>
at e.,</w>
arbeit .,</w>
arbe .,</w>
appear s</w>
anzu schauen.",</w>
ansteck end,</w>
anim ated</w>
angel t</w>
ander e.,</w>
and -
an il
an e
allerg isch</w>
alle m,</w>
al tes</w>
ak tiv,</w>
ada p
achie ve.</w>
ach .</w>
acc ep
ac compan
abzu schal
ab end
a waren
a drenal
a -
Zufrieden heit</w>
Zufrieden heit,</w>
Zeit vertreib
You Tu
Wä sche.,</w>
Wohlbe finden.,</w>
Wissen schaft,</w>
Wer t
Wein pro
Weihnach ten,</w>
We ge</w>
We g.,</w>
Wachst um</w>
W il
W his
W erk
W as</w>
W art
Vö geln</w>
Vorstell ungsgespräch
Vinyl plat
Veränder ung.,</w>
Ver spät
Ver gn
V isi
V anil
Unterstütz ung,</w>
Universum s</w>
Tug end,</w>
Traum beruf</w>
Traum auto</w>
Tier en,</w>
Thail and.</w>
T än
T reib
T o</w>
T isch</w>
T isch,</w>
Su doku
Stimm ung,</w>
Sternschnu pp
Sonn tag</w>
Smooth ie</w>
Smooth i
Ski fahren,</w>
Sk ateboar
Sin ne,</w>
Selbst bewus
Se con
Science-Fiction ,</w>
Schu le,</w>
Schokoladenk uchen</w>
Scho ß.,</w>
Schallplat ten.,</w>
Sch nä
Sch nit
Sch a
Sa un
S ar
Roman tik
Roman e.,</w>
Rog er</w>
Rei fen,</w>
Regent ro
Re tro
Re it
Ra d</w>
R itu
R ings.</w>
R eichtum</w>
Psycholog ie,</w>
Prüf ung,</w>
Projek t.,</w>
Pil ates.</w>
Perspek tiv
Pasta .,</w>
Or t.,</w>
Okto ber
O b
Nor d
Natur dokument
Nachhal tigkeit,</w>
N ov
Mö wen</w>
Muse ums
Mo z
Mo cking
Mexi can</w>
Mar mel
Mar kt.,</w>
Mag ie</w>
M et
M aus</w>
Länd ern,</w>
Lieblingsgetr än
Lieblings reise
Lieblings desser
Liebhaber ,</w>
Laun e</w>
Land ,</w>
L ou
Kö ch
Kunstausstell ungen,</w>
Kreuz fahrt</w>
Konzer te,</w>
Konz ept</w>
Kin des</w>
Kar toff
K nistern</w>
K ill</w>
Jahr e</w>
Ja h
Itali en
Instr ument
Innen stadt</w>
In tegr
Hör en</w>
Häu ser</w>
Herbst far
Hei ß
Hawaii .</w>
Haf en</w>
H unger</w>
H ung
H ollyw
Gär ten</w>
Groß m
Grenz en,</w>
Gr and</w>
Gitar re,</w>
Geschä ft
Ger many</w>
Ger icht</w>
Gemüt lichkeit</w>
Gemüt liche</w>
Gemü t</w>
Gemü se.,</w>
Geheim nisse</w>
Geburtsta ge</w>
Ge ocach
Ge ist.,</w>
Ge hir
Garten arbeit</w>
Gar dening</w>
G ats
Freund lichkeit</w>
Fren ch</w>
Fre ita
Fotograf ,</w>
Fitness .,</w>
Feu ers</w>
Fenster ban
Far ben
Fa s
Fa kt
F ro
F isch
F ir
F arbe,</w>
F C</w>
Erleb nisse</w>
Erhol ung,</w>
Erfahr ung.,</w>
Er k
Er dn
Engli sh.</w>
Eiscre me,</w>
Ein zigar
Ear th</w>
Desig n,</w>
De ta
D ylan
D ekor
Comic s.,</w>
Chanc en,</w>
Café .,</w>
C D
Büro ,</w>
Bungee-J umping</w>
Bru der</w>
Br ise</w>
Bli ckwin
Bild ung.,</w>
Betra ch
Bes ch
Bege gn
Be wus
Barbe cu
Bal ance,</w>
Ba se
B äume.,</w>
B el
Autor enn
Auto bahn
Aus wirk
Auf merk
Architektur .,</w>
Arbeitsk olle
All tag.,</w>
Alkohol ,</w>
Achterbahn fahrt</w>
A stro
A pfel</w>
A me
A dvent
9 8.</w>
9 7.</w>
8 2.</w>
7 6.</w>
7 5.</w>
6 9.</w>
6 7.</w>
6 0.</w>
5 7.</w>
5 6.</w>
5 4.</w>
5 0.</w>
4 7.</w>
4 4.</w>
3 9.</w>
3 6.</w>
2 2.</w>
10 0.</w>
1 8.</w>
1 4.</w>
1 3.</w>
1 0.</w>
-Fil me,</w>
,Wal king</w>
,W ine</w>
,Su shi</w>
,S now
,R es
,R ed</w>
,Plan ts</w>
,P ic
,O ne</w>
,M u
,In sects</w>
,H o
,Ex per
,En viron
,D oing</w>
,D o</w>
,C heese</w>
,C ar</w>
,Beau tiful</w>
,Att end</w>
,Advent ures</w>
,"O n</w>
,""" It</w>
," P
, Karaoke</w>
( Note:</w>
' .</w>
öffent lich
ö t
ö l
Überrasch ungen.,</w>
zw isch
zuverlässi ger</w>
zusammen zu
zu gleich,</w>
zu g</w>
zog en,</w>
zeichn en,</w>
zauber t</w>
zauber n</w>
z e,</w>
you 're</w>
y .,</w>
xi kan
x ,</w>
work day</w>
woll te</w>
wolken los.,</w>
whi le.</w>
wh is
wert voll
wer t.,</w>
wer b
weit er,</w>
weg zudenk
web .</w>
wber ries</w>
war ten,</w>
war mem</w>
war .",</w>
wa sh.</w>
w ood.</w>
w n</w>
w he
vor genommen,</w>
vo ice.</w>
viel .,</w>
vertrau enswürdig
versch mut
vers üß
vers ink
verli eren</w>
vergan gene</w>
verb racht</w>
verantwort lich</w>
ver sit
vel .</w>
ve ."""</w>
va st
use ful</w>
urt eil
ur gently.</w>
up set</w>
unverzicht bar</w>
unterhalt sam,</w>
unter krie
unter hält</w>
unter halten,</w>
ung smittel,</w>
unbe at
un fair
un comfortable.</w>
ult ure</w>
uch .,</w>
tw ä
tur tle</w>
translat es</w>
tra il</w>
tra de</w>
top ic</w>
togeth ern
to wer</w>
tiv es.</w>
tire d,</w>
tim mung</w>
tig en,</w>
ti res.</w>
th ous
teu er.,</w>
tem peratur
temperatur es.</w>
telefon iere</w>
tau cht</w>
tast ing</w>
tas k</w>
tal ented</w>
takt freu
t was</w>
t ung,</w>
t aus
t all</w>
t -
system .</w>
sw im
supp ort
supp or
sung lasses.</w>
sun ny.</w>
sun flowers.</w>
sun flower</w>
success fully</w>
sub mit</w>
su ff
stu ff
strong ly.</w>
stroll ing</w>
strength s.</w>
strawber ries.</w>
sto re.</w>
ste d.</w>
sta r</w>
st ör
st s.</w>
st om
st off
st in
st en.,</w>
spro je
sportar ten</w>
spo ke</w>
spiritu al</w>
spiegel t</w>
speci es</w>
sparkl es</w>
spac e.</w>
sp ü
sp res
sp rach
sozi alen</w>
soo thing
so ,</w>
smooth ies.</w>
smart phone</w>
sk ir
sit ze</w>
sit es.</w>
sing en.,</w>
sich t
si ons.</w>
sha pes</w>
sha pes.</w>
sha de</w>
sh y.</w>
serv iert</w>
serv ice.</w>
sel y</w>
seagul ls</w>
se lix
se hne</w>
se ek</w>
scre ech
sci ence
science -fiction</w>
schütz t</w>
schar f
schaff en,</w>
sch mie
sch mer
sch in
sch en",</w>
sau ce.</w>
sam keit,</w>
salzig ,</w>
sa gen</w>
s onder
sonder n</w>
s ne
s car
s be
sbe gier
rust les</w>
ruhig .,</w>
ru st</w>
rout ine.</w>
roller coaster</w>
ro w</w>
rill ing</w>
rie chen</w>
rich tigen</w>
ri ding.</w>
ri ck
respect ful.</w>
repair ing</w>
remin is
rela tive.</w>
rei ß
refres hed.</w>
refle ct.</w>
re tro</w>
re di
ra ins.</w>
quiet ly</w>
qui z</w>
qu irre
quirre ls</w>
qu es
put ting</w>
prä gen</w>
produk tiv.,</w>
pres ents.</w>
pren eur
pre pa
prakt isch,</w>
pp ed</w>
poll u
poe try</w>
poe try.</w>
po or
po dcast
plor ing</w>
play er</w>
plan en,</w>
plan en",</w>
picnick ing</w>
picnic .</w>
philosophi cal</w>
ph on
pfei ft</w>
pas time.</w>
pan ts</w>
pa ghetti</w>
p ure</w>
p umpk
p or
p engu
out fit</w>
our c
origin al</w>
organiz ational</w>
order ed</w>
or ien
or an
on line.</w>
on fly</w>
omm en,</w>
om ie</w>
o ver.</w>
o es.</w>
nä her</w>
nov el</w>
notwend ig</w>
nied lich,</w>
new s.</w>
neugier ig.,</w>
net t,</w>
ne d.</w>
natür liche</w>
na cken</w>
n ass
müss en.",</w>
myster ies.</w>
musik ali
mov i
motiv ieren.",</w>
motiv ation.</w>
morn ings.</w>
mon o
moment an</w>
mit tel
mindful ness.</w>
min ut
min t</w>
min ier
mi ld</w>
mess age</w>
meis ten</w>
mehr ere</w>
mea dow
me xikan
me hr,</w>
mathema tics.</w>
mainten ance.</w>
ma ster</w>
ma ke
m ulti
lus tiger</w>
lu ft</w>
lu ck
loy al
low ed</w>
long -
lon ely</w>
lieb en.",</w>
lie f</w>
lich keit
lich .",</w>
liber ating.</w>
li v
li es.</w>
li ar
lem on.</w>
leis e.,</w>
lea f.</w>
lav ender</w>
lau fe</w>
langua ge
lan ges</w>
la tion</w>
la ,</w>
l ing,</w>
l an</w>
kün f
kümm ern,</w>
kun st
kulture llen</w>
kri minier
kr öte</w>
kost bares</w>
kost bar,</w>
kon taktfreu
koch en.,</w>
know s</w>
kletter t</w>
kenn t</w>
ke y
k ürz
k at
k ."</w>
journe y,</w>
jeman den</w>
j unge</w>
itä t.,</w>
issu es.</w>
isp iel</w>
is ten</w>
is st</w>
is en,</w>
is e,</w>
inv iting</w>
interest s.</w>
inter view</w>
instrument s</w>
inse cts.</w>
innov ations.</w>
inn en,</w>
ing redi
individu al.</w>
in te
in side</w>
in s
in ning</w>
impro ving</w>
illumin ates</w>
ild kröte</w>
ig keiten</w>
ick er
icker chen</w>
ib elle</w>
ib be
hör en.,</w>
hät te,</w>
hät te",</w>
home town.</w>
ho st</w>
ho st
ho hen</w>
high ly</w>
hervorrag end,</w>
her um
her bs</w>
help ful.</w>
heil t</w>
heav y</w>
hear ty</w>
health ily.</w>
he al</w>
he ad
hand le</w>
hal ten.,</w>
hairsty le.</w>
ha ts.</w>
ha t's</w>
ha ll
h öf
h old</w>
h es
hes i
h aus</w>
großar tigen</w>
grow th</w>
grill ing.</w>
gre w</w>
grand i
go ing.</w>
glücklich sten,</w>
glück lichen</w>
glitz ern</w>
gestres st,</w>
geschloss en.,</w>
gesch nit
ges ture</w>
ger e
gent lich</w>
gen res</w>
gelass en</w>
gel eb
gel auf
geh t",</w>
gefall en.,</w>
geback enen</w>
geb racht,</w>
ge pfle
ge brau
g one</w>
g in</w>
g ant</w>
führ en.,</w>
führ e</w>
fü tter
funda mental</w>
fulfil ling.</w>
frisch ,</w>
frei .,</w>
forma tion.</w>
for give</w>
fon d</w>
fo li
flu ff
flo or.</w>
flie gen.,</w>
flex ible</w>
fin an
festzu halten",</w>
fes t,</w>
fe e
fe ars</w>
far away</w>
fanta sy.</w>
fan a
fai th
fahr t,</w>
fa ith</w>
f ing</w>
f ate.</w>
expand s</w>
every one.</w>
est s.</w>
essenti al.</w>
es orten</w>
erzähl en,</w>
erreich t,</w>
erfrisch en,</w>
er ung,</w>
er r
er in.,</w>
er fordert</w>
er -
er ",</w>
ep tion
environment s.</w>
entwick eln.",</w>
entspann ter</w>
entdeck t</w>
ent täusch
ent lang</w>
ent fal
enc e,</w>
en z</w>
en courage</w>
en ch
en ."</w>
ele gan
elder ly</w>
el s</w>
einzu setzen.",</w>
einzu setzen",</w>
einzu gehen.",</w>
einsetz en,</w>
einfa ch
ein sam,</w>
ein s</w>
ei l</w>
eh er</w>
eg al</w>
ear ch</w>
e ti
dri ving.</w>
drag onfly</w>
down s.</w>
doct or.</w>
discu ssion</w>
discu ss</w>
dis plays</w>
dis cri
discri min
dis appo
disappo in
dig e</w>
differ ence</w>
di tions</w>
di li
di a</w>
destin ation.</w>
des k</w>
des k.</w>
des halb</w>
den t</w>
den n</w>
dem and
de er</w>
de -
da hin.,</w>
cyc list</w>
cut .</w>
cuisin es.</w>
cra ft</w>
coura ge
consci ously</w>
condi tion
comp on
comic s</w>
co hesi
clean ing</w>
chi ps</w>
chat ting</w>
ch n
care free</w>
ca st</w>
ca se.</w>
c tive</w>
c tions.</w>
c enter
buzz es</w>
burger s.</w>
bro ke</w>
brea ks</w>
brau ch
br u
bookwor m.</w>
blo om.</w>
bli ck.,</w>
bin ,</w>
bild ung</w>
bewe gt</w>
bever age.</w>
besonder en</w>
beruhig en.",</w>
bereithäl t",</w>
bereich ert</w>
bereich ern.",</w>
bekomm en.",</w>
beg onnen,</w>
beend et,</w>
beeinflu sst</w>
beeinflu ssen</w>
beantwort en,</w>
beach es</w>
be komme</w>
bar fuß</w>
back pa
back en,</w>
ba sed</w>
ba ker
ba d,</w>
b ank</w>
aw are</w>
ausgepräg te</w>
aus drück
aufgeschloss ener</w>
aufgeräum t</w>
audi o
atten tion.</w>
atebo ard</w>
at or.</w>
ast a</w>
ar ten</w>
anzunehm en",</w>
anzu sehen",</w>
ansteck end.,</w>
anni vers
anger u
angefan gen.,</w>
an re
an no
all ,</w>
al th</w>
al ready.</w>
al bum
al ben</w>
aktu elle</w>
air port</w>
air port
afterno on</w>
adventur er</w>
ad mit</w>
acht sam</w>
accor ding</w>
accompli sh</w>
ac ci
ab ove</w>
a re.</w>
a de.,</w>
Zü ge</w>
Zuck er.,</w>
Zoo .,</w>
Ziel .,</w>
Zeitschri f
Zeichn en,</w>
Zahnar zt</w>
Workaholi c
Wohn zimmer</w>
Wellness -
Weiter entwick
Weihnachtsm ar
We ite</w>
War s
Wander ungen</w>
Wa hl</w>
Vielf alt.,</w>
Ver anstal
Umgeb ung.,</w>
Umar m
Tr äumen,</w>
Tor te</w>
Thail and</w>
Termin ,</w>
Tei len</w>
Technologi en,</w>
Tan zen.,</w>
Tan zen,</w>
Ta ssen</w>
Ta sche</w>
Ta g.</w>
TV -S
T isch.,</w>
Städ te
Stress .,</w>
Stress ,</w>
Stre et</w>
Strand urlaub</w>
Spinn en,</w>
Spazier en
Sp r
Sp iegel
Sonnenbri lle</w>
Sonnenauf gan
Somm erre
Smart phone</w>
Sk ateboard</w>
Se g
Sci-F i
Schwäch e.,</w>
Schreib en.,</w>
Schnä pp
Schne e.,</w>
Schlaf .,</w>
Schiff e</w>
Schach ,</w>
Sch war
Sch lange</w>
Sch ildkröte</w>
Satur day</w>
Sal at</w>
S na
S erien.,</w>
Rom ant
Rom an</w>
Ress ourc
Regentro pfen</w>
Regen b
Reali ty
Re ligion</w>
Pool ,</w>
Po st</w>
Persön lichkeit.,</w>
P oll
P ol
P al
Outdoor- Aktivitäten</w>
Ori gin
Organis ation
Obst ,</w>
No te</w>
Neu es,</w>
Netflix .,</w>
Ne ga
N ickerchen</w>
Mö we</w>
Märk te</w>
Mutter ,</w>
Musik instrument</w>
Mu t,</w>
Mu ss.,</w>
Mu ss,</w>
Mon d
Mo tiv
Mit arbeit
Mil ch</w>
Melod ie.,</w>
Medizin .,</w>
Mass a
Mal en,</w>
M y
M it</w>
Liter atur.,</w>
Lieblingss üßig
Lieblingsmusi ker</w>
Lieblingsmusi k</w>
Lieblings bier</w>
Liebling sp
Lie d,</w>
Lek tion</w>
Leben selix
L ibelle</w>
L auf</w>
Kür bis
Künst ler</w>
Körper .,</w>
Kunstfor m,</w>
Kunst werk</w>
Krä uter</w>
Konzer t.,</w>
Komödi en</w>
Ko chen,</w>
Ko ch,</w>
Kla mo
Kind heit
Kin der.,</w>
Kin der,</w>
Kat zen.,</w>
Kari bi
Kar ne
Kamin feu
K nacken</w>
Jog ging</w>
Jog gen,</w>
Ja cks
J unk
J .
Inter esse</w>
I magin
I hre</w>
I hnen</w>
Hängemat te</w>
Hum or.,</w>
Hoffn ung,</w>
Ho tel</w>
Hil fe</w>
Her zen.,</w>
Hei m
Hand ys</w>
H ab
Großm utter</w>
Glü h
Gleich heit</w>
Gitar re.,</w>
Geschich ts
Geschich ten.,</w>
Geschen ke,</w>
Gesch äf
Ges te</w>
Geheim nisse.,</w>
Gedich ten</w>
Ge wis
Ge gend</w>
G i
G ast
G ad
Fähig keiten.,</w>
Frühstü ck.,</w>
Freund schaft.,</w>
Frei wil
Fortschrit t</w>
For men</w>
Flu ss,</w>
Flohmärk te</w>
Fin an
Festiv als,</w>
Fer ne,</w>
Fel d,</w>
Fahrrad fahrer</w>
F or</w>
Europa ,</w>
Ernähr ung.,</w>
Erinner ungen,</w>
Entwick lung.,</w>
Entdeck en</w>
Ema ils</w>
Eiscre me.,</w>
Eis .,</w>
Einstell ung.,</w>
E twas</w>
E spres
E he
Dokumentar fil
Disne y
Dis kriminier
Ding en.,</w>
Dies es</w>
Del fin
Cou ch.,</w>
Computer .,</w>
Ch an
Car ibbe
Büro .,</w>
Bril le.,</w>
Bril le,</w>
Briefmar ken,</w>
Br öt
Blu me.,</w>
Bil lar
Bet twä
Beru f,</w>
Begleit er</w>
Be ispiel</w>
Bast eln</w>
Ban an
Bal lett</w>
B on
B ali
B ach</w>
Ausstell ungen.,</w>
Aus zeit,</w>
Arbeitsst elle</w>
Arbeit sta
Apfel kuchen</w>
Ame ise</w>
Am pel</w>
Abwechs lung</w>
Abenteu ern.,</w>
Ab schlu
A quarium</w>
A d
A cc
9 9.</w>
9 4.</w>
9 1.</w>
8 4.</w>
7 7.</w>
7 3.</w>
6 6.</w>
6 4.</w>
6 3.</w>
5 9.</w>
5 5.</w>
5 3.</w>
3 7.</w>
3 1.</w>
2 7.</w>
2 3.</w>
2 0.</w>
1 7.</w>
1 6.</w>
1 5.</w>
1 2.</w>
1 1.</w>
-S erien.,</w>
- B
,W hat</w>
,Sa iling</w>
,S quirrels</w>
,S paghetti</w>
,R om
,P o
,P asta</w>
,Mo bile</w>
,M ov
,Langua ges</w>
,L on
,L ast</w>
,K nowledge</w>
,H appy</w>
,G rilling</w>
,G etting</w>
,Fr u
,Ex ploring</w>
,E conomy</w>
,Clim ate</w>
,Cel ebr
,B o
,B arbe
,"T his</w>
, Netflix</w>
, Gardening</w>
, Bl
' ,</w>
"" Das</w>
" Einen</w>
üg ungspar
ück en</w>
än g
älter es</w>
ä ck</w>
zwitsch ert</w>
zwisch en
zuzu hören.",</w>
zur ück</w>
zunehm en.",</w>
zu gehen",</w>
zo gen</w>
z üg
z ul
z tter
z eln
you th.</w>
yon c
yc le</w>
y s,</w>
y lo
y et</w>
x ic
wunder bares</w>
wunder bar</w>
writ es</w>
workaholi c.</w>
wohn t</w>
wohl sten</w>
wohl sten,</w>
wo und
wis sbegier
windowsi ll</w>
window s</w>
wieder zu
wieder getroffen.,</w>
wieder gesehen.,</w>
wieder .,</w>
wer k.,</w>
we b</w>
wach sen,</w>
wach en,</w>
wa king</w>
wa cht</w>
w ra
w ich</w>
w anne</w>
vorbereit en.,</w>
vor an,</w>
vis u
view s.</w>
vielfäl tig.,</w>
vi ce</w>
veränder t",</w>
versüß en,</w>
verlieb t,</w>
verli ert</w>
vergess en</w>
verfol ge</w>
verein bar
ver öffentlich
ver tre
ver reisen</w>
ver reisen",</w>
ver lei
ver ein</w>
vaca tions</w>
v ic
v ann
v an</w>
ut s.</w>
ut en,</w>
ut door</w>
use ful.</w>
ure ."</w>
ur y</w>
unwidersteh lich.,</w>
unter nehmen.",</w>
unter n
univer sity</w>
ung ss
ung .</w>
ung .",</w>
ung ",</w>
uner trä
unbeat able.</w>
un k</w>
un heim
un happy.</w>
un de,</w>
un belie
unbelie v
um gehen.,</w>
uch s</w>
täglich e</w>
tz t.,</w>
twend igkeit</w>
tu di
tter ,</w>
tsch ern</w>
trustwor thy</w>
tri g
treu er</w>
trend s.</w>
trei be.",</w>
treff en.,</w>
tre at
travel s</w>
tradition elle</w>
tra wberries</w>
tra gen</w>
tr äumen,</w>
tr am</w>
tour ists</w>
to xic
to day,</w>
tion ist
tion ."</w>
tig h
tier te</w>
tie f,</w>
ti es."</w>
ti er</w>
thous and</w>
therape ut
therape u
therap y.</w>
ther e
there fore</w>
th usia
th ank</w>
technologi es</w>
te xt</w>
te ten</w>
te a."</w>
taus end</w>
tast ings.</w>
tast ed</w>
task s.</w>
tal ents</w>
ta mor
tamor pho
t wi
t s.,</w>
t ough
t ischen</w>
t isch.,</w>
t ary</w>
t :</w>
süß .,</w>
sü ß</w>
swimm er.</w>
swee ten</w>
sw an</w>
sustain abl
superher o</w>
super ,</w>
sun shine.</w>
success es</w>
stre et
strahl end</w>
str ate
stop .</w>
still .</w>
sta tion
st är
st our</w>
st eps</w>
st ein</w>
st an
sque e
spontan e</w>
spo t</w>
spla shing</w>
spin ach.</w>
spiel t",</w>
spic es.</w>
sp hal
sp art
sp a.</w>
sou venirs</w>
sor gen</w>
sor ge</w>
sonn ig.,</w>
some one.</w>
so cks.</w>
sna ke</w>
smell s.</w>
sm el
smel led</w>
sk at
si de
sho wer
sho re.</w>
shi p.</w>
shel ves</w>
sha pe.</w>
sh or
ses sion</w>
seri es."</w>
self- care.</w>
secre ts</w>
se m
se asi
schön .</w>
schwer .,</w>
schw ere</w>
schreib en</w>
schm erz
schließ en.",</w>
schau t</w>
schaft liches</w>
schaft liche</w>
sch wei
sch edu
sau ber
sal ad</w>
sail ing.</w>
sa vann
sa ft,</w>
s cape</w>
s a</w>
ry -
ru shes</w>
ru sh</w>
roman en.,</w>
roman ce</w>
road side.</w>
ril led.</w>
rie d.</w>
rie che</w>
renov ieren,</w>
reis e,</w>
reich en</w>
reich e</w>
reich .,</w>
regelmäß ig,</w>
recor d</w>
re pair</w>
re kt</w>
rain ing.</w>
ra rely</w>
ra d</w>
r um
r ings</w>
r enn
qu ak
puzz les</w>
purr s</w>
pul s
protec ted.</w>
proble ms</w>
pret ty</w>
pray er.</w>
praktizier en",</w>
pr o</w>
pp e,</w>
power ful</w>
postcar ds</w>
positiv es</w>
positiv ,</w>
poli tische</w>
podcast s.</w>
po tat
play ing.</w>
pl unges</w>
pick t</w>
pic tures</w>
phän omen
phi c</w>
pfle ge</w>
perspectiv es</w>
person ality</w>
perfek tionist
pe d.</w>
pe an
patter ing</w>
par ent
par agli
par ach
pan demi
pandemi c.</w>
pain ts</w>
pa sse</w>
over slept</w>
over crowded.</w>
ous es</w>
ou ting</w>
organis ieren.",</w>
ordent lich,</w>
or s</w>
or illa</w>
or il
or ge</w>
or ch
optimist isch,</w>
oper as.</w>
oper a.</w>
open ed</w>
op en.</w>
off enem</w>
occasion ally</w>
nut zen",</w>
nois e.</w>
nic ely</w>
newspa per.</w>
neugier ig,</w>
nega tiven</w>
near by</w>
ne ig
natur ally</w>
n um
n u
n .",</w>
mü sste</w>
music ,</w>
musi zier
musi cal.</w>
mp ol
motiv ieren,</w>
mor gen
model s.</w>
mo on
mna sti
mis u
mis sed</w>
mi au
medi tieren.,</w>
meaning ful</w>
me l</w>
mar ried.</w>
man n
magi c.</w>
magazin es.</w>
ma th.</w>
ma ster
m ing.</w>
m en.</w>
län ger</w>
lux uri
lusti gen</w>
lusti g</w>
lou ds</w>
lo v
lo tter
lo sing</w>
lo sen</w>
lo ck</w>
lie be,</w>
li tt
less ons</w>
less on</w>
leidenschaft liche</w>
lebend ig.,</w>
lea se</w>
le vel</w>
le ts</w>
le icht</w>
law n.</w>
laugh ing.</w>
lau sch
lad ung</w>
la dy
la chen,</w>
l un
kümm ern",</w>
kühl ,</w>
körper lich</w>
kristall klar.,</w>
komm ende</w>
klei d
kla ssi
kl ein</w>
kl are</w>
kind ness.</w>
kin ds</w>
kennenzulern en.,</w>
ke- up</w>
k äu
k äfer</w>
k y</w>
k shelves</w>
k el
jum p.</w>
jo ying</w>
jo b
je ans</w>
itz e,</w>
italien ische</w>
it ."""</w>
istma s</w>
ist en.,</w>
invit ing.</w>
inv est
introver tierter</w>
inter personal</w>
intensi v
inno va
ing s,</w>
ing ly.</w>
ing -
indro ps</w>
in toxic
in c
in ."</w>
imple ment</w>
imme di
imagin ation</w>
im po
il ence</w>
ig ur
ig h</w>
ien käfer</w>
i ci
hurr y.</w>
humor ous</w>
hu g.</w>
hr istmas</w>
hour .</w>
hou se
hopp elt</w>
hon est
holi day.</w>
hin weg.,</w>
high way.</w>
high light.</w>
herauszuhol en.",</w>
her zu
har ter</w>
har te</w>
har d
hand s</w>
ha ft</w>
h er.,</w>
großar tig
gre if
grand parents.</w>
gr üß
gle iten</w>
glaub t.",</w>
gi ven</w>
gh ten
gestell t,</w>
geschau t.,</w>
ges pro
gent le</w>
gen res.</w>
gen en</w>
gehol fen,</w>
geheimnis voll,</w>
gefallen e</w>
ge ts.</w>
gather ing</w>
gar ten</w>
g ä
g rilled</w>
g oo
g .",</w>
führ ung</w>
för dern</w>
för d
fun ction
ful ."</w>
früh en</w>
fru stri
fru str
frisch .,</w>
fried lichen</w>
fried liche</w>
fri ghten
fri dge</w>
freund licher</w>
fre und</w>
fre ie</w>
fort h</w>
forgiven ess.</w>
for men</w>
foo t
fla vor
fin det</w>
fi le</w>
ffe l</w>
ff en,</w>
festiv al.</w>
fess eln,</w>
fe .,</w>
far m</w>
fa ctor</w>
f t.</w>
f lausch
f ern,</w>
extre m
expand ing</w>
exercis es.</w>
evisi on</w>
et te,</w>
ester ,</w>
ess or
ess o
eröffn en</w>
erran e
errane an</w>
err and
errand s.</w>
ern s
erleb en.,</w>
erkund en.,</w>
erhell en,</w>
erhal ten.",</w>
erfrisch ende</w>
erfolgreich en</w>
er t",</w>
er mu
entspann t.,</w>
entspann endes</w>
entscheid end</w>
enti fic</w>
energiegel aden,</w>
ener ge
end less</w>
enchan ting.</w>
ench ant</w>
en- A
en-A ir
en s.</w>
en ever</w>
en es</w>
emp ty</w>
emp fehl
ema il.</w>
el iness</w>
el evision</w>
einzutau chen",</w>
einsetz en</w>
einkauf en,</w>
ein lad
ein fall
eil en</w>
ei chen</w>
ed ly.</w>
e dly</w>
e as
drin ker.</w>
dream t</w>
door s.</w>
doctor 's</w>
do ,</w>
discover ies.</w>
dis cipl
die m
di rekt</w>
di en
dge ho
desser ts.</w>
den ti
darf ",</w>
dan ces</w>
da hin,</w>
da her</w>
d ort</w>
d ly.</w>
d den</w>
d .",</w>
cyc list.</w>
cuis ine</w>
crow s</w>
crow ds</w>
cris is</w>
cre atures.</w>
craft sman
craft ing.</w>
coura ge.</w>
coo per
cons ists</w>
connoisse ur
con ve
complic ated.</w>
comfort ing.</w>
col labor
co existence.</w>
co at</w>
climb s</w>
clim b.</w>
ck t,</w>
choo se</w>
chao tisch,</w>
challen ge,</w>
ch ter</w>
ch es.</w>
cel on
cco li.</w>
car ri
call s.</w>
café s.</w>
c y</w>
c ted.</w>
c aus
bun ter</w>
bro ther</w>
bro ke.</w>
bro ccoli.</w>
bring s.</w>
bound aries.</w>
bor n</w>
book ."""</w>
boo t</w>
bloss om
bles sed</w>
bl y.</w>
bl ing</w>
birth days.</w>
bicyc les.</w>
bewe gen.,</w>
bew äl
beste ht</w>
bess eres</w>
beru f
bereis en,</w>
beobach ten</w>
ben ch.</w>
bell en</w>
belief s</w>
belieb ter</w>
bei zu
beginn en,</w>
beg inning</w>
beeinflu ssen.,</w>
bedeck t.,</w>
be zahl
be komme.",</w>
be gleitet</w>
be flü
be eil
be ar</w>
bau en,</w>
bast eln",</w>
bas is</w>
barefoo t</w>
bar .</w>
ballo on</w>
b rain</w>
b eln</w>
ausm isten,</w>
ausgewo gene</w>
ausge glich
aus schlafen</w>
aufzu stehen.",</w>
aufzu reg
aufgeschloss en</w>
au frich
au .,</w>
at ur</w>
arri ved</w>
ar k</w>
ar i</w>
anz iel
antiqu es.</w>
ander s</w>
ander er,</w>
ander en,</w>
amaz ed</w>
alitä t.,</w>
ali si
al le,</w>
al es</w>
akzep tiere</w>
ak tiv.,</w>
affe ct</w>
advis or.</w>
advent ure,</w>
adv anta
actor .</w>
acqu a
accompan ies</w>
acc essor
abzu bauen.",</w>
absolut es</w>
a re,</w>
Zusammen arbeit</w>
Zum ba
Zu g,</w>
Zu g
Zim t</w>
Zeichn en</w>
Zeichn en.,</w>
Zahnar zt,</w>
Z ut
Z immer
Yoga- Kurs</w>
Yoga- Kur
Y ou</w>
Wo chen</w>
Wis sen.,</w>
Wichtig ste,</w>
Well en.,</w>
Wel ten,</w>
Wei ß
W itze</w>
W in
W einen</w>
Vorstell ungskra
Vorbil d</w>
Vogel ges
Vinyl- Schallplatten,</w>
Video spiele</w>
Vergn ügungspar
Vergeb ung</w>
Vergan genheit,</w>
Ver such
Ver besser
Unter nehm
Unabhäng igkeit</w>
Um gang</w>
USA .</w>
US A</w>
U hr.,</w>
Tän z
Traum urlaub</w>
Tr äumen.,</w>
Tr äum
Ton ic
To-Do- Liste</w>
Theaterstü cke</w>
The men.,</w>
The men,</w>
Temperatur en,</w>
Teich .,</w>
Technolog ie.,</w>
Tarantin o.</w>
Ta ge,</w>
T isch
T ex
T es
T -
Süßig keiten</w>
Straßen bahn</w>
Strand urlaub
Str ände</w>
Str anger</w>
St ät
St or
Sprach kurs</w>
Spinn en.,</w>
Spaziergan g.,</w>
Spa ghetti
Sp ontan
Sp innen</w>
Sp a</w>
Sou venirs</w>
Sommerurlaub ,</w>
Sinn e</w>
Sin ne.,</w>
Shakespea re.</w>
Schwäch en,</w>
Schwäch e,</w>
Schw ier
Schw an</w>
Schu le.,</w>
Schokoladenk uchen,</w>
Schlü ss
Sch lan
Sar a
S outh</w>
Rät sel
Roman tik</w>
Rhapsody ""</w>
Reg al</w>
Re chn
Raum .,</w>
Rau chen</w>
Radi o
R ö
R out
Qu iz
Puzz les</w>
Pul p</w>
Pul lover
Projek ten</w>
Proble m</w>
Postkar ten</w>
Postkar ten,</w>
Poli tik,</w>
Plä tschern</w>
Plat z.,</w>
Planet en.,</w>
Paris .,</w>
Pap ier</w>
P ärchen</w>
P lan</w>
P i
Op en-Air
Onlin e-
Obst sal
O hr</w>
No twendigkeit</w>
No t</w>
Neu e,</w>
Net z</w>
Nachmit tag,</w>
N ü
N äch
Musik richt
Muse um.,</w>
Mojit o.</w>
Mit mensch
Mich el
Mer yl</w>
Meeres früch
Meer wasser</w>
Medi a</w>
Me tamorpho
Mathema tik</w>
Mar t
Mar ke
Mar ienkäfer</w>
Ma x.</w>
Lou v
Lo y
Lo tto</w>
Lieblingsti ere</w>
Lieblingssport ler</w>
Lieblingssport .,</w>
Lieblingsreise ziel</w>
Lieblingsgemü se</w>
Lieblingsf arbe,</w>
Li pp
Lei ch
Lebenss ti
Lavend el</w>
Lavend el,</w>
Land schaften.,</w>
Land schaften,</w>
Lach en,</w>
L ein
L earning</w>
L ab
Kä se
Kä mp
Kultur veranstalt
Krie g</w>
Kr ise</w>
Konzer ten</w>
Konfli k
Kolle gen</w>
Ko chen.,</w>
Katz e.,</w>
K uchen.,</w>
K off
K no
K ing,</w>
Je ans</w>
Jazz -Musik,</w>
Jahr .,</w>
Itali en.,</w>
Innov ation</w>
Hotel zimmer</w>
Hon ig.,</w>
Hol z,</w>
Hoffn ung.,</w>
Hoch zeit</w>
High ligh
Her zen,</w>
Hea v
Har ry-
Hand lungen</w>
Hand .,</w>
Hal t,</w>
H itze</w>
H an
Grün ,</w>
Gre at</w>
Glück s</w>
Geträn k,</w>
Gesund e</w>
Gesellschafts spiele</w>
Geräu sche,</w>
German y.</w>
Genu ss</w>
Genu ss
Gehir n</w>
Ge orge</w>
Ge h
Gats by
Gast ge
G a
Fußball spiel</w>
Friseur .,</w>
Friseur ,</w>
Frie den.,</w>
Fotograf ie.,</w>
Foto alben</w>
Fort beweg
Flugha fen</w>
Festiv al,</w>
Fer r
Fel d</w>
Fel d.,</w>
Fas zin
Fa irness</w>
F est</w>
F ern
Erfahr ungen.,</w>
Er kenntnisse</w>
En thusia
Eiste e,</w>
Ein ladung</w>
E ve</w>
Du sche,</w>
Dokument ationen,</w>
Dok u</w>
Disku ssion</w>
Ding ,</w>
Die m
Di Ca
DiCa pri
Des ign</w>
Del f
DV D
D avid</w>
Chin ese</w>
Chi ps</w>
Char me,</w>
Caribbe an.</w>
C an
C ab
Bücher wur
Bä cker
Bur ger</w>
Buch hand
Boo t</w>
Boo t
Blu me,</w>
Blau .,</w>
Bil der,</w>
Bier .,</w>
Bewus stsein</w>
Bettwä sche,</w>
Bet t,</w>
Bes timmung</w>
Beruhig end
Begleit er.,</w>
Beat les.</w>
Beat les,</w>
Be yonc
Bay ern</w>
Bas is</w>
Bar celon
Bade wanne</w>
B us
B ar</w>
Auto fahren,</w>
Auto fahr
Ausland .,</w>
Aus lands
Astronomi e,</w>
Astron omie</w>
Asi en,</w>
Ar ztter
Antiquitä ten
An tar
Ameri ca.</w>
Afri ca.</w>
Acc esso
A st</w>
A quari
A maz
9 6.</w>
9 5.</w>
9 2.</w>
9 0.</w>
9 0
8 9.</w>
8 8.</w>
8 6.</w>
8 5.</w>
7 9.</w>
7 8.</w>
7 1.</w>
6 8.</w>
6 5.</w>
5 8.</w>
5 00</w>
4 3.</w>
4 1.</w>
3 8.</w>
3 5.</w>
3 3.</w>
2 5.</w>
2 4.</w>
1 9
. """,</w>
-T our</w>
-S tudi
,Yester day's</w>
,The y</w>
,T rust</w>
,T hat</w>
,Sun shine</w>
,Sun day</w>
,S trawberries</w>
,S ilence</w>
,Res earch</w>
,Relax ing</w>
,Re ligion</w>
,R espe
,P er
,O utdoor</w>
,Me dia</w>
,Lon eliness</w>
,In nov
,Exper ien
,En joying</w>
,D inner</w>
,Celebr ating</w>
,C ulture</w>
,C rafting</w>
,C louds</w>
,C hristmas</w>
,Boo kshelves</w>
,Bl ue</w>
,B ut</w>
,B ic
,"T here</w>
," It's</w>
," I'm</w>
," For</w>
, Jogging</w>
, Jo
' ll</w>
"" Life</w>
"" Forrest</w>
"" )"</w>
" Sich</w>
ütz t</w>
ün ste</w>
üch er</w>
überwind en.",</w>
übern ach
über all</w>
öf ters</w>
äu fe</w>
änder t</w>
än gt</w>
äch t
ä tze</w>
Ä pfel</w>
zul auf
zu künf
zog en.,</w>
ziel orien
zei gen,</w>
z er
z ar
y tell
y p,</w>
y ard.</w>
y aking</w>
x es.</w>
wunder schönen</w>
wor ry</w>
wor ds</w>
woo ds.</w>
wonder fully.</w>
wohl ,</w>
wir ft</w>
wind y</w>
wil dly</w>
wher e.</w>
wh enever</w>
wel t</w>
weit ere</w>
wegzudenk en,</w>
we t.</w>
we h
wasch en.,</w>
war ds.</w>
wahr en</w>
w es
vor bei</w>
vo ic
veränd ern.",</w>
versit ät</w>
verschön ern.,</w>
verschmut z
verdient .",</w>
verbreit et</w>
ver stehen",</w>
ver kost
ver kauft</w>
vent s,</w>
vegan .</w>
van illa</w>
val ley.</w>
val .</w>
v itali
v il
v at
urt ei
urlaub sziel</w>
unterschied lich,</w>
unterhalt sam</w>
uns ch</w>
unk now
univer sity.</w>
ungs stück</w>
unge wis
ung ;</w>
unabhäng ig.,</w>
un schla
unschla g
un pünkt
un expec
un erwar
uch tet</w>
u s,</w>
u ppe</w>
u ally</w>
tä t,</w>
tw eit</w>
tur quo
tru st.</w>
trotz dem</w>
tro ck
trink en.,</w>
tri ff
train iert</w>
tradi tions</w>
tr öst
tr äum
tr um
tour ists.</w>
tou ched</w>
to es</w>
tick et</w>
ti r
ti e</w>
thunderstor ms.</w>
thum b.</w>
though t
thor ough
thing s."""</w>
th s</w>
th row
th rilled.</w>
th ir
th ick</w>
teu er,</w>
ten si
ten em</w>
teach ing</w>
te vermö
te am
tball /
tball/ soccer</w>
tat too</w>
tast y</w>
task .</w>
tan z
ta ken</w>
ta ble
t z</w>
t is
t est</w>
t all.</w>
swim s</w>
sweat er.</w>
sustainabl y.</w>
surf ing.</w>
sur f.</w>
supp o
suppo sed</w>
super market.</w>
sunse t."</w>
su itable</w>
stärk en.,</w>
studi o</w>
strength ens</w>
stor ytell
still .,</w>
ste he.",</w>
ste cken</w>
ste ak.</w>
star te</w>
sta yed</w>
st y.</w>
st em</w>
st ability.</w>
st .",</w>
sproje kte</w>
sport y</w>
spont an,</w>
spla shes</w>
spiritu ality.</w>
spir its.</w>
spiel er</w>
spic y.</w>
spic es</w>
spee ch</w>
spe aking</w>
spazier t</w>
spann t</w>
spaci ous.</w>
spac es.</w>
spa ghetti
spaghetti .</w>
sp reads</w>
sp a</w>
sonn iger</w>
sonn igen</w>
some what</w>
soll ten,</w>
sol ver.</w>
so .</w>
snow man</w>
sn or
smooth ies</w>
sm .</w>
sli pper
skir ts.</w>
ski .</w>
sk ier.</w>
sit z
sit s</w>
sing le</w>
sin ce</w>
sil ence,</w>
sigh ts</w>
sig n</w>
si cht</w>
shopp en,</w>
shi p
sha red</w>
sha dow
sh es.</w>
setz en,</w>
serv ation</w>
ser ving</w>
ser en
sel ten</w>
seaf ood.</w>
se w.</w>
se ek
sci ences.</w>
schön er,</w>
schön .",</w>
schwar z.,</w>
schre i
schne i
schmerz en.,</w>
schme cken</w>
schlech t,</w>
scharf es</w>
sch on
sch ieß
savor ing</w>
sand .</w>
san f
sam keit.,</w>
sa ge</w>
s on.</w>
s cu
scu ba</w>
run ning.</w>
run gen
romant isches</w>
ro w.</w>
ro ses</w>
ri des.</w>
respekti ert</w>
respek tieren.",</w>
resear ch.</w>
res ul
rene w</w>
rela tiv,</w>
reit en.,</w>
refle cts</w>
re vitali
re qu
re fri
refri ger
rain bow
r unde</w>
r aum</w>
r and.,</w>
qu it</w>
pu shing</w>
proper ly</w>
profession al</w>
produ zier
proble m.</w>
preser ve</w>
prepa red</w>
practi cal.</w>
positiv e,</w>
posi tivity.</w>
port ra
poll en.</w>
poin t</w>
plea se</w>
pie ces.</w>
pflan zen</w>
person 's</w>
perfek ten</w>
pe dest
pedest ri
path s.</w>
passion ately</w>
particip ating</w>
park s,</w>
park ."</w>
pain t
pa ys</w>
pa per</w>
p ti
p le.</w>
ow n.</w>
ov en</w>
ou te</w>
organisier te</w>
organis iert</w>
or ning</w>
or gungen</w>
optimist ische</w>
openn ess.</w>
open-min ded.</w>
on es,</w>
on en</w>
ol k
off ers.</w>
obser ver.</w>
o '
näh en.",</w>
nut s.</w>
nostal g
no thing.</w>
nied lich.,</w>
net te</w>
nervö s</w>
ner s.</w>
necess ity</w>
nec tar</w>
nachgeda cht,</w>
n ö
n imm
n ie,</w>
mü tig</w>
mü ssen,</w>
myself ."</w>
mu s,</w>
mov ie
motiv ating</w>
mono ton
moment ."</w>
mod erne</w>
mo wed.</w>
mi d
mess age.</w>
ment ale</w>
memor y.</w>
meis tern.",</w>
me et
mana ge
man ga
man .</w>
maler isch.,</w>
mag ine</w>
ma y</w>
ma t</w>
m ul
m pe
m ine</w>
lö st</w>
läu f
län g
lä d
läd t</w>
lun ch.</w>
lu ft
luft ball
log y.</w>
list s</w>
ligen arbeit</w>
liebst es</w>
lie ve</w>
licen se.</w>
liber ating</w>
li ving.</w>
li p
li ke.</w>
li ge</w>
li g
letz ter
leist en",</w>
lea ving</w>
le t.</w>
le m</w>
le it
le be,</w>
le .",</w>
laugh s</w>
land ,</w>
lan det</w>
lamp s</w>
lady bu
ladybu g</w>
la chen.,</w>
la .,</w>
l ungs
l ungen,</w>
l pool</w>
kühl .,</w>
küh le</w>
körper liche</w>
kulinar ische</w>
kr äch
kost bar
konz er
komm en.",</w>
kom for
komfor ta
kn it</w>
kleid ungsstück</w>
kl är
kl ingen</w>
kl ein,</w>
kenn en</w>
ke ys</w>
ke y.</w>
ke .",</w>
ka sten</w>
k ultur
k tion
k eln</w>
jum p</w>
jo y
ja hr</w>
j e</w>
j am</w>
j am.</w>
iz ed</w>
itä t,</w>
it em
ish ing</w>
is tic.</w>
is :</w>
invit ation</w>
intoxic ating.</w>
intern ational</w>
intern ation
int -
inspirier enden</w>
inspi re.</w>
inno vation.</w>
inn eren</w>
ing !</w>
informa tive.</w>
informa tion</w>
informa tion.</w>
influ ences</w>
ind ul
in ev
in e
in dem</w>
in crea
in avi
improvem ent.</w>
impres ses</w>
ie ving</w>
idylli c.</w>
ic s</w>
hü pft</w>
hor se
hor n</w>
honest y.</w>
ho l</w>
ho her</w>
ho f,</w>
ho ck
hn ess</w>
histor ic</w>
hil l.</w>
herauszuford ern.",</w>
her vor,</w>
her ausge
heir ate
heil end</w>
hear ts.</w>
he ",</w>
har d,</w>
hammo ck.</w>
hall en
hal tevermö
h unt</w>
h un
h en.",</w>
gu e.</w>
grün e</w>
größ eren</w>
grow ing."</w>
gro ws</w>
grill en,</w>
gra sen</w>
gra m
gra de</w>
gr ün</w>
gr uppe</w>
gr un
gol f.</w>
glück liche</w>
glaub en.",</w>
gil t",</w>
geöff net,</w>
gew es
get an,</w>
gestal ten,</w>
geschnit tenem</w>
geschich te,</w>
gesch äf
gesch me
ges under</w>
ges pr
ges ell
ges el
ger s</w>
ger ech
ger ade,</w>
genomm en.,</w>
gen .</w>
gel t</w>
gel acht,</w>
gehör en</w>
gegan gen</w>
gegan gen;</w>
gedul dig</w>
ge pres
ge grill
gallo ping</w>
gad gets.</w>
g s,</w>
g ieß
g ",</w>
fütter t</w>
füll t</w>
führ en</w>
för dert</w>
ful l
früh stück</w>
frem den</w>
free dom
fra ge</w>
fotograf ieren,</w>
fore ver.</w>
for ming</w>
fon du
foli age</w>
fo unta
fo cu
fin ds</w>
fin anziel
figh ting</w>
festzu halten.",</w>
fes t.,</w>
feel ings</w>
fe ktion
fe chter</w>
fe ath
faulenz en",</w>
faszinier t,</w>
famil y,</w>
f ängt</w>
f ähig
extrem ely</w>
experimen tieren.",</w>
experimen tieren",</w>
expec ted.</w>
exp an
exhau sted.</w>
excell ent</w>
event ually</w>
eu te,</w>
est ."</w>
es pres
es k
erzähl en.",</w>
erstaun t</w>
erstaun lich</w>
erstaun lich,</w>
ernähr en.",</w>
ermöglich en</w>
erledig t</w>
erinn ere</w>
erhal ten",</w>
erfüll en,</w>
er v
er schöpf
er ie.,</w>
er he
er at
er .",</w>
equ i
ent schie
enga ging</w>
energi z
endur ance.</w>
end en,</w>
end ed.</w>
en ge</w>
em bra
eleph ant.</w>
elec tron
ele gant</w>
el ten</w>
el le.,</w>
einzula den.",</w>
einkauf en.,</w>
eingerich tet.,</w>
einfall s
einfa cher</w>
einand er.,</w>
ei gentlich</w>
effe k
ech tes</w>
ear th.</w>
e /
e ""</w>
durch s</w>
du ck</w>
dri ver.</w>
dream s."""</w>
dream ing</w>
drama s.</w>
dr y.</w>
dolph in</w>
dolph in.</w>
discu ssi
discrimin ation.</w>
discover y.</w>
disappoin ting.</w>
develop ed</w>
destin y.</w>
denk en,</w>
deli ght.</w>
deep ly.</w>
decor ations.</w>
decl utter</w>
de t.,</w>
de mütig</w>
de dic
de al</w>
day ."</w>
darf .",</w>
da ily.</w>
da .</w>
d lich</w>
d in
d ied</w>
d eine</w>
cu stom
ct or.</w>
cru cial</w>
crea tively</w>
cra zy</w>
cozin ess</w>
cozin ess.</w>
cor n</w>
const antly.</w>
connoisseur .</w>
confiden ce</w>
condition ing</w>
concentr ate</w>
con tra
con servation</w>
commit ment</w>
comedi an</w>
come dy.</w>
colleagu es</w>
co unter
clou d</w>
clo sely</w>
classi cs</w>
ck en.",</w>
cinnam on</w>
cher ish</w>
che ",</w>
chao tisch.,</w>
challen g
ch ieving</w>
ch er.</w>
ch at</w>
ch as
cer y</w>
ce ."</w>
camp en.,</w>
calm ly.</w>
ca ff
c tive.</w>
c ry.</w>
c roa
c ell
büch ern,</w>
bust ling.</w>
bust le.</w>
buil t</w>
buil ds</w>
bring e</w>
brea king</w>
brau che.",</w>
bran che,</w>
bran ch</w>
bra ve.</w>
book stores.</w>
bo tan
blanke t.</w>
bla ck
bl ouse</w>
bl ess
bit ter.</w>
bir gt</w>
bil liar
bil det</w>
bew öl
bet ör
besch äf
bes tanden,</w>
berühr t",</w>
bereich ern
ben ch</w>
bemü he</w>
beleb t.,</w>
beha vi
begeis tern,</w>
begegn en",</w>
beg onnen.,</w>
bedeck en</w>
beautiful ."</w>
be wunder
be wer
be tro
be herr
be dürf
be droh
be at</w>
bath es</w>
bal let</w>
bal ance
ba th.</w>
ba stle</w>
ba si
ba g.</w>
b är
b ul
b t,</w>
b ough
b kombin
b ell</w>
b an</w>
aufzu schreiben",</w>
aufhell en.,</w>
auf gehört,</w>
at es,</w>
asiat isches</w>
art ists.</w>
area s.</w>
area .</w>
are a</w>
ar ts.</w>
ar ti
ar m</w>
ar m
ar ing.</w>
approach ing.</w>
appro ach</w>
appreci ating</w>
appreci ate.</w>
app ly</w>
anzu sehen.,</w>
anzu bauen",</w>
anti ke</w>
anstren genden</w>
anre gen,</w>
anim e.</w>
ander er.,</w>
ander en.,</w>
an ts</w>
an tic</w>
an ten</w>
an reg
an ity</w>
an gen</w>
an cient</w>
an ces.</w>
an a
al lowed</w>
akzep tieren</w>
adventur er.</w>
admi ra
addic tive.</w>
ad di
ac tor</w>
abili ties</w>
ab le
a list
a hl</w>
Zu ver
Zu g.,</w>
Ziel en.,</w>
Zeit ung.,</w>
Zeh en</w>
Zeh en.,</w>
Z un
Z entrum</w>
Yester day,</w>
Work-Life- Balance,</w>
Wohn z
Wissen schafts
Welt all</w>
Weihnachts zeit</w>
W unsch</w>
Vorstellungsgespräch ,</w>
Vogelgezwitsch er</w>
Vintage- Mode,</w>
Vielf alt,</w>
Video spiele,</w>
Video s</w>
Veranstal t
Ver urteil
Ver fechter</w>
Unterhalt ung.,</w>
Unabhängig keit,</w>
Umweltschut z
Umwel t.,</w>
Tug end.,</w>
Traum ,</w>
Tour isten</w>
Tomat en
Thrill er,</w>
Terra sse</w>
Tennis .,</w>
Talent e,</w>
Tag ",</w>
Ta gen,</w>
T ul
T onight</w>
T ira
T ier</w>
T -S
T-S hir
Sur fen</w>
Straßenlat erne</w>
Stra hlen</w>
Steu ern</w>
Sternenh immel
Stern en</w>
St ärk
St y
St ar
Sportar t.,</w>
Sport ler</w>
Spielplat z.,</w>
Spiel ,</w>
Spaziergän gen</w>
Spa ß
Sp ur</w>
Sp ani
Sonnta gs
Sonnenlich t.,</w>
Sonnenblum en,</w>
Sonnenauf gän
Sonnen licht</w>
Sonnen blume</w>
Sonn tage</w>
Sommerurlaub .,</w>
Sommerre gen</w>
Sommer abende</w>
Smooth ies</w>
Sil v
Selbstreflexi on</w>
Selbst expressi
Sehenswürdig keiten,</w>
Science-Fiction .,</w>
Science-Fiction -Filmen,</w>
Schön heit
Schön e</w>
Schut z</w>
Schuh en.,</w>
Schu he.,</w>
Schreib ens</w>
Schr itt</w>
Schlaf en</w>
Schach tel</w>
Sand bur
Saf ari</w>
S tri
S ong</w>
S it
S hop
S ei
Rückzu gs
Rock musik,</w>
Road trips</w>
Retro -
Regenb ö
Redemp tion
Rechn ungen</w>
Re h</w>
Re gi
Re de</w>
Raum ,</w>
Ras en</w>
Radi o,</w>
Ra scheln</w>
Projek t,</w>
Proble m
Prin ce
Potenzi al,</w>
Poli tik.,</w>
Po e
Ph ysi
Pflan zen,</w>
Per fektion
Party s.,</w>
Party .,</w>
Part ys</w>
Paris ,</w>
P res
P re
P omm
P e
Outdoor-Aktivitä ten,</w>
Or ten</w>
Nov ember
Neu es.,</w>
Neu e.,</w>
Netz .,</w>
Nek tar</w>
Nega tivität</w>
Natur w
Nachrich ten,</w>
Nachbar schaft</w>
Nachbar n,</w>
Nach teu
N ut
N ich
N ation
Märk ten</w>
Musik instrument
Musical s.,</w>
Mo tto</w>
Mit tag</w>
Mit gefühl.,</w>
Mit gefühl,</w>
Mit einander</w>
Medi a.,</w>
Marmel ade</w>
Maler ei</w>
M is
Lös ung</w>
Länd ern.,</w>
Lu st,</w>
Liter atur</w>
Lieblingstier art</w>
Lieblingsspe ise</w>
Lieblingsmahl zeit,</w>
Lieblings ob
Lieblings museum</w>
Liebling ste
Lich t.,</w>
Lebenswe ise</w>
Leb en.",</w>
Laun e.,</w>
Lasag ne,</w>
L ü
L on
L aub
Kä tzchen</w>
Krim is</w>
Krea tiv
Kr ank
Kon tak
Kon fer
Kombin ation.,</w>
Ko ch.,</w>
Kleidungs stücke</w>
Kleidungs stück</w>
Kindheit ser
Kind ern,</w>
Kin der
Kerzen licht</w>
Kaf ka
K ünste</w>
K län
K .</w>
Ju gend
Jogging ho
Jean s,</w>
Jazz musik,</w>
Jap an.,</w>
Jahresz eit
Jahr es,</w>
Inter net,</w>
Insta gra
Inspek tion,</w>
In depend
Imagin e""</w>
I mm
I 've</w>
Hung er,</w>
Hoch zeit,</w>
Hobby sport
Ho se</w>
Hintergrund ,</w>
Himmel s</w>
Herbst laub
Her z.,</w>
Hem d</w>
Heiß luftball
Heimat stadt,</w>
Heimat ,</w>
Hand y,</w>
Hallowe en.</w>
Hab en</w>
Ha se</w>
H igh</w>
H appy</w>
Gärtn ern</w>
Gut en</w>
Glück lich
Gitar ren
Geschich ten
Gesch wind
Gerech tigkeit,</w>
Geocach ing</w>
Gemü se
Gegen stän
Gedich te,</w>
Gebor genheit,</w>
Ge ograph
Garten arbeit,</w>
Gan zen</w>
G ames</w>
Füß e</w>
Fußball spiele</w>
Frisur .,</w>
Fris bee</w>
Freund in.,</w>
Fremdspra chen</w>
Freizeitaktivitä ten</w>
Freizeit beschäftig
Freiwil ligenarbeit</w>
Französ isch</w>
Foto s.,</w>
Foto bücher</w>
Fol ge</w>
Flugzeu ge</w>
Fle isch,</w>
Finan zen</w>
Festiv als.,</w>
Festiv al</w>
Ferr ari
Favor it,</w>
Faszin ation</w>
Farben pra
F ür</w>
F oo
Exper im
Ex pe
Erlebnis se,</w>
Erk äl
Erhol ung.,</w>
Ereig nisse</w>
Er rungen
Er neu
Er geb
Entwick lung,</w>
Entscheid ungen.,</w>
Enthusia st,</w>
En te</w>
Elefan ten</w>
El tern,</w>
E-Ma il</w>
E scape</w>
Durch haltevermö
Dunkel heit</w>
Dokument ationen.,</w>
Disne y</w>
Disku ssi
Desser ts</w>
Denk ens,</w>
Cou ch,</w>
Computer spiele</w>
Cockta il</w>
Clu b
Chines isch</w>
Char me.,</w>
Bücherwur m,</w>
Blü ten.,</w>
Blü te.,</w>
Bild .,</w>
Bild ,</w>
Besch äftig
Bes orgungen</w>
Beru f</w>
Begegn ung</w>
Be kann
Be eth
Be au
Bauern hof</w>
Barbe cue</w>
Bar .,</w>
Bar ,</w>
Bab y</w>
BB Q
B ri
B ein
B .</w>
Autobahn .,</w>
Auswirk ungen</w>
Australi en.,</w>
Ausland ,</w>
Ausdau er</w>
Aus zeiten</w>
Aus zeit.,</w>
Astro log
Asi en</w>
Ar zt,</w>
App le</w>
Anfan g</w>
An zieh
An blick,</w>
A st.,</w>
A ni
9 3.</w>
8 7.</w>
8 1.</w>
8 0.</w>
7 4.</w>
7 2.</w>
5 2.</w>
4 8.</w>
4 6.</w>
4 5.</w>
4 0.</w>
3 2.</w>
2 6.</w>
2 0</w>
1 00</w>
-S amm
- f
,W ell
,V e
,T elevision</w>
,Sle eping</w>
,S ur
,S mart
,Rom antic</w>
,Respe ct</w>
,Photograph ing</w>
,Mov ie</w>
,M orning</w>
,L i
,Jo y</w>
,Innov ation</w>
,H ouses</w>
,G re
,Foo tball/soccer</w>
,F ishing</w>
,F in
,E le
,D ance</w>
,C omm
,C han
,C ake</w>
,Bu ild
,Bir th
,Be er</w>
,Barbe cue</w>
,B as
,A d
,A chieving</w>
,"P enguins</w>
," It</w>
," Happiness</w>
," G
, Un
, Organ
, Film</w>
"" Imagine""</w>
"" B
" Wenn</w>
" Bücher</w>
überrasch en.",</w>
übern achten.",</w>
überfüll t,</w>
über wäl
über forder
ö s,</w>
ö pf
ö glich
är .,</w>
än ner</w>
ä tig
ä mm
ß e,</w>
Üb ung.,</w>
Ö ko
züch ten",</w>
zwitsch ern.,</w>
zwischen menschlichen</w>
zuverlässi g.,</w>
zunehm en",</w>
zufrie den
zu gleich
zu bereit
zir pt</w>
zeln e</w>
zeit en,</w>
ze hn
zauber haft,</w>
z ün
z äh
z weit
z ell
z e.,</w>
ylo r</w>
yel low</w>
y et.</w>
wunderbar en</w>
wr ong</w>
world wide.</w>
work shop.</w>
woo ds</w>
witsch ern</w>
wis dom.</w>
win dig</w>
whist ling</w>
wh ite.</w>
wes ent
wel tweit</w>
wel t.,</w>
weiß e</w>
weiterzubild en",</w>
weiterzu machen.",</w>
wei l
wei che</w>
week end,</w>
wechs lungs
we dd
wass er
warm ly.</w>
war te</w>
war .</w>
wan ts</w>
wal lows</w>
wal ben</w>
wach ,</w>
wa ve</w>
wa s
wa gen</w>
wa che</w>
w all
vol u
vo ca
vis it
viol ence.</w>
vielfäl tig</w>
viel ver
vielver sprech
vide os</w>
veränder t.,</w>
verw öhn
verstor ben</w>
verspiel t,</w>
versch ne
vermitt eln,</w>
verbess ert</w>
ver ständ
ver stehen.",</w>
ver steh
ver spä
ver reisen.",</w>
ver heirate
ver färbt</w>
ver anla
vel s</w>
v ö
v is</w>
v ign
v es
v ents</w>
v ad
vad or</w>
ut e.</w>
ut .,</w>
usu ally</w>
ure ."""</w>
up- to-
up é
unverzicht bar.,</w>
unvergleich lich,</w>
unvergess liche</w>
unvergess lich</w>
unterschied lich</w>
untern ommen,</w>
unter nehmen",</w>
unpünkt lichen</w>
unn ingly</w>
ungs vermö
unglaub liches</w>
unfair .</w>
unexpec ted</w>
unend lich.,</w>
understor ms</w>
understand ing.</w>
under water</w>
und ing</w>
unbezahl bar
unbezahlbar ",</w>
unabhäng iger</w>
unabhäng ig,</w>
un schätz
un iz
un gewöhn
un cer
umzu setzen.",</w>
umzu gehen",</w>
umwelt freundliche</w>
umwelt freundlich</w>
um s</w>
um mit</w>
ul en</w>
u ssi
u ss
tür kis
tön t</w>
täglich es</w>
tä tig</w>
turquo ise</w>
tur ned</w>
tur ing</w>
tur es.</w>
