#version: 0.2
. ,</w>
i n
r e
a n
e n
e r
t h
a r
e s
c o
t i
d e</w>
t o</w>
o r
c i
i s</w>
a l
o n
t e
a s</w>
d e
q u
c a
o s</w>
i t
s t
th e</w>
a r</w>
s e
o n</w>
u n
l i
r o
r a
in g</w>
p o
T h
l e
o u
d a
d o</w>
d i
, Th
m e
s i
m p
o f</w>
p ar
qu e</w>
a c
en t
,Th e</w>
m a
n o
s o
, I</w>
o r</w>
r i
m o
d a</w>
h a
v i
es t
n e
i n</w>
par a</w>
e r</w>
a t
s .,</w>
v e</w>
e s</w>
co n
a m
o .,</w>
a b
u r
s .</w>
f e
p er
o u</w>
h a</w>
p ro
an d</w>
p e
l o
p re
m i
v er
c h
ci ó
a l</w>
u l
a .,</w>
ã o</w>
b e
a t</w>
f i
t o
t e</w>
m e</w>
s e</w>
e n</w>
m a</w>
f or
un ha</w>
a ti
e l
a s
u s
b e</w>
e d</w>
l e</w>
a d
f or</w>
, "
N on</w>
a n</w>
. "
m ent
i l
e x
or t
o p
ca n</w>
re s
i mp
ció n</w>
' t</w>
y .</w>
c es
s u
k e</w>
g u
v e
ou r</w>
l u
m y</w>
u n</w>
t a
t r
th at</w>
c e</w>
l a
p a
c e
in g
b i
s o</w>
d es
. "</w>
ar e</w>
s h
se r</w>
." ,</w>
it h</w>
c an
d o
c u
w ith</w>
no t</w>
i r
co m
t ra
da de</w>
t er
, W
c t
ti on</w>
m an
po de</w>
w a
u m</w>
m en
d u
ti on
on 't</w>
g o
l a</w>
s a
e m</w>
m os</w>
u ma</w>
f a
a m</w>
E st
g h
te r</w>
co mp
b o
p i
imp ort
f o
r u
d .</w>
w or
ha ve</w>
h i
t u
h e
import an
ç ão</w>
re n
m á
a g
c a</w>
p l
,W e</w>
w as</w>
m in
es .</w>
h o
te .,</w>
m u
n a</w>
r e</w>
ne ed</w>
i r</w>
da de
e t
al i
c ul
ció n
, I
te s</w>
s en
y ou</w>
ti v
li ke</w>
n o</w>
ver y</w>
' s</w>
e l</w>
ñ a</w>
, M
b le
re s</w>
t en
qu i
c re
n i
ar i
l l
g i
d os</w>
g o</w>
i to</w>
O s</w>
ou t</w>
it y</w>
er e</w>
f u
m or
al l
an i
s a</w>
ing .</w>
f ac
est á</w>
v o
d on't</w>
de r</w>
d as</w>
a da</w>
l d</w>
v er</w>
i s
g ra
mi ña</w>
un i
e .</w>
d er
, S
ur e</w>
a do</w>
di s
da .,</w>
ati on
y our</w>
" "
th is</w>
ne ces
Est ou</w>
re ci
t a</w>
am os</w>
me u</w>
í a</w>
c o</w>
te d</w>
i x
ati on</w>
o b
c ar
h el
f in
s it
k ing</w>
ú a</w>
th ing</w>
co m</w>
us t</w>
w e</w>
co r
th e
a p
n on</w>
ó n</w>
i t</w>
z a</w>
, C
má is</w>
l o</w>
,M y</w>
ci a</w>
b u
c t</w>
mor e</w>
al l</w>
u s</w>
w h
es .,</w>
d s</w>
ent e</w>
b r
, D
d o.,</w>
p en
at e</w>
se d</w>
a s.,</w>
t .</w>
po de
a u
di f
ar .,</w>
a x
p u
al .,</w>
ab le</w>
l y</w>
ou r
d en
po r</w>
ci on
pre s
or i
pro ble
k e
for ma</w>
ci al</w>
co n</w>
ou ld</w>
b a
so lu
qu e
it e</w>
g e</w>
on e</w>
an do</w>
v or
f ro
di ca
wa y</w>
sit u
P reci
no v
gh t</w>
, L
o s.,</w>
e mp
con t
u d
er a</w>
re .</w>
, H
st a</w>
an t</w>
tion .</w>
s p
s on
a ción</w>
' m</w>
f un
de ci
s ti
h as</w>
ma is</w>
co l
vi da</w>
a v
ha t</w>
si on
com o</w>
" "</w>
g e
o th
L a</w>
n os</w>
sen ti
w il
mo i</w>
s on</w>
o d</w>
c h</w>
, Y
s er
me ll
fro m</w>
fa vor
ch e
g ar</w>
an t
e mo
dade .,</w>
fe ren
ción .,</w>
v en
n at
f e</w>
ca l</w>
x i
importan t</w>
," ""
pre ci
f er
w e
se l
A s</w>
men t</w>
." ""</w>
tr an
k no
r on
s t</w>
fe el</w>
ca r</w>
re la
tra b
a f
pre n
c er
p ri
ab out</w>
an te</w>
m ust</w>
h u
c l
j e
pro du
s ão</w>
y s</w>
o s
u sed</w>
g r
t ur
a o</w>
v al
s úa</w>
m b
g a
po si
o l
g re
p as
ó n
me .</w>
es t</w>
s te
men to</w>
ne w</w>
a ção</w>
in te
li fe
hel p</w>
m ar
D e
es ti
s k
ce .</w>
c ri
importan te</w>
b y</w>
wil l</w>
un a</w>
e v
t y</w>
no s
pe op
i de
in ter
, P
i s.,</w>
in dica
so me
sh ould</w>
p p
le ar
am i
c al
es s</w>
s pe
o f
ma ke</w>
wa ys</w>
se gu
m on
m es
so b
er .</w>
e le
w hat</w>
te mp
fac er</w>
st o
ñ o</w>
ir a</w>
m un
s ,</w>
b le</w>
the ir</w>
c es</w>
t ri
m as</w>
fu l</w>
p es
s ab
nat u
bi li
e qui
N ão</w>
po s
t ar</w>
pode mos</w>
s in
ro u
for ma
x e
p on
ment e</w>
kno w</w>
i f</w>
b er
m .</w>
,I t</w>
per i
k .</w>
er o</w>
t re
c ti
t ing</w>
p ra
w i
life .</w>
dade s</w>
de ix
li ci
Preci so</w>
? ,</w>
se i</w>
h o</w>
ca .,</w>
ation .</w>
T e
un d</w>
m o</w>
al ways</w>
d ing</w>
li z
am e</w>
, E
ch an
so l
b ra
th in
,Th is</w>
so ci
le .</w>
f ri
w ant</w>
,Y ou</w>
res pe
pl an
,I 'm</w>
per son
con st
a pren
can not</w>
me di
re d</w>
sh i
per so
l os</w>
so .,</w>
lo ve</w>
v ing</w>
á s</w>
ver y
pl ac
trab all
s ure</w>
d or</w>
n u
vi da.,</w>
ción s</w>
g en
y ou
r a</w>
ch o
ou s</w>
es pe
it y.</w>
c ur
am en
ha i</w>
ment al</w>
pro te
l on
g ar
ci en
est ou</w>
si on</w>
j u
ar y</w>
d ar</w>
a re
,D on't</w>
y ing</w>
t s</w>
," Th
o w
in e</w>
est e</w>
er s</w>
t os</w>
g ur
to do</w>
st a
f ul
ç a</w>
r o</w>
co me
t h</w>
co s</w>
b ri
m ar</w>
wh en</w>
sob re</w>
n ing</w>
bu t</w>
an te.,</w>
go od</w>
it as</w>
c ces
j o
he al
c er</w>
te n</w>
w ar
N o</w>
p ort
E l</w>
, F
ho w</w>
ati v
ti me</w>
st ar
be t
t al
, T
si ón</w>
gu sta</w>
,Th ere</w>
g h</w>
ad o.,</w>
s ur
an tes</w>
c tion</w>
ac h</w>
u ti
t or
wor k</w>
est a</w>
p r
p o</w>
ca p
e very
man y</w>
e f
M e</w>
b an
c ha
est ab
c li
ra l</w>
ca m
l l</w>
, A
l í
it a</w>
ex peri
" Non</w>
v a
f al
an y</w>
ã o.,</w>
fo i</w>
c in
,""" I</w>
per fe
le s</w>
Q u
le t</w>
v el
se mp
hi st
d ur
be mos</w>
or .,</w>
h ar
fun da
s al
n a
, R
m ú
n 't</w>
imp ro
p la
fin d</w>
d an
est ar</w>
ad os</w>
vo l
neces s
f re
ve .</w>
ac ti
é x
thin k</w>
co a</w>
mu ito</w>
li ca
it s</w>
favor ite</w>
p in
ta in</w>
u se</w>
c tiv
or ar</w>
ne e
m er
ro .,</w>
mell or</w>
in to</w>
b est</w>
wi th
in forma
le a
en ce</w>
d í
co ra
st ra
re du
v a</w>
con fi
can 't</w>
uti liz
lo w
, A</w>
ú as</w>
t úa</w>
res pon
p ul
ve l</w>
t am
cont ro
co .,</w>
m al
i a</w>
ê n
re l
se gur
s amos</w>
no sa</w>
dif feren
min ha</w>
ali z
semp re</w>
, O
õ es</w>
it ar</w>
se x
ir o</w>
comp le
al go</w>
pro ces
mú si
es senti
me s</w>
h is</w>
b us
peop le</w>
li fe</w>
pu e
mo ment
it os</w>
c k</w>
se .</w>
ta ke</w>
some thing</w>
fi cul
en t</w>
s pi
k es</w>
mu si
,"Th e</w>
tion s</w>
fri en
ke y</w>
da d</w>
i m
di ver
, B
" A</w>
val u
s or
p or
ob je
t or</w>
se u</w>
or g
e ve</w>
di feren
b ar
ac k</w>
s y
er s.</w>
du ca
h e</w>
" O</w>
v ar</w>
ra .,</w>
b re
o k</w>
c le
e p</w>
an d
in f
th .</w>
ha pp
cul tu
ing s</w>
me l
gre at</w>
go ing</w>
c r
o l</w>
apren der</w>
th er</w>
essenti al</w>
m s</w>
p .</w>
í ci
t 's</w>
p h
lo w</w>
cam bi
am bi
th an</w>
ou tr
a da
ax ud
tran s
temp o</w>
c la
per o</w>
oth er</w>
de s</w>
é n</w>
w ere</w>
cor re
con si
ort uni
in i
c k
fi ca
wh o</w>
u p</w>
s to</w>
ha bili
qu en
re f
ma de</w>
il ity</w>
th i
com m
I 'm</w>
with out</w>
an ce</w>
z a.,</w>
lu gar</w>
e ar
op ortuni
ca pa
o cu
am or</w>
h er</w>
c en
su cces
n ão</w>
v es</w>
y ,</w>
Preci samos</w>
our sel
c el
ani ma
a qu
g a</w>
i st
tr u
ci dade</w>
or a</w>
n ada</w>
se n</w>
rela x
se s</w>
pa re
lear n</w>
in v
f ru
gr an
ac h
ma .,</w>
plac e</w>
a ción.,</w>
ón .,</w>
ma n</w>
ge t</w>
f on
de ma
sion .</w>
ir e</w>
dif ficul
re si
n as</w>
l as</w>
se e
De bemos</w>
op port
g ro
emo cion
wor l
r ar</w>
," W
i g
c as</w>
E u</w>
you .</w>
músi ca</w>
b li
it .</w>
funda mental</w>
at ing</w>
r y</w>
p s</w>
necess ary</w>
de d</w>
neces ari
i fe</w>
t ar
differen t</w>
un der
be au
pre ven
can do</w>
si g
m i</w>
H a
re g
mo st</w>
ment .</w>
m ul
l y.</w>
i d</w>
an ti
all y</w>
en ci
an y
re qu
t ent
mi s
po la</w>
org ani
z ar</w>
o me
it o.,</w>
in st
," D
Est e</w>
to o</w>
for e</w>
tion s.</w>
pos si
hu man
no lo
a ç
is to</w>
en er
co me</w>
impro ve</w>
b al
bet ter</w>
ac e
l in
be fore</w>
su per
en g
v ari
con tr
Te ño</w>
da y</w>
re ce
c lo
a in
a de
ñ e
w el
h on
e duca
d s.</w>
ti es</w>
en vi
ver s
he ar
h ac
amen to</w>
pes so
le d</w>
dif íci
tr y</w>
re st
a is</w>
f as
po pul
li ght</w>
qu al
nee ds</w>
ex pres
indica dor</w>
c lu
a ,</w>
te .</w>
si mp
s ."</w>
ou t
al .</w>
s ing</w>
o se</w>
il l
co un
ca da</w>
se ver
k s</w>
t as</w>
i li
e co
t o.,</w>
s úas</w>
j ud
po .,</w>
it 's</w>
da y.</w>
tu de</w>
re qui
indica tor</w>
es per
s as</w>
ra g
b en
ad o
ac hi
tur a</w>
f er</w>
t y.</w>
s os</w>
o ver
sex a</w>
pre par
i o</w>
d re
d or
ch e</w>
ce p
s ar</w>
ma kes</w>
g ú
e t</w>
u r</w>
co us
b o</w>
í n
w ould</w>
pre ocu
ment os</w>
con ne
á ri
ti ve</w>
f es
chan ge</w>
b l
under st
estab a</w>
every thing</w>
es ,</w>
a di
worl d.</w>
w .</w>
pre sen
po lo</w>
p e</w>
be ing</w>
,"D on't</w>
mi ñ
man ter</w>
d n't</w>
uni ca
th rou
th at
ation shi
re ad
op ini
no so</w>
l it
d in
d est
ar te</w>
w hi
t s.</w>
m br
c ru
at en
ab or
ct s</w>
co ne
to dos</w>
t é
ce le
éx ito</w>
tion al</w>
l er
const ru
ti es.</w>
rel ationshi
mo .,</w>
po st
fo o
al e
N e
bo a</w>
ar o
natu ral</w>
a .</w>
un ca</w>
,Y our</w>
ha d</w>
a is.,</w>
,I t's</w>
t ure</w>
r an
ma in
so und</w>
pres ent
es e</w>
da des
ên cia</w>
te u</w>
es s.</w>
envi ron
at op
y oursel
trab al
segu ir</w>
c .</w>
ani mal
res ul
fe el
a .",</w>
fa z
b or
ur a</w>
re s.,</w>
g os</w>
ad or</w>
te ch
ke ep</w>
j ust</w>
fin an
den ti
x o
to das</w>
cti ve</w>
ón s</w>
organi z
n ess</w>
j o</w>
fi ci
cla ve</w>
to ler
pue de</w>
po do</w>
w at
t an
re li
in spi
c ent
,C o
to mar</w>
sa ú
ma king</w>
fe lici
do s.,</w>
ar ti
ab ility</w>
ú st
s our
equi po</w>
b at
ax u
tran sp
no thing</w>
gra n</w>
d r
co mi
c ó
y ."</w>
mun do.,</w>
a ju
st ron
n er
má s</w>
d ía</w>
anima l</w>
w in
us ti
po li
S into</w>
z o</w>
thi s.</w>
de l</w>
qu ero</w>
fi r
en cia</w>
ta in
pro pi
ne ver</w>
gh t.</w>
ci r</w>
requi res</w>
for t
espe ci
ci a.,</w>
a os</w>
te m</w>
te d.</w>
ro o
me us</w>
se e</w>
ser vi
ow n</w>
et 's</w>
de .,</w>
ci r
chan g
v ed</w>
throu gh</w>
sel f
inf lu
ter min
segur o</w>
mell orar</w>
fu tu
el a</w>
g et
en jo
so cial</w>
s a.,</w>
ct .</w>
a d</w>
sh ow
ch o</w>
te am</w>
al gu
G úst
w n</w>
s .",</w>
or t</w>
mun do</w>
ca be
t y
so me</w>
o .",</w>
nov o</w>
i ma
g y</w>
th y</w>
ter i
solu ción</w>
g er
fa i</w>
ap pro
oth ers.</w>
l ing</w>
for m</w>
f am
t in
op tion</w>
men te.,</w>
h or
co ul
c ción</w>
re co
l an
l ack</w>
inte res
de pen
c ra
m y
de ber
te m
ti c</w>
sh o
mi l
inst ru
co o
ad as</w>
P o
Ha i</w>
," I</w>
o ,</w>
l .,</w>
h er
er ci
th ings</w>
po w
f res
a ted</w>
t es
on e.</w>
g o.,</w>
c to</w>
, G
se us</w>
po u
gi ve</w>
d ."</w>
ble .,</w>
C o
pode n</w>
natu re
mo tiv
l as
di re
opport un
mi ti
m bo
f en
e u</w>
des a
dades .,</w>
ani mais</w>
ti mes</w>
ri s
lo t</w>
cont in
difficul t</w>
í a.,</w>
mo ito</w>
g in
ac tiv
lu z</w>
es co
atop ar</w>
Te mos</w>
Gúst ame</w>
,D o</w>
ob xe
musi c</w>
en contr
E s
,L et's</w>
z as</w>
to s.,</w>
ati ve</w>
z in
popul ar</w>
gen er
ç o</w>
senti r</w>
p al
on .</w>
ne g
f ar
af fe
ac t</w>
posi tiv
o y</w>
fon te</w>
deix es</w>
,Th e
sour ce</w>
f t</w>
,L ife</w>
v ent
en to</w>
emp re</w>
requ ire</w>
on e
mel h
hu man</w>
ces .</w>
ali dade</w>
,Th at</w>
t le</w>
situ ation</w>
ma t
f ra
de termin
at ten
,O ur</w>
mo vi
de cora
an za</w>
o ve</w>
mo st
le var</w>
inspi ra
h ere</w>
a vo
v it
utiliz ado</w>
s ha
di st
ç ões</w>
en te.,</w>
an ça</w>
t a.,</w>
su a</w>
pro fes
et .</w>
deix ar</w>
c ted</w>
ó ri
ti ca</w>
th ere</w>
n s</w>
con di
peop le.</w>
fi car</w>
contin u
us ar</w>
st u
r it
lo o
i denti
fi l
ag ain
th ose</w>
s ó</w>
x e</w>
ver dade
sk ill
li m
cu sto
ch i
te ,</w>
g er</w>
faz er</w>
ev itar</w>
á ci
ti me.</w>
soci e
perso as</w>
af ter</w>
vi dade</w>
ve lo
saú de</w>
p es</w>
hist ori
a fe
,H e</w>
," I
é s</w>
v in
d ent
Ne ces
wor king</w>
t an</w>
solu tion</w>
r as</w>
nu est
diferen tes</w>
ción s.,</w>
bu il
be li
ú ni
to ge
l .</w>
c ed</w>
a po
,W hat</w>
traball ar</w>
fal ta</w>
ada p
ad mi
," S
ra s.,</w>
i da
happ in
av a</w>
tra di
s h</w>
s ati
p at
on s</w>
man e
eco no
d ar
bre a
ble .</w>
po lí
m s.</w>
in ten
ful l</w>
ex ci
ç ão.,</w>
wor k.</w>
ma y</w>
f lo
co s.,</w>
ab le.</w>
a da.,</w>
t ro
su b
sati s
o ver</w>
ct ar</w>
sy ste
m é
g an
de lici
ci ty</w>
au to
par ti
e very</w>
ch il
bi r
a y
qu il
p a</w>
le r</w>
fac e</w>
dema si
vi r
n .</w>
hac er</w>
de n</w>
c are</w>
al so</w>
a jud
C ada</w>
redu ce</w>
preci sa</w>
i do</w>
ami li
u p
j ar</w>
fas cin
encontr ar</w>
t on
si ste
n or
hel ps</w>
fo l
f amili
da d
the y</w>
s í
lon g</w>
i gh
he re.</w>
de fin
G os
s we
ri ght</w>
miñ as</w>
habili dade</w>
emp res
cous as</w>
comp a
be n</w>
as u
ó xi
read y</w>
qual ity</w>
per miti
opportun ity</w>
li ber
es en
Gos to</w>
r á
ob st
me d
k ed</w>
in cre
ha b
co r</w>
ca re
c y</w>
be en</w>
ti l</w>
situ ation.</w>
re sol
par te</w>
li br
esen cial</w>
d unha</w>
al low</w>
v ali
t i</w>
in a</w>
feel ing</w>
f í
f la
e d.</w>
Qu ero</w>
z e</w>
res s</w>
perfe ct</w>
nos os</w>
aro und</w>
te c
s es
ref le
pe n</w>
main tain</w>
ist o.,</w>
f áci
f l
ent en
ch all
am ent
w al
ve z</w>
su pp
no i
ne r</w>
m .,</w>
il y</w>
da s.,</w>
ag e</w>
situ ación</w>
ro s.,</w>
p er</w>
mu ch</w>
ex p
ex cel
ag ra
Est amos</w>
,L ove</w>
á n</w>
re i</w>
pro je
preven t</w>
pra cti
d ,</w>
axud ar</w>
ax e
a vi
," L
y si
vel .,</w>
v an
succes s.</w>
si ón.,</w>
pro gra
person al</w>
nov a</w>
en tes</w>
ch ar
b on
ad os.,</w>
ve ces</w>
proble ma</w>
per sever
le .,</w>
d este</w>
th ou
soci et
sig ni
sa u
reg ul
li v
ef fe
ac e</w>
ser i
proble mas</w>
op ção</w>
mo un
ing s.</w>
ha p
ter n
ra ment
me an
cl ar
ba ix
x u
underst and</w>
traball o</w>
beau ti
be le
a si
á re
or .</w>
ma teri
lear ning</w>
i ce</w>
de fen
" S
os a.,</w>
d ro
ac u
ac tu
â n
te .",</w>
respon si
li mp
ex pe
de be</w>
ca min
b ro
V amos</w>
to gra
on ly</w>
mer ca
achi eve</w>
vi ol
respe ct</w>
op e</w>
fer rament
,H is</w>
vi bra
t ou
o so</w>
me d</w>
i l</w>
hi gh
g un
e as
z .,</w>
st ri
st e</w>
i so</w>
heal thy</w>
es col
ent re</w>
en ce.</w>
yoursel f</w>
whi le</w>
wa ter</w>
gro w
de ve</w>
ct os</w>
coul d</w>
sol ve</w>
resi st
per m
oportuni dade</w>
l t</w>
l ar
h ou
c ni
avo id</w>
as si
p ati
n e</w>
mo mento</w>
enjo y</w>
dis co
consi der
cces s</w>
ca s.,</w>
,S u
z e
x ente</w>
war ds</w>
v ou</w>
po ñ
neces i
do es
deci sion
contro l</w>
ca use</w>
at ra
A pren
ç as</w>
st or
pre fer
me j
in nov
go al
difíci l</w>
di r</w>
c í
al can
í .,</w>
st er
spe ci
par t</w>
ori z
does n't</w>
c tion.</w>
am ente</w>
aju da</w>
wor ld</w>
ta do</w>
s an
r .,</w>
es pa
b all</w>
/ a</w>
to wards</w>
so u</w>
mo l
mo der
es p
dí n</w>
ci ar</w>
bo d
,P e
wh ere</w>
s ul
inv esti
in .</w>
h an
comp ro
re di
op ción</w>
mo itas</w>
e ti
e qu
dur ante</w>
demasi ado</w>
c ha</w>
ab a</w>
A l
tr ying</w>
si l
re ally</w>
mb er</w>
le g
fi cien
et a</w>
de .</w>
ant es.,</w>
a ter</w>
wor k
possi ble</w>
po der</w>
pesso as</w>
mo ve</w>
i gu
for war
d ra
cele bra
ation s.</w>
ar re
a ma
T o
th er
ten er</w>
s ou
r os</w>
po is</w>
p ú
me dica
lit tle</w>
f est
a mp
A dor
éx ito.,</w>
us o</w>
u s.</w>
tru e</w>
redu cir</w>
in clu
c ro
beli eve</w>
Ador o</w>
A cho</w>
,I n
x o</w>
te us</w>
re vi
pla y
perso a</w>
p s.</w>
oth ers</w>
cre ate</w>
,S he</w>
z o.,</w>
solu tion.</w>
ch ing</w>
cambi ar</w>
tec nolo
sab or</w>
per spe
me .,</w>
h o.,</w>
ex erci
con su
,S ome
u si
st .</w>
pou co</w>
pe quen
nov as</w>
n unha</w>
li ve</w>
inte rest
d un</w>
ca mp
bele za</w>
vi r</w>
over come</w>
on de</w>
n unca</w>
mu itas</w>
j usti
en can
c y
b lo
an ce.</w>
v o</w>
ter .</w>
o sa</w>
imp res
com b
al gú
ac ces
us ado</w>
te mente</w>
t as
pr in
p ar</w>
ac cep
' re</w>
ó s</w>
vo lu
v ação</w>
ti tude</w>
equi p
dre am
capa z</w>
ambi ente</w>
ad or
á gu
u ra
th er.</w>
qu ando</w>
ma i
ke t</w>
j a</w>
ir os</w>
in ha</w>
fe lt</w>
es que
do ing</w>
cru cial</w>
con se
E n
x ía</w>
to ol</w>
te ñ
shi p</w>
s m
ren g
pú bli
j et
in di
habili dades</w>
fo od</w>
di se
ci o</w>
V ou</w>
sto p</w>
lon g
favor ito</w>
est ão</w>
est án</w>
ent es.,</w>
ct ing</w>
cre ativ
animal s</w>
M y</w>
sur pri
see ms</w>
re s.</w>
e ach</w>
dema is.,</w>
ct s.</w>
con tra
comm unica
so l</w>
sa s.,</w>
pode m</w>
po in
fí si
fi c</w>
f ron
en vol
da y
corre ct
ajud ar</w>
í r</w>
obxe ctiv
informa tion</w>
ha ving</w>
c ê</w>
bo o
a se</w>
T en
tent ar</w>
tem po.,</w>
t ão</w>
si dade</w>
se .,</w>
pe d</w>
of ten</w>
g al
en do</w>
co ñe
c s</w>
á n
valu able</w>
te x
reli gi
pl ant
par t
ment o.,</w>
in cl
gran de</w>
de b
ñ ar</w>
wa y.</w>
sti ll</w>
s le
outr as</w>
mi sta
m m
informa ción</w>
h y
fáci l</w>
est ra
axu da</w>
al low
D es
,Some times</w>
,S o
y ear
si ve</w>
po der
ne d</w>
ment ar</w>
me r</w>
lo gi
li gh
kno w
fo un
felici dade</w>
,R e
" ,</w>
wil ling</w>
th em</w>
te mos</w>
st reng
n un</w>
ing redi
d rag
c us
, N
vi ax
uni que</w>
u se
té cni
transp ort
that .</w>
st a.,</w>
se ar
per son</w>
pen s
mo s.,</w>
happ y</w>
h os</w>
f .</w>
di men
de lica
chall eng
U n
ph ysi
pen sar</w>
mar k
it ."</w>
heal th.</w>
ex pl
com uni
cien cia</w>
beau ty</w>
amen te.,</w>
a ca
í n</w>
some one</w>
proble m</w>
pro mo
posi tive</w>
o res</w>
neces it
ma s
h ar</w>
emo tional</w>
ct ri
tech ni
ou s.</w>
l ar</w>
it u
ide a</w>
es pin
cultu ral</w>
cul tura</w>
S er
Neces ito</w>
x a</w>
re aliz
o do
mé di
lo ok</w>
le v
h and
respon sab
re 's</w>
i ra.,</w>
gu i
fi ca</w>
educa ción</w>
e d
cu ri
comi da</w>
b ac
ami gos</w>
á vel</w>
w as
t ê
self -
s pen
pare ce</w>
natu re.</w>
go sto</w>
cr í
c é
an z
acti vi
a ve</w>
s i</w>
resol ver</w>
re gi
p ur
necesari a</w>
lea d</w>
con ven
ar se</w>
s w
man ag
l es
de bemos</w>
ace p
th ing.</w>
sm all</w>
r y,</w>
o per
i ght</w>
har d</w>
h ope</w>
fun cion
com unica
c le</w>
al mente</w>
we en</w>
qu era</w>
prote ct</w>
no w.</w>
ment s.</w>
ing ,</w>
in fe
hu mil
e fe
di dn't</w>
cri min
co u</w>
c ing</w>
c have</w>
bus car</w>
br an
aqu í</w>
w o
tech nolo
societ y.</w>
po ten
or s</w>
opport uni
nos sas</w>
nos as</w>
mes mo</w>
ment s</w>
in du
est ás</w>
er at
ar t</w>
ag em</w>
segu ri
me do</w>
k i
con cent
ab ri
tê m</w>
ti cal</w>
te le
r in
pla y</w>
mane ira</w>
k in
dur ing</w>
com fort
ation s</w>
an ten
T es</w>
I sto</w>
so m</w>
res s.</w>
in e.</w>
i a.,</w>
con cer
ch .</w>
cal quera</w>
av ent
N unca</w>
" A
v es
ti tu
situ ación.,</w>
se m</w>
proble m.</w>
m ac
g em</w>
ful .</w>
ali dade.,</w>
! ,</w>
á ti
su ch</w>
so f
rá pi
ou l
i ro.,</w>
gu e</w>
en d
de ira</w>
d ri
ch ur
capa cidade</w>
ari o</w>
,Su ccess</w>
vi sit
ti p
r ão</w>
pu bli
heal th</w>
eas y</w>
come z
,"L ife</w>
us ada</w>
t úas</w>
s qu
pro vi
ferrament a</w>
f y</w>
er .,</w>
di z
de velo
aten ción</w>
ali mentos</w>
/ her</w>
õ es.,</w>
we a
super ar</w>
st ar</w>
siste ma</w>
s es.</w>
perm ite</w>
outr os</w>
med it
ing ."</w>
g ri
es a</w>
de dica
ad vent
ac ri
X a</w>
áre as</w>
á r
ve m</w>
utiliz ada</w>
star t</w>
st re
pres er
polí ti
or y</w>
o so.,</w>
gi a</w>
f ren
di sh
ab il
pi e
necesari o</w>
n este</w>
melh or</w>
hap pen
for t</w>
ex ist
do w
cle ar</w>
axud ar
axe it
vi e
te am
tam b
t ,</w>
supp ort</w>
ra z
permiti r</w>
inter i
ili dade</w>
co ci
beauti ful</w>
í as</w>
t ren
sp ir
re .,</w>
proble ma.,</w>
pe la</w>
pa ren
n ing.</w>
n esta</w>
mes a</w>
me mor
ma te</w>
fo cu
dr in
c res
au th
at a</w>
an sw
ó ti
vir tu
traball o.,</w>
te l
sel f</w>
s un
person .</w>
pe l</w>
o pen</w>
l ine</w>
ir as</w>
for get</w>
f r
ag re
a il
,"W e</w>
á s
nos sa</w>
le d
fre quen
ch u
ap p
ac to</w>
x un
wel l
so s.,</w>
s s</w>
po sta</w>
physi cal</w>
pa í
ne go
min d</w>
l ess</w>
i da</w>
hist óri
g e.</w>
g as</w>
frien d
du ra
cre ati
comp eti
ci as</w>
bo l
bet ween</w>
as ,</w>
al ready</w>
Ser á</w>
" P
vi da
favor ita</w>
f li
ev en</w>
es sen
encan ta</w>
ci dade.,</w>
Est a</w>
é m</w>
sy mbo
sin to</w>
se t</w>
proble ms.</w>
o li
go s.,</w>
esti ón</w>
d ão</w>
comm on</w>
co stu
b re</w>
Est oy</w>
ti l
succes s</w>
sp ort
pro g
p ing</w>
hear t</w>
fi sh
ct u
clo th
be bi
pro per
preci so</w>
pa ix
op tion.</w>
ne igh
nature za.,</w>
il u
il l</w>
h ora</w>
h en</w>
den ce</w>
deci si
ca u
b a</w>
x ar
s ."""</w>
re cu
pe lo</w>
pa z</w>
j un
gar anti
ent .</w>
cul o</w>
ca sa.,</w>
aç ão.,</w>
ali ment
a s.</w>
ín da</w>
per der</w>
mes mo.,</w>
me mber</w>
gu ar
do cu
dad .,</w>
bus in
a king</w>
á vel.,</w>
ta s.,</w>
t t
re cur
lo s.,</w>
g g
frien ds</w>
en ou
econo mi
de al</w>
confi anza</w>
ca t
ca sa</w>
br ar</w>
allow s</w>
admi ra
ad ver
, 0</w>
tam én</w>
pow er</w>
nat ur
ho od</w>
har mon
g an</w>
diver ti
cu ra
atten tion</w>
ap pe
am on
ag or
ade cu
ç a.,</w>
ve .,</w>
ta king</w>
st al
mbr ar</w>
mat ter</w>
it able</w>
hi gh</w>
gra te
fe ar
f low
do wn</w>
const ant</w>
bri ll
ar ro
é ri
é n
xi ón</w>
tal k</w>
t í
show ed</w>
ref res
profes sion
gr ar</w>
g ni
fir st</w>
cre ar</w>
b ility</w>
any thing</w>
ab ó
a con
A qu
ti .,</w>
rela ción</w>
ra s
p un
p ho
ou ght</w>
mu y</w>
ide al</w>
fu tur
frequen temente</w>
es for
e .,</w>
do ,</w>
des er
de por
de mo
ct o.,</w>
ch es</w>
algú n</w>
ab er
a pi
Un ha</w>
L os</w>
su n</w>
sta in
sob re
sa fe
recu per
fo und</w>
deci sion.</w>
de re
con vers
ca us
appro pri
v ul
us u
su st
spe cial</w>
s ent
qu er</w>
pue do</w>
o w</w>
moment os</w>
mi ent
ment res</w>
in vol
grate ful</w>
g n
futu re.</w>
el o</w>
e ar</w>
co as</w>
bi o
I n
E la</w>
,"W hen</w>
that 's</w>
stron g</w>
res our
po se</w>
per for
of fer</w>
o d.</w>
má ti
lea ve</w>
inte gra
fre e</w>
for te</w>
fe li
f an
des pois</w>
cul tiv
con ta
bo ok</w>
be m</w>
ad .</w>
ac e.</w>
a cor
Á s</w>
wor ry</w>
t ori
pre fer</w>
pe li
nature za</w>
moment o.,</w>
mo ment</w>
g y.</w>
fam ily</w>
e y
do es</w>
co ur
again st</w>
a cións</w>
Qu e</w>
E x
,T o
" C
v ac
ti po</w>
s cien
roo m</w>
ri gh
on a</w>
mu dan
lim it
j our
g a.,</w>
fre e
f fe
de mais</w>
comp lica
ar ri
S empre</w>
águ a</w>
ve get
tre es</w>
tra in</w>
se cur
re com
per fu
nos sos</w>
ma l</w>
m es.</w>
goal s.</w>
g .</w>
en ti
de e
cora z
col or</w>
col le
cambi o</w>
bo ar
ap preci
E s</w>
,So me</w>
we e
w are</w>
v és</w>
usi c</w>
to day.</w>
tele vi
se man
se a</w>
sau da
s ar
oportuni dades</w>
mo re.</w>
mi z
me io</w>
le as
in sul
in gu
i so.,</w>
fu ture</w>
en sure</w>
emp e
dest in
comp an
ci ty.</w>
ci mento</w>
ation al</w>
al tern
,L ear
ti s
te ño</w>
sear ch</w>
re d.</w>
re ,</w>
ne w
le av
incl in
he li
ha .,</w>
h ing</w>
finan cial</w>
f all
en fer
comp arti
comm it
b il
" Não</w>
á si
á -
w on
tra ba
tr ust</w>
tes our
of re
mai or</w>
in o
in do</w>
importan te.,</w>
fe ar</w>
des envol
com mun
com ing</w>
cle an
cap able</w>
ar me</w>
an cia</w>
affe ct</w>
a way</w>
wor ry,</w>
va ca
sen sa
relationshi ps.</w>
pre sión</w>
po l
oul dn't</w>
ni ght.</w>
min d.</w>
lo cal</w>
li dar</w>
g ru
futur o</w>
en sin
en .</w>
dro plan
dis crimin
car a</w>
an ding</w>
,M usic</w>
ç ar</w>
z es</w>
y o
roo m.</w>
proble ma
posi ble</w>
pode s</w>
ph one</w>
perso as.,</w>
me asu
lon go</w>
ir .</w>
in ner</w>
expl or
effe ctive</w>
e fici
do m</w>
con ta</w>
ca st
ca f
bi r</w>
be d</w>
b ack</w>
ar a</w>
am in
,E duca
,B e
verdade ira</w>
v en</w>
to da</w>
st as</w>
prin ci
peop le
obst á
ment al.,</w>
l ha</w>
foun da
fe ito</w>
concent ra
comp ren
cho i
car re
bi t</w>
b ought</w>
ach .</w>
wa it</w>
toge ther</w>
qu es</w>
produ ct</w>
op le</w>
ne x
k s.</w>
k ing.</w>
jour ne
happin ess</w>
gran des</w>
fo togra
en d</w>
desa fi
de te
conne ct</w>
comp as
c á
bod y</w>
ban di
a pro
U n</w>
A n
,The re's</w>
,E very</w>
" No</w>
tiv o</w>
so li
situ ação</w>
ro r</w>
relationshi p</w>
proces o</w>
perspe ctiv
outr a</w>
no .,</w>
n ess.</w>
mon e
mo itos</w>
lan gu
l le</w>
ide as</w>
i on
histori a</w>
ha vi
g lo
espe ct
des ser
con ti
ca miñ
at u
al o</w>
ada s.,</w>
ab le.,</w>
a z
,P er
us h</w>
ti z
tam ente</w>
t es.,</w>
pr óxi
or der</w>
neigh bor
mu itos</w>
min .,</w>
l es.,</w>
l at
in ing</w>
fra ca
fal ar</w>
ex amp
ev ent
e con
dí a.,</w>
de u</w>
d or.,</w>
cu ida
b ur
ari a</w>
an a</w>
Th e</w>
,The y</w>
ñ a.,</w>
vi zin
use ful</w>
tion ."</w>
t able</w>
satis fac
ri sk
publi c</w>
pow er
pes ,</w>
pe .</w>
p ant
obst ac
no w
jet os</w>
fru tar</w>
espin af
e za</w>
cl ou
b all
ag e.</w>
accep t</w>
. .
,H e
well -
ve mos</w>
sí mbo
stra tion</w>
st y
sh e</w>
s me
rela cións</w>
ra in</w>
pa in
k e.</w>
frien ds.</w>
est ava</w>
est amos</w>
es ."</w>
er an</w>
e asi
di a</w>
cap tur
cabe lo</w>
ba se</w>
as .",</w>
ami z
a ir</w>
,Pe ople</w>
,Educa tion</w>
,E x
vi vir</w>
tran quil
syste m</w>
self .</w>
s us
s mi
s acri
ri que
r un
pe lí
pelí cul
p ó
lo st</w>
in e
happin ess.</w>
fi gur
expe ct
excel l
esper ar</w>
de ta
contr a</w>
con he
cal m</w>
be cause</w>
ar ,</w>
a pe
a de</w>
E le</w>
ti mes
th re
th ings.</w>
te ly</w>
t u</w>
skill s</w>
produ ction</w>
pr ó
pl an</w>
pi ra
perfe ct
or s.</w>
lu ga
li qui
lea se</w>
ha ir</w>
futu ro.,</w>
finan ce
f un</w>
es cu
des ig
cu mp
at titude</w>
appropri ate</w>
an o</w>
agra deci
ac coun
Co mp
wel l</w>
va i</w>
stra te
sti ca
si empre</w>
senti r
os ,</w>
na cion
mell or
in ver
ex ces
est r
conven i
apren diz
" Os</w>
vi si
tra f
s cre
qu en</w>
produ tos</w>
proces s.</w>
parti ci
nu ev
nex t</w>
n en
mej or</w>
me ,</w>
man u
loo king</w>
le ad
jud ge</w>
ix a</w>
h ur
foo d.</w>
fe z</w>
enci a.,</w>
do res</w>
co ver</w>
b es</w>
acti tude</w>
a ?,</w>
,C an</w>
," T
, Te
ú n</w>
ti mes.</w>
tan to</w>
símbo lo</w>
symbo l</w>
st ud
res posta</w>
re as
preocu pes,</w>
pa i
le ft</w>
l and
i dade</w>
ex emp
enten der</w>
ele ctri
di d</w>
d ou
const ante</w>
cion ar</w>
ca sti
be havi
aç ú
as o</w>
a st
ón s.,</w>
you 're</w>
vi ar</w>
u gh
toge ther.</w>
so ñ
re gener
re ali
provi de</w>
prote x
neces ita</w>
nat ure</w>
n ingu
n es
merca do</w>
lo y
it ch
ho me</w>
es te
des cu
comp ort
bili dade</w>
at .</w>
again .</w>
acti te</w>
a que
De bo</w>
v es.</w>
u t</w>
thin king</w>
ter s</w>
so a
s so</w>
rou pa</w>
resul t
rece itas</w>
qu eta</w>
pro fun
pri me
prepar ar</w>
pal ab
p an
min has</w>
mar ket</w>
interest ing</w>
hel p.</w>
go ver
f le
equi li
environ ment.</w>
du e</w>
deber ía</w>
de vi
cone xión</w>
comple x
cer tain</w>
ce mento</w>
c y.</w>
be gin
a preci
H o
ó mi
ver i
un d
ul ar</w>
to -
simp le</w>
si de</w>
s mo
s ing
pu t</w>
pro xe
o ll
neg ativ
il y.</w>
founda tion</w>
ex tra
conne ction</w>
con fli
car ne</w>
aqu í.,</w>
é ti
transp or
tr os</w>
th is
sin al</w>
sho w</w>
re member</w>
ra pi
p es.</w>
moun tain</w>
ll abor
libr o</w>
l li
i c</w>
figur a</w>
f an</w>
et y</w>
est u
est ru
environ ment</w>
e mb
den do</w>
den cia</w>
defin e</w>
cu ando</w>
be gan</w>
at tra
as pe
an t.</w>
an si
," My</w>
' ll</w>
úni ca</w>
í amos</w>
won der
wal k</w>
ven to</w>
uni ver
temp erat
t al</w>
st en
spe ct
skill s.</w>
sa ud
produ to</w>
pos to</w>
plac e.</w>
musi c.</w>
importan tes</w>
feli z</w>
fe liz
famili a</w>
do .",</w>
di u</w>
ami gos.,</w>
al ity.</w>
a mo
v a.,</w>
u sto
tra vel</w>
temp or
signi fica
s ci
profession al</w>
proces s</w>
pro b
mean s</w>
know led
inter n
igu al
i ve</w>
g el
cul in
cone ctar</w>
comb in
chil d
ce ,</w>
açú car</w>
an k</w>
R e
P er
,"S ome
, K
í sti
vi du
v al</w>
times ,</w>
ti ña</w>
su stain
st ru
se em</w>
s u</w>
re mo
perfor man
ou s
oth er
nov o.,</w>
mon tan
mo ther</w>
mo ita</w>
l á
l o.,</w>
is su
g ar.,</w>
g ame</w>
fa ci
f lu
estab li
er i
ent er
có mo
cr it
co zin
ble s</w>
ar .",</w>
an al
al ity</w>
achi ev
ab le
P re
,F ri
vul ner
un til</w>
tor til
t ing.</w>
socie dade</w>
resi li
re o</w>
re nov
propi a</w>
proble ms</w>
preocu pes</w>
people 's</w>
of fer
ob ser
mi tes</w>
mi r
manag e
li ving</w>
i ón</w>
hi m</w>
g rou
enou gh</w>
efe ctiv
dis h</w>
cor po</w>
comp u
comfort able</w>
ci do</w>
captur ar</w>
ban queta</w>
appe ar
an te
an other</w>
Ten go</w>
C on
vo s.,</w>
solu ción.,</w>
noi te.,</w>
no w</w>
ni vel</w>
movi e</w>
mon ta
ma ñ
m ing</w>
li ves</w>
h in
grow th</w>
garanti r</w>
for za</w>
experi encia</w>
enfer mi
e m
de li
conta gi
consi go</w>
comp any</w>
col abor
ca ke</w>
c ú
bu y</w>
am or
al go
ac ci
,F o
z os</w>
whi ch</w>
vo cê</w>
valu e</w>
ul gar</w>
técni ca</w>
ti en
su as</w>
ste n</w>
sta y</w>
sme ll</w>
ri ed</w>
ri bu
qui ck
pr á
on es
my self</w>
g or
fi sh</w>
fi ll
di ab
de tal
d on
cul os</w>
co ffe
cho col
ch as</w>
ch ar</w>
buil d</w>
ba sed</w>
an g
al to</w>
agor a.,</w>
ag it
Y ou</w>
V o
,E very
,D i
ve is</w>
ve d.</w>
tre n</w>
the m.</w>
ta ref
solu ção</w>
shi p.</w>
pra tos</w>
po los</w>
pe ace
p hi
lu min
li sten</w>
indi vidu
h our
g on
foo ds</w>
focu s</w>
f esta</w>
experi ence</w>
exp lo
eng an
delici ous</w>
cre di
come s</w>
co le
ci pl
ci cle
av ail
au di
ad van
a ire</w>
w ing</w>
ver .</w>
underst anding</w>
t ."</w>
sto ol</w>
sit y.</w>
si ento</w>
pas ar</w>
out ros.,</w>
obje cts</w>
l en
k itch
indu stri
ho ld</w>
g las
experi en
excell ent</w>
ex per
emo tions</w>
econ ómi
e dade</w>
de l
co lo
cion es</w>
ci o.,</w>
che iro</w>
ar te.,</w>
an to</w>
al ta</w>
ab ili
á .,</w>
xe .,</w>
un der</w>
the m
tecnolo xía</w>
sor ri
s ali
ro ck</w>
recur sos</w>
plan ning</w>
moment .</w>
lo se</w>
limp eza</w>
l es.</w>
l am
ig nor
forwar d.</w>
en a</w>
dis posto</w>
cul tur
ct or</w>
continu e</w>
b ul
ari os</w>
abó b
Al gú
,H ow</w>
,"Some times,</w>
,"I f</w>
," H
vi sta</w>
ve red</w>
ve ces
ty pe</w>
ta da</w>
st ing</w>
spen d</w>
sever al</w>
ri ch</w>
re sta
pró pri
pres ente</w>
pra to</w>
pin ach</w>
pat h</w>
p é
n ós</w>
luga res</w>
influ ence</w>
i th
g ing</w>
fi cou</w>
fam ily.</w>
experi mentar</w>
exci ted</w>
ele g
e mer
e i</w>
dest ru
der .,</w>
de mos</w>
day s.</w>
coun tr
con ver
baix o</w>
any one</w>
ant as
ag ri
acep tar</w>
I sso</w>
Algú ns</w>
,To day</w>
á fi
z z
vit am
tu s</w>
teñ en</w>
sk in</w>
sa y</w>
ro de
proble m
power ful</w>
pl ani
p as</w>
obje tiv
necesi dades</w>
neces ito</w>
ne t
lo ve.</w>
for mas</w>
e vi
deci ded</w>
cu al
co ura
cl assi
che gar</w>
a res</w>
C reo</w>
." ""
.""" ,</w>
ás sar
z i
yoursel f.</w>
tor rão</w>
ti red</w>
th ro
sof t
sk ill</w>
si n</w>
secur ity</w>
s co
resta ur
qui er</w>
que i
qual quer</w>
pa ciencia</w>
p ássar
opportuni ties</w>
of f</w>
no ite</w>
ni ght</w>
medi o</w>
ma in</w>
in tent
hou se</w>
get ting</w>
fres h</w>
essen cial</w>
el e</w>
diver sidade</w>
des de</w>
cual quier</w>
compro mi
cle an</w>
chang es</w>
ce der</w>
are as</w>
M inha</w>
G u
, V
ú til</w>
á li
v í
v os</w>
tortil la</w>
st s</w>
spe a
sle e
sig n</w>
sig n
sh ar
sen si
sa do</w>
s ó
s ame</w>
ro man
qu es
proje ct.</w>
prefer ido</w>
p ac
op tions</w>
má s.,</w>
mell or.,</w>
materi al</w>
lo c
lar ge</w>
l ,</w>
interi or.,</w>
hab it
glo b
fin al</w>
fi can
est .</w>
escol ha</w>
e ira</w>
dis cipl
deci sión</w>
comple x</w>
cer .,</w>
ca mi
at mo
ar y.</w>
ar nos</w>
alcan zar</w>
,S pinach</w>
ô ni
í ame</w>
ári a</w>
w ho
u ts</w>
u ro
tur n</w>
to pi
ti mi
ta st
star ted</w>
st ro</w>
sobre mesa</w>
sk y</w>
safe ty</w>
respe ct
re pu
re present
profes ion
pri ori
possi bili
polí tica</w>
person aliz
pai sa
má xi
mo squ
mista k
mis s</w>
men os</w>
mark et.</w>
le vel</w>
la do</w>
it a.,</w>
imp re
gar den
fla vor
felici dade.,</w>
expres sion</w>
en contra
emp a
ele v
e volu
di ficul
des can
de mon
de ben</w>
communica tion</w>
che ese</w>
c ali
bus ca</w>
as es.</w>
ari ciar</w>
an do.,</w>
win d</w>
vi a
tt on</w>
transpor te</w>
te i</w>
su itable</w>
so mbr
pi cal</w>
perfu me</w>
par ty</w>
pa y</w>
nu tri
mi r</w>
logi cal</w>
lo ca
is h</w>
inv est
in o</w>
importan ce</w>
i ra
fica ción</w>
fi jar</w>
dre n</w>
cultu re.</w>
cti ve.</w>
cres cimento</w>
con du
comp ani
cho ice</w>
b lu
aç ões</w>
at t
at s</w>
ar .</w>
algu én</w>
ale gr
ad or.,</w>
S ent
Ha y</w>
/ a.,</w>
ve is.,</w>
ur ri
trabal ho</w>
tar de</w>
ster i
st and</w>
sor pren
socie dade.,</w>
sh ouldn't</w>
sen do</w>
se d.</w>
sab or
sab er</w>
s wor
reci pes.</w>
re cor
ra te</w>
presen t</w>
pre di
pa in</w>
o ld</w>
no me</w>
inte li
instru mento</w>
impro ve
i m</w>
ho me
hi s
examp le</w>
ex i
every one</w>
en fren
emo cións</w>
di sa
co ld</w>
cli entes</w>
cl on
che .,</w>
ce .,</w>
can o
c alidade</w>
ari o.,</w>
ar t.</w>
abób ada</w>
a te.</w>
W e</w>
Vo cê</w>
, J
"" ."</w>
ó gi
z o
traf fic</w>
tra vel
tra t
to ol
ste p</w>
soci al.,</w>
re ach</w>
r í
protex er</w>
pp er</w>
positiv o</w>
pe ace.</w>
of fi
mo ving</w>
land s
jo b</w>
ide a.</w>
ha y</w>
ex tre
est y</w>
er am</w>
ent re
ener gy</w>
en .,</w>
el é
ef ficien
e ,</w>
da ta</w>
cu is
cre ative</w>
coo king</w>
comez ou</w>
co la
ch ed</w>
cap ture</w>
can to</w>
caf é</w>
c les</w>
bal an
ambi ente.,</w>
ado res</w>
ân cia</w>
x in
w ent</w>
vit al</w>
val or</w>
us ing</w>
to ok</w>
ti g
ter m</w>
team .</w>
t á
syste m.</w>
sur ro
so la
responsab ili
re ."</w>
preci samos</w>
pin ess</w>
pas t</w>
obxe ctos</w>
nu vem</w>
n ame</w>
most rar</w>
me ti
me re
me at</w>
lí mites</w>
li mi
li cor</w>
hist ory</w>
hear d</w>
go t</w>
fes tiv
es qui
ele mento</w>
e mos</w>
di o</w>
di ante</w>
c s.</w>
c cu
bi g</w>
be cu
are as.</w>
ap piness</w>
an xi
al .",</w>
al ,</w>
advent u
To do</w>
P are
,Lear ning</w>
,A n
z ing</w>
viax e</w>
vi a</w>
trans fer</w>
tra vés</w>
star íame</w>
st ress.</w>
ses ión</w>
re médi
ra i
qu em</w>
po las</w>
n ó
mo ve
min u
m us
m it
informa tion.</w>
hon esti
his /her</w>
es sa</w>
es go
di o
decision s.</w>
dan ce</w>
d esta</w>
compan y.</w>
cli entes.,</w>
blo que
bir ds</w>
b as
at ing.</w>
al er
I mos</w>
ên cia.,</w>
tu do</w>
ti emp
sust ent
st r
so ,</w>
segur ança</w>
ru p
poñ er</w>
posi ción</w>
pe ace</w>
ou t.</w>
ones el
on line</w>
nuest ra</w>
most ra</w>
lear ned</w>
le mbrar</w>
l ite</w>
importan t.</w>
i ção</w>
i amos</w>
ho t</w>
h á</w>
g ure</w>
ful ly</w>
fo re
fer ves
ex ha
et ing</w>
environ mental</w>
economi c</w>
do en
develo p
des e
d le</w>
cur ren
comp rar</w>
co bre</w>
ción .",</w>
cele brar</w>
c tions</w>
bo m</w>
al es</w>
,C on
we ight</w>
wat er
vari ous</w>
v esti
te ma</w>
te ce</w>
ta par</w>
s ity</w>
qu anto</w>
per di
per ce
odo li
man i
l ou
j ar
ho me.</w>
frien d</w>
foo t
fi gure</w>
ferves c
feliz .,</w>
f all</w>
excel ente</w>
ex cep
est al
er ía</w>
empres a.,</w>
dise ases.</w>
dade ,</w>
confi dence</w>
con segu
comp li
co p
co che</w>
co ber
cl as
ca ma</w>
brea k</w>
br a</w>
ay u
apo y
animal s.</w>
an o.,</w>
an .,</w>
ambi ent
Ho xe</w>
Comp rei</w>
,S el
ç ões.,</w>
z ap
x estión</w>
wa ste</w>
vo z</w>
veget ari
u p.</w>
tiemp o</w>
se ,</w>
s ão.,</w>
perfe cto</w>
pas te
pa pel</w>
on s.</w>
obje to</w>
o te
nos so</w>
no ti
n ing
my self.</w>
mo u</w>
j ob
impre sion
im post
i me</w>
expres s</w>
es crit
emocion al.,</w>
ele c
d i</w>
coul dn't</w>
cone ct
chil dren</w>
ca s
busin ess</w>
buil ding</w>
bo mb
bet ter.</w>
au ga</w>
at os</w>
ament o.,</w>
amen do
al s</w>
agre e</w>
ado ,</w>
ade qu
acti tu
- term</w>
í do</w>
ul l</w>
ty pes</w>
tra sp
titu de.</w>
technolo gy</w>
techni que</w>
te odoli
teodoli to</w>
t ando</w>
su ces
si ve.</w>
see med</w>
relax .</w>
ra in
ra do</w>
r ar
produ ción</w>
preocu pa
pos so</w>
pes o</w>
mosqu et
mosquet ão</w>
merca do.,</w>
melh orar</w>
m is</w>
lo sing</w>
identi dade</w>
i sh
high ly</w>
he iros</w>
happ y.</w>
fi ro</w>
fi el
f -
esqui var</w>
esco itar</w>
equip ment</w>
enci as</w>
en fo
e ver</w>
do or</w>
do .</w>
descu bri
decisi óns</w>
cultu res.</w>
ci tiz
chur ras
chocol ate</w>
car ab
c ía</w>
c ine</w>
ay be</w>
avail able</w>
amiz ade</w>
actu ar</w>
a par
S u
xo g
un o</w>
trans forma
tra tar</w>
streng th</w>
sh ort</w>
se en</w>
sa w</w>
ro u</w>
res t</w>
pássar os</w>
prá cti
po lici
pesso as.,</w>
par tes</w>
ort h</w>
or y.</w>
or den
odo lite</w>
na vi
n ú
je .,</w>
investi g
in se
imp er
ima gin
hel ped</w>
hear t.</w>
fi x
f ó
econo m
e fica
dis frutar</w>
coo ki
con seguir</w>
cir cu
chu va</w>
cen der</w>
carab in
c tion
br ush</w>
bar becu
appreci ate</w>
app lica
ament os</w>
altern ativ
algo dão</w>
al ing</w>
a tes</w>
a me
Est ás</w>
,E ach</w>
y ing.</w>
sensa ción</w>
seguri dade</w>
resul tado</w>
respe cto</w>
poli tical</w>
poin t</w>
pla ying</w>
pe ix
p il
on es</w>
ob ter</w>
li bre
imp e
imp acto</w>
gre at
gar den</w>
fru stra
fol low
esque zas</w>
es pre
ele ment</w>
de leg
comple tely</w>
co llabor
clou d</w>
cho ose</w>
child ren
chang ing</w>
bo la</w>
bo l</w>
ben .,</w>
accoun t</w>
,Sel f-
,M aybe</w>
,Co tton</w>
wat ching</w>
ve z
v as</w>
ul t</w>
to car</w>
tain ing</w>
star ting</w>
so lici
sh are</w>
sex u
seman a.,</w>
sa ur
re r</w>
pra zo.,</w>
políti cas</w>
po tis
pie ce</w>
pas sion</w>
obje ct</w>
nov os</w>
ne t</w>
moun tain
ju i
is ,</w>
ingredi ente</w>
influ enci
imp act</w>
im medi
i gre
hou se.</w>
h un
fotogra fi
exci ting</w>
et a.,</w>
es cal
ent s</w>
educa tion</w>
dow n
dade .",</w>
da m</w>
custo mer
cul ture</w>
come r</w>
cl ási
celebra te</w>
bac k
ba ter</w>
avent ura</w>
ap lica
anal y
amendo im</w>
acor do</w>
a in</w>
P en
"" .",</w>
ñ os</w>
é s.,</w>
y ."""</w>
vi de
usto miz
tri ed</w>
tren d</w>
te ach
t ting</w>
su gar</w>
sti tu
problema s.,</w>
poten ti
possi ble.</w>
p it
on as</w>
ob ra</w>
mu cho</w>
medi das</w>
me et</w>
mb o</w>
m ar.,</w>
lin gu
ingredi ent</w>
incre di
import a</w>
ilu min
hel o</w>
hac er
g ent
exemp lo</w>
ex presión</w>
ex clu
ex ag
estab le
es pon
emocion ado</w>
emo tions.</w>
dre am</w>
dis cus
deci sión.,</w>
de bi
cri ar</w>
cir cul
carabin er</w>
c k.</w>
bri l
bo t
bl es.,</w>
ba d</w>
ant ar</w>
an za.,</w>
agradeci do</w>
a índa</w>
Qu i
,""" We</w>
â ni
wel l.</w>
v o.,</w>
ud ar</w>
to p</w>
ta ción</w>
sti c</w>
so un
sk y.</w>
sen se</w>
s wi
rique za</w>
res pira
recom men
re n</w>
pe d
par ty.</w>
pa cien
os .",</w>
necesit amos</w>
mb le</w>
liv es.</w>
liber dade</w>
hi on</w>
fun ción</w>
establi sh</w>
est ado</w>
es to</w>
er c
ent s.</w>
empres a</w>
dur o</w>
de más.,</w>
dan ger
d ress</w>
coraz ón</w>
cont ribu
con fort
comp ar
com fort</w>
ck s</w>
cin e
bri o</w>
boar d</w>
bil ity.</w>
bi bli
at ur
as ure</w>
al one.</w>
activ ity</w>
achiev ing</w>
T i
," O
" As</w>
w hist
vida ,</w>
v or</w>
us a</w>
un de
ti mate</w>
ta ste</w>
st an
spect ac
sk ull</w>
situ ations.</w>
si dade.,</w>
segu ro
sab one
sa ír</w>
re tener</w>
p leas
opini ón</w>
obxectiv o</w>
o il</w>
nuest ros</w>
mar abil
long -term</w>
la ugh
k en</w>
ith out</w>
in crí
he av
ha cia</w>
gre ater</w>
g s</w>
g ado</w>
for tal
f abri
espe l
es se</w>
equi po.,</w>
do g</w>
d ência</w>
d one</w>
crí ti
creativ ity</w>
cre ating</w>
coo per
conse quen
con gel
come zar</w>
co is
ch or
car ap
ca usar</w>
c unha</w>
br ing</w>
bibli ote
bi cicle
ben ef
ar á</w>
ape tece</w>
algu mas</w>
al u
al th</w>
al s.</w>
al king</w>
ab ra
a ke</w>
Po demos</w>
0 0</w>
,Pe an
,L et</w>
à s</w>
z ed</w>
w orth</w>
ver dade</w>
trans for
togra ph
to do.,</w>
tip os</w>
ta si
sport s</w>
sal u
sa fe</w>
reco ñe
películ a</w>
peace ful</w>
os os</w>
ori ent
m p</w>
is so</w>
in ho</w>
il lumin
ide a.,</w>
i as</w>
he ad</w>
h oriz
gu st
for te.,</w>
f ú
esti lo</w>
est res
es .",</w>
er ro
drin k</w>
deta il
des af
den tes</w>
da ,</w>
d ing.</w>
comunica ción</w>
commun ity.</w>
cloth es</w>
car ga</w>
br in
b b
ax e</w>
as k</w>
an áli
ad di
acu mul
acces s</w>
F i
,""" My</w>
" La</w>
vie w</w>
vibra tion</w>
ur y</w>
unde res
trabal har</w>
to ma
tesour o</w>
su p
show ing</w>
sal a</w>
s is</w>
s '</w>
responsi ble</w>
pi o</w>
na i</w>
mu se
moder n</w>
m ã
m ach
leav es</w>
le an
las t</w>
inte lli
go al</w>
glas s</w>
g ada</w>
fu er
fle xi
fi xo</w>
fan tasi
ex ax
e li
desaf í
da te</w>
d é
cor por
con ser
compro meti
cha mp
carre ira</w>
carap u
cap e</w>
bebi da</w>
ba st
av anz
ati vi
answ er</w>
an o
ac ter
ac cor
ac ariciar</w>
S in
Gu staríame</w>
Aqu ela</w>
,H is
,Every thing</w>
,E n
"A o</w>
ó ni
é fon
ári o</w>
xu í
who le</w>
van co</w>
val ores</w>
tri p</w>
to- me</w>
tel éfon
succes s
speci fic</w>
sola vanco</w>
soa p</w>
resour ces</w>
recuper ar</w>
re uni
re fu
re bo
qu ite</w>
pri va
prepar ing</w>
por que</w>
pe dir</w>
oursel ves</w>
os as</w>
neg ative</w>
necesi dade</w>
n er.</w>
musi cal</w>
mu dar</w>
moment s</w>
l ti
inter nacion
inspira tion</w>
in tentar</w>
gi cal</w>
fol low</w>
fa ir</w>
exag ger
espe cí
esco va</w>
emocion al</w>
dream s.</w>
di ñe
deber ías</w>
d y</w>
d ul
có mo</w>
cy cle</w>
contro lar</w>
contro l.</w>
citiz en
ci dad
carapu ço</w>
ca se</w>
ca ,</w>
be y</w>
be ach.</w>
av am</w>
atmo sp
at é</w>
anten na</w>
anten a</w>
an a.,</w>
al co
a gu
Pare ce</w>
An helo</w>
,L e
," P
ó le
ç ã
x usti
with in</w>
wea ther</w>
vol un
v ation</w>
uni vers
un s</w>
tou ch</w>
ti r</w>
tamb ori
t ar.,</w>
sub esti
sti r</w>
se as
sabone te</w>
rela cion
rece i
re al</w>
pro fi
play er</w>
pa ci
p ir
ori a</w>
op per</w>
one 's</w>
o fe
mu tu
mo tor
me tros</w>
interes ante.,</w>
influ en
in cer
ho ok</w>
gover n
gh t
gal o
experi ence.</w>
ex pla
ex change</w>
estra té
e thi
des cri
deci sion</w>
da ma
custo mer</w>
cri ti
co u
co i
ca used</w>
be hin
bast ante</w>
b an</w>
are i</w>
ar m
aque les</w>
ap ne
anz ol</w>
amo sou</w>
advent ure</w>
acon te
aca b
ac tion</w>
a ir
P or</w>
O u
- se</w>
,W e
,Th ank</w>
,T o</w>
,F ear</w>
z ir</w>
y ed</w>
wat er.</w>
wat ch</w>
vo ice</w>
vi são</w>
v on
von ta
tran qui
to ,</w>
te ll</w>
smi le</w>
se par
sa i
reci pro
que .,</w>
prog res
pra ia.,</w>
poli ce</w>
peri go
pequen as</w>
op cións</w>
noi se</w>
n .,</w>
me ters</w>
la v
ir .,</w>
inv it
incre ase</w>
i ras.,</w>
ho je.,</w>
fraca so</w>
fi ed</w>
diver sity</w>
dish es.</w>
di a.,</w>
de fe
de cre
da .",</w>
creati vidade</w>
ción ,</w>
ce o</w>
ce ."</w>
ca viar</w>
c ure</w>
bir th
bi qu
be come</w>
be ach</w>
bandi t</w>
bal ance</w>
ar qui
ab adi
Sin to-me</w>
Pen so</w>
,H appiness</w>
,C opper</w>
,"W ithout</w>
,"T o</w>
"S e</w>
xo go</w>
tiv a</w>
t w
sustain able</w>
surpri se</w>
sentir me</w>
rela x</w>
reci a</w>
ra is.,</w>
ra id</w>
qu alidade</w>
prote ger</w>
pas o</w>
p a.,</w>
oth er.</w>
ofre cer</w>
offer s</w>
ob jetos</w>
n on
n am
mul ti
medi at
m in</w>
lo grar</w>
l le
l abor
l ab
it amos</w>
imp ac
ig n
ho s.,</w>
hi droplan
hidroplan o</w>
for ce</w>
flo res</w>
famili a.,</w>
f in</w>
espinaf re</w>
es tion
ener xía</w>
ef fort</w>
dis cu
dimen sión</w>
di vin
di r
di g
di cir</w>
der s</w>
demo cra
credi to</w>
conse cu
co ida
cho cola
ce gon
camin o</w>
c hat</w>
bo th</w>
biqu ín
be d
b ú
at ure</w>
ari as</w>
ant s</w>
all .</w>
ag ar
af raid</w>
acci dent
L ev
Apren der</w>
A credito</w>
/ she</w>
,T ru
,P ro
,H ave</w>
,B e</w>
ñ as</w>
zap atos</w>
wee k
w he
verdade iro</w>
ver s</w>
valu es</w>
trans paren
tiv a.,</w>
the odolite</w>
tem or</w>
sur vi
st o.,</w>
sombr o</w>
sle ep</w>
signi fican
se ñ
se cre
resul t</w>
rest ri
responsab ilidade</w>
read ing</w>
re min
qui .,</w>
produ cts</w>
presen ce</w>
pre pa
plant as</w>
plan s</w>
par que</w>
ningu én</w>
manage ment</w>
li sten
le vel
jo y</w>
it ing</w>
it al</w>
f fer
exp li
et s</w>
dist in
dimen sion</w>
de red</w>
consi der</w>
con fu
ci as.,</w>
ba i
as sombro</w>
apro ve
ami go</w>
adi ante.,</w>
ac compli
abil ity.</w>
abadi a</w>
óti ma</w>
À s</w>
wor ks</w>
whist le</w>
w an
us ados</w>
trabal ho.,</w>
ter o</w>
t ou</w>
see k</w>
sali va</w>
sa í
resist ant</w>
re search</w>
re de</w>
prefer ida</w>
p an</w>
or din
ol er
nó s.,</w>
nego ci
mm ing</w>
mel lo
ma tic</w>
l s</w>
je it
j e</w>
inter cambiar</w>
in for
heli có
helicó p
heli cop
h á
fac e.</w>
espa da</w>
ent al
el y</w>
decision s</w>
deci di
cump ri
cultur as</w>
constru ír</w>
confi den
con sul
comple te</w>
comparti r</w>
compa ñ
cois as</w>
coci ña</w>
clean ing</w>
cha ma
ca do</w>
c tions.</w>
bod y.</w>
beauti ful.</w>
ayu da</w>
axu da.,</w>
ativ a.,</w>
ati vidade</w>
at or</w>
as se
a th
R o
F o
Es se</w>
Es pero</w>
,His /her</w>
,H u
,""" I'm</w>
ú lti
ze peli
zepeli m</w>
x er
x en
w rit
tra i
surro un
solu cionar</w>
so ft</w>
servi ce</w>
ser á</w>
saú de.,</w>
sacri fi
sa ,</w>
s ?</w>
ro er</w>
relationshi p.</w>
regul ar</w>
realiz ar</w>
re mol
pun to</w>
pres sure</w>
posi ble.,</w>
pin heiros</w>
pa recia</w>
opportuni ties.</w>
nolo gy</w>
má is.,</w>
mone y</w>
mi d
mes mo
mac ar
ma stro</w>
m all
lu gar.,</w>
ll o</w>
li der
j o.,</w>
gu ar</w>
gi ft</w>
gen t</w>
fa ilu
every thing.</w>
estr és.,</w>
disco ver</w>
dis poñ
de teñ
da tos</w>
come za</w>
ci u
che a</w>
ch nology</w>
cal ma</w>
ca ta
ca bal
c lear
are a.</w>
ar mar</w>
ar gu
análi se</w>
an s</w>
al tura</w>
ain da</w>
achi e
a i
a co
To dos</w>
M i</w>
G ra
,W alking</w>
,P ine</w>
,M o
,Fri end
,"I n</w>
"C ando</w>
ñ o.,</w>
ç o.,</w>
wonder ful</w>
war d</w>
vi su
toler ate</w>
to dos.,</w>
st ori
son ar</w>
soft ware</w>
so .",</w>
situ acións</w>
sh op
respe ct.</w>
reco gni
prepar e</w>
prepa red</w>
pi ques</w>
opini on</w>
n ti
músi ca.,</w>
me ."</w>
m ó
l ate</w>
knowled ge</w>
j ol
in toler
in a.,</w>
i .,</w>
honesti dade</w>
ho li
helicóp tero</w>
helicop ter</w>
h ri
grow th.</w>
ga star</w>
fron t</w>
fri gi
for ça</w>
equip amento</w>
en d.</w>
elec tr
e j
dispoñ i
deser ve</w>
desa jeit
debi do</w>
d ge</w>
curren t</w>
cultu ras.,</w>
cuis ine.</w>
cu estión</w>
cous as.,</w>
costu me</w>
conti go.,</w>
col he
ci al.,</w>
cer tain
c ent</w>
bi sco
ben efici
atten tion.</w>
ati ence</w>
arre bat
ac tion.</w>
ac es</w>
ab bey</w>
ab and
De bes</w>
"P or</w>
xar dín</w>
wh ite</w>
veces ,</w>
vali oso</w>
us to</w>
tí pi
transport ation</w>
ten ho</w>
tamb ém</w>
s ter</w>
run ning</w>
ris k</w>
religi ão</w>
ran ge</w>
propi o</w>
preci sa
pi z
pi r</w>
ori gin
medi ção</w>
medi cin
m ero</w>
lin e.</w>
kno wn</w>
jol t</w>
informa ción.,</w>
in spir
ignor e</w>
hy droplan
hydroplan e</w>
gra ti
goal s</w>
gi f
g am
fú t
forwar d</w>
fla vor</w>
fi t</w>
fi ght</w>
fear s</w>
fa il
est rel
ener gy.</w>
en quanto</w>
emp at
e at</w>
dí as</w>
do min
dis post
creati vi
cre mall
corre r</w>
confi gu
con for
comport amento</w>
com un
che o</w>
cata pul
ca ste
be i
ar on</w>
api to</w>
an os</w>
an ks</w>
amon g</w>
ab les</w>
Ten ho</w>
J á</w>
De ix
C or
,N o
,G o
," You</w>
," F
óle o</w>
áfi co</w>
you ."</w>
we ar</w>
w ron
tre at
trasp aso</w>
ter no
st one</w>
st al</w>
spea k</w>
sp ace</w>
si st
sho es</w>
seguro /a</w>
re almente</w>
ra is</w>
quei jo</w>
qual ity.</w>
pue den</w>
proxe cto.,</w>
pro per</w>
pri or
posi tion</w>
pen ci
peli n</w>
p pelin</w>
ner v
m ,</w>
libre .,</w>
li ña</w>
j á</w>
inte gr
inf la
i es</w>
humil dade</w>
han ds</w>
ha ir
gu it
funda ção</w>
fr í
fotografi a</w>
fortal e
fin ding</w>
f ran
exerci se</w>
every one.</w>
estable cer</w>
est o.,</w>
espre me
especi al.,</w>
esco it
er ros</w>
ental he</w>
engan char</w>
en s</w>
ef for
des mor
cremall era</w>
constru ir</w>
com ún</w>
cion al</w>
cion al.,</w>
chang e.</w>
chall en
bi kin
bebi das</w>
bat h</w>
av an
are s.,</w>
antas y</w>
al one</w>
al ar
aju dam</w>
ag ora</w>
S i
M ant
,Pean uts</w>
,H on
,Co mm
," E
," B
, Ne
xe ito</w>
x ulgar</w>
underes timate</w>
tin ha</w>
tien e</w>
ter api
tast y</w>
swor d</w>
swe et</w>
su ficien
su ave</w>
st op
sorri so</w>
so le
sing ing</w>
simp ly</w>
signi fica</w>
sever ance</w>
seri es</w>
se ja</w>
ri ght.</w>
res er
refres can
que da</w>
prote cción</w>
preven ir</w>
po e
person as</w>
p ped</w>
o sas.,</w>
nú mero</w>
mul ation</w>
motiv ación</w>
mir ror</w>
mello res</w>
lim its</w>
lan ter
is so.,</w>
in sp
impres sive.</w>
igual dade</w>
human a.,</w>
guar ante
físi ca</w>
fac ing</w>
esp ir
es o</w>
en ds</w>
emocion ante.,</w>
e ."</w>
docu ment
disa p
da ção</w>
da ily</w>
coura ge</w>
coffe e</w>
ck ed</w>
ci ca
bat ter
bac k.</w>
ation ."</w>
at titude.</w>
arre pio</w>
ari dade</w>
apo i
an te.",</w>
alegr ía</w>
acon che
ab ilidade</w>
a segur
a pa
a k
T ra
L as</w>
De ber
,W h
,S cien
,Friend ship</w>
zi pper</w>
z io</w>
you ,</w>
w s</w>
viax ar</w>
vez es,</w>
ty pical</w>
tor n
ten dência</w>
t ation</w>
some times</w>
solu cións</w>
societ y</w>
sh el
se le
s ões</w>
s low
righ ts</w>
respe ito</w>
remol que</w>
prote ction</w>
proces so</w>
pre gun
positiv a</w>
plac es.</w>
perso a.,</w>
ped ra</w>
par k.</w>
pa se
p t</w>
outr o</w>
oll ar</w>
o xi
o lo
nuest ras</w>
nee ds.</w>
na ve
montan ha</w>
mo de
mistak es.</w>
medica tion</w>
me mb
lo ,</w>
life ,</w>
ir rit
intern ational</w>
instru ment</w>
influen ced</w>
inclin ación</w>
gro w</w>
ga ñ
frigi deira</w>
flavor .</w>
fac endo</w>
f it
expres ar</w>
experi ment
espe cial</w>
esp í
es s
er a
en ro
en e
efficien t</w>
di cir
desig n</w>
dent ro</w>
da do</w>
cra t
consi dered</w>
clo se</w>
ci vi
cer ca</w>
ce re
casti dade</w>
capa ci
c ket</w>
c ción.,</w>
bri ght</w>
bor ra
bar co</w>
axe .,</w>
ap ar</w>
am an
al gun
afe ctar</w>
ab an</w>
a i</w>
T al
T V</w>
Sent i</w>
C hri
C are
,Hon esty</w>
é tica</w>
vonta de</w>
vo ca
visi t</w>
ve hi
u ses</w>
tu a</w>
tra pé
tr a</w>
t un
sti ty</w>
stal actite</w>
son g</w>
sol ving</w>
so r</w>
so fi
shi ver</w>
sa pati
s sor
ro cha</w>
ris co</w>
responsi bility</w>
respon s
re ale
re ad</w>
proje ct</w>
produ cts.</w>
practi ce</w>
pra ia</w>
posi bili
pl en
pe ti
palab ras</w>
os ing</w>
net work</w>
ner vi
natur al.,</w>
n av
mul tip
men ti
m mer</w>
job .</w>
ir m
ho l
heav y</w>
gr and
gi c</w>
g ou</w>
frien d.</w>
favor ,</w>
fantasi a</w>
fac er.,</w>
expect ativ
estal actite</w>
espreme dor</w>
espir itu
espel ho</w>
e di
drag óns</w>
desmor on
d y
customer s.</w>
curi o
cre ación</w>
cora ção</w>
comple tamente</w>
co res</w>
ca me</w>
bisco itos</w>
bar ul
b i</w>
b er</w>
b ag
avi ar</w>
are a</w>
apo io</w>
an os.,</w>
amon ton
ado res.,</w>
ach ing</w>
a hon
F u
Es sa</w>
E res</w>
,Per severance</w>
,P atience</w>
,D is
,C re
,"Th is</w>
í li
â mi
ár vo
year .</w>
war m</w>
wan ted</w>
ver ing</w>
ur ban
u ra.,</w>
u .,</w>
tu ra.,</w>
tradi tional</w>
thro at</w>
tern al</w>
ten sion</w>
t est
t amos</w>
swe et
su re.</w>
su fici
streng th.</w>
stra ción</w>
sin x
si to</w>
senti do</w>
reale jo</w>
re gre
ra mient
próxi mo</w>
pres sing</w>
pre sa</w>
pos sí
pe los</w>
par k</w>
os ity</w>
nu mber</w>
no t
necess ary.</w>
mista kes</w>
me lo
liqui dar</w>
libr os</w>
li sta</w>
le t
journe y</w>
ir má
in s</w>
h and</w>
gi ves</w>
gar gan
ga ve</w>
físi ca.,</w>
fun .</w>
ferrament as</w>
faci l
f at
exax er
ex is
ent os</w>
di stra
depor te</w>
deber íamos</w>
deber iamos</w>
de part
dar k</w>
cu i
cour o</w>
consider ar</w>
con sci
co vered</w>
co s
challeng es</w>
care ful</w>
car ried</w>
cambi os</w>
bran ch</w>
biquín i</w>
be ing.</w>
ba se
axeit ada</w>
au t
as í.,</w>
am .</w>
algú ns</w>
al le
afe ct
af terno
ad vi
acumul ação</w>
ac tions.</w>
a present
a ci
Tal vez</w>
Neces itamos</w>
G o
E sto</w>
,Te chnology</w>
,I s</w>
,C aviar</w>
," I'm</w>
í an</w>
É s</w>
x ente.,</w>
was hing</w>
w ha
vers ati
ur ora</w>
uni on</w>
un certain
trapé zio</w>
traba jo</w>
to s,</w>
throu gh
sub je
stron g
st as.,</w>
so phi
simp le
seri ous</w>
se res</w>
repu gn
rapi da
públi co</w>
potenti al</w>
pho tograph
perspectiv a</w>
performan ce.</w>
pati ence</w>
partici p
paix ón</w>
p ron
our o</w>
ou me</w>
onesel f</w>
obxectiv os.,</w>
má qu
monta ña</w>
mol ho</w>
ment os.,</w>
man ten
m -
ll as</w>
la ción</w>
it y."</w>
it os.,</w>
inter net</w>
inspira ción</w>
in vi
imp ul
hur t</w>
go l
gal ho</w>
ga in</w>
fun ction</w>
fru it</w>
flow ers</w>
finan ci
fest a.,</w>
fac tor
f éri
esp uma</w>
equili bra
equi pe</w>
empe zar</w>
emo tion
emo ción</w>
electri c</w>
e ep</w>
dor a.,</w>
diferen te</w>
der .</w>
den te.,</w>
de pois</w>
dar k
cooki es</w>
const ante.,</w>
const ant
compa ñe
co cin
cloth es.</w>
cli ente</w>
chi f
can sado</w>
cabe za</w>
bú s
behin d</w>
as sa
any more.</w>
aliz ar</w>
a er
Po do</w>
,L igh
,G ra
,C y
,C ho
,A r
í fi
é .,</w>
yo un
xun tos.,</w>
vo i
vi sión</w>
velo cidade</w>
ve ,</w>
vali osa</w>
val or
v amos</w>
tri ste
tra pe
ten dencia</w>
teléfon o</w>
tar de.,</w>
ta ,</w>
t able.</w>
su é
su a
st ro
spe ed</w>
sp on
solu tions</w>
soci ais.,</w>
so lo</w>
se ren
se gun
s ad
respe ctar</w>
relax ar</w>
re new
re mos</w>
re lo
re e
re des</w>
rag ons</w>
ra ce</w>
r un</w>
qu é</w>
qu er
propi ciar</w>
profi s
produ ção</w>
pro jetos</w>
plant s</w>
per ten
pas sion
oursel ves.</w>
one ,</w>
ol low</w>
nuest ro</w>
nee d.</w>
mudan ças</w>
mu ch.</w>
min i
mar ca</w>
m ble.</w>
l led</w>
impro ve.</w>
i u</w>
ho xe.,</w>
heal th
hab il
ha mb
h ão</w>
h es</w>
gu ide
grou p</w>
great est</w>
gi ving</w>
ga ñar</w>
g es</w>
fla g</w>
fas t</w>
fam íli
f ar</w>
ey es</w>
el o.,</w>
effe ctiv
e i
drag ão</w>
difíci l.,</w>
diferen te.,</w>
di et.</w>
desser t</w>
de vem</w>
d ."""</w>
coun tri
conne cted</w>
confi ar</w>
con vi
con ten
commit ted</w>
co no
cir c
cica tri
ces .,</w>
caste lo</w>
cast le</w>
can ti
ca cho
ca bri
cabri to</w>
c ted.</w>
c all</w>
bu t
begin ning</w>
barbecu e</w>
ban deira</w>
balan ced</w>
b ar</w>
at a
amin ar</w>
al g
affe cted</w>
ad ora</w>
acti vidade</w>
ab solu
Mant én</w>
I 'll</w>
E uro
De vemos</w>
,W ater</w>
,"Th ere</w>
" Às</w>
ç os</w>
ári os</w>
án .,</w>
wor ds</w>
wea k
w on't</w>
w is
tw o</w>
ti cs</w>
thou gh
ten da</w>
te at
te ach</w>
tambori m</w>
sty le</w>
stud y</w>
str y.</w>
st res
sophi stica
sin ton
sin tas</w>
sha pe</w>
s cri
s cho
ro ,</w>
ris cos</w>
resist ente</w>
remédi o</w>
redu zir</w>
ra da</w>
r ú
plan .</w>
plac es</w>
p os</w>
ou .,</w>
obstá cu
obje ctive</w>
o ?,</w>
má tica</w>
mor ro
mo inho</w>
mi ll</w>
mas co
man s</w>
main taining</w>
macar rão</w>
lo ved</w>
ll ing</w>
lit erat
ligh thou
li que
li es</w>
kin d</w>
k et
investig ación</w>
inf lam
indu stry.</w>
il led</w>
il .</w>
identi ty</w>
hist ory.</w>
h rag
glob al</w>
g ente</w>
ful l
far ol</w>
fac er
fa z</w>
f ur
explor e</w>
es cri
empe z
emp loy
do or
dispost os</w>
dire cción</w>
di af
diaf rag
desser t.</w>
descubri r</w>
des cober
de man
de a</w>
coun try</w>
consi st
churras co</w>
chur ch</w>
cha ir</w>
cami ño</w>
c ê
blu e</w>
behavi or.</w>
ban ho</w>
ar se.,</w>
ap hrag
ang el</w>
al ma.,</w>
af ron
ado .",</w>
admi re</w>
a urora</w>
a sed</w>
a se
a ir.</w>
S é</w>
Qu é</w>
I ra</w>
,D ragons</w>
"S en</w>
á veis.,</w>
ze it
y s.</w>
x ía.,</w>
vizin h
vizinh ança</w>
vi das.,</w>
v est
utiliz ados</w>
ur ban</w>
u ten
tre pi
tre e</w>
thin k.</w>
te mb
tal king</w>
suces so</w>
streng th
st ress</w>
sou l.</w>
sh ed</w>
ses sion.</w>
s al</w>
ro le</w>
requ est</w>
requ er</w>
refle xi
ra in.</w>
prime iro</w>
play ed</w>
pi led</w>
pas ado</w>
org ul
ofe re
no s.,</w>
nam on</w>
mone y.</w>
mi c</w>
me dos</w>
mar avi
li ña.,</w>
le t's</w>
le on</w>
le mbr
le iro</w>
in depen
igu ana</w>
ign orar</w>
i ght.</w>
hor as</w>
hel me
hac e</w>
ha ve.</w>
gru po</w>
gargan ta</w>
ga me.</w>
f ying</w>
expl orar</w>
exagger ate</w>
esper anza</w>
es tiv
es condi
ent reco
enjo ying</w>
ener gi
emer gen
elé ctri
easi ly</w>
drag on</w>
dis far
di go</w>
des ex
danger ous</w>
cur so</w>
cuida do</w>
corre ct</w>
comuni dade</w>
co ok</w>
co che.,</w>
cli mb
clar a</w>
cen a</w>
car .</w>
cap aces</w>
can ela</w>
bo ss</w>
bo res</w>
bo as</w>
ba th
ar ma
apreci ar</w>
an ça.,</w>
an jo</w>
al o
al ma</w>
advan ta
ade ira</w>
adap t</w>
ad d</w>
activi dades</w>
ac ción</w>
B raz
,Wh y</w>
,T ry</w>
,O ne</w>
,H er</w>
ç ado</w>
ári as</w>
z ona</w>
yo ga</w>
xun tos</w>
win do
vibra ção</w>
vi das</w>
vi ct
v én</w>
v aso</w>
un d.</w>
u ccess</w>
trepi dação</w>
tranqui li
tiv as</w>
tion ,</w>
through out</w>
t ul
t ort
supp ort
stron ger</w>
sto res</w>
sp in
sol .,</w>
situ a
siste ma.,</w>
simple mente</w>
sign al</w>
sauda ble.,</w>
res post
res ,</w>
quick ly.</w>
que ix
promo te</w>
pro ce
pres ar</w>
pe l
pant urri
organiz e</w>
organi zar</w>
opini ons</w>
neighbor hood</w>
natur ale
na da.,</w>
mi st
measu res</w>
marabil lo
life ."</w>
le ta</w>
langu age</w>
la s.,</w>
jui cer</w>
is .",</w>
inter pre
in ste
immedi ate</w>
ide as.</w>
hi po
he iro</w>
g in</w>
fút bol</w>
fres co</w>
fr ying</w>
fer ro</w>
exi ge</w>
espinaf res</w>
es por
enten do</w>
emp reg
dream s</w>
do res.,</w>
disco very</w>
develo p</w>
des .,</w>
de vemos</w>
de ce
d ú
d ru
cur ta</w>
cri tical</w>
cr y
constant ly</w>
compren sión</w>
comp re
co ordin
co ment
che ck</w>
cha stity</w>
caus a</w>
can ción</w>
ca ve
ben e
ban do
auto esti
au té
ativ ity</w>
ar ing</w>
an no
am or.,</w>
ahon dar</w>
a ted.</w>
Pre firo</w>
Ex presar</w>
,S e
,P re
,"S uccess</w>
" Ás</w>
ç as.,</w>
áre a</w>
á sti
xog ador</w>
xe o</w>
w r
wr ite</w>
w ide
vitam in</w>
vi able</w>
valu ed</w>
vac y</w>
v ing.</w>
tru th</w>
tre ated</w>
to xi
tin a</w>
tent ando</w>
tas k</w>
ta ção</w>
t ame</w>
sup pose</w>
sufici ente</w>
su e
stor e</w>
star ía</w>
spir itu
soli d
so zin
simp lici
sen ón</w>
segur a</w>
sci ssor
saud ável</w>
sau ce</w>
s car
rela ted</w>
reco ver</w>
reci bir</w>
re fin
prog ress.</w>
pro s
presen ted</w>
practi cal</w>
poten cial</w>
polici es</w>
po ño</w>
pes ca
paí s.,</w>
pare de</w>
médi co</w>
mi steri
mej orar</w>
me ?</w>
m al.,</w>
loc al.,</w>
lique ur</w>
li gi
le gen
le ,</w>
ki lo
ke e
ju di
inclu de</w>
in timi
importan cia</w>
high -
hi m
hel p
harmon y</w>
ha bl
g y
fir me
fil led</w>
favor ito.,</w>
fac ía</w>
fa uno</w>
fa un</w>
fa i
et ting</w>
especí fi
er ing</w>
equili brio</w>
enfermi dades</w>
doen ças</w>
do ce</w>
dis positivo</w>
difíci l,</w>
devi ce</w>
develop ment</w>
dere itos</w>
d res
ct ure</w>
correct amente.,</w>
cor po.,</w>
consu mo</w>
compa ix
com um</w>
co me.</w>
ce i</w>
c en</w>
br ings</w>
borra cha</w>
boo ks</w>
bo w
bo at</w>
be ver
batter y</w>
axudar nos</w>
as t</w>
ar chi
analy sis</w>
an te,</w>
ale ão</w>
al on
ag es.</w>
ado /a</w>
activi ties</w>
acces o</w>
ab sor
a re.</w>
a paren
Y our</w>
Su poño</w>
Po der
D é
,Scien ce</w>
,Ex pressing</w>
,Co mp
," C
' ve</w>
á ni
zeit onas</w>
ze ppelin</w>
xusti za</w>
work ing.</w>
w ine</w>
w here.</w>
vol ver</w>
vitam ina</w>
vi br
ve zes</w>
v ex
ul y</w>
u ght</w>
transport ar</w>
tr uly</w>
them ."</w>
tesour a</w>
ten do</w>
temb lar</w>
su ce
sou l</w>
significan t</w>
semp re.,</w>
see ing</w>
se ct
scien ce</w>
sa il
s é</w>
s and</w>
rápi do.,</w>
relax ing</w>
refres hing</w>
rece ita</w>
re aking</w>
priva cidade</w>
preven ción</w>
pre en
penci l</w>
pa z.,</w>
pa in.</w>
pa gar</w>
organiz ed</w>
obje cts.</w>
o sos.,</w>
o res.,</w>
o ce
ning ún</w>
n í
mean ing</w>
m or</w>
m ers</w>
lighthou se</w>
libr ary</w>
ke pt</w>
in va
in scri
ide n</w>
i ding</w>
gre en</w>
fil me</w>
fer mo
expla in</w>
est oy</w>
er r
ent o.,</w>
e ficien
dí as.,</w>
dis fra
des ollar</w>
des fi
de pu
de mostrar</w>
de m
de ep</w>
d ente</w>
cu t</w>
cro w
countr y.</w>
cor ri
cont acto</w>
conhe ci
compu ter</w>
che es
at o
at ar</w>
at 's</w>
ambi que</w>
am o</w>
algu i
al ambique</w>
acu dir</w>
ab oli
E ra</w>
Dé ix
,T ime</w>
,M any</w>
,D e
,"I t</w>
"P ara</w>
ísti cas</w>
é gan
y .,</w>
vi sion</w>
vi n</w>
ver án.,</w>
vari ety</w>
v ine</w>
transp ort</w>
to w
tex tu
taref a</w>
tar ta</w>
ta ught</w>
swe ater</w>
sué ter</w>
super fici
st os</w>
spe e
so la</w>
sk in.</w>
sion s</w>
sil enci
si de.</w>
scre en</w>
s cen
rou pas</w>
ri to</w>
relationshi ps</w>
rel la</w>
re gar
ra ça</w>
qu in</w>
qu ar
proper ly.</w>
progra ma
pro pó
pp ing</w>
positiv a.,</w>
port a</w>
plani ficación</w>
perso al.,</w>
paste l</w>
pa sta</w>
pa ir</w>
oportuni dades.,</w>
o ín</w>
nen os</w>
ne ak
mudan ça</w>
mes sa
men sa
medica mento</w>
maravi l
mar in
manag ed</w>
ma ca
loo ked</w>
k is
interi or</w>
human os.,</w>
hor se</w>
históri a</w>
her ramient
he ight</w>
he ad.</w>
h es
gra f
ge o
favor ita.,</w>
fa gas</w>
estrel as</w>
estab an</w>
essenti al.</w>
esfor zo</w>
es enci
enfren tar</w>
enfo que</w>
enci as.,</w>
el as</w>
dou b
do m.</w>
diferen tes.,</w>
di do</w>
descober ta</w>
des cen
defen se</w>
defen sa</w>
d ry</w>
d ando</w>
cui dar</w>
coñe cer</w>
col ler</w>
cli máti
ci an</w>
challen ge</w>
car ro</w>
car ni
cal .</w>
ca ixa</w>
busin ess.</w>
bicicle ta</w>
bibliote ca</w>
behavi or</w>
be fo
bando leiro</w>
b s</w>
av estru
aten ção</w>
aro ma</w>
ar d</w>
af for
admira ble.</w>
ad ing</w>
S e
E ar
A d
,Tru e</w>
,T aking</w>
,Re ligi
,M ake</w>
,D es
,Cre ativity</w>
,B ut</w>
,A l
égan o</w>
ã os</w>
yoursel f
wh y</w>
water fall</w>
w all</w>
visit ar</w>
viol ino</w>
vi o</w>
ver dade.,</w>
va ult</w>
univers al</w>
un ning</w>
u se.</w>
trai ler</w>
tra in
tr y.</w>
tool s</w>
to res</w>
to ma</w>
tig res</w>
tem po
techni cal</w>
spi t</w>
soci ais</w>
slee p.</w>
sk in
sin cer
si ze</w>
seri e</w>
sapati lha</w>
sa ve</w>
s mo</w>
s crat
s ado.,</w>
rápi do</w>
risk s</w>
ri ca</w>
reg ano</w>
re d
ra io</w>
presen te.,</w>
pr an
po es
pes qui
perfect a</w>
pa usa</w>
p est</w>
or égano</w>
on es.</w>
oli n</w>
nee ded</w>
motiv ation</w>
most r
mo bi
mañ á.,</w>
man age</w>
lo .",</w>
listen ing</w>
liber ar</w>
la var</w>
know ing</w>
kitch en</w>
kilo meters</w>
it y,</w>
it as.,</w>
interest ing.</w>
innov ation</w>
incredi ble</w>
incre as
inclin ation</w>
in ar</w>
ig ers</w>
hon est</w>
har d
ha m</w>
gro und</w>
gi en
g ía</w>
funda ment
free dom</w>
fica tion</w>
fascin ating</w>
exha us
estr és</w>
es ca
erc íci
equ ação</w>
el a.,</w>
diver sity.</w>
di ag
des lu
des ent
da ys</w>
criti ci
cre o</w>
convers ation</w>
consu mp
confi r
con clu
comuni dade.,</w>
comun hão</w>
compas s</w>
colabor ación</w>
col or
clo ck</w>
cion es.,</w>
ci lin
choi va</w>
children .</w>
char u
car ry</w>
c un</w>
be l</w>
ba si
ay ud
as un
ar s</w>
apne ia</w>
ani l</w>
ag e
ag ain</w>
adver si
aconche go</w>
ac es
a wa
a te
Ti ña</w>
Per dín</w>
M u
Des oín</w>
Apren de</w>
Ad mi
,T oler
,Lear n</w>
,K eep</w>
,F ollow</w>
,"I t's</w>
! "</w>
w k</w>
vida .",</w>
vi ver</w>
vi olin</w>
versati le</w>
u ri
tr áfico</w>
toler ar</w>
tiv as.,</w>
thou ght</w>
ther ap
th ing
tex tura</w>
televi sión</w>
ta ken</w>
t ó
t ."""</w>
stru ctu
sport s.</w>
soñ os.,</w>
solu tions.</w>
sol it
sofi stica
sob revi
sil ên
s neak
s n
s at
rest .</w>
rela ção</w>
regul ar
ra di
r aridade</w>
que res</w>
pu b
progra ma</w>
princi p
pre to</w>
pol tr
paí s</w>
par que.,</w>
pa is</w>
p is</w>
ne quin</w>
movi e.</w>
mis mo</w>
mi gra
mellor ar.,</w>
medi ante</w>
me et
man nequin</w>
man ex
man equi
manequi m</w>
lon ger</w>
lear ning.</w>
lead er
langu age.</w>
kitch en.</w>
kis s</w>
ir re
inver no.,</w>
inv est</w>
inte gri
in namon</w>
impresion ante.,</w>
import ância</w>
imper ador</w>
i mos</w>
histori a.,</w>
go al.</w>
g es.</w>
g ate</w>
ful ly.</w>
for on</w>
for get
foot ball</w>
fill ing</w>
fi cial</w>
fac elo</w>
f las
expres sion.</w>
ex ercíci
event os</w>
estra te
especi arias</w>
equ ation</w>
entreco sto</w>
en ig
en fron
empat ía</w>
e ta
e res</w>
e fervesc
dr os</w>
do dge</w>
dish es</w>
determin ación</w>
dest apar</w>
des bloque
deb ru
cultiv ar</w>
culin ária</w>
contagi ous.</w>
cont amin
cont act</w>
con mi
con ci
comp et
commun ity</w>
come ç
co sas</w>
co ma</w>
co bra</w>
cine ma</w>
cien t</w>
challeng e.</w>
ce mos</w>
ccu mulation</w>
car s</w>
camp o</w>
camiñ o.,</w>
c ari
bús sola</w>
buil t</w>
brea thing</w>
bal on
bai ac
baiac u</w>
att ac
ativ a</w>
ar ía</w>
ar tes
ar ran
appro ach</w>
answ er.</w>
algu ém</w>
alcan çar</w>
al most</w>
ail ure</w>
ag es</w>
activi ties.</w>
acti ve</w>
ac er</w>
aber ta</w>
ab el
a moun
Fo i</w>
Chri st
C aminar</w>
Al gu
A índa</w>
,P lease</w>
,Ne ver</w>
,N ature</w>
,C innamon</w>
,C han
,A ccumulation</w>
y 's</w>
xe fe</w>
xar dí
was h</w>
wal king</w>
wa iting</w>
via jar</w>
vari edade</w>
vari as</w>
u d</w>
u ar</w>
tru th.</w>
traball ando</w>
to morro
them sel
th ese</w>
ter rit
teach es</w>
te cido</w>
sy mp
su f
star s</w>
spen ding</w>
socie dad</w>
sinton ia</w>
show s</w>
ser ía</w>
se a.</w>
sauda ble</w>
satisfac tori
s pre
s che
s and
ro mp
rit mo</w>
ri sa</w>
relo xo</w>
re xi
re lease</w>
r ing</w>
qu í
qu ente</w>
pur su
prácti ca</w>
pro vação</w>
precisa m</w>
poltr ona</w>
pesso a</w>
pequen a</w>
par ts</w>
par nos</w>
over coming</w>
op tions.</w>
on to</w>
on o</w>
ofere ce</w>
ob li
o ca
o c
ni eve</w>
n a.,</w>
mp li
mon u
mi m.,</w>
mel ho
ma ter
m ort
lon ing</w>
ll ar</w>
li za</w>
li st</w>
le d.</w>
l ation</w>
justi ce</w>
inter pon
inten se</w>
inste ad</w>
impres sion
ima ge</w>
im poñer</w>
im pose</w>
human o</w>
human o.,</w>
gu staría</w>
gh .</w>
garden .</w>
ga mes</w>
fish er
fi gh
fa v
est s</w>
er or</w>
empres as</w>
eli min
ele mentos</w>
efici ente</w>
dri ving</w>
dow n.</w>
desenvol ve
des cre
deix ou</w>
da qui.,</w>
d ar.,</w>
creativ ity.</w>
cre ation</w>
coraz ón.,</w>
constru ction</w>
colhe it
clon agem</w>
cli mate</w>
classi c</w>
chang ed</w>
ch á
cer tas</w>
cent ro</w>
cap tu
br as</w>
bol so</w>
bikin i</w>
b ru
aut oriz
atra vés</w>
as soci
artes an
arqui te
are ia</w>
animal .</w>
al tamente</w>
al mente.,</w>
agre e
adventu re.</w>
activ ar</w>
ac tions</w>
a ware</w>
R u
Ou vi
.. .,</w>
,Th at's</w>
,R ace</w>
,C a
,A n</w>
! ",</w>
ó li
z os.,</w>
year s</w>
y er</w>
x estion
vide o</w>
vi ão</w>
vesti do</w>
ver se</w>
ver .,</w>
ve ."</w>
val oriz
v u
usu ally</w>
ur ing</w>
tri p.</w>
to .",</w>
tig ela</w>
th anks</w>
ten sión</w>
temperat ura</w>
t é</w>
sweet ness</w>
stu ck</w>
stri ches</w>
stori es</w>
sti mul
so ño</w>
sexu al</w>
sex an</w>
segu ro.,</w>
segu e</w>
se con
salu da
ri d</w>
ri cos</w>
result ados</w>
responsi bility.</w>
responsi bili
respe to</w>
reli able</w>
re dor</w>
rar ity</w>
ra n</w>
pu iden</w>
própri a</w>
profis sion
presen za</w>
pos ing</w>
por t</w>
permiti r
performan ce</w>
pas sa
pa do</w>
p lu
opini on.</w>
objetiv os</w>
objetiv os.,</w>
my ster
mu ch
mostr ando</w>
mobi le</w>
mo da</w>
mm er.</w>
medi a</w>
me asure</w>
mark eting</w>
m ou
lá pis</w>
lo gr
lo go</w>
li sh
jun tos.,</w>
interes ante</w>
influ ir</w>
improve ment</w>
i sto
hour s</w>
gú rate</w>
guarante e</w>
go es</w>
go .</w>
ga vião</w>
forwar d."</w>
follow ing</w>
far inha</w>
er se</w>
ener gia</w>
en as</w>
employ e
electr óni
ele vação</w>
ele var</w>
ele cción</w>
efervesc ência</w>
ef fervesc
econo my</w>
do ç
do me</w>
do /a</w>
difficul t,</w>
di vine</w>
desenvol ver</w>
des par
des infe
des frutar</w>
depen ding</w>
demon stration</w>
dee pest</w>
decidi r.,</w>
da mos</w>
cri an
correct ly.</w>
cor do</w>
configu ra
con vin
con f
comi da.,</w>
cli ma</w>
circu m
circ un
cilin dros</w>
challeng es.</w>
cel ular</w>
can d
camin ho</w>
c ally</w>
bow l</w>
bas ket
axud arte</w>
axeit ado</w>
avestru ces</w>
ativi dades</w>
ation ,</w>
aten uar</w>
at r
as sion</w>
arre pen
aprendiz axe</w>
appear ance</w>
an cient</w>
all y.</w>
ali viar</w>
ali mento</w>
al o.,</w>
actitu d</w>
aco pl
accor ding</w>
ab urri
ab les.,</w>
a to</w>
De ixa</w>
Admi ro</w>
A si
,T igers</w>
,Religi on</w>
,Fri ends</w>
,Ca stration</w>
,C ustomiz
,C loning</w>
, U
úni ca.,</w>
ên cias</w>
én .,</w>
águ a.,</w>
wor ds.</w>
we b
volu me</w>
vo cê
vari os</w>
va ia</w>
up ,</w>
u e
trape zo
tra ining</w>
tiv o.,</w>
ti di
ti c.</w>
taref as</w>
ta kes</w>
sus pen
sur f
sh ort
sh ine</w>
ses sion</w>
self- este
sabor osa.,</w>
s now</w>
s ing.</w>
s ando</w>
r us
quick ly</w>
profesion al.,</w>
produ ce</w>
prob ar</w>
pro pri
pro por
pre vent
perspe ctive.</w>
per sist
par ties</w>
pa per</w>
p si
oportuni dad</w>
ol ógi
nor mal</w>
ne w.</w>
natu rais.,</w>
my steri
mil ity</w>
mi m</w>
mi ento</w>
ment a</w>
mell ora</w>
me tas</w>
me m
mani pul
ma xi
ma st</w>
ma j
limi t</w>
le que</w>
l ã</w>
l a.,</w>
ju mp
irmá n</w>
invol ved.</w>
innov ative</w>
in tu
imp lica
i ros.,</w>
i dio
i der
i dade.,</w>
human os</w>
histori cal</w>
herramient a</w>
gú sti
g ora</w>
g ir
fre gar</w>
fon tes</w>
fo tos</w>
fo le</w>
fest y
fe ita</w>
fe ed
f light</w>
expres são</w>
espí rito</w>
er ro</w>
er ra</w>
enti re</w>
eng ine
emocion ante</w>
effervesc ence</w>
doç ura</w>
do m
difíci les.,</w>
dicir .,</w>
di eta</w>
determin ation</w>
despar ra
deslu mbr
des potis
deleg ate</w>
defin i
de v
de d.</w>
da s,</w>
cé u</w>
cul pa</w>
cre cemento</w>
costu mes</w>
con scien
comunica ção</w>
comp are</w>
commit ment</w>
co st
clu m
cli ente.,</w>
ch ope</w>
ce u</w>
car acter
car .,</w>
cal m
cacho eira</w>
ca ctos</w>
bu ena</w>
boo k.</w>
befo re.</w>
auté nti
auth oriz
auth ori
au tori
au mentar</w>
at h</w>
arro j
archi te
ap ós</w>
anima is.,</w>
an gústi
an .</w>
amor ti
aliz ación</w>
affor d</w>
afe tar</w>
adap t
achie ve
ac ti</w>
abor da
a zeitonas</w>
a ul
a -
Gra zas</w>
.. .</w>
,R espe
,O striches</w>
,Hu mility</w>
,Customiz ation</w>
,Comm union</w>
,C acti</w>
,Be ing</w>
,Ar t</w>
," No</w>
" El</w>
" E
árvo res</w>
z on
worl d
w ouldn't</w>
voi ce.</w>
vir tude</w>
vi agem</w>
ve z.,</w>
trapezo id</w>
traba jo.,</w>
tra ta</w>
toler ancia</w>
te red</w>
te ?,</w>
t ari
symp to
stron o
stor y</w>
so c
skill .</w>
situ ations</w>
si ster</w>
si gue</w>
se gre
scissor s</w>
s po
s now
ru ído</w>
righ ts.</w>
resul ts.</w>
respon se</w>
relax ar.,</w>
reci pes</w>
reas on</w>
re med
remed y</w>
re ality.</w>
re alidade</w>
quil ô
progra m</w>
pro ve
pre vir</w>
potis m</w>
poder osa</w>
plani ficar</w>
pi pe</w>
persever ance.</w>
peix e</w>
pe lo
par ty
pant al
obje ctiv
no stal
neighbor s</w>
ne a</w>
mor ning.</w>
me do.,</w>
manu al</w>
ma s.,</w>
m ari
low .</w>
lo t.</w>
liv ro</w>
lin ders</w>
limp ar</w>
li festy
lean ing</w>
lands cape</w>
j os</w>
it ,</w>
integra ção</w>
inte re
influenci ada</w>
ima xin
horiz on
heal thi
he ad
har ves
h usar</w>
go o
ge d.</w>
galo chas</w>
funda mental.,</w>
fres h
fi x</w>
fer i
fe w</w>
fail ure</w>
fabri c</w>
fa ith</w>
expe cted</w>
ex tra</w>
est er
espin ha
espect ador</w>
esgo t
escondi din
er ."</w>
equ it
elé tri
easi er</w>
e valu
diver si
dis fru
dis coun
despotis mo</w>
descri bes</w>
descre ve</w>
demon stra
del ve</w>
decisi óns.,</w>
debru çado</w>
de más</w>
de cep
da qu
d ness</w>
cú mpli
cá mar
cumpri r</w>
cul ar</w>
cu ent
ct ura</w>
cra f
correct o.,</w>
conver sa</w>
conti go</w>
communica tion.</w>
come çar</w>
colheit adeira</w>
co .",</w>
ccu p
cat ch</w>
can ary</w>
can ario</w>
camp ain
cal f</w>
bro ther</w>
bomb óns</w>
bi en</w>
bi a</w>
be m-
be ll</w>
be er</w>
barul ho</w>
bandi do</w>
axudar che</w>
av ali
atmosp here</w>
assi stir</w>
app le</w>
ani vers
amorti guar</w>
altern ative</w>
ali ve.</w>
alg unha</w>
ale gri
al tos</w>
afron tar</w>
affe cts</w>
adap tar
abili ties.</w>
V i
U m</w>
Apren dín</w>
A gra
,Respe ct</w>
,H i
,Fo od</w>
,F antasy</w>
,"Th e
," M
óti mo</w>
éti cos</w>
âni o</w>
ári o.,</w>
á- lo</w>
á til</w>
writ ing</w>
well- being.</w>
veri ficar</w>
ve te</w>
vali osa.,</w>
v árias</w>
v as
underst and
tren ó</w>
tre at</w>
topi c</w>
ther ,</w>
th ri
t ly</w>
só li
sub stitu
su mmer.</w>
stre et</w>
st ,</w>
spen t</w>
so on</w>
smo ke</w>
siste mas</w>
sion s.</w>
si do</w>
sh ining</w>
sex as</w>
sensa ção</w>
se co</w>
se ."</w>
scre w</w>
s y</w>
s s.</w>
s na
s li
s ces
revi e
respost a.,</w>
reflexi on
re lev
re alidade.,</w>
que i</w>
públi co.,</w>
pó tamos</w>
preser vação</w>
present .</w>
preci sar</w>
pre judi
pran cha</w>
pow er.</w>
por to</w>
pleas ant</w>
plan eta.,</w>
pie ces</w>
persever anza</w>
perm itas</w>
per dendo</w>
per da</w>
pati ence.</w>
par ties.</w>
par af
or ía</w>
oportuni dade.,</w>
opini óns</w>
on ,</w>
ol .</w>
ocu parnos</w>
obstácu los.,</w>
ob ras</w>
neces si
ne a.,</w>
mer i
mac he
ma gical</w>
m est
lu x
ligh ts</w>
li qu
li b
la de
l â
l y."</w>
k id</w>
j u</w>
j es</w>
is mo</w>
in as</w>
importan tes.,</w>
hipo pótamos</w>
hab ía</w>
hab er</w>
ge m.,</w>
ga re
g er.</w>
g ed</w>
fru its</w>
fort un
fore ver.</w>
focu sed</w>
fl our</w>
fin ish
fest as</w>
fest a?,</w>
fascin ante.,</w>
fas hion</w>
fall ing</w>
f antas
ey es.</w>
exerci cio</w>
en ri
en da</w>
ele ments</w>
e quality</w>
e go
e ating</w>
du ro.,</w>
do ctor</w>
dis infe
dificul ta
di abó
des bo
den t</w>
decora tive</w>
de ad
cura ción</w>
cora gem</w>
contro l
consequen ces.</w>
coffe e.</w>
co ol</w>
clar a.,</w>
circul ar</w>
ci po
cer to</w>
can dle</w>
ca t</w>
birth day</w>
basi c</w>
ba il
b ási
attra ct</w>
arm chair</w>
ar ren
aprove itar</w>
apren der.,</w>
appear ance.</w>
any thing.</w>
aliment ação</w>
al ta.,</w>
agra da
agar rar</w>
ac cura
ab ces
ab a
X ulgar</w>
S he</w>
L e
J ap
G ali
A u
,E mp
,E mo
,D o
,C he
,""" You</w>
ón .",</w>
é r
ç al</w>
áti cos</w>
ás si
ár bores</w>
year s.</w>
xestion ar</w>
x es</w>
wo o
wi de</w>
vi ven
vel y</w>
v am</w>
ustomiz ação</w>
tur ned</w>
tre asu
trat amento</w>
trabal hos</w>
tor y</w>
ti vidade</w>
ti do</w>
this ?</w>
televi sion</w>
sy cho
surroun ded</w>
strate gy</w>
stor y.</w>
sti ca</w>
sophistica ted</w>
so mou</w>
silên cio</w>
sen s
seguri dade.,</w>
se cure</w>
sacrifi ce</w>
sa y.</w>
s éri
s ca
ro ider
ro b
resour ces.</w>
regener ação</w>
regener ation</w>
r ust</w>
quí mi
quilô metros</w>
públi ca.,</w>
pu és</w>
próxi ma</w>
proper ly</w>
pro ud</w>
prime ira</w>
pres são</w>
preci se</w>
pre visão</w>
pre sión.,</w>
post ura</w>
popul ares</w>
políti ca.,</w>
plan et.</w>
piz za</w>
pi cni
pas sion.</w>
paraf uso</w>
panturri lha</w>
p ad
out door</w>
os saur
or n
opportun ity.</w>
op ti
obstá culos</w>
obstac les.</w>
ob ri
o .</w>
no l
ni gh
nego ti
necess ar
neces itas</w>
má gi
mu ita</w>
most rou</w>
mode lo</w>
mo di
mis mo.,</w>
mes mos.,</w>
mes ma</w>
melho res</w>
medica l</w>
measu re
mean ing
me eting</w>
me ch
mas sa
ma ke
ma .</w>
ma .",</w>
m í.,</w>
m on</w>
m es.,</w>
lu z
lev ant
lea ther</w>
le x
irm á</w>
interes ted</w>
inspira tion.</w>
impost or</w>
imp le
i mediat
hap pen</w>
habl ar</w>
habili dades.,</w>
ha ir.</w>
guit ar
gu il
gu e
go ,</w>
gi ven
fl ying</w>
fish ing</w>
fear s.</w>
estrate xi
espect ac
es curi
era ser</w>
er ,</w>
enter tain
ensin ar</w>
en o</w>
e ven
e dade.,</w>
dispoñi ble</w>
diabó li
di á
di vi
desfi lade
desent ona</w>
delici ous.</w>
deb es</w>
de vor
da n</w>
d ding</w>
cur a</w>
cul o.,</w>
cr ânio</w>
cont ar</w>
constru ção</w>
conne cting</w>
compromi so</w>
col ors</w>
col ori
co xin
co ast
co ,</w>
chá cara</w>
cele iro</w>
cegon has</w>
cave ira</w>
casti çal</w>
cap ace
ca re.</w>
ca .",</w>
bo x</w>
benef its</w>
be coming</w>
be a
bar n</w>
ball o</w>
b os</w>
audi ence</w>
ar g
apro xi
appro ach.</w>
appro ach
anti oxi
ansi oso</w>
am work</w>
alon g</w>
ador a.,</w>
a ther</w>
a fi
F ai</w>
C ustomização</w>
B o
? "</w>
,We alth</w>
,Te amwork</w>
,T ra
,S h
,He aling</w>
,Des potism</w>
,Cy linders</w>
"" ",</w>
" M
" Cada</w>
ón ,</w>
ân cia.,</w>
z ing.</w>
z e.</w>
youn g</w>
xo gar</w>
xe ar</w>
wron g</w>
wis dom</w>
vin ho</w>
vie w
ven tion</w>
vegetari an</w>
veces .,</w>
v ar
usi as
un forget
u do</w>
tre asure</w>
tou ri
tort a</w>
to tal
to que</w>
terapi a</w>
ten go</w>
te za</w>
tam an
ta re
t ant
su s</w>
su jet
stre t
st ate</w>
soun ds</w>
sor ry</w>
son s</w>
solici tude</w>
soli d</w>
sil ence</w>
senti mentos</w>
secur ity.</w>
s ín
s m.</w>
s cent</w>
rou tin
rou pa.,</w>
ro .",</w>
rin con
ri es.</w>
ri a</w>
ren de
religi ous</w>
ree dom</w>
recuper ación</w>
recom en
reco very</w>
reci pe</w>
rece ive</w>
re m</w>
raz ón</w>
r hy
rhy th
qu ere</w>
pur pose</w>
pu ffer
puffer fish</w>
pri ce</w>
pre so</w>
pra zo</w>
po t
plan e</w>
pil a</w>
perspe ctive</w>
pe da
pa th.</w>
p ti
orgul lo
ob tain</w>
o fer
neces itar</w>
n ad
mo to
mo bili
mient ras</w>
mech ani
me ta</w>
me dos.,</w>
mane iras</w>
manage ment.</w>
man te
main ten
ma te
lanter na</w>
la w
knowled ge.</w>
jun tos</w>
ju e
inte grar</w>
ini ci
in ju
impro ving</w>
impres sive</w>
ide as.,</w>
i do
humil ity</w>
ho b
high .</w>
hi m.</w>
ha do</w>
gui de</w>
go at</w>
gif t.</w>
gi es</w>
ge ome
fu r</w>
for zas</w>
for ces</w>
fo am</w>
exclu si
ev it
est ran
esque cer</w>
er ros.,</w>
er ra
environ ments.</w>
en tic</w>
empa thy</w>
emo cións.,</w>
ej erci
efectiv a</w>
ed it
diñe iro</w>
dis pon
dire ction</w>
din ner.</w>
di as</w>
determin e</w>
des per
demo stración</w>
decre ased</w>
de bo</w>
dades .",</w>
d den</w>
d .,</w>
custo mers</w>
cul p
ct ur
cru mble.</w>
coura ge
cor ren
comp on
co z
circum stan
children 's</w>
cel l
canti dade</w>
c king</w>
bro ke</w>
br us
avent ura.,</w>
auth entic</w>
ar ru
ar mos</w>
angústi a</w>
an cia.,</w>
ame a
ambient al</w>
am ar</w>
allow ed</w>
algui en</w>
ador o</w>
adi cion
ade ar</w>
acu diu</w>
activ ity.</w>
ac cu
ac cións</w>
ac ción.,</w>
a w
a thy</w>
Si empre</w>
Po de</w>
P ara</w>
En cender</w>
E mp
De ci
Braz ili
A somou</w>
A meri
,Toler ance</w>
,Su gar</w>
,R a
,In te
,Chan ge</w>
,C leaning</w>
,A re</w>
," A
, Un
" O
í ce
çã o.",</w>
xo gos</w>
x í
x inha</w>
win ter</w>
we ap
w inter
vizin hos</w>
vie w.</w>
vi sta.,</w>
ul ar.,</w>
tu m
tr as</w>
topi c.</w>
to oth
ti cs.</w>
this ."""</w>
the re's</w>
ter ra</w>
ter ms</w>
temperat ure</w>
tecnolo gia</w>
techni qu
te ma.,</w>
te a</w>
ta da.,</w>
t ú
su mmer</w>
sto re.</w>
sti cer
sticer co
star ts</w>
speci es</w>
sp illed</w>
solid ari
si eve</w>
shop ping</w>
shar ing</w>
sen sor</w>
saud ável.,</w>
sal vação</w>
sal a.,</w>
respira ción</w>
relax ante.,</w>
regre t</w>
re husar</w>
ra mi
quil í
pur cha
proje cts.</w>
pro jet
pri v
prefer i
po sed</w>
po mb
pomb os</w>
po ida</w>
pl as
pit ting</w>
pesca dor</w>
perfe c
pequen o</w>
pe t</w>
pe l.,</w>
pat ter
pas sar</w>
par a
op en
obxectiv os</w>
necesit an</w>
n y</w>
n in</w>
mo ves</w>
mo od.</w>
mi r.,</w>
memor y</w>
me ."""</w>
man do</w>
lí qui
lâ mp
ll s</w>
li ght.</w>
len ço</w>
leg al</w>
lear n.</w>
l les</w>
l la
l ing
ke y.</w>
k ,</w>
justi fy</w>
j a.,</w>
it ting</w>
ir ds</w>
intu i
intern al</w>
intent ando</w>
intelli gen
inst in
insp ire</w>
ino vação</w>
in stitu
in side</w>
identi fy</w>
há b
hi bi
he /she</w>
harves ter</w>
hand s.</w>
ha wk</w>
ha s.,</w>
grow ing</w>
gra vidade</w>
gra v
ge ons</w>
g l
g as.,</w>
fun ction
free dom.</w>
fol has</w>
firme za</w>
fi re</w>
exerci se.</w>
exaxer ar</w>
est avam</w>
es cape</w>
es cap
equ itable</w>
empres ari
econom ía</w>
e quilí
dur a</w>
dra w
diverti do.,</w>
disfar ce</w>
dise a
dis gui
din ossaur
difficul t.</w>
differen ces</w>
differen ce</w>
dif íce
di ce</w>
devor ador</w>
develop ment.</w>
descen deu</w>
der ro
delica te</w>
deleg ado</w>
decora ção</w>
decora tion</w>
de t
de jar</w>
d á</w>
cú ti
custo miz
cor rup
constru í
consecu encias</w>
confi ança</w>
co up
cl ari
ci os</w>
che mi
cha .,</w>
ce .",</w>
cano e</w>
cano a</w>
can cel
ca so</w>
ca ix
ca bo</w>
c tos.,</w>
brea k.</w>
bra si
boo ks.</w>
bio mbo</w>
bi l</w>
b rou
aç ões.,</w>
av es</w>
atra er</w>
arren da
ari a.,</w>
aparen cia</w>
anxi ety</w>
antioxi d
amoun t</w>
ami go.,</w>
ami ga</w>
ami ento</w>
al lo
a ster
Qui ero</w>
Des enganchar</w>
Al gun
A gora</w>
,O lives</w>
,Ligh ting</w>
,F reedom</w>
,Co con
"S i</w>
" Este</w>
úni co</w>
óri o</w>
án do
á veis</w>
z er</w>
z a,</w>
you ."""</w>
y e
wha t's</w>
week end.</w>
w on</w>
viol encia</w>
vibra ting</w>
vi ve</w>
vers ity</w>
v i</w>
utiliz ar</w>
usu arios</w>
us ando</w>
up da
un cover</w>
treat ment</w>
total mente</w>
ti vi
ti fica
ti car</w>
thou gh</w>
territ ori
tec nol
t óxi
t y,</w>
t s,</w>
t rou
surpri sed</w>
sur preen
sur a</w>
success ful</w>
spon ge</w>
sp ace.</w>
situ ation
simp les</w>
sho es.</w>
sha red</w>
sh ir
sh ine.</w>
sh in
seri ous
see king</w>
se t.</w>
se cu
sal tar</w>
s am
roman tic</w>
risk .</w>
rin das</w>
ri es</w>
respe cto.,</w>
remédi os</w>
reli eve</w>
relax ing.</w>
refle ction</w>
rece mos</w>
re tain</w>
re ly</w>
produ ctiv
prior ity</w>
prepar ados</w>
prepar ado</w>
predi ct</w>
preci ous</w>
possi ble
por k</w>
pol lu
po co</w>
pi s
pi ck
personaliz ed</w>
person ality.</w>
person a</w>
persever ance</w>
pen eira</w>
pen ding</w>
pelo ta</w>
pal av
pa vio</w>
p ing.</w>
out do
ou 're</w>
or nada</w>
or ix
op timi
oll os</w>
of fe
obser v
obli g
nego cio.,</w>
n ur
musi c
moment s.</w>
mo tor</w>
mo del</w>
mo da.,</w>
me tas.,</w>
man ter
m í
liqu or</w>
leav ing</w>
lam p</w>
l ul
l esti
lesti ck</w>
k new</w>
k er
invest ment</w>
inst al
in dis
in compar
in ci
ima g
igre ja</w>
identi ty.</w>
i s.</w>
i o
hu mor</w>
hu g</w>
ho od.</w>
hel ping</w>
he ren
harmon i
har d.</w>
gener ate</w>
g ul
g le</w>
g est
fó ra</w>
fro tar</w>
fish .</w>
fir m
fi ero</w>
fear .</w>
facil mente</w>
fa ther</w>
event s</w>
est ar.,</w>
est alo</w>
escri bir</w>
enou gh.</w>
eng ine</w>
en or
en ga
en cender</w>
eleg ant</w>
e ze</w>
diñe iro.,</w>
diver sas</w>
discipl ina</w>
dev ou
determin ation.</w>
desig n.</w>
des pe
dent es.,</w>
den ce.</w>
de la</w>
da dos</w>
d ou</w>
cry stal</w>
coñe cemento</w>
coñe ce
cozin har</w>
cour se</w>
cor tar</w>
contro l.,</w>
conten to</w>
cont os</w>
confor to</w>
compre en
com bater</w>
co exist
clási ca</w>
clo thing</w>
clo ser</w>
classi cal</w>
cl ássi
ci ent
char acter
char ac
champ an
chama da</w>
ch ão</w>
car ne
cand lestick</w>
can te.,</w>
can dea</w>
cam aleão</w>
cali dad</w>
ca chi
bus cando</w>
bu en</w>
brou ght</w>
beau ty.</w>
be l.,</w>
bat ería</w>
basket ball</w>
b est.</w>
auto -
au ga.,</w>
ati ve.</w>
aten ción.,</w>
as í</w>
as king</w>
ar rincon
aqu i</w>
applica tion</w>
ambi entes</w>
al es.,</w>
agra de
afterno on.</w>
ac red
N o
M el
Cor ação</w>
Co mo</w>
Brazili an</w>
A se
A mo</w>
- to-
,S pitting</w>
,M ain
,Cho osing</w>
,C ould</w>
,C ar
,"D o</w>
," A</w>
" Ex
ó .,</w>
é po
zon a.,</w>
y a</w>
x encia</w>
x ar</w>
winter .</w>
windo w</w>
vo .",</w>
virtu e</w>
vi vo.,</w>
ve í
val .</w>
v as.,</w>
und ari
un ch
típi ca</w>
técni cas</w>
tu bar
tr á
ter s.</w>
technolo gical</w>
tal ento</w>
su fri
spi ce</w>
sor ry,</w>
soli dar
sin ta</w>
simp li
si óns</w>
sh e
secon d</w>
scien ti
s te.,</w>
s m</w>
ro l
ro ad.</w>
ri se</w>
ri de</w>
rebo te</w>
realiz e</w>
rapida mente.,</w>
r á</w>
r y.</w>
r on</w>
qui ck</w>
quen te.,</w>
qu estão</w>
pu zz
prote cted</w>
progres o</w>
prog ress</w>
profun da</w>
pro vo
pres sure.</w>
preci sion</w>
pre firo</w>
pre cau
possibili ties.</w>
posi tion.</w>
pos su
poli cy</w>
po sa</w>
po día</w>
pl y</w>
pesso al.,</w>
perso ais.,</w>
perce ive</w>
per man
paí ses</w>
pas ado.,</w>
parti do</w>
part ner</w>
palab ras.,</w>
pa g
p á
p ru
over w
ou se</w>
organiz ación</w>
opini ón.,</w>
obstac les</w>
nu mb
non -
neg ó
necessi dades</w>
ne ve</w>
n ational</w>
musi ci
movi es</w>
mountain s.</w>
motor cycle</w>
mo ved</w>
mo leta</w>
mi ze</w>
mi e
mere ce</w>
meet ing.</w>
me as
meas uring</w>
mani fest
make up</w>
mache te</w>
ma y
ma do</w>
ma ,</w>
loo ks</w>
li bre</w>
leas t</w>
le mb
lat er.</w>
lab i
la te.</w>
l y,</w>
justi ficar</w>
invol ved</w>
interes t</w>
interes s
inspira ção</w>
industri a</w>
in mediat
in fin
in esper
i led</w>
hour s.</w>
hon or</w>
her ir</w>
healthi er</w>
gr ãos</w>
go od.</w>
foun tain</w>
forma ción</w>
for ms</w>
for am</w>
for a</w>
fo llas</w>
fo li
fac ão</w>
exper to</w>
et s.</w>
et as</w>
estraté gia</w>
este a</w>
estab ilidade</w>
est ud
est re
er a.</w>
ent ly</w>
en sal
emp re
emo ções</w>
ele gan
e ma
e ag
discrimin ation.</w>
dig ital</w>
difficul ties</w>
diag no
desfilade iro</w>
desenvol vi
des pués</w>
der s.</w>
den i
delica tes
delica de
dee per</w>
de le</w>
dan os</w>
cómo do</w>
cre cer</w>
cre am</w>
continu ar</w>
consequen ces</w>
condi cións</w>
con temp
comp en
comp ati
comfort able.</w>
com en
colo car</w>
col or.</w>
co co</w>
cl ing</w>
ci do.,</w>
ci cl
cha me
ch es.</w>
cegon ha</w>
cat ador</w>
carni ça</w>
cambi o.,</w>
cam po.,</w>
ca ballo</w>
c alidade.,</w>
bu d
bru ñ
brasi le
blo od</w>
bl ack</w>
be l
ball .</w>
avan zar</w>
au ment
at o.,</w>
arti stas</w>
arri ved</w>
apren dendo</w>
ap enas</w>
anima do</w>
amen te.",</w>
aman sar</w>
alu mbrar</w>
aliz ed</w>
alco holi
al vation</w>
al to.,</w>
al go.,</w>
ag ne</w>
adi ante.",</w>
acces si
ac ú
S oy</w>
Pre fiero</w>
Po des</w>
P ero</w>
Ouvi ase</w>
J un
Est aba</w>
? ",</w>
7 .</w>
/ She</w>
- me</w>
,S t
,S har
,R unning</w>
,P o
,He /she</w>
,F in
,Emp athy</w>
,"E very</w>
" Co
ú ti
í fica</w>
é vete</w>
ári os.,</w>
á l
y ?</w>
x .</w>
wee k.</w>
weak nes
w ant.</w>
w all
vulner able</w>
virtu e.</w>
viol ence</w>
vehi cle</w>
val e</w>
us ão</w>
un expected</w>
u mb
tranquil o</w>
tra pped</w>
tr ás</w>
the ater</w>
textu re.</w>
temp os</w>
temp est
teat ro</w>
tas te.</w>
tain s</w>
t ali
sujet ar</w>
stru gg
st ac
spi ri
sour ces</w>
sor presa</w>
some thing.</w>
soft wa
so mb
servi zo</w>
senti do.,</w>
sent indo</w>
se t
sat ura
san grar</w>
sab e</w>
sa d</w>
ri ver</w>
reuni ón</w>
resi sti
reli xi
relax ed</w>
reg alo</w>
rapi de
queix o</w>
qu eri
pub lici
proxe cto</w>
propó sito</w>
projet o.,</w>
proje cts</w>
pro funda
priori dade</w>
pri ma
prima ver
presen ça</w>
pre da
practi car</w>
posi ção</w>
pon to</w>
pen a</w>
party ?</w>
part es.,</w>
ori gem</w>
on das</w>
of fen
oc ca
ni ght
neces sidade</w>
mó bil</w>
máxi mo.,</w>
máqu ina</w>
moder na.,</w>
mo on</w>
mo .",</w>
mis sion</w>
mi gos</w>
menti ra</w>
medi r</w>
materi ais</w>
man tener</w>
man era</w>
mal a</w>
ma gia</w>
ma du
ma ci
m na
lâmp ada</w>
loy al
loo k.</w>
llabor ation</w>
ll .</w>
literat ura</w>
lica ción</w>
le n</w>
le mon</w>
laugh ter</w>
la u
la sting</w>
ke ys</w>
jo go</w>
it s.</w>
ir á</w>
insul t</w>
infe c
imper fe
im mun
i geons</w>
hy gien
human as.,</w>
hon est
heal ing</w>
ha dor</w>
h í
h er.</w>
gro und.</w>
gam es.</w>
ga sol
fisher man</w>
fa ir
expectativ as</w>
exp an
ex ternal</w>
ex pen
ethi cal</w>
essen ce</w>
espon xa</w>
espect á
espa ço</w>
er ra.,</w>
er ia</w>
enter rar</w>
enfermi dade</w>
encontra do</w>
en sor
en señ
en rique
en o
emp ati
emo tion</w>
effor t.</w>
efectiv a.,</w>
educa tion.</w>
edi fici
e f</w>
dur as</w>
diá logo</w>
dise ño</w>
discu tir</w>
disap poin
dis play</w>
dire ct
dificulta des</w>
di es</w>
deslumbr ante.,</w>
desajeit ado</w>
des i
des atar</w>
dere ito</w>
depen der</w>
depen d</w>
decora ción</w>
de bili
de ,</w>
da ugh
cí r
cé lul
cy cles</w>
cus hion</w>
coxin has</w>
cont ac
consump tion</w>
confi anza.,</w>
condi tions.</w>
condi tion
con tex
con fl
coment arios</w>
com ú
com erci
col d.</w>
clum sy</w>
cli ents.</w>
cipo al</w>
choi ce.</w>
chame leon</w>
ce d.</w>
care er</w>
cal cul
cachi mbo</w>
ca se
ca br
c ân
brill ar</w>
brea k
bra ve</w>
bol ero</w>
bo lo</w>
bl an
bir d</w>
beli ef
be long
baix o.,</w>
b ab
autori dades</w>
ati vos.,</w>
aspe cto</w>
ar tí
ar me.,</w>
ar am</w>
ama zed</w>
am .,</w>
alle vi
all er
alegri a</w>
agri ão</w>
afe c
ad s.</w>
ad just</w>
abra zo</w>
aber to</w>
a propi
a compan
a cións.,</w>
S er</w>
Ro man</w>
P ue
P ro
P erci
O cu
N ada</w>
In tent
H ab
Fu e</w>
F un</w>
Est á</w>
B a
,W at
,T rust</w>
,S alvation</w>
,Re member</w>
,R el
,R eco
,N ow</w>
,M atur
,He /She</w>
,Co llaboration</w>
,C las
,A ll</w>
" D
​ ​
ú r
óxi ca</w>
ó is</w>
ífi ca.,</w>
én ero</w>
ári a.,</w>
á- la</w>
z as.,</w>
wor ked</w>
we aring</w>
w ish</w>
vo z.,</w>
visu al</w>
vi o
valu es.</w>
val ent
vaca tion.</w>
us adas</w>
univer se.</w>
tru mp
tro pical</w>
trabal ha
ton ight.</w>
tiv os</w>
the tic</w>
th ing,</w>
th ank</w>
ter mos</w>
ten den
tam bi
tal ent
t ac
t ?</w>
sty le.</w>
stres s
spiri t</w>
sp ort</w>
soñ os</w>
son o.,</w>
solu tion."</w>
soc cer</w>
sinx elo</w>
si ti
sent ín</w>
sche dul
risk s.</w>
restaur ante</w>
restaur ant</w>
respect ful</w>
redu cing</w>
recommen ded</w>
re war
re peti
re par
ra í
ra posa</w>
r ul
r g
pros per
propi as</w>
problem ,</w>
princi pais</w>
pri vacy</w>
preven ção</w>
posi bles</w>
po bre
plen a.,</w>
pi e</w>
ph y</w>
pes ar</w>
persever ancia</w>
permitir nos</w>
perfe ito</w>
per ci
pe .,</w>
paste is</w>
pase ar</w>
pa th
pa sión</w>
out ro.,</w>
organiz ation.</w>
offi ce</w>
nov a.,</w>
nor mas</w>
no so
no ctur
nav al</w>
n un
moment o.",</w>
mo ver</w>
mna si
mi sión</w>
mi cro
mesmo .",</w>
mat ter.</w>
ma is.,</w>
ma gn
lo ad</w>
ll a.,</w>
lit t
li ca</w>
leader ship</w>
lar go</w>
lands ca
la un
la da</w>
l ent
l ac
ju sta</w>
jo gos</w>
j ury</w>
it o.",</w>
it ate</w>
internacion al</w>
inter personal</w>
inter fer
integri dade</w>
integra te</w>
inspira ción.,</w>
innov ación</w>
ini ti
inf anti
in os</w>
in ed</w>
impres cin
impe dir</w>
il .,</w>
hu mor
hon esty</w>
home made</w>
históri as</w>
high- quality</w>
hear d.</w>
hand le</w>
ha ps</w>
ha bit</w>
grand mother</w>
gran de.,</w>
gra tion</w>
gare jo</w>
gar garejo</w>
g lu
fáci l.,</w>
fro itas</w>
friend ly</w>
flow ers.</w>
flas h
fin al.,</w>
fi re
fi ll</w>
feel ings</w>
feel ings.</w>
fat ores</w>
fall .</w>
failu re.</w>
fac elo.,</w>
fa ded</w>
f ing
exci ting.</w>
exces si
estu do</w>
esti ma
espa zo</w>
es quil
erc ress</w>
er ing.</w>
electri cal</w>
el .</w>
económi co</w>
ear ly</w>
e vol
e dades</w>
e cu
dú bi
door bell</w>
difíci les</w>
di et</w>
di as.,</w>
devou rer</w>
dest a
dem ôni
defen d</w>
de ter
de activ
de .",</w>
cultu res</w>
cultu ra.,</w>
cultiv ate</w>
cuida do
cozin ha.,</w>
cous a</w>
cou rag
cor ner</w>
convin ced</w>
convers ation.</w>
cone c
compas sion</w>
compani es</w>
comm uni
com for
coida do</w>
co ste
clar o.,</w>
cidad ani
chif res</w>
character is
chang es.</w>
champan he</w>
cen sura</w>
capaci dad</w>
campain ha</w>
caf é.,</w>
cabr itos</w>
c án
bon ito.,</w>
bi ke</w>
be came</w>
be at</w>
balon ces
ba ño</w>
ba g</w>
b low
az u
ay udar</w>
axud alo</w>
as ar</w>
aqu í
aphrag matic</w>
anxi et
allevi ate</w>
algun s</w>
alcoholi c</w>
al li
al ed</w>
agit ada</w>
ade l
ad es.,</w>
ac tor</w>
able ,</w>
abel has</w>
ab on
a per
T al</w>
S op
Ocu par</w>
Ha via</w>
Christ mas</w>
Ase gúrate</w>
A fri
2 .</w>
,The ir</w>
,S tor
,L o
,I m
,Gra titude</w>
,Every one</w>
,B reaking</w>
,B irds</w>
" N
" Des
últi ma</w>
ín dice</w>
éri o</w>
é ci
¿ Qué</w>
z ou</w>
y rami
wi ck</w>
well- being</w>
war m
w ri
volun te
vir .,</w>
vi ru
vers átil</w>
val ori
uten si
usti ce</w>
univer so.,</w>
unforget table</w>
u re.</w>
tur as</w>
triste za</w>
travel ing</w>
tradi cional</w>
tomorro w.</w>
to s
titu ição</w>
ti es."</w>
thre at</w>
tas k.</w>
ta .",</w>
t es.</w>
t amente.,</w>
t ados</w>
sun .</w>
stron g.</w>
stre et.</w>
st age</w>
spre ad</w>
spi cy</w>
sn ac
slow ly</w>
skin ning</w>
sin ce</w>
servi ces.</w>
seguri dad</w>
segu i
sear ch.</w>
schedul e</w>
salu d</w>
sad ness</w>
sab i
sa ir</w>
sa ciar</w>
s lation</w>
s ac
rápi da</w>
ru ral</w>
routin e.</w>
resour ce</w>
resi st</w>
res pir
rela j
recoñe cemento</w>
recei ving</w>
re medi
re main</w>
re fri
qu ali
pro gre
poñ ía</w>
pou co.,</w>
po cket</w>
pl at
pes ca</w>
perso al</w>
per cep
pens ar.,</w>
pens amentos</w>
pel liz
pare cer</w>
pacien cia.,</w>
pa st.</w>
pa rella</w>
pa i</w>
or al</w>
or ,</w>
opini ons.</w>
onesel f.</w>
on line.</w>
offi ce.</w>
of en
o un
nuev os</w>
movi es.</w>
mo to</w>
mo s
mir r
min er
mid dle</w>
medi a.</w>
mar k</w>
ma deira</w>
long er.</w>
liqui date</w>
level .</w>
lead s</w>
la p
l ing.</w>
j us
it ali
issu e.</w>
ira ,</w>
inter rup
ing ing</w>
ing ?</w>
ing ."""</w>
incre í
in esque
imp ida</w>
ima xe</w>
identi ficar</w>
human a</w>
han g</w>
habil it
ha n</w>
gu es</w>
gni tion</w>
ga to</w>
ga da.,</w>
g ando</w>
físi co.,</w>
fru tas</w>
fre qu
forma .,</w>
fo mentar</w>
felici dad</w>
feed back</w>
fe ll</w>
fascin ating.</w>
fac tor</w>
fa st
f íci
extre me</w>
experi ência</w>
experi encia.,</w>
expe ct</w>
exercíci os</w>
exci te
ex ecu
eti cs</w>
est rar</w>
est ra</w>
escol her</w>
escal ada</w>
er to</w>
equit ativa.,</w>
equilí brio</w>
en th
emb ar
ele s</w>
el y.</w>
ef fici
educa tional</w>
econom y.</w>
e vento</w>
e gg
do s.",</w>
diverti do</w>
discus s</w>
dire itos</w>
desenvolve mento</w>
desbloque ar</w>
desafí os</w>
des tituição</w>
des ga
des arro
der ly</w>
den de</w>
delici osa.,</w>
delicates sen</w>
deix a</w>
defen der</w>
dedica tion</w>
decep cion
de le
de la
de -
dama ge</w>
da zz
có digo</w>
cultur al.,</w>
cri stal</w>
countri es.</w>
corre ct.</w>
cora ção.,</w>
contro le.,</w>
conne ction.</w>
con tempor
compa res</w>
comp ra</w>
com u
com mon
col ors.</w>
coi sa</w>
coci ñar</w>
co de</w>
ción s.",</w>
ción s,</w>
cicl os</w>
cha mar</w>
cer tifica
cer ta</w>
cen ter</w>
celebra tion</w>
ce ñ
ce o.,</w>
care fully</w>
car go</w>
camp a
camiñ ar</w>
cabe ça</w>
bon ito</w>
bo undari
bl ame</w>
bei ju</w>
be b
bar ri
ba ñar</w>
autoesti ma</w>
auth enti
atr ás</w>
ari os.,</w>
aprendiz axe.,</w>
apoy a</w>
alo gue</w>
aliment os.,</w>
adecu ada</w>
ach es</w>
accor di
ac he
ac er
ac cións.,</w>
abri r</w>
T e</w>
Sop la</w>
S ó</w>
Po lo</w>
M i
Lev ant
H allo
En soño</w>
En g
Déix ame</w>
C ó
C ome
C ab
A gar
1 00</w>
0 .</w>
- free</w>
,V ol
,Reco gnition</w>
,R u
,P a
,J ustice</w>
,F ailure</w>
,Clas si
,C al
,B o
,A p
"" The</w>
ô mi
ã o.",</w>
z onas</w>
z a.",</w>
yourself ."</w>
wor n</w>
wil d</w>
w it
vibra va</w>
vi sto</w>
vi a.,</w>
verdade iros</w>
ver s.</w>
vari ar</w>
valu e.</w>
v ary</w>
us ,</w>
ur as</w>
ur ar</w>
ul tip
ul hador</w>
tubar ões</w>
trans cen
traf fi
tradi tion</w>
tra to</w>
tion ."""</w>
ti e</w>
ti c
thre w</w>
therap y</w>
th y.</w>
technolo gy.</w>
tambi én</w>
tal ent</w>
ta m</w>
sy n
support .</w>
supp or
sua ve.,</w>
su gar
su c
strength en</w>
star t.</w>
spiritu al</w>
spectac ular</w>
sou bo</w>
some times.</w>
sob ri
soa ked</w>
so sten
slee ping</w>
sin o</w>
significa do</w>
si s.</w>
shar p</w>
sensi tive</w>
segur anza</w>
seas on.</w>
scho ol</w>
s é
s now.</w>
s mo.,</w>
s es.,</w>
s care</w>
s cal
rou gh</w>
rg ani
remin der</w>
rela ción.,</w>
recommen d</w>
re plac
re gr
re dor.,</w>
re ality</w>
pro of</w>
pro cura
possible ."</w>
possibili ties</w>
plan tação</w>
pl ena</w>
person al.,</w>
person 's</w>
per í
per form</w>
per d
pen der</w>
pe ça</w>
pe zas</w>
partici pa
pal m</w>
pacien tes</w>
pac k
p sycho
p he
out ro
ou ri
organiz ation</w>
op ción.,</w>
one ."</w>
o tic</w>
ní vel</w>
no tar</w>
new s</w>
nerv ous</w>
necess ário</w>
mysteri ous</w>
moto cicle
motiv ation.</w>
mor ning</w>
mis sal</w>
mi x
mi ra
mes a.,</w>
ment ."</w>
melh or.,</w>
medi da</w>
me tal</w>
me an</w>
mai ores</w>
m b</w>
lo ck</w>
limi ted</w>
lider ança</w>
liber dade.,</w>
li dade</w>
li car</w>
lex is
lexis lación</w>
legen d
lear n
le va</w>
le gi
l úa</w>
l ad
k in</w>
k en.</w>
jo y.</w>
j an
j ac
itu de</w>
it ."""</w>
is co
isco itos</w>
ir on</w>
investi mentos</w>
instru mentos</w>
imprescin di
immun e</w>
il la</w>
human ity.</w>
hor n</w>
hor a.,</w>
ho o
ho bb
histori as</w>
hes itate</w>
her mo
he ar</w>
happen .</w>
han d.</w>
hamb úr
gor ge</w>
ga ção</w>
ga strono
ful filling</w>
fro z
friend ship</w>
fres ca</w>
fotogra f
for got</w>
fo x</w>
fal la</w>
fal ar.,</w>
f ly</w>
f as</w>
expect ations</w>
ex tin
evi dence</w>
esper ança</w>
especi almente</w>
espe tá
es qu
ensor ship</w>
en ,</w>
ego í
effectiv en
economi a</w>
e ding</w>
e col
e -
dura ción</w>
drin king</w>
diver sidade.,</w>
disco vering</w>
din ner</w>
diab éticos</w>
diab oli
di gni
di gn
di eta.,</w>
detal les</w>
destru ction</w>
dese ño</w>
descan so.,</w>
des ire</w>
des enganchar</w>
des .</w>
depen de</w>
delicade za</w>
deci diu</w>
deci de</w>
deb ulhador</w>
de p
de ."</w>
d ora</w>
cultu rais</w>
crow d</w>
creativi dade.,</w>
cre atu
cra ft</w>
countr ysi
constru ctive</w>
confli cts.</w>
concer t</w>
comunica ción.,</w>
compu t
compren der</w>
competi ción</w>
comp any
comb ine</w>
colle ctive</w>
collabor ation</w>
coci ña.,</w>
co heren
cli ents</w>
ción ?,</w>
ciu dad</w>
citizen ship.</w>
circun stan
cicatri ces</w>
ci gar</w>
ci gar
chi bat
chemi cal</w>
che w</w>
charu to</w>
char ge</w>
ch ron
ch es.,</w>
cer .</w>
cau sou</w>
care cer</w>
capa zes</w>
can s
camp ing</w>
ca de
bus y</w>
bruñ ir</w>
brill ante</w>
bra id</w>
bet ter
begin s</w>
balonces to</w>
b ín</w>
assi st
assa ult</w>
arti sts</w>
ar m</w>
apoy o</w>
apar i
anxiet y.</w>
an ese</w>
ament os.,</w>
alternativ a</w>
al titude</w>
age m.,</w>
ag ens</w>
advanta ge</w>
adi ante</w>
adequ ada</w>
ad s</w>
ach ment</w>
accoun t.</w>
ac cin
abor dar</w>
a fer
a cous
a !,</w>
Y or
U ma</w>
S o
Le mbr
Gali cian</w>
G ran
G ar
E les</w>
De vo</w>
De pender</w>
B us
B iscoitos</w>
3 0</w>
,Y ou're</w>
,W or
,V accin
,Shar ks</w>
,R ain</w>
,Per haps</w>
,No thing</w>
,Inte gration</w>
,Emo tional</w>
,Do es</w>
,Classi cal</w>
,C usto
,B a
,Al ways</w>
,""" Your</w>
,""" H
,""" D
"A índa</w>
" V
óri o.,</w>
ñ os.,</w>
x a.,</w>
wor d</w>
wo men
wide ly</w>
vol ati
vide o
ver de</w>
velo ci
ve hí
uti liza</w>
understand ing.</w>
un predi
unpredi ct
u ps</w>
tu ris
tri ste.,</w>
treasu re.</w>
tre mble</w>
to tal</w>
to s.",</w>
to mar
to day
tion s."</w>
ti ve.</w>
though ts</w>
the ma
ter ri
ten ti
t s."</w>
t .,</w>
syste ms.</w>
surpri sing</w>
suficien te.,</w>
su gg
su bi
stor k</w>
spect ator</w>
speci al.</w>
spe ed.</w>
soun d.</w>
so mos</w>
sh ing</w>
senti a</w>
secre t</w>
se al</w>
sacri ficar</w>
s low</w>
rí o</w>
ru les</w>
rol ler</w>
ro má
result ados.,</w>
respons able</w>
requi ren</w>
recei ved</w>
re solución</w>
re produ
re move</w>
re fe
re compen
re ."""</w>
rai sed</w>
publi c.</w>
promo ver</w>
proces o.,</w>
pro pos
prin t</w>
preser ve</w>
preser v
pr áti
poli cy.</w>
poes ía</w>
plant ation</w>
pl ing</w>
perí o
per mi
per das</w>
pequen os</w>
pe le</w>
pe dr
pas s</w>
pal me
paisa xe</w>
pa s.,</w>
ou vi
other s,</w>
ort u
orgullo so</w>
or to</w>
op ções</w>
of f.</w>
obje tivo</w>
nuev as</w>
necesari o.,</w>
navi g
naturale za.,</w>
natu rais</w>
n as
músi cos</w>
mú s
muse u
mus cle</w>
mon key</w>
mo ther
mo ito.,</w>
min or
min im
min d
mient o.,</w>
mi zar</w>
me th
mb ling</w>
maravil ho
madu re
mach ine</w>
maca co</w>
ma z
m í</w>
m bi
low er</w>
lica tion</w>
li c</w>
les s
legend ary</w>
le i
le ep</w>
landsca pe.</w>
l end
l and</w>
justi ce.</w>
journe y.</w>
it o,</w>
issu e</w>
investi r</w>
intelli gent</w>
integra l</w>
insp ira</w>
informa ções</w>
inflam ma
inf ra
indis pens
incrí vel.,</w>
inclu sion</w>
in volu
in tro
in d
ig n</w>
i ved</w>
hor as.,</w>
ho pe
hi t</w>
hi p
hi dra
her it
har m
happen ing.</w>
hambúr gu
h ed</w>
h ar.,</w>
h .</w>
guar da
gu ei</w>
gru pos</w>
gra titu
go l</w>
gir l</w>
gh ter</w>
gañ ou</w>
fu te
fres cos</w>
fre cu
for za.,</w>
for ne
far m</w>
factor s</w>
fa inos</w>
fa ga</w>
expres sing</w>
experien cing</w>
ex ac
esti mul
est rela
esp éci
es féri
es fuer
es cen
er o.,</w>
er nos</w>
ent rar</w>
el los</w>
el l</w>
e d."</w>
do g
do brar</w>
do ?,</w>
diverti da</w>
discrimin ación</w>
dimen sion
difficul ty</w>
diafrag ma</w>
di do.,</w>
determin ar</w>
deta iled</w>
destru ción</w>
descan so</w>
desa guar</w>
des arme</w>
dedica ción</w>
de trás</w>
de baixo</w>
dan ce.</w>
da wn</w>
da tos.,</w>
d ress.</w>
d ly</w>
d are</w>
cúmpli ce.",</w>
crí tica</w>
cri atividade</w>
corpor ate</w>
constru ción</w>
confiden ce.</w>
conec tado</w>
complica ted</w>
comp ras</w>
co xinha</w>
co cos</w>
clar o</w>
citizen s.</w>
ci c
cic lo</w>
chocola tes</w>
che io</w>
che ia</w>
ce m</w>
caus ing</w>
cast or</w>
capace te</w>
camin ha
cam era.</w>
cal or</w>
ca stores</w>
c le.</w>
bur y</w>
blo cked</w>
bl ing</w>
ben estar</w>
bed ouro</w>
be y
be bedouro</w>
be ating</w>
bal ón</w>
bal ance.</w>
b ly</w>
b bed</w>
axeit ada.,</w>
aw k
avo iding</w>
avanz ar.,</w>
au tenti
at temp
as su
as alto</w>
arti stic</w>
ari as.,</w>
are mos</w>
ansi edade</w>
ano tar</w>
amonton adas</w>
ami go
ama zing</w>
aler ta</w>
alco h
al a</w>
aer on
adver sity.</w>
admi rá
ace ite</w>
abili dade.,</w>
ab sces
a for
Tra ta</w>
Qui z
P ortu
P ar
Mel h
M is</w>
M ad
I tali
Ear th.</w>
E so</w>
A notar</w>
5 .</w>
4 .</w>
,W ill</w>
,W here</w>
,Th ose</w>
,S pending</w>
,Pre vention</w>
,P ri
,P igeons</w>
,J oy</w>
,I denti
,Go ats</w>
,B low</w>
,A ni
,A ge</w>
,"L et's</w>
,""" The</w>
xe mel
xardí n.,</w>
x ener
wa ves</w>
w in</w>
vu elo</w>
val orar</w>
vaca cións</w>
vaca cións.,</w>
tur ning</w>
tru e.</w>
tro m
tri lha</w>
travel .</w>
transport ation.</w>
tra il</w>
tr ân
tou ris
tor no</w>
tool .</w>
toler ance</w>
to mas</w>
to .</w>
ti sing</w>
ti me,</w>
ti es,</w>
th res
te a.</w>
tar x
taman ho</w>
swi mming</w>
sun ny</w>
suc ce
strate gy.</w>
sta ,</w>
spi ra
spi ces</w>
son ido</w>
son ar,</w>
so on.</w>
so il</w>
so ?,</w>
situ ações</w>
simp les
sh es</w>
servi ces</w>
seren ar</w>
ser ve</w>
sel ar</w>
se tt
se i
sauda bles.,</w>
sal v
sab e
sa ying</w>
sa me,</w>
s que
s mar
rú a.,</w>
ru bi</w>
roman o</w>
roider y</w>
ri val</w>
represent s</w>
renov ar</w>
ren ch</w>
regr as</w>
refri ger
refrescan te</w>
refrescan te.,</w>
refle ct</w>
recur so</w>
rebo und</w>
re ?</w>
rain y</w>
r é
públi ca</w>
própri o</w>
prote ção</w>
progra mas</w>
produ ction.</w>
produ ct.</w>
preser var</w>
present ou</w>
preci pit
pre ne
pre feren
posibili dades.,</w>
pos ure</w>
por te</w>
poder .,</w>
plan o</w>
pl ásti
pi ca
perdi do</w>
per .</w>
pens ando</w>
películ as</w>
pedr as</w>
p lea
p ani
ow ,</w>
out side</w>
organiz ed.</w>
or e</w>
ol hos</w>
of .</w>
o ds</w>
nov as.,</w>
noso tros</w>
no tur
ni ce</w>
neigh b
neighb or</w>
necessar y."</w>
ne ar</w>
n de</w>
mã os</w>
myster y</w>
mutu al</w>
mon it
mon ar
mo ther.</w>
mes mos</w>
men te.",</w>
mej or.,</w>
meaning ful</w>
me l</w>
manu ten
man h
ma thema
ma g
m ous</w>
lo ss</w>
li sh</w>
li p
lea se,</w>
le ite</w>
le ar</w>
lat er
l ess.</w>
ke d.</w>
jar di
ira mente</w>
invol un
inteli gen
inspi res</w>
inspi red</w>
inscri ción</w>
ino v
innov ation.</w>
indica te</w>
in ven
in t</w>
imp revi
im po
ill nes
il s.</w>
i es.</w>
i ble</w>
human idade.,</w>
ho pe.</w>
him self</w>
happin es
gro w.</w>
gra zas</w>
gra phi
gra du
given ess</w>
get s</w>
gent ly</w>
fu ma
friend ship.</w>
fresh ly</w>
fren te.,</w>
for .</w>
finance ira.,</w>
fiel d</w>
fiel d.</w>
fi lo
fi gu
fi el</w>
festiv al</w>
faz endo</w>
fav ori
fascin a.,</w>
fas tidi
expli car</w>
experi encias</w>
exclu sive</w>
ex ten
even t</w>
estru tura</w>
est udar</w>
esper a</w>
espectá culo</w>
escondidin ho</w>
es ?</w>
er ror</w>
empa thy.</w>
emergen cy</w>
el on
educa ção</w>
ear n</w>
eag er</w>
e y</w>
dé be
dura tion</w>
du bi
dr á</w>
do s,</w>
do l
dist ribu
dist ance</w>
discipl ine</w>
dis gu
diafrag mática</w>
detail s</w>
destin o</w>
depor tes</w>
depen ds</w>
depen dence</w>
demonstra te</w>
delici oso.,</w>
deli vered</w>
da mente</w>
da der
d ust</w>
d ings</w>
cúti s</w>
cú same,</w>
célul as</w>
curi ous</w>
culin ary</w>
creativi dad</w>
cr unch
countri es</w>
conver sa
conveni ent</w>
consu mi
consecu encias.,</w>
conhe cer</w>
confl itos</w>
confiden t</w>
con ce
compu ter.</w>
competi tion</w>
comparti l
communica te</w>
commit ment.</w>
col lea
cocin ar</w>
co bras</w>
clas s</w>
chif re</w>
chibat a</w>
che gou</w>
cer to.,</w>
cen do</w>
cell phone</w>
celebra ting</w>
ce il
ce ."""</w>
can te</w>
cal m.</w>
cabal gar</w>
ca se.</w>
ca b
bri sa</w>
bri lli
bra ke</w>
bo un
bili dade.,</w>
bi gg
bey on
be t</w>
be d.</w>
be .</w>
bb ing</w>
bath room</w>
base ada</w>
bar do</w>
b as</w>
azu l</w>
authori ties</w>
au tum
atten d</w>
ati c</w>
aten der</w>
asu mir</w>
arrincon ar</w>
arg ling</w>
are ia.,</w>
any one.</w>
ant s.</w>
an k
am ar
ali va</w>
ali ança</w>
al mo
agrada ble.,</w>
ag ic</w>
ada mente.,</w>
ad dress</w>
actitu de.,</w>
accordi on</w>
ac al
ab y
ab un
a way.</w>
a red</w>
a qui.,</w>
a mos.,</w>
a col
a cion
S enti
N u
Jap anese</w>
I t</w>
I rá</w>
Hab ía</w>
Fu i</w>
Fi z</w>
Deci dín</w>
Care cemos</w>
Ameri can</w>
6 .</w>
1 0</w>
,Th ese</w>
,Self- confidence</w>
,S aliva</w>
,O regano</w>
,Main tain</w>
,Le ather</w>
,E mb
,Co m
,C h
,C ensorship</w>
,Ba thing</w>
,A t
,"W ith</w>
,"P lease,</w>
," Co
"Ex cúsame,</w>
"" "</w>
" Estamos</w>
óli cas</w>
ñ as.,</w>
çã o,</w>
ã o,</w>
ã .,</w>
z u
year n</w>
xu sta</w>
xu rado</w>
xi ety</w>
x ão</w>
wor ried</w>
volun t
viol ence.</w>
vin ta
via j
ve ter
van ta
valu able.</w>
vac in
v ência</w>
v an</w>
uni ted</w>
un has</w>
un ci
tu ri
tre in
tre as
transfor mar</w>
tranquili dade</w>
tran ça</w>
traball amos</w>
tra tam
tra tada</w>
tra ck</w>
toxi c</w>
tivi dade.,</w>
ti me."</w>
though ts.</w>
tes te
ter m.</w>
tempo ,</w>
te ña</w>
te et
teet h</w>
tas ks</w>
tam bal
t es,</w>
t al.,</w>
sust ento</w>
sus hi
surf board</w>
super viven
subesti mes</w>
su ffer
st s.</w>
st ry</w>
st range</w>
spir it.</w>
some one.</w>
sol ar</w>
so ñar</w>
so port
simp l
si ght</w>
si ent
servi ce.</w>
ser ved</w>
sentir se</w>
seman as.,</w>
sel l</w>
se tting</w>
se a
satis fying</w>
satis fy</w>
sacri fici
sabe dor
s ões.,</w>
s culp
romá nti
ro ad</w>
responsabili dade.,</w>
represent a</w>
religi on</w>
relax ado</w>
reali stic</w>
re za</w>
re at</w>
re al
re aching</w>
ran s
ra ther</w>
ra cial</w>
que ren</w>
qu anti
pu ido</w>
propor cion
progra mming</w>
profun di
princi pi
prevent ing</w>
preven tion</w>
pres a.,</w>
preci são</w>
pre xuí
pre vi
pr é
posibili dades</w>
port ra
poli cía</w>
poder ía</w>
pin tura</w>
ph one.</w>
perci bir</w>
per do
pe llar</w>
pati ent</w>
pant s</w>
pa y
oper ation</w>
op cións.,</w>
on ce</w>
objectiv es.</w>
o vos</w>
o king</w>
o ccup
nun ca.,</w>
nuev o.,</w>
no is
no che</w>
ne phe
ne ck</w>
musici ans</w>
multi dão</w>
memor y.</w>
mem óri
mel an
mej or
medit ation</w>
materi als.</w>
materi al.</w>
lí de
líde res</w>
loca ted</w>
lo gro
ll er
ligh ted</w>
li ar</w>
l un
l la</w>
k ."</w>
justi ça</w>
journe y,</w>
is n't</w>
is mo.,</w>
intimi da
intere se</w>
inter ven
inten sa.,</w>
instru ctions</w>
ing ly</w>
indica tes</w>
indi ca</w>
ind úst
increas ingly</w>
inclu ir</w>
incer te
in tri
in cen
imp lica</w>
imag ine</w>
im possible</w>
igual dad</w>
i do.,</w>
hu mble</w>
ho sp
ho ,</w>
helme t</w>
he at</w>
ha te</w>
guarda -
gru po.,</w>
gran xear</w>
govern ment</w>
go st
go ber
ger ar</w>
geome tri
gent le</w>
ge ta
ge .,</w>
g ado.,</w>
foo ds.</w>
flow er</w>
flo re
fir st.</w>
fir me</w>
financi era</w>
fin ish</w>
figh ting</w>
fi deli
fe min
fe atu
fe .,</w>
favori te.</w>
fascin ated</w>
f era</w>
exper t</w>
ex teri
ex hibi
every day</w>
ethi cs</w>
estraté gi
estiv esse</w>
espor tes</w>
especi ally</w>
esenci al.,</w>
escu pir</w>
escrit or</w>
es ."""</w>
ene my</w>
encontra da</w>
en sur
en gen
en de
en ch
empati a</w>
eleg ante.,</w>
efica z.,</w>
e ter
dur mir</w>
do /a.,</w>
diver sos</w>
dist an
dise ase</w>
discrimin ation</w>
disa st
dificul t
detail s.</w>
dest ro
desenvolvi mento</w>
des sa</w>
des contos</w>
des co
des activar</w>
depart amento</w>
den y</w>
den e
deci r</w>
deci di</w>
de i</w>
d ly.</w>
d it
cámar a.,</w>
cy cli
cro s
cri me</w>
corre r.,</w>
contribu te</w>
cont a.,</w>
condu cir</w>
concentra te</w>
con g
con fun
con fron
con cre
comb at</w>
color ful</w>
col gar</w>
co res.,</w>
clon ing</w>
climb ing</w>
ck s.</w>
ck en</w>
cidadani a</w>
ci dos</w>
ci a,</w>
chron ic</w>
chor ing</w>
choi va.,</w>
cho osing</w>
che ,</w>
champ agne</w>
cha s.,</w>
ch á</w>
catapul ta</w>
catapul t</w>
carre ira.,</w>
car bon
cali bra
cabe za.,</w>
ca su
ca chor
bu s</w>
bre eze</w>
br and</w>
bol sa</w>
bo l.,</w>
ble .",</w>
birth day.</w>
bir th</w>
bi cycle</w>
beyon d</w>
bene ficial</w>
bei jo</w>
bea ver</w>
bar re
baix a</w>
ba ñ
b loo
az ul
ayud arte</w>
avent ura
au mento</w>
att ack</w>
atmosp here.</w>
atmo s
asun to.,</w>
associ ated</w>
asse ts</w>
aspe ct</w>
arroj ou</w>
ar ma</w>
aqu ela</w>
aproxi ma
apo logi
apne a</w>
ap on
any where.</w>
an s.</w>
an me</w>
amonton ados</w>
ama ble</w>
am antes</w>
al mac
agra d
agit ou</w>
ag ir</w>
afe ta</w>
adventu re,</w>
adecu ado.,</w>
acú stica</w>
actu al.,</w>
acri ficar</w>
achiev ed</w>
abces sos</w>
ab etics</w>
a segu
a go
Z e
X adear</w>
S acrificar</w>
Qu e
P ase
Ne w</w>
Mu itos</w>
Intent a</w>
F ix
Eng lish
Deix ei</w>
Con cordo</w>
A mar</w>
9 .</w>
,We 're</w>
,So cial</w>
,Sh all</w>
,S na
,S leep</w>
,P assion</w>
,M agic</w>
,In vest
,I 'll</w>
,Di aphragmatic</w>
,Di abetics</w>
,A u
ísti ca</w>
í ti
éti ca.,</w>
xuí z</w>
x é
world wide
win e.</w>
win dow
win d.</w>
wha te
whate ver</w>
wee ks.</w>
ver mel
vent o.,</w>
ve ci
vari ed</w>
vaca tion</w>
us a.,</w>
un e</w>
u ser</w>
tí tul
tru st.</w>
tri go</w>
treas ury</w>
trat ados</w>
trasp asar</w>
tra tado</w>
toler ant</w>
to m</w>
tin u
ti r
ti em
thres her</w>
themsel ves</w>
the me</w>
teñ as</w>
ter ra.,</w>
ter .,</w>
ten sion.</w>
tempest ade</w>
te ly.</w>
te ars</w>
te -
tast y.</w>
tam uses</w>
ta ma
só lo</w>
sí vel</w>
sur face</w>
sur fac
sugar .</w>
suces so.,</w>
subesti mar</w>
strate gic</w>
stori es.</w>
st anding</w>
st and
st ability.</w>
son o</w>
some one's</w>
solici tu
sneak er</w>
situ ação.,</w>
sho e</w>
set tle</w>
servi r</w>
sent ence</w>
self-este e
self-estee m.</w>
segun da</w>
segu ir.,</w>
se cción</w>
sab ed
sa pos</w>
sa gra
s á
rul es.</w>
ru a</w>
ro se</w>
ris co.,</w>
ri co</w>
ri ch
ri bs</w>
restri cións</w>
responsibili ties.</w>
respon se.</w>
respe it
respe ctu
respe cted</w>
respe c
res cu
renov ación</w>
ren di
rela cións.,</w>
reflexion ar</w>
recomen da
recogni ze</w>
rece .,</w>
re search.</w>
re pe
re p
re new</w>
re gain</w>
re confort
ras car</w>
prá tica</w>
prote í
prote gi
prote cts</w>
proper ty</w>
produ ced</w>
princip al</w>
preocu par
preocu p
pre ver</w>
practi ce.</w>
popul ar.,</w>
poli cial</w>
poe try</w>
po tamuses</w>
po potamuses</w>
plan os</w>
plac a</w>
pla ys</w>
picni c</w>
pi zz
pi ces</w>
person alidade.,</w>
peri go</w>
peri go.,</w>
perfe ct.</w>
pen sab
pe ças</w>
pe las</w>
pe gada</w>
paí ses.,</w>
pat ri
passion ate</w>
pas ado,</w>
par e</w>
paci ência</w>
pa stri
p popotamuses</w>
p pe
outdo ors.</w>
op pon
one y</w>
on ish
on ic</w>
ol óxi
occup y</w>
obxectiv o.,</w>
o me</w>
o cé
now ."</w>
nor mal
noi se.</w>
ni e
nen h
necess ária</w>
necesi dad</w>
necesari os</w>
naturale za</w>
mun do,</w>
mul o</w>
motiv ate</w>
mo do</w>
mo ,</w>
mista ke.</w>
minim ali
mi lit
medica mentos</w>
medi o
medi ev
measure ment</w>
me d.</w>
mar on</w>
man s.,</w>
mainten ance</w>
líqui do</w>
lí der</w>
lo so
liv ros</w>
life ."""</w>
li vely</w>
le ão</w>
le ve</w>
lanter n</w>
l lu
l ado.,</w>
know s</w>
ju mp</w>
je wel
j antar</w>
it o
is ing</w>
invi ted</w>
inver no</w>
integr ity</w>
influenci ar</w>
infla ma
incl uso</w>
ilumin ando</w>
illumin ating</w>
ide ias</w>
i as.,</w>
hard ware</w>
hamb ur
hacer lo</w>
h ando</w>
h ance</w>
h ,</w>
gu itar</w>
go ?,</w>
gener al</w>
garanti zar</w>
g ers</w>
full est.</w>
fu me</w>
fru ta</w>
froz en</w>
finance ira</w>
fil la</w>
fi xe
fi m</w>
famíli a.,</w>
fa go</w>
f antasy</w>
f a</w>
exces so</w>
exces sive</w>
ex óti
ex posición</w>
ex ig
ev acu
est at
est amp
es pu
es encia</w>
eri can
equilibra da.,</w>
equ al</w>
ener xía.,</w>
en hance</w>
el se.</w>
efica z</w>
effor ts</w>
efe ctos</w>
económi ca</w>
econ ômi
e vo
dor mir</w>
dom esti
do g.</w>
dist ancia</w>
discoun ts</w>
disco ura
dire ction.</w>
dinossaur os</w>
din o
determin ación.,</w>
desparra maron</w>
desa st
des emp
dere ch
depen dendo</w>
dent .</w>
demôni o</w>
decora ted</w>
deci são</w>
deci são.,</w>
deci ding.</w>
deb ts</w>
de pres
de jes</w>
de ira.,</w>
de gra
daugh ter</w>
dark ness</w>
dan os.,</w>
dades ,</w>
d y.</w>
cu se</w>
cu er
cu ber
cru ci
crian ças</w>
cr é
coup le</w>
cooper ación</w>
coo ked</w>
conven cido</w>
contro le</w>
condi ções</w>
con cha</w>
comuni dades</w>
complica ted.</w>
company 's</w>
comp rei</w>
comi go</w>
começ ou</w>
colabor ação</w>
coci ñ
coast al</w>
co at</w>
clon ación</w>
clear .</w>
circumstan ces.</w>
ci miento</w>
ci ma</w>
chocola te.</w>
cer tos</w>
care er.</w>
capa city</w>
can udo</w>
can .,</w>
camin ar</w>
bro ken.</w>
brill ante.,</w>
bri ght
bran co</w>
bot tle</w>
bon ds</w>
bon dade</w>
bo y</w>
blu e.</w>
bibliote ca.,</w>
bi to</w>
bi en
bever ages</w>
ben .",</w>
be ings.</w>
be gin</w>
be ber</w>
bar cos</w>
bac teri
b la
awk ward</w>
avali ar</w>
autoriz ación</w>
auto ma
ati sti
ati n</w>
ath le
ast onish
arro z</w>
arrenda mento</w>
ar ?,</w>
appreci ated</w>
aphrag m</w>
an ta</w>
ambient al.,</w>
ama zing.</w>
am erican
alegr ía.,</w>
ai re.,</w>
ag o</w>
advan ced</w>
admira ble</w>
ade .,</w>
ad ded</w>
acopl amento</w>
accompli ce."</w>
accident .</w>
ac ceder</w>
aband ono</w>
a vers</w>
a is,</w>
a colle
R en
Qu al</w>
Pase ar</w>
O nde</w>
Lev o</w>
In ter
I 've</w>
G a
Ex tra
C hope</w>
Agra de
8 .</w>
3 .</w>
,Wat ercress</w>
,Stor ks</w>
,Rel ying</w>
,Matur ity</w>
,H el
,F or
,C or
,C ha
,Be es</w>
,Ap nea</w>
,An xiety</w>
,"W ow,</w>
," Your</w>
," G
, No</w>
" Precisamos</w>
úni co.,</w>
én do
é m.,</w>
ç a.",</w>
áni mo.,</w>
áfi co.,</w>
z co</w>
y el
y e</w>
xar os</w>
wri ter</w>
wo od</w>
we 're</w>
wa ys.</w>
w all.</w>
ví de
vo ar</w>
virtu al</w>
vi cti
vi brar</w>
verdade iramente</w>
ver y.</w>
ver sión</w>
ver si
ven 't</w>
v ag
us ."</w>
und ry</w>
un be
u al</w>
títul os</w>
tun ing</w>
tru th
tru ck</w>
tranquil o.,</w>
tranquil ity.</w>
tran qu
tra z</w>
tr o</w>
torn ar</w>
to wn</w>
to ld</w>
thou ses</w>
ter ra
ter r
ten emos</w>
te e
tas ks.</w>
tarx eta</w>
tama ño</w>
ta il
t one</w>
t est</w>
suf fer</w>
success fully</w>
sua ve
stress ful</w>
stra w</w>
sti c.</w>
spin ach</w>
speci es.</w>
so b</w>
smo oth
smi le.</w>
si mbo
sha ke</w>
servi zos</w>
ser .,</w>
separ ate</w>
segun do</w>
sect or.</w>
se ctor</w>
scienti fic</w>
saí da.,</w>
saur s</w>
satis fied</w>
san d.</w>
sal ad</w>
s í</w>
s ar.,</w>
ro tina</w>
ris cos.,</w>
rin das,</w>
ri g
rhyth m</w>
revie w</w>
resi stir</w>
remin ded</w>
regi ons.</w>
regi on.</w>
refin ed</w>
recur sos.,</w>
recoñe cer</w>
recipro ci
reas on
read .</w>
re place</w>
re cy
re cti
rapida mente</w>
ra pa
ra m</w>
ra dio</w>
ra ,</w>
r ying</w>
r ush</w>
qui et</w>
que remos</w>
prácti ca.,</w>
pro ye
pre ço</w>
practi cing</w>
polici es.</w>
poder osa.,</w>
poder ia</w>
plan ej
pir âmi
pho to</w>
per pe
per gun
pens amento</w>
pay ment</w>
pare cía</w>
pantal la</w>
paix ón.,</w>
paix ão</w>
pain ting</w>
pa st,</w>
p esti
pesti ci
ori gin</w>
organiz ación.,</w>
orden ador</w>
orden ador.,</w>
or der.</w>
ol los.,</w>
offer .</w>
obstá culo</w>
obstac le.</w>
o th</w>
nuev o</w>
nostal gi
new s.</w>
negoci os.,</w>
negativ as.,</w>
necesari a.,</w>
my self
mu chas</w>
mis sion.</w>
mi t</w>
mi rar</w>
men or</w>
memor ies</w>
medicin e.</w>
medicin a</w>
measu res.</w>
me ter</w>
me tal
me rece
me al</w>
me al.</w>
mbr os</w>
mat ch</w>
manuten ção</w>
manex o</w>
man .</w>
man .,</w>
mach ine.</w>
lí nea.,</w>
luz ca</w>
loy al</w>
lo st.</w>
lo gy</w>
ll eno</w>
liv re.,</w>
lip sti
lim ão</w>
li ked</w>
les i
lea der</w>
le vou</w>
le is</w>
le f
lav agem</w>
lar an
la undry</w>
kin dness</w>
ker chi
kee ps</w>
k es.</w>
issu es.</w>
ir s.</w>
involu cra
interpon drá</w>
internacion al.,</w>
inter romp
instru cións</w>
inclu ding</w>
in s.</w>
in da</w>
imp orto</w>
ima ge.</w>
illumin ate</w>
i sta</w>
há bito</w>
hy dra
hor ror</w>
home m</w>
hel d</w>
hear ts</w>
harmon ia</w>
hap pi
hand kerchi
ha ven't</w>
guit ar.</w>
gratitu d</w>
grati fican
gra in</w>
glob al.,</w>
gl ú
gh o
ger almente</w>
gen s</w>
gen der</w>
g ger</w>
frí o</w>
frí o.,</w>
fri o</w>
fort es.,</w>
for k</w>
fo to</w>
fo rest</w>
fix ed</w>
fit i</w>
fi re.</w>
fi cing</w>
feren ce</w>
feel ing.</w>
faz ia</w>
fascin ates</w>
far óis</w>
famíli a</w>
fa ul
extra ct</w>
experiment ou</w>
expect ations.</w>
ex otic</w>
ex cur
estu di
est í
esper anza.,</w>
especi aliz
especi ali
escu ro.,</w>
escap ar</w>
erro res</w>
erro res.,</w>
er ro.,</w>
er 's</w>
equi pe.,</w>
ent rada</w>
ensin a</w>
enro lar</w>
ener g
en ing.</w>
ejerci cio</w>
efficien cy</w>
eco logical</w>
ear s</w>
dubi des</w>
dri ve</w>
don os</w>
diz er</w>
disgu sting</w>
disap pe
difíce is.,</w>
difficul ties.</w>
di bu
dete cción</w>
desinfe ctar</w>
desemp en
desarro llo</w>
desafi o</w>
des t</w>
des e</w>
der .",</w>
depen dencia</w>
delici osa</w>
del a.,</w>
deix e</w>
de ten
dazz ling.</w>
dan za</w>
dan ger.</w>
da ta
da mente.,</w>
d úas</w>
d ?</w>
cá li
cura ción.,</w>
cur ity</w>
cur ar</w>
cu ts</w>
cu p</w>
cu ali
crunch y</w>
cri stal
cri atur
criatur as</w>
cre r</w>
cra z
cozin ha</w>
cou pling</w>
cor respon
coo king.</w>
contagi a.,</w>
consider ing</w>
consider ado</w>
conser v
conhe cimento</w>
condi cion
concer to</w>
con qui
con jun
compromi so.,</w>
comple ta</w>
compas sion.</w>
compaix ón</w>
common ly</w>
combin ation</w>
com bus
combus ti
climb ing.</w>
clear ly</w>
cla se</w>
civi l</w>
cin a</w>
chocola te.,</w>
chocol at
chil d</w>
che gar
cer teza</w>
cele br
care fully.</w>
car á
car d</w>
can tar</w>
cabe lo.,</w>
ca te
ca sos</w>
ca ress</w>
c cion
c ariciar</w>
bre ath</w>
bo x.</w>
bl es
benef íci
beli ev
bele za.,</w>
ball s</w>
avent u
av ing</w>
aul a</w>
ata que</w>
at ing
as ter</w>
as ked</w>
argu ment
app li
ansi edade.,</w>
an il.,</w>
ami ga.,</w>
ami c</w>
almac en
aliz e</w>
algu m</w>
aler t</w>
alcoh ólicas</w>
alcan ç
alcan z
al ."</w>
ag ing</w>
af ri
advi ce</w>
admi red</w>
adecu ado</w>
adecu ada.,</w>
addi tional</w>
ad ul
ad jus
actu aliz
activi dad</w>
acri ficing</w>
acred itar</w>
acor do.,</w>
aca dar</w>
ac he</w>
ab u
ab ove</w>
a pres
a ción,</w>
V i</w>
S ou</w>
Quiz ais</w>
Poder ías</w>
P a
N ós</w>
Melh or</w>
M eu</w>
Lembr a</w>
I m
H á</w>
Gúst anme</w>
G i
F ri
Deber iamos</w>
A cu
A cariciar</w>
1 0
- nos</w>
,T rans
,S cars</w>
,S acrificing</w>
,R o
,R es
,Ligh thouses</w>
,L ying</w>
,In digo</w>
,F ish
,Ex ces
,C ul
,Be avers</w>
,"The re's</w>
,"H e</w>
,""" O
," R
"Co m</w>
" Estou</w>
últi mo</w>
í da</w>
épo ca</w>
âmi ca</w>
áti co</w>
águ as</w>
z ido</w>
y i
yi el
xun to</w>
xi mnasi
x énero</w>
x encia.,</w>
wron g.</w>
worldwide .</w>
we t</w>
we dding</w>
we alth</w>
was n't</w>
warm th</w>
wal k.</w>
wa sting</w>
wa ke</w>
w ed</w>
vo o</w>
viol ation</w>
vi u</w>
vi axe.,</w>
vers áti
ver dader
ver b
vel y.</w>
val ores.,</w>
vacin ação</w>
us ers</w>
uni dos</w>
un comfortable</w>
ultip lication</w>
ud ging</w>
u s.,</w>
tur bul
trá fe
trom be
tre mbling</w>
tre es.</w>
transport ing</w>
trans form</w>
trans fer
tranquili dade.,</w>
tranqu ility</w>
traffi c.</w>
traball ar.,</w>
tiv os.,</w>
tin do</w>
ti ma
thri lled</w>
thou ght.</w>
this ."</w>
thi cket</w>
that ?</w>
th ir
ter ía</w>
ten sión.,</w>
temp er
te l</w>
te d."</w>
tambal ear</w>
t én</w>
t at
t -
sustent ável.,</w>
sus pe
sugg es
subje ct</w>
stor m</w>
sta te
squ irre
squirre l</w>
spectac ul
speci alized</w>
son g.</w>
solu ções</w>
solu cion
solidar ity</w>
soci o
so lo
sit e</w>
simplici dade</w>
simpl est</w>
si dad</w>
show er</w>
shir t</w>
senti mento</w>
sen so</w>
seguri dad.,</w>
satisfac tion</w>
sab ores</w>
sa ying.</w>
s mell
s lo
s ?,</w>
ro pa</w>
responsabili dades.,</w>
respon der</w>
respect a</w>
resol ve</w>
resili ent</w>
rescu e</w>
renew al</w>
religi ões</w>
religi ons</w>
relacion ado</w>
rela jar
regar d
regard less</w>
refu se</w>
recom end
rece p
reas on.</w>
re ve
re habilit
rapa za</w>
quil la
quer ia</w>
quar to</w>
qu alidade.,</w>
qu ad
públi cas</w>
pun tos</w>
pu xo</w>
pu ri
prote cting</w>
promo ting</w>
profesion al</w>
proces sos</w>
proces ses.</w>
problem -
prior ity.</w>
primaver a</w>
preser vation</w>
present ación</w>
possí vel</w>
positiv os</w>
positiv o.,</w>
pos sa</w>
portra yed</w>
poder oso</w>
po u</w>
po lu
plan eta</w>
plan e
pl ata
pes co
person alidade</w>
person ali
peri od</w>
perfor ming</w>
perce ived</w>
pe que
pe inar</w>
pe go</w>
pastri es</w>
pas sed</w>
pare cem</w>
par te.,</w>
par ar</w>
paisa gem</w>
pac ífica.,</w>
p ô
overw hel
out ono</w>
ous ly</w>
ou ro.,</w>
other s."</w>
origin al</w>
ori as</w>
on i
ome let
ol hos.,</w>
ofre ce</w>
ocu par</w>
oca si
obstac le</w>
o regano</w>
o re
o fi
nú mer
nur sing</w>
now ?</w>
not ch</w>
no vo.",</w>
nes sa</w>
nerv ous.</w>
ner vo
ne l</w>
nad ar</w>
nacion al</w>
mã e</w>
mus cles</w>
mun di
multip licación</w>
mp ro
mor al</w>
mo tion</w>
mo stra
mo bility</w>
mo bilidade</w>
messa ge</w>
men te,</w>
medit ación</w>
me ta
me n</w>
me at
materi als</w>
mate máti
madure z</w>
maci zo</w>
ma sti
ma quilla
ma gic</w>
ma do.,</w>
m ite</w>
m era</w>
m ."</w>
lu xu
lu mp</w>
lu gar
lou d</w>
ll ena</w>
liqui d</w>
lin ha</w>
limp a</w>
ligh t
lica s.,</w>
li sto</w>
level s.</w>
ler .,</w>
las cí
lands cap
l lev
l .",</w>
kee ping</w>
j ornada</w>
invit ation</w>
investi mento</w>
inv ite</w>
inter persoais.,</w>
intelligen ce</w>
inspir ing.</w>
incredi bly</w>
inclin ação</w>
in o.,</w>
in feri
in cómo
impo stores</w>
ill ness.</w>
igu e</w>
igre xa</w>
horiz on.</w>
ho y.,</w>
her i
hacer se</w>
h en
guitar ra</w>
grati dão</w>
gra to</w>
gr ão</w>
ge ,</w>
g at
funcion a</w>
ful fill</w>
friend shi
fran go</w>
for ra
for med</w>
for give</w>
fon do</w>
fol ding</w>
fo rest
flo res.,</w>
flexi ble</w>
fl or
finance iro</w>
festiv als</w>
feren cia</w>
fan áticos</w>
faci lit
faci li
fac emos</w>
fa mo
fa ith
expres sar</w>
experien ces</w>
experien ces.</w>
exerci ses</w>
excite ment</w>
excep tional</w>
excel entes</w>
ex ter
estí mulo</w>
est á
est as</w>
esquil o</w>
espinha ço.,</w>
especí fica
especi e</w>
especi ais</w>
esgo tar</w>
esco i
er ía.,</w>
equilibra da</w>
ent usias
enjo yed</w>
engen h
en ing</w>
en ds.</w>
elon ging</w>
el se</w>
el se
el in
el ha</w>
el abor
eficien te.,</w>
ef .</w>
dí vidas</w>
dur mir.,</w>
down ward</w>
dist ance.</w>
disfra z</w>
diferen za</w>
di x
di aphragm</w>
di ap
devi l</w>
deteñ as</w>
deteñ a.,</w>
determin ed</w>
dete ctar</w>
deta il</w>
det all
destin o.,</w>
desmoron ar.,</w>
des armar</w>
derech os</w>
depu tado</w>
demasi ada</w>
dedica tion.</w>
decora tion.</w>
d dar</w>
cír culo</w>
cân cer</w>
cá ni
cá l
cri mes</w>
cre er</w>
coste iras.,</w>
corre u</w>
corre o</w>
cor vos</w>
cor te</w>
cor on
cor da</w>
continu ous</w>
const ante
consist ent</w>
consider ados</w>
conse ll
concent rar</w>
compromi se</w>
complica da.,</w>
complex a.,</w>
compañ ía</w>
compas sion
comp ly</w>
com ments.</w>
col ate</w>
coexist ence.</w>
co ti
co ol
co con
co ck
clási ca.,</w>
cion ais.,</w>
ceil ing</w>
ce do</w>
car reg
car a.,</w>
can do.,</w>
cal ma.,</w>
cal led</w>
ca mar
ca ke.</w>
c ,</w>
bro ken</w>
brilli ant</w>
bre ad</w>
bra king</w>
bor dado</w>
bon ita</w>
bo ca.,</w>
bigg est</w>
bi en.,</w>
be tra
be long</w>
bas is</w>
ban heiro</w>
b lin
azul .,</w>
avi ão</w>
av ó</w>
ate ly.</w>
asu st
asegur arnos</w>
arrebat ou</w>
aqu atic</w>
apresent ava</w>
aplica ción</w>
ant es.",</w>
amp la</w>
amea ça</w>
am ing</w>
aju star</w>
ag ul
ado /a.,</w>
adi estrar</w>
adequ ate</w>
adel ante.,</w>
ada ,</w>
acti tes</w>
ace i
ac ro
ac redi
ac o</w>
aboli ción</w>
abili ties</w>
a ve
a st.</w>
a part
a je</w>
a is.",</w>
V oy</w>
T erra.,</w>
S on</w>
Ru bi</w>
P e
O fre
N at
Mu itas</w>
M in
In di
Im poñer</w>
Hallo ween</w>
G abri
F rench</w>
Es que
Es per
Emp eror</w>
E sa</w>
D a
Có mo</w>
B ra
A x
,W o
,Vaccin ation</w>
,Se curity</w>
,S now</w>
,Ra cial</w>
,Pri vacy</w>
,Per fume</w>
,P u
,O pen</w>
,J udging</w>
,Im posing</w>
,I ron</w>
,G argling</w>
,Fish ing</w>
,Emb roidery</w>
,Di versity</w>
,B elonging</w>
,An d</w>
,"H appiness</w>
," To
, Qu
" Debemos</w>
úti l.,</w>
úni cas.,</w>
é i</w>
ç õ
áti ca.,</w>
xo go.,</w>
xar din
x usto</w>
won der</w>
wo ol</w>
windo w.</w>
win .</w>
whe at</w>
war dro
w ants</w>
vol ta</w>
você .,</w>
viax es</w>
vi vi
vi sion.</w>
veí culo</w>
ver ,</w>
vegetari ana</w>
up on</w>
up date</w>
univer so</w>
underst an
uncertain ty.</w>
un loc
un accep
umb rella</w>
ul ation</w>
tur ing</w>
trân sito</w>
tráfe go</w>
trump et</w>
trombe ta</w>
tro s.,</w>
tre verse</w>
transparen cia</w>
transfor ming</w>
tran si
train ing.</w>
tradi tions.</w>
traba j
tra er</w>
touri st</w>
tor na</w>
tooth brush</w>
ton o
to po</w>
to ast</w>
tiv ation</w>
tiv ar</w>
tis su
tion ?</w>
ti ous</w>
ti ght</w>
the at
tex ture</w>
tecnolo xía.,</w>
tecnolo gi
techniqu e.</w>
team s</w>
te mos.,</w>
te ira</w>
te cting</w>
t ing."</w>
t ante</w>
t ance</w>
sympto ms</w>
surroun ding</w>
sur fi
sun rise</w>
su porto</w>
su peri
su or</w>
stud ying</w>
stru cture</w>
sto od</w>
sto ck</w>
sta .",</w>
spe aking</w>
sozin ho.,</w>
son or
sna ke</w>
sin c
shel l</w>
sha king</w>
sh one</w>
ser mos</w>
ser ia</w>
self- confidence.</w>
sele ction</w>
segre do</w>
se tor</w>
se ction</w>
satisfac tion.</w>
satisfac ción</w>
sal var</w>
sal t</w>
safe .</w>
sad ness.</w>
sabor osa</w>
sa .",</w>
s led</w>
s cu
run .</w>
ro wing</w>
ro sa</w>
ro ck.</w>
result ado.,</w>
resul ts</w>
resul ta</w>
responsabili dades</w>
responsabili dad</w>
resili ence</w>
reser ving</w>
res to</w>
res h</w>
remo te</w>
remedi es</w>
rela ciones</w>
regul ation</w>
regul ación</w>
regi ões</w>
regar ding</w>
recor dar</w>
reali sta.,</w>
re tro
re pa
re main
re ac
rai se</w>
ra do.,</w>
r ó</w>
qui ero</w>
que rer</w>
que ima
pu tting</w>
prote ge</w>
pros peri
propi os</w>
productiv ity.</w>
produ to.,</w>
produ cir</w>
procura do</w>
problema ,</w>
pro va</w>
pro mi
present ation</w>
prene ur
preci sión</w>
preci sando</w>
pra ti
potenti al.</w>
possí vel.,</w>
políti co</w>
poin ts</w>
po ver
po .",</w>
po ,</w>
pleas ure</w>
pleas ant.</w>
plant s.</w>
plan ear</w>
pla y.</w>
pirâmi des</w>
pick ers</w>
photograph y.</w>
perío do</w>
perspectiv a.,</w>
persever ança</w>
perfu mes</w>
pen a.",</w>
pe ts.</w>
pe or</w>
pe lu
pe le.,</w>
partici par</w>
pare lla.,</w>
par al
par adi
pan de
p és</w>
p yrami
p uni
p per
p lease</w>
ou vir</w>
ou gh</w>
ori es.</w>
ori a.,</w>
organiz ing</w>
org âni
or an
op pres
on ."</w>
ofre cer
offi cer</w>
occa sion.</w>
obstá culo.,</w>
o sidade</w>
o il.</w>
o cul
nu mer
noi tes</w>
ning unha</w>
nego cio</w>
n ers</w>
n ers.</w>
mul le
movi mento</w>
mou th.</w>
motiv ación.,</w>
mon tar</w>
mo s,</w>
mo chil
miti gate</w>
mit es.,</w>
minu tes.</w>
mi an</w>
memor ia</w>
memor ia.,</w>
memb ers.</w>
medi cine</w>
mean ing.</w>
me mbros</w>
me cáni
me at.</w>
mater ni
masco ta.,</w>
mas ca
mar íti
man te.,</w>
man o</w>
m ó</w>
m ão</w>
m ur
m .",</w>
lo ving</w>
lo ja</w>
lo ita</w>
lit os.,</w>
lin es</w>
limit s.</w>
lifesty le.</w>
libr ary.</w>
li cen
lend ario</w>
le i</w>
le er</w>
le al
lascí via</w>
labor al.,</w>
la ying</w>
la w</w>
l y
l levar</w>
l ity</w>
l has</w>
k ni
jump ing</w>
jar din
j usto</w>
it self.</w>
isto ?,</w>
invest ments</w>
inva diu</w>
inva ded</w>
inter cambio</w>
inse cts</w>
innov ación.,</w>
inmediat a.,</w>
influ ír</w>
influ encia</w>
individu al</w>
indica tor
incl usão</w>
immedi ately.</w>
im posible</w>
identi dade.,</w>
ida n</w>
i -
honesti dad</w>
hob bi
her b
hel l</w>
health y.</w>
harmon y.</w>
harm ful</w>
har m</w>
habit ación</w>
habili dade.,</w>
h ou</w>
h itting</w>
h ing.</w>
h ill</w>
h al
guar d</w>
graf ite</w>
gra ins</w>
gra bbed</w>
govern ment.</w>
go zar</w>
glu ten
ge ther</w>
g estão</w>
g ers.</w>
funcion ando</w>
fun ction.</w>
fuma ça</w>
fortale cer</w>
forma tion</w>
flo or.</w>
fl at</w>
favor .",</w>
fan s</w>
fa ir.</w>
f its</w>
f fiti</w>
ey e</w>
exha u
excep cional.,</w>
ex am.</w>
est av
estav an</w>
est ."</w>
espinha ço</w>
espetá culo</w>
especi aria</w>
especi ais.,</w>
esfor zo.,</w>
esfor z
escol ler</w>
es tes</w>
es capa
er s'</w>
ent or
enfren tando</w>
end less</w>
en ví
en su
en gra
en do.,</w>
en der</w>
en car
empresari al.,</w>
employe es.</w>
empat ía.,</w>
emp eror</w>
emb race</w>
ema il</w>
elimin ar</w>
el s.</w>
el ing</w>
el er
el .,</w>
egg s</w>
ef fort
eas y.</w>
e ternal</w>
e iro</w>
drin k.</w>
dream ing</w>
do ct
dispon í
disgui se</w>
dis pu
dis connect</w>
digni dade</w>
dificult ades.,</w>
diap as
diapas ón</w>
di um</w>
di es.</w>
di alogue</w>
detal hes</w>
desafi os</w>
des se</w>
des is
des integrar</w>
des esper
des en
des car
der ,</w>
depu ty</w>
dent ro.,</w>
den se</w>
deix ando</w>
decision es</w>
dece dor.,</w>
de clar
de bu
de af
deaf ening.</w>
day !</w>
dark ness.</w>
daqu ela</w>
dan ç
da y,</w>
da bon
d ão.,</w>
d 's</w>
cé u.,</w>
curi osity</w>
cump lean
cultu rais.,</w>
cuis ine</w>
cu tting</w>
cu estion
cu ar
crimin al</w>
cri sis.</w>
cre cer.,</w>
cre am
courag e.</w>
corri da</w>
correct a.,</w>
cor tin
cor di
convers a.,</w>
conveni ente</w>
constante mente.,</w>
consegu iu</w>
consci ente</w>
confu sed.</w>
confli to</w>
confli ct</w>
cone xão</w>
concentra tion</w>
concent r
comuni car
comprometi dos</w>
complex os.,</w>
compañe iros</w>
compañ ía.,</w>
compa sión</w>
comi go.,</w>
come ter</w>
com ing.</w>
col ina</w>
co t
co s,</w>
co -
cli ent
cla ve.,</w>
ci p
che ddar</w>
cha t.,</w>
cha in</w>
ch ing.</w>
cer ve
cel l</w>
cel esti
cat adores</w>
carne .,</w>
caracter ísticas</w>
car naval</w>
car b
can tes</w>
can .</w>
ca stración</w>
ca so.,</w>
ca ses.</w>
ca mente</w>
ca deira</w>
ca bra</w>
c all
busin es
bud get
bu b
bro u</w>
brea th
bo las</w>
bikin is</w>
ben s</w>
barbecu e.</w>
bar d</w>
bandi do.,</w>
ban don
b eso</w>
aventura ,</w>
auténti co</w>
autoesti ma.,</w>
au tono
attac k.</w>
ativ o.,</w>
ativ as</w>
atisti cs</w>
at s.</w>
at ro
as ticar</w>
as sust
as al
artí sti
archite cture</w>
archite ctu
ar ra
aprove it
appropri ate.</w>
appro val</w>
an dar</w>
an c
an as</w>
am s</w>
am ily</w>
algu én.,</w>
alcan ce</w>
ajud ou</w>
ai a,</w>
agri cultural</w>
ag rí
afri can
affe ction</w>
affe ction.</w>
advi ce.</w>
adver tising</w>
adjus ted</w>
ad op
ad dres
achie ve.</w>
ach ed</w>
acep t
accident s.</w>
accessi ble</w>
ac ho</w>
ac her</w>
ac eler
aboli tion</w>
aber tos</w>
aband on
ab stra
ab a.,</w>
a pre
a paix
a compañ
T oler
T i</w>
Ru by</w>
Ren acer</w>
Pue do</w>
M on
M o
M asticar</w>
M anten
Itali an</w>
I so</w>
Gra cias</w>
Ga star</w>
G od.</w>
Est ab
Deber íamos</w>
D i
C ul
Ba ñar</w>
Afri can</w>
A inda</w>
- lo</w>
,W a
,Tru th</w>
,Sna kes</w>
,S pe
,No t</w>
,Mo tivation</w>
,Le ad
,K is
,Identi ty</w>
,Hi ppopotamuses</w>
,H ist
,Go od</w>
,For giveness</w>
,Fo ods</w>
,F resh</w>
,F amily</w>
,Exces sive</w>
,Dis missal</w>
,D a
,Cho colate</w>
,A d
,A bandon
,"L ove</w>
,"H e
, "</w>
"V aia,</w>
í cul
í a.",</w>
áci do</w>
á s.,</w>
y -to-
x as</w>
worl d,</w>
work ers.</w>
wonder ful.</w>
whi le.</w>
well ."</w>
weap on</w>
wat ched</w>
vizin ho</w>
vio lación</w>
vibr ar.,</w>
vi ño</w>
vers os</w>
ver ti
ver mell
ver de.,</w>
ve u</w>
vali oso.,</w>
valent ía</w>
utiliz ação</w>
utensi li
us pir</w>
ur gent</w>
univers al.,</w>
univer se</w>
un necessary</w>
un lock</w>
un ity</w>
ud .,</w>
u so.,</w>
técni co</w>
turis mo</w>
tur n.</w>
tro pica
triste za.,</w>
tr évete</w>
tr áfico.,</w>
tou ching</w>
toma to</w>
toge ther
tiv ity</w>
tion s,</w>
tion al.</w>
tiem po.,</w>
this ,</w>
therap y.</w>
th or
teste mu
tenden cy</w>
tambori lear</w>
t antes</w>
t ado.,</w>
sín tomas</w>
swe at
sustent abilidade</w>
survi val</w>
survi val.</w>
surpri se.</w>
sur fer
super fíci
sufri r</w>
sue ños</w>
sub mar
su porte</w>
su it
su bir</w>
structu re.</w>
strong ly</w>
sti cos.,</w>
star s.</w>
st un
st rar</w>
st os.,</w>
st ack</w>
sp heri
son hos</w>
solu ción.",</w>
solidari edade</w>
sol o.,</w>
so sti
so s.",</w>
so dy
sk illed</w>
simplici ty</w>
simples mente</w>
si te.</w>
sho p</w>
sho ok</w>
sha pe.</w>
sh oul
sexu al.,</w>
servi ços</w>
ser s</w>
sear ching</w>
se mbrar</w>
se .",</w>
sca red</w>
sal ads.</w>
sail ing</w>
sabed oria</w>
sa vor
s se
s cat
s car</w>
s amente</w>
s ad.</w>
s !</w>
run ning.</w>
ru s</w>
ru ido</w>
ru b</w>
rode an.,</w>
ro sas</w>
ri gor
ri ce</w>
respir ar</w>
resist ente.,</w>
resili encia</w>
res pu
res .",</w>
renew able</w>
rende mento.,</w>
ren al
regi stration</w>
regener ate</w>
regener ar</w>
refle xo</w>
recogni zed</w>
reci pe.</w>
re ti
re presented</w>
re iro</w>
ra s,</w>
ra mento</w>
ra da.,</w>
r are</w>
quen i
pursu e</w>
pul led</w>
publici dade</w>
provi des</w>
priv ate</w>
pres su
pres as</w>
preferi da.,</w>
pre zo</w>
pou ca</w>
possi bility</w>
poin t
po p</w>
po or</w>
plan ning.</w>
plan et</w>
pi queni
pi er
photograph y</w>
pho tos</w>
pesso al</w>
perspectiv as</w>
perigo so.,</w>
perfe ita</w>
per mane
películ a.,</w>
pas sen
pas sado</w>
pas a</w>
parti r</w>
paren cy</w>
pare z
palme ira</w>
ow n.</w>
out ."</w>
ous ness</w>
our ite</w>
ou s,</w>
ou -se</w>
organi c</w>
oran ge</w>
or z
olo gy</w>
ol der</w>
ofer ta</w>
obje ct.</w>
o í
o k
no che.,</w>
ningu én.,</w>
ner o.,</w>
neg li
ne y</w>
ne ve.,</w>
na da
mú tu
mé tri
music al.,</w>
muse um</w>
mul ler</w>
mp kin</w>
mountain .</w>
motor .,</w>
motocicle tas</w>
montan ha.,</w>
moment ."</w>
mistak es,</w>
mirr or.</w>
min ds</w>
mi ú
mi a</w>
med itar</w>
mechani cal</w>
me xi
me ly</w>
mañ á</w>
massa ge</w>
masca vo</w>
mark et
mar gin
manag ing</w>
m ía</w>
m ali
lí n
lí mites.,</w>
lo itar</w>
lo ading</w>
liv re</w>
lingu a</w>
lin es.</w>
li f
les .",</w>
leg s</w>
le tas</w>
le ctura</w>
laugh .</w>
lau gh</w>
la .</w>
la ,</w>
ke ys.</w>
ke y
jue go</w>
jud g
j as</w>
it ch</w>
issu es</w>
investi gar</w>
invest ment.</w>
interest s.</w>
interes ado</w>
inteli xencia</w>
instru ment.</w>
ino a</w>
ini mi
infor med</w>
indica ted</w>
in dí
in conveni
in apropi
improve ment.</w>
impression ante.,</w>
imprescindi ble</w>
import ar</w>
imple ment
ima gem</w>
il s</w>
i ção.,</w>
i ving</w>
i te
i ro,</w>
i mun
i dades.,</w>
hy dro
humor .,</w>
horizon te.,</w>
hon esto</w>
hobb y.</w>
hob by</w>
ho t.</w>
ho mes</w>
he re."</w>
he mian</w>
he ada
happen ing</w>
happen ed.</w>
hap sody
handkerchi ef</w>
hand ling</w>
hac en</w>
habit ación.,</w>
ha ber
ha ,</w>
gy m</w>
guide d</w>
gu ía</w>
gu erra</w>
gre .,</w>
gra ves</w>
gra titude.</w>
gr áfico</w>
go ing.</w>
go .",</w>
gh ten
garden s</w>
gan as</w>
g ê
fute bol</w>
funcion ando.,</w>
funcion a.,</w>
fun n
fuer za</w>
for mar</w>
flo or</w>
fl or</w>
fir m</w>
fin e</w>
fin al.",</w>
fill s</w>
fil m</w>
fil los.,</w>
fideli dade</w>
fica do</w>
fi ction</w>
festiv ais</w>
fav ourite</w>
fascin ante</w>
fam ous</w>
fa st.</w>
fa s.,</w>
f f
f esti
f ere</w>
expectativ as.,</w>
exist e</w>
exist .</w>
ex it
evi dencia</w>
every where.</w>
ev ent.</w>
estratexi a</w>
estat ísticas</w>
est s.</w>
est ación</w>
esper ando</w>
escoi tei</w>
es o.,</w>
es i
es cre
es ?,</w>
er on</w>
er o
er a.,</w>
ent os.,</w>
ent al</w>
ensal adas</w>
enrique ce
engenh aria</w>
enfron tar</w>
ener gía</w>
en te
en ded</w>
emotion al.</w>
emb ra
el liz
effici ent.</w>
educa ción.,</w>
edit ation</w>
eas y-to-
eas y,</w>
ear th
e des</w>
e cho
dy -
dura ble</w>
drin ks.</w>
dream .</w>
dra ma</w>
do se</w>
do ce.,</w>
diver se</w>
disinfe ct</w>
disea se.</w>
discrimin ación.,</w>
dis man
dis arma
dire ito</w>
din heiro</w>
differen t.</w>
di da.,</w>
dete ction</w>
desparra mó</w>
desmoron arse.,</w>
deser ves</w>
desco bri
des perdi
des ani
deman ds</w>
delici osas</w>
deix edes</w>
defin ir</w>
dee i</w>
decre ase</w>
deci sões</w>
deci dir</w>
de- leão</w>
de m</w>
de finan
da s.",</w>
cí n</w>
cán tame</w>
curio sidade</w>
cu esti
ct a</w>
críti cas</w>
cri se</w>
cres ci
cre mo
countrysi de</w>
correct amente</w>
coron avi
cooper ation</w>
conveni encia</w>
conscien tes</w>
consci ous</w>
conmi go.,</w>
conhe cido</w>
confort ável</w>
condi tion.</w>
concer t.</w>
con ve
con e</w>
comú n.,</w>
comu m.,</w>
comprometi do</w>
compren si
complex o.,</w>
compañe iro</w>
compati ble</w>
comp res
comp la
combin ación</w>
comb ina</w>
cole ctiv
co sas.,</w>
clási co</w>
cle are
clari fy</w>
cl es.</w>
cir cle</w>
cion ais</w>
cine ma.</w>
ci sticerco
ci es.</w>
ci a.",</w>
che ck
challeng ing</w>
ch er
celesti al</w>
cau ses</w>
cau ght</w>
car ro.,</w>
can sa
camiñ o.",</w>
ca uti
ca er</w>
ca dos</w>
ca .</w>
brill aba</w>
bri gado</w>
bor n</w>
boo ts</w>
boo k
bi er
bat t
bar ra</w>
ban k</w>
ban ana</w>
bab y</w>
b it
b ill
audi ence.</w>
atop aremos</w>
at ura</w>
at titu
at rá
at os.,</w>
asu star
aster n</w>
aspe ctos</w>
arti ficial</w>
arti fici
arri ve</w>
ar mon
apari ción</w>
apar ência</w>
anti gas</w>
an as.,</w>
al one,</w>
agree ment.</w>
afect a</w>
adver sidade.,</w>
admira ble.,</w>
addi ction.</w>
adaptar se</w>
ad renal
ad os.",</w>
actu al</w>
acti ve.</w>
ac ari
absolu te</w>
ab raz
ab i
a k</w>
U ni
To das</w>
T V
Sent ín</w>
Ro deei</w>
R hapsody
Preci sas</w>
Perci bín</w>
O rgani
O brigado</w>
M udar</w>
L atin</w>
K han</w>
Fix en</w>
F ran
Es cu
De us.,</w>
Bo hemian</w>
Aqu elha</w>
Aqu el</w>
Algu mas</w>
A xu
A treverse</w>
A prove
A cabo</w>
2 0</w>
1 9
1 .</w>
,W rit
,W ould</w>
,Trans parency</w>
,Th ings</w>
,Self- love</w>
,S pices</w>
,R iding</w>
,P op
,M ultiplication</w>
,M oney</w>
,M e
,K now
,I mpro
,I 've</w>
,Gra ffiti</w>
,G ener
,F a
,D an
,Comp assion</w>
,Cocon uts</w>
,Cocon ut</w>
,Che wing</w>
,C hope</w>
,B ro
,Abandon ment</w>
,"H is</w>
,"F or</w>
,"""O ur</w>
,"""D on't</w>
,""" Th
"D e</w>
"" O</w>
"" O
"" Bohemian</w>
" É</w>
" Hai</w>
ú e</w>
ó r
ñ en</w>
í ,</w>
ç a,</w>
Á bre
¿ H
¿ Cómo</w>
¡ La</w>
ze ment</w>
z ed.</w>
z ation</w>
z ar
z ,</w>
you ?</w>
y mous</w>
xu sta.,</w>
xardí ns</w>
x ado</w>
wonder s</w>
weaknes ses.</w>
wea ther.</w>
we d.</w>
wa y."</w>
wa ved</w>
w n.</w>
w ant
vul cá
vulcá ns</w>
volunte ers</w>
visit .</w>
visi ted</w>
viol ência</w>
vi vo</w>
ver sion</w>
ver ses</w>
velo cidade.,</w>
veget ab
ve ."""</w>
valori za</w>
val ente</w>
va -
v ão</w>
ur y.</w>
under water</w>
unbe ar
un known</w>
un ir</w>
un able</w>
ul le</w>
u sel
típi co</w>
té ri
tri un
tri ste</w>
transforma tion.</w>
trans miti
traba jar</w>
tou ch.</w>
toge ther,</w>
to /a</w>
tien es</w>
ti red.</w>
ti ck
th ing."</w>
ten .,</w>
tempor al</w>
televi sión.,</w>
tecnolo gía</w>
techniqu es.</w>
teat ro.,</w>
te mas</w>
te lling</w>
te acher</w>
taref a.,</w>
tare a</w>
tant o.,</w>
ta za</w>
ta se</w>
ta pe
ta d</w>
t ine</w>
t ching</w>
séri e</w>
symbo liz
superfici e</w>
sugges tions</w>
suficien tes</w>
su dden</w>
strate gies</w>
sto red</w>
sti r
st y</w>
st ran
st ones</w>
spectacul ar.</w>
spectac le</w>
sp ine</w>
son .</w>
son .,</w>
sombr a</w>
sobre mes
so m
snow boar
sneak ers</w>
sit o.,</w>
silenci o</w>
significa tivo</w>
si mil
sho o
servi do</w>
segu in
sculp tu
scrat ching</w>
savor y</w>
sau ce.</w>
satisfactori a.,</w>
satis fa
safe ty.</w>
sabi dur
sa x
sa id</w>
s ted</w>
s mal
smal ler</w>
s es,</w>
ru in</w>
ru ido
rou tine</w>
ro s
ro da</w>
ro bo
rich ness</w>
ri es
revi sión</w>
resul t.</w>
responsibili ties</w>
respons ável</w>
resist entes</w>
resist ant.</w>
rende mento</w>
relax ante</w>
relajar me.,</w>
rela ções</w>
refu xi
refres hing.</w>
refle xión</w>
rece itas.,</w>
realiz ação</w>
re ver
re turn</w>
re tos</w>
re to</w>
re mem
remem be
remembe red</w>
re je
re ck
re che
re c
ra dio
r arse</w>
qui e
ques tion</w>
quar to.,</w>
pur po
pue des</w>
provi ded</w>
propri edades</w>
pron to</w>
promo ção</w>
promo ción</w>
profission al.,</w>
produ tos.,</w>
problem- solving</w>
pro active</w>
pro activ
preocupa cións</w>
pregun tas</w>
pre sion
pp os</w>
poñ erse</w>
poten cial.,</w>
post ure</w>
posi ble.",</w>
pollu tion</w>
poli ti
poin t.</w>
po s.,</w>
po i
po bo
plu ma
pizz a.</w>
piz za.,</w>
pin ched</w>
pin ch</w>
pi ano</w>
pho to
phi loso
perfect a.,</w>
perd ón</w>
perce ber</w>
per nas</w>
per deu</w>
pen a.,</w>
peda l</w>
pe t.</w>
pe in
pe ,</w>
pat tern
pat os</w>
pas so</w>
particip ate</w>
parti cul
part ícul
pare za</w>
pare de.,</w>
pare cen</w>
par ques</w>
pan or
palab ra</w>
pal p
pac ífica</w>
pa xaros</w>
pa to</w>
pa so.,</w>
p lo
p ite</w>
over all</w>
out side.</w>
out on
outon o.,</w>
ou s."</w>
os so</w>
org an</w>
oper ating</w>
op posing</w>
on ing</w>
olo xía</w>
offe red</w>
ofen si
obser ve</w>
obser var</w>
o logi
o d
nov ation</w>
no te</w>
ni b
nen os.,</w>
ne uro
ne u
ne gr
na i.,</w>
máxi mo.",</w>
máti co.,</w>
myster y.</w>
my th
mudan ça.,</w>
move ment</w>
motiv ated</w>
mother 's</w>
moder ni
mo od</w>
minu tos.,</w>
mil k</w>
mie do</w>
mid st</w>
mexi can
mere ces</w>
men tes</w>
mel hor
medit ación.,</w>
medi os</w>
me tri
me t
mb ing</w>
maz á</w>
materni dade</w>
mar ath
manten erse</w>
man ti
mach in
ma qui
m ness</w>
lá gri
loyal ty</w>
lon ga</w>
lo s.",</w>
litt le.</w>
ling ü
lim ón</w>
le y
le it
la w.</w>
l ógi
l á</w>
l ha.,</w>
jo gar</w>
is t</w>
ir s</w>
invit ados</w>
inv ent
intro du
intoler ance.</w>
inten so.,</w>
inspir ar</w>
ing .,</w>
inflam a</w>
industri al</w>
industri a.,</w>
indu stry</w>
indispens able</w>
incerte za.,</w>
in mo
in appropriate</w>
improve ."</w>
impac t.</w>
imaxin ación</w>
imagin ation</w>
imagin ation.</w>
im its</w>
illumin ates</w>
il o</w>
idio ma.,</w>
i ga</w>
háb itos</w>
hur dy-
hurdy- gur
hurdy-gur dy</w>
hu mi
hour .</w>
hor ns</w>
ho tograph
histori c</w>
hi dden</w>
health care</w>
he iro.,</w>
harmoni ous</w>
hacer te</w>
ha ya</w>
guitar ra.,</w>
guil t</w>
gue tes</w>
gu ish</w>
gu ia</w>
gu ests</w>
grou ps</w>
gro wn</w>
grav ity</w>
gran de
gra tul
gr áfi
gr y.</w>
gluten -free</w>
gent ly.</w>
gen ous</w>
ge ren
ge ."</w>
gar ant
gal leon</w>
ga ther</w>
g as
g ant
g aleão</w>
fí o</w>
fáci l,</w>
fu e</w>
fron te
fres co.,</w>
fraca so.,</w>
fr ía.,</w>
fotograf ía</w>
forra ção</w>
for tes</w>
for ce.</w>
fix en</w>
filo sof
fil mes</w>
fi le</w>
fi esta</w>
fi cando</w>
fe recemos</w>
favor itas</w>
fas hi
famili ares.,</w>
faith ful</w>
fai th.</w>
fac í
fac e
fa una</w>
fa ther.</w>
f é</w>
extre mely</w>
extra to</w>
explor ing</w>
experien ced</w>
expe cting</w>
exp and</w>
ex a</w>
evolu tion</w>
evi dence.</w>
every thing,</w>
eta pa</w>
estres se.,</w>
estraté xi
estra da</w>
esti los</w>
est é</w>
est a.,</w>
escu pas</w>
escrit ório.,</w>
escapa da</w>
es ted</w>
es con
er as
equip os</w>
envol vi
entre te
entre preneur
entertain ment</w>
ent ly.</w>
ent ing</w>
engine ering.</w>
enga dir</w>
eng ren
ene mi
encontr o</w>
en vel
en d."</w>
en courage
emp ty</w>
emocion ais</w>
elétri ca</w>
elliz cou</w>
eli x
eleg ante</w>
electr onic</w>
efici ência</w>
efica cia</w>
effectiven ess</w>
effectiv ely.</w>
effe cts</w>
earth qu
ear th</w>
e g
dí a,</w>
dur ar</w>
dri ed</w>
dra w</w>
down s.</w>
do or.</w>
divin o</w>
distin tos</w>
distin tas</w>
disea ses</w>
discus sion.</w>
disco vered</w>
discipl in
disarma ment</w>
dis integra
dir ty</w>
diabóli ca.,</w>
dete ct</w>
detal le</w>
desafi os.,</w>
des pite</w>
des integr
des igualdade</w>
des conectar</w>
des activ
depart ment</w>
democra cy.</w>
demo cr
deix arse</w>
defe at</w>
deactiv ate</w>
de par
data .</w>
da y."</w>
d s,</w>
d ro</w>
d one.</w>
d ani
d al
cí an</w>
custo ms</w>
cur to</w>
cul par</w>
cuida dos</w>
cuida do.,</w>
cu t.</w>
cru el
cro cante.,</w>
crian ças.,</w>
credi t</w>
creati ve.</w>
coñe ci
coz y</w>
cour se.</w>
coun ter
corre c
cor vo</w>
cor tina</w>
cor ro
convi ven
conveni ence</w>
continu e.</w>
consu ming</w>
conmi go</w>
congel ar</w>
confli cts</w>
conect ados</w>
concer n</w>
concentra tion.</w>
concentra ción.,</w>
con v
con tradi
con cep
con ceder</w>
compreen são</w>
complex .</w>
competi tion.</w>
come cei</w>
com mer
collabor ative</w>
coida do.,</w>
cocon ut</w>
co vering</w>
co sta.,</w>
co ast.</w>
clou ds</w>
climáti co</w>
clar se</w>
cin a.,</w>
cien do</w>
ci ous</w>
ci os.,</w>
ci cli
ci ais.,</w>
chi cken</w>
chees e.</w>
chan ce.</w>
cha ves</w>
cha n</w>
cas al</w>
cará c
cano es</w>
can cer</w>
camin har</w>
cami sa</w>
cal or.,</w>
cachor ro</w>
ca stra
ca kes</w>
ca ble</w>
c re</w>
buil dings</w>
bre ve.,</w>
bon ita.,</w>
bomb a</w>
bo red.</w>
ble ed</w>
ber ry</w>
belief s.</w>
begin ning.</w>
bed room.</w>
be lt</w>
bail ar</w>
bai le</w>
ba the</w>
b y
b ad
axud oume</w>
ax i
ave ia</w>
authoriz ation</w>
atra ctiv
ativi dade.,</w>
ativ os</w>
astonish ment</w>
assi m</w>
assi m.,</w>
assa ul
asi lo</w>
asegur arse</w>
asegur ar</w>
as sun
arro g
arquite ctura</w>
ari an</w>
ar que
ar me
aqu ellos</w>
applica tions.</w>
apoy ar</w>
apaix on
apa sion
ap point
ap pla
anxi ous</w>
anti gos</w>
answ er."</w>
anno y
anal ysi
an ger</w>
an ,</w>
amor ,</w>
amiz ade.,</w>
ama ble.,</w>
aliz ação</w>
al ém</w>
al la</w>
al ar</w>
al ?,</w>
agree ment</w>
agor a.",</w>
ag ari
afect ados</w>
ador an</w>
admirá bel</w>
adap ted</w>
acro ss</w>
acredi to</w>
ace it
accep ted</w>
ac us
ac ha</w>
ac compani
aby ss</w>
aburri do.,</w>
aborda gem</w>
abon do</w>
able ."</w>
ab ismo</w>
a ños</w>
a tel
a post
T am
Ser ía</w>
S ol
S igue</w>
Portu g
Ou vi</w>
O ri
O ferecemos</w>
M exi
Jun tos</w>
Fo togra
En cántame</w>
Ear th</w>
Déix ate</w>
Co ido</w>
Care zco</w>
Cab e</w>
C uspir</w>
C i
C he
C ast
C antar</w>
Algun has</w>
Al though</w>
Agar ró</w>
A o</w>
0 00</w>
,Wo ol</w>
,W in
,Vol canoes</w>
,U sers</w>
,To gether</w>
,S ol
,S inging</w>
,S il
,R enting</w>
,Pro per</w>
,P reserving</w>
,O ccup
,M editation</w>
,L ack</w>
,In novation</w>
,Hist ory</w>
,H ard</w>
,Gener osity</w>
,Fo re
,Fin an
,F e
,Ex peri
,Da wn</w>
,Con tinu
,Comm unica
,Cal mness</w>
,C ou
,Ani mal
,An choring</w>
,A b
,"S he</w>
,"F ailure</w>
,"""H e</w>
," N
," Although</w>
"N a</w>
"E n</w>
" Xa</w>
" Polo</w>
" F
" Eu</w>
ín do</w>
í vel.,</w>
í as.,</w>
ê s</w>
é uti
áti co.,</w>
á- las</w>
Ábre te</w>
¿H as</w>
z one.</w>
yiel d</w>
yel low</w>
y ester
y ear</w>
x orn
worl d."</w>
work s.</w>
work ers</w>
work ,</w>
women .</w>
wo man</w>
win ning</w>
wea k</w>
we al
we 'll</w>
war ning</w>
w ra
ví ti
visu al.,</w>
visit ing</w>
virtu d</w>
vict ory.</w>
vibra te.</w>
vi vir.,</w>
vi g
ver án</w>
vel ,</w>
ve ñen</w>
ve red.</w>
va ção.,</w>
v est</w>
usti ble</w>
us ers.</w>
up ."</w>
uni que
un ir
un ciar</w>
u mas</w>
turi stas</w>
tu ras.,</w>
tri bu
tre m</w>
travel ing.</w>
transparen cy</w>
transforma ção</w>
transfor mando</w>
trans par
train ed</w>
tradi tions</w>
tradi cións</w>
tra mp
touris m</w>
tou gh
to res.,</w>
to po
to mate</w>
to do,</w>
to do
to ca
to ?,</w>
tin a.,</w>
themsel ves.</w>
tex t</w>
tes .",</w>
terapi a.,</w>
ter ror</w>
ter remo
tempor ar
teléfon o.,</w>
tecnol óxi
te d,</w>
tan ta</w>
tan gle</w>
tam bores</w>
tain ed</w>
ta il</w>
ta ción.,</w>
t atu
t ation.</w>
sí vel.,</w>
swi m</w>
swe ating</w>
sus pi
survi ve</w>
surpri ses.</w>
sun set</w>
subje ct.</w>
suave mente</w>
su poñía</w>
su gest
sugest ões</w>
stun ning.</w>
strugg le</w>
stron ger
stro ke</w>
stre ets</w>
stand ar
stac ked</w>
sta ying</w>
st in
st ant
st ag
st able</w>
st ability</w>
speci al
sp r
sor te</w>
soport ar</w>
son hos.,</w>
some day.</w>
solu cións.,</w>
sole dad</w>
soci aliz
so und
so res</w>
smar t</w>
sil ence.</w>
si de
shi ps</w>
shi pping</w>
servi dor</w>
serious ness</w>
ser ving</w>
ser ver</w>
senti mentos.,</w>
sens ation</w>
seman a</w>
self-este em</w>
sele cción</w>
segur os</w>
segu ra.,</w>
segu indo</w>
se má
semá for
se e.</w>
scho ol.</w>
scat tered</w>
scar f</w>
saí da</w>
satis feito</w>
satis facer</w>
sand wi
san gu
saluda ble.,</w>
sal ud.,</w>
sail ors</w>
sabedor ía</w>
sab ía</w>
sab ia</w>
sa ur</w>
sa car</w>
s so.,</w>
s la
rápi da.,</w>
rode a.,</w>
ro und</w>
ro pe</w>
rit mo.,</w>
ri ver.</w>
ri r</w>
ri b</w>
respira tory</w>
respe tu
repugn ante.,</w>
relev ant</w>
relax es</w>
relationshi p
regul ations.</w>
regi on</w>
reg al
refle ct.</w>
recor da
reconfort ante.,</w>
recommen da
recipro cidade</w>
re vel
re tratados</w>
re r
re port</w>
re pen
re de.,</w>
r úa</w>
r me</w>
que re
que brou</w>
que bra
qu ase</w>
própri as</w>
provo car</w>
prote ín
prote xi
proper ties</w>
promo tion</w>
produ zido</w>
produ tividade</w>
proces sed</w>
pro fit
princi pl
present ation.</w>
present a</w>
pre si
pre sas.,</w>
pra tos.,</w>
pra ticar</w>
pp ortuni
pportuni ties</w>
pos tes</w>
port a.,</w>
pode rei</w>
plan tas.,</w>
pla zo.,</w>
pl ying</w>
pl ant</w>
pi le</w>
pi en
pi ck</w>
pi a</w>
pesso a.,</w>
pes ado</w>
perspectiv es</w>
perso ais</w>
persever anza.,</w>
perfect ,</w>
perfe cto.,</w>
pequen os.,</w>
pen te
pen so</w>
pe za</w>
patter n</w>
passa ge
pas ar.,</w>
partícul as</w>
parti do.,</w>
part ner.</w>
para í
par king</w>
pain t.</w>
pa per.</w>
p é</w>
p le
p ace</w>
p ace.</w>
outro s.",</w>
our s.</w>
oun os</w>
other hood</w>
orn ament
origin .</w>
orient ación</w>
ori o</w>
ori es</w>
organiz ado.,</w>
or ing</w>
or ders</w>
oper ation.</w>
oper ación</w>
on .,</w>
omelet te</w>
ome n</w>
ológi co</w>
ol or</w>
ol ding</w>
ol dest</w>
offe e</w>
ocu p
objectiv es</w>
o s.</w>
nov ela</w>
noti cias</w>
nois y</w>
no te
ni ños</w>
ni o</w>
neighbor hood.</w>
necesi dades.,</w>
ne l.,</w>
ne gar</w>
nave gação</w>
nacion al.,</w>
na qu
n um</w>
n it
n ing,</w>
n ari
médi co.,</w>
máxi mo</w>
má n</w>
musi ca
monta ñas.,</w>
mon th.</w>
moder no.,</w>
moder na</w>
misteri o.,</w>
mista ke</w>
mist ura</w>
mis sing</w>
mis m</w>
min e</w>
mi ght</w>
mer gul
ment ,</w>
medit ate</w>
medit ar.,</w>
me t</w>
mañ ana.,</w>
may or</w>
marabillo sa</w>
marabil las</w>
mar y</w>
mar car</w>
mane ira.,</w>
ma u</w>
ma ture</w>
ma ster
ma sa
ma s.</w>
ma king.</w>
ma ke.</w>
lín gu
lágri mas</w>
luga res.,</w>
lu z.,</w>
lu m
loyal ty.</w>
lou d.</w>
long .</w>
logro s.,</w>
loca is</w>
lo s,</w>
lo gy.</w>
liv ing.</w>
literat ure</w>
lingu axe</w>
lin ing</w>
ligh ting</w>
life 's</w>
lib ro.,</w>
li ved</w>
les son</w>
led ge</w>
lead ers</w>
le vo</w>
le tting</w>
le cción</w>
law yer</w>
lat est</w>
langu ages.</w>
labor at
labor al</w>
la z
la go</w>
l or
l es,</w>
k .,</w>
ju gar</w>
jardi m</w>
is so?,</w>
is ?,</w>
irm ness</w>
ir resisti
invol ves</w>
invol ve</w>
inver sión</w>
interess ante.,</w>
inter face</w>
instru ments.</w>
inse tos</w>
inju ries.</w>
inflamma tion</w>
inesque cí
ine te</w>
indepen den
incre ased</w>
incompar able.</w>
in toxi
in sur
in necesari
in exha
inexha ustible</w>
in cri
in co
impul si
importan te,</w>
ilumin a</w>
illumin ated</w>
ig no
idio ma</w>
ida do</w>
i so,</w>
i se</w>
i dos</w>
i de</w>
humil ity.</w>
human ity</w>
hu mid
hou se
hon ey</w>
ho xe</w>
ho je</w>
históri co</w>
hi xi
her o
heal ing.</w>
he res</w>
he ch
har der</w>
ha va</w>
h ysi
gy m.</w>
gu e.</w>
gran des.,</w>
gra titude</w>
gra phy</w>
gi o</w>
gen u
gen te.,</w>
gar gant
gargant a.,</w>
g ular</w>
g na
g ent.</w>
g en</w>
futu ro.",</w>
futu re."</w>
funn y.</w>
fun ção</w>
fro ze</w>
free zing</w>
fortal eza</w>
forne cer</w>
for mul
for m.</w>
for a.,</w>
foot print</w>
foo t</w>
fon dos</w>
fo se</w>
fo rest.</w>
fo ld</w>
fo go</w>
flo rest
flo ating</w>
flexi bilidade</w>
flash light</w>
fir ma
finish .</w>
fiel ds.</w>
fi que</w>
fi car
felici dad.,</w>
fe et.</w>
fe asi
fas ter</w>
famili ar</w>
facer me</w>
f ter</w>
f rag
f low</w>
f f</w>
f ati
expen sive</w>
exp lica
exhaus ted.</w>
exces i
ex presión.,</w>
ex posure</w>
ex plan
event s.</w>
evalu ate</w>
estre la</w>
estra da.,</w>
estamp a</w>
establi shed</w>
est o
est ate</w>
espectac ular.,</w>
espa cio</w>
esfor ço</w>
esenci ais</w>
escuri dade</w>
escre ver</w>
escol hi
escal ada.,</w>
equi voca
envi ar</w>
entre ga</w>
enth usias
ensur decedor.,</w>
enfermi dades.,</w>
enfer me
energi a.,</w>
encontra dos</w>
en ted</w>
en te,</w>
en e</w>
en cuent
en comen
en able</w>
emotion ally</w>
emocion es</w>
em ble
elin ess</w>
el s</w>
el es.,</w>
edifici o</w>
ed ."""</w>
eco system.</w>
echo ed</w>
e u.,</w>
e k</w>
e at
drin ks</w>
dra in</w>
dr á
dor mir.,</w>
dor .",</w>
doen ças.,</w>
do los</w>
diverti da.,</w>
disappoin ted</w>
dis arm</w>
dire ctor</w>
dio vas
din ero</w>
differen ce.</w>
diferen ças</w>
diaboli cal</w>
diab os</w>
di o.,</w>
di minu
di et
di e</w>
di amon
desga st
descobri r</w>
descan sar</w>
desbo tada</w>
desast res</w>
desajeit ada</w>
desafí o</w>
des men
des ,</w>
dent al</w>
democra tic</w>
democra cia.,</w>
demo gráfico</w>
dema is,</w>
delica da.,</w>
delica cy</w>
deix o</w>
deix ei</w>
defin a.,</w>
dee pen</w>
debili dades.,</w>
de má
de aling</w>
dar me</w>
dar lle</w>
dad .",</w>
da do.,</w>
d ying</w>
d it.</w>
cé re
cur tains</w>
cur tain</w>
cur ry</w>
cuent a</w>
cu án
cu ra.,</w>
cru mble</w>
critici sm.</w>
cri me.</w>
cresci mento.,</w>
cres cer</w>
cre ma</w>
cre ated</w>
cr óni
coñece mento.,</w>
corren do</w>
corre cto</w>
coronavi rus</w>
cor tes</w>
cor .,</w>
convi vência</w>
convers ar</w>
contro lled</w>
contribu ir</w>
continu a</w>
consump tion.</w>
const an
conse qu
conne cts</w>
confort .,</w>
confir m</w>
conf litos.,</w>
cone xi
condi tions</w>
comuni car</w>
comun it
compon ente</w>
compon ent</w>
comple to.,</w>
compassion ate</w>
comp ri
comp ras.,</w>
communi ties</w>
communi ties.</w>
comi chão</w>
comfor t.</w>
come dy</w>
coi dar</w>
co lum
co che,</w>
clo sed.</w>
cla y</w>
civi liz
cin to</w>
cho sen</w>
che er
char ity</w>
ch ol
ces ,</w>
cere mon
cent uri
ce mento.,</w>
cast ing</w>
carb on</w>
car ros</w>
car diovas
car 's</w>
cap tiv
can so</w>
camin ho.,</w>
cami ón</w>
cambi ou</w>
cam era</w>
cabe ça.,</w>
cabal o</w>
ca z
ca ss</w>
ca fe
ca dea</w>
c ing.</w>
bril h
brea the</w>
bre i</w>
bra in</w>
boundari es</w>
bot tom</w>
boar d.</w>
bo s
bo ats</w>
ble d</w>
ble ,</w>
bl ess
bio logical</w>
bicicle ta.,</w>
bi gger</w>
bi g.</w>
bever ages.</w>
ban da</w>
ba it</w>
b s.</w>
b ati
b a.,</w>
axud ar.,</w>
axu st
axu de</w>
avi ón</w>
aventu ras.,</w>
au ty</w>
au ghter</w>
atten tive</w>
atra ves
atra pado</w>
ativ o</w>
asegu rate</w>
as s
arro gan
arri mar</w>
ar -
apren di
apar t.</w>
ap .</w>
anno un
anc est
analy ze</w>
an other.</w>
an cla
amp li
am bo
aliment ación</w>
ali st</w>
algun has</w>
al o.",</w>
agrade cer</w>
again ."</w>
afterno on</w>
affe cting</w>
aeron ave</w>
ador as.,</w>
admira do</w>
adecu adas.,</w>
adap tación</w>
aconte cer.,</w>
acol led
acep tación</w>
accura te</w>
accu mulation</w>
accu mul
acab ado</w>
ac company</w>
aber ta.,</w>
aba ix
ab ru
ab out.</w>
ab orar</w>
a ver
a te,</w>
a des</w>
a ."</w>
T ent
Se gue</w>
S pani
S exa</w>
Re almente</w>
Que brei</w>
Qu ei
O u</w>
Nu est
Neces itas</w>
Nat al.,</w>
Min has</w>
Mexi can</w>
M as</w>
Levant ou</w>
Indi an</w>
Gar cía</w>
Gabri el</w>
Fotogra far</w>
F ale
Euro pe
Esque cín</w>
D is
Cor rer</w>
Cast rar</w>
C ol
C ar
Bus ca</w>
B reaking</w>
B ei
Apren damos</w>
A segura</w>
A pro
5 0</w>
2 0
.. .",</w>
- rich</w>
,Writ ing</w>
,Sil ence</w>
,Re gular</w>
,Pro tecting</w>
,Pop ulation</w>
,Pean ut</w>
,Pa sta</w>
,P oli
,Occup ying</w>
,O r</w>
,Mo tor
,L imits</w>
,L aughter</w>
,Know ledge</w>
,H air</w>
,Finan cial</w>
,F irmness</w>
,D et
,D are</w>
,Custo ms</w>
,Cul ture</w>
,C offee</w>
,C ell</w>
,Be auty</w>
,B u
,At ten
,Animal s</w>
,"S ome</w>
,"A fter</w>
,""" It</w>
"C o</w>
" Qu
ón s,</w>
ísti cas.,</w>
ê .,</w>
éx ito,</w>
ç o
á- la.,</w>
á bel</w>
¿ Qui
¿Qui eres</w>
zi um</w>
z es.,</w>
xé nero.,</w>
x ornada</w>
work place.</w>
wor se.</w>
wor ries.</w>
woo den</w>
wo od.</w>
window s</w>
wi se</w>
wat ers</w>
was her</w>
war m.</w>
wall s</w>
wal k
w ar</w>
víde o</w>
vizin han
vizinhan ça.,</w>
vit amin
visit antes</w>
vin do</w>
vig il
vict ory</w>
vibra te</w>
vi vos.,</w>
vi axe
vi agem.,</w>
ver 's</w>
ven cer</w>
vel .",</w>
vehi cles</w>
ve re
valu ed.</w>
vali osas</w>
va z
v ía</w>
v ários</w>
v es,</w>
uten sil
usi ast
us ar.,</w>
up ward</w>
unpredict able.</w>
uni ão</w>
uni dade</w>
un t</w>
tu al</w>
tri pul
trape zium</w>
transpar ência</w>
tranquil a</w>
tranquil a.,</w>
tr ying.</w>
tori o</w>
tor s</w>
toler ância</w>
today ?</w>
tiv en</w>
tien en</w>
ti re</w>
ti mel
ti .",</w>
ti ,</w>
thre aten
thre at.</w>
thin king.</w>
ther ing</w>
ther api
the re.</w>
that ,</w>
th es
ter ing</w>
ten i
ten cer</w>
temp tation</w>
tee th.</w>
tecnol ógi
technolo gies</w>
te or</w>
te is</w>
tape te</w>
ta x
ta to</w>
ta ke.</w>
t est.</w>
t aba</w>
syste ms</w>
sy non
synon ymous</w>
surro und
surpri sing.</w>
sur ve
sur presa</w>
suppor ted</w>
super mercado.,</w>
super market.</w>
sun light</w>
sue ño</w>
succes s."</w>
su bli
stri ve</w>
stret ch</w>
stre et
sticerco sis</w>
ste p.</w>
st ro.,</w>
spo ke</w>
spira tion</w>
spheri cal</w>
spee ch</w>
spee ch
sou l
sorpren der
son ora</w>
solit ary</w>
sobri ño</w>
so spe
so pa</w>
so o
so a</w>
so a.,</w>
snac k.</w>
slo pe</w>
sk i
sinx ela</w>
sincer idade</w>
sinc ere</w>
sin k</w>
si ga</w>
sho ck</w>
shin y</w>
sha res</w>
sen se.</w>
sen d</w>
self- love.</w>
sel va</w>
seguin te</w>
se ction.</w>
se at</w>
san it
sal gada</w>
sabor oso.,</w>
sa pato</w>
sa ia</w>
sa da</w>
s pare</w>
s enten
s cru
roo ts</w>
ro ller
ro ck
ro cha.,</w>
ri v
ri ding</w>
revi sar</w>
reuni ón.,</w>
respe to.,</w>
resist ência</w>
resist ance</w>
resi dent
res ent
repu tation</w>
repu tación</w>
replac ed</w>
ren da</w>
ren acer</w>
relax ation</w>
reflexion ar.,</w>
refle cting</w>
refle cted</w>
refe ição</w>
redu ci
recipro city</w>
reas ons</w>
reali stic.</w>
re fer
re cre
re al.,</w>
raz óns</w>
raz o
rapide z</w>
rapide z.,</w>
rapi dly.</w>
ra y</w>
ra inha</w>
ra ge</w>
ra dica
ra b
r ón</w>
r ín</w>
r ito.,</w>
r ing
r al
ques tion.</w>
quen tes</w>
que te</w>
que les</w>
que ira</w>
que en</w>
que br
qu ant
pyrami ds</w>
purpo se.</w>
psi col
proteí nas</w>
proje ct
profunda s.,</w>
profun das</w>
profission ais.,</w>
pro posta</w>
pro post
pro curar</w>
pro cra
pro ba</w>
principl es.</w>
preven ted</w>
present s</w>
pres s</w>
prepar ando</w>
pregun ta</w>
predi cting</w>
pr os</w>
possu i</w>
possu em</w>
port s</w>
port as</w>
popul ation.</w>
po dr
plas tic</w>
pl y.</w>
pie ces.</w>
pie ce.</w>
pi sta</w>
pi menta</w>
pi cante</w>
ph eno
pheno men
peti ción</w>
pesqui sa</w>
person i
permiti ulle</w>
permiti rei</w>
perm it
perigo so</w>
per seguir</w>
pens an</w>
pens amentos.,</w>
peix es</w>
peix e.,</w>
pe i</w>
pati ents</w>
particip ation</w>
parti cles</w>
pare des</w>
pare ce.,</w>
par ri
par ks</w>
palav ras</w>
pain ting.</w>
pain t</w>
pa ying</w>
p ush</w>
p ure</w>
p on</w>
p ,</w>
out come.</w>
oul le</w>
other s."""</w>
orix in
organiz ada.,</w>
oppon ent</w>
on keys</w>
oli ves</w>
ol vi
ol har</w>
ol d.</w>
ol .,</w>
o tra</w>
o mb
nutri ents.</w>
nutri entes.,</w>
ni val</w>
nervi oso</w>
neg le
ne o</w>
navig ation</w>
n uma</w>
n as.,</w>
n ,</w>
mús culos</w>
mó bil
mí ni
mé ti
mutu amente</w>
muse o</w>
mundi al.,</w>
mun do.",</w>
multip le</w>
much os</w>
mp re</w>
move ment.</w>
monta ña.,</w>
mon th
mon os</w>
mol ha
mo tori
mo s.",</w>
mis são</w>
mini stra
min ori
min ds.</w>
mi da</w>
mes ma.,</w>
mensa xe</w>
memor ies.</w>
memb ers</w>
medit ation.</w>
medit ate.</w>
mediev al</w>
medi a.,</w>
materi ais.,</w>
mater io</w>
mat ters</w>
marin heiros</w>
mar cas</w>
mar ca.,</w>
mar ca
maquilla xe</w>
manu fac
mante iga</w>
man chas</w>
mal o</w>
maca cos</w>
ma tur
ma gin
ma gi
ma est
ma da</w>
m ão.,</w>
m ?,</w>
lí mite</w>
lux ury</w>
lu zes</w>
lu xo</w>
lon xe</w>
lo ves</w>
lo ve,</w>
lo s
lo que
lingu is
linguis tic</w>
limit ations.</w>
lider ado</w>
li xe
li t</w>
less ness</w>
legi slation</w>
leav es.</w>
leas h</w>
leal dade</w>
leader ship.</w>
lead er.</w>
le ga
lap top</w>
la va-
la da.,</w>
jun gle</w>
jac ket</w>
j or
j az
it self</w>
is ure</w>
invol ve
investi dores</w>
internacion ais.,</w>
interes es.,</w>
intere ses</w>
inter net
inter fere</w>
insul tar</w>
ino saurs</w>
inf ância.,</w>
indúst ria</w>
indi genous</w>
incrí vel</w>
increí ble.,</w>
incredi ble.</w>
in sensi
in je
in fer
in corpor
impres sed</w>
imp ru
imediat amente.,</w>
ilumin ar</w>
il y."</w>
igh t
ide ia</w>
ide ais</w>
ida mos</w>
i tem</w>
hun g</w>
humil de</w>
humil dade.,</w>
humil dad</w>
hu ge</w>
hotograph y</w>
hon ra</w>
ho men
hin ese</w>
hi gien
hi de</w>
her self</w>
he ight.</w>
he igh
he 's</w>
har vest</w>
happi er</w>
happen s</w>
gust an</w>
gu m</w>
gu en</w>
grou ps.</w>
go bier
gi slation</w>
gener ous</w>
gener ations.</w>
ge ther,</w>
ge ar</w>
gañ ar.,</w>
ga .</w>
g usto</w>
g s.</w>
g ir</w>
g ante</w>
function ing</w>
fun do</w>
full est."</w>
ful l.</w>
fu ente</w>
friend s,</w>
friend 's</w>
fren te</w>
free ze</w>
forma s.,</w>
for mi
fo to
flu ctu
flo rece.,</w>
fle xí
flavor s</w>
fin s</w>
figu re.</w>
fi z</w>
fi m.,</w>
fi cción</w>
feli ces</w>
fe itos</w>
fe i
fe ature</w>
fall ing.</w>
failu res</w>
fací ao</w>
factor s.</w>
facilit ate</w>
facili dade.,</w>
fabri ca
fa vo
fa cial</w>
f one</w>
expli car
exper ts</w>
exis t</w>
exerci ses.</w>
exci ting."</w>
excessi vo</w>
ex am
estrela s.,</w>
estratexi as</w>
est acion
esqu ina</w>
espre mer</w>
esper an
espectac ul
esféri ca</w>
esfor zos</w>
es pal
es cr
es as</w>
erro s,</w>
er do</w>
equip ment.</w>
enví o</w>
enth usiast
ent revi
ent reg
ent r
ensin ache</w>
enor me</w>
enjo y
engren agem</w>
engine ering</w>
enci a,</w>
en os</w>
en op
en d,</w>
empre go</w>
emocion ante.",</w>
emo tion.</w>
eléctri ca</w>
elev ation</w>
efe cto</w>
económi ca.,</w>
econom ía.,</w>
eco s
easi ly.</w>
earthqu ake</w>
ear s.</w>
e uro
e ira.,</w>
e d,</w>
e ?</w>
dru ms</w>
docu ment</w>
do mé
dist ân
discu sión.,</w>
dis curso</w>
direct ly</w>
dire ção</w>
dire ctri
directri ces</w>
dign ity</w>
dificul dades</w>
differen ces.</w>
diagno sed</w>
di to</w>
di d.</w>
detall es.,</w>
destin ation</w>
desta cou</w>
desser ts.</w>
despe jar</w>
desmen tir</w>
desafí o.,</w>
desafi o.,</w>
des fru
des cul
der re
depor te.,</w>
dep th</w>
den ly,</w>
democra cia</w>
deli very</w>
defe ated</w>
dedica ción.,</w>
deci sões.,</w>
deci de.</w>
deber ían</w>
de vo
de vida</w>
de pri
de lighted</w>
de les.,</w>
de ba
de a
dea th.</w>
danger ous.</w>
dama ged.</w>
dama ge.</w>
da p
d d
d -
cómo da</w>
có di
customiz ed</w>
custo mize</w>
curio sidad</w>
cump rín</w>
cuesti óns</w>
cu los.,</w>
ction ,</w>
críti co</w>
críti cas.,</w>
críti ca.,</w>
cruci al.</w>
cru cial.,</w>
cro ss</w>
critici sm</w>
cri ação</w>
creativ os</w>
creativ a.,</w>
crat ching</w>
countr y's</w>
coun t</w>
cos méti
cortin as</w>
cora xe</w>
conversa ción</w>
contro l,</w>
continu ar.,</w>
conta to</w>
cont ent.</w>
constru ction.</w>
constan temente</w>
cono ci
conjun to</w>
confi ável</w>
condi tion</w>
con chas</w>
compro mis
comport amento.,</w>
complex os</w>
comple xo</w>
comple tar</w>
comple tamente.,</w>
competi tive</w>
compartil har</w>
compa si
communica ting</w>
commer cial</w>
comfort ing.</w>
come ço.,</w>
combin ed</w>
com er.,</w>
colo red</w>
colle ction</w>
collabor ation.</w>
col aborar</w>
co tidi
co st</w>
co sme
co pe</w>
co la</w>
co gni
co ches</w>
clássi ca.,</w>
cli mb</w>
cli materio</w>
clean ing.</w>
clean .</w>
clas s.</w>
clar amente</w>
cla re
ciu da
cisticerco se</w>
cin e.,</w>
cient ífica</w>
cicatri z</w>
ci ty
ci ais</w>
churras co.,</w>
chur ch.</w>
check -
che wing</w>
charac ter.</w>
ch ess</w>
ch ,</w>
cer mos</w>
cen do.,</w>
ce l</w>
carbon o</w>
car p
car ga.,</w>
car ,</w>
can dies</w>
cabe los</w>
ca val
ca usado</w>
ca res
ca da.,</w>
ca ?,</w>
c ã
c cións</w>
c al.,</w>
but ter</w>
but ter
bud get</w>
bu ra
brea king</w>
bor ing.</w>
bomb óns.,</w>
bo squ
blow ing</w>
ble eding</w>
bene fit</w>
believ ed</w>
behin d.</w>
be m.,</w>
be ings</w>
be er.</w>
be comes</w>
be ar</w>
bath room.</w>
baix ar</w>
bag un
b á
aç ão.",</w>
az er</w>
ax ú
avo gado</w>
autum n</w>
attra ctive</w>
attra cting</w>
atten ded</w>
atr évete</w>
at aque
asun to</w>
assist ance</w>
asse mble</w>
asi de</w>
arru inar</w>
arroj ou-se</w>
ari se</w>
ari es</w>
ar é</w>
ar tes</w>
ar med</w>
aqu ilo</w>
apres ur
apreci ada</w>
applica tion.</w>
appli ed</w>
appe ar</w>
apo u</w>
aplica ções</w>
ap ones
ap lau
anti go</w>
ansi e
anivers ario.,</w>
analysi s.</w>
an do.",</w>
an ch
alli ance</w>
alli ance.</w>
ali ve</w>
algu ma</w>
alar m</w>
al tura.,</w>
al titu
al ou</w>
al gar</w>
air craft</w>
agri cultura</w>
agor a?,</w>
addi ction</w>
ada .",</w>
ad qui
ad dress.</w>
ad .,</w>
acous tic</w>
accompani ed</w>
acci dente</w>
aca de
aca ba</w>
ac lar
ac ha
ac as</w>
abun dan
absces s</w>
abraz os</w>
able d.</w>
abces so</w>
ab use</w>
a postes</w>
a es
a -se</w>
Ze ppelin</w>
V in</w>
Qu eria</w>
Perci bo</w>
Per tencer</w>
P osso</w>
Organi cei</w>
Manten ha</w>
Mad urar</w>
L e</w>
Jun tos,</w>
J o
G reat</w>
Fi co</w>
Extra ño</w>
Euro pa</w>
Escu pir</w>
Deber ía</w>
Da y.</w>
Cul tivar</w>
Bei jar</w>
B loque
B i
B 1
Apro vamos</w>
Apren do</w>
Apren di</w>
An clarse</w>
A trévete</w>
A s
A r
A migos</w>
A fron
6 0</w>
.. ."</w>
,Tra ining</w>
,The odolite</w>
,Te aching</w>
,S tu
,S tro
,S top</w>
,S cratching</w>
,Re birth</w>
,Qu ality</w>
,P laying</w>
,M otherhood</w>
,M aking</w>
,Le gislation</w>
,L ust</w>
,L on
,L it
,Invest ors</w>
,Hi ppos</w>
,He alth</w>
,H or
,H aving</w>
,G rowing</w>
,Fin d</w>
,D ried</w>
,D re
,Cy cle</w>
,Communica tion</w>
,Bro wn</w>
,A t</w>
,A dap
,"To gether,</w>
,"E ven</w>
,""" C
," Ex
," As</w>
"S e
"" I</w>
" Já</w>
" Juntos,</w>
" Isto</w>
úti les</w>
ú til
óri os</w>
ór gan
ñ an</w>
ín ti
ên cias.,</w>
éx ito.",</w>
éti cos.,</w>
éti co.,</w>
én ,</w>
é ni
ç os.,</w>
ç ada</w>
ár que
án donos</w>
á is</w>
Á fri
zap atos.,</w>
z ol
z ação</w>
z ado</w>
z ación</w>
yourself ,</w>
yo ga.</w>
y et.</w>
xuí zo.,</w>
xener osidade</w>
x ías</w>
x ur
x ul
x ato</w>
x adear</w>
x ad
work ."</w>
wor se</w>
wor ries</w>
woo len</w>
with stand</w>
wil ling
willing ness</w>
wil l
wel come</w>
week end</w>
we b</w>
water fall.</w>
was te.</w>
wa ve</w>
vulner ables.,</w>
volun tari
volati lidade</w>
você s.,</w>
vit oria</w>
viol encia.,</w>
viaj ar.,</w>
vi cio</w>
versáti l.,</w>
veri fy</w>
ven til
ven do</w>
vehí culo</w>
ve jo</w>
vari e
vali da
v áli
usu arios.,</w>
usti c</w>
use d.</w>
urban a.,</w>
ur in
ur gently.</w>
up hol
unloc king</w>
underes tima
und red</w>
uncertain .</w>
unbear able.</w>
un wa
un tie</w>
un less</w>
ud denly,</w>
u stro
tó dolos</w>
técni ca.,</w>
trou xe</w>
trou ble</w>
tri z</w>
tri st
tri ps.</w>
tri l
tran ças</w>
tradi ção</w>
tradi ción</w>
trabal lo,</w>
tra zer</w>
tra te</w>
touri sts</w>
tor s.</w>
tor no
to ys</w>
to tal.,</w>
to p.</w>
to mou</w>
to mar.,</w>
tion 's</w>
ti ed</w>
ti co.,</w>
thre e</w>
thing s,</w>
thin .</w>
the ory</w>
that ."""</w>
th ers</w>
th ."</w>
tes ouro.,</w>
terr or.,</w>
ten d</w>
tempo .",</w>
temperat ure.</w>
techni ques</w>
team 's</w>
te- de-leão</w>
te lo
te lls</w>
te cidos</w>
te ."</w>
tar t</w>
tamb our
t win
t s."""</w>
t ress</w>
t res</w>
t our
t all</w>
t ados.,</w>
t act</w>
sustent ável</w>
sustain ability</w>
sushi .</w>
sur face.</w>
suppor tive</w>
superviven cia</w>
super á-la</w>
super ación</w>
substitu ir</w>
su elo</w>
stud ents</w>
strate gi
stor m.</w>
stop ped</w>
stop .</w>
sto /a</w>
ste ha</w>
ste al</w>
star ry</w>
st ation.</w>
st at
stat us</w>
st aria</w>
st age.</w>
sport .</w>
sp ring</w>
soñ ar.,</w>
sosten i
sorpren der</w>
sorpren dente.,</w>
sor presa.,</w>
son al</w>
sole ly</w>
sol ved.</w>
sol tar</w>
softwa re.</w>
so on
sn ack</w>
smo oth</w>
slow .</w>
situation ?</w>
situa ción.",</w>
situa ciones</w>
situ ation."</w>
siti o</w>
sing er</w>
sin alizar</w>
sin alización</w>
simp les.,</w>
simil ar</w>
significa tivas</w>
si t</w>
si ght.</w>
si endo</w>
si .,</w>
show er.</w>
shop ping.</w>
shop .</w>
sh .</w>
señ al</w>
senti u</w>
senti ment
sent i</w>
sen t</w>
sel y.</w>
see ms.</w>
see ds</w>
sect ors.</w>
seas on</w>
se ts</w>
se mos</w>
se ly</w>
se c
sche du
sces ses</w>
scen e</w>
scen e.</w>
saud áveis.,</w>
sapati lhas</w>
sal ir</w>
sai u</w>
sac red</w>
sa po</w>
sa patos</w>
sa irá</w>
s y.</w>
s se</w>
s pa
s care
s atur
s ados</w>
rus a,</w>
ru í
ru tina</w>
ru g
rug by</w>
roo ts.</w>
románti ca.,</w>
ro stro</w>
ro m</w>
ro m
ro cks</w>
ri vers</w>
ri so
ri o.,</w>
revi gor
restri ctions</w>
restri ctions.</w>
respu esta</w>
resist encia</w>
resili ência</w>
res po
remin ds</w>
refu ge</w>
ree k</w>
redu ção</w>
recor d</w>
reci bi
reas ons.</w>
realiz ed</w>
re volu
re memb
re ach.</w>
raí ces</w>
ra va</w>
ra dos</w>
r ão.,</w>
r usa</w>
r .",</w>
ques tions</w>
ques tions.</w>
ques tion
qu inoa</w>
qu ería</w>
qu e.</w>
pursu it</w>
pun to.,</w>
pró s
propó sito.,</w>
propor cionar</w>
programa ción</w>
progra m.</w>
procra stin
proces so.,</w>
proce ed</w>
pro secu
pro mes
priori dade.,</w>
prin ces
pri vi
pri or</w>
pri ma</w>
prevent s</w>
pres cri
pre y</w>
pre y.</w>
pre pare
prati cantes</w>
pou cas</w>
positiv os.,</w>
positiv ely</w>
posi ción.,</w>
posi bilidade</w>
port es.,</w>
port .</w>
polu ição</w>
poli sh</w>
poin ts.</w>
poe try.</w>
pobre za</w>
po ol</w>
plea se."</w>
plata forma</w>
plan s.</w>
pin k</w>
pick er</w>
ph y.</w>
pesqui sas</w>
perdo ar</w>
per u
per ro</w>
per di</w>
per der.,</w>
pen sei</w>
pe pper</w>
pe dido</w>
passion s.</w>
participa ção</w>
parti das</w>
paral y
panturri lha.,</w>
pan el</w>
paisa xe.,</w>
pa usa.,</w>
pa sta
pa st
pa el
p har
p ha
overw helme
