#version: 0.2
e r
i n
e n
t h
e n</w>
c h
a n
e r</w>
u n
e s
i e</w>
e i
a l
c h</w>
a r
s t
th e</w>
o n
e l
t i
o r
" ,</w>
a u
l i
e in
a s</w>
, "
e s</w>
o u
i n</w>
. ",</w>
h a
i s
t o</w>
. "</w>
r e
w i
an d</w>
in g</w>
o f</w>
o n</w>
i s</w>
un d</w>
a t
d ie</w>
en ,</w>
a s
r o
d er</w>
a t</w>
d i
a n</w>
i t
e ,</w>
o m
e t
s ch
i ch</w>
e d</w>
e h
o l
v er
. ,</w>
th at</w>
i t</w>
b e
u r
u s
d e
r a
i ch
t e</w>
t er
a b
n d</w>
" "
g e
d en</w>
l e
v e</w>
m a
r i
t ,</w>
o r</w>
al l
n o
z u</w>
i l
a m
' s</w>
d er
o u</w>
t en</w>
d as</w>
en .",</w>
a c
in g
p l
w as</w>
ein e</w>
w h
is t</w>
i g
ei n</w>
y ou</w>
wi r</w>
h r
a g
er e</w>
w e</w>
s o</w>
en t
s i
l o
s ,</w>
th e
ti on
T h
s e
A nd</w>
el l
s e</w>
a l</w>
s p
d e</w>
n ich
w a
n e
v i
v on</w>
d as
di es
f ü
t e
S ie</w>
un g
s ie</w>
f f
c k
u m</w>
g en
das s</w>
u t</w>
ha t</w>
b e</w>
th is</w>
e m
- -</w>
ou t</w>
u t
ar e</w>
s t</w>
d ,</w>
i r
u m
t h</w>
k e</w>
y ,</w>
a ch
w or
g h
w e
nich t</w>
b er</w>
u l
un g</w>
i c
ti on</w>
f or</w>
li ch
d en
b en</w>
ou r</w>
l e</w>
h o
m it</w>
p ro
i st
c om
p e
in d</w>
li ch</w>
i m
w ei
en t</w>
U nd</w>
ha ve</w>
p er
g o
e m</w>
p o
al l</w>
" D
d o
w er
d a
f or
w ie</w>
au f</w>
i e
s a
I ch</w>
t er</w>
i r</w>
t r
all y</w>
n en</w>
l d</w>
e x
c on
t o
m o
en n</w>
," And</w>
wi th</w>
b er
i er
s ich</w>
al s</w>
fü r</w>
ö n
ch en</w>
g e</w>
an d
l y</w>
" W
r e</w>
c an</w>
' t</w>
a r</w>
the y</w>
wi r
au s
g es
m e
g i
g en</w>
s u
s o
ein en</w>
s eh
on e</w>
t u
an n</w>
z u
ol l
es s
S o</w>
t a
ab out</w>
w ar
e c
de m</w>
w hat</w>
ä n
ei t</w>
no t</w>
t .",</w>
b o
m an</w>
c e</w>
ou ld</w>
S ch
m e</w>
k ön
s h
s om
i m</w>
p p
en .,</w>
es ,</w>
es e</w>
e u
e ar
a hr
c o
a ch</w>
m y</w>
pl e</w>
I n
c i
en sch
' re</w>
th er</w>
q u
h er
r u
s ind</w>
," Th
f ro
un s
r ei
t s</w>
E s</w>
r es
d es</w>
a tion
pe o
," I
et z
ha t
us t</w>
. ""
ein er</w>
dies e</w>
s el
d o</w>
, Th
A l
a h
s ."</w>
" Und</w>
fro m</w>
s en</w>
in d
V er
a f
th er
m or
a d
ver y</w>
li ke</w>
ch e</w>
A n
e ."</w>
au f
au se</w>
an der
g an
ü ber</w>
wa r</w>
ein em</w>
un s</w>
k no
s ag
m en</w>
u r</w>
w enn</w>
e d
e v
b ut</w>
b r
," W
, And</w>
S t
ü r
a p
( L
b es
P ro
o der</w>
o g
it 's</w>
b en
j ust</w>
" Ich</w>
an n
peo ple</w>
at e</w>
an t</w>
i h
l l</w>
ter )</w>
y ou
th ing</w>
ha ben</w>
I '
an g
t en
k om
A r
ä ch
s .</w>
e l</w>
h e</w>
p ar
e .</w>
k ing</w>
ho w</w>
g l
th at
al so</w>
g eh
au s</w>
ch t</w>
un d
i el
B ut</w>
m an
b y</w>
th ese</w>
th in
i f</w>
U n
ei t
be c
k l
G es
u s</w>
h al
m er
M ensch
p a
as s
e k
t e,</w>
a tion</w>
e g
E r
i er</w>
ö r
th ei
ab er</w>
th ing
lo o
y our</w>
d ar
au ch</w>
mor e</w>
d u
st en</w>
au gh
thei r</w>
o h
wh en</w>
a m</w>
v er</w>
go ing</w>
g r
L e
ä h
g er
y ."</w>
n ur</w>
A ber</w>
e 's</w>
g ro
t ra
N o
en d
bec ause</w>
0 0</w>
i hr
b i
E n
w is
o p
in ter
t ur
ha d</w>
w ,</w>
t en,</w>
z i
, W
w ere</w>
ti m
kön n
f e
v or
b t</w>
ung en</w>
li t
s y
J ahr
D as</w>
ge t</w>
t ed</w>
ou r
er ,</w>
G e
A u
," So</w>
u p</w>
" "</w>
y ear
am e</w>
w ur
som e
wh ich</w>
ist ,</w>
er n
."" "</w>
c re
d ur
t ing</w>
ol og
o ther</w>
gh t</w>
in e</w>
a k
i k
e p
y .</w>
w o</w>
en d</w>
wh o</w>
w ould</w>
st ar
st ell
d es
ch n
b le
(L augh
d on
(Laugh ter)</w>
b et
es s</w>
n 't</w>
f t</w>
seh r</w>
ti g
el t</w>
ig h
i z
s on
a ti
b u
t .,</w>
re ally</w>
m us
f in
" Es</w>
ü ber
w n</w>
thin k</w>
n e</w>
b l
b en,</w>
ü ck
p h
no ch</w>
be i</w>
h as</w>
o o
h e
wi ll</w>
un der
in to</w>
t el
m eh
"W ir</w>
se e</w>
ma ch
im m
t .</w>
t 's</w>
ing ,</w>
m ich</w>
th ere</w>
il li
wh ere</w>
e y</w>
j e
f l
? ",</w>
kön nen</w>
z ei
W ir</w>
"D as</w>
ac tu
th o
m ö
c k</w>
d ann</w>
wer den</w>
som e</w>
I h
i c</w>
in n
Mensch en</w>
, I
r an
it y</w>
the m</w>
p r
d is
o b
b ac
g ra
m en
a ,</w>
li e
vi el
don 't</w>
? "</w>
st e</w>
gi bt</w>
I' m</w>
il d
? ,</w>
ti c
ü s
or t</w>
b ei
h in
t ri
n ach</w>
ä r
m u
lich e</w>
f ri
th en</w>
t al
com p
k ann</w>
wir k
w ant</w>
di ff
en .</w>
h ier</w>
o ,</w>
g h</w>
," I</w>
wa y</w>
or t
ag e</w>
B e
dies er</w>
as t</w>
actu ally</w>
f ir
d s</w>
kno w</w>
ge b
et was</w>
wir d</w>
that 's</w>
meh r</w>
g u
ab le</w>
f ac
k on
eu te</w>
c ould</w>
r on
Y ou</w>
uns er
v or</w>
" E
ha pp
z en</w>
der n</w>
ou gh</w>
be en</w>
sch af
l a
w ür
S p
ma l</w>
es ."</w>
i de
z um</w>
" Sie</w>
l l
st eh
mo st</w>
y s</w>
t ro
un k
, So</w>
D i
," But</w>
all e</w>
o und</w>
Ges ch
w oll
v ing</w>
g o</w>
st u
ü n
t re
p re
s ol
a d</w>
A p
ur e</w>
un ter
G el
."" ",</w>
lich en</w>
g el
en c
m it
h er</w>
o f
"W enn</w>
w el
s ein
sa i
m ,</w>
ig n
th an</w>
diff er
r it
ne u
m ir</w>
c ar
G r
s en
ha be</w>
ma ke</w>
, I</w>
m ar
," S
o ff
ig e</w>
el y</w>
es t</w>
' ve</w>
t z
h el
"D ie</w>
kom m
l an
tho se</w>
s ich
k en
uns ere</w>
li f
c l
g re
dur ch</w>
com e</w>
ti v
,"Th e</w>
ti me</w>
ei l
k eine</w>
imm er</w>
ein es</w>
ch te</w>
g et
," No
is ,</w>
b ra
thing s</w>
ein f
n ,</w>
er s</w>
m on
k en</w>
gro ß
f u
Ap pl
t le</w>
a ff
k ,</w>
y ing</w>
( Appl
e t</w>
m üs
sy st
k ann
im p
fir st</w>
D ie</w>
hat 's</w>
c an
b el
E in
ne w</w>
2 0
" Al
be g
" M
etz t</w>
es t
wei l</w>
is chen</w>
m eine</w>
l d
ihr e</w>
M e
s in
f ra
ut z
f ol
es .</w>
" Aber</w>
on ly</w>
en ti
ev en</w>
i es</w>
t en.",</w>
ung s
a st
et ,</w>
ung ,</w>
h um
ch an
R e
vi el</w>
r ich
l ei
h is</w>
f i
? ""
n eh
m in
at ed</w>
an t
W elt</w>
k eit</w>
g a
w en
v es</w>
il l
w er</w>
loo k</w>
as si
is che</w>
some thing</w>
h ä
ell ,</w>
st r
s it
ri e
h ei
an ,</w>
w ä
te .",</w>
o k
er n</w>
we 're</w>
year s</w>
1 9
n o</w>
b ein
h ar
is ch
d y</w>
r au
st or
" N
bac k</w>
O r
z e</w>
ges ch
Ih nen</w>
t wo</w>
r el
lit tle</w>
ent s</w>
you 're</w>
o d</w>
v o
t s
I n</w>
d en,</w>
st e
D ing
,W e</w>
y 're</w>
b ar
an s</w>
0 00</w>
H er
i d
wirk lich</w>
al e</w>
,Th e</w>
on ,</w>
sch ie
ta ke</w>
s oll
o ver</w>
viel e</w>
d am
co un
le ar
in ,</w>
h ere</w>
ou s</w>
th r
en ce</w>
A us
re c
K on
pl ac
ne ed</w>
th ou
er g
er en</w>
än der
t ."</w>
dies es</w>
u b
e ver
ha b
er i
d a</w>
,"W e</w>
man y</w>
s ho
h l
go t</w>
k ed</w>
t or
m p
an s
m at
ge f
er t</w>
, But</w>
,"I n</w>
ma g
ander en</w>
an y</w>
T e
z ur
sh e</w>
in v
igh t</w>
," A
ti g</w>
g en,</w>
wur de</w>
w at
mu ch</w>
th re
h en</w>
seh en</w>
en )</w>
zu r</w>
en s</w>
c ol
F ra
(L ach
k s</w>
it s</w>
gl ei
wor ld</w>
d re
Z u
s ein</w>
no w</w>
K in
"" W
v el
Gesch ich
h eit</w>
ge w
, ",</w>
wi e
ander e</w>
o b</w>
li k
d e,</w>
s e,</w>
gl au
sp iel
c all
fü hr
for ma
al ,</w>
dies en</w>
d r
ar ound</w>
B ei
st ,</w>
ä u
o c
lo t</w>
chn olog
ti ve</w>
pl a
n at
dies em</w>
w as
it ,</w>
(Lach en)</w>
us e</w>
," O
k ind</w>
sel b
differ ent</w>
," (Laughter)</w>
wi ch
u p
Un ter
z us
te t</w>
s ur
i ver
ther e's</w>
ol d</w>
V or
Le ben</w>
we i</w>
ti sch
ri ght</w>
wor k</w>
wi ck
l au
di c
l on
d en.",</w>
n ach
i ck
Z eit</w>
p le
b as
re ch
st ru
sai d,</w>
ell en</w>
il l</w>
ever y
Gel äch
pro du
f ahr
ei l</w>
En t
s en,</w>
per c
ih r</w>
ell ei
äh l
di g
( Geläch
po s
on s</w>
," T
s c
tion ,</w>
ist .",</w>
br ing
m ent</w>
at s
il d</w>
Pro ble
(Geläch ter)</w>
thr ough</w>
t un
br au
b is</w>
hat te</w>
s ame</w>
po li
j ec
el l</w>
eh r
tion s</w>
bein g</w>
M ar
müs sen</w>
e d,</w>
st and</w>
r is
d ."</w>
z eu
w om
l ang
fu l</w>
f a
ex per
an c
w oh
e very</w>
g t</w>
f ind
,Th is</w>
z wei</w>
pro ble
d u</w>
com m
wei ter
g lich
g er</w>
M o
G eh
the m
p res
ellei cht</w>
bo dy</w>
L eute</w>
den k
da y</w>
F or
pl an
m m
,"Th is</w>
l etz
,"No w,</w>
the y're</w>
s k
ell e</w>
t y</w>
C h
w an
l u
ha ben,</w>
b le</w>
su ch
den en</w>
b ess
, T
tr u
in s</w>
b in</w>
In ter
m s</w>
di es</w>
s er
ie l</w>
an y
I hr
p assi
m ei
sp ec
re ,</w>
di d</w>
at ing</w>
t et
st a
b eit
m is
i li
f re
l in
S y
,I t's</w>
s ci
M us
Jahr e</w>
,"I f</w>
m ent
lo s
it e</w>
f ul
c or
M a
A fri
,I t</w>
sin d,</w>
imp ort
einf ach</w>
sch n
e .",</w>
H o
s m
s ind
e ff
G en
A mer
ing ."</w>
call ed</w>
W el
M illi
ö ß
wi th
s am
go od</w>
kon n
i f
a u</w>
m ein</w>
g ar</w>
war en</w>
u n</w>
k ei
j etzt</w>
it ä
ag a
P o
qu es
p ri
en g
at en</w>
A b
v ed</w>
l at
ch ,</w>
N e
all y,</w>
Jahr en</w>
Ar t</w>
po in
f en</w>
on en</w>
n en
e as
ä l
Au f
ti ge</w>
kno w,</w>
au se
Ding e</w>
w s</w>
re al
di d
S ta
R o
it ."</w>
c t</w>
so ci
an k
wor ld
v is
son dern</w>
gen d
f ind</w>
P ar
t l
s on</w>
syst em
t in
st and
,"I t</w>
ri gh
ma de</w>
f an
f am
n ah
den n</w>
do wn</w>
bel ie
all es</w>
th is
so ,</w>
ma chen</w>
ig en</w>
ation ,</w>
H e</w>
," You</w>
äch lich</w>
on der
happ en
W e
y p
wor k
we g
v ol
thre e</w>
kom men</w>
dam it</w>
C om
(Appl ause
ter ,</w>
m em
v en</w>
r ü
ic al</w>
do ing</w>
ar y</w>
M it
," B
n i
f er
I de
h ear
al i
," "</w>
ü ck</w>
o wn</w>
sch ein
i lit
h and
e -
,"I t's</w>
(Applause )</w>
si de</w>
n am
ensch af
P er
si on</w>
seh en,</w>
schaf t</w>
ex am
c ur
x t</w>
wh y</w>
st at
o k</w>
ih nen</w>
G o
i p
d .</w>
, (Laughter)</w>
unser er</w>
tel l</w>
n et
m einer</w>
ing .</w>
N ach
F re
F rau
. .
w al
lif e</w>
ier t</w>
hal b</w>
an k</w>
l as
ti gen</w>
st er
lo b
Pro z
J ah
y si
wa ys</w>
si m
s or
j em
I' ve</w>
?"" "</w>
zi eh
war ,</w>
ich ,</w>
E r</w>
p ut</w>
j ek
ich t</w>
ar i
ig er</w>
un ter</w>
H ier</w>
,"S o,</w>
t ell
selb st</w>
o ther
ne ver</w>
de ut
b eh
tal k</w>
it u
geh t</w>
vi elleicht</w>
sch au
or d
il e</w>
l y,</w>
e .,</w>
zus am
tur e</w>
perc ent</w>
ih n</w>
en de</w>
ats ächlich</w>
sp e
sel f
B o
m ein
t n
sa y</w>
m en,</w>
le a
gan z</w>
f e</w>
an ce</w>
zur ück
t :</w>
m ight</w>
hum an</w>
M on
we 've</w>
wa hr
w us
te chnolog
r ä
m e,</w>
ier en</w>
h ör
d at
us ed</w>
s etz
ent wick
be for
1 0</w>
sch ei
af ter</w>
w ing</w>
ra ch
ou s
nich t,</w>
l ast</w>
i g</w>
a de</w>
z ähl
s eine</w>
bes ch
sch on</w>
s ch</w>
re d</w>
pl e,</w>
neu e</w>
ein ige</w>
ti er
ter n</w>
re ad
om e</w>
el n</w>
b au
U m
tr y</w>
to ge
ti c</w>
st ill</w>
pa ar</w>
or gan
of f</w>
i e,</w>
' ll</w>
"E r</w>
r at
m al
en z
t eil
ah l
s enschaf
k e
did n't</w>
c ul
B er
wür de</w>
tion en</w>
t es</w>
sh ould</w>
mus s</w>
k t</w>
ver steh
sind .",</w>
i on</w>
hr end</w>
gi ve</w>
Le ben
G er
E x
sch aff
gen er
f oo
ein z
(Appl aus
wis sen</w>
star ted</w>
mö chte</w>
gre at</w>
fü hl
ei g
c our
b ab
un den</w>
that ,</w>
p on
m illi
lie ß
l et
e ach</w>
b re
an z
, 000</w>
z wei
wis chen</w>
C hin
" In</w>
un ,</w>
u st
or i
k am
hab en.",</w>
," F
ä d
gr öß
d ri
S tu
Me di
wei se</w>
w n
w in
st än
i mag
ei gen
R eg
neh men</w>
n or
me di
k es</w>
ev er</w>
an other</w>
sein ,</w>
h ,</w>
an d,</w>
W as</w>
Geh ir
,"W ell,</w>
,"Th ey</w>
"D i
vo m</w>
pos si
do es</w>
da y,</w>
c as
In di
F ü
d et
d ach
ro s
o un
n um
c ou
c ame</w>
ar bei
,Th ey</w>
ol e</w>
z wischen</w>
h eute</w>
f all
comm un
c ra
b e,</w>
W is
2 0</w>
, S
we en</w>
n .",</w>
hä t
f t
chan ge</w>
c ent
ati ve</w>
Sch ul
0 0
,"W hen</w>
tu n</w>
d ed</w>
b or
te :</w>
so gar</w>
p ic
g ,</w>
dre i</w>
Geschich te</w>
?"" ",</w>
ti es</w>
könn en,</w>
i d</w>
e p</w>
wie der</w>
ou t
ken n
is ch</w>
her aus
T a
syst em</w>
inter es
bet ween</w>
S ach
K om
Amer ic
5 0</w>
m om
l li
ihr en</w>
ac c
Th e</w>
" S
ö ff
ne xt</w>
mar k
ma cht</w>
g lob
e f
do ch</w>
de t</w>
(Applaus )</w>
"Al s</w>
en den</w>
w rit
t ung</w>
t atsächlich</w>
si eh
ro p
gen au</w>
ed ."</w>
al en</w>
wer den.",</w>
s .",</w>
il y</w>
fe w</w>
exper i
e con
do es
com es</w>
bi g</w>
ch ild
us ,</w>
n is
m y
le b
for m
er sten</w>
dur ch
de vel
v e,</w>
tur n
tr ans
se con
n ie</w>
l ä
h eit
woh l</w>
ver b
tim e,</w>
sa y,</w>
p er</w>
ne t</w>
n äch
n un</w>
könn en.",</w>
import ant</w>
ic e</w>
can 't</w>
ö s
ver schie
pro c
p ul
loo king</w>
lear n
in cre
R ei
k ein</w>
ir gend
ha t,</w>
ec ause</w>
does n't</w>
d ort</w>
d el
b eit</w>
ar beit
Jah r</w>
ub li
st ra
l ass
it .</w>
da von</w>
c er
s um
par t</w>
g ab
ess en</w>
en t,</w>
c ri
v oll
l ess</w>
c ap
at ur
S ei
star t</w>
per son
l ar
f unk
bu ild
am p
W ei
uns er</w>
ol o
er st
bet ter</w>
a v
Kin der</w>
, You</w>
wer den,</w>
st o
re al</w>
oh ne</w>
h ol
a .</w>
W ass
20 0
tim es</w>
i l</w>
h n
eh en</w>
W er
T o
t s,</w>
sch en</w>
re as
l and
k o
as ch
P h
B i
w ent</w>
geh en</w>
f ound</w>
W ie</w>
w a</w>
nat ür
fe el</w>
ch ang
b ur
b it</w>
Ihr e</w>
ut er</w>
p s</w>
en :</w>
e y
col le
" J
t ly</w>
m er</w>
einf ach
des ign
T eil</w>
stru c
pl et
ig n</w>
he al
,W hat</w>
ü tz
wa ch
w es
si on
o s</w>
g ut</w>
de ck
d .",</w>
au s,</w>
Sy st
y be</w>
un de</w>
u c
tr au
sag en,</w>
lon g</w>
it y,</w>
i on
fra g
a pp
Ne w</w>
" (Lachen)</w>
ver n
under stand</w>
u ch
k ur
ide a</w>
f al
er st</w>
all o
M en
K ör
s how</w>
k un
ger ade</w>
ent lich</w>
B es
än g
ter s</w>
ne c
ma y</w>
itä t</w>
e qu
c is
c all</w>
b ri
ation s</w>
u e</w>
ti me
oll ar
ic i
ga b</w>
Z ei
A ut
mei sten</w>
d ing</w>
D er</w>
v en
produ c
li c
en erg
wich tig
s ei
m et
le g
ing s</w>
g ing</w>
f as
d ra
Un iver
H a
än n
ß en</w>
wan ted</w>
v al
k a
ist or
gi b
er zähl
econ om
de .",</w>
In forma
Ho w</w>
" ",</w>
wä hrend</w>
tion ."</w>
su b
h im</w>
funk tion
f ig
ev ol
D es
ü ch
y e
wer de</w>
sy ch
st re
no v
l ag
U S
"D er</w>
"Al so</w>
ä hr
ung en,</w>
ung .",</w>
sai d</w>
plac e</w>
m ensch
V iel
F am
sel f</w>
le t</w>
hel p</w>
den .,</w>
befor e</w>
am er
Com p
Al so</w>
Ü ber
ti k
s ort</w>
r y</w>
m einen</w>
je der</w>
in forma
ihr er</w>
er ste</w>
dar über</w>
al is
ab ilit
W ir
wur den</w>
u tion</w>
th ,</w>
sp ac
f ut
b us
, O
sp iel</w>
res pon
o s
n ation
m einem</w>
kno w
t yp
t om
p f
li ve</w>
S ie,</w>
" O
w o
tr ying</w>
sag en</w>
ru pp
ge ben</w>
der ,</w>
b ro
Q u
ver änder
us ing</w>
um ,</w>
sp rech
ph ysi
p ubli
mö glich
el ec
ein mal</w>
3 0</w>
"W as</w>
w ell
ung .,</w>
ne ed
mö g
li m
h ö
et wa</w>
ep t</w>
ein ,</w>
beg inn
D e
sch rei
rei ch
po wer
h istor
f lo
a ."</w>
Ta g</w>
M y</w>
L ei
" (Gelächter)</w>
y s,</w>
wor king</w>
wh ole</w>
thou ght</w>
sag te</w>
nich ts</w>
komm t</w>
h ier
ac k
Milli onen</w>
M ut
" Z
was ,</w>
to ok</w>
r en
or s</w>
iz e</w>
it ed</w>
h under
for m</w>
d ru
bes t
al ways</w>
re m</w>
po si
peo ple
passi er
lich ,</w>
k auf
fin den</w>
et en</w>
W or
Frau en</w>
' d</w>
z in
unser en</w>
un iver
tim m
könn te</w>
f ar
da zu</w>
b ar</w>
Y or
M in
me ans</w>
li z
i den
ge gen</w>
au p
V ide
,T hat's</w>
zei g
sh i
i ds</w>
hat ten</w>
f ast</w>
es s,</w>
S e
E u
An t
th is,</w>
s ha
in st
bra in</w>
ac k</w>
T ag
St ra
F l
wi ll
on g</w>
l er
i en</w>
W o
wh e
war um</w>
wa y,</w>
tisch e</w>
sp ä
ran k
li gh
i k</w>
groß e</w>
fü h
com ing</w>
ber ei
I m</w>
G em
Ar beit</w>
äh ig
poin t</w>
ma z
T E
Bei spiel</w>
tic al</w>
p e</w>
on e,</w>
o ver
o m</w>
ma ybe</w>
cre ate</w>
ab l
M ö
ä tz
ver such
t es
se t</w>
li eg
hal ten</w>
get ting</w>
au ß
Z eit
R au
wir d.",</w>
st er</w>
ros s</w>
iz ed</w>
inn er
entwick el
ar d</w>
R ich
M om
ün st
vi e
ver su
s ing
oo l</w>
kann .",</w>
ier en,</w>
h igh
gan ze</w>
et e</w>
d one</w>
con tro
c al</w>
1 00</w>
," He</w>
y o
w är
ter n
t or</w>
stor y</w>
p or
or ,</w>
mer k
m i
letz ten</w>
l ern
l d,</w>
b lo
B u
"" .",</w>
you ,</w>
s .,</w>
pro jec
ou gh
l er</w>
ic ally</w>
f is
f en,</w>
devel op
an der</w>
we gen</w>
w hat's</w>
pro gra
po wer</w>
ma king</w>
as s</w>
ar um</w>
aga in
a ir
t old</w>
par tic
ou t,</w>
ld n't</w>
bl ei
at er</w>
and el
D o
Al l</w>
woll en</w>
w end
tu r</w>
lich er</w>
f el
er e's</w>
Pro jek
En de</w>
1 0
ä f
wom en</w>
te l</w>
t schaf
sch wi
re g
lo ve</w>
i ti
go vern
de ci
G ro
with out</w>
m ir
l and</w>
k am</w>
ge mein
ex ist
e ch
e :</w>
c ell
b ig
at es</w>
G l
"Di ese</w>
wis sen,</w>
wen iger</w>
t ä
su ch</w>
st ri
sp re
sel ves</w>
sag te:</w>
s ign
le ben</w>
ier ung</w>
gen om
g e,</w>
fac t,</w>
bu ild</w>
as k</w>
ac t</w>
W enn</w>
K re
"" O
z er
tion .</w>
t lich</w>
s eit</w>
p ie
lo w</w>
lau b
kei ten</w>
in tel
be come</w>
ach t</w>
S tr
Di ese</w>
vi du
to o</w>
stell en,</w>
pro bab
n en,</w>
milli on</w>
m ut
gr ou
glei ch
ed .</w>
ch ar
c c
al le
Te chn
M änn
K ar
Ih r</w>
Ant wor
"M an</w>
ye ar</w>
the m,</w>
t en.,</w>
t -
sch o
p ra
p en
ha t.",</w>
ges tell
em o
den ken</w>
c le
c es</w>
a k</w>
D a
st .",</w>
sieh t</w>
h ig
gan zen</w>
f f</w>
en ?",</w>
ein ander</w>
eff ec
d ro
be au
ati v
Zu kun
Th is</w>
An g
w ed</w>
n er
h om
coun tri
c e,</w>
be deut
P lan
For sch
A :</w>
. ""</w>
"N un,</w>
zi em
war .",</w>
stell en</w>
res ear
re mem
k eit
ha ving</w>
b is
b illi
a il
Wis senschaf
Sp iel
Proble m</w>
B au
z ent
tion al</w>
te ach
soci al</w>
sch ließ
sa w</w>
ro bo
meh r
in di
ex tre
et s</w>
d ollar
cour se,</w>
c lo
bes onder
bac k
Mensch en,</w>
L and
ü h
äh n
wei ß
t on
read y</w>
p ho
p at
olo gi
ol le
oh n
hal f</w>
h e's</w>
fi ve</w>
er .",</w>
en e</w>
ant wor
Sch l
S u
P unk
L and</w>
ziem lich</w>
pl y</w>
o ft</w>
las sen</w>
groß en</w>
ge ."</w>
es en</w>
ern ,</w>
at t
all ,</w>
I t's</w>
Bei spiel
wor ld,</w>
wel che</w>
s at
n is</w>
l ung</w>
kl einen</w>
hum an
ff en</w>
f le
ex c
dat a</w>
bus in
belie ve</w>
b in
ac ross</w>
V i
Proz ent</w>
M al</w>
öff ent
zusam men
zur ück</w>
vi ron
ver sch
u re
thou gh
tal king</w>
ta in
so zi
lich keit</w>
hei ß
har d</w>
find en,</w>
f ron
f our</w>
das ,</w>
ch o
brau ch
b en.",</w>
ar ti
ah l</w>
N or
Mö glich
M an
E ar
. 000</w>
,"No w</w>
wei ter</w>
wei t</w>
un d,</w>
pr in
pl o
me dic
mach en,</w>
j o
gen u
fri end
f rü
child r
ar ch
M an</w>
Leben s
K un
Afri c
st s</w>
m el
li gen
lear n</w>
l es</w>
kl är
her e,</w>
ag e,</w>
L ie
B l
,"A s</w>
," L
, No
z ahl
wä re</w>
wir d,</w>
w under
stu d
secon d</w>
sci enti
no w,</w>
m ind
m ess
lan g</w>
l än
l a</w>
k ids</w>
h im
en en</w>
ar ,</w>
H e
Gem ein
E l
you .</w>
ut e,</w>
qu ite</w>
probab ly</w>
o per
num ber</w>
lang u
in dem</w>
f un
en viron
en ough</w>
bes timm
ben utz
Te chnolog
En erg
wat er</w>
w .</w>
toge ther
sp r
pro f
po pul
li ght</w>
geh ör
fe el
f t,</w>
Y ou
K op
Fü r</w>
5 0
wei ß</w>
we ek
sa m</w>
n utz
me an
kann ,</w>
il t</w>
fü n
el b
bi olog
B il
B et
," E
technolog y</w>
te chn
st en
p ass
m ic
lik e,</w>
l ine</w>
ih m</w>
fol g
er s,</w>
e ?</w>
al ."</w>
.. .</w>
wel l</w>
ma kes</w>
lei ch
kei t,</w>
gen .,</w>
ge ben,</w>
for der
er .</w>
build ing</w>
ag o,</w>
Or gan
L u
" A
wel t
un der</w>
sch le
natür lich</w>
let 's</w>
kl eine</w>
ik an
h y
ge .</w>
g li
da bei</w>
co ver
W e</w>
- S
sm all</w>
se en</w>
p sych
mo ve</w>
h y</w>
h in</w>
ent ."</w>
eh n
d s,</w>
ch mal</w>
c tion</w>
bei m</w>
ation ."</w>
abilit y</w>
Un s
Ro bo
M et
H and
F o
E in</w>
wahr schein
proble m</w>
ni em
komm en,</w>
k einen</w>
je des</w>
bes t</w>
and s</w>
an im
D ank
us s</w>
thin king</w>
soll ten</w>
ke ep</w>
h u
glau be,</w>
ges ag
at ,</w>
an ti
all en</w>
W ahr
M at
Gehir n</w>
unser em</w>
thou s
shi p</w>
scho ol
s en.",</w>
s einen</w>
pla y</w>
pa ti
informa tion</w>
er .,</w>
com plet
ch all
bess er</w>
b it
Th ank</w>
S on
I' ll</w>
Gro ß
Ge b
B r
," ""
"W ie</w>
wh ile</w>
tisch en</w>
sein .",</w>
ou ght</w>
li ving</w>
jem and</w>
is su
g ir
experi enc
de l</w>
ation en</w>
ap pro
a way</w>
Sta d
L i
G ed
Er fahr
Afri k
toge ther</w>
schei d
pre t
per son</w>
li v
gen au
f iel
en ten</w>
di g</w>
as ked</w>
ar t</w>
an al
a maz
year s,</w>
vor ,</w>
vi r
ul ar</w>
to p</w>
s :</w>
ques tion</w>
per f
l ö
d essen</w>
cl u
b al
Sei te</w>
Ent wick
s einer</w>
l auf
k ind
g s</w>
as e</w>
Th e
Ges ell
G rupp
Fra ge</w>
F lu
,"F or</w>
wür den</w>
woll te</w>
wie der
whe ther</w>
ti l</w>
su cc
soll te</w>
res ul
pret ty</w>
lan ge</w>
je den</w>
it z
ing en</w>
ges am
f ur
den t</w>
d y
comp an
ch e
N eu
E le
1 5</w>
,Th ere</w>
,"B ecause</w>
"" Ich</w>
ö l
ri er
of ten</w>
oc e
m id
f rei
ent .</w>
de fin
con nec
ch t
beau ti
an ge
D at
D N
w ron
w onder
v em
them ."</w>
sp i
mon th
indi vidu
gu te</w>
er ."</w>
en k
con tin
Zukun ft</w>
We g</w>
H ar
Gr und
Gen er
" Hier</w>
z o
ti s
stat t</w>
sch ool</w>
pr is
peo ple,</w>
m us</w>
g ut
et 's</w>
denk e,</w>
bo ok
b li
ar e
an den</w>
W es
Pro du
Ges und
F ir
ä ll
se e,</w>
proble m
isch er</w>
ge gen
f te</w>
f il
en ?,</w>
ed uc
di rec
de u
con c
bo th</w>
N at
J e
C on
B ild
war d</w>
viel en</w>
some one</w>
ro om
on es</w>
näch sten</w>
li ter
konn te</w>
in k
ier en.",</w>
iden ti
g am
fac e</w>
do wn
da für</w>
con si
as ,</w>
a th
I' d</w>
F ähig
Ent scheid
C A:</w>
B ild</w>
A k
,W e
wus st
tion s,</w>
ta in</w>
righ t
r ,</w>
lä s
je de</w>
glob al</w>
ges ehen</w>
g n
eig entlich</w>
cent ur
al most</w>
L ehr
, B
ut zen</w>
st ron
pe c
oll ar</w>
n ess</w>
mach en.",</w>
h ou
glei ch</w>
exam ple,</w>
er weise</w>
at ten
any thing</w>
U r
S elb
Inter net</w>
"E in</w>
" H
wi t
ung laub
u te</w>
tun ,</w>
se x
s -
lo w
inter ess
h or
den e</w>
ch es</w>
an g</w>
all er</w>
O b
Milli ar
5 00</w>
,"Th ere</w>
vi er</w>
sin ce</w>
se ."</w>
sch ön
sch i
reas on</w>
neu en</w>
in side</w>
in e
exper im
er ung</w>
em p
de m
as sen</w>
T eil
Men ge</w>
Gel d</w>
D aten</w>
4 0</w>
, L
zeu g
yo ung</w>
us ."</w>
tr ä
te .</w>
sen se</w>
p an
i ma
hä l
foo d</w>
er te</w>
do c
d ge</w>
b ir
auß er
al ready</w>
ab or
a d,</w>
P ati
Kör per</w>
F ar
wir ,</w>
was n't</w>
v el</w>
us s
un gef
u al</w>
ther e,</w>
th ir
te .,</w>
r or
o l</w>
n ei
men t,</w>
in ste
in nen</w>
hel p
h än
h und
every thing</w>
b at
auf ,</w>
at or
ap pe
an .,</w>
M äd
G ra
F il
ti k</w>
steh en</w>
spec i
sh ip
sag te,</w>
ra di
publi c</w>
pho to
on ce</w>
learn ed</w>
hig h</w>
h i
ge l</w>
er kenn
ein ig
c at
au t</w>
al .</w>
a x
Ge gen
Au f</w>
Ar beit
19 9
vi de
ul ti
the or
su pp
könn ten</w>
k new</w>
f ern
es es</w>
en .""",</w>
dar an</w>
ck en</w>
ab le
Wass er</w>
Ver b
K o
Ex per
B eh
ä mp
zu ,</w>
y -
world ."</w>
wis senschaf
wh er
versteh en,</w>
u ter
tr an
sch e</w>
pr ä
on ."</w>
ob jec
mit tel
lich es</w>
ih rem</w>
ha ben
f und
ent deck
energ y</w>
denk en,</w>
bec ame</w>
at el
ann ,</w>
P lat
O K
Mus ik
Fra u</w>
E ine</w>
Di es</w>
Chin a</w>
with in</w>
um p
this .</w>
t aus
t au
stu di
rel ig
r ul
mö ch
mom ent</w>
me an</w>
m ol
le ft</w>
k ra
it y."</w>
it al</w>
in ed</w>
go es</w>
genu g</w>
ex ac
en te</w>
e y're</w>
des ign</w>
ch en,</w>
brau chen</w>
an zu
Pro gra
Er de</w>
" K
äh r</w>
you 've</w>
ur al</w>
un til</w>
ten ti
op en</w>
o pp
nis se</w>
mat eri
ic s</w>
gib t,</w>
gan g</w>
füh l</w>
fl u
f ,</w>
et .",</w>
ent ly</w>
eigen en</w>
dar auf</w>
c ity</w>
US A</w>
S ich
Or t</w>
Mut ter</w>
Mom ent</w>
I t</w>
G re
F ran
,No w</w>
," A</w>
, He</w>
är k
ä m
wich tig</w>
wa y."</w>
the ma
that ."</w>
stand ing</w>
sing le</w>
res s</w>
pa in
mög lich</w>
m en.",</w>
j a,</w>
ier t,</w>
gen ann
fac t</w>
et t
c y
c are</w>
bet rach
be d
Syst em
L ös
Jahr hunder
C o
, I'm</w>
ö hn
ungef ähr</w>
um e</w>
thing ,</w>
ort un
loo ks</w>
loo ked</w>
f äl
et was,</w>
er inn
dr ück
ch em
c ed</w>
b ild
al ten</w>
Proble me</w>
Ide e</w>
D em
," H
weiß ,</w>
wahrschein lich</w>
w are</w>
tur n</w>
that .</w>
th ough</w>
st off
s il
p ut
or e</w>
nam ens</w>
mo ving</w>
j e</w>
hear d</w>
happen ed</w>
h our
h ome</w>
geh en,</w>
fut ure</w>
fam ily</w>
ch en
c a
be kann
ander s</w>
ab sol
Vide o
R es
Organ is
,"T hat</w>
"E ine</w>
wen ig</w>
up ,</w>
turn s</w>
to da
te x
s einem</w>
rel ation
ra ther</w>
pr o</w>
p ur
or der</w>
on .</w>
oh l
no thing</w>
n ing</w>
in nov
imag ine</w>
ge macht</w>
eh l
at e
arbei ten</w>
again st</w>
Un ited</w>
U m</w>
U .
Technolog ie</w>
Syst em</w>
Stu di
S pe
S o
Po li
P e
L o
D ar
,"A t</w>
" T
än dern</w>
to day</w>
time ."</w>
ten .</w>
spä ter</w>
sh ar
sa h</w>
ru n</w>
remem ber</w>
organ is
oo d</w>
le ben
inv ol
inv es
in s
in f
ier te</w>
ho ff
heit s
gen e
er klär
childr en</w>
bu ilt</w>
be ha
ans wer</w>
R i
I s
D ur
D ollar</w>
, How</w>
" Im</w>
z ,</w>
v e
this ."</w>
steh t</w>
ri ff
pie ce</w>
n ie
k ehr
im mer
hei t,</w>
go o
get s</w>
fün f</w>
en z</w>
dis eas
ch er</w>
c y</w>
c lim
bo ok</w>
best eh
al ist
P ri
L eu
Kin der
In st
Go og
,"W e
world .</w>
wor d</w>
ta king</w>
t ag
self -
sci ence</w>
possi ble</w>
lea ve</w>
kind s</w>
is h
ges t</w>
fahr en</w>
exac tly</w>
ess ."</w>
el ,</w>
d an
coun try</w>
coun tr
ck ,</w>
billi on</w>
berei ts</w>
M ann</w>
J u
Geb äu
G :</w>
Antwor t</w>
ü t
wur de,</w>
ti ci
the y
ta st
sp ar
se em
se .</w>
sag t</w>
ous ly</w>
ob ach
me chan
j ob
j en
gra ph
experi ence</w>
enc e,</w>
en s
ein g</w>
d au
bi lit
Per son</w>
L icht</w>
,"W hat</w>
"" I</w>
’ s</w>
w ."</w>
ver l
t ?",</w>
se qu
schn ell</w>
pl at
o x
mon ey</w>
kno wn</w>
je dem</w>
j u
intel ligen
incre di
groß ar
fü g
f ang
ess enti
en 't</w>
ell er</w>
e ben
den .</w>
deci ded</w>
ation .</w>
Zei t,</w>
Univer s
Informa tionen</w>
H il
F ol
, H
"D ies</w>
z ep
you ."</w>
vi ol
verschie denen</w>
unter schie
u tion
u str
thing .</w>
te m
sch l
ro om</w>
r in
pro te
pp ed</w>
p unk
p i
ord in
n on
man ,</w>
in ten
in .</w>
hät te</w>
gew öhn
en -
eh er</w>
di ch</w>
der s</w>
con ver
comp le
ar ly</w>
am oun
aga in,</w>
K li
Fam ili
1 8
"E in
woll en,</w>
w ell,</w>
us am
u re,</w>
tra di
tet e</w>
st imm
spac e</w>
soci et
s ön
me ."</w>
m ust</w>
lif e,</w>
li ves</w>
k re
is n't</w>
ic ul
h iel
f oc
dollar s</w>
di st
de .</w>
bis schen</w>
b ad</w>
Th em
Sp ra
S k
En gli
C O
B eg
B ab
" V
" L
vi c
ti sch</w>
thous ands</w>
sim ple</w>
si ve</w>
se c
ple x
our n
on 't</w>
nation al</w>
inste ad</w>
i a</w>
hu ge</w>
her e's</w>
hat te,</w>
happ ens</w>
gl ück
g ar
b an
Yor k</w>
Schul e</w>
S ü
S ie
N etz
M al
K ul
K rank
K ind</w>
F ahr
C ar
Be zieh
"" N
zusam men</w>
zei gt</w>
v ari
us .</w>
sy n
pp ing</w>
ges eh
en n
en d,</w>
ei le</w>
ear ly</w>
diff icul
da v
contro l</w>
ation al</w>
al ität</w>
Stra ß
Kör per
K ra
K or
H el
Go t
Er geb
B ed
1 2</w>
"" The</w>
öl k
verschie dene</w>
t liche</w>
t est</w>
s ure</w>
re t
re du
r ück
pa th
opp ortun
on e."</w>
n er</w>
ic k</w>
heal th</w>
gr und
ge .,</w>
fam ili
fall s</w>
ec t</w>
e ben</w>
dur ing</w>
d le</w>
countri es</w>
ck s</w>
c r
br ing</w>
be weg
b ly</w>
as h
a z
F rei
Eu rop
Ding e,</w>
B ri
Ang st</w>
,T hat</w>
," (Applause)</w>
" So</w>
war ds</w>
seh en.",</w>
o ."</w>
n .,</w>
m a</w>
kom men
in spi
h r</w>
glau be</w>
fü ll
f ar</w>
ent ed</w>
en or
de cis
c en
an ci
Vi elleicht</w>
Milliar den</w>
Le ute,</w>
Kop f</w>
D u</w>
zei gen</w>
you r
v ö
un s,</w>
ub lik
tor s</w>
th es
te mp
ste ck
sp ir
si x</w>
s s
re ck
re ad</w>
qu ick
pro vi
ou th</w>
or en</w>
off en
m ents</w>
lieg t</w>
interess an
il o
il ie</w>
gir l
fig ure</w>
f ast
ex tra
complet ely</w>
colle c
besonder s</w>
beg ann</w>
b ut
al t</w>
al so,</w>
Wel t,</w>
Per son
Nach rich
C har
B ro
Americ an</w>
6 0</w>
" und</w>
und s</w>
tu re
sp ek
sch ul
rich tig</w>
me an,</w>
ken nen</w>
hab e,</w>
gr ün
fron t</w>
f li
f elt</w>
di re
cre ated</w>
ch ing</w>
car e
ac e
D o</w>
Be weg
" B
zei gen,</w>
y ?</w>
v e."</w>
to day,</w>
t et,</w>
t ar
sp o
s li
ru p
ri st
re co
pri v
passi ert</w>
ol le</w>
it y.</w>
it ing</w>
ge mach
f est
di ver
cou ple</w>
cou ldn't</w>
brau cht</w>
b s</w>
at h</w>
at eg
am m
al ity</w>
ad v
W arum</w>
Rau m</w>
Männ er</w>
Mat eri
Her e's</w>
Ger ä
Comp uter</w>
Ber ei
,"T hat's</w>
wh o
w and
unterschie d
to ol
t on</w>
stru k
spre chen</w>
some body</w>
si er
sel v
sein .,</w>
se ch
ob vi
me .</w>
m eines</w>
j a</w>
interes ting</w>
im pro
heal th
gro w
es .",</w>
enti re</w>
do m</w>
do ,</w>
di r</w>
de mo
cur r
c aus
ber ,</w>
beha vi
beauti ful</w>
be wus
be vor</w>
be ein
be deu
an .</w>
Z usam
Ver änder
Stad t</w>
M asch
G leich
G al
Fra gen</w>
Energ ie</w>
Auf gab
,Th ese</w>
, A</w>
, A
" (
you 'll</w>
y s
wor ds</w>
ver st
ta kes</w>
stu ff</w>
si e,</w>
sa ys,</w>
r ate</w>
mus ste</w>
l ed</w>
konn ten</w>
k n
ga ve</w>
for t
ex pla
enc es</w>
einz el
d rei
comp uter</w>
c al
amaz ing</w>
W al
S tim
S te
L in
Gr und</w>
G ei
F in
E s
B ür
8 0</w>
"D ann</w>
" (Applaus)</w>
thing ."</w>
them .</w>
t lichen</w>
stor ies</w>
stell t</w>
st ütz
sp ro
sich er
self ,</w>
schau en</w>
organ iz
nich t.",</w>
min ut
lo g
in ing</w>
ier t.",</w>
ho pe</w>
hear t</w>
he ad
h il
ger ne</w>
ful ly</w>
f en.",</w>
every body</w>
eng ine
da ,</w>
ch ed</w>
car b
Zusam men
Z iel
Wel t
Uns ere</w>
St äd
Produ k
Mo d
Her aus
Fam ilie</w>
D enn</w>
2 00</w>
," M
"D enn</w>
to t
su per
sto p</w>
se eing</w>
schwi er
ri eg
r .</w>
pra c
ori th
m ich,</w>
m .</w>
lie gen</w>
li g
lar ge</w>
ing t</w>
incre as
h on
glau b
genom men</w>
g orith
e ."""</w>
can not</w>
can c
busin ess</w>
bei den</w>
am ent
ab ,</w>
Y e
TE D
Mäd chen</w>
M :</w>
F all</w>
D is
8 0
! ""
zei chn
u ally</w>
t ?</w>
su p
sta un
sp ra
se ver
schn it
s le
pl es</w>
nor mal
mo sp
learn ing</w>
ier ten</w>
g en.",</w>
ess .</w>
es er</w>
er le
econom ic</w>
d or
d -
bo d
ber s</w>
bedeut et,</w>
b loo
b il
b are</w>
ac tiv
a do
T hat's</w>
S ol
P rä
K ünst
Flu g
B el
B ar
,"O ne</w>
vi er
u ten</w>
tion s."</w>
th ro
t s.</w>
stu dy</w>
sit u
proc ess</w>
pos ed</w>
our selves</w>
ou t."</w>
mo ther</w>
mo del
mat ter</w>
ka y,</w>
k ü
k ey</w>
ind ustr
in de
in clu
ik ro
i ere</w>
ho ch
grou p</w>
glei chen</w>
f ter</w>
ein igen</w>
e vi
d om
commun ic
ch ten</w>
bring en,</w>
bes ten</w>
be obach
bas ed</w>
aus .",</w>
au di
an i
al ong</w>
ag en</w>
abl e,</w>
T el
S tru
R is
Ide en</w>
Heraus forder
H ö
Gr öß
D ann</w>
Ar ch
wom an</w>
ver bess
tun .",</w>
thin k
th en,</w>
selb st
se l</w>
s es</w>
s al
pre dic
poli tical</w>
po tenti
plac es</w>
oh n</w>
og ra
my self</w>
m ulti
m il
lif e."</w>
le vel
lat er,</w>
l es
komm en.",</w>
ha ps</w>
geh en.",</w>
führ t</w>
f es
ent schei
end s</w>
en ."</w>
en ,",</w>
cell s</w>
bi o
ber fl
at ely</w>
ander es</w>
an .",</w>
am en</w>
ak ter
ag es</w>
Viel e</w>
TE D</w>
S itu
Be i</w>
B li
: ,</w>
,"Th ese</w>
," N
än der</w>
wur de.",</w>
wor k,</w>
wir tschaf
tiv en</w>
t schaft</w>
st ati
sch ö
s ing</w>
s h</w>
right ?"</w>
resear ch</w>
pr ess
pic ture</w>
mic ro
me as
man chmal</w>
k ämp
isch es</w>
in e,</w>
in ."</w>
her e."</w>
h aup
gu y</w>
dis cover
dar über
da ys</w>
d rit
bring en</w>
bedeu tet</w>
ar e,</w>
Ye ah
V ir
T ra
P ublik
M acht</w>
Geschich ten</w>
," My</w>
, (Applause)</w>
zeu g</w>
wor ked</w>
ver wend
ver wen
us i
tu re,</w>
ta ken</w>
t s."</w>
t an
sur vi
sp ent</w>
so und</w>
sim ply</w>
r un
psych olog
ou ldn't</w>
ok a
mu ch
mo der
lo ts</w>
lo st</w>
know le
k id
happ y</w>
happ en</w>
ha te
h and</w>
gen den</w>
geb en.",</w>
ge .",</w>
g um
et .</w>
et ."</w>
es .,</w>
er reich
en der</w>
den ke</w>
de f
dach te</w>
d n
c lear
c ar</w>
aus zu
as k
Wer k
Wei se</w>
T ran
Stru k
Robo ter</w>
R ück
Me tho
H I
B üch
Ar ten</w>
A t
"M eine</w>
w n,</w>
vi ce</w>
val u
turn ed</w>
to p
ti eren</w>
thir d</w>
ta tion</w>
t y,</w>
stän dig</w>
some times</w>
si on,</w>
ser v
s our
s eri
re qu
produ z
per sön
ne g
nah m</w>
n ame</w>
ment al</w>
lo se</w>
ler nen</w>
kon tro
kl ein
in es</w>
ide as</w>
her aus,</w>
g lich</w>
evol ution</w>
er war
ent s,</w>
en th
elec tri
e b
comm on</w>
chall en
arch it
ag o</w>
a ver
Unter nehmen</w>
Sich er
R u
R el
Me er
M or
H ause</w>
Ged an
For m</w>
Exper im
An der
20 1
, C
" Um</w>
ür z
writ e</w>
w ähl
versteh en</w>
thin k,</w>
ther e."</w>
ther ,</w>
ten :</w>
t ?,</w>
schi ed</w>
ris e</w>
r än
pe ct</w>
näch ste</w>
nich t.,</w>
nen n
need s</w>
month s</w>
medi a</w>
m al,</w>
li er
j ob</w>
is e</w>
if ic
her e.</w>
hei ten</w>
hat ten,</w>
for sch
fis h</w>
f er</w>
eu ch</w>
et er</w>
cer tain
bo t
ber eit
be gan
bas ically</w>
W i
Sch rit
S ti
Ph ysi
Nat ur</w>
M ein
Grupp e</w>
D an
Afrik a</w>
über all</w>
Ä r
z un
y 's</w>
them selves</w>
t w
t .""",</w>
system ,</w>
stell ung</w>
st en,</w>
s ?</w>
ri es
relig i
re vol
pla y
om e
ne w
ma j
l y."</w>
k in
j ung
it h</w>
ir e</w>
i zi
ha be
gre at
gr und</w>
gew al
f ru
ern .",</w>
er sch
er rei
er möglich
end ing</w>
el se</w>
einz ige</w>
cul tur
cour se</w>
ch ild</w>
ch a
aus .,</w>
amoun t</w>
allo w</w>
acc ess</w>
Wir k
Techn ologi
St ellen</w>
Sach e</w>
S in
Ris ik
Punk t</w>
Mar k
Leu ten</w>
K ur
Gl ück</w>
G ol
Eu ro
D en
," An
, E
" Für</w>
z e
war en,</w>
vide o</w>
time .</w>
ter ri
ta k
sch rie
sag en:</w>
s qu
s cre
re cht</w>
people ."</w>
op tim
need ed</w>
ne ur
nat ural</w>
nah men</w>
n igh
mensch liche</w>
m ä
lo s</w>
k or
in k</w>
hin ter</w>
her ,</w>
he ad</w>
govern ment</w>
glau ben,</w>
fü r
ful l</w>
el s</w>
de al</w>
co p
clim ate</w>
c ris
bi et
auf zu
al s,</w>
W ort</w>
St at
Reg ierung</w>
J ust</w>
Gr ün
Gesell schaft</w>
Ges etz
Ge f
E is
Des ign
D ru
,"I '
,"I' m</w>
y on
w ann</w>
w andel
univer se</w>
u t,</w>
tr on
t ou
su d
stud ents</w>
st e,</w>
spec ies</w>
sit e</w>
se i</w>
sch rit
respon si
re pres
on e.</w>
o und
o ben</w>
mol ec
mir ,</w>
mach te</w>
lli g</w>
l äu
l y
ist .</w>
hör en</w>
ho sp
he ar</w>
g ri
f and</w>
ex pl
er staun
er folg
ein zu
eigen e</w>
di men
den ce</w>
dar an,</w>
commun ity</w>
cas e</w>
bar en</w>
b ed</w>
anc e,</w>
ac tion</w>
W ar
P ap
M is
Kli ma
K l
El tern</w>
D et
1 7
,Th ey're</w>
,"Th ere's</w>
zu g</w>
we der</w>
ur s
unser es</w>
tre ff
tr ei
thr ough
su chen</w>
st ab
sp or
sich er</w>
sech s</w>
res our
physi cal</w>
person al</w>
per i
pa y</w>
ob wohl</w>
neh men,</w>
n imm
medic al</w>
lo ck
letz te</w>
l le</w>
l ess
l e,</w>
komm t,</w>
il ,</w>
ic ,</w>
exam ple</w>
end lich</w>
dire kt</w>
ci ti
ch oo
c ell</w>
amer ikan
a h</w>
a di
a den</w>
W ör
W hat</w>
St unden</w>
Spra che</w>
Par tn
Ob jek
J o
Fo to
Au ß
19 7
19 6
,W hy</w>
,B ecause</w>
," (
"" S
ä re</w>
wei s
wa y.</w>
tz lich</w>
tri ed</w>
th ."</w>
te am</w>
st ei
sp rich
si ze</w>
sh are</w>
schließ lich</w>
schaff en</w>
s au
ri g
re p
re ds</w>
projec t</w>
o .</w>
m m</w>
li mit
kom plet
is ."</w>
identi f
hal ten,</w>
gi ven</w>
ger ,</w>
fund ament
extre m
es pe
dre h
co ol
char ac
ch ter</w>
c los
c li
br ought</w>
bl e,</w>
beh ind</w>
beg an</w>
ap er</w>
ag re
a king</w>
Selb st
Kon tro
H and</w>
Goog le</w>
DN A</w>
Ch rist
C hr
Al s</w>
, My</w>
"" A
ä hrend</w>
z ul
z en
z el
year s.</w>
y et</w>
y :</w>
weiter e</w>
we ch
w hate
v e.</w>
to wards</w>
stän d
struc ture</w>
sa ying</w>
s ou
pl ö
physi c
partic ular</w>
p as
m mer
lik ely</w>
le .</w>
kur z</w>
je doch</w>
is sen</w>
import ant
gi ving</w>
gel ern
for ce</w>
fan tast
erst ör
e k</w>
e i</w>
do .</w>
der en</w>
ci vi
c ir
bra chte</w>
bo o
be kommen</w>
N ahr
M ach
In nov
I st</w>
Gesch äf
Ge wal
Bu ch</w>
Bil der</w>
3 0
"D a</w>
"" H
! ",</w>
z war</w>
z ehn
x ,</w>
wal k</w>
vie w</w>
verb rei
ver kauf
v ill
ung .</w>
tur es</w>
together ,</w>
ti e
ten d</w>
te xt</w>
sit ting</w>
sch ick
sag e</w>
ro te</w>
ro ck
real ized</w>
real ize</w>
pe di
no t
nei gh
mem or
m un
m ind</w>
lon ger</w>
lass en,</w>
l ungs
i ,</w>
hour s</w>
hou se</w>
heiß t</w>
gu ys</w>
gestell t</w>
fl us
find en.",</w>
fe ar</w>
fan den</w>
er -
ent fern
en zen</w>
en ter
con t
con sum
co ver</w>
ck e</w>
c oll
c e."</w>
c am
be zahl
augh t</w>
au en</w>
ac e</w>
ab o
P a
Netz wer
L age</w>
K ön
J ung
J ap
D in
B :</w>
2 5</w>
zwei te</w>
wron g</w>
we 'll</w>
vir tu
tion s
te d,</w>
system s</w>
stu ff
sch wer
sat z</w>
s mar
ro m</w>
righ t,</w>
rei b
proc ess
proble ms</w>
par tn
p us
ou s,</w>
n ur
lich .,</w>
le vel</w>
kontro lli
kl ar
k an
i es,</w>
gro wing</w>
genau so</w>
gen de</w>
gen .</w>
frag te</w>
fin det</w>
fan g</w>
fa il
ev ent
el ek
d augh
comp any</w>
cl ass
chang ing</w>
c el
bl ack</w>
ben ö
bau en</w>
au th
at e,</w>
al er</w>
ah n
W ach
S ter
S .</w>
P f
P al
Mus ik</w>
Min uten</w>
K amp
J etzt</w>
Gr unde</w>
Fü hr
F el
9 0</w>
,We 're</w>
"M it</w>
ä t
zu g
wür de,</w>
wor ks</w>
woll ten</w>
versuch en,</w>
ver ,</w>
v in
tig keit</w>
schaff en,</w>
sa tion</w>
ro t
pro mis
other s</w>
n utzen</w>
me t</w>
me et
m .,</w>
liter ally</w>
kam en</w>
j a
imag in
i qu
hund reds</w>
histor y</w>
happen ing</w>
geh t,</w>
f ass
er w
er :</w>
e gen
demo cra
de p
da zu,</w>
bas ic</w>
av ail
atel y,</w>
an statt</w>
Wissenschaf tl
W eg
Verb ind
V ater</w>
T rau
T it
Sch ü
Pati enten</w>
P au
O ze
Kin dern</w>
K olle
Ihr er</w>
Ih rem</w>
I f</w>
H aus</w>
Dem ok
Amer ik
,Th ere's</w>
,S he</w>
tre at
tic s</w>
ther e
ter .</w>
ten s</w>
tell ing</w>
st ate</w>
sim il
sich tlich</w>
sho ws</w>
setz en</w>
sa y
ran ken
power ful</w>
p ol
on line</w>
nec ess
me et</w>
m ale</w>
m ."</w>
kom plex
inst itu
inner halb</w>
ig ,</w>
hat te.",</w>
h eu
gr and
gib t.",</w>
for t</w>
f our
er o
con st
clo se</w>
c le</w>
ation s,</w>
ad s</w>
ab ri
You 're</w>
We b
S ek
Projek t</w>
H aup
F u
F ort
E ff
Do ch</w>
Di eses</w>
Be deut
Au ch</w>
ür lich</w>
ä t</w>
zeig t,</w>
z w
z iel
z eit</w>
x i
war en.",</w>
wach sen
wa y
vö llig</w>
tig t</w>
ti ef
thing s,</w>
ter ms</w>
ter ."</w>
t ö
t wo
str um
sor g
se ven</w>
re ally,</w>
per haps</w>
p u
out side</w>
other ,</w>
or d</w>
o p</w>
niem and</w>
n äm
mus ic</w>
mo dern</w>
ment ."</w>
m äch
lich .",</w>
lei st
l ab
is mus</w>
irgend wie</w>
hät ten</w>
her um
gr ü
gi ves</w>
ger n</w>
fre e</w>
feel ing</w>
et r
ent r
el em
ein s</w>
design ed</w>
des cri
de ."</w>
carb on</w>
c ut</w>
be l</w>
bal d</w>
appe ar
ans wer
anim als</w>
alle m</w>
ab out,</w>
Z iel</w>
Wis sen</w>
Th ey</w>
R om
P sych
Medi kam
L ab
K ind
Her z
H :</w>
Ge fühl</w>
G lau
Fre und
F isch
F eu
F ern
Ele k
E ig
D or
B ru
Arch it
,O ne</w>
,"T o</w>
, (
"Al so,</w>
ä che</w>
zent r
year s."</w>
year ,</w>
work .</w>
woll en.",</w>
we g</w>
vis u
tru e</w>
ti v</w>
though t,</w>
sol che</w>
schrei ben</w>
sc al
po or</w>
pla ying</w>
per for
partic ul
par ts</w>
par ents</w>
or ig
off n
o wn
o ple</w>
o -
neigh bor
nam ed</w>
müs sen,</w>
mo vem
min ist
mensch lichen</w>
k ul
ist s</w>
ig eri
i tion</w>
i de</w>
g ed</w>
friend s</w>
for tun
fas zin
fam il
f ic</w>
ex pec
er ing</w>
enc e."</w>
en st
eff ici
darüber ,</w>
d ent
contin u
canc er</w>
bilit y</w>
aus ge
a b</w>
T ex
St ück</w>
Reg ier
Re ak
Masch in
K no
Ihr en</w>
H in
H aus
Gehir n
Entwick lung</w>
E ben
Comp uter
2 ,</w>
," In
""W ell,</w>
" Er
" Auf</w>
! ,</w>
ür f
äh ri
z t</w>
z es</w>
wi der
us es</w>
tra g</w>
tion en,</w>
ti ce</w>
thing s.</w>
th .</w>
tet en</w>
sur pris
ste p</w>
star ting</w>
sp end</w>
sho wed</w>
sch wer</w>
sch lag
sa ys</w>
ro ll
ra tion</w>
ra p
plan et</w>
on s,</w>
milli ons</w>
mid dle</w>
ma g</w>
leb en.",</w>
langu age</w>
is m</w>
ig es</w>
ich t
ho o
hel fen</w>
h ing</w>
ge wor
g es</w>
führ en</w>
er k
ein ander
ei ther</w>
ei m
con di
compan ies</w>
comp u
cer tain</w>
b rei
au ch,</w>
archit ec
ander er</w>
ali en</w>
aga in</w>
Wissenschaf t</w>
Wir tschaf
W ie
T iere</w>
S outh</w>
Plan eten</w>
Pe ople</w>
L änder</w>
Kun st
K ranken
I r
I D
Hil fe</w>
H ig
Gebäu de</w>
F ak
Dur ch
Archit ek
Ar bei
Al l
7 0</w>
1 ,
,"O n</w>
," R
," C
"Z um</w>
"D o
z ept</w>
w ass
ver y,</w>
under standing</w>
tier en,</w>
thing s."</w>
supp ort</w>
su sta
st ."</w>
sprech en,</w>
sh e's</w>
sever al</w>
seem s</w>
sch ätz
sch w
s ent
rie g</w>
ren n
produ ce</w>
posi tive</w>
par tici
our ne
olog ie</w>
oce an</w>
neh m
müs sen.",</w>
mus sten</w>
m ilit
le ben,</w>
ist :</w>
inter est
ing s,</w>
in te
hal ten.",</w>
gro und</w>
gesch rie
ges etz
gehör t</w>
geb or
g ."</w>
fol lo
fin ally</w>
f äll
every one</w>
e th
difficul t</w>
de m,</w>
d eine</w>
con f
ch t,</w>
bu y</w>
book s</w>
besch äf
bac k,</w>
b en.,</w>
ate gi
arbeit en,</w>
ang er
an z</w>
amer a</w>
ag no
a -
Z ahl
Viel en</w>
Univers um</w>
T er
Sach en</w>
S to
P rei
M it</w>
M il
M ikro
M ag
K ü
K an
H offn
Gener ation</w>
F ace
Au to</w>
A ben
1 7</w>
"Do ch</w>
ün f
öffent lich
än de</w>
zei tig</w>
year -
world 's</w>
wor ds,</w>
un ch</w>
tool s</w>
succ ess
su ff
stell te</w>
stati st
star k</w>
se par
ris k</w>
re ag
plö tzlich</w>
ph one</w>
op en
n ütz
n ann
mo del</w>
me tho
ma thema
le ."</w>
k au
k ar
it ze</w>
ic e,</w>
her o
glei che</w>
geb au
ge :</w>
funktion iert</w>
ful ,</w>
fri end</w>
fra gen</w>
fiel d</w>
f ehl
eas y</w>
dimen sion
den ti
cle ar</w>
ci ally</w>
chang ed</w>
be we
b om
ar en't</w>
a w
a ir</w>
a 's</w>
Z wei
Wo che</w>
Um geb
Them a</w>
T ier
S pa
R olle</w>
R ep
O p
Leben s</w>
K en
In tel
F all
Entscheid ungen</w>
Ear th</w>
Bli ck</w>
An gel
5 ,</w>
"N un</w>
""O h,</w>
ü hr
äu sch
äch st</w>
z ut
z ahl</w>
wer den
w on't</w>
ung en.,</w>
tig er</w>
t y
sy m
st .</w>
sol u
sich t</w>
si de,</w>
sag t:</w>
s car
res t</w>
re fle
ra l</w>
näm lich</w>
n .</w>
mo un
mit einander</w>
merk sam
l ,</w>
is h</w>
interes ted</w>
ing ly</w>
in tro
i ties</w>
i on,</w>
heraus zu
gra du
gesch aff
füh le</w>
fa ther</w>
f all</w>
erkenn en,</w>
er s
er gi
ent er</w>
end ed</w>
en ough
eh r</w>
e di
dru ck
det er
chall eng
c u
c ing</w>
beein flus
be yon
am s</w>
am ,</w>
Z i
Z ellen</w>
T r
Spe zi
S or
Rel ig
L os</w>
Gesell schaf
Gedan ken</w>
B as
Aus wirk
Afric a</w>
4 0
2 1
- -
,L et's</w>
,"S he</w>
"O der</w>
"J e
üh m
well ."</w>
versu chen</w>
ver trau
ung en.",</w>
um s</w>
tion s.</w>
ti vi
ther e.</w>
su g
st im
st ie
st ens</w>
spiel en</w>
sp er
sich t
sich ,</w>
se em</w>
sag t,</w>
sa ve</w>
re gi
put ting</w>
punk t</w>
possi ble
p ick
kl eines</w>
k il
k er</w>
k el
ig keit</w>
ha s
h an
größ te</w>
gen d</w>
gef ähr
ge wis
g res
fa vor
ec k</w>
dig keit</w>
des halb</w>
de c
de .,</w>
cre ating</w>
com par
centur y</w>
c in
bre ak</w>
bor n</w>
ben ef
beginn ing</w>
bau en,</w>
at ure</w>
all es,</w>
all er
ali for
al iz
a ke</w>
Z eu
Ver antwor
T wit
T on
T al
St ates</w>
Sch mer
O der</w>
N igeri
Meer es
M ein</w>
Kun st</w>
K rieg
K ap
Inst itu
Indi en</w>
Fre unde</w>
Erfahr ung</w>
Ar m
An fang</w>
,"W h
," All</w>
, Here's</w>
wech sel
we b
w rote</w>
w ouldn't</w>
utz ut
typ e</w>
tin y</w>
spe zi
spe ak</w>
spe ak
scienti sts</w>
ques tions</w>
prin ci
or .</w>
om en</w>
o d
niem als</w>
neu ro
m ou
li sten
lat er</w>
la g</w>
kon zent
komplet t</w>
k ri
j ourne
ist en</w>
issu e</w>
is .</w>
he av
hal ten
h old</w>
gro w</w>
gen s</w>
ge ben
g rei
g ent
f ähig
f ten</w>
es sion
er s.</w>
er in</w>
ei ght</w>
ei ch
differ ence</w>
de ep
dar in</w>
dam als</w>
ci al</w>
au tom
an t,</w>
a y</w>
Wo chen</w>
V ol
Sp iel</w>
P rin
P at
O berfl
N um
Lie be</w>
Lei st
K at
H ir
F unk
D a</w>
C ol
Bo den</w>
B .</w>
"" L
zieh en</w>
y ."""</w>
wonder ful</w>
woh n
vol l</w>
up ."</w>
und en,</w>
un ten</w>
ter n,</w>
t ol
t est
t at
stat t
st ärk
sozi ale</w>
son st</w>
si ons</w>
sh e
se cur
se .,</w>
schn ell
reco gn
rec ei
ra is
prac tic
pr ü
popul ation</w>
per spec
p aper</w>
p ,</w>
ou t.</w>
ordin ary</w>
mä ß
m ich
lo wer</w>
le ast</w>
lass en.",</w>
ko st
ind ust
ie .,</w>
i an</w>
hä u
hum ans</w>
him ,</w>
hier ,</w>
hat ten.",</w>
happ in
ha ven
grund le
gesag t,</w>
gen ie
geb rach
gan gen
gab en</w>
g -
fal sch</w>
f t.",</w>
ex p
espe cially</w>
er v
e ur
develop ed</w>
d rau
con sci
comple x</w>
challen ge</w>
bess ere</w>
ats ach
at om
ar m
ag er</w>
ach ,</w>
able ."</w>
Wach st
Sch w
S inn
P fl
Möglich keit</w>
Mon ate</w>
Fin anz
E vol
Büch er</w>
Bes ch
Beh and
Afric a,</w>
: ",</w>
3 00</w>
"M an
"J etzt</w>
z eit
wür de.",</w>
will ,</w>
wichtig ,</w>
whate ver</w>
ver mut
ti ert</w>
te ach</w>
t eil</w>
stell en.",</w>
so ft
sex u
seh r,</w>
say ing,</w>
ro le</w>
ra cht</w>
quick ly</w>
perf ek
people 's</w>
on to</w>
o se</w>
nat ure</w>
n ight</w>
möch te,</w>
lo cal</w>
li fe
le c
komm un
knowle dge</w>
k ill
k al
inter pre
il e,</w>
if ic</w>
ic )</w>
hand s</w>
hand el
gre en</w>
gr enz
g ame</w>
fut ure
f ly</w>
extrem ely</w>
er ed</w>
e ma
do ."</w>
di stri
di e,</w>
develop ing</w>
de gre
dav on,</w>
dar um</w>
dach te,</w>
d ou
d in
co st</w>
c ro
c ause</w>
bring en.",</w>
blei ben</w>
bewus st</w>
b ru
as se</w>
an gen</w>
alifor ni
absol ut
a .,</w>
Wahr heit</w>
W h
Uns er</w>
Tag es</w>
S au
S :</w>
Rei he</w>
Pro f
P or
Ma ß
M ol
Kul tur</w>
Jahrhunder t</w>
Gl ück
Gesund heit</w>
Forsch ung</w>
Des ign</w>
D ollar
B ra
Auf merksam
Au gen</w>
? ""</w>
19 8
,"We 're</w>
"D es
Är z
wel ches</w>
wat ching</w>
wat ch</w>
ver urs
ver ges
utzut age</w>
univer s
unglaub lich</w>
technolog y,</w>
t um
susta in
stru g
sho wn</w>
sel ben</w>
schein t</w>
sch war
sa f
run ning</w>
relation ship
perfor man
p oll
nen nen</w>
ne ben</w>
mus ,</w>
molec ul
mit tel</w>
me l</w>
mark et</w>
lauf en</w>
lang sam
l ing</w>
kau m</w>
jem anden</w>
inter ac
i ons</w>
h äng
h ung
gro ß</w>
go t
girl s</w>
get an</w>
gesag t</w>
fre e
fi ed</w>
fa ir
expla in</w>
ex plo
evol ution
er zeu
er t,</w>
em is
ek ü
dra ma
d .,</w>
cul ture</w>
cra z
chang es</w>
bring t</w>
beyon d</w>
ber ühm
beg in</w>
be comes</w>
bac ter
b t,</w>
b ol
auf .,</w>
arbei tet</w>
ar beit</w>
ang eh
all y."</w>
ach ie
Wor ld</w>
V is
T yp
T ie
T em
S om
S an</w>
N ational</w>
M ann,</w>
K ohl
Gesund heits
Ge bur
G i
Euro pe
Er fol
D r.</w>
CO 2</w>
Aut os</w>
Afri can</w>
2 4</w>
1 8</w>
00 0
.. ."</w>
,"O r</w>
," Y
" Un
" Sch
" Bei</w>
zo gen</w>
wich tige</w>
welt weit</w>
w elt</w>
voll er</w>
us e
tz dem</w>
tra g
tor en</w>
tet .",</w>
t ungen</w>
t oll
sur face</w>
sub jec
steh en,</w>
sour ce</w>
so unds</w>
simil ar</w>
sign ific
si onen</w>
sh ort</w>
self ."</w>
scienti fic</w>
s lo
s et
robo t</w>
rich tigen</w>
relation ship</w>
rel eas
r y,</w>
pro per
po st
po se</w>
passier t,</w>
o il</w>
nor mal</w>
nie dri
ne ws</w>
n ar
län ger</w>
lern en,</w>
könn te.",</w>
kl einer</w>
k ör
j ähri
j ust
ic ally,</w>
gu ten</w>
go ,</w>
gi g</w>
gi c</w>
ges p
gemein sam</w>
g al
fur ther</w>
for ward</w>
fan gen</w>
f ör
f ing
et y</w>
er lau
emo tion
e at</w>
du c
devel op</w>
des to</w>
dar um,</w>
co ol</w>
cap it
bu d
bloo d</w>
auß er</w>
ang el
an schau
al y
ab zu
W ohn
W ahl
Su per
St and
S ign
Or dn
N amen</w>
Mus ic)</w>
Mit ge
Ma thema
M eine</w>
Lös ung</w>
Jahr en,</w>
J ourn
In du
Ho ch
H äl
Größ e</w>
F rü
F rie
Bezieh ung</w>
B ev
Amer ikan
A tom
A ID
1 1</w>
1 ,</w>
, F
"" B
ück e</w>
z ü
z erstör
wä re,</w>
work ."</w>
wh ite</w>
wat er,</w>
ver di
val ue</w>
v es
um en</w>
ul y</w>
ul l
tra in
tor ,</w>
tig ,</w>
tic ally</w>
ther s</w>
th ank</w>
ter ror
ter .",</w>
teil en</w>
st ik
st ig
spre ad</w>
seh e</w>
se cre
se a</w>
sam m
s ?"</w>
rul es</w>
resul t</w>
rei ch</w>
re ach</w>
proble m,</w>
oun da
of t
no w.</w>
nach zu
n et,</w>
mehr ere</w>
ma k
ma ,</w>
m .",</w>
läs st</w>
le uch
l i</w>
l ad
kur z
kl ar,</w>
k ."</w>
jem als</w>
j etz
ie .",</w>
ho p
ha ck
gro und
ges pro
ges etzt</w>
ges ,</w>
gen utz
fig ur
fe ed
f ear
er hö
e um</w>
do wn,</w>
cultur al</w>
consi der
conc ep
con fi
cl in
certain ly</w>
c la
bre ak
atten tion</w>
ar gum
ar e."</w>
al itä
ag u
ac coun
a y
a da
Zu gang</w>
Z ahl</w>
W ell,</w>
Ver einig
Univer sit
U. S.</w>
T atsach
Stu die</w>
Son nen
Sch u
S h
M ust
L on
K er
J ohn</w>
Ges ich
Ge or
Fir ma</w>
Es sen</w>
Chr is</w>
Bei fall
B rit
B est
A si
"W ährend</w>
"M ein</w>
über haup
ß e</w>
year- old</w>
y es,</w>
x im
wus ste</w>
week s</w>
vor her
ver y
ver rück
ur ch</w>
ul ation</w>
tre ffen</w>
tim es,</w>
sta y</w>
st ep
sho wing</w>
s mo
s end</w>
s '</w>
resear ch
re ma
ran ge</w>
r asch
poin t,</w>
ple as
perf ec
particul arly</w>
os au
o w</w>
no tic
mög lichen</w>
mon e
mo b
mis sion</w>
ment .</w>
medi zin
man che</w>
m ig
m assi
könn te,</w>
ing e</w>
indust ri
in c
ima ge</w>
ign or
ic ."</w>
haven 't</w>
habe .",</w>
h inter
größ ten</w>
gesam te</w>
gener ation</w>
gegen über</w>
g yp
g one</w>
g .</w>
fun c
faszin ier
f lik
f em
essenti ally</w>
entwick elt</w>
em plo
ein ge
e e</w>
e ?"</w>
dig it
das s,</w>
da y."</w>
curr ent</w>
cor rec
comp uter
comp assi
chan ce</w>
bestimm ten</w>
be merk
auf ge
at or</w>
ar m</w>
an ."</w>
al ized</w>
ad d</w>
actu ally,</w>
ach en</w>
ac y</w>
Ver trau
Unter schie
Univer sum
T re
Rich tung</w>
Re ch
R :</w>
P l
Mit tel
Men sch</w>
M ich
M ann
Intel ligen
H ol
Fort schrit
,"An d,</w>
) ,</w>
"W issen</w>
"V or</w>
"Di eses</w>
ü ll
äu ß
zun eh
zu erst</w>
z in</w>
y cl
writ ten</w>
wor th</w>
wi es
wer t</w>
wer den.,</w>
w ander
vor zu
ver öffentlich
under st
tradi tional</w>
tra gen</w>
to m</w>
ter m</w>
tem per
techn ologi
taus ende</w>
t ei
t a</w>
sud den
star ts</w>
sol ve</w>
so ph
sch ri
sc ale</w>
s wi
s l
rich tige</w>
ri p
re den</w>
pro t
po ver
ph en
pati ents</w>
p ast</w>
other ."</w>
neu es</w>
nach dem</w>
n uc
n ine</w>
mark et
m s,</w>
lu ck
la w</w>
kno ws</w>
k ürz
k ept</w>
ing s
incredi ble</w>
ic .</w>
hör en,</w>
grow th</w>
glob alen</w>
ges tal
g ei
fäl li
form ed</w>
fe et</w>
fam ous</w>
f r
expl or
ex pres
es t,</w>
en s,</w>
dar k</w>
d ab
con vin
con tri
con tra
car s</w>
bl ue</w>
be wegen</w>
at ors</w>
are a</w>
ant ly</w>
an s,</w>
all ."</w>
ad di
ach ed</w>
Wel t.,</w>
Video )</w>
The or
Struk tur
St elle</w>
Situ ation</w>
Schl üs
Prä si
Proz ess</w>
Prin zi
P ol
OK ,</w>
Nach bar
N ich
Met er</w>
Kom mun
H inter
DN A
D ok
Bev ölk
Arbeit s
Ar t,</w>
1 00
,"Th en</w>
"A m</w>
" An
zeu ge</w>
zei ge</w>
z äh
z z
wär en</w>
writ ing</w>
wis h</w>
well -
wal king</w>
w hat
versu cht</w>
v ent
tr uly</w>
to ,</w>
tiv e,</w>
te m</w>
ta g</w>
stron g</w>
str eng
sol l</w>
si eben</w>
se k
sch reck
s ent</w>
ro o
read ing</w>
r ich</w>
qu ality</w>
pe ti
p ack
opportun ity</w>
non -
n ut
mer ,</w>
mach t,</w>
le ar</w>
le ad</w>
k .</w>
it self</w>
ist e</w>
interes sier
i um</w>
i en,</w>
häl t</w>
hä re</w>
hund red</w>
ho pe
her vor
hel fen,</w>
h it</w>
ess our
ess ed</w>
er kann
er es</w>
e ""</w>
dre am</w>
de pres
de ep</w>
dab ei
da y.</w>
d ung</w>
choo se</w>
cas e,</w>
b es</w>
ati ven</w>
at mosp
ast ,</w>
al ter</w>
al s."</w>
al gorith
ak tu
ad ul
absolut ely</w>
ab ly</w>
a ge
Z entr
Wass er
W eil</w>
W aff
V or</w>
US -
T rä
R ed
Plat z</w>
Nor th</w>
N ach</w>
Musik )</w>
Mo st</w>
Mit te</w>
M i
Lehr er</w>
Le ben,</w>
J ob
Indi a</w>
Häl fte</w>
Geschäf ts
Gel egen
Fo to</w>
Er inner
Ein zel
Eff ek
Berei ch</w>
Beispiel ,</w>
B oo
1 4
,"A fter</w>
"N ach</w>
"" No
"" Das</w>
" Stellen</w>
z .</w>
y st
wer t
we ap
vis ion</w>
vi li
ur b
unter such
ul p
tra vel
toda y.</w>
tig en,</w>
thre e-
t ter
st ag
sol ar</w>
so fort</w>
si st
se .",</w>
school ,</w>
sam mel
s ed</w>
s ;</w>
rän k
rie f</w>
re k
qu ar
provi de</w>
pra k
plac e,</w>
ph ys
ou d</w>
o der
no w."</w>
mus s.",</w>
m ist
li eren</w>
land sc
la y
l ös
l ate</w>
l age</w>
know ."</w>
ing )</w>
ihr es</w>
ie t</w>
i ve</w>
hin zu
hiel t</w>
her um</w>
h ur
gu t,</w>
groß er</w>
gleich zeitig</w>
geseh en,</w>
gen e</w>
geb aut</w>
g ingen</w>
fel d</w>
fas cin
f o
exam ple
evi dence</w>
es se</w>
er en,</w>
einzel nen</w>
discover ed</w>
di ox
da her</w>
d s."</w>
d lich</w>
d ein</w>
countr y,</w>
consi der</w>
compu ters</w>
cho ic
bl u
besteh t</w>
ber ich
at ur</w>
at tra
as king</w>
an zen</w>
am ong</w>
al te</w>
al es</w>
Z ell
Vide o</w>
Te am</w>
T hat</w>
St re
St an
Sp rach
Schü ler</w>
Schrit t</w>
Sch wi
S o,</w>
S a
O n
N ord
N o</w>
Le t</w>
Kon flik
K lass
J an
Ih nen,</w>
He y,</w>
HI V</w>
H um
Fil m</w>
Ent deck
Da vi
D el
Auswirk ungen</w>
Aufgab e</w>
Ak tiv
5 ,000</w>
ü b
öffent lichen</w>
öffent liche</w>
är en</w>
you 'd</w>
y ?"</w>
we 'd</w>
vor stellen,</w>
ung spro
they 've</w>
that ?</w>
tal ked</w>
sur ger
son ,</w>
sk ill
sich er,</w>
si tion</w>
setz en,</w>
schaff en.",</w>
re .",</w>
publi sh
prote c
progra m</w>
produ k
pic k</w>
p liz
p ite</w>
nutz en,</w>
mor e,</w>
mob ile</w>
mo tiv
minut es</w>
maj or</w>
lo c
lif e.</w>
lie b
lich t</w>
lei cht</w>
le gen</w>
lan gen</w>
lan d,</w>
l y.</w>
l ehr
ka y.</w>
k rei
k op
iz ing</w>
it ?</w>
inn er</w>
individu al</w>
incredi bly</w>
imp act</w>
imag es</w>
i al</w>
hal t</w>
groß es</w>
gesch ich
g as
fin anci
fin al</w>
f igh
et z</w>
erhö h
entwick eln</w>
ent schie
enor m
enc y</w>
dy nam
di gen</w>
der n,</w>
da y
ch ter
cent er</w>
cap ac
boo k,</w>
big gest</w>
b on
ation s
ar d
al t
ag ed</w>
actu al</w>
ab hän
W ik
Ver halten</w>
Unter schied</w>
Unter neh
U hr</w>
Ter ror
Sch ön
Sch ri
S pr
S atur
Po liz
P an
Neu ro
N atur
Möglich keiten</w>
Medi en</w>
Lu ft</w>
Kontro lle</w>
K rieg</w>
K rei
Inter net
Informa tion</w>
Ide e,</w>
Haup t
Gewal t</w>
Geschich te,</w>
Gef äng
F ing
Energ ie
En gl
Dru ck
Ch em
Beweg ung</w>
Bedeut ung</w>
B ä
Americ a</w>
A S
- F
,S ome</w>
,"T o
,"F ir
!"" "</w>
! "</w>
ün g
überhaup t</w>
ü bri
ä us
wur den.",</w>
wach sen</w>
w ind</w>
vis ual</w>
verl or
ver teil
up .</w>
um .</w>
tn is</w>
tiv es</w>
them selv
sp ür
sit z
sieh t,</w>
seh en.,</w>
sa hen</w>
s we
res ist
real ity</w>
re por
pres ent</w>
pre par
poli ce</w>
pl ann
pat tern
om en
nuc lear</w>
no tice</w>
n ice</w>
mus s,</w>
much .</w>
mor al
mo ved</w>
mein e,</w>
man ip
lie be</w>
le -
kör per
konn te,</w>
k ünst
jung e</w>
isch ,</w>
invol ved</w>
inf ec
inclu ding</w>
in fra
im medi
ig en,</w>
high -
gir l</w>
geh t.",</w>
fühl en</w>
for ms</w>
find ing</w>
f ic
et ri
es :</w>
erinn ere</w>
en jo
ell ing</w>
eig ent
dies el
di ge</w>
c e.</w>
ber t</w>
bei de</w>
beginn t</w>
b ul
b rech
avail able</w>
au l
at ed,</w>
ar gu
appro ach</w>
all .</w>
ab en</w>
Yeah ,</w>
Wissenschaftl er</w>
St ar
S en
Rei se</w>
Pau l</w>
P res
N utz
Mol ekü
M u
Lei den
Lab or</w>
L auf
Kre bs</w>
Kre b
K :</w>
Jahr zehn
J ob</w>
F e
Er d
Ein fl
Bl ut
Beifall )</w>
Au gen
Al ter</w>
6 0
3 ,</w>
1 2
. “
,We 've</w>
,"We 've</w>
,"W ith</w>
,"B y</w>
," D
, R
, I've</w>
& amp
" Unsere</w>
!"" ",</w>
über zeu
zurück ,</w>
z ed</w>
wichtig sten</w>
wi cht</w>
wer en't</w>
wei sen</w>
w oo
vol le</w>
ver sion</w>
v at
unter stütz
unter schei
un bed
tradi tion
tot ally</w>
together ."</w>
th an
ter s,</w>
tell s</w>
te u
struk tur</w>
st ör
st age</w>
spe aking</w>
so genann
sm aller</w>
s wit
s ."""</w>
ro h
re ci
r und</w>
ques tion
qu o
prof ession
pl ast
people .</w>
p h</w>
ox y
our selv
orig in
on -
ol d,</w>
of ,</w>
num bers</w>
nimm t</w>
nah me</w>
n ö
n a
mö gen</w>
mach ine</w>
li ved</w>
li st</w>
l ungen</w>
kü mmer
komm en.,</w>
kom me</w>
k u
k et
intro du
incre ase</w>
in tu
in iti
il s</w>
ici al</w>
i em
hosp it
high er</w>
h id
gu ess</w>
grou p
g än
g ol
fre qu
favor ite</w>
f el</w>
es ."""</w>
er s."</w>
er nen</w>
ent ly,</w>
en ?""",</w>
emo tional</w>
em er
em ent</w>
einfach e</w>
ein .,</w>
eh men</w>
doc um
dis c
dig ital</w>
di e
den ten</w>
dar in,</w>
d ank
con struc
com fort
colle agu
cl ass</w>
ch en.",</w>
ber ühr
beh andel
be grenz
be coming</w>
at s</w>
are as</w>
ar ily</w>
anal y
al th</w>
al tern
al on
al -
ah n</w>
ada p
Wir tschaft</w>
Wik i
Wel t.",</w>
Vor trag</w>
Vereinig ten</w>
Ver füg
T um
T u
T im
T at</w>
S oft
S er
S am
Rich ard</w>
Progra mm
M c
M al,</w>
L änder
Kul tur
Kolle gen</w>
K il
K ,</w>
J er
Is ra
I ra
H y
H au
G u
Fre und</w>
Fre u
F eh
Europ a</w>
Erfol g</w>
Entwick lungs
Dat en
Chin ese</w>
Beispiel e</w>
Be zug</w>
B en
A ra
1 6</w>
1 .
,"O f</w>
,"No t</w>
,"I 've</w>
"W eil</w>
"" D
" Vielleicht</w>
zi g</w>
zei ch
z ens</w>
z eh
y m
wür den.",</w>
wher e,</w>
wa iting</w>
w in</w>
verwen den</w>
ut en,</w>
un e</w>
um p</w>
u tion,</w>
u g
ture .</w>
tro tzdem</w>
tri ff
ti es,</w>
through out</w>
te d."</w>
sup posed</w>
stu dent</w>
str ateg
ste .",</w>
sozi alen</w>
soll te.",</w>
so wohl</w>
so und
so dass</w>
sh el
sen si
schn ei
s un
robo ts</w>
r ely</w>
potenti al</w>
p ha
oun d,</w>
or ity</w>
optim ist
on e's</w>
ogra ph
no ch
nich t.</w>
n e,</w>
mo v
mo st
mil es</w>
mar ri
man u
mag ne
m ing</w>
low -
los s</w>
lar gest</w>
kul tur
j ourn
inter national</w>
ing -
industr y</w>
if f</w>
i eh
heit .,</w>
ha st</w>
ha f
h l</w>
gre w</w>
gew inn
ge gan
g rupp
fü r,</w>
for e</w>
exam ples</w>
er füll
ent weder</w>
enc e.</w>
en ?</w>
eff ek
educ ation</w>
des t</w>
dav on
da für,</w>
connec ted</w>
comp lic
coll abor
ci ties</w>
ci es</w>
bu b
bra ch
br auch</w>
br an
bo x</w>
bo x
blo ck
bes te</w>
beg innen</w>
be kommen,</w>
b all
außer halb</w>
ar ing</w>
ant s,</w>
anci ent</w>
al og
ak zep
ah e
ag ra
a de
Z um</w>
Wie der
W ür
Ver gangen
Techn ik</w>
Techn ik
T y
T ri
T age</w>
Sy n
Se el
R essour
R ak
No w,</w>
N icht</w>
Mensch en.",</w>
Mein ung</w>
Künst ler</w>
Kra ft</w>
Kon zept</w>
Gr und,</w>
Fähig keit</w>
Ein st
Di eser</w>
A pp
,"Th ey're</w>
, M
, All</w>
"T atsächlich</w>
"" J
ß en,</w>
Ü ber</w>
zu vor</w>
z ing</w>
y n
y l
y et,</w>
woll te,</w>
wei gh
wan ts</w>
vor stell
versuch t,</w>
v es,</w>
ust om
um .",</w>
tr ou
tot al</w>
to o."</w>
to -
tig es</w>
though ,</w>
tes ten</w>
teach er</w>
system ."</w>
sy mm
stän dig
st eu
societ y</w>
so on</w>
sle ep</w>
schrie b</w>
sch u
sch lä
sch ir
s ity</w>
righ t.</w>
re ver
prote ct</w>
progra mm
priv ate</w>
poli cy</w>
ous ly,</w>
or ."</w>
olog ical</w>
no w
mor e."</w>
mit tl
ma p</w>
m en.,</w>
los sen</w>
lin ks</w>
lich keit
li es</w>
li ber
lea der
le .",</w>
lang sam</w>
kra ft</w>
kl ar</w>
inv ented</w>
in flu
in -
ill ,</w>
ig ar
i ff
ho ch</w>
heiß t,</w>
h us
h our</w>
gra f
glück lich</w>
ges ell
gel eg
g s,</w>
g .",</w>
fre i</w>
foc us</w>
fir e</w>
er halten</w>
en ken</w>
ein iger</w>
ein .</w>
do or</w>
de ath</w>
dat a,</w>
contin ue</w>
com mit
civi liz
cel e
bra in,</w>
br it
bli ck</w>
bli ck
bi li
ber eit</w>
be .</w>
au ch
ar y,</w>
ap ar
an er</w>
am es</w>
allo wed</w>
all ein</w>
ad ver
able .</w>
a ware</w>
Zi vili
W ol
W ohl
Verbind ung</w>
Umgeb ung</w>
Um welt
Technologi en</w>
Son ne</w>
Sch wes
Re alität</w>
R adi
O per
Nach t</w>
N ation
N a
L ändern</w>
L ag
Kohl en
Kar te</w>
Jah re,</w>
I ,</w>
Har v
Gen au</w>
Ergeb nis</w>
Engli sh</w>
Ch ic
B akter
Aufmerksam keit</w>
Al gorith
A m</w>
A m
""W hat</w>
"" "
ähn lich</w>
Ärz te</w>
Ä n
zeh n</w>
z ellen</w>
year ."</w>
y ed</w>
wusst e,</w>
wir r
wh ile,</w>
wen ig
vo ic
ver wandel
ver hin
v ul
unbed ingt</w>
un iqu
um zu
tro p
tr it
tiv ely</w>
tisch er</w>
this ?</w>
ter e</w>
te d.</w>
t eile</w>
t aught</w>
t ;
t ,",</w>
supp or
sug ges
sudden ly</w>
studi ed</w>
spec ific</w>
so wie</w>
sind .</w>
sel be</w>
sein .</w>
schwi eri
schwieri g</w>
s us
ro w</w>
rat ie</w>
ra tion
qu i
proc ess,</w>
pri mar
poli tische</w>
photo graph
p un
p it
net work</w>
neh men.",</w>
min d,</w>
mean ing</w>
me ant</w>
materi al</w>
mach ten</w>
ma in
ma che</w>
m änn
m ass</w>
lich erweise</w>
l eit
konzent rier
kommun iz
kom pliz
kei t.",</w>
ke ep
k ünf
k e,</w>
k a</w>
jem an
j ahr
is o
is :</w>
ir ur
ir es</w>
ing u
ier en.,</w>
ic s,</w>
i es."</w>
hr en</w>
ho od</w>
help ed</w>
he utzutage</w>
he at</w>
ha ve,</w>
ha ft</w>
glau ben</w>
gesam ten</w>
ges t
gene tic</w>
fri st
fal t</w>
f it</w>
f ing</w>
f .",</w>
et e,</w>
es ?</w>
erzähl en</w>
erw ähn
equ i
environ mental</w>
en ag
elec tron
el n,</w>
eg al</w>
eff izi
dra w</w>
die jen
di agno
de e
de b
dan ach</w>
d on</w>
d ly</w>
d ann,</w>
cri min
cre ative</w>
c ru
bre a
bod y,</w>
bo dy
besch rei
befor e,</w>
be wer
b y
b a
autom ati
aus e,</w>
atur es</w>
as soci
any one</w>
ani mal</w>
an ge</w>
ah er</w>
aff ec
af ter
ad ing</w>
ab stra
a pe
Veränder ung</w>
Ver such
To chter</w>
Straß e</w>
Schl af
Sch n
Sach e,</w>
Reg eln</w>
Re gi
R evolution</w>
R at
Pro t
Num mer</w>
N ame</w>
Ma ybe</w>
In genie
Hir n
Gr enzen</w>
Got t</w>
Gesch le
Gemein schaf
Ge fühl
Gal ax
G od</w>
G ar
Fähig keiten</w>
Erfahr ungen</w>
Eben e</w>
E mp
Chin a,</w>
C oun
C an
Bild ung</w>
Be wusst
B al
Au str
8 ,</w>
7 0
6 ,</w>
4 ,</w>
10 ,</w>
1 4</w>
,C an</w>
,"O ur</w>
," P
, P
"N at
"Ein ige</w>
"Des halb</w>
""W as</w>
"" You</w>
"" I'm</w>
" Zu
" G
zwei ten</w>
zus etz
your self</w>
wür den,</w>
wä l
win digkeit</w>
welt wei
well .</w>
we a
w ood</w>
w ind
vi ces</w>
vermut lich</w>
ver ständ
ver mei
us ually</w>
um in
ul tim
tn is
tis h</w>
tik el</w>
ther n</w>
theor y</w>
th s</w>
temp or
t ung,</w>
t at</w>
stre et</w>
stor y,</w>
sp ann
sen sor
sc or
sag ten:</w>
sa v
s ätz
room ,</w>
ro mo
rei chen</w>
re fu
r ing
r as
pr en
ph on
pe ace</w>
pa per
off er</w>
o s,</w>
not wen
normal erweise</w>
nich t
ne u</w>
mor al</w>
milit ary</w>
mag ine</w>
mach in
lie ß</w>
li n</w>
leg al</w>
le .,</w>
l esen</w>
l am
konn te.",</w>
k rank
k einer</w>
is m,</w>
inspi rier
important ly,</w>
ier t.,</w>
heu tigen</w>
her aus</w>
hel d</w>
h aus</w>
gel ö
geb en.,</w>
gal ax
ga ge
g ress</w>
g in
führ en,</w>
fundament al</w>
foo t
fol gen</w>
fal sch
f ight</w>
experim ent
et c
et .,</w>
ess es</w>
ess en,</w>
erst es</w>
errei chen</w>
er zeug
environ ment</w>
enti er
ent .",</w>
en ;</w>
effec t</w>
ear li
e chte</w>
dru ck</w>
dis cover</w>
di ed</w>
de mon
daugh ter</w>
dar aus</w>
da ys,</w>
d s.</w>
d d
cur i
cre di
craz y</w>
co unter
co de</w>
ch en.,</w>
ch eck</w>
caus es</w>
c ent</w>
brit ann
bra ins</w>
bo ar
bit te</w>
big ger</w>
besonder e</w>
ben utzen</w>
bekann t</w>
be mer
b ist</w>
außer gewöhn
ation s."</w>
ati v</w>
anc ed</w>
an te</w>
af ri
abhän gig</w>
Wör ter</w>
Vor stell
Th ere</w>
T od</w>
T :</w>
Sy m
Städ te</w>
R oll
R est</w>
Poli tik</w>
Person en</w>
Oberfl äche</w>
N un,</w>
Mensch heit</w>
Maschin en</w>
M R
L es
Kamp f</w>
In fra
I mm
H om
Gemein schaft</w>
Geh eim
F äll
F ach
Evol ution</w>
Europ e</w>
Er n
Des halb</w>
Den ken</w>
Davi d</w>
Dat en,</w>
D am
Char les</w>
C or
C olle
Bür ger
Bed ürf
B üh
Al so,</w>
A R
7 5</w>
,"S ome</w>
, Do</w>
"" Hey,</w>
üs s
ün sch
ö t
ö se</w>
Ö l</w>
zu fälli
wur den,</w>
win z
vo ice</w>
ver ändern</w>
ver antwor
v ent</w>
v e-
ut sch
us ion</w>
un den
um ind
tä t</w>
tw o,</w>
tran spor
ten ?",</w>
teach ing</w>
teach ers</w>
t ons</w>
t able</w>
system s,</w>
st op
st ol
st es</w>
st ad
speci al</w>
sha p
ser vice</w>
sel n</w>
s ligh
s la
s er</w>
ro m
ri ff</w>
res ol
r ying</w>
r ein
play ed</w>
p ac
offen sichtlich</w>
obvi ously</w>
nur ,</w>
ne ct</w>
ne ar</w>
mon it
meet ing</w>
mach en.,</w>
m ine</w>
liv es."</w>
l augh
k ill</w>
ju d
j ungen</w>
irgend wo</w>
inter nation
innov ation</w>
in der
impro ve</w>
ie gel
i d,</w>
i a,</w>
hom e,</w>
histor y,</w>
help ing</w>
hand elt</w>
h ous
h eil
größ er</w>
got ten</w>
gew ähl
gew esen</w>
geb racht</w>
ge zeigt</w>
g uter</w>
g ig
funktion iert.",</w>
fra gen,</w>
fra ge</w>
for war
fi g</w>
f ill
ey es</w>
extre m</w>
ex ten
entschei den
ent re
en des</w>
ell es</w>
el y,</w>
el li
eben so</w>
e ;</w>
drit te</w>
dr ing
do pp
di en
deter min
den ken
del i
con nect</w>
ck ed</w>
cho ice</w>
capac ity</w>
bra in
bo y</w>
bet ei
bes itz
beh and
be antwor
b ung</w>
b and</w>
b and
b ,</w>
aver age</w>
at en,</w>
arbeit en.",</w>
appro ach
anc es</w>
an ten</w>
an gen
am bi
al s.</w>
ag ri
ad ."</w>
ac cur
ab ili
Ziel e</w>
Wor te</w>
We ge</w>
W o</w>
W et
W ert</w>
W ell
V ö
Twit ter</w>
T aus
Stim me</w>
Sta aten</w>
So zi
Sei ten</w>
Sau erst
S ub
S al
Progra mm</w>
Plan et
Or t,</w>
N un</w>
M id
M ex
M I
L :</w>
K rä
K a
Herausforder ung</w>
H ü
Ges prä
Geh en</w>
Fu ß
Fran cis
Fra ge,</w>
Famili en
Face book</w>
F ri
Ergeb nisse</w>
E -
Dank e.</w>
D enk
Ber u
B uch
B on
B illi
Auß er
Au di
An zahl</w>
Amerikan er</w>
Amerik a</w>
A spek
7 ,</w>
20 00</w>
2 -
,O ur</w>
"V on</w>
"Nat ürlich</w>
"H eute</w>
"Di eser</w>
" Viele</w>
zieh en,</w>
z hei
z er</w>
wunder schön
wieder hol
who 's</w>
weiter hin</w>
weiter es</w>
wal ked</w>
w on
viol ence</w>
versteh en.",</w>
verb in
ver letz
ver lassen</w>
ver füg
us si
ur en</w>
unter rich
umind est</w>
ul ate</w>
u red</w>
u pp
two -
tre ten</w>
tre at</w>
tie f</w>
ti n</w>
ti ere</w>
this :</w>
t ?"</w>
system .</w>
sur ro
str ategi
stor y.</w>
st ed</w>
sp rach
so li
so ft</w>
selb st,</w>
schn eller</w>
s n
s low
righ t."</w>
redu z
re pe
re mark
re gel
re ac
r an</w>
plac ed</w>
or s,</w>
olog y</w>
oder ?",</w>
num ber
ne arly</w>
nach hal
n äh
my self,</w>
mor n
mo d
meas ure</w>
mar k</w>
ma xim
m as
ly mp
lin e,</w>
lie ben</w>
lich .</w>
le x
lar ger</w>
lag en</w>
la ws</w>
k it
it zen</w>
interes si
intelligen ce</w>
in strum
im mel</w>
ig e,</w>
ic ro
hän gt</w>
hei m
health y</w>
hab it
h and,</w>
great est</w>
gre ater</w>
go al</w>
gen des</w>
gemein sam
geh ol
gef unden</w>
g ni
g ing
frü hen</w>
fortun ately,</w>
for eig
for d</w>
fol low</w>
fin ally,</w>
f äh
f ran
f os
f abri
ex pect</w>
ex er
es ts</w>
es tim
es si
entre pren
en nen</w>
elek tr
einfach ,</w>
durch ge
dri ving</w>
diseas e</w>
differ ences</w>
denk en.",</w>
de d,</w>
da durch</w>
cris is</w>
contro l
con sequ
comple x
com bin
cle an</w>
childr en,</w>
child ren
ch ron
ch ."</w>
cal cul
c ustom
c amp
bu il
bot tom</w>
bo ard</w>
biolog ical</w>
behavi or</w>
be kam</w>
bar ,</w>
back ."</w>
auf grund</w>
ash ing
ar tic
ang ,</w>
anc e."</w>
an ten
amerikan ischen</w>
all ge
ah ,</w>
ab häng
a ge."</w>
Wiki pedi
Wi der
W in
W ich
W ahl</w>
V o
V ier
Theor ie</w>
Tem per
Tag en</w>
T V</w>
Sin ne</w>
S and
R est
Poli tik
Per spek
Must er</w>
Medi zin</w>
Me chan
Materi al</w>
M y
M ass
Lu ft
L ern
J ohn
Inter ak
Innov ation</w>
Indi vidu
In f
I denti
H or
H oll
H ei
Groß britann
Ge fühle</w>
G eg
Frau en,</w>
For men</w>
Flug zeug</w>
Feh ler</w>
E mo
B us
At mosp
Al zhei
Al les</w>
Al le</w>
A maz
,"H ere</w>
,"B ut,</w>
," Just</w>
"W arum</w>
"D u</w>
"" G
’ t</w>
üt zen</w>
ä he</w>
Ö l
zeig te</w>
z og
wich tigen</w>
vor her</w>
ver wand
ut h</w>
under stand
typ es</w>
tra ff
tr uth</w>
tou ch</w>
tol er
tig ung</w>
think ing,</w>
tet e,</w>
ter .,</w>
t wi
t ""</w>
st ic</w>
sprech en.",</w>
spra ch</w>
situ ation</w>
si mp
ser ies</w>
sen s
se x</w>
schö n</w>
sa fe</w>
s inn
s etzt</w>
s en.,</w>
ru s</w>
ris k
res tau
rei g
reas ons</w>
ra ti
r o</w>
pus h</w>
problem ."</w>
posi tion</w>
plan e</w>
pl om
pl an</w>
phen omen
perc ent."</w>
pa in</w>
pa id</w>
ou s.</w>
or der
oo k</w>
on e-
olo gen</w>
oh ,</w>
oc cas
ob il
no ther</w>
no ,</w>
neu n</w>
nen ne</w>
n ess,</w>
mess age</w>
materi als</w>
massi ve</w>
lon g-
ligh ts</w>
li mm
lau t</w>
landsc ap
la w
könn ten,</w>
kon om
k tu
k ne
issu es</w>
ion .</w>
inv est
in n</w>
imp ac
ig keiten</w>
identif y</w>
hö ch
hä us
hy th
her unter
happin ess</w>
haben .</w>
h au
glob ale</w>
gh an
gew es
gestell t,</w>
gesch ieh
ger ing
ger ich
gelern t</w>
g lie
ful .</w>
frü her</w>
foc used</w>
financi al</w>
ff en
far mer
famili ar</w>
fahr en,</w>
fac tor
f liegen</w>
f ill</w>
f ach
experim ent</w>
ex pen
ess or</w>
errei cht</w>
ern ähr
erklär en,</w>
er r
er leb
er kennen</w>
environ ment,</w>
energ y,</w>
em erg
el ess</w>
einzel ne</w>
ein .",</w>
down ."</w>
dies ,</w>
dic al</w>
des pite</w>
des er
deci de</w>
de ath
d anger
cor por
cor ding</w>
conver sa
col or</w>
chang e,</w>
challeng es</w>
cam pa
c amera</w>
c a</w>
bring s</w>
bild ung</w>
bil den</w>
bi eten</w>
bet re
bestimm te</w>
ber u
be kommen.",</w>
be finden</w>
auf en</w>
att ac
at temp
at e."</w>
as i
ar ound
ar ch</w>
any body</w>
an st
an o
ail s</w>
ag ing</w>
ado p
activ ity</w>
ab et
a way."</w>
Zahl en</w>
Wirtschaf ts
Ver l
V ort
V ari
U N
Tel ef
Studi en</w>
Struk tur</w>
Sta ti
Spezi es</w>
Sol ar
Sch iff</w>
Ri es
Rau m
R igh
Publik um
Progra m
Prei s</w>
P la
Mitge fühl</w>
Mar s</w>
Le uten,</w>
L ö
L assen</w>
L a</w>
Kommun ik
K lei
K am
Ju li
Jan u
I tal
I s</w>
I mp
HI V
Glau ben</w>
Foto s</w>
Forsch er</w>
Fl ü
Ding en</w>
Di d</w>
De fin
Comp u
C ity</w>
C he
C E
A f
A d
A ch
6 00</w>
.. .",</w>
,O r</w>
, D
"Z u</w>
"D a
ä her
z y
z ell
y el
wes en</w>
wei r
wat er."</w>
w ü
w all
verb unden</w>
vari ous</w>
v eh
us sion</w>
un te
tä glich</w>
tun .,</w>
tr a</w>
toda y."</w>
tion .",</w>
theor e
tel ev
telev is
t ing,</w>
sustain able</w>
sur fac
success ful</w>
stell e</w>
st ick
st -
spiel en,</w>
sp ru
sol chen</w>
so c
soc ie
sligh tly</w>
sle ep
sk in</w>
sh if
separ ate</w>
sei te</w>
se arch
sa h
s ü
s th
s ""</w>
ri er</w>
recogn ize</w>
rech t
rec ently</w>
ra ge</w>
pl us</w>
peri od</w>
perf ect</w>
ounda tion</w>
oka y,</w>
most ly</w>
mom ent,</w>
mom ent
min im
mid d
memor y</w>
m es
lö sen</w>
lo sen</w>
lin k
ließ en</w>
li sten</w>
le gen,</w>
l ap
kam ,</w>
jeman dem</w>
inter ag
intel lec
individu als</w>
in fin
in dic
in come</w>
immer ,</w>
ilo soph
human ity</w>
hoff e,</w>
high ly</w>
h ed</w>
gi ant</w>
ger ä
gen i
gam es</w>
ful ."</w>
friend s,</w>
free dom</w>
form ing</w>
foo t</w>
fi x</w>
fer tig</w>
fang en,</w>
f än
f res
f ine</w>
f ak
extra ordinary</w>
exer cis
event ually</w>
et er
ern .,</w>
er inner
ep res
enti rely</w>
enorm ous</w>
eng age</w>
end .,</w>
einfach en</w>
dri ve</w>
dre am
drau ßen</w>
doc tors</w>
di d."</w>
des tru
dabei ,</w>
da ily</w>
d ly,</w>
con serv
communic ate</w>
com mer
co ff
ck ing</w>
ck .</w>
chan ge."</w>
chan ge
cas es</w>
call s</w>
c ut
bes u
benö tig
be dro
bar es</w>
b unch</w>
ast er</w>
ar ri
ar ound,</w>
ant ."</w>
an ze</w>
an gef
all e,</w>
al one</w>
again ."</w>
aff ect</w>
ad d
acc ep
a il</w>
a .",</w>
Yor k
Wirk lichkeit</w>
Wahr schein
W ur
W ashing
Unter stütz
T V
Ste u
Spa ß</w>
Sin n</w>
Sicher heit</w>
Sch wei
Sch war
S äu
S we
S kl
S ehen</w>
S ci
S at
Ressour c
R ä
Poliz ei</w>
P ra
P ho
No ch</w>
Ne ur
N ur</w>
Mensch en
M icro
L iste</w>
L ich
L ernen</w>
L ek
Kap it
I m
Hil f
Her zen</w>
H u
H ou
G lob
F ehl
Europe an</w>
Ear th
E reig
E m
E hr
D rit
C ha
Brit a
Be wei
B ig</w>
B eine</w>
An ti
A hn
A c
4 .</w>
2 ,
199 0
10 ,000</w>
,"In ste
,"E ven</w>
, I'll</w>
"N ein,</w>
"D am
""W hy</w>
"" Wir</w>
"" .</w>
zu künf
wor den</w>
win do
will ing</w>
who se</w>
wel cher</w>
weiter en</w>
we aring</w>
wa ys,</w>
wa ve</w>
w uch
vul ner
vor aus
ver steck
veh ic
ure ."</w>
un ge
tra vel</w>
tra ined</w>
tr ust</w>
together .</w>
to ol</w>
ti tu
su cht</w>
stu dies</w>
struk tur
strug gl
steh t,</w>
st s,</w>
st ress</w>
st amm
sor ts</w>
soll te,</w>
soft ware</w>
sit zen</w>
shar ed</w>
sha pe</w>
sel ts
sei ts</w>
se arch</w>
schle chte</w>
s wer
s ul
s low</w>
s )</w>
resul ts</w>
respon se</w>
resour ces</w>
rep ort</w>
refu ge
re den,</w>
re .</w>
rap id
rais ed</w>
r ou
pro gres
prin t</w>
pre cis
popul ar</w>
plan et
pl ant</w>
pic tures</w>
perc ep
per man
partici p
p rei
p fl
or y</w>
om eter</w>
off en</w>
nut ri
no body</w>
nat ure,</w>
n en.",</w>
möglich ,</w>
movem ent</w>
mor ning</w>
mor e.</w>
model s</w>
mo vi
met ap
mehr ,</w>
man y,</w>
mach ines</w>
m utz
m t</w>
m ed</w>
listen ing</w>
le y</w>
le bt</w>
la un
l er,</w>
könn en.</w>
konn ten.",</w>
kl ein</w>
keit en,</w>
k id</w>
j ur
j ump
is i
il et
ie .</w>
i th
hei t.",</w>
hal te</w>
hab en.,</w>
ha d
h ang</w>
gen der</w>
gel ang
ge dach
gan zes</w>
gab ,</w>
g lichen</w>
g as</w>
fol gt</w>
fin anz
fe ed</w>
f en.,</w>
ex ec
es ter
es ten</w>
er t.",</w>
entwickel ten</w>
einz igen</w>
eben falls</w>
e cht</w>
e chn
direc tly</w>
di vi
det ec
der n.",</w>
decis ions</w>
de vic
de ca
dan ke</w>
da ma
da fri
d es,</w>
cri tical</w>
con ven
com peti
clear ly</w>
chem ical</w>
car ,</w>
can cer
c o</w>
c e
bes ei
began nen</w>
au ton
ar s</w>
ar e.</w>
app lic
ang er</w>
and a</w>
an t.</w>
allo ws</w>
al ing</w>
ah r</w>
agre e</w>
ab out."</w>
Z we
Weg ,</w>
W est</w>
Ver ständ
Univers ity</w>
Th ere's</w>
Tel es
T ü
Stra ßen</w>
S -
O pf
O lymp
Mus eum</w>
Mon aten</w>
Mar kt</w>
Lös ungen</w>
Lie bl
Leiden schaft</w>
L ang
K al
Hel den</w>
Gra d</w>
Ge di
G P
Fähig keit,</w>
Fir men</w>
Er kenn
Einfl uss</w>
Eig enschaf
E t
Demok ratie</w>
D ro
Bri tish</w>
Bes onder
B ur
Auß en
9 ,</w>
2 .
1 5
1 3
. )</w>
,"O n
,"E very</w>
," How</w>
, Let</w>
"N icht</w>
""W arum</w>
"" This</w>
"" M
"" C
"" -
" Unser</w>
über zeug
über rasch
öff net
Ö ff
zu .",</w>
zer o</w>
z e,</w>
woh ner</w>
weiter .",</w>
we ver,</w>
war e,</w>
w s,</w>
w est
vol unte
vill age</w>
verwend en,</w>
verwen det</w>
verurs ach
versu che</w>
ver s</w>
unterschied lichen</w>
underst ood</w>
ture ."</w>
trau ma
tig .,</w>
thous and</w>
the tic</w>
th ri
ter -
ten s,</w>
t y."</w>
t on,</w>
system e</w>
sym bo
succ ess</w>
ster ben</w>
spir itu
sol ution</w>
so :</w>
sen se,</w>
self .</w>
sch ütz
sc ulp
s it</w>
s an
righ ts</w>
rel ativ
reg ul
redu ce</w>
reas on
prä sen
possi bly</w>
poli tischen</w>
plat z
plac e."</w>
peri o
pen dent</w>
pat tern</w>
passi eren</w>
pa ir</w>
pa ir
p ag
or g
op in
off ic
objec ts</w>
objec t</w>
nenn t</w>
ne .",</w>
nach denken,</w>
mög liche</w>
mp tom
mo m</w>
m asch
läu ft</w>
lern te</w>
le ads</w>
l ung,</w>
l es,</w>
l ack</w>
l abor
konn ten,</w>
k rä
k el</w>
journe y</w>
jo in</w>
jec t</w>
j ene</w>
it er
ing ?</w>
iden t</w>
i or</w>
haup ts
ha te</w>
ha b</w>
h es</w>
goo d.</w>
genutz t</w>
gener al</w>
gef unden,</w>
fri e
for men</w>
for est</w>
follo wing</w>
fin de</w>
fast er</w>
f t.,</w>
f ei
exc iting</w>
ess ing</w>
erfolg reich
er laub
er forsch
er a</w>
entwickel t,</w>
ent s."</w>
ent en,</w>
enc ou
ech ten</w>
dro p</w>
develop ment</w>
det e</w>
de cl
dar f</w>
d anc
cro w
cri p
countri es,</w>
conver sation</w>
con tex
comfort able</w>
col d</w>
ch es
c ros
bri dge</w>
body 's</w>
blei bt</w>
beschäf tig
be zeichn
be kommt</w>
ati ve,</w>
ari a</w>
ap ply</w>
an xi
alis mus</w>
al though</w>
al ten,</w>
ahe ad</w>
ag en
ad .</w>
a way,</w>
a vo
a dem
Z elle</w>
Yor k,</w>
Wahr nehm
W ort
W er</w>
W at
Verantwor tung</w>
Ver sion</w>
U. N
U S</w>
Tran s
T or
T eile</w>
System e</w>
Stu denten</w>
Str ateg
Sp itze</w>
Schwi er
Sch ei
S icht</w>
Rest au
Proble men</w>
Oze an
O kay,</w>
Nahr ung</w>
Mus li
Mod ell</w>
M ad
Inter net,</w>
In strum
Hoffn ung</w>
H äus
H ände</w>
H än
H ung
H eute</w>
Fl üch
Fern seh
Famili en</w>
Er find
E ri
Dor f</w>
De bat
D on
C aliforni
Bo st
B an
Ar tikel</w>
Ander e</w>
An wend
AID S</w>
A n</w>
A -
4 00</w>
- year-old</w>
,"F rom</w>
," Un
, 000
( Beifall)</w>
' s,</w>
"Z wei
"J a,</w>
"" P
ö pf
äl le</w>
ä s
zu stellen,</w>
z ar
z .
wähl en</w>
with ,</w>
wi lli
wi fe</w>
wi de</w>
wi d
wer k
wer den.</w>
vor bei
vi ous</w>
vi ellei
veränder t</w>
verb ind
ver wirr
v it
use ful</w>
un t</w>
un k</w>
u li
tu al</w>
tro t
tran spar
tisch es</w>
tier ten</w>
thro w</w>
they 'll</w>
te ."</w>
taus end</w>
ta ins</w>
t an</w>
t ;</w>
sur v
stud ying</w>
st range</w>
st .,</w>
some where</w>
som it</w>
solu tions</w>
sit y,</w>
si v
si e:</w>
si e.",</w>
setz en.",</w>
seri ous</w>
ser ve</w>
sel l</w>
seem ed</w>
schö nen</w>
schwier ig
sch mer
sc en
sat z
s weise</w>
rie ben</w>
ri ere</w>
requ ires</w>
rel ev
rec ent</w>
ra in
r aus
publish ed</w>
projec ts</w>
progra ms</w>
produc tion</w>
pro to
pro mo
possi bility</w>
poin ts</w>
pie ces</w>
performan ce</w>
passier t.",</w>
op po
oo per
og el
off ."</w>
oc cur
nor m
nigh t,</w>
ner v
neg ative</w>
necess arily</w>
nach ,</w>
n '
much ."</w>
mor tal
mo di
mis sing</w>
mat h</w>
mark ets</w>
läs st.",</w>
lo s,</w>
lieg en,</w>
li qu
li gen</w>
lea ders</w>
le ft,</w>
l äch
l ung
komm t.",</w>
kl ingt</w>
k rieg
job s</w>
it i</w>
is on</w>
inter est</w>
inde ed,</w>
in a</w>
iem and</w>
i x
hör te</w>
ho hen</w>
hl en</w>
hiel ten</w>
hear ing</w>
hat .</w>
ha ir</w>
ha ir
größ ere</w>
großar tige</w>
grou ps</w>
gradu ate</w>
gespro chen</w>
geschrie ben</w>
genom men,</w>
ge geben</w>
ga in,</w>
g ünst
g lo
fäll t</w>
for get</w>
flo wer
fil m</w>
fes t,</w>
feel s</w>
famil y,</w>
f ein
ey e</w>
et was
erzähl te</w>
ermöglich t</w>
ep tem
entwickel n,</w>
entrepren eur
en ever</w>
en 's</w>
el et
econom y</w>
e e
dr in
decis ion
de v
de ad</w>
das selbe</w>
dar auf,</w>
d unk
d ran
const antly</w>
con cent
compassi on</w>
compar ed</w>
col on
cl es</w>
ck er
ch ick
centur y,</w>
cele br
bra chten</w>
bes ag
belie ved</w>
beh aup
be ."</w>
bas e</w>
bar .",</w>
b in,</w>
b ild</w>
b ell
ast ron
arbei te</w>
ar ms</w>
ar ies</w>
any where</w>
an ts</w>
an a</w>
all eine</w>
al d</w>
air ,</w>
afri kan
af ra
ab ul
Z er
Wes tern</w>
Wes ent
Werk zeuge</w>
We 're</w>
Wachst um</w>
Veränder ungen</w>
Vergangen heit</w>
Ver sch
Ver letz
Ver kehr
Unter such
Ton nen</w>
Tit el</w>
Tie f
Th er
Teil en</w>
T ro
T -
Städ ten</w>
Stati stik
St amm
Sch auen</w>
S ohn</w>
Publik um</w>
Proz ess
Produk te</w>
Prinzi p</w>
P fle
O h,</w>
N erv
Mit tel</w>
Mid dle</w>
Medikam ente</w>
Mark t
M ilit
M as
Lon don</w>
L a
Kreb s
Krank heit</w>
Kop f
Kon zep
Kom plex
Ken y
K rise</w>
Ju gend
H ör
H on
Gen au
Ged äch
G et
Fortschrit t</w>
Flüch tl
Fl uss</w>
F er
Er wachsen
En ergi
Ear th,</w>
Dank .</w>
Dan ke</w>
D unk
D er
D epres
D :</w>
C l
Büh ne</w>
Bi o
Bezieh ungen</w>
Bet rach
B ü
Ar m</w>
Angel es</w>
An fang
An aly
Af ghan
1 6
,W h
,W ell</w>
,"To day,</w>
,"N o</w>
," U
"O b
""W ie</w>
"" K
"" Die</w>
" In
ück en</w>
ß t</w>
zurück .,</w>
zo g</w>
z. B.</w>
y ra
wom en,</w>
wichtig er</w>
wen den</w>
we ek</w>
w ör
vo c
verl oren</w>
ver gleich
val ent</w>
v ac
urb an</w>
ur teil
ur spr
und ed</w>
um .,</w>
u k
trä g
tra f</w>
to wn</w>
to .</w>
ti es."</w>
ther ."</w>
th rop
ter en</w>
techn iqu
t ac
syn thes
struc ture,</w>
stell ten</w>
stell t,</w>
stand ard</w>
soll ten.",</w>
smar t</w>
si e.,</w>
si e
sho t</w>
sh or
sein es</w>
sei ,</w>
secur ity</w>
sci ence,</w>
schle cht</w>
sch lag</w>
sag ten,</w>
sa h,</w>
s ign</w>
s eit
room s</w>
rock et</w>
ro ad</w>
ri d</w>
revol ution</w>
respon d</w>
research ers</w>
remem ber
religi ous</w>
rel ated</w>
rech ten</w>
re i</w>
re chte</w>
r ing</w>
r ant</w>
r a</w>
pur po
projec t,</w>
produc ts</w>
produc ed</w>
pro z
plast ic</w>
par t
om et
oll en</w>
off ,</w>
notic ed</w>
necess ary</w>
ne l</w>
natür liche</w>
nat ur
nah e</w>
n y</w>
n s</w>
my st
mu ch,</w>
mit ten</w>
mit ,</w>
mir :</w>
mi x
mem bers</w>
medizin ischen</w>
manu fac
man age</w>
ma gic</w>
m essen</w>
lo k
limit ed</w>
ligh t,</w>
lie f
le un
lass en.,</w>
land s</w>
könn ten.",</w>
kra ft
knowle d
ken ne</w>
k m</w>
k ap
it ely</w>
it ?"</w>
is mus,</w>
interessan te</w>
increas ing</w>
import ant,</w>
ik ,</w>
ier en.</w>
ier ,</w>
i ed</w>
i Ph
ho t</w>
hin ein
him ."</w>
h ang
h .</w>
get eil
gesell schaf
geb ro
ge be</w>
ge arbeit
g .,</w>
führ te</w>
führ en.",</w>
fu n</w>
fu hr</w>
fre und
fir st,</w>
find et,</w>
fas h
f ung</w>
f icial</w>
expl ore</w>
exc ept</w>
et s,</w>
erzähl en,</w>
er ie</w>
ent wer
end en,</w>
emo tions</w>
em bra
el .</w>
ein halb</w>
ein deu
eigen es</w>
educ ation,</w>
e wi
dru g</w>
dollar s,</w>
din osau
diesel be</w>
das ?,</w>
d un
d lichen</w>
d ings</w>
d ate</w>
d ann
contro ll
conf lic
conc ept</w>
con text</w>
comp on
collec tive</w>
colleagu es</w>
co t
cl usi
charac ter
ch in
call ing</w>
c aught</w>
bri lli
bod y."</w>
bl ing</w>
bess er
benutz en,</w>
be wusst
be ach
bab y</w>
b au</w>
außer dem</w>
aus ges
att dessen</w>
atel li
at e.</w>
at ."</w>
ass ign
as s,</w>
as i</w>
as h</w>
arti sts</w>
arti ficial</w>
arbeit ete</w>
app reci
app li
ant um</w>
ant as
ann t</w>
anc y</w>
an f
an del</w>
allo wing</w>
ak tiv</w>
ag o."</w>
Zeit punkt</w>
Z it
Yeah .</w>
Wass er,</w>
Vi et
Verständ nis</w>
Ver gleich</w>
V on</w>
V at
To des
T ur
St attdessen</w>
Spiel e</w>
S um
S eptem
Reak tion</w>
Re cht</w>
Re chn
R ec
Partn er</w>
P ha
Organis ation</w>
Objek t</w>
O ne</w>
No t
Ne w
Nachrich t</w>
N er
Möglich keit,</w>
Mich a
Metho de</w>
Medi zin
M ei
Lauf e</w>
L ar
L and,</w>
Kind heit</w>
Kin der,</w>
J ungen</w>
Inter ess
Intelligen z</w>
Infra struktur</w>
Indu stri
H under
H eil
H al
Grund lage</w>
Geor ge</w>
G lei
F ren
F :</w>
Experim ent</w>
Er leb
Engl and</w>
E ind
De utsch
Ch irur
Beg inn</w>
Bab ys</w>
B und
B ecause</w>
B at
B all
Aut or
Arm ut</w>
Americ ans</w>
A ,</w>
8 00</w>
2 .</w>
196 0
19 4
1 3</w>
00 ,</w>
,Th ank</w>
,"W ell</w>
,"S ome
, J
&amp ;
"W er</w>
"Man chmal</w>
"Man che</w>
"" F
" P
" Ihr</w>
" F
z umindest</w>
z immer</w>
wär ts</w>
work s.</w>
woh l
wh om</w>
wen ige</w>
wass er
w et
vor stellen</w>
vis it</w>
vis i
ves ti
ver stand
ver sorg
us w
unterschied liche</w>
um e,</w>
u ti
turn ing</w>
ts .",</w>
trä ge</w>
tri lli
tre m
tre es</w>
tl e,</w>
ti z
tes t,</w>
te enag
tal ks</w>
t ut</w>
t ungs
t al</w>
survi ve</w>
stor e</w>
stoff e</w>
ster b
sta at
st off</w>
st ick</w>
spre che</w>
spiel t</w>
spezi f
sp eich
son g</w>
soll en</w>
so .,</w>
sm all
sign als</w>
sho o
schau en,</w>
sch lim
s ä
s es
s and</w>
s and
ru h
ri g</w>
repres ent</w>
remark able</w>
relig ion</w>
refle c
re chn
r en</w>
r ein</w>
question :</w>
ques tion,</w>
prof it</w>
produ ct</w>
problem .</w>
primar y</w>
pres ent
pre vent</w>
po or
plan ts</w>
ph a</w>
pati ent</w>
par ty</w>
p et
p ass</w>
ou s."</w>
off ice</w>
obvi ous</w>
näh er</w>
no t,</w>
no ise</w>
nie der
neh mer</w>
neh men
n ic
n en.,</w>
mone y,</w>
molecul es</w>
moder ne</w>
mo ther,</w>
mind s</w>
ment s,</w>
m ü
m s."</w>
lo ve,</w>
lich keit,</w>
less on</w>
leben s
le ading</w>
las se</w>
lang frist
la f</w>
l ach
kl in
ken nen
kam .",</w>
k olle
k ol
jud g
it ."""</w>
isch .,</w>
inv ited</w>
inv est</w>
inte gr
ing ungen</w>
ing :</w>
informa tion,</w>
im possible</w>
ide m
ide as
i p</w>
i P
hör en.",</w>
hunder t</w>
herauszu finden,</w>
her stell
hei rat
haupts ächlich</w>
had n't</w>
haben ?",</w>
h ing
h em
gro s
gra ph</w>
get ra
genann t</w>
gemach t,</w>
ge m</w>
g ä
g ilt</w>
führ ung</w>
fühl en,</w>
fur cht
funktion iert,</w>
funktion ieren</w>
funktion ier
fun ction</w>
foreig n</w>
for ever
for ced</w>
for c
fol ge</w>
fl ying</w>
fl a
fi x
fi re
f eu
f and
extre me</w>
experienc es</w>
ev it
es ?"</w>
er rich
eng li
en ing</w>
en h
en ""</w>
emp ty</w>
em power
em pf
elec tro
el se."</w>
einz igar
ei gh
effici ent</w>
don e,</w>
distri bu
diejen igen,</w>
di o
deut lich</w>
design ers</w>
des tro
der ung</w>
denk t,</w>
den t,</w>
defin i
deb ate</w>
d ."""</w>
cre ativ
cor e</w>
complet e</w>
comp ut
commun ity,</w>
commun ities</w>
caus ed</w>
cat ch</w>
but ed</w>
bu ch
brauch en,</w>
brau chte</w>
bra in."</w>
bo ys</w>
bo dies</w>
blo ß</w>
bet riff
bestimm t</w>
benutz t</w>
belie b
bein hal
beg ei
be wahr
bab ies</w>
b ought</w>
auf tau
auf .",</w>
ati ves</w>
ast ro
as ili
appe ar</w>
ann e</w>
angen eh
anal o
an o</w>
amerikan ische</w>
all y.</w>
alist s</w>
al ist</w>
aff ord</w>
addi tion</w>
ach ing</w>
ac ci
absol ut</w>
ab sor
ab el
Wer te</w>
Vis ion</w>
Viel falt</w>
V ölk
V en
V alle
Ur spr
Unterschie de</w>
Um welt</w>
To ilet
Them en</w>
Technologi e,</w>
T ür
Su che</w>
Str ategi
St ör
St unde</w>
Sch we
Sch ool</w>
Sch imp
Sch iff
S ou
S ex
S eh
Ressourc en</w>
Res ear
Reg el
R ah
Publikum :</w>
Pri vat
Po tenti
Pfl anzen</w>
Or ten</w>
Or te</w>
O kay.</w>
Netzwer k</w>
Nat ürlich</w>
Nahr ungs
N AS
Min ut
Mex ic
Mathema tik</w>
Man hat
M ess
Le ben.",</w>
Le be
L icht
L au
Kön nen</w>
Krank heiten</w>
Ko sten</w>
K ol
K n
K amer
K aff
Je der</w>
Jap an</w>
I ll
He alth</w>
Ha iti</w>
Ger ech
Gen e</w>
Frau ,</w>
Far be</w>
F und
E- Ma
E p
E is</w>
E ch
D -
Ch ance</w>
C y
Bil d,</w>
Bevölk er
B ang
Austr ali
Antwor ten</w>
Americ a,</w>
Algorith men</w>
Afghan ist
Aben d</w>
A s</w>
A s
A ff
A bl
7 00</w>
50 ,000</w>
21 .</w>
2 1</w>
19 5
1 1
-- ",</w>
,"L et's</w>
, You
"N ur</w>
"N ach
"K ön
"D enken</w>
"D ar
"" If</w>
"" How</w>
"" Es</w>
" die</w>
" Ver
" CA:</w>
" Auch</w>
ö konom
änder n.",</w>
ä r</w>
ß en.",</w>
Ö ko
zus ätz
zufälli g</w>
zei chen</w>
z ös
y .",</w>
wus sten</w>
wor th
wor st</w>
wor ry</w>
wom en."</w>
wichtig ste</w>
wes entlich</w>
week ,</w>
w ein
voll kommen</w>
vie w,</w>
veränder n.",</w>
ver ."</w>
valu es</w>
ut z</w>
up on</w>
ungspro z
unglaub liche</w>
un den.,</w>
u z
treff en.",</w>
tre e</w>
trau m</w>
trans l
tra ining</w>
to x
thing :</w>
there fore</w>
ther 's</w>
th i
technologi es</w>
t ut
t ent</w>
t aten</w>
sub st
su n</w>
str ö
stor y."</w>
sto pped</w>
stimm t</w>
star s</w>
st ück
st and,</w>
spä ter,</w>
sprich t</w>
spiel e</w>
spe ed</w>
sp rü
son :</w>
som eh
sogenann te</w>
so zus
so il</w>
sit e,</w>
signific ant</w>
sieh t.",</w>
sich ten</w>
seh en.</w>
secon d,</w>
sch ,</w>
s en.</w>
ro r</w>
ro ff
ries igen</w>
responsi ble</w>
requ i
rei che</w>
re .,</w>
rau m</w>
rapid ly</w>
r ö
r ang
pul l</w>
produz ieren</w>
predic t</w>
pre vious</w>
possi ble,</w>
ph ones</w>
person ,</w>
pe ac
pe ."</w>
pattern s</w>
partn er</w>
pa ying</w>
p assen</w>
oxy gen</w>
other s,</w>
op en-
on s."</w>
on nen</w>
occas ion
oc ra
o w,</w>
nich t-
ne ut
n un,</w>
n one</w>
multi ple</w>
month s,</w>
mis s
mei stens</w>
mach en.</w>
ma c
m es</w>
lö sen,</w>
lon g,</w>
liv es,</w>
lin es</w>
lie ber</w>
li sh
level s</w>
lea ving</w>
le g</w>
ko sten
kno wing</w>
k te</w>
k ran
k ein
k .,</w>
itä ten</w>
it ting</w>
ist s,</w>
ish ing</w>
inter n
inter act</w>
inst ance,</w>
inspi red</w>
ing ."""</w>
in si
ide as,</w>
ich :</w>
i es.</w>
hel ps</w>
gut .,</w>
größ eren</w>
govern ment,</w>
get ö
gener ate</w>
gemach t.,</w>
gehör t,</w>
ge kommen</w>
ge arbeitet</w>
gab e</w>
führ t,</w>
future .</w>
frü h</w>
frag ten</w>
frag t,</w>
fle xi
fiel ds</w>
fer enz</w>
fer ence</w>
fascin ating</w>
famili es</w>
f ähr
f ließ
f iz
f iel</w>
exc it
exc ep
ex ist</w>
erfolg reich</w>
er weiter
er wei
er fas
equ ip
entwickel te</w>
ent steht</w>
ent schied</w>
enough ,</w>
en gage
em path
em ber</w>
electri c</w>
el son</w>
el se
e ?"""</w>
dreh t</w>
do ?</w>
di er
cre ates</w>
cra ft</w>
coll ap
co sts</w>
co oper
co ok
co gni
ck et</w>
ck er</w>
cell s,</w>
c amer
bu ch</w>
bri d
bre chen</w>
bl ü
bi ete</w>
bet ra
bes uch
ber ech
be ge
be .,</w>
be .",</w>
bar .,</w>
auf s</w>
audi ence</w>
att ack
ats äch
at .</w>
arti st</w>
ar tige</w>
ar ds</w>
ander em</w>
anc est
anal ysi
an ischen</w>
an :</w>
alist en</w>
alis ierung</w>
al a</w>
again .</w>
acc ept</w>
abo ve</w>
ab ge
a wes
Zusammen arbeit</w>
Zentr um</w>
W under
W oh
Vor stellung</w>
Vertrau en</w>
Verfüg ung</w>
Ver k
V ogel
Unterstütz ung</w>
Tü r</w>
Tra in
Th om
Tatsach e,</w>
T reib
Sü dafri
St ell
Spra chen</w>
Som mer</w>
Schmer z</w>
S ing
S eit
Ro bert</w>
Risik o</w>
Re alitä
R ussi
Punk te</w>
Projek t,</w>
Produ kt</w>
Po sition</w>
Ph än
P op
P ak
Oze an</w>
Nerv enz
Nachrich ten</w>
N ähe</w>
Mod elle</w>
Milli on</w>
Medi en
Me er</w>
M erk
M andel
Lin ie</w>
L et's</w>
L at
L abor
Kon tin
K ris
K oh
K ir
K amera</w>
Ir an</w>
In nen
Hig h</w>
Her z</w>
H immel</w>
H igh
Gesetz e</w>
Fu ß</w>
Fran k</w>
F ein
F as
Entscheid ung</w>
Engli sh
Durch schnit
Dis k
D utz
D au
C ra
Bo tschaf
Bl ut</w>
Bi en
Behand lung</w>
Aufgab en</w>
Au ge</w>
Atmosp häre</w>
Ar z
A th
A stron
A li
A lex
197 0
.“ ,</w>
-- ,</w>
- B
,I s</w>
,"On ce</w>
,"E very
," People</w>
," Al
, People</w>
) ",</w>
"Ob wohl</w>
"L assen</w>
übri gens</w>
ü l
äuß erst</w>
äng lich</w>
änder t</w>
äl ter</w>
ä ter</w>
z is
z ir
yel low</w>
y ,""</w>
y ""</w>
wor se</w>
wom en's</w>
wir st</w>
will .",</w>
wies o</w>
wi tn
wi ld
whe el
wh ol
wh o,</w>
weiter ,</w>
wea ther</w>
way s."</w>
wat er
wa it</w>
w und
w all</w>
vor .,</w>
virtu al</w>
vie ws</w>
versu chte</w>
ver ein
v ast</w>
v acc
um ?</w>
um ."</w>
ul ation,</w>
trot z</w>
trans forma
to o,</w>
to ."</w>
tiv ität</w>
tiv e.</w>
tis su
tig .",</w>
tier en.",</w>
ti k,</w>
ther e?</w>
ther ap
th in</w>
terri ble</w>
temper ature</w>
tar get
ta p
t äusch
t olle</w>
t ar</w>
swi mm
su re,</w>
su it</w>
su chte</w>
sto pp
st ück</w>
st ro
st en.",</w>
st ar</w>
st anden</w>
st am
spac e,</w>
sp ort</w>
sp ort
sp on
some thing,</w>
soll ten,</w>
sol di
sol d</w>
so bald</w>
shi ft</w>
sex ual</w>
sel ten</w>
schul dig
schlag en</w>
sch ä
sch on,</w>
sch er</w>
sag ten</w>
sa ving</w>
ru hig
rop ä
ro man
restau ran
res pect</w>
rema in</w>
reg ist
rec ycl
re ve
rat es</w>
r unter
ques tion.</w>
put s</w>
problem s."</w>
pro gress</w>
pri vi
press ed</w>
power ,</w>
possible ."</w>
poin t."</w>
plann ing</w>
plac e.</w>
passier te</w>
passi on</w>
par ado
pain ting</w>
or es
om ,</w>
ol der</w>
ol d.</w>
oc c
nov el</w>
nann te</w>
n ess."</w>
n ed</w>
n a</w>
möch ten</w>
min ute</w>
met ers</w>
mer n</w>
medic in
manufac tur
magne tic</w>
mach t.",</w>
ma ßen</w>
m ur
m ann
läs s
los ing</w>
long- term</w>
lo ved</w>
lich em</w>
li ge</w>
level ,</w>
letz tes</w>
lau tet
la b</w>
l ying</w>
l s</w>
kontrolli er
komplex e</w>
kom bin
kann st</w>
k rie
k olog
just ice</w>
ish ed</w>
is ol
ir on
inv isi
intu i
in t</w>
in evit
in ci
im in
ill en
il ing</w>
ik a</w>
ih nen,</w>
i x</w>
hö her</w>
häu fig</w>
hol en</w>
hin aus</w>
hier .",</w>
hel l</w>
heit en,</w>
heal th,</w>
ha m</w>
h et
gut .",</w>
gu n</w>
gro und,</w>
grei f
goo d,</w>
gl u
gesch los
ger .</w>
gen es</w>
gen des
geb oren</w>
ge bo
fäl le</w>
fäh ig</w>
fut ure,</w>
fre m
for ce,</w>
fin den
fall en</w>
f t.</w>
f e,</w>
f -
exist ing</w>
exc ited</w>
evi den
es o</w>
erle i</w>
erinn ern</w>
er forder
entfern t</w>
end .</w>
en der
en ",</w>
emplo y
em ,</w>
el er
effec ts</w>
e o
dun kl
down lo
dom in
doc tor</w>
direc t</w>
deli ver</w>
dee ply</w>
decis ion</w>
da .</w>
d um
d ance</w>
cy cle</w>
countr y."</w>
convin ced</w>
consci ous
complic ated</w>
com po
com e,</w>
col or
clos er</w>
cl assi
ch air
car rying</w>
c ity,</w>
busin ess,</w>
build ings</w>
brauch en.",</w>
book s,</w>
bo und
ble .</w>
ble ."</w>
big ,</w>
beweg en.",</w>
betrach ten</w>
ben .</w>
bel ow</w>
beg ins</w>
be kämp
be es</w>
bau en.",</w>
bas is</w>
bacter ia</w>
aus einander
attra c
att ack</w>
ation en,</w>
as e,</w>
argu e</w>
ar d,</w>
appro pri
an sehen,</w>
an on
am a</w>
aliz ation</w>
al ten.",</w>
al ize</w>
ag en,</w>
add ress</w>
ad ed</w>
ad e,</w>
accoun t</w>
ac tive</w>
ac cording</w>
Z wei</w>
Y our</w>
Waff en</w>
W ü
W illi
W est
W and</w>
Te am
T isch</w>
T eu
Sto ff
Sta at
St rom</w>
Seel e</w>
Schlüs sel</w>
Sch reib
Sch lag
S un
S im
S atelli
Res ul
R N
P u
Objek te</w>
O x
O hr
No w</w>
N ull
Mut ter,</w>
Mom ent,</w>
Met ap
Men gen</w>
M üt
M üll
M ärk
M und</w>
M r.</w>
Leist ung</w>
Lei der</w>
L ü
L är
L E
Kranken haus</w>
Kor e
Klima wandel
K ern</w>
Inf ek
Indi an</w>
Indi a,</w>
I g
Gre at</w>
Gr enz
Ges tal
Gerä te</w>
Frie den</w>
Frie den
Frei heit</w>
Feu er</w>
Fern sehen</w>
F en
Ern ähr
Er folg
Elek tro
Einst ein</w>
E ing
E ast</w>
Demok rati
D ing</w>
D ich
Chic ago</w>
Chem ik
Ch anc
C enter</w>
C :</w>
Bür o</w>
Boo t</w>
Beg riff</w>
Bed roh
Bau m</w>
Aut o
Ar zt</w>
Afri can
A ffen</w>
9 0
50 ,</w>
21 st</w>
2 3</w>
10 .000</w>
- jähri
,"S econ
,"No ,</w>
,"Fir st</w>
,"A nother</w>
,"A c
," Most</w>
"Zu erst</w>
"A n</w>
"( Musik)</w>
""W e</w>
’ re</w>
überzeug t,</w>
über prü
ätz e</w>
ät zen</w>
ß ,</w>
zäh le</w>
zun ächst</w>
zeig en.",</w>
zei gen.,</w>
z en,</w>
you ."""</w>
year .</w>
work s,</w>
woh in</w>
wissenschaf tlichen</w>
wissenschaf tliche</w>
wis e</w>
wieder um</w>
wh ich,</w>
wer k</w>
wel chen</w>
wei sen,</w>
we b</w>
war .</w>
wach st
wa ves</w>
wa ste</w>
wa ke</w>
wa i
w ächst</w>
w est</w>
veränder n,</w>
versuch te,</w>
verst är
ver zwei
v al</w>
ur es</w>
uns ch</w>
uniqu e</w>
ung :</w>
un be
u tion."</w>
trilli on</w>
triff t</w>
tri e
trans form</w>
traff ic</w>
tradition ellen</w>
tra in</w>
tr enn
to graf
tl ed</w>
tiv e."</w>
tim es."</w>
tig .</w>
tic s,</w>
ti es.</w>
thre at
they 'd</w>
tet .,</w>
ter n.",</w>
ten zi
tel es
technolog y."</w>
te am
tal k,</w>
t licher</w>
such en,</w>
su che</w>
stän de</w>
strug g
stie g</w>
steh en.",</w>
statt dessen</w>
st äd
st ill
spo t</w>
si ck
sh ou
sh eit</w>
setz te</w>
sel ber</w>
sei tig</w>
schön e</w>
schle ch
schau te</w>
schau t</w>
sch lu
sch limm
sag en.",</w>
s ett
ru b
ro ck</w>
ries ige</w>
responsi bility</w>
resear ch,</w>
re tin
re di
re den.",</w>
re ached</w>
r ough
qu antum</w>
qu al
protec ted</w>
pri ce</w>
pre gn
prak tisch</w>
power ."</w>
possible .</w>
pla ys</w>
persön liche</w>
pe ak</w>
pa y
ori en</w>
oper ating</w>
no is
ne y</w>
natür lich,</w>
n ation</w>
my th
mor gen</w>
moder nen</w>
medic ine</w>
mat ters</w>
ma y
ma mm
ma in</w>
m ung</w>
m ul
m men</w>
m ma
m elt</w>
luck y</w>
lo t,</w>
liv es.</w>
li c</w>
leun ig
leg s</w>
le ktu
le ft
lautet :</w>
landscap e</w>
l eh
könn en.,</w>
kun ft</w>
kost et</w>
kontrolli eren</w>
kolle k
kl ing
kenn en,</w>
ke y
kam en,</w>
k um
k ick
itä t,</w>
ist ?",</w>
isch .",</w>
irgend wann</w>
inves tig
inv en
in her
in en</w>
ik e,</w>
ihr ,</w>
hö her
hät ten,</w>
hosp ital</w>
hom e."</w>
hl ung</w>
hil ft</w>
hi bi
he ad,</w>
har der</w>
h i</w>
h ell
gut .</w>
govern ments</w>
go ."</w>
gewor den</w>
ges ."</w>
gen :</w>
geh en.,</w>
geh e</w>
ge zeigt,</w>
ge wicht</w>
ge -
ga ther
fühl te</w>
fü gen</w>
fro m,</w>
four th</w>
forsch ung</w>
foo d,</w>
fol genden</w>
fli ct</w>
fis hing</w>
fis h,</w>
fi ve-
fem ale</w>
fe der
fal schen</w>
fahr t</w>
f ound
f et
experim ents</w>
experienc e."</w>
ex tra</w>
et ry</w>
et ing</w>
est ab
er schaffen</w>
er 's</w>
equi valent</w>
equ al
entschei den</w>
enth äl
ent lang</w>
ent e,</w>
end .",</w>
en heit</w>
elem ent
eil en</w>
eas ier</w>
e ure</w>
e ,""</w>
drit ten</w>
dri ven</w>
do zens</w>
diver sity</w>
diver se</w>
diseas e,</w>
dis che</w>
dis appear
dimension al</w>
di gen,</w>
der s,</w>
degre e</w>
de d."</w>
de a
dau er
das .,</w>
d ün
d einem</w>
d 's</w>
cre ation</w>
contri bu
conc ern
colle ge</w>
cl ou
ci l</w>
cho se</w>
chin es
chem ic
chan ge.</w>
ch imp
ch il
car ri
c a.</w>
bru ch</w>
bring ing</w>
bl es</w>
billi ons</w>
bet on
benef its</w>
ben e</w>
bemer ken
bei spiel
befor e.</w>
befor e."</w>
bec ause,</w>
be findet</w>
bar keit</w>
b us</w>
b ing</w>
b ind
b all</w>
aus sehen</w>
auf re
atur en</w>
ation s.</w>
ation .",</w>
assi st
as st</w>
artic le</w>
arbei ter</w>
ar t,</w>
ar me</w>
ar is
ar a</w>
an s."</w>
an other,</w>
an no
alis m</w>
algorith ms</w>
al .,</w>
ag o.</w>
acc eler
ab er,</w>
ab .,</w>
a war
a c</w>
Wahrnehm ung</w>
W ind
W a
W :</w>
Vir gin
Um feld</w>
Trau m</w>
Taus ende</w>
T es
T au
Sü d
Säu ge
Spe k
Sp ort
Septem ber</w>
Schul en</w>
Schri ft
Schlüs sel
Sch rei
Sch au
Sch at
S ,</w>
Risik en</w>
Rep ubli
Relig ion</w>
Re gel</w>
Prof essor</w>
Proble m.,</w>
Partn er
Par kin
P it
P as
Opf er</w>
N ep
N elson</w>
Mor gen</w>
Mis s
Milit är
M au
Künst ler
Krieg s
K u
K ern
K e
K .</w>
Job s</w>
Jap an
J ames</w>
J a,</w>
In vesti
In sek
In iti
Ihr es</w>
I P
Hö h
Hom o</w>
Holl y
Her stell
Her r
H imm
H am
Groß teil</w>
Groß mut
Gre en
Gesch windigkeit</w>
Ges icht</w>
Gerä t</w>
Gelegen heit</w>
Ged ank
Gebur t
Ge w
Führ ungs
Fäll en</w>
Fri ed
Fre m
Fra ge:</w>
Fahr ra
F le
F i
Er war
Er klär
El tern
E gyp
E cke</w>
Din osau
Dank .,</w>
CO 2-
C a
Bü ro
Br asili
Bi ologie</w>
Bevölk erung</w>
B renn
B or
Architek tur</w>
Al b
Ab schl
A ri
4 5</w>
3 .</w>
2 ,000</w>
0 ,
,Th en</w>
,H ere</w>
,"Th en,</w>
,"A gain,</w>
," Here's</w>
," Do</w>
," CA:</w>
, Maybe</w>
""W enn</w>
äng stig
änder n,</w>
ähn liche</w>
zu .,</w>
zieh t</w>
zeich net</w>
y .,</w>
wä hr
woll te.",</w>
wis sen.",</w>
wir tschaft</w>
wel ch
wei ch
wat er.</w>
wat ched</w>
war m</w>
wan t,</w>
wan del</w>
wa ff
w ünsch
w en</w>
voll en</w>
viellei cht,</w>
verbin den</w>
ver k
ver halten</w>
vari ety</w>
v ölk
v ed,</w>
un less</w>
um bi
ul e</w>
tri es</w>
trem end
treff en,</w>
treat ment</w>
tier te</w>
ti tle</w>
thin ks</w>
ter ed</w>
tel ef
technolog y.</w>
t ent
t atsäch
sy mptom
surger y</w>
sur ge
subjec t</w>
stuff ."</w>
stu ck</w>
struc tures</w>
step s</w>
stand s</w>
stad t</w>
sta g</w>
st ä
st rei
sp unk
sp iegel
sp ending</w>
so .",</w>
sk op
sk elet
si x
sh ort
sel ec
sei en</w>
se m
se e."</w>
schrei ben,</w>
school s</w>
sch ränk
sc ann
samm eln</w>
sag e,</w>
sa ß</w>
s hr
s ending</w>
ru f</w>
room ."</w>
robo tic</w>
rich ten</w>
ri ert</w>
repres ent
remem ber,</w>
rec ord
rec or
re war
re fer
re cover
re -
radi o</w>
ra tion,</w>
ra ce</w>
r t</w>
r aus</w>
r ar
ques tions,</w>
qu ick</w>
publi c
pri mi
pri m
pre -
pover ty</w>
plat z</w>
plan et,</w>
pl er</w>
pick ed</w>
physic s</w>
pho to</w>
pfl anz
perspec tive</w>
perfec tly</w>
pe l</w>
pe k
pe .</w>
pat h</w>
pan ts</w>
p en</w>
origin al</w>
organiz ation</w>
organis ms</w>
ord n
oppo site</w>
open ed</w>
oo k,</w>
olog ists</w>
og ni
of ."</w>
o path
no vel
nenn en.",</w>
neighbor hoo
nar ra
n om
n ."</w>
myst eri
mus ici
mov ie</w>
molec ular</w>
mist ak
mind ."</w>
mic ros
men tion
me .,</w>
mag n
ma ga
m im
m ikro
loo k
ligh t."</w>
lich sten</w>
lich en,</w>
lic en
li ert</w>
let ter</w>
lei der</w>
le d."</w>
las s</w>
langu age,</w>
kürz lich</w>
kri min
kenn en.",</w>
keit .,</w>
ke ys</w>
k s
jetz t,</w>
j üng
iz ation</w>
it te</w>
it self,</w>
ist ische</w>
is land</w>
inves tieren</w>
inv ent
interest ing,</w>
inter action</w>
inst all
ing ;</w>
in struc
in sec
important ."</w>
ili c
il ."</w>
if e</w>
identif iz
ide a,</w>
ich t,</w>
hör t</w>
hunder te</w>
hou se,</w>
hol ding</w>
hoff entlich</w>
hin ,</w>
him self</w>
him .</w>
heraus finden,</w>
heav y</w>
har t</w>
har d
happen ."</w>
hand eln</w>
hal be</w>
ha fte</w>
h t</w>
h ne</w>
h ir
h ause</w>
gre g
go .</w>
gl am
gew ohn
gesp iel
gesch ütz
gen en</w>
gelern t,</w>
gel ei
gebau t,</w>
g ier
führ t.",</w>
führ er</w>
fühl t</w>
frag te:</w>
fol gen,</w>
fiel d,</w>
fi k</w>
f ik
f en.</w>
f ell</w>
experienc e,</w>
ex plan
evol ved</w>
eu ropä
et s."</w>
es ?,</w>
es ;</w>
es ""</w>
erzähl t,</w>
erst er</w>
erreich en.",</w>
erreich en,</w>
ermöglich en,</w>
er hält</w>
equ al</w>
ep h
enc e:</w>
en ess</w>
elek tron
electron ic</w>
el imin
el ev
ek ul
ein gel
eigent liche</w>
ei ved</w>
effec tive</w>
drück en</w>
dis rup
di ch
dev ast
design ,</w>
descri bed</w>
des per
dem and
de vice</w>
de dic
de -
dama ge</w>
dam it,</w>
da m</w>
da für
d ehn
d aten</w>
cul ture,</w>
cont ent</w>
consider ed</w>
con tain
con flict</w>
con duc
compan y,</w>
collec ting</w>
cla im
che a
cent ral</w>
cat eg
cap ture</w>
cap able</w>
c rat
c ast
bur g</w>
brau che</w>
br enn
bl ed</w>
bl au
bir th
biolog ische</w>
bewe gt</w>
bet ter,</w>
bet rei
bess eren</w>
benö tigt</w>
bein gs</w>
beau ty</w>
be völk
b lich</w>
b it,</w>
b at</w>
auton om
aus .</w>
au ff
atmosp here</w>
at ing,</w>
at -
associ ated</w>
ari an</w>
architec ture</w>
ar ten</w>
ar ro
ar en</w>
app en</w>
app ar
anti -
ang en,</w>
ander e,</w>
anal ys
an throp
all en
al one,</w>
al e,</w>
al .",</w>
afra id</w>
adv anced</w>
achie ve</w>
ac tivi
ac ou
abl es</w>
a i</w>
a ge.</w>
a den
[ un
W är
W ährend</w>
W unsch</w>
Verl ust</w>
Ver n
Ver halten
U.N .</w>
U g
Tra g
Th ese</w>
Tag ,</w>
TED Tal
T i
T est
Straß en
St ate</w>
Sozi al
Soft ware</w>
Sich t
Selb st</w>
Sch ok
Sauerst off</w>
S ha
Rich t
R oh
R ass
Pro to
Pap ier</w>
Pak ist
P fer
P :</w>
O K</w>
No t</w>
Nigeri a</w>
N ic
N ar
N :</w>
Männ er,</w>
Mon at</w>
Molekü le</w>
Mit tag
Micro soft</w>
Micha el</w>
Materi alien</w>
Manhat tan</w>
Mach t,</w>
M ur
M em
Land schaft</w>
L iz
L ap
Kon zent
Kohlen stoff
K ö
K r
K aliforni
Jung s</w>
Isra el</w>
Informa tion
I ran
I S
Hö he</w>
H aufen</w>
Glei che</w>
Gesellschaf ten</w>
Geschich te.,</w>
Gel d,</w>
Gei st</w>
Gei st
Gehir ne</w>
Gehir n,</w>
Gefäng nis</w>
G as
G anz
Frei willi
Fre unden</w>
Forsch ungs
Fol gen</w>
Far ben</w>
Fall s</w>
F abri
Erinner ung</w>
Er zähl
Eind ru
Ein stell
Ein es</w>
E d
Dur ing</w>
Dok um
Ding en,</w>
Det ro
Defin ition</w>
Com e</w>
C ur
C re
C am
C A
Bür ger</w>
Bu d
Billi onen</w>
Bet rie
Bab y</w>
B las
B erg
Arbei t,</w>
Ar gum
Al tern
A l</w>
A .</w>
9 9
5 .</w>
5 .000</w>
3 5</w>
20 10</w>
20 .</w>
2 2</w>
1 50</w>
,Th ose</w>
,"Wh ile</w>
,"M any</w>
," You're</w>
, You're</w>
, No</w>
, Just</w>
, CA:</w>
( Musik)</w>
"L etz
"Je der</w>
"Ein er</w>
"Al le</w>
"" ]</w>
" R
ü pf
ö sen</w>
zurück .",</w>
zul ass
z .,</w>
y le</w>
wron g."</w>
wis dom</w>
wirtschaf tlichen</w>
wirk t</w>
win den</w>
wher e.</w>
wh enever</w>
wer de,</w>
wer ,</w>
wend ung</w>
wei te</w>
weap ons</w>
we ar</w>
wal k
wahr ?",</w>
wach sen,</w>
wa chen</w>
w äch
viel es</w>
vic tim
veränder n
verurs acht</w>
versu s</w>
verges sen,</w>
verantwor tlich</w>
ver lier
ver folg
v il
v ely</w>
v e?</w>
usw .",</w>
ure .</w>
uns icht
uns .",</w>
und e,</w>
un mittel
un abhängig</w>
u ch</w>
typ ical</w>
tur es,</w>
tum or</w>
ts .,</w>
trei bt</w>
tra ck</w>
tor y</w>
tor s,</w>
tik a</w>
the at
terri f
ten de</w>
televis ion</w>
taus enden</w>
t ome</w>
t es,</w>
t ask
t able,</w>
t '
swimm ing</w>
strugg le</w>
stre am
stra ight</w>
str ang
stor y
sto ck</w>
stell en.,</w>
star b</w>
sta b</w>
st one</w>
st ets</w>
st eig
sprich t,</w>
spr ingen</w>
spir it</w>
spiel en.",</w>
sp read
sp ati
sozus agen</w>
some what</w>
sol ved</w>
sol ution
societ y,</w>
skill s</w>
sim ul
si erung</w>
set ting</w>
ser vic
se e.</w>
schwar ze</w>
schri ft</w>
schle chter</w>
schaf ten</w>
schaf t,</w>
sch üt
sch on
sc rip
sat elli
sa tis
s ac
rü st
ru fen</w>
ro und</w>
ro ffen</w>
ri eren</w>
res pec
rel ativ</w>
rech ts</w>
recei ved</w>
rec ently,</w>
re mo
re d
re a
r ural</w>
qu anti
pur pose</w>
psycholog ical</w>
promis e</w>
pris on
pres crip
prepar ed</w>
pr äch
pl ant
ph ilosoph
persön lichen</w>
per s</w>
per ,</w>
passi on
pass en
par k</w>
p s,</w>
p al
ous ly."</w>
ol ph
ol d."</w>
nütz lich</w>
norm ally</w>
nigh t."</w>
nich t.""",</w>
neur ons</w>
neu er</w>
net work
n äher
mus eum</w>
mu ster</w>
mom ents</w>
minut es,</w>
mer .",</w>
men tion</w>
mehr .,</w>
mehr .",</w>
man aged</w>
m ile</w>
lin ken</w>
lin e-
lik e."</w>
ließ lich</w>
lich e,</w>
lei sten</w>
le m</w>
le d,</w>
langu ages</w>
lang wei
la y</w>
la den</w>
l ie</w>
l as</w>
kü hl
kill ed</w>
k en,</w>
jung er</w>
j ok
j am
iti es,</w>
introdu ced</w>
interessi ert</w>
inten si
intelligen t</w>
increas ed</w>
in spir
in side,</w>
in ist
imp lic
imp le
immedi ately</w>
ilic on</w>
igh t,</w>
igh t
ig ran
ide a.</w>
ide a."</w>
id -
häu fig
hät te,</w>
hy dro
hy ?</w>
her z
her r
har te</w>
h all
h ."</w>
gre en
graph ic</w>
gig an
geschich te</w>
gesag t:</w>
ges chn
ger en</w>
ger ech
gent le
gemein same</w>
gel ,</w>
geb ild
ge geben,</w>
g ap
fün f
fühl en.",</w>
future ."</w>
fre ed
for m,</w>
flo w</w>
fl üss
fl ü
fl ag
fis her
fill ed</w>
fer ti
feder al</w>
fass ung</w>
farmer s</w>
fantast ic</w>
fang en.",</w>
fa ith</w>
f en
f eh
f ach</w>
experienc ed</w>
example .</w>
ex pan
every day</w>
event u
ev ents</w>
etz t,</w>
essenti al</w>
ess es,</w>
erzeu gt</w>
erlau bt</w>
erinn ern,</w>
er schaff
er fun
equ ally</w>
entwickel n.",</w>
entschie den</w>
ent rop
enor me</w>
enjo y</w>
engine ering</w>
end e,</w>
en ergi
en em
emer gen
ema il</w>
electri city</w>
el ine</w>
el .,</w>
einfach er</w>
eindeu tig</w>
ein stimm
ein mal,</w>
ehr lich</w>
eg et
ec o
eb ru
e e,</w>
durch schnit
drück e</w>
drei ,</w>
dor t,</w>
do g</w>
dist ance</w>
di am
det ail
descri be</w>
der .,</w>
defin ition</w>
das ?</w>
dach ten,</w>
da d</w>
d einer</w>
d einen</w>
d :</w>
credi t</w>
coun ter</w>
cou ld
correc t</w>
cor ner</w>
co pe</w>
ck en,</w>
choic es</w>
children ."</w>
charac ters</w>
ch romo
ch e,</w>
ch .</w>
cap ital</w>
campa ign
c ity."</w>
c ally</w>
bud get</w>
bub ble</w>
bro ken</w>
bro ke</w>
blei ben.",</w>
bl in
bis her</w>
bir ds</w>
bewus st,</w>
beinhal tet</w>
beginn ing,</w>
bau ten</w>
bat ter
back .</w>
b üch
b y,</w>
b ungen</w>
b rie
b and,</w>
b allo
avo id</w>
aus ?,</w>
auf .</w>
ator y</w>
ation .,</w>
at es,</w>
at ed."</w>
ass um
argum ent</w>
ar men</w>
ap art</w>
answer s</w>
anc e.</w>
an gesch
an fangen,</w>
an -
altern ative</w>
ad minist
ad dr
ach e</w>
ac ts</w>
abl ed</w>
ab .",</w>
Zu stand</w>
Zeu g</w>
Zei ten</w>
Z au
Wor ten</w>
Wikipedi a</w>
Wesent lichen</w>
W äl
W ind</w>
W il
W hen</w>
W andel</w>
Ver stand</w>
Ver häl
Unter hal
Universit ät</w>
Un sicher
Um wel
Ty p</w>
Trä ume</w>
Tier e,</w>
Thom as</w>
T est</w>
T ab
Su d
Studi er
Stu dent
Str ess</w>
St ück
St rom
St al
Spiel en</w>
Sign ale</w>
Schl uss</w>
Sch wer
Sch o
Satur n</w>
S i
S he</w>
S ar
Ries en
Re gen
R as
Qu anten
Potenti al</w>
Plat t
Pap ier
P ac
Ordn ung</w>
O s</w>
O ffen
Netzwer k
N etz</w>
N am
Mut ter
Mon d</w>
Mo unt</w>
Min ist
Medi a</w>
Mathema tik
Masch ine</w>
M ü
M ulti
M ak
Körper s</w>
Kur z
Kre ativ
Kon sequ
Kon ferenz</w>
Kom pon
Kom bin
Klass enz
Kl ein
Kamp ag
K lin
Jahr es</w>
Jah re.,</w>
J im</w>
Ir gend
Inter esse</w>
In ten
In halt</w>
Identi tät</w>
Hou se</w>
Hig gs</w>
Herausforder ungen</w>
Her e,</w>
Harv ard</w>
H af
H aben</w>
Grupp en</w>
Gesprä ch</w>
Gesch ä
Gesch en
Ges etz</w>
Gener ationen</w>
Gemein de</w>
Gebur t</w>
Ge wicht</w>
Ge we
G rie
G and
Frü h
Fren ch</w>
F ron
F rank
F lä
F ische</w>
F ebru
F a
Ex c
Entwicklungs län
Effek t</w>
E v
E he
Dollar ,</w>
Design er</w>
D y
D ra
D ort</w>
D ank</w>
D H:</w>
Colle ge</w>
Char akter
C lon
Bä ume</w>
Bund es
Bi enen</w>
Bes itz
Beh inder
Be obach
B M
Außer dem</w>
Aut om
Ar gent
Ang st,</w>
An satz</w>
An rei
Alzhei mer
Afrik a,</w>
6 5</w>
19 80
1 9</w>
1 ,000</w>
. ]</w>
,W hat's</w>
,"Th ose</w>
,"Fir st,</w>
,"( Music)</w>
," Ho
, Most</w>
, G
"O kay,</w>
"Nach dem</w>
"J e</w>
"Ein es</w>
"E t
"D aher</w>
""O h</w>
"" Do</w>
"" ",</w>
" aber</w>
" [
überzeu gen,</w>
ö kolog
är z
än z
Über rasch
Öff ent
Ä hn
Ä gyp
zu zu
zieh en.",</w>
zahl en</w>
z oo
your self,</w>
yo ung
wä re.",</w>
wusst en,</w>
wunder bare</w>
wron g,</w>
wis chen
wirk lich,</w>
wich ti
wi tz
wher ever</w>
wh y,</w>
welch em</w>
weiß e</w>
weis s</w>
weg ,</w>
week s,</w>
wa hr</w>
w on</w>
w and</w>
vor sich
voll es</w>
vo te</w>
vis ion
viel mehr</w>
vi rus</w>
vi ce,</w>
vi a</w>
ver ring
ver brachte</w>
vem ent</w>
v ing,</w>
v as
ut es</w>
us ual</w>
urspr üng
unter suchen</w>
univers al</w>
un ver
un certain
u lier
twi ce</w>
tu red</w>
trä um
trou ble</w>
tri ck
trans mit
tran sition</w>
tom or
to ward</w>
tion .,</w>
tief er</w>
tic ,</w>
ti s</w>
ti ma
ti l
the me</w>
the ater</w>
the -
tes te</w>
ten s:</w>
ten dlich</w>
ten den</w>
techn ical</w>
ta x
t ter</w>
stärk er</w>
stuff ,</w>
studi er
stre am</w>
strateg y</w>
stra tion</w>
stim ul
stim men</w>
steh t.",</w>
ste el</w>
ste cken</w>
star ke</w>
stand .",</w>
st ood</w>
st ir
st in
spr ing
speci es,</w>
sp häre</w>
sorg fäl
sor gen,</w>
someh ow</w>
some thing.</w>
sol ch</w>
societ y."</w>
so g
so .</w>
sm all,</w>
sli de</w>
sit es</w>
ship ,</w>
sh ouldn't</w>
seit dem</w>
sein ?,</w>
se m</w>
se as
schwier ig,</w>
sch einen</w>
sc rat
sa k
s w
s ni
room .</w>
ro b
riff e</w>
ri dic
ridic ul
revol ution
resour ce</w>
res tri
releas e</w>
regel mäß
rec ord</w>
re e</w>
ra ise</w>
r hyth
r aten</w>
qu alität</w>
proper ty</w>
process ing</w>
problem s,</w>
pro s
pro fi
pro b
prac tice</w>
pr oud</w>
pp e</w>
posi tiven</w>
poin ted</w>
phys ischen</w>
ph one,</w>
pf lich
percep tion</w>
pass ed</w>
par ents,</w>
pa tho
p ip
p ill
p hr
p her
p f</w>
other s."</w>
organ ized</w>
on i
ologi e,</w>
olog y,</w>
o es</w>
näch stes</w>
nutz en.",</w>
no ch,</w>
nimm t,</w>
nich ts,</w>
net e</w>
nen nen,</w>
ne x
nann ten</w>
nah me,</w>
n it
n is,</w>
mus ste,</w>
mortal ity</w>
morn ing,</w>
mon th</w>
metap h
met er</w>
ment ed</w>
men te</w>
men .</w>
mei ste</w>
mechan is
mean s,</w>
mean ing
maj ority</w>
m isch
liv e."</w>
liqu id</w>
lie f</w>
less ons</w>
les en,</w>
leb te</w>
le gi
l ak
kurz em</w>
kon fron
kl u
keep s</w>
kauf en</w>
k ä
k y</w>
job ,</w>
jahr el
j ump</w>
it self."</w>
it es</w>
ist .,</w>
is ?</w>
intellec tual</w>
intel lektu
ing s."</w>
ing redi
infra structure</w>
informa tion."</w>
industri al</w>
in jur
in form
ima tion</w>
ier tes</w>
ie f</w>
ie der
i ke</w>
human it
hom e.</w>
ho w,</w>
histor y."</w>
her ."</w>
hel fen.",</w>
h nach
gut es</w>
grü ne</w>
grundle gende</w>
gr au
gr an
go ing,</w>
glie der</w>
gl ac
gi ft</w>
gew innen</w>
gesch ick
ges und</w>
ges und
gelö st</w>
gei st
geh ei
gegen wär
gegen seitig</w>
ge zeig
ge d
ge bet
gam e,</w>
g s-
g liche</w>
för der
fän gt</w>
fähig keit</w>
fru stri
fri ed
frei en</w>
fra gt</w>
for ces</w>
foo d."</w>
flu ores
fin den.,</w>
figh ting</w>
fair ly</w>
fahr en.",</w>
fac ts</w>
fac tors</w>
fac es</w>
f lie
f est</w>
ey 've</w>
exist s</w>
ex ak
eu er</w>
ett i</w>
et y,</w>
et en,</w>
es o
es cap
erzeu gen</w>
er ziel
er mu
er he
er halten,</w>
entdeck en,</w>
ent s.</w>
energ y."</w>
end ste</w>
encou rage</w>
enc y,</w>
enc es,</w>
en ge</w>
elem ents</w>
ein s,</w>
ein gesch
eg t</w>
ed s</w>
du e</w>
dru gs</w>
dra g
don e."</w>
don '
direc tion</w>
diox ide</w>
destru c
des c
denk t</w>
democra cy</w>
degre es</w>
deep er</w>
deca des</w>
de aling</w>
danger ous</w>
dam er
da ß</w>
d ür
d olph
countr y.</w>
const ant</w>
consequ ences</w>
connec tion</w>
con stra
compan ies,</w>
com mon
cogni tive</w>
civiliz ation</w>
civi l</w>
car to
car s,</w>
can ,</w>
c y."</w>
c um
c ell,</w>
bro ad
blei ben,</w>
bl ind
bl as
bir th</w>
besch los
besch leunig
berfl äche</w>
ber n</w>
bekann ten</w>
bege g
began n,</w>
beg rei
beein druck
beauti ful,</w>
be kamen</w>
be at</w>
back ground</w>
b t.",</w>
b ill
b ank</w>
b ah
aus reich
at titu
at ri
at er
astron om
ari o</w>
ar y.</w>
ar eas
ar ."</w>
an ks</w>
an fangen</w>
am in
ali ve</w>
adv ant
adul ts</w>
ad a</w>
ac i
a in
a dig
Zwe ck</w>
Zu schau
Zivili sation</w>
Zeit .,</w>
Zei t.",</w>
Zei chen</w>
Z u</w>
Wei se,</w>
Vor her
Video :</w>
V al
Un gleich
U -
To m</w>
Teil nehmer</w>
T ä
T emp
Sy mm
Strateg ie</w>
Stim men</w>
Ster ne</w>
Sp rech
Sicher heits
Sek unden</w>
Schwes ter</w>
Sch laf</w>
Sat z</w>
S uch
S timm
Ru h
Ro ck
Resear ch</w>
Regier ungen</w>
Regi on</w>
R evolution
R et
R at</w>
Proble m,</w>
Physi k</w>
Perspek tive</w>
Per haps</w>
Par k
P il
Op tim
On line-
OK .</w>
O ri
O h</w>
Nor den</w>
No vem
NAS A</w>
N ein.</w>
Mitge fühl
Metho de,</w>
Mass en
Man chmal</w>
M obil
M er
M el
Lon don
Lo ch</w>
Lie be,</w>
Li ed</w>
Lek tion</w>
Le on
L ev
L etz
Kü hl
Kön ig
Kre di
Kontro ll
Kon sum
Ko ch
Klima wandel</w>
Kil ometer</w>
K ri
K W
Jahr en.,</w>
Isra el
Imp f
Hilf s
Hig gs-
Ha wai
Ha ve</w>
H itze</w>
H it
H eim
H aut</w>
H ack
Grün de</w>
Großbritann ien</w>
Glob al</w>
Ger äu
Gener al</w>
Gegen war
Gegen satz</w>
G ü
G let
G ang</w>
Francis co</w>
Fl ori
Fen ster</w>
F älle</w>
F ok
F ig
Ergeb nis
Erfind ung</w>
Entdeck ung</w>
Ent fern
Ein kommen</w>
Ein ige</w>
Eff izi
E ver
Dru ck</w>
Di agno
Dam it</w>
D u
D ec
D an</w>
D aher</w>
D .</w>
Bra z
Bild schir
Best and
Bel ohn
Bau ch
Bakter ien</w>
B ör
B rü
B rie
B lu
Aus ma
Aus bildung</w>
Audi ence:</w>
Au fl
At lan
Ara b
Ap ri
Amaz on</w>
Aktiv ität</w>
9 5</w>
200 5</w>
.“ ",</w>
- P
- K
,M any</w>
,I n</w>
,I magine</w>
,"W hy</w>
,"O ver</w>
,"O kay,</w>
," During</w>
," Be
"O h,</w>
"N ehmen</w>
"M ir</w>
"D urch</w>
"D ort</w>
"" Y
"" T
" Falls</w>
üs se</w>
über leben</w>
über all
Än g
zwei ,</w>
zug änglich</w>
zog en,</w>
z one</w>
z on
y to
wä ss
woll ten,</w>
woh er</w>
wo durch</w>
wo bei</w>
wir d
win dig
wie der,</w>
wie :</w>
wichtig .,</w>
wi l
weir d</w>
wei ßen</w>
war ten,</w>
war m
wan ting</w>
w ol
viel ,</w>
veränder te</w>
verständ lich</w>
verschie den
verrück t</w>
vern etz
verfüg bar</w>
ver mittel
ver lieren</w>
ver brauch</w>
ver bra
ver blü
ver ab
vehic le</w>
v ess
us e."</w>
us ch</w>
unter en</w>
univer se,</w>
und ing</w>
un t
un i
un gewöhn
un endlich</w>
un end
u tion.</w>
trä gt</w>
trit t</w>
tra gen.",</w>
tor en,</w>
tl y,</w>
tl es</w>
tion en.",</w>
tier t,</w>
tici ans</w>
ti ver</w>
ti sm
ti er</w>
thro wn</w>
thre e,</w>
thi op
ten e</w>
tempor ary</w>
te ure</w>
tan e
ta tions</w>
ta il</w>
ta il
swit ch</w>
sum mer</w>
suff ering</w>
stuff .</w>
stre t
stre ets</w>
stra hl
stol z</w>
sth af
star ken</w>
st ing</w>
st ak
spru ch
spe e
spac e.</w>
spac e."</w>
sp a
soll .",</w>
soll ,</w>
sog ar,</w>
socie ties</w>
sk y</w>
sign al</w>
si l</w>
sho p</w>
sho es</w>
sh ir
sexu elle</w>
setz ung</w>
ser vices</w>
sensi tive</w>
sel y</w>
secon ds</w>
se es</w>
se d,</w>
schwier iger</w>
schwer ,</w>
schul e</w>
school .</w>
schmer z
schl uss
schein bar</w>
sch ätzen</w>
sch we
sch t</w>
scal e,</w>
s elling</w>
s can</w>
s at</w>
rä um
ro ll</w>
ret ten</w>
resul t,</w>
resour c
requi red</w>
requ ire</w>
regi ons</w>
regi on</w>
real izing</w>
real iz
real is
reag ieren</w>
radi k
ra dical</w>
r y.</w>
quick ly,</w>
qu iet</w>
qu asi</w>
press ure</w>
pol y
po unds</w>
po p</w>
po ck
pl es.</w>
pie c
per forming</w>
partici pants</w>
par ent</w>
p yra
p ure</w>
p ilo
p ig
p age</w>
over all</w>
ourselv es,</w>
other .</w>
organiz ations</w>
or s."</w>
or ies</w>
open ing</w>
on y</w>
ogra f
off ered</w>
off -
o il
o ber
net works</w>
ne ar
nah men,</w>
n t</w>
n or</w>
n er,</w>
n am</w>
n ah</w>
mö gen,</w>
mus ic,</w>
moun tain</w>
mou se</w>
mon keys</w>
mol ekul
mittl eren</w>
minist er</w>
mind ed</w>
mi ra
mensch licher</w>
me .",</w>
man age
m outh</w>
m et,</w>
m ass
m als</w>
life -
lich :</w>
li sh</w>
li ked</w>
li ck
li ,</w>
letz ter</w>
lea ves</w>
law y
laun ched</w>
langu age."</w>
lab or</w>
la u</w>
l ern</w>
kur ze</w>
kon stru
know .</w>
kl ei
kil omet
kid s,</w>
kauf en,</w>
kann te</w>
k rieg</w>
k ogni
k id,</w>
jo ined</w>
jem and,</w>
jem and
j ähr
iz on
ist ic
ip s</w>
interessan t,</w>
interess ant</w>
inte gra
ins besondere</w>
innov ative</w>
ing ly,</w>
industr ie</w>
inde ed</w>
increas ingly</w>
in sur
in ce</w>
im en
illen ni
ig .,</w>
ier enden</w>
ie gel</w>
id ."</w>
ich .,</w>
hy po
hor mon
hon or</w>
hon est</w>
hol ds</w>
ho he</w>
hin ein</w>
hear t
he ute,</w>
hand ed</w>
ha ,</w>
grund sätz
großar tigen</w>
groß ,</w>
ground ."</w>
gro wn</w>
gro ss
gr as
gi k</w>
gewis ser</w>
get renn
gesetz t,</w>
geschaff en</w>
ges teu
ger ."</w>
gener ations</w>
gene tische</w>
genau er</w>
gegan gen</w>
gef äll
gef all
ge geben
g ung</w>
g s."</w>
g old</w>
g ing,</w>
fra me
form s,</w>
form er</w>
for t,</w>
fas sen</w>
far m</w>
fabri c</w>
fa i
f ought</w>
f it
f at</w>
extra ordin
exper ts</w>
exp and
exist iert</w>
example ."</w>
ex o
ex hibi
every where</w>
eu r</w>
es tens</w>
erzähl t</w>
ern sthaf
ern st</w>
ern .</w>
erlau ben</w>
erklär en</w>
er zähle</w>
er y</w>
er scheint</w>
er schein
er häl
er hielten</w>
er fahren</w>
equip ment</w>
enz ,</w>
enter ing</w>
entdeck en</w>
ent stand</w>
ent eil</w>
ent .,</w>
engine ers</w>
energ ie</w>
en den
emo tion</w>
emis sions</w>
emerg ing</w>
electri cal</w>
el se.</w>
el se,</w>
el n
ein mal
eff ort</w>
ed ge</w>
ed ."""</w>
eas ily</w>
drück t</w>
dr ü
dr ess
dopp elt</w>
don e.</w>
dom es
do ing."</w>
do ing,</w>
dis crimin
dis chen</w>
dig t</w>
differ ent,</w>
dies ."</w>
di plom
di abet
design ing</w>
der zeit</w>
denken :</w>
denk en.,</w>
dem and</w>
defin itely</w>
def ine</w>
de plo
de bat
de :</w>
davon .",</w>
dau ert</w>
dach ten</w>
da vor</w>
da mag
d inner</w>
d et,</w>
cr ash
cover ed</w>
cor rup
consi st
con stru
con cre
compu ter,</w>
complex ity</w>
commer cial</w>
com e."</w>
collec ted</w>
colle ction</w>
colle ct</w>
coff ee</w>
co very</w>
co ck
clin ical</w>
class room</w>
ck t</w>
ck s,</w>
ck e,</w>
citi zens</w>
char ge</w>
cha in</w>
cell s."</w>
care fully</w>
care er</w>
c ure</w>
c ross</w>
c it
c ann
bro ken
bring t.",</w>
bring t,</w>
brei te</w>
bra in.</w>
br and
blo ck</w>
bl ind</w>
bi as</w>
bewe gen,</w>
betrach ten,</w>
besch rie
bes tim
ber .</w>
beobach ten</w>
beobach ten,</w>
benef it</w>
belie v
bel on
bekann te</w>
beh err
beginn en,</w>
be zü
be deck
b ath
b ahn
auf ger
auf genommen</w>
ator en</w>
ati n</w>
at ed.</w>
ass ume</w>
as es</w>
ar ts</w>
ar tigen</w>
appli ed</w>
ap p</w>
ann eh
ang et
ander en.",</w>
ander en,</w>
anal og
an pass
amoun ts</w>
aller dings</w>
aktu elle</w>
ak u
ag ue</w>
adv ance</w>
ad or
ad en,</w>
ad el
ach t
acc um
abili ties</w>
ab and
a un
a ""</w>
Zivili sa
Z erstör
Z ahn
You Tu
Wes ten</w>
Wer k</w>
Wahrschein lichkeit</w>
W ink
W ill
W hy</w>
W ellen</w>
W ar</w>
Vor fahren</w>
Vide os</w>
Ver wand
Unter nehmen,</w>
Ug anda</w>
Tit an</w>
The ater</w>
Telef on
Tatsach e</w>
T om
T anz
T .</w>
T ,</w>
Stan ford</w>
Stan for
Sp ann
Situ ationen</w>
Selbst mor
Se x</w>
Schok ol
Schimp an
Sch utz
Sch ne
Sach en,</w>
S ilicon</w>
Ro s
Restau ran
Rech ts
Rec ycl
R en
Qu elle</w>
Qu e
Q a
Präsi dent</w>
Prä sent
Projek te</w>
Program me</w>
Pres ident</w>
Plan et</w>
Pla stik
Pit ts
Person ,</w>
Per sön
Pati ent
P ilo
OK ?"</w>
O k
No .</w>
Netzwer ke</w>
Nation al
N utzen</w>
N iemand</w>
N et
Männ ern</w>
M är
M ent
M aga
M ac
Li ke</w>
Li ber
Lebe wesen</w>
L ong</w>
L iter
L eh
Krei s
Kra ft,</w>
Kon text</w>
Kom ment
Kohlen diox
K ämp
K unden</w>
K I</w>
Institu tionen</w>
Individu en</w>
In n
Hunder te</w>
Hinter grund</w>
Hand y</w>
Ha ar</w>
H aus,</w>
H ass
H ab
Got t,</w>
Go li
Go d,</w>
Ges am
Gerä usch</w>
Gerech tigkeit</w>
GP S</w>
G or
G han
G en</w>
G anze</w>
G B
Funk tion</w>
Freu de</w>
Frau en
Fing er</w>
Fil m
Famili e,</w>
Fak ten</w>
F lei
En trop
Elek tri
Ein er</w>
Ech tz
E li
Drit tel</w>
Do es</w>
Di rek
Det ails</w>
D rei
D r
Com mun
Ch romo
Ch ild
Car ol
Buch stab
Br un
Bo tschaft</w>
Bewei s</w>
Ben utz
Bei m</w>
Bei j
B om
B lä
B lo
B ein
B ank</w>
B and
Aut ob
Aus druck</w>
Aspek t</w>
Argent in
Ar men</w>
Ar me
Ander son:</w>
A mei
A I</w>
5 00
4 6</w>
4 4</w>
4 2</w>
3 D</w>
3 2</w>
200 3</w>
100 ,000</w>
.. .,</w>
,S ome
,H e's</w>
,( Music)</w>
,"Wh ich</w>
,"T wo</w>
,"S ince</w>
,"Inste ad,</w>
,"I 'd</w>
,"Ho wever,</w>
," K
," Here,</w>
," G
, K
"W ür
"S elb
"S ehen</w>
"Kön nen</w>
"Al l</w>
""O kay,</w>
"" E
" Andere</w>
! ""</w>
“ ,</w>
ück sich
är ke</w>
ähn lichen</w>
zw ing
zusam men.,</w>
zurück kehr
zeu g,</w>
zeich nen</w>
z .",</w>
y s.</w>
wron g
wor d,</w>
won der</w>
wom it</w>
woll ten.",</w>
wirk lichen</w>
wirk liche</w>
wirk en</w>
wher e."</w>
what ?</w>
wh el
west lichen</w>
weltwei ten</w>
weiter er</w>
wei b
weg .",</w>
was h</w>
war :</w>
w ou
w agen</w>
vor bereit
vor .",</w>
voic es</w>
vir us
viol ent</w>
viel e,</w>
vi br
vertrau t</w>
verstand en,</w>
verst anden</w>
verkauf t</w>
verblü ff
verbess ern.",</w>
ver brauch
ven u
ven tion</w>
v ey</w>
ut el
us e,</w>
upp er</w>
unter weg
uns ich
uns .,</w>
ung eh
ung ?,</w>
un like</w>
um ge
ultim ately</w>
tu ally,</w>
tru e,</w>
trie b</w>
tremend ous</w>
tra g,</w>
tr ast</w>
to pic
ti vier
through ,</w>
thes e,</w>
ther .</w>
theor y,</w>
th eit</w>
ten .""",</w>
techniqu es</w>
te ch
ta x</w>
ta ,</w>
t y.</w>
t ough</w>
t anz
symm etri
sym bol
surro unded</w>
surpris ed</w>
sup ply</w>
stän den</w>
stud y,</w>
stre ck
str ä
str ie</w>
ster o
stei ger
stei gen</w>
stat es</w>
stab ili
st ützen</w>
st um
st om
st itu
st en.,</w>
st an
squ are</w>
spra chen</w>
spo ke</w>
spec tr
sou l</w>
sor gen</w>
soph istic
some thing."</w>
sogenann ten</w>
so viel</w>
so -
sk y
si z
si ve,</w>
si de
sha do
sh ut</w>
setz t,</w>
ser ved</w>
secur ity,</w>
scienti st</w>
schätz en,</w>
schwi mm
schrie b
schrei ben.",</w>
scho ck
schnit t</w>
schl üs
schl af
schick en</w>
schaff t</w>
sch utz
sch ien</w>
sc ene</w>
sat z,</w>
samm lung</w>
saf ety</w>
sa ved</w>
s ets</w>
s ar
rä ume</w>
roo ts</w>
ris k,</w>
right ?</w>
rie ch
ri ver</w>
ri ge</w>
res pek
res ili
repres ents</w>
repe at</w>
rep lic
relationship s</w>
refuge e</w>
recei ve</w>
re turn</w>
re plac
re par
re f
re ak
re aching</w>
rat e,</w>
ran dom</w>
radi o
ra c
r y."</w>
r unter</w>
r at</w>
r ann
ques tions."</w>
pun ish
provi ded</w>
produc tive</w>
produc ing</w>
process es</w>
proc ess.</w>
pro ve</w>
pro found</w>
princi ples</w>
pres ence</w>
pre ci
potenti ally</w>
possi bili
poli tics</w>
po sit
plan t,</w>
plan et.</w>
pl ans</w>
pl an,</w>
photo s</w>
ph an
perspec tive,</w>
person ."</w>
person 's</w>
perc ent
pe d,</w>
pain t</w>
p tion</w>
p fen</w>
p ."</w>
over ,</w>
ourselv es.</w>
os sen</w>
or al</w>
or :</w>
opportun ities</w>
of .</w>
of -
occ up
ob serv
ob s
ob jek
ob ald</w>
o w
nor th</w>
nor male</w>
no te</w>
no t."</w>
no chmal</w>
neut r
neg ativ
ne ben
ne .,</w>
nach ts</w>
n te</w>
möglich erweise</w>
mäch tige</w>
mutz ung</w>
mus st</w>
mus ik
mp tome</w>
moun tain
mor gens</w>
model ,</w>
mo thers</w>
mist ake</w>
mir .",</w>
mind estens</w>
mi th
metho d</w>
mess ages</w>
mem ber</w>
mei ster
mei st</w>
medi a,</w>
meas ur
mat ch</w>
main ly</w>
mach te,</w>
m end</w>
m ann</w>
lin ked</w>
lieg t.",</w>
lichkeit s
li t</w>
li gt</w>
leist ungen</w>
leg en.",</w>
left -
leb ten</w>
leader ship</w>
le dig
le an</w>
lauf en,</w>
lang en,</w>
l en</w>
l en
künst liche</w>
kur zen</w>
kultur elle</w>
know ?</w>
kl ass
keit en.",</w>
keep ing</w>
kauf s
k ö
k oll
k at
j eg
j ag
iz iert</w>
iti v</w>
it t
it en</w>
ist ic</w>
internation alen</w>
interessan ten</w>
institu tions</w>
inst inc
inn ern</w>
influ ence</w>
inclu de</w>
impro vis
import ant.</w>
import ance</w>
immer .",</w>
imm une</w>
imag e,</w>
ill ustr
ik en</w>
ier ungs
ier te,</w>
ie -
ick ,</w>
ich ts</w>
ich .",</w>
ic a</w>
i v
i let</w>
i en
hät te.",</w>
hunder t
hr en
histor y.</w>
hier her</w>
hid den</w>
hero es</w>
her gestellt</w>
her an
hear t,</w>
happen s."</w>
hal ten.,</w>
ha ve."</w>
ha d,</w>
ha bt</w>
h aus
gu id
grün det
great -
gre at,</w>
glu co
glaub t,</w>
gl ass</w>
gi er</w>
gewis se</w>
gewal tige</w>
gestell t.",</w>
geschn it
gesch ah</w>
gesam melt</w>
ges .</w>
ger s</w>
gener ally</w>
gene tischen</w>
gel ie
gehör en</w>
geh ö
geh en.</w>
gebrach t,</w>
ge zw
ge kauf
gan g
gam es,</w>
ga y</w>
func tion
fu el</w>
frü her
fran zös
fos sil
follo wed</w>
fo tograf
fli es</w>
fl uss
fin ish</w>
fil m
figur ing</w>
fig ured</w>
feel ings</w>
fe atures</w>
fall ,</w>
fal sche</w>
fail ed</w>
f ts
f ris
f liegen,</w>
f isch
f ern</w>
f at
f abul
expres s</w>
experienc ing</w>
expec ted</w>
ex act</w>
et t</w>
es h</w>
es c
erzähl en.",</w>
erstaun liche</w>
erkann te</w>
er seits</w>
er neu
er leben</w>
er ei
environ ment."</w>
entschei den,</w>
end s,</w>
end ete</w>
end ."</w>
en er
emplo ye
em s</w>
el s,</w>
el e
ek ,</w>
eh en,</w>
eg ro
eg al,</w>
eas y,</w>
earli er</w>
ear th
ear s</w>
e ating</w>
dra w
down .</w>
do kum
distri buted</w>
dis or
dis ku
differ ent."</w>
differ ent
di um</w>
di stra
di d,</w>
di alog
des ."</w>
dep ends</w>
den noch</w>
den :</w>
demon str
del ici
de x</w>
de pendent</w>
de ad,</w>
dar stell
dan ach,</w>
dach te:</w>
da hin</w>
d ollar</w>
d essen,</w>
d ?"</w>
curr ently</w>
cul ar</w>
cri me</w>
cre atures</w>
countri es.</w>
convin ce</w>
confi dence</w>
condi tions</w>
comp are</w>
communic ation</w>
com b
cle an
cla im</w>
citi es,</w>
cho col
chimp anz
child hood</w>
chil d,</w>
chem ist
ch ur
ch ts
ch en.</w>
ch e.,</w>
cent r
caus ing</w>
cas es,</w>
car ry</w>
cancer .</w>
can did
c s</w>
bring en.,</w>
bre ath
bre aking</w>
bra ch</w>
br ü
br and</w>
bot tom
bod y.</w>
bo den</w>
bo at</w>
blo cks</w>
bild en.",</w>
bild en,</w>
biet en,</w>
bi om
betei lig
bet ter."</w>
best ä
besag t,</w>
bemerken swer
belie ves</w>
belie ve,</w>
belie f</w>
bei ,</w>
behand elt</w>
be ängstig
be t</w>
be kommt,</w>
bal ance</w>
b its</w>
b ie</w>
b ahn</w>
aw ful</w>
außergewöhn liche</w>
aus brei
au st
ath let
as ks</w>
as k,</w>
as che</w>
around ."</w>
arbeit eten</w>
ar do</w>
anti bio
anschau en,</w>
angef angen</w>
an tast
an atom
an 's</w>
amp lif
am ent</w>
alon g
al o
ak adem
ag on
ag es,</w>
affec ts</w>
aff ord
ad urch</w>
ac tions</w>
ac qu
absol ute</w>
abilit y."</w>
ab out
] ,</w>
Zusammen hang</w>
Zu hause</w>
Z immer</w>
Wor ten,</w>
Wich tig
Wer t
Wei hnach
Wal d</w>
W ut</w>
W inter
W hat's</w>
Vor ur
Viet nam</w>
Verhalten s
Verantwor t
Ver such</w>
V :</w>
Unter rich
Universit ä
Typ en</w>
Tum or</w>
Terror ismus</w>
T un
T ru
T im</w>
T ieren</w>
Struktur en</w>
Stat es,</w>
Sta ats
St au
St .</w>
Spek tr
Sp itz
Son n
Sign al</w>
Se e</w>
Schul e,</w>
Schul d</w>
Sch ick
Sch aden</w>
S ä
S tern
S itz
S ir
S how</w>
S ec
S and</w>
S af
Righ t?</w>
Re zept</w>
Re chte</w>
R uss
Produk tion</w>
Proble me,</w>
Pri or
Por tu
Pitts bur
Ph ili
Ph il
Pfl anz
Pf und</w>
Parkin son
Par ado
P et
P ass
O ka
No bel</w>
Nich ts</w>
Neur onen</w>
Nachbar n</w>
N ein,</w>
N ehmen</w>
Mäd chen,</w>
Mus e
Mod ell
Mo tiv
Mit tl
Metho den</w>
Mensch ,</w>
Mein ungen</w>
Man che</w>
Man :</w>
Mach t
M isch
Lin ien</w>
Liebl ings
Leist ungs
Lebens mittel</w>
L ou
L ink
L age,</w>
L GB
Kra ft
Komplex ität</w>
Kom men</w>
K ä
K rie
K lu
K eine</w>
K ateg
Jung e</w>
Jahrhunder ts</w>
J ack</w>
J :</w>
Institu te</w>
In te
In sel
In ner
Ide en,</w>
I P</w>
Ha w
H und</w>
H ier
H en
Großmut ter</w>
Gre ek</w>
Gr en
Gesich ter</w>
Ger man
Ger icht</w>
Geg enteil</w>
Gef ahr</w>
Gedäch tnis</w>
Ge wohn
Ge win
G öt
G las
G D
Führ ung
Fü ße</w>
Fre qu
Frau en.",</w>
Francis co
Feu er
F oundation</w>
Experim ente</w>
Er fin
Entdeck ungen</w>
Engli sch</w>
Elektri z
Ele c
Ein kommen
Eigenschaf ten</w>
Eig ent
E l</w>
E S
Dunk el
Dro gen
Din ge.,</w>
Di plom
Dan iel</w>
D ,</w>
Christ m
Char ak
Br and
Bl ack</w>
Bewusst sein</w>
Beweg ungen</w>
Besch ei
Bedürf nisse</w>
Bedroh ung</w>
Bau m
Bau ern</w>
B ul
B ran
B ay</w>
Au g
Arbeit sk
Ar me</w>
An sicht</w>
Afric a.</w>
Aben dessen</w>
Ab sol
A t</w>
A dam
9 9</w>
20 10,</w>
20 ,</w>
2 6
10 -
. '</w>
,Wh o</w>
,W here</w>
,E very
,A n</w>
,"Y es,</w>
,"T ake</w>
,"O h,</w>
,"O K,</w>
,"H e's</w>
,"F in
," You
&amp ;</w>
"Sch auen</w>
"Je des</w>
"Dam it</w>
"An statt</w>
"Al les</w>
""J a,</w>
"" Sie</w>
"" Der</w>
" Ist</w>
" Genau</w>
„ Ich</w>
über ,</w>
öff nen</w>
ö fter</w>
är ger
änder n
än glich
än ge</w>
ä use</w>
Ü bri
zy kl
zusam men,</w>
zurück zu
zukünf tige</w>
zoo m</w>
ziel l</w>
z wan
z ig
z eln</w>
y ;</w>
wähl en,</w>
work ers</w>
wor e</w>
wor an</w>
wonder ing</w>
with .</w>
wissenschaf tl
wirtschaf tliche</w>
wh i
wes ent
werden ?",</w>
wei se,</w>
wei ght</w>
wass er</w>
war ten</w>
war ."</w>
wall s</w>
wahr e</w>
wa cht</w>
w üs
w ün
w e,</w>
w ant
vulner able</w>
vor zug
vor han
vor bei</w>
voll ständig</w>
voll ständig
verwand eln</w>
verges sen</w>
verdi enen</w>
verbess ern</w>
verbess ern,</w>
ver z
ver tre
ver dam
ve ."""</w>
v en,</w>
v a
us ers</w>
us .",</w>
ur ,</w>
unter nehmen</w>
univer se."</w>
ung en
ung ""</w>
un ächst</w>
un ruhig
un fortunately,</w>
un believ
un abhäng
um so</w>
um s
um m
tut .",</w>
tun .</w>
trans formed</w>
tra de</w>
ton ight</w>
tomor ro
toda y's</w>
tnis se</w>
tim et
tig en.",</w>
tier t.",</w>
tic s."</w>
ti sier
ti le</w>
though ts</w>
th en
th al
teil ung</w>
te ch</w>
te ?",</w>
t our
t ing."</w>
t )</w>
syst ema
syn the
symm etr
suppor ting</w>
sug gest</w>
such en.",</w>
succ e
str en
story tell
sten s,</w>
statist ics</w>
sta yed</w>
st ers</w>
st age,</w>
st aff
st ac
spra che</w>
spra ch,</w>
spac es</w>
sp in
sp az
sozi al</w>
sour ces</w>
sou l
sol cher</w>
sol ange</w>
smo ke</w>
sm ell</w>
sk ill</w>
situ ation,</w>
sion .</w>
sin n</w>
sicher lich</w>
si de.</w>
sho pping</w>
ship s</w>
shi pping</w>
she ep
shar ing</w>
sever e</w>
sequ ence</w>
sec ure</w>
sec tor</w>
school ."</w>
schn ell,</w>
schließ en,</w>
schle chten</w>
schein end</w>
sch were</w>
sch en.",</w>
sau ber
satelli te</w>
sam ple</w>
sag en.,</w>
sa ge:</w>
s um</w>
s ,""</w>
rot z</w>
ri d
rever se</w>
ret ten,</w>
responsi bilit
resol ution</w>
res tor
religi öse</w>
reg im
reco very</w>
reas on,</w>
real ity,</w>
real en</w>
re u
re put
re präsen
re mind</w>
re m
re d."</w>
re ."</w>
rais ing</w>
ra w</w>
ra tional</w>
ra ff
r us
r r
r i</w>
r and
quo te</w>
pus hed</w>
prot eins</w>
prot ein</w>
produz iert</w>
proc ed
priv acy</w>
pre fer
pp en</w>
pos ing</w>
ple ase</w>
plan ets</w>
pl es,</w>
physi kal
physi ci
perman ent</w>
percent age</w>
perc ent,</w>
per form</w>
pec ts</w>
pe t</w>
pas st</w>
partic les</w>
partic le</w>
pa st,</w>
p ort
p .</w>
over whel
over come</w>
over ."</w>
out side,</w>
ori entier
organ s</w>
or mal
op posed</w>
on line,</w>
og ar</w>
oce ans</w>
o the
o kl
okl y
o ci
o bo
o .",</w>
nutz t</w>
number s,</w>
net t</w>
neh me</w>
nam es</w>
n u
n in
n es
müs ste</w>
my ster
mus .",</w>
moun tains</w>
moral ische</w>
monit or</w>
mo squ
mis sed</w>
min u
milit är
micro bi
micro bes</w>
mich :</w>
met al</w>
met abo
mensch liches</w>
mechan ism</w>
me ."""</w>
may be,</w>
mar ine</w>
manip ul
mal en</w>
mal aria</w>
mach en?",</w>
ma p,</w>
ma .,</w>
m and
lu ck</w>
lock ed</w>
lo y
lo ves</w>
lo hn
lo gic</w>
limit s</w>
lif er
lieg t,</w>
lich keiten</w>
li en</w>
letz tendlich</w>
lern ten</w>
ledig lich</w>
leben den</w>
le gt</w>
lay er</w>
l ück
l äng
l un
l ou
l ab,</w>
kämp fen</w>
krä f
kor e
konzentrier en,</w>
kommuniz ieren</w>
kommen .</w>
know ?"</w>
kilomet ers</w>
keit en.,</w>
k espe
jähri gen</w>
ju dge</w>
job .</w>
jo y</w>
iz op
ist ischen</w>
issu es,</w>
isch erweise</w>
isch em</w>
is on
irgend etwas</w>
irgend ein</w>
ir on</w>
inves tieren,</w>
introdu ce</w>
inter vie
intel lig
ins ight</w>
inn en,</w>
infin ite</w>
in s,</w>
im il
il legal</w>
ik o</w>
igh t."</w>
identi ty</w>
ich ten</w>
i est</w>
hy per
human s,</w>
hope fully</w>
hil frei
high est</w>
hem ann</w>
health .</w>
hat ?",</w>
happen s,</w>
hand le</w>
ha n</w>
h un
h ole</w>
h ire</w>
h ie
h -
gu ar
grupp e</w>
grundsätz lich</w>
grundle genden</w>
groß en,</w>
grow th,</w>
gra y</w>
gra in</w>
go ti
gli ed</w>
gl ass
gewähl t</w>
getö tet</w>
get ,</w>
gestell t.,</w>
gesch windigkeit</w>
gesch le
ges unde</w>
genom men
gendes :</w>
genau ,</w>
gen ?,</w>
gef angen</w>
gedach t,</w>
ge führt</w>
ge br
ge ber</w>
g elt</w>
füll t</w>
fähr t</w>
ful ly,</w>
fu hr
frü he</w>
frü h
fru str
frag t:</w>
fos sil</w>
for mu
for ,</w>
fol ks</w>
fol gende</w>
flo or</w>
fl üch
find e,</w>
fin den.</w>
fin an
finan zi
feed back</w>
fash ion</w>
fal se</w>
fac ed</w>
fa vor</w>
f oundation</w>
f loo
f .</w>
expen sive</w>
exercis e</w>
exec u
ex tin
evolution ary</w>
ev ent</w>
europä ischen</w>
etc ."</w>
et ten</w>
ersch reck
erinner te</w>
er stellt</w>
er fahren,</w>
er e,</w>
er ""</w>
entdeck te</w>
entdeck t</w>
ent wor
ent täusch
ent stehen</w>
ent sprech
enough .</w>
engine ered</w>
en det</w>
en able</w>
embra ce</w>
em ent,</w>
elektr ische</w>
el ten</w>
el ess,</w>
el eph
ek s</w>
einig es</w>
einfach .,</w>
ein sch
ein gesetzt</w>
ein gebau
ei r</w>
eh em
effici ency</w>
ed ?</w>
drück en.",</w>
drin king</w>
dre ams</w>
drama tic</w>
dr ink</w>
downlo ad</w>
dou ble</w>
dor thin</w>
do zen</w>
do se</w>
do p
divi ded</w>
dist inc
dis aster</w>
dis ap
dinosau r
digit alen</w>
dig er</w>
did .</w>
deter mine</w>
der .</w>
depres sion</w>
demo kra
decl ine</w>
dec ade</w>
de vices</w>
de gra
das .",</w>
d ness</w>
cre atur
cop y</w>
contri but
contra c
construc tion</w>
constru ct</w>
constra in
con clu
comm is
com pla
co -
clu b</w>
child hoo
chem ische</w>
charac ter</w>
cha o
ch s</w>
centur y."</w>
canc er,</w>
c ast</w>
c and
bu t,</w>
brilli ant</w>
bo om
bo dies,</w>
bli othe
bit ten</w>
biolog y,</w>
bi zar
bezü glich</w>
bezahl t</w>
bevölk erung</w>
betei ligt</w>
bestimm t,</w>
besteh t,</w>
bess er,</w>
bes ie
berühr t</w>
berei t,</w>
ber s,</w>
benutz t,</w>
belie f
bel eg
beispiel sweise</w>
behavi ors</w>
begei ster
bedeut et.",</w>
be unruhig
bau t</w>
b s,</w>
b ank
b ag
automati sch</w>
aus gesetzt</w>
atten tion,</w>
atom s</w>
ation en.,</w>
ast rop
ass ump
as pect</w>
as ed</w>
as .",</w>
around .</w>
ar t
ar k
ar d-
appreci ate</w>
appear s</w>
apar t
ap or
any thing,</w>
anf äng
an schauen</w>
an ische</w>
am m</w>
alon g,</w>
allge meinen</w>
ali en,</w>
al t,</w>
al li
al igen</w>
ak s</w>
air plan
agre ed</w>
ag o
ag gres
after no
ad vis
ad vice</w>
ad mit</w>
ad dic
ach tet</w>
ach es</w>
ac comp
abstra ct</w>
abilit y,</w>
ab und
ab out.</w>
ab in
a kl
a is
a id</w>
a .
Ziel ,</w>
Z y
Z en
Wo chen
Wirk ung</w>
Wel trau
Wel ten</w>
Wel che</w>
Wei sheit</w>
Wei le</w>
Wass er.",</w>
Washing ton</w>
W ild
W here</w>
W ett
W esen</w>
W en
W asch
W all</w>
Vö gel</w>
Vorur teile</w>
Versuch ,</w>
Verbind ungen</w>
Ver rück
Ver ein
Valle y</w>
Urspr ung</w>
Ur s
Universum s</w>
Un i
US A
U hr
U gan
Tre ffen</w>
Ther ap
Teil chen</w>
Teil ,</w>
T ier</w>
T aten</w>
T at
System ,</w>
Syn dro
Sub st
Struktur ,</w>
Stra hlung</w>
Statistik en</w>
Stat es."</w>
Stand ard
Spiel zeug</w>
Soft war
Skl aver
Sk ulp
Sinn ,</w>
Seit e,</w>
Se e
Schmer zen</w>
Schau spiel
Sch utz</w>
Sch lei
Sch le
Sach e.,</w>
S zen
S ho
S eine</w>
S amm
S ."</w>
Rück en
Rom an</w>
Rei ch
Re zep
Rau m,</w>
R ö
R hyth
R am
R E
Punk t,</w>
Präsi dent
Pl an</w>
Pha se</w>
Pat ri
Pal ä
Pac ific</w>
Pa zi
P rü
P eter</w>
Organ e</w>
O ur</w>
O '
Nervenz ellen</w>
Ne ben
N ieder
N i
N G
Musli m</w>
Mus ic</w>
Mom ent
Mobil telef
Mo del
Mit arbeiter</w>
Min ute</w>
Milliar de</w>
Maß stab</w>
Mat erie</w>
Mag net
M ehr
M eg
M ah
Lär m</w>
Lebens mittel
Le ben.,</w>
Lar ry</w>
Land wirtschaf
L eg
L auf</w>
L KW
Kultur ,</w>
Krä fte</w>
Kor rup
Kommunik ation</w>
Koh le</w>
Klass en
Kinder n,</w>
Kar riere</w>
Kan did
K ann</w>
Jer se
Je de</w>
Jahr en.",</w>
Jahr ,</w>
J un
Inter national</w>
In tu
In sel</w>
Häus er</w>
Hol oc
Ho ward</w>
Hin sicht</w>
Her r</w>
He utzutage</w>
Hand lungen</w>
Ha ar
H ür
H ip
H ind
H ill
H em
H all
Grün de,</w>
Gra fik</w>
Goli ath</w>
Gol f
Gol d
Gesich ts
Geschä ft</w>
Geschich ten,</w>
Geschich te.",</w>
Geräu sche</w>
Ger man</w>
Geist es
Gefühl ,</w>
Gedi chte</w>
Geb iet</w>
Ge wäss
G anz</w>
G ang
Freund e,</w>
Fol gendes</w>
Fol ge</w>
Flä che</w>
Face book,</w>
F ru
F las
F isch</w>
F antas
F all,</w>
Ex ist
Erinner ungen</w>
Eri c</w>
Ep idem
Ent wur
Eindru ck</w>
Echtz eit</w>
Ear th.</w>
E mis
Druck er</w>
Dok tor
Disk ussion</w>
Di en
Di agra
Di abet
Dar win</w>
Dank .",</w>
Da y</w>
D ou
D imen
D ig
D ev
Compu tern</w>
Com ic
Clon ie.</w>
Christm as</w>
Christ op
C our
C ent
C an</w>
C D
Bro okly
Bo x</w>
Bl um
Bild ungs
Bet t</w>
Ber icht</w>
Ber g</w>
Beispiel .,</w>
Bang lad
Bab y
B rei
B lau
B is</w>
B is
B ess
B F:</w>
Au st
Architek tur
Arbeit .,</w>
Apri l</w>
Ang st
Analy se</w>
An pass
An führer</w>
Afghanist an</w>
Ach se</w>
8 5</w>
50 .000</w>
50 -
4 7</w>
3 6</w>
3 3</w>
200 8</w>
2 50</w>
1 20</w>
0 .
. C
- J
- ,</w>
,"Y our</w>
,"W hat's</w>
,"S he's</w>
,"M ore</w>
,"Inste ad</w>
,"I magine</w>
,"A n</w>
, [
, Your</w>
, N
, 5</w>
' 80
' ""</w>
"Un d,</w>
"N ormal
"A us</w>
""No ,</w>
""N ein,</w>
"" It</w>
"" It's</w>
" Über</w>
" wenn</w>
" I
" Gehen</w>
“ ",</w>
ün dig
über ras
über nehmen</w>
ü st
ökonom ischen</w>
öff net</w>
ö cke</w>
ä ß
ä dig
ä chen</w>
Über setz
Ö kon
Är a</w>
zähl en</w>
zwei mal</w>
zusetz en.",</w>
zuneh mend</w>
zu gleich</w>
zeu gen</w>
zeu ge,</w>
zerstör t</w>
zentr um</w>
zei ten</w>
yst em</w>
yo ung,</w>
y way,</w>
y iel
writ er</w>
wn ."</w>
wis sen
wh ist
wh is
wh ale</w>
wes halb</w>
wer ke</w>
wer fen,</w>
wenig stens</w>
wend en,</w>
weiter .,</w>
wei ten</w>
week ."</w>
web site</w>
we ck
we alth</w>
we ak
war ds,</w>
w l</w>
w inter
w inn
w hat,</w>
w ant."</w>
vorzu stellen,</w>
vor wärts</w>
vol ume</w>
vol can
vo ice,</w>
visu elle</w>
visi ble</w>
vill age,</w>
vil la
veränder t.",</w>
verwend et,</w>
verwend en.",</w>
versuch ten</w>
versorg ung</w>
versch w
verkauf en</w>
verbrei tet</w>
ver wal
ver mögen</w>
ver brach
valu able</w>
vac u
v on
v eget
v ed."</w>
v ar
ut ter
us u
us ion
ur ban
untersuch en,</w>
unterschied lich</w>
unter stützen</w>
uns el
ungsproz ess</w>
ungs kraft</w>
unglaub lichen</w>
ung lück
under ne
und en.",</w>
un usual</w>
um ps</w>
um geben</w>
um fass
um an</w>
tä glichen</w>
tur al</w>
tru g</w>
tri eb
tre e,</w>
tre ating</w>
tre ated</w>
travel ed</w>
trans lat
tra f,</w>
tox ic</w>
tor .</w>
top ic</w>
to o
tn is,</w>
tivi eren</w>
tiv ity</w>
tis m</w>
tig keiten</w>
ti ll
three- dimensional</w>
thre at</w>
this ."""</w>
ther s,</w>
themselv es."</w>
themselv es,</w>
the dr
th west</w>
th um
th -
tet en,</w>
terror ist</w>
ter s.</w>
ter in</w>
tenzi al</w>
teil weise</w>
teenag ers</w>
te ams</w>
te ,",</w>
tan gi
tal k
tag s
ta kt</w>
t our</w>
t in,</w>
t at,</w>
t ask</w>
t ack
t ?""",</w>
syn thetic</w>
surv ei
survei ll
sud den</w>
su ici
su ic
stu p
stru ck</w>
str ing</w>
stat es,</w>
star tete</w>
stand ar
stamm t</w>
st ürz
st el
st ability</w>
sprech e,</w>
spor ts</w>
spiritu al</w>
spiel te</w>
spee ch</w>
spec tac
so und,</w>
so il,</w>
so ."</w>
slow ly</w>
sit zt</w>
sind .,</w>
sim ple,</w>
signific antly</w>
sich :</w>
si de."</w>
ship .</w>
setz ten</w>
selb st.",</w>
sein .""",</w>
sei .",</w>
search ing</w>
se ction</w>
se at</w>
scre en</w>
schwer en</w>
schwar zen</w>
schri ften</w>
schließ end</w>
schließ en</w>
schaff ten</w>
sch lau
sch er
sch en
sch .,</w>
sc ra
s es,</w>
s al</w>
s ?,</w>
s ?"""</w>
rul e</w>
rough ly</w>
rop s</w>
roo t</w>
ro se</w>
rit u
righ ts,</w>
releas ed</w>
relativ ely</w>
re pair</w>
re d,</w>
re al,</w>
rat s</w>
rat en,</w>
rar ely</w>
ra y</w>
ra in</w>
r y
r ump
r enz
r einig
quick ly."</w>
ques tions.</w>
quar ter</w>
promo te</w>
pro jek
prac tical</w>
pon enti
poli cies</w>
po etry</w>
pleas ure</w>
plan k
pla y,</w>
pl in
pl ants,</w>
pick ing</w>
pic ture,</w>
photo graph</w>
phenomen on</w>
ph ar
persön lich</w>
perc ent.</w>
per su
per ."</w>
pass ing</w>
partn ers</w>
par ent
par as
par alle
paralle l</w>
par adig
pa in,</w>
p ump
p s.</w>
p ad
ou ter</w>
other wise</w>
ori ties</w>
organis m</w>
organ ic</w>
or ches
on d</w>
olog ischen</w>
olo ge</w>
ol ester
oka y</w>
offen sicht
off ici
off .</w>
of ten,</w>
oce an."</w>
oce an
o v
o par
num er
notwen dig</w>
no tion</w>
no t.</w>
nis sen</w>
nigh t
ner vö
neighbor hood</w>
nehm en.,</w>
ne w,</w>
ne goti
ne d,</w>
natür lichen</w>
nat ure."</w>
narra tive</w>
nachzu denken,</w>
nach läss
n ’t</w>
n y,</w>
n ungs
n ess
n ers</w>
n ein,</w>
n ap
müs sten</w>
mäch tig
mus ical</w>
mus ic."</w>
moment an</w>
mom ent.</w>
mo tion</w>
mir ror</w>
minut es.</w>
mid -
mich .,</w>
mich .",</w>
merk wür
ment s."</w>
men ."</w>
mem bran
mein te</w>
mechan ical</w>
me :</w>
maxim um</w>
mathema tical</w>
mat ter."</w>
mat ter,</w>
marri ed</w>
manufactur ing</w>
man chen</w>
man 's</w>
mach te.",</w>
mach en
ma ster</w>
ma ster
läs st,</w>
län ger
läch er
los .,</w>
lie bt</w>
lie ben,</w>
lie ben
lich er,</w>
li ver</w>
li ft</w>
let ting</w>
let s</w>
lern en.",</w>
leg te</w>
leb en.,</w>
lea p</w>
le mm
le ge</w>
le ase</w>
las st</w>
langu age.</w>
lang ,</w>
l unch</w>
l t;
l eng
krä fte</w>
kre ativen</w>
kor rek
kon serv
ko sten</w>
kn üpf
kl et
kein erlei</w>
kap ut
kann .</w>
k li
k .",</w>
jen er</w>
je wei
jahrel ang</w>
j enen</w>
j ell
j ahr</w>
it z</w>
it 'll</w>
irgend eine</w>
invol ves</w>
inter ven
institu tion</w>
inste ad,</w>
inn ere</w>
ing .",</w>
inde pendent</w>
in o
in no
in ne</w>
in cen
in .,</w>
imp res
ilit y</w>
il fe</w>
il es</w>
il det</w>
ih n,</w>
ier ung,</w>
ier t.</w>
ie d,</w>
ideas ."</w>
id e,</w>
ich ts
ic s."</w>
ic ally."</w>
iPh one</w>
iP od</w>
i ri
i o
hör ten</w>
hör en.,</w>
hus band</w>
hur t</w>
hor ri
hop e,</w>
hon est
hom e
hol en,</w>
hoff nungs
hoff e</w>
ho p</w>
hin aus
het or
heraus gefunden,</w>
heraus .,</w>
her zu
heit .</w>
heim lich</w>
he 'd</w>
har mon
har m</w>
happen s.</w>
happen ed."</w>
happ en,</w>
hal f,</w>
h ip
h en
gu y,</w>
gu ide</w>
grü nen</w>
grü n</w>
großar tig
group s,</w>
gri ff</w>
gra v
gra de</w>
gr ate
gr and</w>
goo d."</w>
gol f</w>
gi f
gew on
gew and
get roff
geseh en.",</w>
gesch lag
gesch ehen</w>
gesam t</w>
ges tern</w>
ges tar
ger et
genu g,</w>
gend .,</w>
gen s,</w>
gemeinsam en</w>
geleg entlich</w>
gel y</w>
gel n</w>
gel ben</w>
geh end</w>
gefäll t</w>
geb ildet</w>
ge zogen</w>
ge wissen</w>
ge fühl</w>
ge fühl
gar den
gab .",</w>
ga ther</w>
ga in</w>
g y
g t;
g riech
g al,</w>
für ch
führ ten</w>
ful l
fu hren</w>
fres h</w>
fre ie</w>
fra u</w>
form ."</w>
fol d</w>
fle w</w>
fl ei
fing er
fi ve,</w>
fi re,</w>
fi f
ff er
fem in
fan d,</w>
fac ing</w>
fac e."</w>
fac e,</w>
fa ir</w>
f ung
f und</w>
f ounda
expres sion</w>
ex tent</w>
ex ponenti
ex hau
evol ution,</w>
every thing.</w>
every thing,</w>
estab lish
ess ence</w>
es -
erzähl ten</w>
ersch u
ern al</w>
erlaub t,</w>
erklär t</w>
erkenn en.",</w>
er maßen</w>
er halten.",</w>
er for
er fahr
er er</w>
er ei</w>
ep ide
entrop y</w>
enthäl t</w>
entdeck t,</w>
enough ."</w>
enc es."</w>
emotion alen</w>
ema il
em bo
em a</w>
el te</w>
effec t,</w>
educ ation."</w>
ed :</w>
econom y.</w>
e y,</w>
e w
durchge führt</w>
durch s</w>
dur ch,</w>
drei dimension
dre w</w>
dra wing</w>
dollar s.</w>
do ch,</w>
diver sit
diseas es</w>
diseas e."</w>
direc tor</w>
differ ent.</w>
diesel ben</w>
di ve</w>
di v
di r
di eren</w>
di ed,</w>
devel o
determin ed</w>
design ."</w>
des wegen</w>
des ire</w>
der zei
der ."</w>
der .",</w>
den de</w>
de cre
day s.</w>
dau erte</w>
da k
da gegen</w>
d ?</w>
cy cl
cut ting</w>
curi ous</w>
cri tic
cra stin
countri es."</w>
contra dic
continu es</w>
cont act</w>
con tain</w>
compon ents</w>
commit ted</w>
co unsel
co ast
cl ass,</w>
cir cu
children 's</w>
chemic als</w>
ch es,</w>
ch ann
ch amp
centur y.</w>
cen ters</w>
celebr ate</w>
car e,</w>
campa ign</w>
c y,</w>
c in</w>
c au
bur st</w>
bur n</w>
build ing."</w>
build ing,</w>
bro ther</w>
brauch ten</w>
br ary</w>
bo t</w>
bo dies."</w>
blei ben
bir d</w>
biolog y</w>
biolog ischen</w>
bio tika</w>
bin .",</w>
bezahl en</w>
beweg t,</w>
betriff t</w>
betrach tet</w>
bestimm tes</w>
bess eres</w>
besch lossen</w>
bes itzen</w>
berühm te</w>
berei tet</w>
ber ücksich
ber g
ber echn
ber -
benö tigen</w>
bel prei
bein ah
behavi or.</w>
beh ör
beh al
beginn t,</w>
beeinflus st</w>
bed ingungen</w>
be wohn
be frei
bau t,</w>
bas ierte</w>
bas ically,</w>
bar ri
bacter ial</w>
b ü
b vi
b one</w>
b o</w>
b ist,</w>
b ands</w>
b an</w>
az z</w>
automati cally</w>
aus seh
aus einander</w>
au st</w>
atur ,</w>
att ached</w>
ati c</w>
at tri
astro ph
ask ed,</w>
as pects</w>
as .</w>
appear ed</w>
anti ci
ant a</w>
anon y
anno un
angeh ens
ang ha
ander s
and -
analy ze</w>
an spruch
an ges
an fühl
amaz ing.</w>
am i</w>
along side</w>
al pha</w>
al one."</w>
air plane</w>
afrikan ischen</w>
advant age</w>
adv anc
adem ic</w>
ade qu
accur ate</w>
acc essi
ac ademic</w>
a ven</w>
a ja,</w>
a da,</w>
a :</w>
[ ""
Zwei fel</w>
Zit at</w>
Zentr al
Zeit alter</w>
Z el
Z ehn
YouTu be</w>
Y o
X -
Wor t,</w>
Wet ter
Wer bung</w>
Well en
Web site</w>
W ähl
W ahn
Vorstell ung,</w>
Vor aus
Vir en</w>
Verkehr s
Verhäl tnis</w>
Ver zwei
Ver wendung</w>
Ver lu
Unterneh mer</w>
Universum ,</w>
Tr ink
Tim es</w>
The y're</w>
Tex as,</w>
Teles kop
Te ams</w>
Tag es
TED -
T ön
T ö
T äusch
T renn
T radi
T on</w>
T hr
T atsächlich</w>
Sy mptome</w>
Stre et</w>
Sta at</w>
St reck
St ar</w>
Sp ort</w>
Sol daten</w>
Sol dat
Sie .",</w>
Schön heit</w>
Schwier igkeiten</w>
Schu he</w>
Schrift stell
Schat ten</w>
Sch ätz
Sauerst off
S il
S ein</w>
S M
Roll stu
Robo ter,</w>
Reak tionen</w>
Re de</w>
Rah men</w>
R ät
R olle
R itu
Qu ad
Proz ent.",</w>
Projek ten</w>
Poli zei
Po si
Pati ent</w>
Pas sag
Par tei
P ort
P en
Organis men</w>
O hi
O ber
No ti
No ,</w>
Neur on
Natur ,</w>
N ation</w>
N ase</w>
Mo de
Mittl eren</w>
Mittag essen</w>
Mis sion</w>
Mensch en.,</w>
Mechan is
Me dical</w>
Mar ke</w>
Mal aria</w>
Ma y</w>
M ig
M eilen</w>
M P
Länder n,</w>
Leon ardo</w>
Lehr er
Leben ser
Land wirtschaft</w>
Land es</w>
L atin</w>
L as
L ach
Kre uz
Kranken häus
Konflik te</w>
Kon tex
Kno chen
K äf
K lim
K la
Japan ese</w>
Jahrzehn t</w>
Jahr .",</w>
J une</w>
J es
J eff
J a
Is land</w>
Is lam
Investi tionen</w>
Indu strie</w>
Indi en,</w>
In v
Ide e.,</w>
Hy per
Hung er</w>
Ho sp
Her zin
Her angehens
Hei mat
Hau t
Har ry</w>
H ause
H andel
H als</w>
Glück ,</w>
Glau ben
Get rei
Ges t
Gel d
Gehirn s</w>
Geheim nisse</w>
Ge biete</w>
Ge ben</w>
G ute</w>
G lu
Frü hl
Freund in</w>
Fre un
Fra ge.,</w>
For m
Fol ie</w>
Fir st</w>
Fir ma,</w>
Fing er
Fil me</w>
Fel der</w>
Fe ed
F ör
F lag
F ei
Exper ten</w>
Ex tre
Europe ."</w>
Erwar tungen</w>
Erfahr ungen,</w>
Er de,</w>
Entfern ung</w>
Ent schuldig
Energi e,</w>
En kel
Emo tionen</w>
Elek tr
Ele mente</w>
Ein schränk
Ein satz</w>
Eig en
Effizi enz</w>
Ear th."</w>
E po
E hemann</w>
E C
Dy nam
Di enst
Detro it</w>
Det ail</w>
Det ail
Dem ocra
Dank e.,</w>
Da zu</w>
DNA -
DNA ,</w>
D re
Con tro
Col umbi
Chin esen</w>
Chemik alien</w>
Charak ter</w>
C ou
C ity,</w>
C anc
Buchstab en</w>
Bru st
Brita in</w>
Br ücke</w>
Bi olog
Bi bliothe
Bes uch
Ber kel
Ben jam
Beij ing</w>
B ek
B G:</w>
Aus sage</w>
Aus rüst
Arbei ten</w>
Ar ten
An weis
Alzhei mer</w>
Afrik an
A us</w>
A gen
9 /
3 D-
200 3,</w>
20 00,</w>
2 6</w>
2 3
19 .</w>
12 .</w>
1 1,</w>
1 000</w>
1 .</w>
. com
- like</w>
,H is</w>
,A re</w>
,000 -
,"Un fortunately,</w>
,"L ike,</w>
,"I s</w>
," Or
," J
," Com
, An
) .",</w>
(Applaus ),</w>
(Applaus )",</w>
( Video)</w>
( Music)</w>
' ,</w>
& lt;
& gt;
"Zwei tens,</w>
"Z wei</w>
"W äre</w>
"W as,</w>
"Selb st</w>
"S ol
"S obald</w>
"H aben</w>
"A ber,</w>
"( Video)</w>
"( Beifall)</w>
""W e
""O K,</w>
""L et's</w>
"" My</w>
"" Du</w>
" in</w>
über wäl
über tragen</w>
über qu
über all,</w>
ü gen</w>
äu ft</w>
är m
äl tere</w>
äh ne</w>
ß .,</w>
Über leben</w>
Öffent lichkeit</w>
Än der
zusätz lich</w>
zusetz en,</w>
zieh ung</w>
zieh t,</w>
zentr ale</w>
zeig te,</w>
z ine</w>
y s."</w>
y g
y et.</w>
y cle</w>
y ager</w>
wunderschön e</w>
worth y</w>
wor über</w>
wor se,</w>
wor ri
wor l
worl ds</w>
wom an,</w>
wo ke</w>
with ."</w>
wissenschaf ten</w>
wirk lich
winz igen</w>
wichtig .",</w>
wi ld</w>
wi e,</w>
wh al
wes enheit</w>
wer fen</w>
wer e,</w>
wel come</w>
wei t
we ’re</w>
we al
war ming</w>
wan t.</w>
wa ch</w>
w s."</w>
w ro
w ra
w o,</w>
vorstell en.,</w>
vor ne</w>
vor hin</w>
vor an
volunte ers</w>
vol um
virtu ellen</w>
virtu ally</w>
vill ages</w>
veröffentlich t</w>
versuch e,</w>
verstär kt</w>
verlor en,</w>
verbra cht</w>
verbess ert</w>
ver wund
ver stand</w>
ver si
ver se</w>
ver folgt</w>
ver arbeit
ve au</w>
vacc in
v enti
ust in</w>
us er</w>
us ?</w>
us .,</w>
ursprüng liche</w>
ur y</w>
up side</w>
up set</w>
up s</w>
up date</w>
unk en</w>
ungs -
ung ste
ung e</w>
under lying</w>
un known</w>
un erwar
un eh
un angeneh
um s,</w>
um ber</w>
um -
ul l</w>
uk lear
ub a</w>
u ß
u ,</w>
tä glich
tw ör
tu t,</w>
träg t,</w>
tru th,</w>
tru e.</w>
tro ver
tri g
tri ck</w>
tri als</w>
tri al</w>
tre as
travel ing</w>
trans late</w>
tra its</w>
tra ce</w>
tr ink
tr in
tr at</w>
tr as
tor ."</w>
to y</w>
to ilet</w>
tiv ely,</w>
tism us</w>
tisch ,</w>
tik er</w>
tig te</w>
tig keit
tier t.,</w>
tic ."</w>
ti ous</w>
thre ats</w>
thes is</w>
there ?"</w>
than ks</w>
tes ting</w>
tes ted</w>
ter t</w>
ter s."</w>
ter min
ten en</w>
ten ,",</w>
teles cop
tel n</w>
tel ,</w>
teil en,</w>
teil .,</w>
te i</w>
tack le</w>
t y-
t ie</w>
t ate</w>
t ank
t able."</w>
syn dro
swi m</w>
sud den,</w>
subjec ts</w>
su per</w>
su lin</w>
su gar</w>
stä blich</w>
studi erte</w>
struggl ing</w>
stron ger</w>
stor ies,</w>
ster ben
stei gt</w>
steck t</w>
ste pping</w>
stati c</w>
stat e,</w>
star ted,</w>
stand .,</w>
sta ys</w>
st er,</w>
st em</w>
st ein</w>
st eigen
st ation</w>
st able</w>
sprich t.",</w>
sprech en.,</w>
spr ing</w>
spec if
spe ech
sp here</w>
sorgfäl tig</w>
so- called</w>
sm ell
sk et
simul tane
sicht bar</w>
si v</w>
si ster</w>
si ster
si des</w>
sho cked</w>
sho ck</w>
shar k</w>
shap ed</w>
sha me</w>
separ ation</w>
sensor y</w>
sen ce</w>
selts ame</w>
selbst .,</w>
sein ?",</w>
seh e,</w>
secre t</w>
se ek</w>
sculp ture</w>
schütz en.",</w>
schö pf
school s,</w>
schließ lich,</w>
schi ff
schein t,</w>
schau en.",</w>
sch ol
sam ples</w>
sah .",</w>
sa ßen</w>
sa y."</w>
s outh</w>
s ell
s ?",</w>
rou tin
rop ha
rob ust</w>
ro ten</w>
ro cks</w>
ro bu
ris e,</w>
ri f
ri de</w>
resist ant</w>
res on
remo te</w>
rema ins</w>
relev ant</w>
rel ative</w>
rel ate</w>
rei fen</w>
rei cht</w>
reg ular</w>
reco ver</w>
rech nen</w>
rec ep
reas ons,</w>
real -
read y,</w>
re y</w>
re ti
re fer</w>
re ef
re bel
re action</w>
rap id</w>
ran k</w>
ran g</w>
radi ation</w>
ra ,</w>
r uns</w>
r en,</w>
r ated</w>
ques tion."</w>
pus hing</w>
punk t,</w>
punish ment</w>
pul ling</w>
pul led</w>
pu zz
psycholog ische</w>
proto typ
prote ction</w>
programm ing</w>
progra m
profession al</w>
pro sper
pro por
pro gr
pro crastin
priv ati
pris on</w>
princi ple</w>
princi p
pres s</w>
pres ented</w>
precis e</w>
pre vent
pre ch
pp el
pover ty,</w>
poli tisch</w>
poin ting</w>
po or,</w>
po etr
plat form</w>
plac es,</w>
pic ture.</w>
pha se</w>
perfek t</w>
perc eived</w>
per sist
pedi tion</w>
pe d."</w>
pe ace
pati ent
passion ate</w>
passier te,</w>
pass en.",</w>
partn er
particul ar,</w>
pain ."</w>
p ion
p end
out come</w>
ord net</w>
ord ent
oper ation</w>
oper ate</w>
opar dy
op am
on t
on om
on es
ol ,</w>
off enen</w>
objec tive</w>
ob stac
o t
o h</w>
normal en</w>
no thing."</w>
nich ts.",</w>
new s.</w>
nerv ous</w>
neg ativen</w>
ne ut</w>
ne ural</w>
ne ed,</w>
ne e
nation alen</w>
nach .,</w>
na ja,</w>
n ative</w>
mus ste.",</w>
mus e
multi -
mu g
mo on</w>
mo bil
mis s</w>
midd le-
microbi al</w>
mess en,</w>
merk sam</w>
mention ed</w>
meas ured</w>
mat ri
manage ment</w>
man if
man ag
man .</w>
mal es</w>
maga zin
mach ten,</w>
mach en.""",</w>
ma tic</w>
m um
m on</w>
lös en.",</w>
lö tzlich</w>
län ge</w>
lu stig
lu st
loc ation</w>
lo wer
ll ed</w>
liter ally,</w>
lit y</w>
lit t
lin ke</w>
lik e.</w>
ligh t.</w>
ligh t-
lif est
lie fer
lich ten</w>
lich keit.",</w>
li st
level ."</w>
le ver
le eren</w>
le ast,</w>
le :</w>
le 's</w>
lay ers</w>
lauf en.",</w>
lau gh</w>
lat er."</w>
lar gely</w>
langfrist ige</w>
lang e,</w>
landsc ape
land ed</w>
lan den</w>
la ying</w>
la st
kurz er</w>
kre ativ
komplex en</w>
knowled ge,</w>
klar .</w>
kl y,</w>
kl usi
kl ag
kid s.</w>
kid s."</w>
ke y,</w>
kam en.",</w>
k ten</w>
k s,</w>
k m
k ing
k ick</w>
k eln</w>
k a,</w>
judg ment</w>
job ."</w>
jen em</w>
jell y
j unk
j un
j i
izop hren
iz z
it ation</w>
ish a</w>
isch en,</w>
is st</w>
is m."</w>
ir k
inv ite</w>
internation ale</w>
interessier t,</w>
interes ts</w>
inter rup
inten sive</w>
intelligen te</w>
inspi riert</w>
ins ul
initi al</w>
ing iti
ing ?"</w>
informa tion.</w>
inf ant</w>
inclu des</w>
in fl
in ess</w>
in car
impro ving</w>
impro vem
immedi ate</w>
ima ge."</w>
il a</w>
ig .",</w>
ier ter</w>
id s,</w>
i onen</w>
i lie
i eso</w>
i ans</w>
i .</w>
i -
hö f
hung ry</w>
hung rig</w>
hous es</w>
hom o
hoch .,</w>
histor ical</w>
heu tige</w>
her e
help .</w>
heiß e</w>
health y,</w>
head ."</w>
has st</w>
has n't</w>
har dly</w>
happen ed.</w>
happ y."</w>
hand s,</w>
hand .</w>
hand ."</w>
ha m
h its</w>
h h
h emis
h aus,</w>
gä be</w>
gro ws</w>
green house</w>
grate ful</w>
gra ben</w>
gra b
gr ös
gr ass
glaub ten,</w>
gewor fen</w>
gew ann</w>
getra gen</w>
geteil t</w>
get an,</w>
gespiel t</w>
gesetz t.,</w>
geseh en.,</w>
geschrie ben,</w>
geschieh t</w>
gesch rit
gesam mel
ges tor
gerich tet</w>
ger in</w>
ger ei
ger ade
genau en</w>
genann t.",</w>
gen der,</w>
gemach t.",</w>
gel ehr
gegan gen,</w>
geb ung</w>
gearbeit et,</w>
ge o
ge grün
gangen en</w>
g riff
g ie</w>
fü tter
fundament ally</w>
fu el
fro m.</w>
frie den</w>
fra gen:</w>
four -
for th."</w>
for th,</w>
for men,</w>
for est
fol gen
flower s</w>
fli p</w>
fl ung</w>
fir st.</w>
fing er</w>
find et.",</w>
figur es</w>
fic tion</w>
ferti liz
fer nen</w>
fel low</w>
feed ing</w>
fe .,</w>
famil y."</w>
fabul ous</w>
fa ther,</w>
fa ith
f ingen</w>
f ern,</w>
ey es.</w>
ey es,</w>
exist ieren</w>
evol ution."</w>
ev al
eu ch
et h</w>
es ti
es ter</w>
es sion</w>
erzähl en.,</w>
erwar ten</w>
erstaun lich</w>
erle bt</w>
erlau ben,</w>
erk rank
erinn ert</w>
erfolgreich er</w>
er wachsen
er ten</w>
er schaffen,</w>
er mor
er f
er b
entschie den,</w>
enti al</w>
enter tain
enter ed</w>
enor m</w>
eng ines</w>
end ung</w>
end sten</w>
enc ed</w>
en ters</w>
en forc
en counter
en ager</w>
emp ha
em inist
em en</w>
em and</w>
ele gan
el y."</w>
einander ,</w>
ei ther."</w>
eff or
ed ing</w>
earth qu
ear n</w>
e ber
e .""",</w>
e "",</w>
dynam ic</w>
dunkl en</w>
dunk le</w>
dru ck,</w>
dri vers</w>
dri ver</w>
dri ver
drei mal</w>
dre hen</w>
drau ßen,</w>
dra wn</w>
dr än
dr auf</w>
dou bt</w>
don ’t</w>
domes tic</w>
dollar s."</w>
docum ent
do ors</w>
do ?"</w>
do -
dist ingu
digit ale</w>
differ ently</w>
diagno st
di agra
destru ction</w>
deser ve</w>
der t</w>
der -
den selben</w>
den se</w>
democra tic</w>
del iver
def ic
dec ad
de fe
daugh ter,</w>
dat a."</w>
dam it
d ding</w>
cris is,</w>
cra ck</w>
coun t</w>
cor tex
cool ,</w>
conver t</w>
controll ed</w>
contribu te</w>
continu ed</w>
contin ent</w>
consist ent</w>
consci ous</w>
concern ed</w>
con vey</w>
con ference</w>
computer s,</w>
comb ine</w>
com fort</w>
col d,</w>
co st
co sm
co ok</w>
co cc
co al</w>
clos ed</w>
clo th
clo ck</w>
clim b</w>
cl ub
cl oud</w>
cir cul
childr en.</w>
character ist
ch ap
car e."</w>
car .</w>
c y.</w>
c ity.</w>
c is</w>
c e-
but ton
bud get
buch stäblich</w>
bu ying</w>
brea thing</w>
brea the</w>
brach te.",</w>
br ut
bor n."</w>
bor n,</w>
bo ten</w>
bl auen</w>
biet et</w>
betrach tet,</w>
beton en,</w>
bess erung</w>
beschrei ben</w>
besch wer
besch ränk
bes org
berich ten,</w>
benutz ten</w>
benutz t.",</w>
belie ving</w>
bel ast
beit ra
beinah e</w>
bein g,</w>
behandel n,</w>
beh inder
beeinflus sen</w>
bed ürf
bed ing
be kommen.,</w>
be komme</w>
be grü
be ar
bar er</w>
bar .</w>
b lie
b age</w>
b ad
ax is</w>
awes ome</w>
avail able,</w>
autonom ous</w>
auth ority</w>
aus sieht.",</w>
auf merksam</w>
au ßen</w>
au to
attemp t</w>
at ori
at or,</w>
at ing.</w>
astrop he</w>
ass ung</w>
as sem
as ide</w>
arti stic</w>
arti st,</w>
arbei ten.</w>
ar rang
ar m,</w>
appropri ate</w>
ape u
ap ple</w>
ap pl
ap it
any more.</w>
any more,</w>
anspruch s
anim als,</w>
ange mess
ang s
ander en.,</w>
and au
analo g</w>
an sehen</w>
an en</w>
an da,</w>
an da
alle .",</w>
all -
alis m,</w>
alis iert</w>
ali ties</w>
al t.,</w>
al ity,</w>
al en,</w>
al em</w>
aktu ellen</w>
ak ust
ak tive</w>
air ."</w>
ain 't</w>
agri cultural</w>
ad ol
ad ded</w>
accoun t
ac tion."</w>
ac ting</w>
abilit ät</w>
ab sence</w>
