#version: 0.2
t h
e r
e n
i n
a n
e s
a r
c o
q u
o s</w>
a l
o r
t i
a s</w>
r e
t e
t o</w>
th e</w>
qu e</w>
d e</w>
o u
o n
c i
, "
i s</w>
d e
c a
o s
" ,</w>
i s
o n</w>
u n
i t
a s
. "</w>
a t</w>
t r
d o</w>
l e
. ",</w>
e n</w>
in g</w>
a m
s e
o f</w>
an d</w>
r o
d i
en t
a c
m e
. ,</w>
a b
p o
a t
l i
i n</w>
u s
o u</w>
th at</w>
es t
a n</w>
a r</w>
e r</w>
co m
o r</w>
p ar
e s</w>
w h
a d
t o
u r
co n
h a
" "
s o
v e</w>
p er
l o
i d
n o
u n</w>
m o
m a
p e
u l
i l
c h
b e
p ro
i c
l y</w>
th e
i r
l e</w>
un h
s e</w>
s t
v er
' s</w>
unh a</w>
ci ó
t er
i m
p r
e x
w e</w>
a l</w>
d a</w>
e d</w>
y ou</w>
e l
n d</w>
m e</w>
d o
r a
in g
e c
T h
s i
n on</w>
s ,</w>
e m
g h
a ,</w>
o l
A nd</w>
i t</w>
e ,</w>
par a</w>
a g
r i
ent e</w>
th is</w>
ar e</w>
o p
er e</w>
n e
f or
d es
u t</w>
ou t</w>
o ,</w>
ou r</w>
d a
í a</w>
p a
f or</w>
m á
ti on
t e</w>
s a
c an
r e</w>
ha ve</w>
s u
h o
p l
am os</w>
k e</w>
n o</w>
y ,</w>
a u
g o
p re
ció n</w>
f i
te s</w>
v i
w as</w>
p or
r es
s o</w>
m an
t a
m i
g u
m os</w>
ti v
b e</w>
es ,</w>
b i
d os</w>
en t</w>
w or
it h</w>
- -</w>
al ly</w>
f ac
má is</w>
is t
ca n</w>
w ith</w>
the y</w>
f er
' t</w>
m or
v e
es e</w>
com o</w>
ció n
," And</w>
id a
on e</w>
d er
p en
b o
al l</w>
de s</w>
t u
g r
g e
te r</w>
ti on</w>
os ,</w>
f e
l d</w>
po r</w>
S o</w>
ab out</w>
p os
g o</w>
le s</w>
er e
no t</w>
b r
te d</w>
c e
wh at</w>
v er</w>
al l
c re
, Th
m en
e ar
c l
w a
n a</w>
us e</w>
c u
m y</w>
s h
i r</w>
" P
c ar
m ent
c e</w>
pe op
ó n
te m
co r
w e
t an
er o</w>
ó n</w>
d ,</w>
th er</w>
," I
," Th
s on</w>
d is
' re</w>
l l
u s</w>
n os
co n</w>
n os</w>
en ci
f ro
pr es
us t</w>
s ."</w>
d u
pro b
t a</w>
ver y</w>
e v
m in
ti c
fro m</w>
a o</w>
y ou
tr a
n i
gh t</w>
li ke</w>
t ,</w>
" E</w>
b ut</w>
ar i
f o
m os
d as</w>
as ,</w>
an do</w>
," W
s en
a .",</w>
t ur
l u
i x
peop le</w>
, And</w>
ñ a</w>
B ut</w>
j ust</w>
t s</w>
y our</w>
ou ld</w>
ou tr
. ""
h e
ca use</w>
po l
m un
k no
m es
il l
t am
h u
i f</w>
o m
i z
te ,</w>
é n</w>
c ul
p i
" E
l a
th ese</w>
s .</w>
me di
ho w</w>
m ente</w>
th ing</w>
em os</w>
c o</w>
it 's</w>
u d
d s</w>
th at
er a</w>
can do</w>
c al
f in
wh en</w>
k ing</w>
po de
o b
p as
" A
in ter
c r
a .,</w>
or i
h e</w>
th in
i ma
i de
the ir</w>
os e</w>
tr i
l l</w>
I '
s ú
ca l</w>
c h</w>
est e</w>
b y</w>
f ec
per o</w>
s er
te n</w>
m a</w>
el l
mor e</w>
i to</w>
at e</w>
so me
mo i</w>
y ."</w>
p o</w>
be cause</w>
a p
, W
lo o
gh ter
o .",</w>
x e
ida de</w>
com p
m on
co s</w>
L au
di f
( Lau
est a</w>
so b
co l
(Lau ghter
wh o</w>
(Laughter )</w>
," So</w>
f u
ab a</w>
is ,</w>
ha d</w>
v ol
t en
ha i</w>
b ra
í n
per so
g i
d on
N o
d en
s tr
n 't</w>
ge t</w>
ci on
go ing</w>
a i</w>
t os</w>
re al
? ,</w>
w ould</w>
th ing
as e</w>
."" "</w>
t al
b er
ad a</w>
w ere</w>
an t</w>
x i
se r</w>
a ción</w>
ca m
y ear
b ac
f r
il l</w>
a is</w>
th er
im p
co me
w ,</w>
o .,</w>
g ra
a do</w>
t 's</w>
o ther</w>
h i
v id
ic h</w>
s ab
N on</w>
c er
f un
de r</w>
os .",</w>
k e
g e</w>
x en
sob re</w>
se l
re ally</w>
c ur
it y</w>
os .,</w>
m ar
x ente</w>
ou s</w>
( R
pr i
im por
ac tu
d ."</w>
th ere</w>
am e</w>
es s</w>
u p</w>
thin k</w>
f al
est á</w>
" C
(R is
prob le
an te</w>
t re
" S
ic a</w>
co us
p h
da de</w>
fac er</w>
ción s</w>
t ar
en tr
se e</w>
por que</w>
en to</w>
co ul
m o</w>
g un
á n</w>
t ing</w>
s ó</w>
ha p
o f
wh ich</w>
p u
t h</w>
e ."</w>
in to</w>
g en
ex per
s t</w>
al g
v is
g h</w>
as .",</w>
z a</w>
ad os</w>
c a</w>
a x
. .
t w
the m</w>
te ñ
s y
h as</w>
l le</w>
s ti
to do</w>
d í
ch an
w n</w>
so ci
y .</w>
f ir
s í</w>
0 0</w>
b u
es t</w>
d r
kno w</w>
E st
impor tan
, So</w>
pen s
m ul
ab le</w>
me ll
tr ab
don 't</w>
t or
ing ,</w>
x a</w>
w ill</w>
, I
? "</w>
c ri
c ere
a v
so me</w>
s pe
pl a
ci en
enci a</w>
coul d</w>
or a</w>
con tr
a tion
no v
al ,</w>
wh ere</w>
m u
hu man
sú a</w>
le ,</w>
mo it
? ",</w>
st ar
," But</w>
l les</w>
g a
ou nd</w>
a qu
en ,</w>
c in
" "</w>
ch e
le c
at a</w>
dif fer
ou n
th en</w>
," I</w>
te c
i li
Q u
to ,</w>
wa y</w>
ma ke</w>
do ,</w>
l on
a f
l it
is to</w>
mi ña</w>
I' m</w>
o d</w>
s in
es ti
that 's</w>
pr en
ir a</w>
e .</w>
m at
al go</w>
re c
an os</w>
mos t</w>
de ,</w>
ón s</w>
" D
m er
es ."</w>
an s
se gu
se u</w>
le d</w>
as .,</w>
w ant</w>
an d
Y ou</w>
ti me
ou gh</w>
an t
b as
a d</w>
m an</w>
e u</w>
pos i
ere 's</w>
f am
á s</w>
i g
be en</w>
po de</w>
c es
, I</w>
e y</w>
th ose</w>
di ci
h ist
on ,</w>
e t
fo i</w>
it e</w>
e l</w>
tam én</w>
á n
k s</w>
actu ally</w>
th an</w>
me u</w>
p on
k ed</w>
cam bi
con s
( A
ch o
P ero</w>
in v
v ir
u m
g re
k in
s ur
pri me
al so</w>
," No
to dos</w>
ú n
ti ve</w>
trab all
b le</w>
as )</w>
qu e
d ur
y s</w>
tw o</w>
t an</w>
e f
le v
u p
ou r
h is</w>
d .</w>
com e</w>
s te
or es</w>
ev en</w>
de ci
ne ed</w>
ca da</w>
ti me</w>
t ."</w>
es .</w>
os )</w>
te mos</w>
lo g
," S
ag e</w>
es pe
a os</w>
is o</w>
con t
ó s</w>
u se
,"Th e</w>
l an
com a</w>
," A
r on
er ,</w>
(Ris as)</w>
y ing</w>
" A</w>
on ly</w>
un i
be t
mun do</w>
? ""
the m
, But</w>
str u
re s</w>
n en
,Th e</w>
tion s</w>
le ar
fir st</w>
cere br
' ve</w>
g ar</w>
on de</w>
ing u
bo d
d un</w>
k ,</w>
ac h
,W e</w>
" O</w>
m al
g ar
a tion</w>
f a
," (Laughter)</w>
ra z
pro du
n ec
at 's</w>
x o
teñ en</w>
ve z</w>
v en
s imp
est án</w>
ch am
de d</w>
ca r</w>
s is
po der
some thing</w>
ir o</w>
g ni
di fer
year s</w>
an tes</w>
,"W e</w>
qu er
es .",</w>
é n
v os</w>
thing s</w>
ca s
y 're</w>
m ent</w>
t le</w>
s or
ne w</w>
x er
ent s</w>
sh e</w>
re la
hist ori
" N
pre gun
mu ch</w>
x e</w>
tr ans
p ou
man y</w>
ide a</w>
th r
g an
en ce</w>
co un
th ou
perso as</w>
"" .",</w>
un der
res pon
loo k</w>
h at</w>
you 're</w>
w i
e ver
ín da</w>
v o
v ing</w>
pode mos</w>
n or
ma i
am ente</w>
d n't</w>
bra in</w>
t as</w>
in e</w>
a ción
g ur
es .,</w>
b a
er s</w>
co ñ
ver s
ter i
c en
"P ero</w>
s on
n un</w>
o ver</w>
comp le
co a</w>
ce p
for ma
differ ent</w>
é s</w>
we 're</w>
pre ci
i d</w>
an ti
,"I n</w>
ta ke</w>
pol o</w>
f ic
cous as</w>
U n
í an</w>
n as</w>
O s</w>
t y</w>
sen ti
il li
v al
j ec
wor l
e very</w>
v es</w>
est as</w>
bac k</w>
ac h</w>
s ame</w>
as t</w>
," O
b ro
r a</w>
mo ito</w>
s en</w>
lit tle</w>
es a</w>
an y</w>
li f
be ing</w>
lo ,</w>
t .</w>
.. .</w>
m ic
" T
s p
pl an
im os</w>
id ,</w>
su b
a z
qu en
ever y
ch il
tion ,</w>
h er
m is
u ro
en ti
ell ,</w>
d ía</w>
th re
n unha</w>
mes mo</w>
ar ,</w>
x ec
no w</w>
come z
nos o</w>
fi ci
b li
go t</w>
se ,</w>
pode n</w>
entr e</w>
i ón</w>
hap pen
al i
it s</w>
C h
wor k</w>
tr u
tr at
exper i
ti c</w>
h el
d re
he al
men to</w>
am p
v en</w>
r is
d unha</w>
am ent
ac tiv
m é
"S e</w>
thr ough</w>
de l
I s
te .",</w>
I n
pe c
nos a</w>
as í</w>
, H
es tes</w>
qu i
par ec
proble m
est aba</w>
ón ,</w>
pl ac
at ur
me an
d ous</w>
b er</w>
v os
po is</w>
fi x
t ar</w>
l ar
c é
b re
h er</w>
gr an
da y</w>
A sí</w>
the y're</w>
outr a</w>
on s</w>
h ab
s an
a índa</w>
a pren
wor ld</w>
for ma</w>
e du
e as
,"No w,</w>
ñ o</w>
it ,</w>
P o
o l</w>
sa id,</w>
it u
co ur
par te</w>
er i
2 0
tr o</w>
st or
bod y</w>
sis tem
s .",</w>
ing ."</w>
in cl
st ud
qu e,</w>
lo t</w>
l is
fi ca
di d</w>
ri ght</w>
h ere</w>
e p
e mo
b en
se us</w>
se s</w>
th ere's</w>
ne ur
me ,</w>
in di
in ,</w>
"A sí</w>
s ho
g a</w>
fr on
," H
res ul
l y,</w>
pol a</w>
cerebr o</w>
im ent
es co
en fer
e d
d ist
s cien
f ri
par ti
fam ili
cal led</w>
tiv o</w>
lo w
kin d</w>
en tes</w>
vid a</w>
h ear
an ci
," ,</w>
c ent
nec es
le r</w>
0 00</w>
w ar
,Th is</w>
p al
li m
espe ci
d in
."" ",</w>
pa ci
edu ca
ve lo
go od</w>
v ed</w>
pa ti
fu l</w>
b en</w>
í n</w>
te .,</w>
"E st
m ill
em p
e t</w>
c es</w>
ú n</w>
p ul
ca ,</w>
m as
mo l
ti s
b us
coñ ec
an y
ad as</w>
wi th
ar ound</w>
ar a</w>
ab an</w>
under st
te ll</w>
or ,</w>
in forma
h or
all y,</w>
,I t's</w>
hu man</w>
co ,</w>
Is to</w>
,"I f</w>
x in
d ing</w>
al iz
ti po</w>
po ñ
b or
to m
s .,</w>
qu es
mi ght</w>
f ul
a m</w>
a .</w>
E n
p ic
lo x
in t
, (Laughter)</w>
b le
at ing</w>
pe quen
ing .</w>
h ar
H ai</w>
so lu
n ing</w>
tr y</w>
sú as</w>
l er
d ar
ag a
ab or
tem po</w>
l ingu
b o</w>
tur e</w>
for m
da de
qu era</w>
ida de
es per
ca me</w>
b ar
ag ora</w>
ri gh
o k</w>
bi o
di c
,"I t</w>
vis i
se x
om o</w>
fun cion
aqu í</w>
Qu e</w>
n ed</w>
1 9
ima g
,I t</w>
pro f
lan gu
ent en
,"W h
tr o
in te
bac teri
" M
pl au
dur ante</w>
ca se</w>
r an
pou co</w>
pla us
af ter</w>
si gni
n a
v ec
ti ña</w>
i c</w>
est amos</w>
do .",</w>
un s</w>
th is
sh ould</w>
g g
des pois</w>
d at
chan ge</w>
inv esti
d ú
ar on</w>
," "</w>
li ca
ab le
a te
el a</w>
B e
?"" "</w>
t or</w>
ic o</w>
g lo
a ca
re ci
pres ent
min u
it o,</w>
t ly</w>
ex ac
e i</w>
bu il
," You</w>
pa í
p ut</w>
ca p
(A p
á r
sa y</w>
thre e</w>
l ul
en g
el l</w>
e con
di x
de velo
an o</w>
est ar</w>
ou s
or gan
ma is</w>
m ir
f í
plau se
des en
c e,</w>
(Ris os)</w>
(Ap plause
"P or</w>
it ."</w>
me s</w>
l in
fin d</w>
di dn't</w>
con ver
c ent</w>
at op
me m
wh y</w>
unh as</w>
o ther
k es</w>
ida des</w>
(Applause )</w>
" Non</w>
su per
sistem a</w>
s im
re d</w>
gi ve</w>
enfer m
ar ti
te x
ci r
te ch
si de</w>
po w
es tr
al s</w>
t in
T o
,"Th is</w>
pro ces
mé di
de n</w>
de ix
y e
po li
id a</w>
," F
p un
in ci
cre a
ú l
z as</w>
xe ito</w>
wa ys</w>
men te,</w>
gr am
(A plaus
sel f</w>
v em
n ós</w>
lif e</w>
do ing</w>
ción ,</w>
ca us
í ,</w>
si on
qu en</w>
inter es
i ,</w>
d ar</w>
be for
al mente</w>
z o</w>
mell or</w>
ma de</w>
dici r</w>
cé lul
cl as
al gu
t un
nos os</w>
e lec
do wn</w>
com mun
si on</w>
n ex
mul ler
moit os</w>
w an
s to
h a</w>
est ud
se gun
men os</w>
ic e</w>
tre s</w>
spe ci
per cent</w>
o wn</w>
l ess</w>
can 't</w>
to ge
p at
in cre
dr u
de pres
c ell
am ento</w>
"C ando</w>
ún s</w>
outr os</w>
, S
vi v
v ai</w>
e ach</w>
wh o
po in
n es
e i
al .",</w>
f re
dici r
de ber
D e
1 0</w>
úl ti
sti ll</w>
ba ix
,Th ey</w>
wor k
re al</w>
r os
pal ab
outr o</w>
do es
d or</w>
c ó
so l
s tem
con stru
be li
con di
v ari
to das</w>
star t</w>
mill óns</w>
in f
est u
"" W
" B
v el
use d</w>
soci al</w>
sel f
g ro
en er
an os,</w>
ad or
star ted</w>
n um
an ,</w>
t al</w>
s al
par t</w>
nex t</w>
fe w</w>
ch ar
w om
prof es
ne ver</w>
i ca
do .,</w>
cal quera</w>
in a</w>
ex amp
" (Risas)</w>
us o</w>
ol d</w>
desen vol
that ,</w>
se m
re ad
pro pi
lu gar</w>
ent í
Un ha</w>
real mente</w>
g n
ar y</w>
" É</w>
il y</w>
il e</w>
fal ar</w>
cons ci
w n
tic a</w>
mo ment
ida de,</w>
i es</w>
does n't</w>
un ca</w>
sy stem
se e
f ill
di rec
b l
sa y,</w>
mos tr
en do</w>
algu én</w>
l a</w>
ex p
pe d</w>
en d</w>
R e
w at
n on
illi on</w>
' ll</w>
í as</w>
w s</w>
tec no
in i
an ima
U n</w>
,"I t's</w>
pr e</w>
chan g
I' ve</w>
,"Wh en</w>
x un
perso a</w>
da y,</w>
c us
ph y
ou t
n ó
mic ro
glo b
e fec
dú as</w>
A mer
,"Th ey</w>
tem po
st u
preci s
o .</w>
is to
gr an</w>
nen os</w>
des cu
bet we
time s</w>
tech no
t ting</w>
it a</w>
importan t</w>
fe el</w>
tal k</w>
t ú
ser v
n er
come s</w>
al .,</w>
A l
tam ente</w>
s cho
hap p
f ai</w>
ari o</w>
tion ."</w>
su p
it .</w>
h ,</w>
a cións</w>
sen ón</w>
histori a</w>
b ab
y be</w>
t y
n in</w>
bra in
s itu
or ía</w>
w as
vid u
traball o</w>
lo w</w>
w ent</w>
prime ira</w>
o w</w>
moit as</w>
f ica</w>
st a
indi vidu
in fec
id enti
e p</w>
ch e</w>
betwe en</w>
ar e
?"" ",</w>
p e</w>
nos as</w>
n atur
lon g
,"W ell,</w>
t á
se con
re ,</w>
f ound</w>
en te,</w>
ef fec
col le
car a</w>
bi g</w>
a ted</w>
,W hat</w>
, You</w>
"E n</w>
time ,</w>
sa ú
vec es</w>
outr as</w>
ho me</w>
g ora</w>
f il
am os
n e</w>
k id
spe a
g us
ev ol
do es</w>
a des</w>
us i
ti ca
prob ab
per son
ment al</w>
l ist
d é
an other</w>
ir os</w>
heal th</w>
ax ud
w al
underst and</w>
l ast</w>
es es</w>
ad ul
E uro
we 've</w>
tic o</w>
sti tu
se gur
prime iro</w>
p it
de mos</w>
ci entí
re as
ol l
n ing
da des</w>
b an
ax e</w>
L e
ti es</w>
par tic
ex emp
er ci
be g
par t
li fe
ad or</w>
D N
(Aplaus os)</w>
w r
vi de
se d</w>
P or</w>
5 0</w>
us ,</w>
tecno lox
pu bli
proble ma</w>
le t</w>
de pen
ci d
U ni
pro gram
pos si
pens ar</w>
ou se</w>
kno w,</w>
h os
sh i
ob xec
hel p</w>
e ver</w>
i a</w>
e y
di ag
c li
c le
ar .",</w>
a is
A n
," M
s m
j o
t on
qu ero</w>
ma y</w>
e le
de fin
c are</w>
c all</w>
E s
r en
n unca</w>
n s</w>
f on
est ou</w>
befor e</w>
at en
res pos
re cor
p ing</w>
alg úns</w>
a is,</w>
"P o
m y
dis eas
den de</w>
at ori
2 0</w>
we e
ve l</w>
s ing
res ear
mo le
it y,</w>
gen er
esco it
ac k</w>
ro ,</w>
me us</w>
me mor
exper iment
c un</w>
bet ter</w>
ó x
p s</w>
o ver
o c
lo go</w>
b al
- -
th ere
pr inci
pol í
o me
il ity</w>
de tec
com un
alg ún</w>
3 0</w>
l es
cont in
can c
c entr
as k</w>
neur on
k e,</w>
fe el
comp u
ad ores</w>
í r</w>
v ida
ti st
te des</w>
so ,</w>
f as
,"S o,</w>
te ll
ste m</w>
n u
ma l</w>
es as</w>
cul tur
ca paci
ad o,</w>
w on
tra v
s how</w>
r á
produ c
lon g</w>
in e
Be cause</w>
, M
é cul
log y</w>
it os</w>
con segu
"E n
peop le
mat eri
en d
0 0
" ",</w>
real iz
per son</w>
o cor
lo gi
f ol
difer en
v í
le g
i gu
i amos</w>
to o</w>
se man
pro te
partic ul
importan te</w>
ima xin
f is
f ar
e ñ
at u
a tr
, O
ti cal</w>
thou ght</w>
lo ve</w>
gre at</w>
e ve</w>
," T
sa id</w>
mo mento</w>
medi ca
li ve</w>
l o</w>
com pa
w ing</w>
th ,</w>
pode r</w>
p os</w>
or que</w>
es cri
e 's</w>
d an
ce ."</w>
ca mi
ac t</w>
A s</w>
, 000</w>
s ent
in ten
f ó
cere bro
" Os</w>
wan ted</w>
ne e
li br
langu ag
fe ito,</w>
fac er
c k
an k</w>
to ld</w>
ser i
l at
d ro
aga in
n ú
medi cin
gr ou
es col
contr ol
con f
al ways</w>
vi ol
su ch</w>
p ó
com par
wa y,</w>
muller es</w>
mell or
loo king</w>
h al
c unha</w>
to ok</w>
to .",</w>
ter min
sem pre</w>
of f</w>
co gni
cien tes</w>
C omo</w>
" V
r u
pr is
phy si
mai oría</w>
li gh
n este</w>
em pres
e qui
deci si
d ou
b ri
b it</w>
w o
te ly</w>
mean s</w>
exemp lo,</w>
er an</w>
cous a</w>
bre a
ar se</w>
C on
"D e</w>
ñ as</w>
tiv a</w>
tion al</w>
re f
ra p
p er</w>
ne uro
to da</w>
t est
ou l
organ iz
hi m</w>
g or
célul as</w>
cour se,</w>
,"H e</w>
í ci
tion .</w>
teñ o</w>
t s,</w>
se xa</w>
num ber</w>
m us
i v
e d,</w>
contr ol</w>
b est</w>
P ar
M ar
you ,</w>
t ó
sy stem</w>
stor y</w>
hi gh
f av
b on
au tis
uni vers
tú a</w>
ti co
te l
p es
m s</w>
I so</w>
' d</w>
wh at's</w>
w ell
t os,</w>
o cu
co ver
che g
as .</w>
í a,</w>
simp le
se i</w>
s ic
re mem
raz ón</w>
n ess</w>
n am
n ada</w>
int ent
ca be
b ur
with out</w>
re du
pr im
p an
mai or</w>
ma ybe</w>
m it
g er
e les</w>
cambi ar</w>
trab al
t ón</w>
t í
some one</w>
re g
medi cal</w>
man e
ma ,</w>
m in</w>
h an
fun d
evol u
d us
be b
" F
z e</w>
re fu
plac e</w>
m id
l os
f t</w>
er r
em pre
ación ,</w>
,Th at's</w>
ta in
for m</w>
ex erci
dist in
c ess</w>
ar ía</w>
ac e</w>
a di
T E
th is,</w>
k ."</w>
id er
glob al</w>
do c
c k</w>
an im
a :</w>
vir on
ti l</w>
s k
proble m</w>
heal th
dif íci
des ,</w>
d este</w>
beli eve</w>
ation s</w>
an ce</w>
Est e</w>
,"F or</w>
o g
mo del
ment res</w>
l í
ide as</w>
de v
G o
"B en,</w>
us ing</w>
real idade</w>
re ac
palab r
mon os</w>
i gh
b ir
b a</w>
Th e</w>
wom en</w>
tiv os</w>
thou gh
tan to</w>
p ir
o me</w>
lear n</w>
i o</w>
gr u
fu tu
ent ,</w>
em pe
ción .",</w>
be come</w>
tri bu
trav és</w>
su pos
ho xe</w>
h un
f ag
el o</w>
ad o
ye ar</w>
y s,</w>
ther ,</w>
simp le</w>
ma king</w>
ist a</w>
ing s</w>
dí n</w>
di r
cl ar
No w</w>
, A
"P ara</w>
poder ía</w>
parec e</w>
p sy
li ght</w>
hos pit
ge tting</w>
d ri
con du
b ol
au to
au di
Est a</w>
,"No w</w>
ta .",</w>
i o
e qu
do ll
diag nos
can to</w>
who le</w>
wh e
sur e</w>
saú de</w>
s i</w>
pun to</w>
pre t
mo ,</w>
li x
en viron
des cri
da de,</w>
d one</w>
c ed</w>
ation ,</w>
vi r</w>
tr ying</w>
to .,</w>
po pul
mon th
lo .",</w>
investi g
an z
a ve</w>
z ,</w>
x es</w>
them ,</w>
ta in</w>
s ing</w>
l abor
in st
h y
g am
," B
vol u
u al</w>
ti ñ
read y</w>
per fec
on g</w>
en sin
e w</w>
dre n</w>
ad a,</w>
"" S
worl d,</w>
v emos</w>
t é
sab emos</w>
poin t</w>
p ú
p ag
mul ti
me ta
m ,</w>
kno w
idade .",</w>
ex is
com ing</w>
as ked</w>
tic as</w>
sing le</w>
fi gur
e ci
difer entes</w>
cr u
wor king</w>
ur e</w>
or s</w>
o per
mo ve</w>
ment os</w>
it y."</w>
informa ción</w>
gran des</w>
ev id
er ."</w>
a i
," E
" O
xe it
secon d</w>
pro tec
os o</w>
mes ma</w>
li ke
ir e</w>
ir as</w>
ex ist
dru g
descu br
dat os</w>
d ata</w>
co as</w>
b en,</w>
an s</w>
E u</w>
wh ile</w>
tan te</w>
probab ly</w>
m il
lo .,</w>
is e</w>
fe li
f our</w>
des de</w>
cell s</w>
am bi
you .</w>
t ab
t a,</w>
res ist
pro xec
mol écul
m ero</w>
des e</w>
at o
a ."</w>
x us
te ach
t as
sel ves</w>
ma kes</w>
f an</w>
enci as</w>
enci a,</w>
,"W hat</w>
v ac
soci e
o x
incl uso</w>
i on
c á
bi r</w>
ar .,</w>
0 ,</w>
ñ e
v an</w>
tic s</w>
te u</w>
ra ci
peop le,</w>
p a</w>
medi o</w>
m ac
cre ar</w>
coun tri
chil dren</w>
Y ou
," ""
v e,</w>
spe c
pr ac
pen so</w>
pati ents</w>
ou gh
or y</w>
nov o</w>
m p
i l</w>
ex pl
es pa
contin u
ch es</w>
can cer
ac ros
stud y</w>
so mos</w>
righ t
kid s</w>
i >
fo o
ent ón</w>
e u
ción .,</w>
be ha
" Hai</w>
segu in
pro jec
pret ty</w>
pa cientes</w>
ou t,</w>
os .</w>
con nec
ca tro</w>
ac es</w>
P e
z os</w>
w ron
ti r
segun do</w>
ro o
pow er
on e,</w>
ic k
he ad
he 's</w>
fac t,</w>
fac e</w>
de termin
de ca
bi li
alg unhas</w>
ó xi
thin king</w>
mi les</w>
contr a</w>
ver dade
se c
ne ga
fe ito</w>
bo a</w>
acros s</w>
ab solu
1 00</w>
" (Risos)</w>
wa ter</w>
ver ,</w>
them ."</w>
ser ía</w>
scho ol
no w,</w>
le m
in dus
exac tly</w>
dicir ,</w>
con cep
cientí fi
M o
20 0
xo g
me d</w>
m ú
hab ía</w>
h im
fi c</w>
ex tra
ec e</w>
ar s</w>
am én</w>
é x
you r
toge ther</w>
ta .,</w>
sim il
sab er</w>
lu gar
f en
en or
e -
der e
d ó
ci dade</w>
beha vi
al most</w>
te i</w>
st re
problem as</w>
pe di
of ten</w>
ob serv
experi en
em ento</w>
con su
b ad</w>
ap p
a w
a par
year s,</w>
su c
ra di
p ur
m en</w>
h op
h ere
f em
bo o
b in
all ,</w>
En g
1 5</w>
á b
tion s,</w>
ter s</w>
pú bli
mo vem
ment s</w>
langu age</w>
ho mes</w>
examp le,</w>
ca so</w>
ans w
an al
tur a</w>
tal king</w>
signi fica</w>
po do</w>
m illion</w>
gran de</w>
ex em
espe c
enten der</w>
cre o</w>
c ha
bo th</w>
at ten
sm all</w>
respos ta</w>
qu iz
p ar</w>
im e</w>
ha ving</w>
g ir
ex pres
e ly</w>
ari os</w>
an a</w>
Qu ero</w>
C an
"" ",</w>
tre at
pre par
lit er
ge ts</w>
g al
exem pl
e des</w>
cor po</w>
b il
ar re
am ente,</w>
é ,</w>
you n
w ell</w>
v ou</w>
it ar</w>
hi gh</w>
happen s</w>
ex pec
co s,</w>
as e
a po
qu ite</w>
lu z</w>
inter est
can cr
at h</w>
"C omo</w>
"" O
us ar</w>
t est</w>
ste ad</w>
s il
re present
ex tre
d ra
co .",</w>
c y</w>
bas tante</w>
baix o</w>
and ing</w>
á ron
x u
ver n
po día</w>
po des</w>
mun do,</w>
logi cal</w>
in o</w>
hear t</w>
expl or
de mo
cor rec
canc er</w>
be au
"A s</w>
v an
tra di
s os</w>
resul t
qu í</w>
po t
pe ti
parti ci
is to,</w>
in cri
for on</w>
den tro</w>
con v
comp an
co ll
al iment
" Unha</w>
ter ,</w>
techno logy</w>
ob jec
no thing</w>
ingu én</w>
incl u
in stitu
i ci
gru po</w>
experi ence</w>
cre ate</w>
buil d</w>
ad os,</w>
a con
L o
A gora</w>
"N o</w>
z ar</w>
with in</w>
tecnolox ía</w>
no w
is h</w>
des ig
b les</w>
al .</w>
G :</w>
Ch in
( M
uni ver
plan e
nor mal
in side</w>
every thing</w>
cons ider
anima l</w>
am ig
P ro
P en
ti ci
si ca
s ica</w>
pre ocu
p si
on ce</w>
nú mero</w>
mi c</w>
m as</w>
l as
it ing</w>
is .",</w>
har d</w>
fi ve</w>
en ough</w>
e pi
dó lar
d esta</w>
com por
capaci dade</w>
b lo
ag or
Un id
won der
sen se</w>
re ."</w>
ob vi
ke ep</w>
her e,</w>
g er</w>
d s,</w>
comple x
co st
an za</w>
ad o.",</w>
whe ther</w>
un til</w>
t ón,</w>
pow er</w>
nov as</w>
mole cul
me ."</w>
fam ily</w>
f el
est aban</w>
do wn
ci encia</w>
ce .</w>
al o</w>
ab ility</w>
a de</w>
I' d</w>
,H e</w>
," A</w>
you 've</w>
ques tion</w>
or din
labor atori
ic ally</w>
go es</w>
es te
en te
con ta</w>
cancr o</w>
ca de
as pec
a í</w>
I t's</w>
E E
,Th ere</w>
z a,</w>
v ex
v as
tra in
ti cos</w>
si ón</w>
si ve</w>
sa w</w>
ro om
remem ber</w>
mul ler</w>
me .</w>
m ach
hear d</w>
g res
er s,</w>
ce i
ca ix
atop ar</w>
ation al</w>
,"A s</w>
" Isto</w>
worl d."</w>
v a</w>
tur n</w>
tor s</w>
sp ir
si gn
se ."</w>
res ol
moit a</w>
loo ked</w>
list en
it as</w>
h y</w>
h ou
g as
f á
ch ,</w>
cambi o</w>
c lim
au ga</w>
al ready</w>
a de
S e
Amer i
. 000</w>
é r
vir us</w>
ta do</w>
s a</w>
reas on</w>
po bo
li ke,</w>
l y."</w>
dru g</w>
crea tiv
,H ow</w>
," Because</w>
, Now</w>
stru c
s :</w>
ous ly</w>
nor mal</w>
mane ira</w>
kin ds</w>
imag ine</w>
ima xe</w>
enferm idades</w>
ener x
ener g
d a,</w>
co id
ax u
L i
í s
th ough</w>
te le
san ds</w>
ou me</w>
li ber
est ab
es :</w>
er .</w>
e di
d or
apren der</w>
ap pro
alg unha</w>
a ur
S e</w>
J o
val u
to day</w>
sor t</w>
se mos</w>
scien ce</w>
psy cho
pre dic
op or
o :</w>
mi l</w>
m ari
inter ac
go ber
fac endo</w>
fac e
ci r</w>
ce i</w>
br an
a fec
Eng lis
"E ,</w>
"" I</w>
use s</w>
scien tist
r as
p ho
ment ,</w>
k a
hal f</w>
go vern
gen e
ent ly</w>
emo cion
cur r
ch all
c án
am az
ac k
a way</w>
DN A</w>
, D
z on
was n't</w>
up ,</w>
tur ns</w>
t on</w>
supos to,</w>
resear ch</w>
re o</w>
re ad</w>
quer ía</w>
pu id
min d</w>
le t's</w>
is n't</w>
ic as</w>
h on
com pren
bas ed</w>
a th
a parec
wor ds</w>
v a
tr a</w>
to gra
this .</w>
tempo ,</w>
ta king</w>
se en</w>
se cu
n esta</w>
n ai</w>
le xi
it al</w>
is o,</w>
is h
fo od</w>
er ía</w>
econ om
e .,</w>
des tes</w>
ch em
bo t
ag r
C o
te d,</w>
simple mente</w>
re li
pas a</w>
fav or
fac elo</w>
er o,</w>
do .</w>
difíci l</w>
b loo
b le,</w>
ag o,</w>
" Un</w>
ón .",</w>
vos tedes</w>
sh or
sa i
r un
qu í
oul dn't</w>
l ine</w>
k en</w>
ist s</w>
informa tion</w>
in tro
in s</w>
hun dre
h and
gr ad
fix o</w>
f ár
es tra
e fici
e .",</w>
conver sa
bi ó
be came</w>
ad ,</w>
én ,</w>
worl d
v es,</w>
traball ar</w>
t ent
s tra
re n</w>
r ab
parti r</w>
palabr as</w>
medi a</w>
me as
in do</w>
exp li
estu do</w>
di es</w>
deber ía</w>
co .,</w>
cin co</w>
b ly</w>
am oun
P orque</w>
í amos</w>
tr as</w>
tiv en</w>
ti z
that .</w>
s us
r at
ori es</w>
micro bi
l ab
e 're</w>
defin i
d ose</w>
cur i
any thing</w>
ad a.",</w>
Est ados</w>
20 1
ún ico</w>
ver dade</w>
u ti
thou sands</w>
se t</w>
re mat
paí ses</w>
pa th
nov a</w>
n er</w>
li c
in vol
fund ament
exper im
e ase</w>
compor tam
científi cos</w>
ar es</w>
,"Th ere</w>
s on,</w>
pode des</w>
ing l
her o
e y're</w>
di vers
des eñ
can ti
an os.,</w>
al í</w>
able mente</w>
Uni ted</w>
N o</w>
In ter
ón .,</w>
us ."</w>
the y
or der</w>
n atu
mas i
l os</w>
incre di
idade .,</w>
f l
enti re</w>
ear ly</w>
commun ica
an se</w>
al mente,</w>
ac ces
M on
ti pos</w>
thing ,</w>
ther e,</w>
th es
signi fica
ro .",</w>
pr óx
physi cal</w>
l ,</w>
ic ul
hop e</w>
es p
ent es,</w>
dí as</w>
dis cover
con ec
comp lica
b at
aten ción</w>
," C
xen é
to do,</w>
te .</w>
roo m</w>
pol os</w>
opor tun
ol es
me tr
lon go</w>
lear ned</w>
le ft</w>
imp ac
d an</w>
co up
che gar</w>
bacteri a</w>
an si
al s,</w>
G raz
x én
vide o</w>
u ally</w>
ti m
s es
r y</w>
r .</w>
qu ere</w>
pos ed</w>
or den
mun do.",</w>
loo ks</w>
k new</w>
in stead</w>
ili dade</w>
h our
er ra</w>
e ño</w>
deci ded</w>
ción s,</w>
bo ok</w>
b ul
b os</w>
b lu
ar nos</w>
anci a</w>
"D es
youn g</w>
that ."</w>
s oun
r ou
pl as
pati ent
me r</w>
li z
le ad
k .</w>
hor mon
histori as</w>
fin al</w>
fer r
every one</w>
ent re
e ?</w>
de masi
cr as
au ment
am i
al ."</w>
ad oles
ad o.,</w>
ab ill
A :</w>
"A gora</w>
tr ac
tom ar</w>
t -
sup por
so f
s ín
right ?"</w>
po ten
per spec
ou ght</w>
neces it
mell ores</w>
li ving</w>
is t</w>
happen ed</w>
gu e</w>
g ,</w>
ch ing</w>
c as</w>
br ing</w>
ar ly</w>
ar d</w>
ap pe
al low
"En tón,</w>
"" H
án do
tur ned</w>
ta kes</w>
stu f
s pen
per m
of f
id ad
fu tur
f e</w>
f ar</w>
ent os</w>
di g
desenvol vem
cu esti
X a</w>
T i
T amén</w>
N or
A ,</w>
1 0
,Th at</w>
á re
vis ión</w>
tion s."</w>
ter a
t amos</w>
scho ol</w>
s it
s ?</w>
res pec
po id
o i</w>
o ci
l as</w>
fron t</w>
famili a</w>
ex ci
estud antes</w>
e li
dix o</w>
d i</w>
clim ate</w>
caus a</w>
be mos</w>
an te,</w>
ac ep
E n</w>
"Est e</w>
posi tiv
pa is</w>
my self</w>
min ,</w>
mean ,</w>
mar abill
ga ve</w>
e d."</w>
d est
con cer
cas a</w>
ad ap
a ?,</w>
Pe op
," (Applause)</w>
"E s
you ."</w>
ve ."</w>
u r</w>
to tal
them .</w>
se em
s le
ro .,</w>
rela ción</w>
ra pa
pregun ta</w>
pla y</w>
p ,</w>
o )</w>
nen o</w>
n inguén</w>
ma ñ
indus tri
i do</w>
human os</w>
enferm idade</w>
az u
A D
ún ica</w>
í a.,</w>
stud ents</w>
seguin te</w>
se e,</w>
proces o</w>
os a</w>
on es</w>
on ."</w>
neuron as</w>
m ust</w>
lem br
lear ning</w>
in s
h ol
h in
fac t</w>
dur ing</w>
dis ease</w>
cami ñ
bra in,</w>
ari a</w>
a xi
Y or
Le t's</w>
.. .
"T o
wom an</w>
vo ca
v ó
un der</w>
tar ef
t i</w>
su f
rá p
pl á
op en</w>
on .</w>
ob es
ning ún</w>
médi cos</w>
mo ment</w>
le as
l li
g as</w>
fun c
fa ci
experi encia</w>
em er
e co
cour se</w>
coun tr
chil dr
as í
aqu í
an .",</w>
again st</w>
,"S he</w>
,"O ne</w>
í a.",</w>
w ell,</w>
v ós</w>
sh are</w>
rela tion
r est
pr os
o d
ni vel</w>
ne w
i or</w>
i f
f ra
de li
beb és</w>
b illion</w>
as í,</w>
al u
S on</w>
D e</w>
últi mos</w>
í r
year -
vi e
v it
thing ."</w>
ter ri
t ou
sy n
sob re
si x</w>
relation shi
quiz ais</w>
pre v
pol as</w>
mo der
like ly</w>
is .,</w>
he ar</w>
econ o
de mostr
da ys</w>
d al
cor r
cl ase</w>
cham ado</w>
ch i
ca dr
c ento</w>
at ,</w>
a cor
Peop le</w>
w in
vos a</w>
trat ar</w>
t s."</w>
sto p</w>
sor pren
some times</w>
sen sa
se ver
righ t,</w>
qu é</w>
possi ble</w>
ol o</w>
o ce
o ."</w>
ne t</w>
ist as</w>
is su
gor a,</w>
dí a,</w>
di z
develo p
cor po
comez ar</w>
com m
b un
af fec
acon te
W e</w>
I' ll</w>
sub jec
s ."""</w>
respon sab
res id
re cu
on e.</w>
natur al</w>
me do</w>
me an</w>
lim it
kno wn</w>
k ing,</w>
fic ul
fac emos</w>
f un</w>
f ose</w>
epi de
empre g
dif ficul
cu m
coup le</w>
ar e,</w>
ag e,</w>
N ew</w>
< i>
< /
, T
"E u</w>
"" M
y 's</w>
v ul
tic ally</w>
this ."</w>
ther ap
suc ces
soci et
se is</w>
reg ul
publi c</w>
po ida</w>
pic ture</w>
particul ar</w>
pa in
im er
ic es</w>
grou p</w>
fo cu
fi xer
est ás</w>
en 't</w>
di go</w>
ci o</w>
cham ada</w>
cer tain</w>
can not</w>
bab ies</w>
ar á</w>
al ter
ag u
ación .,</w>
2 5</w>
,"T o</w>
,"I n
w it
ver ti
to p</w>
thing .</w>
t es
some body</w>
sin ce</w>
se par
poñ er</w>
plan et
per mi
pas ar</w>
mar ke
lif e,</w>
gr á
funcion a</w>
fu ture</w>
el ,</w>
des ex
de u</w>
cr im
com uni
c el
ación .",</w>
ab er
a vi
C ar
Ameri can</w>
4 0</w>
,"I '
,"I' m</w>
"Est a</w>
"" A
" I
á m
you 'll</w>
wor d</w>
tr ó
t at
su gg
se mell
s cre
re cogni
natu re
month s</w>
is mo</w>
in es
fi el
fel t</w>
exac tamente</w>
ex pla
des po
cion al</w>
beau ti
bas e
b es</w>
anti bió
anti bio
al ity</w>
I t</w>
H o
í ame</w>
tr as
tem ente</w>
tell ing</w>
t os
simp ly</w>
simil ar</w>
si on,</w>
seem s</w>
s ac
princi pi
pequen a</w>
paí s</w>
p á
p in
op en
mes es</w>
la do</w>
it y.</w>
ima xes</w>
gra zas</w>
fix emos</w>
es tru
coñ eci
cl os
ca .",</w>
am os,</w>
a wa
a ver
To dos</w>
I S
C R
AD N</w>
A quí</w>
1 2</w>
"P ero,</w>
x o</w>
tor es</w>
te x</w>
tan do</w>
str ess</w>
sa ying</w>
respon si
re mo
r it
pres cri
os os</w>
nó s,</w>
incre as
ex am
ent ."</w>
en ds</w>
de fen
crim in
cre c
cras tin
con tex
com pas
bi gg
ben efici
Th is</w>
é ron
y ?</w>
x e,</w>
vid a,</w>
ve .</w>
u m</w>
to day,</w>
time ."</w>
ter ."</w>
sistem as</w>
sin x
sho w
self ,</w>
see m</w>
real idade,</w>
ra ther</w>
poten ti
p ped</w>
of fic
nov os</w>
n ac
men sa
jo b</w>
ir má
in nov
in ess</w>
im pro
he ad</w>
ge ."</w>
fem in
feel ing</w>
f os
en vi
doll ars</w>
di xo
d res
d estas</w>
c lear
bloo d</w>
beg in
be d</w>
b re</w>
ation ."</w>
D es
, E
, (Applause)</w>
ó r
z he
x im
vi vir</w>
us .</w>
tr on
toge ther,</w>
scien ti
ra ,</w>
pro gres
posi ble</w>
pa y</w>
mole cu
mo tiv
mo do</w>
ma g
interest ing</w>
happ en</w>
fi car</w>
est er
energ y</w>
efec tos</w>
coul dn't</w>
ament os</w>
ab on
U U
Est á</w>
, I'm</w>
ón s,</w>
í cul
vir tu
vida .",</w>
tr ata</w>
ti r</w>
su d
prob ablemente</w>
p es</w>
o ?,</w>
nee ds</w>
mor r
mes mo
li ves</w>
le d
i óns</w>
h id
gi ven</w>
fó ra</w>
ferr ament
f all
es cal
en .</w>
empe z
de les</w>
countri es</w>
ci a</w>
c ro
b á
b ase</w>
a k
C ando</w>
8 0</w>
" e</w>
your self</w>
x is
underst anding</w>
tr au
to da
te ."</w>
t os.",</w>
sen si
re cur
pro fun
neur ons</w>
ne go
mer ca
ma .",</w>
m illi
lingu a</w>
investig ación</w>
hap s</w>
gir l
ga ñ
dade .",</w>
col ler</w>
chil d</w>
cam p
ation .</w>
aca b
ab le,</w>
Th ank</w>
T emos</w>
,"Th at</w>
"P orque</w>
á ,</w>
vos o</w>
t y,</w>
sur pris
su ce
st ories</w>
sp ac
se .</w>
resul ta</w>
pro vi
num ber
médi co</w>
mo ther</w>
mi ú
materi al</w>
ma j
m ad
m ."</w>
lo ca
ke y</w>
ix o</w>
ic ,</w>
futur o</w>
ful l</w>
f lu
em bar
el se</w>
el as</w>
e 've</w>
do min
differ en
deix ar</w>
ar me</w>
an g
amoun t</w>
ac ter
6 0</w>
year ,</w>
v es."</w>
th en,</w>
spea k</w>
s po
propi a</w>
pro crastin
pro cess</w>
palab ra</w>
op por
ning unha</w>
ne t
libr o</w>
ir a,</w>
in for
imag in
i ro,</w>
figur e</w>
exempl o</w>
do en
demasi ado</w>
de ep
cle ar</w>
cent os</w>
canti dade</w>
c ra
ar ri
an o,</w>
an c
ac he
R es
M ais</w>
Al zhe
5 0
tera pi
su ici
recu per
re qu
r ú
quer emos</w>
problem s</w>
poli tical</w>
pobo ación</w>
pla y
lingu axe</w>
life ."</w>
ir d</w>
i a,</w>
human o</w>
for a</w>
f in</w>
ex cep
er on</w>
dixo :</w>
di ri
cr is
cl ose</w>
ci ñ
cambi os</w>
ac e
a pro
K ,</w>
,"Th ese</w>
," D
, C
" (Aplausos)</w>
ve z,</w>
trat amento</w>
senti do</w>
scientist s</w>
s ou
s )</w>
o di
mid d
mi ñas</w>
me :</w>
le ave</w>
l ing</w>
l and</w>
j ob
inte lli
im pres
en ."</w>
efec to</w>
e d.</w>
drug s</w>
develo ped</w>
de b
d y
coun try</w>
con st
cerebro ,</w>
c ell</w>
arre dor</w>
anal y
an os.",</w>
am e
"P en
"A gora,</w>
é c
wr ite</w>
wo men
tiñ an</w>
ti ce</w>
t es,</w>
s our
res to</w>
res our
prob as</w>
p ant
n ame</w>
in stru
gene tic</w>
fas cin
estr és</w>
el a,</w>
e al
din os
d os,</w>
constru ír</w>
compu ter</w>
bac k
arti st
Euro pe
E ra</w>
E ar
B en,</w>
," P
, A</w>
(M us
ví de
t os.,</w>
t ase</w>
segun da</w>
re com
proxec to</w>
precis amos</w>
pic tu
pa pe
p le</w>
other s</w>
or ."</w>
on e."</w>
mun do.,</w>
mor tal
mol o</w>
mat ter</w>
know led
in cen
for tun
enci a.",</w>
elec tri
econ ó
der ,</w>
comez amos</w>
bl ack</w>
bacteri as</w>
au g
ag o</w>
ab ri
a h
Uni vers
Po demos</w>
En tón</w>
C ali
"A o</w>
ty pe</w>
te ach</w>
self -
sa ys,</w>
s ha
r ar
per i
par tes</w>
ou t."</w>
mes s
le ast</w>
l es,</w>
gro w</w>
gre at
educa ción</w>
dr am
di o
d os
com pr
cl ini
cer to</w>
be hin
bas ically</w>
aqu í,</w>
ant es,</w>
aga in,</w>
You 're</w>
,Th ese</w>
,"M y</w>
"M ais</w>
á de
á c
xen te,</w>
vide o
v én</w>
v ista</w>
time .</w>
thin k,</w>
system s</w>
spen d</w>
sit ting</w>
sen do</w>
sal v
re ma
próx im
pregun tar
or ix
ocor re</w>
ni gh
nes s,</w>
neces s
n ational</w>
má is,</w>
m ud
lox ía</w>
life .</w>
le t
ima ge</w>
fri end
f ur
f er</w>
est ado</w>
es tiv
en ce,</w>
do ."</w>
di r</w>
cli má
axu da</w>
av o
ar án</w>
S ab
Alzhe imer
7 0</w>
"S on</w>
wr it
w ouldn't</w>
vida .,</w>
ver se</w>
ver on</w>
total mente</w>
ti tu
tem per
s es,</w>
refu xi
re gi
qu in
pro por
p t</w>
our selves</w>
om a</w>
no me</w>
nega tiv
n ,</w>
ment ."</w>
me dr
le .</w>
it ari
is ."</w>
investi ga
indi ca
hu ge</w>
g o,</w>
fic o</w>
extra ordin
en s</w>
educa tion</w>
comple tely</w>
comm on</w>
col lec
co s
ch ed</w>
ch a</w>
b lis
answ er</w>
al ong</w>
al a</w>
ad a.,</w>
TE D</w>
S u
In di
,S he</w>
,"A t</w>
wor k,</w>
war ds</w>
vul ner
vol ver</w>
ser á</w>
segu ir</w>
ráp id
ref lec
re xi
r un</w>
r an</w>
ques tions</w>
per cep
o cé
nee ded</w>
n ese</w>
ma xin
ma te
l am
k s,</w>
inte lix
in spir
hist ory</w>
gus tar
gr and
fir st
ev ent
est re
espa zo</w>
ent es.",</w>
eng ine
en xe
con ti
comun idade</w>
cami ño</w>
buil ding</w>
be l</w>
be ,</w>
amaz ing</w>
a tive</w>
a il
B o
- year-
í xen
í ni
xus to</w>
vis ual</w>
s tico</w>
s amos</w>
ro bo
re cei
pr az
posi ción</w>
poli c
ne ws</w>
ne gr
min is
man ,</w>
ma is,</w>
li ña</w>
lev el
ic k</w>
h and</w>
fol low
examp le</w>
enerx ía</w>
em ent
des as</w>
con fi
con fer
comuni ca
cal cul
TE D
D r.</w>
.. .",</w>
," L
, L
"" N
wron g</w>
wor ked</w>
wh i
ve ñ
tan to,</w>
sh ar
sex an</w>
re volu
pregun tas</w>
pr in
pi ece</w>
pas o</w>
par ents</w>
os ?,</w>
molécul as</w>
men te.",</w>
me l
lev ar</w>
le ."</w>
igu al</w>
ig nor
ic s</w>
ic )</w>
i cal</w>
hour s</w>
happ y</w>
for ni
especi ally</w>
descu bri
der s</w>
de .",</w>
chang ed</w>
c y
anima is</w>
an i
ais .",</w>
acces o</w>
a ?",</w>
C al
B os
"S ab
y -
v in
ti ca,</w>
tam a
ste p</w>
speci fic</w>
sp ent</w>
so li
see ing</w>
s li
qu es</w>
produ ce</w>
pro tex
pot enci
per haps</w>
or g
mos lles</w>
me .",</w>
lat er,</w>
h ere's</w>
gu e
form as</w>
fam il
f lo
eli min
dólar es</w>
dis tribu
có r
consci ous
con vers
co pi
clini cal</w>
car bon
cabe za</w>
atten tion</w>
an d,</w>
Englis h</w>
Cali forni
,"Th at's</w>
z .",</w>
y et</w>
x or
worl d.</w>
war d</w>
tru e</w>
tri ed</w>
ter r
su fr
str es
sh e's</w>
segur o</w>
rela cion
re p
re fer
pes ar</w>
per cent
pequen o</w>
pequen as</w>
people ."</w>
pat ter
mes mos</w>
lo it
le vel</w>
l y.</w>
i des</w>
hor as</w>
g os</w>
g ol
f ant
every body</w>
esper anza</w>
espec í
en te.",</w>
differ ence</w>
depen d
da .,</w>
d s."</w>
cu ar
cor por
com bin
cir ur
chil d
car e
br o</w>
br ill
as en</w>
ar te</w>
am or</w>
ais .,</w>
ag re
ad v
ad as,</w>
a tes</w>
,M y</w>
) ,</w>
( S
últi mo</w>
y :</w>
xen es</w>
tró le
there .</w>
there ."</w>
te d."</w>
t ou</w>
suf fer
situ ación</w>
ser es</w>
sab en</w>
rap id
protec t</w>
pro ce
ou s,</w>
ni ght</w>
meta de</w>
me can
m or</w>
los t</w>
is m</w>
is .</w>
inv ent
intro du
id en
i .,</w>
gra ph
go o
fá ci
form ar</w>
fill os</w>
fici al</w>
fa il
estu dos</w>
desenvolvem ento</w>
compa ñe
compa ñ
come cei</w>
brain s</w>
ar lles</w>
apren diz
ag ar
ac cid
C ol
2 00</w>
" Qu
" L
w ill
visi on</w>
v as</w>
un d
t as,</w>
sud den
res t</w>
refu ge
power ful</w>
posi bili
pos e</w>
poder ían</w>
pens amos</w>
pe tróle
pati ent</w>
mor te</w>
long er</w>
lo ts</w>
l le
j u
interes ted</w>
in ."</w>
i ght</w>
gi ving</w>
g e,</w>
g ame</w>
f y</w>
ent es.,</w>
e at</w>
do los</w>
di men
de bemos</w>
d á
consegu ir</w>
con tribu
col or
cl u
cl in
ch ."</w>
c ing</w>
axud ar</w>
as i
an .,</w>
al os</w>
al idade</w>
H u
F oi</w>
(Mus ic)</w>
é s,</w>
y ."""</w>
wor ks</w>
vis u
tre at</w>
thr ough
them selves</w>
ter ce
ta ken</w>
system ,</w>
so a</w>
s mar
qu ec
princi p
pl ant
pi do</w>
no i
n y</w>
mon ey</w>
mach in
m os,</w>
hundre ds</w>
h ed</w>
fo to</w>
fix en</w>
est at
es quer
en fron
develo ping</w>
despo is,</w>
dade .,</w>
ci ty</w>
chall eng
cas .",</w>
cam po</w>
ca s,</w>
ca .,</w>
blu e</w>
beli ev
all ."</w>
agor a,</w>
ad op
a ke</w>
a "".",</w>
W or
P er
G re
"T emos</w>
"N a</w>
"A l
""W hat</w>
"" T
"" D
y on
we 'll</w>
un ci
tor ,</w>
to ol
ti es,</w>
ti co,</w>
tem a</w>
t ac
t able</w>
so ñ
re coñec
qu ick
pu blis
projec t</w>
pro vo
popul ation</w>
pas t</w>
oll os</w>
n ar
moment o,</w>
listen ing</w>
lev a</w>
lar ge</w>
la w
j our
inf lu
individu al</w>
hab it
h ora</w>
ful ly</w>
fill o</w>
fi ed</w>
ey es</w>
especi almente</w>
empres as</w>
diferen za</w>
difer ente</w>
di ante</w>
di ab
de l</w>
cr it
con ven
com pro
car b
cal es</w>
cadr a</w>
c raci
beg an</w>
b an</w>
al e
ad os.",</w>
a ybe</w>
," Y
ó log
wh ate
vid as</w>
vi ñ
us tr
tion s.</w>
te am</w>
signi fic
sho wn</w>
se ven</w>
s car
realiz ed</w>
re cep
re .</w>
quer en</w>
pri v
pe ix
p ."</w>
on e
o il</w>
minu tos</w>
me t</w>
man ag
isto .,</w>
igu al
gu y</w>
g ri
fr ica</w>
fr ic
fin anci
fa ir
evid ence</w>
discover ed</w>
da .",</w>
cont ar</w>
comez ou</w>
c lo
c es,</w>
c er</w>
behin d</w>
an te
an ce,</w>
ac u
a -
W h
Th at's</w>
S ó</w>
IS P
Go og
Ch r
C om
9 0</w>
5 ,</w>
,W hy</w>
,Th ey're</w>
,O ne</w>
"" The</w>
xog os</w>
visi ble</w>
ver mell
un a</w>
tó dolos</w>
t ?</w>
su m
si ti
seman a</w>
sa ys</w>
sa y
re r</w>
re por
pro to
poder iamos</w>
par ts</w>
pa in</w>
pa i</w>
ou ,</w>
mor al</w>
molecu les</w>
ll o</w>
i :</w>
h ing</w>
grad u
g in
f oun
eñ en</w>
es cen
er ing</w>
er e,</w>
enor me</w>
enci a.,</w>
ei ther</w>
e des,</w>
e dade</w>
di n</w>
develo p</w>
depres ión</w>
de ath</w>
cá mar
cultur a</w>
cont ac
comportam ento</w>
co razón</w>
cl íni
chang es</w>
bas ic</w>
b it
ar e."</w>
actu al</w>
ac cess</w>
ab r
ab a
a tiv
S te
R ob
P re
M i
M an
A r
1 8
xe .,</w>
who 's</w>
w as,</w>
though t,</w>
t ul
sp ace</w>
si ze</w>
sh e
senti r</w>
sab e</w>
sa ír</w>
s hap
ris k</w>
resul tado</w>
realiz e</w>
propi o</w>
physi ci
person al</w>
perso as,</w>
pen sa
pa per
os :</w>
n ur
n on,</w>
n it
miú do</w>
ma .,</w>
m oun
m ica</w>
incri ble
imp li
ic e,</w>
go .",</w>
es for
eas y</w>
dinos aur
den do</w>
con se
comple x</w>
commun ity</w>
com ida</w>
bo as</w>
bi ol
beauti ful</w>
ar gu
an aliz
all y."</w>
ac cep
a y
G i
CR ISP
,"O n</w>
"P or
á lis
xe .",</w>
wh ere
well -
wal k</w>
ur ante</w>
ur a</w>
ter ms</w>
sy mp
suppor t</w>
st and
si de
se quera</w>
r id
pr ác
per for
oportun idade</w>
on g
ob ter</w>
mú sica</w>
m .</w>
l and
inter ven
ini ci
il o</w>
gr oun
fe ed
ev it
di xen
di ed</w>
des es</w>
d -
curi os
con cre
comp any</w>
co u</w>
co che</w>
atop amos</w>
as :</w>
absolu tely</w>
ab les</w>
ab amos</w>
a ir
S tat
A fri
5 00</w>
. ""</w>
,"Th ere's</w>
," J
"" F
vos te
ven do</w>
ud ing</w>
u ,</w>
trabal lo,</w>
to m</w>
th o
ter .</w>
succes s
se cre
san gu
re qui
pu x
pres ent</w>
pre vi
pre fer
pos tos</w>
pe ,</w>
pas ou</w>
paci ente</w>
p .</w>
os as</w>
organ is
op ini
mor e
min ds</w>
lugar es</w>
knowled ge</w>
ka y,</w>
inter pre
in ed</w>
il ,</w>
ide a,</w>
human s</w>
gu er
gro wing</w>
govern ment</w>
gober no</w>
fár ma
f our
especi e</w>
en ted</w>
emp lo
econo mic</w>
di vi
demo craci
co ver</w>
ch .</w>
buil t</w>
bor n</w>
ben ef
be comes</w>
av ail
at a
ar an</w>
ap lica
amig os</w>
am er
al le
aga in</w>
ad os.,</w>
a í
U .
L u
I f</w>
H ar
,"A n
"" Non</w>
"" C
" Quero</w>
! ",</w>
á is</w>
z h
z .,</w>
ve u</w>
v ell
té c
tr ou
tiv ely</w>
tempo .,</w>
tel esco
t s.</w>
t ese</w>
spea k
si ,</w>
s cal
s '</w>
ri ed</w>
respon se</w>
pro mo
prime iros</w>
pos to</w>
no tici
m ó
m ing</w>
m am
intelli gen
in tr
in a,</w>
hospit al</w>
h ouse</w>
h all
g all
ful ,</w>
fri ends</w>
fri end</w>
for d</w>
elec tr
ei ght</w>
doc tors</w>
di al</w>
d ul
crea ted</w>
con tar
con si
compa ix
commun i
cerebr os</w>
b ility</w>
as king</w>
ar vos</w>
W hat</w>
N e
Al g
-year- old</w>
,Th ere's</w>
ú e</w>
í o</w>
éx ito</w>
xun to</w>
wron g
whate ver</w>
vol v
vol un
vi ew</w>
vi ax
thing s,</w>
tal ked</w>
t t
st and</w>
se lec
sa ve</w>
s pre
re lev
n ing,</w>
man ter</w>
m ar</w>
iz e</w>
ing s,</w>
incl uding</w>
in k</w>
imag es</w>
gro w
gra f
fis h</w>
escoit ar</w>
em os,</w>
ed it
de .,</w>
d á</w>
d y</w>
d it
d amos</w>
d am
cór tex</w>
compan ies</w>
com partir</w>
colle agu
co s.,</w>
clas s</w>
che gar
caix a</w>
be l
ase gur
as h
Th ey</w>
S ta
No va</w>
G e
? ""</w>
</ i>
,"A ll</w>
zh é
z z
well ."</w>
wa y."</w>
vec es,</w>
ve ter
us a</w>
to tal</w>
th ro
th ird</w>
th ."</w>
ten d</w>
tell s</w>
tel é
ta ción</w>
sú pe
symp tom
sub st
stu dies</w>
star ting</w>
socie dade</w>
si g
s os
room ,</w>
ris co</w>
re ally,</w>
rap aces</w>
ra i
posi ble
pho togra
ox y
on 't</w>
nu tri
no ite</w>
no ,</w>
nature za</w>
ment .</w>
me chan
mate má
l y
ingl és</w>
importan tes</w>
importan te,</w>
imp ul
happen ing</w>
gra p
fundament al</w>
ex pen
est ad
escol a</w>
em ent</w>
dí xo
do m</w>
do cu
diseas e,</w>
di xer
de mon
de ep</w>
de bu
de ath
cr í
co p
ca se,</w>
br ought</w>
bo x</w>
bo m
b os
ar en't</w>
an ális
al zhé
ag es</w>
ad ora</w>
ab an
"P olo</w>
últi ma</w>
á monos</w>
xe ito,</w>
x ur
x ,</w>
w ro
vi ven</w>
v in</w>
ul y</w>
toge ther
to .</w>
tiñ amos</w>
tica mente</w>
this :</w>
ter mos</w>
sín tom
sof tw
show ed</w>
sho ws</w>
sever al</w>
sal a</w>
s un
s can
result ados</w>
prob ar</w>
prob a</w>
po e
per man
people .</w>
p ping</w>
oppor tun
model o</w>
minu tes</w>
lo cal</w>
le f
lar g
laboratori o</w>
is :</w>
ir on</w>
incredi bly</w>
fer mos
f ter</w>
escri bir</w>
es en</w>
equi po</w>
en ga
ef for
ec u
dí xen
dre am
de i</w>
da qu
con ex
co raz
ce le
cas os</w>
cancer ,</w>
c tu
c le</w>
c ks</w>
ben .",</w>
ar t</w>
apo i
allow s</w>
ach es</w>
S ou
Po der
M edi
H ow</w>
G us
Est ou</w>
19 9
, Because</w>
í mos</w>
z ed</w>
year s."</w>
xen i
wh ite</w>
vol ta</w>
vie w
vi vir
veñ en</w>
vac cin
up ."</w>
ter ía</w>
telé fon
techno log
stuf f</w>
stru gg
str an
seman as</w>
se ar
scienti fic</w>
school ,</w>
sab ía</w>
s tic
recur sos</w>
re dor</w>
r ó
quer es</w>
profes ion
plac es</w>
pla ying</w>
phy sic
oun iden
or .",</w>
nó s.",</w>
nor m
ne u
mos lle</w>
mos .",</w>
mor e,</w>
midd le</w>
me ly</w>
ma z
l ose</w>
k il
interes ante</w>
id as</w>
ho me,</w>
gra z
go t
gen es</w>
gen e</w>
fal ando</w>
expla in</w>
er ed</w>
en sai
de ad
ción s.",</w>
cent ur
car re
as soci
as oci
aqu el</w>
an te.,</w>
amer ic
agr icul
ad es,</w>
ad dres
T er
Po de</w>
Ch ina</w>
, Let's</w>
! ,</w>
vi ve</w>
vari os</w>
v es
u me</w>
to wards</w>
tin y</w>
thing s."</w>
th .</w>
spea king</w>
soun ds</w>
soci ais</w>
so l</w>
si ons</w>
si ?",</w>
sen s
se gre
s mo
res pir
remem ber
pre to</w>
po dí
p us
p sic
other ."</w>
os t</w>
ni ve
n el
microbi os</w>
me tá
mac o</w>
li n</w>
isto .",</w>
h old</w>
gra v
gra m</w>
gen der</w>
g s</w>
g ing</w>
fár maco</w>
fre cu
fe ar</w>
famili ar</w>
exis te</w>
es senti
ent s,</w>
en ce
empres a</w>
difficul t</w>
differ ent
dev ice</w>
des p
depres i
de tr
d as,</w>
cur so</w>
cul tu
condu c
con secu
com for
co s.",</w>
cl ín
ch ron
cabe z
brea k</w>
behavi or</w>
begin ning</w>
ament o,</w>
ab o
a per
S y
F ran
1 1</w>
,W e're</w>
" In
í a
án ,</w>
wee ks</w>
trans por
tempo .",</w>
tem por
techno logi
t ly,</w>
se te</w>
run ning</w>
reci b
re di
pu ide
pou cos</w>
per ig
people 's</w>
pens a</w>
particul arly</w>
or ity</w>
or .</w>
op io
n al</w>
mon ta
mon it
mellor ar</w>
mean ing</w>
m ur
le n</w>
in .</w>
him ,</w>
here .</w>
ha ven
gr up
go .,</w>
gam es</w>
focu s</w>
fo togra
fin ally</w>
estad ouniden
epide mi
emo cións</w>
e lix
dix o,</w>
den tes</w>
de al</w>
cons cien
comple tamente</w>
ci vi
cen tra
cap it
can tos</w>
c all
ble .</w>
ari o,</w>
are as</w>
aqu ela</w>
any one</w>
anim als</w>
actu ally,</w>
a co
V i
E x
C reo</w>
Amer ica</w>
.. .,</w>
,"W ith</w>
" Que</w>
xu í
wat ch</w>
wa y
w is
tiv emos</w>
tic s,</w>
t able
star ts</w>
sin ais</w>
si t</w>
sh op
self ."</w>
ro de
re de</w>
r ich</w>
provi de</w>
poin t,</w>
po b
po ,</w>
perm ite</w>
pequen os</w>
pe lí
pelí cul
pa per</w>
other ,</w>
nego ci
mo vi
mir ar</w>
milli ons</w>
lo ved</w>
leg al</w>
l un
it self</w>
imp lica
id os</w>
ica mente</w>
hist or
g one</w>
fo tos</w>
extre mely</w>
est ades</w>
environ ment</w>
en ough
effec ts</w>
e f</w>
dram a
des aparec
depres sion</w>
cur e</w>
consci encia</w>
com parti
co oper
ción s.,</w>
char la</w>
chang ing</w>
chall en
cer tain
carb on</w>
car acter
cap aces</w>
ca uses</w>
brain ."</w>
b illi
av anz
ant ly</w>
an xi
an o
an do,</w>
adul tos</w>
ad estr
ad as.",</w>
ac er
ac ción</w>
To do</w>
S tan
CRISP R</w>
.. ."</w>
,W h
, F
"En tón</w>
work .</w>
won 't</w>
wh at
we b
treat ment</w>
tras tor
te d.</w>
sto od</w>
st at
sour ce</w>
sim ul
sil enci
sica )</w>
s ound</w>
s ?"</w>
reac cion
re xeit
re ach</w>
ra .",</w>
poid an</w>
ph il
partici p
pa z</w>
obxec tivo</w>
ne igh
nam ed</w>
mo .",</w>
metr os</w>
men tes</w>
m ou
lon x
le av
le ase</w>
languag e,</w>
l ad
ke ep
j us
ist ,</w>
ing redi
in os</w>
ig eri
i k
i de</w>
hor ri
han ds</w>
g en</w>
fr an
fon do</w>
fa ther</w>
fa i
es cur
er s."</w>
ent ón,</w>
en te.,</w>
em is
diseas es</w>
dis par
di cin
descubri r</w>
decisi óns</w>
deber iamos</w>
de z</w>
cul ture</w>
cuesti ón</w>
cre ating</w>
cous as.",</w>
constru c
come za</w>
cham amos</w>
ch or
ch imp
car tos</w>
br id
beg in</w>
be yon
bar ri
ate ly</w>
an ce
am pl
ac coun
a j
a ""</w>
V I
T ur
R o
O u</w>
N igeri
Ho xe</w>
H e</w>
G u
G er
F r
Es a</w>
3 ,</w>
1 6</w>
1 2
"D e
"C on</w>
ín do</w>
án s</w>
xun tos</w>
xer ación</w>
wonder ful</w>
wa iting</w>
use ,</w>
us tra
train ing</w>
traball ando</w>
tiv e,</w>
them sel
th ank</w>
teñ an</w>
sur viv
senti r
s ent</w>
rá pido</w>
re peti
re ly</w>
psycho log
program a</w>
precis a</w>
pe l
ou t.</w>
ol d,</w>
ocor r
o -
nov o,</w>
molécul a</w>
mo ving</w>
lis ten</w>
lingu as</w>
larg est</w>
imaxin ar</w>
haven 't</w>
gre w</w>
fre e</w>
fi cien
et y</w>
estru tura</w>
er y</w>
en vel
el éc
dis cus
des tru
des af
dar lle</w>
da u
d s.</w>
compren der</w>
co r</w>
cl usi
cir cu
cerebro .",</w>
cas .,</w>
ca te
ca sa
bab y</w>
aver age</w>
av ali
ato par
ation s,</w>
ate ly,</w>
al to</w>
al ta</w>
again ."</w>
activ idade</w>
ac hi
a h,</w>
Yor k</w>
E m
C E
7 0
3 0
1 ,</w>
"A índa</w>
í ase</w>
zon a</w>
x ir
wro te</w>
we ver,</w>
ve h
v o</w>
v imos</w>
tr uly</w>
tic ,</w>
they 've</w>
t au
sur ger
say ing,</w>
s ó
s í,</w>
s écul
s tri
s co
relationshi p</w>
real ity</w>
qu ix
qu ality</w>
pe g
ori gin
non ?",</w>
n estes</w>
n esa</w>
mus ic</w>
medi da</w>
me .,</w>
ma in</w>
ma gn
liter ally</w>
l ate</w>
inte li
imp act</w>
im medi
ili dades</w>
gu ys</w>
form s</w>
fixer on</w>
ferrament as</w>
favor ite</w>
en fo
en can
en .",</w>
dú b
dis posi
diferen zas</w>
des a</w>
der on</w>
da y."</w>
d ores</w>
cultur al</w>
con serv
com peti
centr o</w>
ca so,</w>
bus car</w>
br a</w>
bio logical</w>
be le
apo io</w>
am os.",</w>
al low</w>
adoles c
ab out,</w>
a y</w>
a for
Y e
Unid os</w>
H I
B i
A DN
8 ,</w>
,"A fter</w>
"Des pois</w>
"D urante</w>
""W ell,</w>
" Xa</w>
" Re
ís ticas</w>
z o
xo go</w>
work ."</w>
v il
us amos</w>
tw o,</w>
terr or
terapi a</w>
ta il
stuf f
sol ve</w>
sion ."</w>
sho wing</w>
seri e</w>
se .",</w>
s ;</w>
ri me
ri ba</w>
res er
pó dese</w>
prote ín
pr on
posi tive</w>
polí tica</w>
plá sti
pi ec
pens ando</w>
pen se
pa tr
orix in
nive is</w>
má is.",</w>
movem ento</w>
mo del</w>
min d,</w>
medi os</w>
man if
la b</w>
k ill</w>
it amos</w>
incre ase</w>
in medi
ill s</w>
i es,</w>
han d,</w>
grup os</w>
fí si
fron te</w>
e ta
doll ar
dis or
d os.,</w>
d ando</w>
cr ise</w>
consi der</w>
conf lic
col abor
cheg ou</w>
cerebr al</w>
cer to,</w>
ca mos</w>
autis m</w>
atur e</w>
as t
ar emos</w>
an te.",</w>
am ,</w>
alu cin
ad van
ac tion</w>
P ara</w>
Inter net</w>
Euro pa</w>
C ome
B ro
A u
A R
1 8</w>
"" You</w>
"" "</w>
" H
! """</w>
í o
é :</w>
ám ase</w>
á mol
x as</w>
x ar
wal king</w>
ver b
us ually</w>
ul ta</w>
trans mi
tr op
tis su
ti l
tama ño</w>
t on,</w>
super fici
sup posed</w>
sle ep
shor t</w>
sensa ción</w>
s cen
recogni ze</w>
re ce
pá xin
pl an</w>
per der</w>
os op
obxec tos</w>
neur os
neigh bor
micro bes</w>
meas u
libr os</w>
li ved</w>
le a
j ud
invol ved</w>
inv est
ins ul
ing ly</w>
in fer
im ento</w>
ide as,</w>
ho xe,</w>
here ."</w>
gi ves</w>
fron tal</w>
f -
exerci se</w>
eu ,</w>
es tion
es ?,</w>
enxe ñ
emo tional</w>
ec es
eal th</w>
doc tor
desenvol ver</w>
demo cr
d os.",</w>
célul a</w>
cru ci
com erci
co ciñ
che ga</w>
chan ge
certain ly</w>
car dio
boo ks</w>
bi do</w>
beyon d</w>
bal e
b ó
av og
autis mo</w>
au th
atr ás</w>
as tron
ar .</w>
alter na
aliz ed</w>
al á</w>
a ter</w>
Sta tes</w>
Jo h
C or
Alzheimer 's</w>
," People</w>
," N
' s,</w>
"S e
"Por én,</w>
"O u</w>
"" V
ón s.",</w>
ón i
ver a</w>
val or
v ic
uti liz
up .</w>
ty pes</w>
tr á
tr is
ti fica
ter m</w>
tech ni
t ally</w>
t aba</w>
sti c</w>
solu ción</w>
ser vi
resour ces</w>
real ,</w>
re u</w>
ra is
r am
qu il
prev ent</w>
phil osop
ph one</w>
pens an</w>
pe or</w>
out side</w>
our sel
os o,</w>
or s,</w>
o cul
no t,</w>
no body</w>
n al
mostr a</w>
mo ved</w>
mic o</w>
mar k
man i
lu ck
la ter</w>
k id</w>
ish ed</w>
intent ar</w>
incredi ble</w>
in as</w>
id a,</w>
ho pe
high er</w>
exerci cio</w>
est ,</w>
er s.</w>
er .,</w>
en se</w>
en de
don os</w>
distin tas</w>
dis poñ
dis crimin
de mais</w>
có digo</w>
cul o</w>
con centra
cl a
c un
c re</w>
c ke
bu y</w>
are a</w>
an ces</w>
an .</w>
an ."</w>
R us
No w,</w>
Mo itas</w>
M c
Gus tar
F or
F ace
Es tes</w>
: ,</w>
4 00</w>
4 ,</w>
3 00</w>
," G
"To dos</w>
! """,</w>
ñ a,</w>
é semos</w>
áre as</w>
ye t,</w>
xén ero</w>
wor th</w>
wa y.</w>
virtu al</w>
val or</w>
v ill
us an</w>
ur r
tr ansi
tico s,</w>
te ña</w>
stor y."</w>
st anding</w>
senti mento</w>
segur idade</w>
sa í
sa fe
s low
s amp
resear ch
requ ire</w>
ran ge</w>
qu it
qu is
públi co</w>
psi co
profes sion
prob able</w>
pro mis
pre gn
po or</w>
pe i</w>
pe ch
of ic
ob st
necesit amos</w>
natur e</w>
mun do
molecul e</w>
mo ther
maj or</w>
ma in
log o,</w>
ke pt</w>
ist a,</w>
ir os,</w>
in de
impac to</w>
girl s</w>
fre e
for za</w>
fal ta</w>
ev itar</w>
et c
er á</w>
ent al</w>
eng ag
en d,</w>
dé ca
dre am</w>
doc tor</w>
di verti
deci di
de man
de gre
countr y,</w>
comun idades</w>
comez o</w>
com ún</w>
com ún
com mit
com ent
co o
ch ec
cere bra
cas a,</w>
ca bo</w>
bod y,</w>
bac k,</w>
ar oun
anci as</w>
Pen so</w>
19 6
(M ú
"N os</w>
"" .</w>
" Iso</w>
" (
én do
áre a</w>
z o,</w>
writ ten</w>
wee k</w>
v es.</w>
to p
tiv as</w>
therap y</w>
the ma
tar de</w>
sudden ly</w>
stor y,</w>
sta y</w>
st ate</w>
sex ual</w>
ron se</w>
ro m
raz óns</w>
rapa z</w>
quí mi
puid ese</w>
pu ido</w>
predic t</w>
por ta</w>
pol y
plá stico</w>
pape l</w>
pa de
opportun ity</w>
nú mer
now ."</w>
non -
nega tive</w>
n algún</w>
mu ta
mic ros
meta ph
medicin a</w>
me et</w>
man s</w>
man do</w>
m es,</w>
list a</w>
le x
k s."</w>
ig n</w>
hundre d</w>
hab er</w>
h er,</w>
gre en</w>
fun ción</w>
for e</w>
fir e</w>
f it
ex ten
evolu ción</w>
esti ma
ent a</w>
en .,</w>
e y,</w>
desig n</w>
d ente</w>
come r</w>
chem ical</w>
car dí
bus iness</w>
brain .</w>
bigg est</w>
b lin
ar lle</w>
aprendiz axe</w>
apren dín</w>
an teri
am y
al s.</w>
ab sor
a xeit
UU .</w>
S .</w>
P r
O u
O b
F D
Euro pe</w>
EE .
19 8
1 4</w>
"O u
"" A</w>
ñ os</w>
án dose</w>
áb ase</w>
wr iting</w>
wat er,</w>
ver y
vas cul
v ía</w>
us ión</w>
um ,</w>
u cin
téc n
tre men
trans mit
tiv amente</w>
tiv a,</w>
ten d
tecnolox ías</w>
te us</w>
tam én
ta de</w>
t ori
son s</w>
sis te
sex u
segu en</w>
qu o
psi col
princip al</w>
per ío
p a,</w>
o í
o wn
o men
o "".",</w>
mi r</w>
mes mo,</w>
mer s</w>
men te
ma thema
lear n
l á
industri a</w>
in si
impor ta</w>
ho od</w>
gal axi
fin ding</w>
fi gu
f an
evolu cion
es quec
entr ar</w>
ent o,</w>
embar az
em br
effec t</w>
dí as,</w>
dixen :</w>
dix it
dis to</w>
dig ital</w>
desig ned</w>
deci dín</w>
debu x
d ly</w>
d algún</w>
curr ent</w>
coñec emento</w>
com pe
com i
clas si
clas s
ca t
as su
as ?,</w>
ar y,</w>
antibió ticos</w>
ami go</w>
af ra
aconte ce</w>
ache g
S a
I ,</w>
Chin a,</w>
C hi
,"O f</w>
& amp
"T amén</w>
"E ra</w>
"D ix
""O h,</w>
ú ni
ár ab
Á s</w>
we 'd</w>
v ent
us ando</w>
tr ad
to xi
though ,</w>
technologi es</w>
tau ght</w>
sol ar</w>
situ ation</w>
shap e</w>
se cur
s ligh
s am
re pe
pro per
prime iras</w>
po bre
plas tic</w>
peri od</w>
pen sei</w>
p leas
orden ador</w>
or it
ob ses
o ito</w>
now .</w>
na cion
n ice</w>
má n
mo di
mes es,</w>
merca do</w>
memor y</w>
medica mentos</w>
mal a</w>
mai l</w>
li ves."</w>
lec tu
le i</w>
lar ger</w>
intelix encia</w>
inmedi at
im mun
human a</w>
health y</w>
hall ucin
gr ound</w>
fr u
fin al,</w>
f at
experim ent</w>
event ually</w>
estud ante</w>
enfer me
effec tive</w>
e t,</w>
dispoñ i
dis ci
disci pl
di e</w>
develop ment</w>
detr ás</w>
d ou</w>
cr os
countri es,</w>
connec ted</w>
colle mos</w>
co st</w>
cirur x
cho ose</w>
cerebro .,</w>
car to
c en</w>
bod y."</w>
bo dies</w>
bi u</w>
auto ma
ar ily</w>
appro ach
anális e</w>
ac y</w>
ac o</w>
ac cur
abon do</w>
a to</w>
a te,</w>
a .""",</w>
O K,</w>
K en
J an
In stitu
I n</w>
Goog le</w>
A índa</w>
A s
7 5</w>
,"W e're</w>
,"O r</w>
, B
(Mú sica)</w>
"" E
óx ico</w>
óx ica</w>
wat ching</w>
vi a</w>
vari as</w>
ur i
tri gg
to tally</w>
to -
tiv os,</w>
ter s,</w>
ten do</w>
tar on</w>
síntom as</w>
sécul o</w>
system ."</w>
sugg est
stra te
ste ad,</w>
sta tis
spre ad</w>
speci es</w>
so on</w>
sim pl
sec und
s as</w>
rela cións</w>
reci samos</w>
read ing</w>
re mos</w>
re jec
re des</w>
r ica</w>
próxim a</w>
propi as</w>
pro gram</w>
pres ión</w>
preci so</w>
pre g
p í
outr os,</w>
or iz
or es,</w>
or e</w>
on y</w>
ob ser
neuros cien
model os</w>
medicin e</w>
meas ure</w>
lugar ,</w>
l é
kno ws</w>
is o.",</w>
inte gr
identi fy</w>
idad es,</w>
i P
high -
hel ped</w>
h am
gu ess</w>
grou ps</w>
gir l</w>
g ul
forma ción</w>
for mul
fem al
fal amos</w>
f it</w>
f ast</w>
estud ar</w>
emo tions</w>
em path
el a.",</w>
eas i
e :</w>
direc tor</w>
di a
dere ito</w>
decisi ón</w>
de be</w>
da do</w>
cous as,</w>
cor respon
conversa tion</w>
comunica ción</w>
clar o</w>
ci dade,</w>
cell s,</w>
cele br
bot tom</w>
ble ."</w>
ben .,</w>
be coming</w>
avi d</w>
avail able</w>
ap li
antibio tics</w>
ant es.",</w>
an s,</w>
adul ts</w>
ad or,</w>
a ci
Wor ld</w>
T en</w>
M ic
I mos</w>
D is
C entr
,Th en</w>
,Th ank</w>
,H ere's</w>
," Un
," R
, P
"" Que</w>
ú st
xi a</w>
w ish</w>
veter in
valu e</w>
v ar
tra in</w>
tion :</w>
tele visi
tam pouco</w>
t ing,</w>
speci al</w>
sor r
sab edes</w>
sa tis
s qu
resul t</w>
remat ar</w>
redu cir</w>
re vel
r r
r ate</w>
pu zz
propor cion
pri vi
preocu p
potenci al</w>
petróle o</w>
per son,</w>
pen sab
pe za</w>
pas ado</w>
par ell
ori th
neces ari
má quin
mensa xe</w>
mem ber
lo gr
level s</w>
le ad</w>
l ack</w>
iz ais</w>
is o
inter ior</w>
in mun
hou bo</w>
hi po
h us
h ad
g ado</w>
fí sica</w>
fi gh
famili as</w>
fac ía</w>
f res
expec ta
er .",</w>
en z
en contr
ear li
differen ces</w>
dic í
desp ite</w>
deber ían</w>
de mento</w>
con ci
co lec
cid ad
chem is
chan ce</w>
cardio vascul
car ,</w>
bo y</w>
bo x
b ing</w>
aspec to</w>
apro ve
am ong</w>
al can
ador es,</w>
ado it
ad amente</w>
aban don
ab il
a tra
a parece</w>
a ire</w>
a ir</w>
W ash
S o
O r
L os</w>
L on
F O
Est amos</w>
De ix
D avid</w>
Amer ic
A rab
A f
9 ,</w>
2 ,</w>
,A ll</w>
,"S ome</w>
,"O n
," To
, No
"C ome
"A quí</w>
! "</w>
ú en</w>
ólog os</w>
á ni
z a.",</w>
y es,</w>
y ed</w>
y ?"</w>
was te</w>
wan ts</w>
w er
video xogos</w>
ver y,</w>
u min
tu mor
trans for
tr os</w>
tool s</w>
to o."</w>
tem p
tar se</w>
symptom s</w>
sen d</w>
sem pre
segu e</w>
s ico</w>
redu ce</w>
rec ent</w>
re xis
re par
re leas
re gr
re d
r oun
ques tion,</w>
qu ina</w>
psycho logical</w>
pre -
prac ti
potenti al</w>
pictu res</w>
perspec tiva</w>
pe u
part ícul
par ent
or ris
or .,</w>
op pos
oce an</w>
nigh t,</w>
ner vi
mil it
mi x
long -
lo .</w>
ligh t,</w>
languag es</w>
languag e."</w>
l ou
ing ü
ing res
incri ble</w>
in ing</w>
impro ve</w>
imp le
i ades</w>
human os,</w>
ho me
gener ation</w>
g li
fron te
fal a</w>
fac es</w>
exis ten</w>
exerci ci
ex ter
escri b
es enci
en jo
en ce."</w>
econom ía</w>
e g
down ,</w>
distin tos</w>
depen den
deli ver</w>
deci de</w>
dan ger
dal as</w>
crec emento</w>
cre mos</w>
corpo ,</w>
consci ous</w>
con tra
che a</w>
ch in
cancer ."</w>
cambi ou</w>
cal idade</w>
ca paz</w>
ca mente</w>
bus ines
bor e
ax e,</w>
au tor
as pir
analy s
alg orith
alg orit
al s."</w>
al o,</w>
ag e.</w>
afra id</w>
ador .",</w>
aca dar</w>
ab str
T eño</w>
R igh
N ational</w>
I maxin
I D
H ealth</w>
A mé
2 4</w>
,W e've</w>
,"W e've</w>
,"Th en</w>
,"E very</w>
,"An d,</w>
, Y
"C ada</w>
"Al g
"A sí,</w>
í ne
á sti
z ing</w>
z a.,</w>
xen tes</w>
xen e</w>
w el
w ear
ver si
ul ar</w>
u li
trabal lo.,</w>
tr ic
titu de</w>
ther n</w>
that ?</w>
terri ble</w>
ten ,</w>
te ci
taref a</w>
t as.",</w>
sur ve
su fici
stud ent</w>
str ong</w>
st age</w>
softw are</w>
sion .</w>
se a</w>
sangu íne
s ad
ro r</w>
respos tas</w>
rec ently</w>
reas ons</w>
re ti
protex er</w>
principi o</w>
pri va
poli ce</w>
plane ta</w>
perío do</w>
per ten
per ci
par eci
pant all
ou vos</w>
on e's</w>
o w
n ad
mus ic
more a</w>
mis sion</w>
mess age</w>
ment s,</w>
men te.,</w>
marke t</w>
mar ch
man u
lo cal
le i
law y
is o.,</w>
individu als</w>
in struc
in ce</w>
ig n
ho o
histori a,</w>
fin ally,</w>
fi ght</w>
expli car</w>
estra te
es paci
es ?</w>
er emos</w>
equ ili
envel lec
econó mi
e ts</w>
dí a.",</w>
dou b
dis appe
diri x
de mais,</w>
dar k</w>
cuar to</w>
crea tive</w>
cous as.,</w>
condi cións</w>
compar ed</w>
coll abor
col or</w>
cogni tive</w>
cheg amos</w>
bun ch</w>
brea k
atur a</w>
at or
as un
arti ficial</w>
ar m</w>
ar e.</w>
all .</w>
al um
ab ili
a fron
Wash ing
U S</w>
Th at</w>
Res ulta</w>
O n
M un
Gustar íame</w>
Fr anci
FO X
E se</w>
Amer ica
,O ur</w>
,"O ur</w>
,"No t</w>
, People</w>
í sti
you 'd</w>
wal ked</w>
wa it</w>
vex o</w>
uti li
up on</w>
tur as</w>
tru th</w>
tr ust</w>
tiv o,</w>
through out</w>
thou s
ter ed</w>
te en
te :</w>
taref as</w>
tam ento</w>
t ados</w>
struc ture</w>
soci al,</w>
sk in</w>
simp le,</w>
si de,</w>
sh oul
ser o
self .</w>
see med</w>
secur ity</w>
resol u
reli xi
re produ
r í
quick ly</w>
que i</w>
que ?</w>
publi ca
pu tting</w>
pros per
pro fund
podí an</w>
paí s,</w>
pas aría</w>
parec en</w>
par e
pa id</w>
on s,</w>
of rec
of fer
normal mente</w>
nes s."</w>
n ais</w>
mos tly</w>
mes mas</w>
men ,</w>
memor ia</w>
mañ á</w>
mas cul
mani pul
m s,</w>
m ate</w>
lan z
la p
ke d,</w>
isto ?,</w>
in e,</w>
histori a.",</w>
hi p
gu ei</w>
go .</w>
g es</w>
fáci l</w>
for e
facer .,</w>
experien ced</w>
esti mul
esco ll
es crit
ensai os</w>
en ter</w>
en ded</w>
en car
empe zar</w>
em a</w>
ele mentos</w>
el se
el abor
e fica
có mo</w>
cámar a</w>
cre r</w>
coñ e
cor tex
communi ties</w>
com bus
colle ge</w>
chron ic</w>
cho ic
challen ge</w>
centr al</w>
car as</w>
bu t
baix a</w>
b all</w>
aug a,</w>
audi ence</w>
at t
at ."</w>
as ist
apren der
an to</w>
an o.,</w>
ai m</w>
afor r
ad as)</w>
acor do</w>
a fir
a ;</w>
T eñen</w>
P as
G r
Est as</w>
C ,</w>
00 0
,"O kay,</w>
,"A l
(S orris
"P ar
"M o
"Es tes</w>
"" I'm</w>
í de
éx it
y m
xus ti
xo gar</w>
xen er
world 's</w>
win do
wer en't</w>
w o</w>
w il
víde o</w>
ver án</w>
ver sión</w>
ve ly</w>
ve d."</w>
tradi tional</w>
to ma</w>
tico .",</w>
tica .,</w>
tic ."</w>
thin k
th an
teach ing</w>
teach er</w>
str eng
sto pped</w>
seri ous</w>
scien ce,</w>
san it
sac ri
sab edes,</w>
ro le</w>
resid u
rela ted</w>
re tin
re mark
pul l</w>
profes or</w>
problem ,</w>
pou co,</w>
po ver
photogra ph
ph an
permi tir
perfor man
per o,</w>
patient s,</w>
pa ix
p oun
os íxen
oppos ite</w>
op in
op ción</w>
on e-
nó s.,</w>
ne y</w>
ne t,</w>
ne arly</w>
mos .,</w>
me tab
mag ine</w>
m usi
l ying</w>
l ent
ix eri
ir ,</w>
inst al
inf lam
in depend
in come</w>
il le</w>
i u</w>
i ></w>
h ur
h as
gus ta</w>
g las
fol low</w>
fiel d</w>
feel s</w>
fag o</w>
f all</w>
experim ento</w>
este a</w>
ent res</w>
enci on
en de</w>
en ces</w>
educa tion,</w>
e ."""</w>
dí a.,</w>
do or</w>
do :</w>
divers idade</w>
diseas e."</w>
dimen sion
di o</w>
di ,</w>
detec tar</w>
des gra
des er
de di
de des</w>
de a</w>
de .</w>
cur a</w>
cul os</w>
ctu ally,</w>
cri tical</w>
cost s</w>
cor ti
cor re
contac to</w>
conscious ness</w>
condi tions</w>
condi ción</w>
comple te</w>
cl ave</w>
cir cul
cho ice</w>
char ac
ch is
canc ro,</w>
ca ses</w>
c ut</w>
br u
bo di
bli o
b and</w>
at ó
an o.",</w>
amos ar</w>
ambi ente</w>
al co
al as</w>
adoles cen
ad as.,</w>
able ."</w>
aba ixo</w>
a fric
a ",</w>
Univers idade</w>
T it
S an</w>
R N
P olo</w>
N ixeri
Lo go</w>
J am
G en
F ix
C ada</w>
C O
B er
</ i></w>
- lo</w>
,D o</w>
,"Th ey're</w>
,"E ven</w>
," Li
"S ó</w>
"Po de</w>
"I maxin
"C on
" X
áron se</w>
will ing</w>
vo z</w>
vit am
vi o
ve des</w>
ustr ali
univer so</w>
u di
tur ning</w>
trat amentos</w>
tr y,</w>
tim es,</w>
ti veron</w>
t ask</w>
sy m
sinx el
sin al</w>
significa do</w>
shi p</w>
sero ton
se x</w>
s at</w>
ró xen
rexi ón</w>
resist encia</w>
reli gi
recei ved</w>
re uni
re e</w>
ra ise</w>
r ul
r itu
quí mica</w>
qu é
pregun tá
pre mi
poñ er
pl ant</w>
perfec t</w>
percep ción</w>
pedi r</w>
pat h</w>
pa i
os ?",</w>
ol ,</w>
ob ri
number s</w>
non .",</w>
noi te,</w>
no ther</w>
necess ary</w>
na cional</w>
mu ch.</w>
mor ning</w>
mor e."</w>
month s,</w>
mo .,</w>
min d
mesmo .,</w>
men cion
man ."</w>
maj ority</w>
mai ores</w>
low -
los ing</w>
lis t</w>
lin es</w>
li mi
le iros</w>
la w</w>
la un
j ur
it ?"</w>
ir st</w>
ir amente</w>
igual dade</w>
i ñ
he av
h it</w>
gustar ía</w>
gu erra</w>
great est</w>
fárma cos</w>
for te</w>
first ,</w>
facer .",</w>
fac er,</w>
f usi
ey e</w>
et .</w>
escal a</w>
ef fici
edi fici
dou tor
dere itos</w>
dere it
del a</w>
deber íamos</w>
da ys,</w>
cus to
cul p
cro w
cor pos</w>
conver ter
control ar</w>
ch á
bele za</w>
b ill
b all
au tist
as om
as in
ar mos</w>
ar ."</w>
aquí .,</w>
ant ."</w>
an ce."</w>
ame az
af ter
ad s</w>
acer ca</w>
ac tive</w>
a ,",</w>
W ell,</w>
S i
Rob er
O K
K ar
Chr is</w>
C he
? ]</w>
1 ,
,S ome</w>
,"J ust</w>
,"B y</w>
(Aplaus o)</w>
"Po der
"Po demos</w>
ñe iro</w>
áde me</w>
xe itos</w>
x ul
wor ds,</w>
we al
w ar</w>
vó s,</w>
vulner able</w>
viv o</w>
vi axe</w>
u t
tó dalas</w>
trad u
tr e</w>
toda y.</w>
ta xa</w>
ta :</w>
suffer ing</w>
stor y.</w>
spac e,</w>
so .",</w>
sle ep</w>
sa fe</w>
s pr
s or</w>
robo t</w>
ro w</w>
ro m</w>
ri c</w>
refuxi ados</w>
re v
problem .</w>
pri vac
pri ori
preocu pa
precis an</w>
polic ía</w>
planet as</w>
pic k</w>
ph en
perso as.",</w>
pa is
ous ly,</w>
os ),</w>
on to</w>
on :</w>
on .,</w>
mú si
má is.,</w>
má is
my self,</w>
moment ,</w>
model s</w>
mir amos</w>
memor ies</w>
mach ine</w>
li es</w>
la .,</w>
l er,</w>
k s.</w>
k ill
itu de</w>
is ol
inter national</w>
inter ese</w>
intelligen ce</w>
ini ti
inf anti
importan tly,</w>
immun e</w>
ida do</w>
i mer</w>
human o,</w>
h our</w>
gre ater</w>
for ce</w>
foo t
fol ks</w>
figu red</w>
famili a,</w>
f lexi
exci ted</w>
ex amos</w>
esquer da</w>
es pero</w>
ere des</w>
enough ,</w>
en coun
emp at
e th
e ma
do m
diag nó
des t</w>
de ad</w>
de ."</w>
coñec emos</w>
cour age</w>
cont ent</w>
condi tion</w>
con xunto</w>
combus ti
coid ados</w>
co ra
cir cun
cap ital</w>
cade a</w>
c raz
br illi
bol a</w>
bigg er</w>
beau ty</w>
ax es</w>
atu res</w>
arti go</w>
ar ían</w>
ar tic
app ly</w>
app lica
analys is</w>
amp li
am os.,</w>
am ente.",</w>
aliz e</w>
aliment os</w>
alg o,</w>
al mac
al e,</w>
afec ta</w>
ade cu
addres s</w>
ad d</w>
aconte ce
a th,</w>
a prob
Ti ña</w>
Po do</w>
Go li
F ac
F :</w>
Ear th</w>
D an
Ch ar
A p
1 00
,L et</w>
( V
&amp ;
"Est as</w>
"C o
"" Por</w>
"" O</w>
" [
ón s.,</w>
é s.",</w>
é s
é molo</w>
é .,</w>
á .",</w>
z as,</w>
wor st</w>
women ,</w>
w ."</w>
ví ti
v ese</w>
v ai
uni que</w>
tri als</w>
tri al</w>
to do.,</w>
tica .",</w>
ten se</w>
tan e
ta .</w>
t ."""</w>
supos to</w>
super i
some where</w>
soli ci
sligh tly</w>
sign al</w>
si z
se .,</w>
san gue</w>
sa ud
sa car</w>
s ist
s -
ri que
rexi óns</w>
resul ts</w>
rest aur
resol ver</w>
res ili
ref lexi
reci bir</w>
re i</w>
re cover
que da</w>
pun tos</w>
program as</w>
produ to</w>
pre di
poid amos</w>
po ño</w>
per io
pens amento</w>
pa ir</w>
p án
p tion</w>
p ad
ou nos</w>
ou .",</w>
other .</w>
os o.",</w>
obvi ously</w>
observ ar</w>
objec ts</w>
no tice</w>
net work</w>
n estas</w>
n ada.",</w>
n ada,</w>
moment os</w>
molecul ar</w>
moit o,</w>
moder n</w>
mis ión</w>
ment o,</w>
ment ais</w>
medi r</w>
medi ante</w>
ma gi
lon xe</w>
lo b
li ves,</w>
lead ing</w>
le o
kno wing</w>
iv o</w>
inv ented</w>
inte gra
incrible mente</w>
in hi
in du
ic ally,</w>
i fica
i an</w>
hy po
high ly</w>
hel ping</w>
h ack
grá fi
grap hi
got ten</w>
go al</w>
g ed</w>
fos en</w>
fortun ately,</w>
famil y,</w>
fal o</w>
face lo.",</w>
exac t</w>
ex pos
essenti ally</w>
escol as</w>
es ;</w>
ere o
er a,</w>
ent .</w>
en ce.</w>
e mail</w>
dri ving</w>
dri ve</w>
do z
di minu
desex o</w>
depen de</w>
demon stra
de tal
de ben</w>
d as.",</w>
d aba</w>
cre a</w>
coñec er</w>
connec t</w>
compu t
compaix ón</w>
comez an</w>
com mon
co idado</w>
co che
co .</w>
cir cum
cho os
car e,</w>
capit al
capaci ty</w>
c tion</w>
boo k,</w>
bo ys</w>
biol óxi
bili dade</w>
at é</w>
así .",</w>
ar í
an t,</w>
am ar
all y.</w>
al one</w>
al -
acu mul
actu ar</w>
activ ity</w>
ac el
able .",</w>
ab ly</w>
a way,</w>
Th ere</w>
T erra</w>
Po is</w>
N eces
K u
Is ra
F in
F al
E ,</w>
Can ad
Californi a</w>
B ar
5 0,</w>
19 7
1 3</w>
,M aybe</w>
, J
, (Music)</w>
) ",</w>
é s.,</w>
áron me</w>
á semos</w>
á moslle</w>
y ri
wh ere,</w>
well .</w>
we ar</w>
we a
wat er
vis it
viol encia</w>
vi u</w>
ves sel
ver sion</w>
ver dade,</w>
under stood</w>
tr us
to o,</w>
tiv ese</w>
tecno l
t y."</w>
súpe to</w>
superfici e</w>
super viv
sufici ente</w>
subjec t</w>
struc tu
speci fic
sor ts</w>
solu tion</w>
societ y</w>
so .,</w>
sex o</w>
senti mentos</w>
scal e</w>
res ,</w>
ra za</w>
r us
r ac
publis hed</w>
pres id
pre dicir</w>
pob res</w>
po u</w>
plan et</w>
per da</w>
p s,</w>
p ha
opio id
obxec to</w>
o wever,</w>
nu clear</w>
neur al</w>
neces idade</w>
moun tain
mo tor</w>
minu tes,</w>
memor i
mecan is
mari ju
manif est
m est
lev an</w>
lan d,</w>
l or
l en
issu e</w>
intent ando</w>
institu cións</w>
ins pi
ing ly,</w>
in her
in evit
importan t,</w>
im pos
identi ficar</w>
ide a.</w>
ide ,</w>
ho mes
gan iz
fon te</w>
exp lo
exp an
ester n</w>
estab amos</w>
es tiven</w>
es que
equi val
equ al</w>
en za</w>
emplo ye
e ti
doen za</w>
docu ment
dist int
diab e
deli ver
decisi ons</w>
d :</w>
cum pr
cu ali
corr up
constru í
complica ted</w>
compas sion</w>
comp on
communica te</w>
com poñ
com ida
co leg
childr en,</w>
cheg an</w>
char acter
can tas</w>
cambi a</w>
ca b
bus ca</w>
bra zo</w>
bi blio
befor e,</w>
bacteri al</w>
b s</w>
at om
at mos
associ ated</w>
as cen
ar ran
ar es,</w>
aqu eles</w>
ant es.,</w>
anci ent</w>
amos a</w>
allow ed</w>
al í
al o.,</w>
ag e."</w>
affec t</w>
a )</w>
U. S.</w>
T :</w>
Stat es,</w>
Sou th</w>
Qu en</w>
K an
Graz as</w>
G ar
Europe an</w>
Est aba</w>
EE .</w>
E l</w>
C al</w>
Ameri ca,</w>
7 ,</w>
,"H owever,</w>
""W h
ú a</w>
í sim
é tica</w>
é po
Á frica</w>
zon as</w>
year s.</w>
xen te.,</w>
val ores</w>
univers al</w>
un ha
ul tra
tu mor</w>
to l
ti mes
thous and</w>
they 'll</w>
terce iro</w>
terce ira</w>
te oría</w>
tar de,</w>
ta tion</w>
ta des</w>
t én
sur roun
su s</w>
stud ying</w>
stor y
stand ar
sor te</w>
ser ies</w>
sensi tive</w>
sen sor
se tt
san itari
salv ar</w>
s w
s que
ro u</w>
righ t.</w>
res on
ref lic
re d,</w>
re -
r up
que ir
próx imos</w>
proteín as</w>
prote in</w>
produ tos</w>
pro t
pro pó
prin t</w>
previ ous</w>
pres er
pre vir</w>
pre frontal</w>
pr ima
poñ emos</w>
posi tion</w>
por que,</w>
pl ata
phen omen
perfec tly</w>
per mit
películ a</w>
pas ando</w>
par te,</w>
palabr as,</w>
ou .,</w>
other s,</w>
op ti
offic e</w>
nen os,</w>
n '
má quina</w>
muller es,</w>
mu se
mo ver</w>
mic as</w>
mensa xes</w>
mecan ismo</w>
mal as</w>
mai or
low er</w>
ligh t."</w>
li xe
leo par
ke .</w>
iz ar</w>
ist s,</w>
investig adores</w>
inter est</w>
inst in
ing ing</w>
infec ción</w>
indus try</w>
in cu
impli ca</w>
ha ve,</w>
gu ar
g lu
fí sica
fur ther</w>
func tion</w>
ful .</w>
ful ."</w>
fr as
foo d,</w>
fi x</w>
feel ings</w>
famili es</w>
experi encias</w>
expen sive</w>
ev alu
esti lo</w>
este an</w>
est án
equili bri
ent or
en gan
el aquí</w>
e ta</w>
dy nam
don '
divers ity</w>
diseas e.</w>
dis o,</w>
dir ía</w>
diagnos ed</w>
diab et
determin ar</w>
dest in
des eño</w>
deci sion</w>
deci sion
da y.</w>
d uns</w>
d outro</w>
cor tex</w>
conti do</w>
consci ente</w>
cons id
conex ión</w>
con tain
con centr
col on
col li
co very</w>
cl uso</w>
cientí fica</w>
cham a</w>
cerebra is</w>
ca f
c ked</w>
bá si
bus cando</w>
bre ast</w>
ble .",</w>
be ."</w>
b oun
asom br
ari z
am a</w>
again .</w>
ag o
acon tec
ación s,</w>
aber to</w>
a a
T al
Sa ú
O N
L ev
Joh n</w>
FD A</w>
DN A,</w>
Ch il
Bos ton</w>
B run
B on
Alg úns</w>
A si
A li
,H e's</w>
,"S ome
, N
"Pen so</w>
""H ow</w>
í na</w>
z an</w>
y el
xer al</w>
xer al,</w>
xen te.",</w>
xe o</w>
wh ose</w>
we igh
wa ys,</w>
volun t
verdade ira</w>
vari ous</w>
v ast</w>
univer se</w>
tur al</w>
tiv e."</w>
telesco pi
te or
suce de</w>
success ful</w>
sub stitu
stran ge</w>
sti mul
st er
spo ke</w>
so ño</w>
siti o</w>
sin xe
sign als</w>
ser án</w>
s mal
smal ler</w>
represent a</w>
recor dos</w>
re vis
profes or
produc ts</w>
produ ción</w>
problem ."</w>
proble ma,</w>
probab ilidade</w>
pro vid
posibili dades</w>
posibili dade</w>
polí ticas</w>
play ed</w>
plane ts</w>
per pe
pen ici
patter n</w>
pat ent</w>
parec ía</w>
parec er</w>
oc cur
o log
norm al,</w>
no tic
no t."</w>
nes s.</w>
ne ed
n outros</w>
mó bil
mo tivo</w>
mes a</w>
mem br
me tho
mari hu
marihu ana</w>
m í
m á</w>
lon ga</w>
lev amos</w>
le y</w>
laboratori o,</w>
l a,</w>
keep ing</w>
ing ?</w>
incen tiv
in visible</w>
im o</w>
il umin
il les</w>
ica mente,</w>
health care</w>
ha xa</w>
gu es
gen ome</w>
gall adas)</w>
futu re."</w>
for ward</w>
for get</w>
focu sed</w>
feed back</w>
fe itos</w>
fe it
fant as
fag a</w>
face lo,</w>
f ,</w>
explor e</w>
exper tos</w>
expec t</w>
exp lica
exempl os</w>
esper anz
en sa
efec tiv
e ar</w>
dist ancia</w>
diferen te.,</w>
di gn
di a</w>
di :</w>
dev ic
detec t</w>
descubr imos</w>
descri be</w>
des cen
des car
den se</w>
da y
cur ar</w>
cris is</w>
coñeci da</w>
coñec ín</w>
cor reo</w>
cor ding</w>
convers a</w>
conv ér
contex to</w>
conse quen
conf id
concep to</w>
con fir
communica tion</w>
co de</w>
cl aim</w>
ci tiz
ca used</w>
ca u
brid ge</w>
bi ci
benefici os</w>
beb é</w>
b a,</w>
axi ña</w>
awa y."</w>
audi encia</w>
atr activ
at ory</w>
at ors</w>
aspec tos</w>
ari o.,</w>
ari es</w>
ar qui
ar chi
an as</w>
alzhé imer</w>
al though</w>
agre e</w>
ade mais</w>
ad os
ad di
ab a,</w>
a ul
a ti
You 've</w>
To das</w>
T or
S i,</w>
S co
No bel</w>
M in
M I
G ran</w>
De us</w>
DN A
D B
Chin ese</w>
C am
B an
1 50</w>
," Be
," (Music)</w>
"Po is</w>
""W e</w>
’ s</w>
ícul o</w>
án donos</w>
á .,</w>
year ."</w>
x ac
wi fe</w>
we b</w>
vó l
veh ic
vas os</w>
vari ety</w>
tw ice</w>
tu ber
tri b
trans form</w>
train ed</w>
tradi cion
traball a</w>
together ."</w>
tion ary</w>
tion ally</w>
tico .,</w>
ti stic</w>
ti ma
ti es.</w>
ti es."</w>
thing s.</w>
test ing</w>
tan ta</w>
tam e</w>
t uni
sup ón</w>
su ces
sor pres
sh ouldn't</w>
se quen
s into</w>
s es."</w>
requi res</w>
refuge es</w>
ra tes</w>
r ,</w>
pur pose</w>
pur pos
produ cir</w>
proces s,</w>
pr a</w>
possi bly</w>
por cent
po camp
plac e,</w>
ph er
perso al</w>
perso a.",</w>
pen a</w>
pas s</w>
pas ado,</w>
pa cien
ou lles</w>
on .",</w>
oc cu
oc cid
o v
ne g
n os,</w>
n one</w>
n ingu
mun dial</w>
mor ning,</w>
mill ón</w>
metá for
mem ber</w>
medi a,</w>
materi a</w>
man ex
ma tic</w>
les s
le -
l au
k er</w>
jo in</w>
is tic</w>
irmá n</w>
infor má
in volu
in ver
importan cia</w>
ima x
im on
ide al</w>
idad es.",</w>
i ña</w>
hip pocamp
hap pi
ha k
h ."</w>
gh ter</w>
gener al</w>
fó r
follow ing</w>
financi al</w>
fil os
feli cidade</w>
fe et</w>
fant ásti
fal se</w>
fac ing</w>
f ying</w>
f fe
f at</w>
f as</w>
ex tra</w>
ex ecu
et ."</w>
es ted</w>
ent o.",</w>
ent ly,</w>
emer gen
em os.,</w>
electri cal</w>
do bre</w>
dis o</w>
difíci l
dicin do</w>
dic ía</w>
desgra za,</w>
desaf í
del as</w>
de tail
de bido</w>
da tion</w>
d ying</w>
cu br
cre di
cr é
conver te
contr ario</w>
consu mid
co ch
co :</w>
clar o,</w>
cirur xi
chang e,</w>
ch an</w>
cas os,</w>
cam era</w>
c em
bre ath</w>
azu l</w>
ax us
aw are</w>
au mento</w>
ato pei</w>
at os</w>
así .,</w>
as u
as ?",</w>
arti fici
ar ei</w>
any body</w>
an do.,</w>
al í,</w>
ag ra
af ford</w>
adv ant
ad voca
ad ded</w>
abo ve</w>
a ñ
a head</w>
a ...</w>
Univers ity</w>
U S
T R
P ol
L ou
I s</w>
Hu man
F ren
C A:</w>
A ustrali
4 0
2 7</w>
1 6
- la</w>
,I s</w>
,"I 've</w>
,"H ow</w>
,"H e's</w>
,"A ctually,</w>
," [
"M entres</w>
"" P
ír on</w>
ín do
ín ,</w>
ándo lles</w>
áb ame</w>
xo me</w>
x en</w>
wor se</w>
w in</w>
w er</w>
vos as</w>
volun te
van ta
val i
use ful</w>
underst and
u .",</w>
tre ating</w>
tre ated</w>
trans la
trabal lo.",</w>
tra vel
tr an
toxi c</w>
tica s,</w>
tic .</w>
ti u</w>
ti ,</w>
thre e,</w>
th s</w>
tele vision</w>
t as.,</w>
t all
t ada</w>
su x
solu cións</w>
so amente</w>
sin al
shar ed</w>
se qu
se ll</w>
s os,</w>
rá tase</w>
righ t."</w>
respec to</w>
research ers</w>
resear ch,</w>
regi ons</w>
re ver
re plac
re gar
re ach
rab all
qu ir
profesion ais</w>
profes ores</w>
produc t</w>
pres s</w>
pr ice</w>
poder emos</w>
po or
po int
po di
pl en
pes o</w>
perspec tive</w>
perm í
pe .</w>
pas sed</w>
pad r
pa ying</w>
p li
ou tra
ou s."</w>
origin al</w>
oportun idades</w>
opin ión</w>
of ,</w>
objec t</w>
o ?",</w>
neu tr
nen a</w>
mun di
mon tón</w>
mon e
mo v
mis teri
mi gr
mesmo .",</w>
mellor .,</w>
man y,</w>
ma p</w>
m ouse</w>
m m
lí der
lonx ev
lev ou</w>
la y
la ws</w>
kid s,</w>
ke ."</w>
it ."""</w>
is m,</w>
inst ance,</w>
infec cións</w>
increas ed</w>
impres ion
im it
ill ness</w>
ill a</w>
i ón,</w>
i ro
hy dro
hou se
hon est
hel ps</w>
har d
happ ines
hak espe
h áb
futu ro.",</w>
funcion an</w>
friend s,</w>
fr ustra
fotogra fí
fin almente</w>
fall a</w>
fair ly</w>
fag an</w>
fa ther
f ing
expec ted</w>
excep t</w>
ex ces
evol ved</w>
esper ar</w>
escol ler</w>
es pir
er al</w>
ensin ar</w>
enor mes</w>
en riba</w>
en i
en ch
empre gar</w>
emo tion</w>
em pre</w>
el y,</w>
ef ul
díxo me:</w>
dou s,</w>
dixer on</w>
dis pens
dis as
dir on</w>
dif icul
determin e</w>
des as
des .,</w>
defin e</w>
de fec
dau ghter
dat os,</w>
dat a,</w>
da f-
có m
cu estion
crit eri
conver ter</w>
continu e</w>
con clusi
clín ica</w>
cla im
cl á
circun st
circum st
ci fr
chemis try</w>
chan ge."</w>
ch ose</w>
cam pa
c k,</w>
c ell,</w>
bro ther
bio log
bet ter.</w>
behavi or."</w>
bac k."</w>
b y
b its</w>
au dit
ation s."</w>
at s</w>
as us
apren demos</w>
anz e
anti depres
anci a,</w>
am or
al les</w>
al ing</w>
ad minis
aca dé
aca de
able .</w>
a "",</w>
Th ere's</w>
S ol
S :</w>
Qu izais</w>
Qu er
P al
Or ganiz
O c
N a
M ou
M R
Jo e</w>
Jam es</w>
J as
I A</w>
Graz as.,</w>
G od</w>
Est án</w>
E U
D o
D i
D a
D ,</w>
B ur
B rit
Afri can</w>
ADN ,</w>
A t
A frica</w>
A fric
A S
A L
</i> ,</w>
9 0
8 0
2 5
,"To day,</w>
,"In stead</w>
"To do</w>
"S i,</w>
"P rime
"P as
"N este</w>
"E l</w>
""W hy</w>
” ,</w>
í do</w>
é mol
wi de</w>
wh al
w ise</w>
voca bul
vo ice</w>
viv imos</w>
vir on</w>
vi do</w>
ve d,</w>
v ías</w>
v ist
un ,</w>
u g
tuber cul
tra vel</w>
to ol</w>
to ."</w>
thre e-
this ?</w>
they 'd</w>
ther a
the tic</w>
technolog y,</w>
te d
tab le,</w>
sur face</w>
strate g
st ori
st ag
sorpren dente</w>
some how</w>
so por
so m
signific ant</w>
segre do</w>
se d,</w>
s pi
s ente</w>
s ch
s ""</w>
rú as</w>
rápid o,</w>
ro ll
resist ant</w>
regi on</w>
recep tor</w>
reas on
reac ción</w>
r ace</w>
qu ar
psicol óxi
pro ve</w>
pro me
pris on
pres ente</w>
pregun te
preci sab
pre zo</w>
po .",</w>
piec es</w>
percent ."</w>
pensa des</w>
pens amentos</w>
partícul as</w>
particul ar,</w>
parti do</w>
part ner
par ar</w>
pant as
pan crea
p on</w>
p h</w>
oppor tuni
op os
on g,</w>
on da</w>
on al
númer os</w>
nen as</w>
neces ario</w>
na ve
multi ple</w>
mostr as</w>
moment s</w>
mo m</w>
mir ando</w>
mil leiros</w>
ment s."</w>
membr os</w>
medica tion</w>
medica mento</w>
me ter</w>
mas s</w>
mar ,</w>
m it</w>
líder es</w>
lí mi
lo ita</w>
ll os</w>
lingu a
know .</w>
j um
it o
it ch
ish ing</w>
ir á</w>
ir a.,</w>
interac ción</w>
institu tions</w>
in jur
importan te.,</w>
im possible</w>
im plant
im per
hus band</w>
human idade</w>
histori a.,</w>
hi pó
h ate</w>
graphi c</w>
gen es
g dal
g ate</w>
futu re,</w>
fos si
fo mos</w>
fin e</w>
fill os,</w>
fen ó
feli z</w>
fam ous</w>
f li
f ame</w>
et as</w>
estra ñ
estiv ese</w>
especí fi
es tivo</w>
es cán
environ ment,</w>
envi ar</w>
en 's</w>
emer x
elec tro
el es,</w>
ec h</w>
easi er</w>
e ir</w>
e dades</w>
e ating</w>
du e</w>
disposi tivo</w>
direc ción</w>
diagnos ti
di ñeiro</w>
di d.</w>
des .",</w>
der .</w>
depres sion,</w>
den o
democraci a</w>
deep ly</w>
de men
dar lles</w>
d or,</w>
d ad
curr ently</w>
cuesti óns</w>
cuali fica
cu mul
crea tes</w>
cre amos</w>
cr ón
consider ed</w>
conf lit
condi tion,</w>
con tor
commun ity,</w>
co ches</w>
climá tico</w>
clas es</w>
ci encia,</w>
chimp anze
ch o</w>
ch ick
cer tas</w>
cer ta</w>
ce o</w>
cate gor
car ry</w>
cancer .</w>
can di
buil d
bro ther</w>
bos que</w>
bod y's</w>
bir th</w>
bio loxía</w>
bet ter."</w>
believ ed</w>
bas is</w>
bas icamente</w>
b ad
azu is</w>
az ul
as asin
as ...</w>
ar ro
appro ach</w>
an os
an ds</w>
an da</w>
amy lo
ami lo
al tos</w>
al o.",</w>
agr ad
ag on
ag ing</w>
ag ed</w>
ag a</w>
ad vers
abri r</w>
a í,</w>
a in
a de,</w>
S o,</w>
Rus si
R i
R ,</w>
M ir
M al
J uli
Go d,</w>
Face book</w>
E la</w>
Des pois</w>
Chi ca
C as
B ri
An der
A d
: ",</w>
8 00</w>
6 ,</w>
3 5</w>
2 3</w>
1 7</w>
,O r</w>
,"W ell</w>
,"In stead,</w>
,"C A:</w>
," You're</w>
," U
," Let's</w>
(Sorris os)</w>
"Se gun
"Sab emos</w>
"Est á</w>
"C h
" que</w>
é .",</w>
án .",</w>
z er
y n
xer ar</w>
wor ried</w>
vi l</w>
ve z.",</w>
v en,</w>
usi as
us u
us ti
u t,</w>
tí o</w>
ty pic
tu i
tru e."</w>
trav es
trans par
traball an</w>
tr ag
tr ack</w>
toda y."</w>
tiv e.</w>
tion ed</w>
ti vi
ti cas.",</w>
test s</w>
tend encia</w>
te am
te ?,</w>
tar ge
t én</w>
t adas</w>
t ?"</w>
str ong
str o
st ate
st ,</w>
spe ech</w>
sorpren den
some thing,</w>
sin cer
simp li
shi f
servi zos</w>
ser ve</w>
ser ,</w>
secre t</w>
saú de,</w>
s we
s ke
rú a</w>
ri ch
rexis tr
responsi ble</w>
recib ín</w>
rec y
re tro
re pres
ra .,</w>
pí lul
pán cre
puide n</w>
psy ch
psic ó
pre mat
poñ en</w>
pl at
perso a,</w>
pen as</w>
paí s
pancrea tic</w>
pag ar</w>
p les</w>
os o.,</w>
organiz acións</w>
on line</w>
on es,</w>
ol a</w>
ocu p
observ amos</w>
o lo
no ve</w>
necess arily</w>
neces idades</w>
n ine</w>
n er,</w>
n a,</w>
n ."</w>
movi e</w>
mortal idade</w>
mor rer</w>
mon th</w>
min .",</w>
mi gra
ment al,</w>
mell or,</w>
medica ment
mecanis mos</w>
mas sive</w>
mal o</w>
ma pa</w>
m ira</w>
lit t
li b
les son</w>
le d,</w>
l via</w>
l ado,</w>
ke ys</w>
ix e</w>
it ?</w>
isto :</w>
issu es</w>
ir ía</w>
ir on
ir a.",</w>
inv en
inspi red</w>
ingres os</w>
informa tion,</w>
infec tion</w>
in visi
importan t."</w>
human ity</w>
human a,</w>
him ."</w>
hero es</w>
has n't</w>
happ iness</w>
gu i
gra ci
ge les</w>
ge .</w>
funcion ar</w>
for man</w>
fin ish</w>
fin almente,</w>
fica ,</w>
faci lit
fa ul
extra er</w>
expec tan
estadouniden ses</w>
estab lec
est en
especi al</w>
esfor zo</w>
escol a,</w>
es ca
epidemi a</w>
engine ering</w>
enfo que</w>
en temente</w>
en os</w>
en :</w>
el os</w>
el esco
el es.",</w>
el a.,</w>
el .,</w>
el .",</w>
e lev
dé cada</w>
dur a</w>
dre w</w>
dra w</w>
doll ar</w>
do g</w>
do ado</w>
dix en</w>
dicir :</w>
diabe tes</w>
di ver
deno min
den s
deep er</w>
de ma
de clar
da m</w>
da ily</w>
d outras</w>
d ?</w>
cá l
cul tiv
coun t</w>
cor al</w>
control ,</w>
const antly</w>
cons is
cons cientes</w>
conf es
complex o</w>
com mer
colle u</w>
col ate</w>
co inci
co ffe
clear ly</w>
civi l</w>
cientí fico</w>
ci ña</w>
childr en."</w>
chil d,</w>
cer em
caus ing</w>
casa .",</w>
cas es,</w>
carbon o</w>
caracter ísticas</w>
car ga</w>
car eful
car d</w>
ca do</w>
bro ken</w>
br ings</w>
bot tom
bo ca</w>
billi ons</w>
benef it</w>
befor e."</w>
base ada</w>
b o,</w>
b ic
b and
azu cre</w>
av os</w>
aument a</w>
atr á
arri ba</w>
apro xim
an aco</w>
an -
am ente
al le</w>
ag res
adul t</w>
adap tab
accoun t</w>
accep t</w>
ab rai
ab as
a war
a por
a ?</w>
a 's</w>
Wh en</w>
W al
V ou</w>
T u
Sco t
S hakespe
Rober t</w>
R u
Po den</w>
P recisamos</w>
P h
P an
O h,</w>
M yri
M a
Lo ok</w>
L in
H ig
FOX O</w>
E C
D ar
B re
B en
Americ ans</w>
10 ,000</w>
,"M ost</w>
"S en</w>
"P re
"P er
"Est aba</w>
"A n
"" "
ís tica</w>
í m
í da</w>
é monos</w>
á to
z amos</w>
year .</w>
xené tica</w>
x am
work s.</w>
wh en
wee k
we ight</w>
wat er."</w>
wa ke</w>
voste de</w>
volv ín</w>
vol veu</w>
viol ence</w>
video xog
ver an</w>
usi on</w>
u re
tó xi
trastor nos</w>
to me</w>
to ler
tic s."</w>
there fore</w>
themsel ves,</w>
the ory</w>
tes ted</w>
t ing."</w>
syn thes
sur vi
super ar</w>
suc ce
su i
stre ets</w>
stre am
spe e
socie dades</w>
simp les</w>
side ."</w>
segu imos</w>
sear ch</w>
se ly</w>
scre en</w>
scre en
sa v
s por
s enten
s ar
ro ad
righ ts</w>
ri cos</w>
responsi bility</w>
remo te</w>
remember ,</w>
re ve
re ment</w>
re lease</w>
re act</w>
rat os</w>
ras tre
ra to</w>
ra cion
puide mos</w>
profun do</w>
plac e."</w>
pl u
pi cal</w>
per cei
pens ar
pens aba</w>
pe l</w>
pas ei</w>
pas e</w>
pag a</w>
p ac
ou lle</w>
os ter
os pec
org ul
on das</w>
om as</w>
oc ca
o li
nar ra
n algúns</w>
má xim
mostr ar</w>
mor te,</w>
mo i,</w>
minu tos,</w>
min .,</w>
mer car</w>
men os,</w>
mem bro</w>
mellor .",</w>
me tro</w>
mat er
mar ri
mal ari
lle :</w>
li ñas</w>
lembr ar</w>
lec ción</w>
le is</w>
k ing
k i
ir má</w>
ir .,</w>
inter i
inclu índo</w>
inclu de</w>
in sec
in o,</w>
in corpor
im os,</w>
ide a.,</w>
ic e
hel p
head ,</w>
hab itu
hab ilidades</w>
graf ía</w>
goo d,</w>
gober nos</w>
go od
gañ ar</w>
g eri
g as,</w>
fra g
fin ance
fic as</w>
ferrament a</w>
fenó men
femal e</w>
fac tor</w>
explor ar</w>
experien ce."</w>
exam pl
exam in
ex o</w>
every day</w>
espec tro</w>
esp all
es fer
es ,",</w>
err o</w>
equi p
enti rely</w>
ensa io</w>
en caix
em os.",</w>
eléc tri
ele ments</w>
ele mento</w>
ec ía</w>
eas ily</w>
e uro
down ."</w>
do ?</w>
dis trac
diagnos e</w>
di do</w>
di da</w>
des per
des coñeci
depen ds</w>
decidi mos</w>
deb ate</w>
de ath,</w>
d outros</w>
cultu re,</w>
cr on
conven i
conv in
contr at
contr a,</w>
cont act</w>
condu cir</w>
concep t</w>
comple to</w>
compan y,</w>
com b
co ol</w>
co ol
co -
clos er</w>
clin ic</w>
cin a</w>
ci dades</w>
ci dade.",</w>
cho ices</w>
che o</w>
ch as
can ta</w>
can ,</w>
ca su
behavi or
bacteri a,</w>
ba il
b ese</w>
b ,</w>
auto má
au tistic</w>
ato pou</w>
ate d,</w>
ari o.",</w>
archi tec
apar ell
analiz ar</w>
an gu
an do.",</w>
al so,</w>
ag o."</w>
ador as</w>
ad amente,</w>
achi ev
acel er
ac cións</w>
a h</w>
VI H</w>
Unid os,</w>
UU .,</w>
U C
T r
T ex
T elesco
Stan ford</w>
N in</w>
Lo o
Li ber
L ag
Indi a,</w>
In g
F e
Es co
C re
C D
B G:</w>
A b
A ID
20 ,</w>
1 5
1 3
,S ome
,"S econ
,"O ver</w>
, G
(Aplaus os),</w>
% .",</w>
"F oi</w>
"C A:</w>
"" the</w>
"" a</w>
"" Y
"" G
"" Ben,</w>
" U
ú til</w>
ú s
óxi do</w>
é st
á moslles</w>
z ero</w>
yel low</w>
y p
xu bil
xi g
x el
x ar</w>
wo od</w>
who m</w>
wee k,</w>
wear ing</w>
wat ched</w>
w ri
volu me</w>
vic ti
verdade iro</w>
ver go
ve z.,</w>
vac inas</w>
v esti
ur x
tú as</w>
técn icas</w>
ty pical</w>
trou ble</w>
tri c</w>
tremen dous</w>
trastor no</w>
trans formar</w>
tr es,</w>
to mar
to car</w>
tissu e</w>
tima tely</w>
ti tul
th i
ter á</w>
ten s</w>
tem as</w>
te ime</w>
tam in
tal k,</w>
system .</w>
sus cep
surger y</w>
suc cess</w>
su lin</w>
stud ents,</w>
speak ers</w>
son g</w>
son :</w>
so des</w>
so ."</w>
smar t</w>
silenci o</w>
si x
shop ping</w>
shi ft</w>
sh r
secu enci
se ts</w>
school s</w>
s wit
s kin
s ite</w>
s a,</w>
s ?"""</w>
s ,""</w>
rou b
ro w
result ou</w>
responsab ilidade</w>
respon der</w>
repor t</w>
remark able</w>
relationshi ps</w>
rela tion</w>
recoñec er</w>
reci bir
radi cal</w>
raci s
r ying</w>
r ound</w>
r are</w>
psi qui
próxim o</w>
prác tica</w>
prote ína</w>
produc tion</w>
proces os</w>
pro voca
pris on</w>
prev ent
pregun ta:</w>
pre ce
prac tice</w>
pou cas</w>
potenti ally</w>
po is,</w>
po es
plac e
per form</w>
per der
pens en</w>
peix es</w>
pe ."</w>
pas an</w>
pa xar
ou s.</w>
os t
orix e</w>
ori ent
ol óxi
océ ano</w>
o m</w>
o logy</w>
o bra</w>
nó s
new s
nes as</w>
negr os</w>
negr a</w>
neces ita</w>
ne l</w>
mé todo</w>
movem ent</w>
mor e.</w>
mo zos</w>
mo b
mis ta
minu te</w>
mean ing
mar cha</w>
mad amente</w>
ma .</w>
liter almente</w>
lin ked</w>
lif est
lifest y
li ked</w>
lead s</w>
la v
k ers</w>
ist ."</w>
industri al</w>
in dependen
in al</w>
ima xe,</w>
il it
iP hon
i .",</w>
human as</w>
human ,</w>
histor y,</w>
hel d</w>
har der</w>
gustar íame</w>
gra de</w>
go ."</w>
g úst
futu re.</w>
fossi l</w>
fill a</w>
feli ces</w>
fe ed</w>
far ía</w>
fal ei</w>
fal an</w>
faci l
face lo.,</w>
fac tor
fa ir</w>
f low
extre madamente</w>
extraordin ary</w>
expli car
experiment ar</w>
exci ting</w>
examp les</w>
euro pe
estr es
est ados</w>
especi al
espa ñ
es ?",</w>
er gu
epide mic
ent o.,</w>
enor m
ema il
effor t</w>
ec er</w>
dúb ida</w>
dro p</w>
doub t</w>
dou tor</w>
dis cover</w>
direc tamente</w>
diagnos is</w>
di min
di d,</w>
detec tor</w>
des a
depresi ón,</w>
den ,</w>
defini ción</w>
de d."</w>
de cen
dau ghter</w>
d ate</w>
célul as,</w>
corpo .",</w>
consu mo</w>
consegu imos</w>
consecu encias</w>
cons ist
con ta
colleagu es</w>
co ti
cl am
circu í
ci den
ch ámase</w>
cat ch</w>
carre ira</w>
cam er
ca use,</w>
ca tas
c ó</w>
c én
brilli ant</w>
bran co</w>
br inging</w>
bir th
biblio te
b es
axud arnos</w>
avo id</w>
ation s.</w>
at or</w>
asun to</w>
as t,</w>
as ,",</w>
ari amos</w>
aquí .",</w>
aprove it
anxi et
anti ga</w>
an gr
an der
ale atori
al o
ac com
aba ix
a er
a ?""",</w>
Ye ah,</w>
W estern</w>
V alle
Tur ing</w>
T om
T V</w>
Ste ve</w>
Sab emos</w>
S tu
S pan
P or
Na cional</w>
N o,</w>
M y</w>
M e
Indi a</w>
I ra
HI V</w>
H e
Graz as.</w>
Fren ch</w>
F o
Ear th,</w>
D o</w>
D ix
B us
B ill</w>
As per
Af gh
A dam</w>
A P
6 00</w>
1 .
,"On ce</w>
,"F rom</w>
, You're</w>
"T eñen</w>
"Prime iro,</w>
"M ir
"F al
"Des de</w>
"B G:</w>
"" This</w>
ñ a.,</w>
ñ a.",</w>
éron me</w>
é u
án s,</w>
á molo</w>
y o
xun tos,</w>
x ose</w>
work s."</w>
what ?</w>
vir al</w>
vid as.",</w>
verdade .",</w>
velo cidade</w>
vell a</w>
vel o</w>
ve z
valu es</w>
ur ing</w>
tur a,</w>
tul o</w>
treat ments</w>
trat ando</w>
trans cri
tr in
tou ch</w>
tom amos</w>
together .</w>
to do.",</w>
tiv a.,</w>
tiv a.",</w>
tico s.",</w>
thin king,</w>
th ir
test oster
ter án</w>
ter mo</w>
ter emos</w>
tent ar</w>
teléfon o</w>
teen ag
tecnolox ía,</w>
teach ers</w>
te ch</w>
tan tas</w>
tam én,</w>
ta il</w>
t y.</w>
súpe to,</w>
su fri
specific ally</w>
solu cion
societ y,</w>
situ acións</w>
shar ing</w>
segur os</w>
sacri fic
sab es</w>
sa d</w>
s low</w>
robo ts</w>
ri d</w>
res u
rela tively</w>
reci cl
realiz ar</w>
re fri
rapid ly</w>
que dar</w>
que dan</w>
qu ali
puid ésemos</w>
prote ins</w>
privac y</w>
priv ate</w>
pri or
preg ún
preci sión</w>
pre ven
possi bility</w>
pos t
porcent axe</w>
popul ar</w>
polí ticos</w>
poli ci
podi amos</w>
poder íamos</w>
po .,</w>
physic ally</w>
ph r
ph ar
person aliz
pe it
patter ns</w>
patient s."</w>
pas amos</w>
part ner</w>
pa ir
oxy gen</w>
over ,</w>
outr o.",</w>
outr a,</w>
oun ds</w>
ori o</w>
organ ic</w>
opportuni ties</w>
ol d.</w>
ofic ina</w>
of re
obes idade</w>
notic ed</w>
no te</w>
neuro genes
ne ar</w>
n outras</w>
n isto</w>
médi ca</w>
mud ar</w>
mu ch,</w>
movem entos</w>
moun tain</w>
mos qu
mob ile</w>
mis er
min im
microbi al</w>
me th
mat ters</w>
man age</w>
m al,</w>
lé v
lu m
lo itar</w>
lin e,</w>
ligh ts</w>
lev aba</w>
let ter</w>
kin son
k ing."</w>
k -
job ,</w>
inv it
inter n
in xec
in tui
in sulin</w>
in ner</w>
identi fica
ide o)</w>
i th
i an
human o.,</w>
horri ble</w>
ho mes,</w>
heal th,</w>
hab ilidade</w>
h .</w>
grá fico</w>
grow th</w>
groun d,</w>
gradu ate</w>
gra ve</w>
gen ous</w>
gen ,</w>
ge ly</w>
ga z
g s,</w>
g l
fáci l
for z
foo t</w>
fis io
fin ,</w>
f le
f ill</w>
f abri
experien ces</w>
ex t
evolu tion</w>
estrate xia</w>
estr és,</w>
esper a</w>
ep ine
environ mental</w>
enten demos</w>
ent er
en o</w>
em i
elix ir</w>
e ur
e ter
e iros</w>
e go
dur mir</w>
distin ta</w>
diferen te.",</w>
difer entes.,</w>
di d."</w>
deseñ ar</w>
descubr iment
dere ita</w>
democr acy</w>
defin ed</w>
de prim
de cre
da ción</w>
d le</w>
corpo .,</w>
cor ri
cop y
compañe iros</w>
compañ ía</w>
compar e</w>
coid ar</w>
co res</w>
co lo
co le
civi liz
cirurx ía</w>
ci n</w>
ci cl
cho colate</w>
chem ic
char las</w>
cham ar</w>
cer tos</w>
cell s."</w>
car ne</w>
brain 's</w>
bo ard</w>
ble .,</w>
bl es,</w>
bio logy</w>
bet ter,</w>
ber g
ben estar</w>
bat all
bar re
b ought</w>
b ag
aug a.,</w>
au tén
arti n</w>
ar tí
apren dendo</w>
ap par
anti -
ansi e
an n
al em
affec ts</w>
advan ced</w>
acab amos</w>
ac cumul
absolu te</w>
abor dar</w>
ab les,</w>
a plaus
a penas</w>
a e</w>
] ,</w>
W illi
V ol
U N
T on
Sy ri
Sy lvia</w>
R os
Poder ía</w>
Par ece</w>
Ou tra</w>
N inguén</w>
N a</w>
M é
J ap
Inter net,</w>
Englis h,</w>
De ber
Char les</w>
Ch ris
Brun o</w>
Bro wn
9 9</w>
2 ,000</w>
19 4
1 9</w>
,W ell</w>
,Th ose</w>
,"S e
,"M aybe</w>
,"B G:</w>
(V ideo)</w>
"Po den</w>
"N on,</w>
"Est ou</w>
"E la</w>
"C reo</w>
" Ás</w>
" Á</w>
" R
! ""</w>
óx icas</w>
ón .</w>
í fi
ár bor
á ban
xo gue
xe o
x ima
wrong ."</w>
wor ry</w>
won der</w>
with ,</w>
wee ks,</w>
wa vel
wavel eng
w ide
w all
vol ve</w>
visi on
vid as,</w>
vermell o</w>
ver de</w>
ven ti
ve ciñ
univers idade</w>
um ber</w>
trau ma</w>
trans forma
trans fer
traball amos</w>
tr illion</w>
though ts</w>
th -
test ,</w>
tera peu
te za</w>
te mente,</w>
te l</w>
tar nos</w>
tan tes</w>
tamén .,</w>
tal vez</w>
ta x
t ing
syn ap
suscep ti
sus tain
sur fac
super ior</w>
sui cid
su xer
su gar</w>
stu died</w>
stu di
stat us</w>
star s</w>
stand ard</w>
spe ed</w>
sol di
soci al.,</w>
soci ais,</w>
so le
sleep ,</w>
sinx ela</w>
sex a,</w>
sen ior</w>
sec tor</w>
s un</w>
s pon
s par
s cri
s an</w>
room ."</w>
rique za</w>
ri ca,</w>
residu os</w>
releas ed</w>
regr as</w>
reflec t</w>
recor d</w>
recom men
real idade.",</w>
real .",</w>
rapid amente</w>
rais ed</w>
radi o</w>
quer ían</w>
qu im
publi c
profun di
proces o,</w>
proble ma.,</w>
pro pos
present ar</w>
pres sure</w>
pres su
precis amente</w>
praz o</w>
prac tic
pictu re,</w>
pic o</w>
photogra ph</w>
permi ten</w>
performan ce</w>
pen e
pe dr
pe dir
partici pa
paci entes,</w>
p ár
p le
p ill
ox ito
osíxen o</w>
os te
organiz ed</w>
ordin ary</w>
on s.</w>
on -
ocor reu</w>
obxec tiv
obvi ous</w>
o il
o fr
o d,</w>
nú cle
nov o.",</w>
neuro xén
nes es</w>
nen os.,</w>
nen o,</w>
n uns</w>
n un
n s,</w>
n outra</w>
n ers</w>
mé todos</w>
monta ña</w>
modi fica
ment al
men or</w>
me ter
me ta</w>
me e
mee ting</w>
me do,</w>
mañ á,</w>
mariju ana</w>
mar ca</w>
manu fac
mane iras</w>
m one</w>
m ata</w>
ll ,</w>
limi ted</w>
liber dade</w>
li qu
li bro
li bre</w>
lead ers</w>
le xis
languag e.</w>
land s
lab ,</w>
k id,</w>
jud g
jour nal
ir se</w>
ir an
intr ospec
interes antes</w>
interes ados</w>
inter nacion
intelli g
informa ción,</w>
in vi
in s,</w>
imag ing</w>
idad es.,</w>
id ."</w>
i ve</w>
i ro.",</w>
hur t</w>
human s,</w>
human o.",</w>
hor mone</w>
ho me.</w>
ho me."</w>
her .</w>
health i
har mon
ha ve.</w>
gu il
grou p,</w>
grap h</w>
govern ment,</w>
glob al,</w>
gi ant</w>
gar ,</w>
g la
fri gh
fotogra f
for ced</w>
for an</w>
fo cus
fix era</w>
fin ais</w>
fi re
favor it
fav or,</w>
fal ar,</w>
fail u
facer se</w>
face lo
f low</w>
ex tr
ex teri
ex posición</w>
ex clusi
estu pen
esti veron</w>
estat ísti
est aría</w>
est ."</w>
especi es</w>
escal e
es mo</w>
es ."""</w>
epi le
en ni
en cán
electr óni
ei ro,</w>
educa ción,</w>
ed ge</w>
díxo me</w>
dé ix
dri ver
dr y</w>
doen zas</w>
do or,</w>
do entes</w>
dist ingu
disposi tivos</w>
discipl in
dis curso</w>
dicir lle</w>
diabet es,</w>
dev ices</w>
descri bed</w>
des esper
der s,</w>
der ram
der ."</w>
deix a</w>
deb ía</w>
de mos
de grad
dat os.,</w>
d outra</w>
d anos</w>
d ados</w>
cus to</w>
cruci al</w>
cre ou</w>
cre ación</w>
coñeci do</w>
cous a,</w>
conversa tions</w>
contex t</w>
consu m
concer ned</w>
con tamin
con for
con ciencia</w>
comun ic
comez aron</w>
comez ando</w>
com pos
co ld</w>
clas s,</w>
cl us
ción .</w>
ci ty,</w>
ci ties</w>
ci do</w>
childr en.</w>
charac ters</w>
cham ou</w>
challeng es</w>
centur y</w>
ce fal
caus as</w>
cardiovascul ar</w>
car on</w>
cap tur
canti dades</w>
cambi an</w>
cal i
cabe zas</w>
brea king</w>
bod y.</w>
bo l</w>
blin d</w>
bi l</w>
benef its</w>
be low</w>
be d,</w>
be d
be .</w>
b vi
b id
aw k
avo a</w>
av ó</w>
atten tion,</w>
at err
at .</w>
arqui tec
ari as</w>
argu ment</w>
ar teri
ar r
ar mente</w>
aqu ilo</w>
apli car</w>
ant .</w>
anim als,</w>
an e
an a,</w>
al ity,</w>
al go.",</w>
afir ma
ador .,</w>
ad dic
ación s.",</w>
acep tar</w>
ac tivi
abstr ac
able .,</w>
ab l
a ín
a z</w>
a plau
a part
Z ik
Ye ah
W hy</w>
W est</w>
V al
T rátase</w>
Se gur
S ur
S en</w>
S an
Pro jec
P rime
N ós</w>
N CR
M áis</w>
M us
M os
M ex
Lu ther</w>
Kan ner</w>
J ud
Har var
H as
G F
Franci s
Euro pa,</w>
D on't</w>
B raz
B ,</w>
A o</w>
A N
- year</w>
,Y our</w>
,D on't</w>
,"T wo</w>
,"B ut,</w>
, 000
"S o
"L ev
"F ix
"" É</w>
"" R
"" B
" Resulta</w>
" Hoxe</w>
ú ti
ór gan
ñ o,</w>
í a:</w>
z o.,</w>
z o.",</w>
xor nal
xen oma</w>
x il
wn ."</w>
wn ,</w>
whi ch,</w>
when ever</w>
we ir
way s.</w>
way s."</w>
war d,</w>
vol ver
vi ven
vari edade</w>
v ard</w>
us .",</w>
ul timately</w>
typic ally</w>
tw o-
tubercul os
tu res</w>
tru e.</w>
trat ament
transpor te</w>
tor .</w>
to mor
to dos,</w>
to :</w>
tist s</w>
times ."</w>
thro w</w>
thes e,</w>
tes tem
testem u
ten den</w>
tar get</w>
tan tos</w>
tam ente,</w>
ta xas</w>
t ate</w>
t ;
system s,</w>
sw im
sur ge
suggest s</w>
sugg est</w>
su r</w>
stre et</w>
story tell
statis tics</w>
sor te,</w>
solu tions</w>
slow ly</w>
simple .</w>
si óns</w>
si ve,</w>
si to</w>
sh el
sever e</w>
sent ía</w>
sen ten</w>
semell ante</w>
semell a</w>
segur a</w>
secon ds</w>
secon d,</w>
se g
se es</w>
scar y</w>
s éx
s é
s entí
s cr
ro b
ri to</w>
responsab les</w>
respon d</w>
resist ance</w>
rep lica
relev ant</w>
regul ar</w>
reg res
refuge e</w>
recor do</w>
re un
re lat
rar o</w>
rapa za</w>
radi o
ra pi
r é
r o</w>
quis i
que dar
pus h</w>
pu xo</w>
pu ts</w>
problem s."</w>
proble ma.",</w>
pro -
privi lexi
priva cidade</w>
principi os</w>
princi pal
prime iro,</w>
pr estar</w>
physici an</w>
person ."</w>
pen gu
pe dí
pe d
pe a
pat ent
paper ,</w>
p é</w>
p s.</w>
p ly</w>
p he
outr os.,</w>
oursel ves,</w>
os as,</w>
os a,</w>
os ",</w>
os "".",</w>
organiz ación</w>
or de</w>
open -
on a</w>
oll o</w>
offic e,</w>
off ,</w>
o ca
o ",</w>
nu cle
notici as</w>
nen os.",</w>
ne d,</w>
n ing.</w>
n ada.,</w>
mus ic,</w>
mor tes</w>
monit or</w>
moment o.,</w>
mo ther,</w>
mir r
mic e</w>
mess ages</w>
mell ora</w>
me ant</w>
mas a</w>
mal os</w>
main tain</w>
lu z,</w>
long- term</w>
long ,</w>
lo ve,</w>
ll a</w>
li ver</w>
li t</w>
lev ant
lev an
les s,</w>
lef t,</w>
l ac
keep s</w>
ke d."</w>
jour ney</w>
iz ed</w>
iz ación</w>
it er
inter net</w>
inten ción</w>
ingl és,</w>
ing :</w>
ing ."""</w>
inf l
individu os</w>
indi genous</w>
in fin
in có
imple mente</w>
immedi ately</w>
ill ness,</w>
id s</w>
id o,</w>
ic s,</w>
i vos</w>
i ther</w>
i tei</w>
i ted</w>
i on</w>
i es.</w>
i dio
i a.",</w>
hypo thes
hospit al,</w>
hormon as</w>
hid róxen
hi li
health ."</w>
had i</w>
hab erá</w>
grá fica</w>
great -
gra o</w>
govern ments</w>
glu co
gi es</w>
ge o
futu ro,</w>
frigh ten
frecu encia</w>
form ing</w>
for d,</w>
fin ished</w>
fenómen o</w>
fe wer</w>
fas ter</w>
fas hi
far mac
fa ther,</w>
f ab
ey es,</w>
exist ing</w>
estr a</w>
esti ón</w>
estab lis
est í
espir itu
especi aliz
espa zo,</w>
esco ita</w>
es te,</w>
es cap
err os</w>
equi voca
enxe ñe
entr a</w>
ent usias
empreg ados</w>
emplo y
empez ou</w>
empat ía</w>
emocion al</w>
embar ras
elec tron
econó mico</w>
ec en</w>
e k</w>
e 'll</w>
dólar es,</w>
drug ,</w>
drama tically</w>
dor .",</w>
do ing,</w>
differ ent,</w>
difer ente,</w>
di ñ
di v
di u</w>
dev ast
descubr iron</w>
descri bir</w>
de ira</w>
daqu ela</w>
dan ce</w>
d ano</w>
d ."""</w>
cus ta</w>
cur sos</w>
cri atur
cre ando</w>
cre an</w>
corti sol</w>
coraz ón,</w>
cora is</w>
converte use</w>
consis te</w>
consider ar</w>
consegu e</w>
consci ously</w>
confi anza</w>
confi anz
con stitu
con clu
compu ta
compro mis
compren sión</w>
comi go</w>
col a</w>
co li
co her
clín icas</w>
cli ma</w>
cl ou
child hood</w>
chec k</w>
che guei</w>
cham adas</w>
cer ca</w>
carbon o,</w>
car s</w>
can ción</w>
cam pos</w>
cade ira</w>
cabe za,</w>
ca st</w>
ca ción</w>
bro ad
bore al</w>
bol a,</w>
be ing,</w>
bat t
atop an</w>
aten ción,</w>
at tac
at er
aspec ts</w>
as y
artic le</w>
arti gos</w>
ari os,</w>
ar ris
ar gue</w>
ar en</w>
aqu ela,</w>
apren den</w>
aplica ción</w>
antibio tic</w>
anti ci
ant í
ansi edade</w>
anc est
an unci
an do
ampl o</w>
amoun ts</w>
ambi ent
am pu
almac en
al go
al :</w>
ag gres
affec ted</w>
af f
adul ts,</w>
adi viñ
ación s.,</w>
acadé mi
a za</w>
a traves
a dic
a ded</w>
a cos</w>
You Tu
V examos</w>
Unid os.,</w>
U U</w>
TED ,</w>
T wit
T ,</w>
S we
S ch
S ar
Re ino</w>
Par í
P u
P resid
O ri
N unca</w>
Mic ha
M artin</w>
Jas on</w>
Ing lat
I m
H ou
En tón,</w>
De us,</w>
D en
Ch am
Brown e</w>
An geles</w>
Afgh an
A c
A C
9 9
2 50</w>
1 1
00 ,</w>
,Th ink</w>
,No t</w>
,A nother</w>
,"Y es,</w>
,"S ince</w>
,"I magine</w>
,"H ere</w>
,"H ere's</w>
,"F in
," K
, (
"T en</w>
"N un</w>
"M áis</w>
"C o</w>
"Alg úns</w>
""H ey,</w>
"" No
"" If</w>
" ¿
últi mas</w>
ú bli
ón s
ón ico</w>
ó sof
ó dese</w>
í fer
í bel</w>
í an
éxit o.,</w>
ámol os</w>
áb amos</w>
z ap
y ?"""</w>
xeni al</w>
xe mel
xam ais</w>
wrong .</w>
work s,</w>
wor d,</w>
women ."</w>
windo w</w>
wa ves</w>
wa it
víti mas</w>
verdade ?",</w>
ver mel
ven se</w>
ve use</w>
vaccin es</w>
vaccin e</w>
v os,</w>
usti n</w>
ur a,</w>
tu red</w>
tru m</w>
trau má
trat an</w>
trat amos</w>
traball adores</w>
ton el
tiv ity</w>
ti do</w>
tex to</w>
ter ra</w>
tar xe
tar a</w>
tan me</w>
t es.,</w>
t ;</w>
sy ste
surpris ing</w>
sta tes</w>
sta ir
spec trum</w>
sorr y,</w>
sol o</w>
societ y."</w>
socie ties</w>
so lar
so fre
sk ill
sin cron
sic k</w>
sh all</w>
sequ ence</w>
sentir se</w>
senti mos</w>
sent ado</w>
sens or</w>
segur amente</w>
se ll
se e."</w>
se as
scienti st</w>
sa e</w>
sa de</w>
ráp ida</w>
ro w,</w>
ro man
ro g
ro ad</w>
rit mo</w>
ris ks</w>
ris e</w>
ri di
represent an</w>
rela to</w>
recuper ar</w>
reac cións</w>
re ven
re produc
re move</w>
re cru
r as</w>
ques tion:</w>
qu eredes</w>
públi ca</w>
páxin a</w>
pux emos</w>
pur su
pun to,</w>
pu ider
pu ber
psy chi
proxec tos</w>
provid ing</w>
propi os</w>
profession al</w>
profes sor
pro pag
prescri be</w>
pres entes</w>
pres ence</w>
pr est
power ful,</w>
possi ble.</w>
possi ble."</w>
posible .,</w>
posi cións</w>
posi ble,</w>
pon te</w>
poin t.</w>
po cke
plásti cos</w>
plac e.</w>
ph one,</w>
perso as.,</w>
perfec tamente</w>
pens as</w>
peix e</w>
peg ada</w>
pe zas</w>
pe tro
pe cu
pecu li
paí s.",</w>
pat entes</w>
par al
pa .",</w>
p lo
ox e,</w>
os a.,</w>
or ch
opti mis
ocor re
obri g
obes ity</w>
o ficial</w>
o es</w>
nu mer
nov ela</w>
nos .",</w>
non .,</w>
ningu én
ner v
ne w,</w>
na i,</w>
n ic
médi cos,</w>
mul ler,</w>
mortal ity</w>
mis sing</w>
min d."</w>
mi li
metáfor as</w>
metá fora</w>
memor y,</w>
matemá ticas</w>
mat ch</w>
mari do</w>
marabill osa</w>
mar k</w>
mal .,</w>
mal .",</w>
ma xim
m últi
m p</w>
los s</w>
lo xi
lingu axe,</w>
lin e.</w>
leav es</w>
lan ds</w>
lab or</w>
know ."</w>
jus ti
iv a</w>
is he
ir as,</w>
ir .",</w>
invol ves</w>
investiga cións</w>
inv est</w>
intro ver
increas es</w>
in ser
in jec
in a.,</w>
importan te.",</w>
imaxin ade</w>
il usi
identi dade</w>
ide a.",</w>
ic k,</w>
i tem
i led</w>
hu mor
him .</w>
high est</w>
h ó
gu en</w>
gra y</w>
goo d."</w>
gener ate</w>
gen es,</w>
g ali
fí xen
futu ro.,</w>
fun ny</w>
fun cións</w>
fu el</w>
fr ase</w>
fotograf ía</w>
for th</w>
for tal
for ever
fl or
fix éron
figh ting</w>
fica mente</w>
fe bre
fe ar
fascin ating</w>
far á</w>
fac emos,</w>
f f
expres ión</w>
ex posed</w>
ex o
ex ame</w>
ev ent</w>
eu .",</w>
estat ísticas</w>
est es
est ase</w>
escri to</w>
es to</w>
equi vo
environ ment.</w>
enten der
enten de
ent s."</w>
enga dir</w>
enerx ía,</w>
end s)</w>
en ess</w>
empe cei</w>
el es.,</w>
econo my</w>
ec re
e ?"</w>
e ;</w>
déca das</w>
drug s,</w>
dro me</w>
dr in
don e,</w>
do p
dist ance</w>
dis cu
direc tly</w>
din á
din do</w>
dicir lles</w>
dic ían</w>
dia positiv
detal les</w>
descubr ín</w>
descu ber
den i
demostr ar</w>
deix amos</w>
degre es</w>
deci dir</w>
death ."</w>
de por
de d,</w>
de ba
dar nos</w>
dam age</w>
da to</w>
d on</w>
d 's</w>
cóm pre</w>
cru z
credi t</w>
creativ ity</w>
creativ idade</w>
cre n</w>
cr ía</w>
cortex ,</w>
cor rer</w>
conv encion
cons ul
concep tu
con xun
con xel
con ve
con tem
con fun
con den
compro me
complica do</w>
compañ ías</w>
coleg as</w>
col le</w>
co u
clíni cos</w>
cle an</w>
change .</w>
ces .</w>
cen ter</w>
cardí ac
cap able</w>
call ing</w>
ca tr
ca tal
ca mente,</w>
c have</w>
c es."</w>
bol sa</w>
be ings</w>
be i</w>
bar ely</w>
bal ance</w>
b as</w>
b ar</w>
aument ar</w>
au ton
ath ani
at trac
asy lu
assu mp
asist encia</w>
aroun d."</w>
ap un
anxi ety</w>
an zas</w>
an ts</w>
amos an</w>
am ing</w>
alucin acións</w>
algorit mos</w>
ale gr
alco hol
al one,</w>
al ity.</w>
agor a.,</w>
adoit an</w>
ad o.</w>
ac en
ac cording</w>
ab urr
ab out.</w>
a paix
Yor k
Y a
W ar
VI H
V elaquí</w>
V :</w>
Tor aj
Th an
S qu
S hadi</w>
On de</w>
O ne</w>
N athani
Mun dial</w>
Mon tan
MR I</w>
Le ads</w>
K :</w>
Institu to</w>
I tal
I g</w>
Har vard</w>
HI V
H awa
H an
Graz as,</w>
Gi us
Ge or
G raci
G ol
E l
DB C</w>
Centr al</w>
Californi a,</w>
C ent
C .</w>
Brit a
B R
Au gus
An dro
Amé rica</w>
Afghan ist
A th
A ll</w>
A cade
2 ,
1 7
1 ,000</w>
. ]</w>
,W ould</w>
,W here</w>
,H ere</w>
,C an</w>
,"I 'd</w>
,"F irst</w>
," V
," Re
, I've</w>
"V ale,</w>
"P ola</w>
"Est amos</w>
"An tes</w>
"A ta</w>
"A demais,</w>
"" o</w>
ó xen
ír culo</w>
ér ci
ér ase</w>
á mo
z ar
xusti za</w>
xec to</w>
wron g,</w>
work ers</w>
voste des,</w>
vos os</w>
viv indo</w>
vir uses</w>
view ed</w>
ver sus</w>
ver .,</w>
ve d.</w>
v ín</w>
v ital</w>
utili zar</w>
use ."</w>
us ual</w>
ur ban</w>
univers idade,</w>
treat ment,</w>
tor n
to wn</w>
to man</w>
tiv as,</w>
tis h</w>
tir ar</w>
tion ing</w>
tion ?"</w>
tic s.</w>
ti vera</w>
ti ous</w>
ti da</w>
this ."""</w>
ter ían</w>
ter s."</w>
tempor al</w>
tem ent</w>
tar ,</w>
tan se</w>
tal ks</w>
t ár
t ons</w>
só li
suici de</w>
stu ck</w>
stre t
stic k</w>
spir itu
some thing.</w>
socie dade,</w>
so -
sm all,</w>
sis ter</w>
sinx elo</w>
sin té
sin ap
sig n</w>
senti ment
sent ín</w>
sen se,</w>
seman as,</w>
see k</w>
secund arios</w>
sec tion</w>
saú de.",</w>
san i:</w>
samp les</w>
sab er
s la
s ir
ro ll</w>
ro l
ris cos</w>
ridi cul
rexeit amento</w>
respon ses</w>
ren demento</w>
relacion adas</w>
rela tivamente</w>
redu ci
reci be</w>
rec ently,</w>
real mente,</w>
reac tions</w>
re pair</w>
raz o
ran dom</w>
raci al</w>
ra w</w>
r i</w>
r ating</w>
quil ó
qui ño</w>
ques tions,</w>
que ?,</w>
qu anti
páxin as</w>
pul led</w>
projec t,</w>
progres s</w>
program s</w>
profund amente</w>
profes sor</w>
problem s.</w>
problem as.,</w>
princi pais</w>
prim ate</w>
presid ente</w>
pres enza</w>
prepar ed</w>
premi o</w>
precis as</w>
precis aba</w>
posi tivo</w>
posi tiva</w>
poli cy</w>
po ll
plan e</w>
pic ked</w>
phar mac
perpe tu
pensab an</w>
pati ent,</w>
pas aba</w>
particip antes</w>
partici par</w>
pareci do</w>
pa y
outr os.",</w>
ou no</w>
os ;</w>
os )",</w>
organiz e</w>
organis mos</w>
om en</w>
oll os,</w>
off er</w>
of -
o mes</w>
o ka
o be
nur ses</w>
notici a</w>
neuron s."</w>
nego cio</w>
natur ally</w>
nam or
mú s
máquin as</w>
my st
my self."</w>
musi ci
musi cal</w>
muller es.,</w>
muller es.",</w>
mon key</w>
molecul es,</w>
mis take</w>
minu t
min e</w>
micros copi
mes mos,</w>
me ."""</w>
marabill oso</w>
mar ried</w>
mag ne
m ite</w>
m ere
lo ck</w>
lo :</w>
ll as</w>
li to</w>
li der
leav ing</w>
learn ing.</w>
le ge</w>
le en</w>
l s</w>
job s</w>
it s,</w>
ist .</w>
is ta.",</w>
is mo,</w>
ir os.",</w>
involu cr
invi ted</w>
intr e</w>
interes ante,</w>
interac tion</w>
interac cións</w>
inter nacional</w>
inteli xente</w>
inte lectu
int est
ing s."</w>
inde ed</w>
in díxen
in a.",</w>
in -
im posible</w>
im er,</w>
il y,</w>
il ly</w>
ik i
ide as.</w>
id én
id o.",</w>
ic .</w>
i .</w>
hospit ais</w>
hor iz
ho w,</w>
ho t</w>
him self</w>
hid den</w>
hi per
hear t,</w>
hear ing</w>
h at
gru po,</w>
gober n
gi ft</w>
gi f
gener ated</w>
gas ol
ga p</w>
ga in,</w>
g y
g amos</w>
futu ro
foun dation</w>
for zas</w>
follow ed</w>
fl u</w>
fil ósof
fi can</w>
fe atures</w>
fal antes</w>
fal aba</w>
faci li
f ly</w>
f ell</w>
expres sed</w>
exper ts</w>
exercici os</w>
ex u
ex tin
every where
estud amos</w>
esti vera</w>
est á
est ará</w>
esp í
escur o</w>
escen ario</w>
es )</w>
epide mic</w>
entre i</w>
ent s.</w>
enjo y</w>
eng age</w>
en s,</w>
en e</w>
en d."</w>
elimin ar</w>
ele ph
ele f
el le</w>
educa tional</w>
edifici os</w>
ed ing</w>
e ime</w>
e a</w>
díxen lle:</w>
dy s
dollar s,</w>
doctor s,</w>
do m,</w>
do g
dix ital</w>
dist or
dispoñi bles</w>
dis cre
dis covery</w>
dimension al</w>
differ ent."</w>
difer entes,</w>
dici mos</w>
descubr imento</w>
des tro
del as,</w>
defini tion</w>
deci diron</w>
decen as</w>
deca teime</w>
deca des</w>
deca de</w>
death s</w>
de tall
de m
de baixo</w>
daf- 2</w>
d less</w>
d algunha</w>
cus tos</w>
cur to</w>
cu bri
cu ber
cre ation</w>
coñec e</w>
countr y."</w>
coun ter
consegu iu</w>
connec tion</w>
conflic t</w>
conec tar</w>
concre to</w>
con figur
con cor
complex os</w>
comple ta</w>
compas sion
commer ci
com pre
classi cal</w>
clas e,</w>
cidad áns</w>
ci s
cell s.</w>
caus ar</w>
caus an</w>
catas trop
care er</w>
car ta</w>
car e.</w>
capaci dades</w>
ca ba</w>
c í
c ár
c y,</w>
brill ante</w>
brain s,</w>
blo cks</w>
blo ck
bi to</w>
bi as
behavi or,</w>
be ll
bar at
baix ar</w>
b led</w>
av ances</w>
autis m,</w>
ate ."</w>
at es,</w>
as sem
as ",</w>
ar m
aplica cións</w>
aplaus os)</w>
ap preci
and -
amylo id</w>
am or,</w>
alum nos</w>
ali vi
algorith ms</w>
al ento</w>
adolescen tes</w>
actu almente</w>
accom pl
ac y,</w>
ac ts</w>
abil ity,</w>
ab ía</w>
ab out
a tiva</w>
a preci
a pos
a !</w>
Yor k,</w>
W e
V ouvos</w>
Ti mes</w>
T en
T -
S ud
S tre
S en
Rob in</w>
Righ t?</w>
Qu e
P arti
P I
Neces itamos</w>
NCR A</w>
N este</w>
Mo i</w>
Medi cal</w>
M or
M at
Loo k,</w>
L em
K ing</w>
K ev
Juli ano</w>
J es
J er
H :</w>
Gius sani:</w>
Gi ve</w>
Gar galladas)</w>
G or
G al
E les</w>
De ci
De bemos</w>
C u
B a
Ap ple</w>
Afri ca,</w>
AR N</w>
</i> .,</w>
6 0
4 5</w>
2 2</w>
10 .000</w>
1 0,</w>
- to-
,M ost</w>
,I n</w>
,E very
,"Wh y</w>
,"Wh at's</w>
,"T ake</w>
,"N o,</w>
,"A gain,</w>
," No</w>
, V
, No</w>
( ris
"T eño</w>
"Ou tra</w>
"N unha</w>
"I mos</w>
"D ic
""T eño</w>
"" It's</w>
" Un
" (Sorrisos)</w>
” .",</w>
’ t</w>
ú til
índo lle</w>
ín di
ín .,</w>
épo ca</w>
én dose</w>
é cen
ándo me</w>
Á fri
zo om</w>
z os,</w>
your self,</w>
you ."""</w>
y l
y ;</w>
x é
x ir</w>
x estion
wor se."</w>
wor ds.</w>
wi re
whi le,</w>
where as</w>
we ird</w>
we ap
we ak
was hing</w>
war ."</w>
vis it</w>
vill age</w>
vi vi
vex amos</w>
veterin ari
vessel s</w>
vel aquí</w>
vanta xe</w>
valu able</w>
v aca
ur ban
univers ity</w>
un cle</w>
ultra vio
u k
tú an</w>
técn ica</w>
té r
tri es</w>
tri ar
travel ing</w>
transfor mar
trans mis
tradi ción</w>
tra to</w>
tr y."</w>
tol d,</w>
to pi
to o
tico s.,</w>
ti ñas</w>
ti ll</w>
thing :</w>
tex t</w>
ter n</w>
ten da</w>
tem pos</w>
tele visión</w>
tan ,</w>
tal ,</w>
t :</w>
sux ire</w>
sur vive</w>
superviv encia</w>
suggest ing</w>
sud den</w>
sub mar
su xeit
su ficien
su bir</w>
strugg ling</w>
stre am</w>
sta te,</w>
st ereo
spen ding</w>
speci al
so- called</w>
so idade</w>
smar t
sk y,</w>
sk ills</w>
sin te
simil ar
si vely</w>
si .",</w>
sen ding</w>
seman a,</w>
segun dos</w>
seguin tes</w>
secund ari
se ñ
scien ce."</w>
saú de.,</w>
sa ving</w>
s ter</w>
s oul
ru les</w>
ri p
retin a</w>
resear ch."</w>
res is
repor ted</w>
rep li
reflec ts</w>
rece it
real is
real .,</w>
reaccion a</w>
reac tion</w>
re turn</w>
re mind</w>
ran dom
radi cal
r ío</w>
r ough
quec emento</w>
que ira</w>
que ?",</w>
pul m
psycholog ists</w>
psico loxía</w>
provo ca</w>
profun da</w>
proces sing</w>
prim i
pri oriz
present ación</w>
preocu par
pregun tar</w>
prac er</w>
posible .",</w>
posi bles</w>
por tra
polí glo
poder oso</w>
po p</w>
po bre</w>
pleas ure</w>
plas tics</w>
plane ta.",</w>
pla in</w>
pi cos</w>
pho tos</w>
ph ere</w>
percent ,</w>
pense i:</w>
pense i,</w>
penici lin
pas sion
par tamento</w>
par t,</w>
pa in,</w>
pa i,</w>
p ingü
p il
oxy to
ous ly."</w>
os copi
os a.",</w>
os ...</w>
organiz ations</w>
org áni
or bit
open ing</w>
open ed</w>
op tion</w>
one :</w>
off ."</w>
occu r</w>
occid ent
obst á
o lox
o h,</w>
o ?</w>
nor te</w>
no ta</w>
no me
necesari amente</w>
ne gra
n aquel</w>
muta cións</w>
mou th</w>
mother s</w>
mos quit
morr er
mor te.",</w>
mor reu</w>
monta ñ
moment .</w>
mill on
mi gh
mes mos.",</w>
ment ar</w>
men ."</w>
member s</w>
mechan ism</w>
mechan is
me tal</w>
me iran
materi ais</w>
mat ter,</w>
mat ar</w>
manag ement</w>
man dar
mal e</w>
mal aria</w>
magi c</w>
ma tr
ma tes</w>
m s."</w>
lon el
lob al</w>
ll es:</w>
lim p
like .</w>
ligh t.</w>
le :</w>
l ingü
ke d.</w>
k itch
k a</w>
jus tice</w>
ir as.",</w>
investiga ción,</w>
investi r</w>
influ ence</w>
in ti
in sur
in ce
imaxin ación</w>
ima ge."</w>
im plan
i ón.",</w>
hy th
hou se,</w>
hormon es</w>
ho xe.",</w>
ho wever,</w>
hid ing</w>
head s</w>
head .</w>
hand le</w>
hab ilit
h !</w>
gu ía</w>
go :</w>
glas s</w>
gener ations</w>
gar anti
g ent
fí xome</w>
func tions</w>
fore ign</w>
for ge
for est</w>
fon do,</w>
fil lo,</w>
fi xe
fermos o</w>
fer idas</w>
farmac éu
fal ar
fail ure</w>
fai led</w>
f ú
f loo
f e,</w>
experim ents</w>
experien ce,</w>
exper t</w>
ex érci
ex hi
ex hal
evolu tionary</w>
every where</w>
ev ents</w>
estru tur
estre las</w>
estra ño</w>
ester ol</w>
establec er</w>
est a,</w>
espí rito</w>
espa zos</w>
escri biu</w>
escri bir
es pon
es cra
es ?"</w>
er amos</w>
equilibri o</w>
enferm idades,</w>
enci as,</w>
ence :</w>
emergen cy</w>
ement o,</w>
eléc tr
else 's</w>
elec cións</w>
ele ment
el se,</w>
el s</w>
ei ther
ei gh
effec t,</w>
educa tion."</w>
econo mi
earli er</w>
e vil</w>
e go</w>
e as</w>
dí as.,</w>
dí an</w>
down .</w>
dos es</w>
do ?,</w>
dixen ,</w>
discrimin ación</w>
dis to,</w>
direc tor
dinosaur s</w>
difer enci
diagnó sti
di to</w>
di mos</w>
di d
descubri u</w>
dereit a,</w>
depres sion."</w>
den tr
demos tra
deliver ed</w>
defen s
dat a."</w>
dar vos</w>
danger ous</w>
da d</w>
da .</w>
d ly,</w>
d as
d ?"</w>
curios idade</w>
curi ous</w>
cul tivos</w>
cu xa</w>
cre cen
coñec en</w>
coun sel
cor als</w>
cop y</w>
convin ced</w>
conv enci
control .",</w>
conex ións</w>
conec t
compu ters</w>
compe t
compar ación</w>
com postos</w>
com posto</w>
com odi
com man
colleagu e</w>
colle n</w>
coll ín</w>
coffe e</w>
co di
ción s
circunst ancias</w>
cheg ando</w>
character is
cham o</w>
cerem on
cer tifica
centr os</w>
cate g
carto on
careful ly</w>
car rying</w>
car ri
car ica
cap í
canc ro.,</w>
call s</w>
ca ma</w>
ca dra
ca bal
ca .</w>
c emos</w>
bu ying</w>
br as</w>
bottom ,</w>
bor do</w>
bo x,</w>
bo tell
bo ar
bl es.,</w>
bir ds</w>
be ar
base ado</w>
bab ies,</w>
b ud
b it,</w>
aug a.",</w>
au tó
au l</w>
at ing,</w>
astron om
aspec t</w>
as sa
ar y.</w>
ar y."</w>
aproxim adamente</w>
aprendiz a
appe ar</w>
appe ar
ap ag
anima is,</w>
anal og
an thro
an os.</w>
an om
an ge</w>
an ce.</w>
amig os,</w>
americ anos</w>
am ente.,</w>
allow ing</w>
ali ve</w>
al tas</w>
al mor
al ma</w>
al idade,</w>
al go.,</w>
ador a,</w>
adi ante</w>
activ idades</w>
accid ent
acab ar</w>
aca ba</w>
ac tions</w>
ac he</w>
ab out."</w>
ab a.,</w>
a part</w>
W AL
WAL L
V er
Ter ra,</w>
TR AP
TRAP P
TRAPP IS
Sol ly</w>
Saú de</w>
S tar
S ir
S ei</w>
S ecre
S am
RN A</w>
R :</w>
Pr ince
Po des</w>
Po dedes</w>
P hili
OK ?"</w>
O :</w>
Nor th</w>
Mou az</w>
Min is
Micha el</w>
MI T</w>
M edit
Lu ci
Lin u
L or
Kar aj
Jan e</w>
Hu b
H ouse</w>
Ge o
Europe ,</w>
En cán
E :</w>
Dan ny</w>
D é
D ic
Con tr
Con s
Chris ti
C on</w>
An drew</w>
Alg unhas</w>
A .,</w>
A .",</w>
50 %</w>
201 0,</w>
1 :</w>
- up</w>
,Wh o</w>
,"Y our</w>
,"Wh ile</w>
,"Un fortunately,</w>
,"Se e,</w>
,"O K,</w>
, Re
) .",</w>
&amp; quo
"H oxe,</w>
"E m
"D aquela,</w>
"C anto</w>
"Alg unhas</w>
últi mo,</w>
ú p
ú mero</w>
ñ ec
ín s</w>
íde o)</w>
é sim
áto mos</w>
án ico</w>
áde vos</w>
á be
Á n
z a
ye ah,</w>
xén er
xi do</w>
xi de</w>
xi co,</w>
xec tori
x ud
x os</w>
x a,</w>
wit ness</w>
war ri
war d
wal ks</w>
w oul
vól vese</w>
vo ic
vo ces</w>
vitam ina</w>
vitam in</w>
vid as.,</w>
viax ar</w>
vex an</w>
verb al</w>
ver te
ver .</w>
ver ."</w>
ven de
v amos</w>
v ag
un idade</w>
u e</w>
téc ni
trabal lo
trabal lei</w>
tra xectori
tra de</w>
tr ick</w>
to do
tin do</w>
ti ra</w>
thin ks</w>
teñ amos</w>
teri or
temper atur
tem os,</w>
teci do</w>
te e
table .</w>
ta is</w>
t oume</w>
t ing.</w>
syn thetic</w>
sus pen
sus pec
surve ill
surroun ded</w>
suici dio</w>
sufr imento</w>
subjec ts</w>
stres s,</w>
stre et
strateg y</w>
str on
stor e</w>
sti g
sta tement</w>
speak er</w>
spea k,</w>
spac e."</w>
sol ,</w>
sofre n</w>
sobre vivir</w>
sli de</w>
signific antly</w>
side .</w>
she pher
she 'd</w>
sent ada</w>
sempre .",</w>
se du
se d."</w>
se co</w>
saí u</w>
sab en,</w>
sa ved</w>
rou pa</w>
ron me</w>
rom per</w>
reuni ón</w>
responsab le</w>
respec t</w>
res e</w>
requi red</w>
requ ir
represent ación</w>
reci biu</w>
recei ve</w>
re to</w>
re ino</w>
re habilit
qui do</w>
quer iamos</w>
que ix
que im
pó dense</w>
puid esen</w>
puid era</w>
psiqui atr
psic ólogos</w>
provi ded</w>
prote xer
propó sito</w>
propi edades</w>
projec ts</w>
produ ci
probab ilidades</w>
pro per</w>
priori tiz
prim ary</w>
prescri ption</w>
pregun tamos</w>
practi car</w>
pr iz
popul ation.</w>
poly glo
poin ts</w>
poder osos</w>
po is
plata forma</w>
pla y,</w>
pharmac eu
ph ones</w>
perso a.,</w>
pe ace</w>
patr óns</w>
path o
parell a</w>
par aliz
padr ón</w>
p s
p ill</w>
p es,</w>
p as</w>
oxito cina</w>
out break</w>
oursel ves."</w>
os ."</w>
ori al</w>
or des</w>
or ange</w>
ol der</w>
o ;</w>
o ,",</w>
no tas</w>
nit ro
new s,</w>
neuro ciencia</w>
neur on</w>
negoci os</w>
ne ither</w>
ne gro
n or</w>
n as
n ari
n ano
múlti ples</w>
mú sica
má ns</w>
muta tions</w>
mus ul
mor ren</w>
moit ísim
mo ver
mo do,</w>
mir ror</w>
mir an</w>
mir ada</w>
min d.</w>
mi a</w>
metho ds</w>
metaph or</w>
mes .",</w>
ment a</w>
men .</w>
medicin al</w>
me x
materi al,</w>
mar ine</w>
man .",</w>
ma y
lími tes</w>
lí quido</w>
lu z.,</w>
lu ces</w>
low ing</w>
lo t,</w>
lixe iramente</w>
lin es,</w>
lin e."</w>
lev oume</w>
le u</w>
le .,</w>
laun ched</w>
lar an
la ción</w>
l es."</w>
ke t
k ing.</w>
k ick</w>
iv emos</w>
isol ated</w>
ir rit
ir as.,</w>
inv as
introdu ce</w>
intro verti
inter act</w>
inten to</w>
inten s
inten ded</w>
instruc tions</w>
instru cións</w>
ingredi entes</w>
ing s.</w>
ing )</w>
informa tion."</w>
infer i
infec ted</w>
infanti l</w>
inf ra
incl úe</w>
in sp
in es</w>
importan t.</w>
imagin ation</w>
im pot
ill nes
identi ty</w>
ide a."</w>
idade .</w>
hó spe
human a.",</w>
hu m
hon est</w>
ho xe.,</w>
her ."</w>
he igh
har m
hand .</w>
habit ación</w>
h es
h an</w>
gu y,</w>
gu err
gro wn</w>
great .</w>
graz as.,</w>
gra fí
gr as
goo d.</w>
gli co
gam es,</w>
g on
fí sico</w>
fí g
ful ly,</w>
form ,</w>
foo ds</w>
flu xo</w>
flo or</w>
filos of
ficien cy</w>
fe ita</w>
fav or</w>
famili a.,</w>
famil y.</w>
f las
f ar,</w>
experiment os</w>
experiment o,</w>
expectan cy</w>
exist ence</w>
ev en
estrate xi
este amos</w>
est ereo
est .</w>
espe llo</w>
escen a</w>
es pi
ere ."</w>
environ ment."</w>
entr ada</w>
entor no</w>
ente mente,</w>
ent an
engag ed</w>
encan t
en courage</w>
empre go</w>
empath y</w>
emer ging</w>
em os
em entos</w>
elec tor
el se.</w>
el as.,</w>
el as,</w>
ei ro.,</w>
effici ent</w>
eas y,</w>
e gg
dur o</w>
du ci
dri ves</w>
dri ven</w>
doz ens</w>
dollar s."</w>
doc tor,</w>
do ors</w>
do es.</w>
do ?"</w>
dist anci
disor ders</w>
diseas es,</w>
direc t</w>
dinosaur os</w>
dinos au
difíci l,</w>
dicí a:</w>
dicir vos</w>
diagnó stico</w>
di vin
di eta</w>
di et</w>
develop ment,</w>
destru c
dest ino</w>
des ire</w>
des can
demon str
dem and</w>
del es,</w>
de ter</w>
de f
de ce
d encia</w>
cámar as</w>
cul pa</w>
cr y
cost a</w>
correc t</w>
corr ente</w>
copy right</w>
converter se</w>
contr over
constru ímos</w>
constru ción</w>
const ante</w>
consequen ces</w>
conscious ness,</w>
confer encia</w>
con sentimento</w>
con sen
con fu
commit ment</w>
come ,</w>
com úns</w>
com probar</w>
com ida,</w>
colle ge,</w>
co la
clos ed</w>
clas ifica
clar amente</w>
ción :</w>
citiz ens</w>
ci ty."</w>
chimpanze es</w>
childr en's</w>
ch ol
cer to.",</w>
cent en
celebr ate</w>
car n
car di
cambi ando</w>
ca tá
c ós</w>
c les</w>
bá sica
bu b
bol sas</w>
bodi es,</w>
bo tón</w>
blo g</w>
bl ac
bi ke</w>
bi g,</w>
beli ef</w>
be ar</w>
b y,</w>
b is
aw ful</w>
avog ados</w>
av ó
av ent
autis mo.",</w>
atten tion.</w>
atten tion."</w>
atop a</w>
aten ción.",</w>
ate d."</w>
ate .</w>
astron au
as ."</w>
aroun d,</w>
ari a,</w>
are des</w>
are a,</w>
ar se,</w>
ar ra
appro pri
app le</w>
aparell o</w>
apar i
apaix on
anal ox
an other."</w>
an ces
amos arlles</w>
am iz
am bos</w>
aliz ar</w>
ali ñ
al én</w>
al a,</w>
ais e</w>
agar dando</w>
ag as
ag an</w>
afron tar</w>
adoles cent
ado ita</w>
ad quir
ad es.",</w>
activ ate</w>
activ a</w>
acor do,</w>
acontece u</w>
ación .</w>
achi eve</w>
ab ur
ab und
a- lo</w>
a tro</w>
a ."""</w>
Z im
You 'll</w>
X ap
X X
Willi am</w>
WALL -
V an</w>
V ai</w>
Tit us</w>
T V
Stat es.</w>
Shakespe are</w>
Scot t</w>
S he</w>
S er
S atur
R a
Pro xecto</w>
Pre gun
P ri
P ost
N en
Mo itos</w>
Medit er
Mar k</w>
Man dela</w>
M r.</w>
M il
M ag
Lou is</w>
Le g
L is
K lei
J enni
Hig gs</w>
Hawa i
H er
Gre at</w>
Geor ge</w>
G lobal</w>
Fran k</w>
F re
F lor
EE. UU.</w>
EE. UU.,</w>
E ric</w>
D ous</w>
D onal
D .</w>
C lar
C i
C ap
Bri tish</w>
B ang
Arab ic</w>
Ander son:</w>
America ."</w>
Al go</w>
A us
A le
A L</w>
8 5</w>
7 00</w>
4 ,000</w>
3 D</w>
20 50,</w>
1 4
00 0,</w>
- of-
,S he's</w>
,I n
,H ave</w>
,A re</w>
,"O r,</w>
,"Li ke</w>
," (
, [
"So mos</w>
"Segun do</w>
"S u
"S empre</w>
"Pre gun
"N as</w>
"Mo itos</w>
"In cluso</w>
"F in
"D í
"D ende</w>
""S i,</w>
""S e</w>
""M y</w>
"" It</w>
ń a</w>
úni cos</w>
ú r
ór g
órg anos</w>
ó ne
í u</w>
í si
í as.",</w>
í as,</w>
éc ese</w>
é des
áron lle</w>
ym ous</w>
y e</w>
y ""</w>
xén ero,</w>
xu dici
xer acións</w>
xeit o.",</w>
x era</w>
wo man,</w>
wit nes
wis dom</w>
wh el
web site</w>
wat er.</w>
war m
wa ve</w>
w ere,</w>
víde os</w>
vol veuse</w>
vol tas</w>
visi on,</w>
vi ña</w>
vern ado
verdade iramente</w>
ver tical</w>
vem ent</w>
ve .",</w>
vac ina</w>
vac in
va ia</w>
v on
von tade</w>
uri os
univers it
un os</w>
un e</w>
un .,</w>
um ."</w>
u ck
u .,</w>
tru e,</w>
tru de</w>
tri ang
transmi tir</w>
transi tion</w>
tor s,</w>
top amos</w>
to y</w>
to mando</w>
to dos.,</w>
to dos.",</w>
to ?",</w>
tiv o.",</w>
tiv esen</w>
tion ?</w>
ti liz
ti e</w>
therap y,</w>
th y</w>
th ri
ten demos</w>
temper atura</w>
teléfon os</w>
teci dos</w>
techni ques</w>
targe ted</w>
ta x</w>
sín drome</w>
surpris ed</w>
surpris e</w>
sur gi
surgi cal</w>
subst ancias</w>
su xi
su poño</w>
stuff ."</w>
stuff ,</w>
stru ck</w>
stres s
stori es,</w>
ste ps</w>
st ands</w>
spo t</w>
speci es,</w>
soñ os</w>
son o</w>
some thing."</w>
sof re</w>
sobre vivir
so lit
so .</w>
ske p
sk y</w>
sk ill</w>
siti os</w>
sign s</w>
sic as</w>
si ón,</w>
sho t</w>
seri o</w>
separ ate</w>
sensi bles</w>
seguin do</w>
se t
screen ing</w>
sco re</w>
scientist s,</w>
school s,</w>
school ."</w>
scen e</w>
sai b
sab ían</w>
sab ed
s wi
s now
s l
s che
ru ta</w>
roo k
rook ly
ro ck</w>
ritu al</w>
ri b
revolu ción</w>
resul t,</w>
respon ded</w>
reson ancia</w>
resolu ción</w>
rema in</w>
relacion ado</w>
regar dless</w>
refri ger
real ity."</w>
real ity,</w>
re verse</w>
re present</w>
re per
re mata</w>
re ais</w>
raz ón,</w>
rapa zas</w>
rap ac
ra tion
r ico</w>
r hyth
ques tions."</w>
que d
que .,</w>
públi co,</w>
pun tu
pul mon
prot agon
projec t.</w>
profesion al</w>
prof oun
probab ility</w>
prepar ing</w>
prepar ados</w>
preocupa ción</w>
predic ted</w>
preci se</w>
pre zos</w>
pre fer</w>
prac ticamente</w>
pr ó
possi bili
pos u
pos t-
por no
popul ation,</w>
poor est</w>
polí tico</w>
polí tica,</w>
polici es</w>
poin t."</w>
poe m</w>
po em
pi ro
pi one
physic s</w>
pho to</w>
phenomen on</w>
phan tom</w>
ph ras
person axes</w>
permi tir</w>
pensa de</w>
pe l,</w>
paí ses,</w>
paí s.,</w>
pas t."</w>
pas ar
pas ado.",</w>
part es.,</w>
part es.",</w>
par v
par ty</w>
par adi
paradi g
pantall a</w>
pacien te,</w>
p y
p s."</w>
p neu
p is
p ica</w>
over whel
over come</w>
outr o.,</w>
other s."</w>
os tedes</w>
os os.",</w>
os os,</w>
ori a</w>
orden adores</w>
op tim
op posed</w>
op cións</w>
on al</w>
on ?</w>
oll ing</w>
ol d."</w>
offer ed</w>
of ."</w>
odi o</w>
obses ion
observ ando</w>
objec ts,</w>
objec tive</w>
o me,</w>
o ?""",</w>
o .""",</w>
o ""</w>
nov o.,</w>
nov a,</w>
nos .,</w>
normal .",</w>
no tion</w>
no .",</w>
nit róxen
ni xer
neuroscien ce</w>
neuron s,</w>
neuron as.",</w>
neuro transmit
nerv ous</w>
neighbor hood</w>
nego ti
nam es</w>
na vi
n é
n y,</w>
n at
n .</w>
mul a</w>
mu ch."</w>
morr eron</w>
mone y."</w>
mon o</w>
mon keys</w>
moit o.,</w>
moder n
mo od</w>
mo da</w>
mir ac
milit ary</w>
meth od</w>
mere ly</w>
merca do,</w>
mer gul
mer ,</w>
medi o,</w>
medi o
me tal
me dit
me d,</w>
mañ á
maz ás</w>
mascul in
mas ter
marke t,</w>
man tén</w>
man ter
machin es</w>
luck y</w>
lon ge
log os</w>
log ists</w>
loca is</w>
lo ve."</w>
lle lo</w>
litt le,</w>
lim b</w>
like ."</w>
libr os,</w>
li ves.</w>
li v
li ca</w>
lev el,</w>
leg is
lef t."</w>
lea ther</w>
le ve
le mos</w>
le an</w>
lar gely</w>
languag es,</w>
lan d."</w>
labor atory</w>
la .</w>
kil led</w>
ke y
ka y.</w>
k y</w>
j e
item s</w>
it self,</w>
ist ine</w>
is ?</w>
inver no</w>
inteli xentes</w>
infer ior</w>
individu al,</w>
indi rec
inde ed,</w>
increas ing</w>
inclu ded</w>
in vernado
in ste
in sis
imax es,</w>
imag es,</w>
im a</w>
illi an</w>
ili z
ili con</w>
ic ."</w>
i os</w>
i el
hy per
hormon a</w>
hop ing</w>
hol ds</w>
hol ding</w>
ho le</w>
hipo cam
he li
har d,</w>
ham bur
hal f
hack ers</w>
ha ve."</w>
h its</w>
guer re
guer ra.",</w>
gu ide</w>
gu al</w>
gráfi cos</w>
gre en
gran de,</w>
gr ab
girl s,</w>
gan ist
ga i
g .</w>
fó si
física .,</w>
funcion amento</w>
fun eral</w>
fronte ira</w>
friend s."</w>
fre quen
fre qu
fra caso</w>
fra cas
for med</w>
for ce,</w>
fir ing</w>
fil m</w>
figur as</w>
fiel d,</w>
fi xen
feli cidade,</w>
fel low</w>
fav ori
fascin ated</w>
famili ar
famil y."</w>
fag amos</w>
facer nos</w>
fac éndo
fac ul
fac en
fac ed</w>
fab ul
f abr
expos ure</w>
expla ined</w>
experiment ,</w>
experien cing</w>
expen sive,</w>
exis t</w>
ex trac
ex plan
every thing.</w>
eti qu
etc .,</w>
etc .",</w>
estud antes,</w>
estiv emos</w>
estima tes</w>
estadouniden se</w>
est and
esper amos</w>
especí fica</w>
es pos
es ix
es can
er s)</w>
equ ally</w>
equ ality</w>
enti al</w>
entan to,</w>
eng ad
energ y,</w>
en sure</w>
en si
en me</w>
en han
en es
en em
en able</w>
employe es</w>
empez amos</w>
elec ción</w>
el se."</w>
effec tively</w>
ef s</w>
educa tivo</w>
educa tion.</w>
eco sistema</w>
e v</w>
e m</w>
dream s</w>
drama tic</w>
doz en</w>
do mé
do ing."</w>
do ce</w>
dix éron
distribu ted</w>
distin c
dis rup
different .</w>
difer entes.",</w>
di á
di g</w>
di c</w>
di ario</w>
di ari
deseñ ado</w>
desenvolvem ento,</w>
descri bing</w>
descri b
desafí os</w>
desaf ío</w>
desa fi
der mat
der iv
der al</w>
der a</w>
depresi ón.",</w>
depend encia</w>
den unci
deix an</w>
decision -
de bo</w>
dat a.</w>
daqu ela,</w>
dade .</w>
d ing,</w>
d amente</w>
cál culos</w>
cubri r</w>
cu lo,</w>
cros s</w>
criatur as</w>
cre o,</w>
craz y</w>
cr ani
cover ed</w>
convér tese</w>
convers as</w>
conv ul
conv ic
contar lles</w>
conta xi
conf us
condi cion
con tan</w>
con so
con form
compren si
compr a</w>
compañe ira</w>
comp li
commun ity."</w>
comida .,</w>
comfor t</w>
combusti bles</w>
com ment</w>
collec t</w>
co ste
co re</w>
class room</w>
cirurxi áns</w>
cin do</w>
científi cos,</w>
cientí fica,</w>
ci encias</w>
ci dade.,</w>
ci a,</w>
choos ing</w>
chin és</w>
chegar on</w>
che mo
che ap
ch os
ch es,</w>
ch ase</w>
cer vex
cel ul
car ried</w>
car e."</w>
camiñ o,</w>
ca st
ca er</w>
c hap
bus camos</w>
bro ke</w>
bra des</w>
bot t
bom be
bo y
bo .",</w>
bl ing</w>
bill óns</w>
bici cle
bic i</w>
bi les</w>
bi as</w>
beg ins</w>
be at</w>
ball s</w>
b é
azul ,</w>
axud ou</w>
aw es
au gas</w>
ato pe
atmos fer
at tribu
ase .",</w>
as ked,</w>
as e,</w>
artist a</w>
arri ved</w>
ar ras
ar bit
ar a,</w>
apoi ar</w>
antibio tics,</w>
ann oun
anim al,</w>
ani vers
an on
an estes
an es
ament o.",</w>
am as
alzhé imer
aliment ación</w>
alg ún
al ó</w>
al os,</w>
al mente.",</w>
al ?,</w>
adul tos,</w>
adul to</w>
ador es.",</w>
adestr amento</w>
ad ver
ad ren
ad mi
ach ,</w>
accid ente</w>
acade mic</w>
acab an</w>
ac to</w>
ac ting</w>
ab a.",</w>
a tribu
Washing ton,</w>
T es</w>
T es
Span ish</w>
S or
S implemente</w>
S ilicon</w>
S al
Poder iamos</w>
Parti do</w>
Par kinson
P úbli
No t</w>
Ne ander
N os</w>
M u
L H
Jo el</w>
In cluso</w>
I r
H e's</w>
Ger trude</w>
Ge ig
G illian</w>
G M
Francis co,</w>
EC T</w>
D V
Come cei</w>
Centr o</w>
Cal ais</w>
C ó
C :</w>
Bre ta
B u
B rookly
B ron
B lo
B io
B al
An tes</w>
Af ganist
A to
A my</w>
A lex
; ",</w>
5 9</w>
3 1</w>
2 :</w>
2 8</w>
2 1</w>
2 .
19 5
0 s,</w>
- ra
- los</w>
- like</w>
,T o</w>
,J ust</w>
,I magine</w>
,H is</w>
,D id</w>
,"W ith
,"M ore</w>
, I'll</w>
, I'd</w>
"Qu eremos</w>
"Poder ía</w>
"Po des</w>
"Par ece</w>
"P u
"P recisamos</w>
"N ós</w>
"N eces
"M ais,</w>
"E sa</w>
"Ch ámase</w>
"C om
"C ol
"A os</w>
""O h</w>
""N on,</w>
""N o,</w>
"" ]</w>
" Logo</w>
ón :</w>
ó logo</w>
ó di
ñ an</w>
í an.",</w>
é mo
é bola</w>
árbor e</w>
ándo o</w>
ándo lle</w>
án gul
án .,</w>
á tica</w>
á l
¿ Que</w>
¿ Como</w>
z ou</w>
z es</w>
you ?</w>
y et.</w>
y .",</w>
xo gar
xer on</w>
xen es,</w>
women .</w>
wire less</w>
win ter</w>
will ,</w>
wil d</w>
what so
weal th</w>
we t
wall s</w>
w oun
w e,</w>
w ar,</w>
vo ices</w>
visu ais</w>
vir us,</w>
vie ws</w>
vi xil
vi br
vi al</w>
vent u
ven der</w>
vehic le</w>
vec es.,</w>
ve ge
v ían</w>
v is</w>
v ase</w>
use .</w>
univers itari
un o</w>
un less</w>
um s</w>
tí pica</w>
tu de</w>
tris te</w>
tri bun
tre e</w>
trat aba</w>
transi ción</w>
trans form
tra xe
tr ack
to car
to ?,</w>
tic al,</w>
thre at</w>
thera pi
ther ed</w>
themsel ves.</w>
them ?</w>
that ."""</w>
th os
test ."</w>
tent ando</w>
tecnol óxi
techni cal</w>
tar me</w>
tac ul
ta ?,</w>
t ack
t aban</w>
swim ming</w>
surviv al</w>
super vis
sugg ested</w>
sub xec
sub si
su m</w>
su it</w>
strugg led</w>
streng th</w>
stor ed</w>
sto len</w>
stic ks</w>
sti ll,</w>
standar diz
sta yed</w>
sque e
spo ken</w>
spir it</w>
speci alized</w>
spac e.</w>
sou l</w>
sou ben</w>
son .",</w>
soli d</w>
sol ved</w>
societ y.</w>
so ph
soph is
sophis tica
so fis
situ ations</w>
shor t-
sho o
sho ck</w>
sh ir
sh in
serv ices</w>
seri o,</w>
ser ían</w>
ser mos</w>
senti do,</w>
segu ía</w>
secu encia</w>
sear ching</w>
se des</w>
sch iz
schiz op
schizop h
schizoph ren
scar ed</w>
satis fac
sanit ario</w>
sanguíne os</w>
safe ty</w>
sa en</w>
s wal
s per
s can</w>
rápid o.",</w>
rul e</w>
ru g
ro wing</w>
right ?</w>
revolu tion</w>
respon der
rema ins</w>
religi ous</w>
rela tive</w>
redu cing</w>
recy cl
recor ds</w>
recogni zed</w>
reci ben</w>
reas on,</w>
reach ed</w>
re war
re coll
re activ
random ly</w>
raball amos</w>
r out
r ar</w>
r ad
quími cos</w>
quiz ofr
qui red</w>
ques tion."</w>
que ixo</w>
qu ick</w>
pó r</w>
pus hing</w>
pul ling</w>
proxec to.,</w>
proto col
propi edade</w>
produc ed</w>
proce demento</w>
problem s,</w>
pro xer
pro phe
prime ira,</w>
pregn anc
preci sely</w>
pr ou
pover ty</w>
poun ds</w>
possi ble,</w>
pos .",</w>
por tas</w>
poll u
poli tics</w>
poli tici
pol ar</w>
po ema</w>
planet .</w>
plac as</w>
pin k</w>
pi ques</w>
pi o</w>
physici ans</w>
person 's</w>
per su
per sist
per mis
per de
pens aron</w>
pe ores</w>
pe or.",</w>
pat ents</w>
pas t,</w>
pas os</w>
pas e
particul armente</w>
particip ate</w>
partici pan
pape l
pain ful</w>
pai red</w>
paci entes.",</w>
pa int
ori gam
org an</w>
or s.</w>
or s."</w>
oper acións</w>
op ath
om ,</w>
ofrec er</w>
off .</w>
oci al</w>
oce an."</w>
obxec tos,</w>
obxec tivos</w>
obvi amente</w>
obst ac
o ín</w>
o w,</w>
o ma,</w>
o loxía</w>
o is</w>
o fici
norm ally</w>
no vel</w>
no mes</w>
nit ric</w>
neuroxén es
ner ve</w>
neighbor hoo
ne les</w>
nar row</w>
nac emento</w>
n ap
músi ca,</w>
multi -
mor re
mor atori
mon ey,</w>
moment o.",</w>
molecu le,</w>
mo verse</w>
mo tor
mo tion</w>
miú do,</w>
min ús
midd le-
mi o</w>
mi de</w>
mes es.",</w>
ment s.</w>
men tioned</w>
men tion</w>
memor y."</w>
memor ia,</w>
medica ción</w>
medi das</w>
meaning ful</w>
mean s,</w>
me ters</w>
me at</w>
me ?</w>
maz á</w>
matr imon
materi als</w>
mar r
manex ar</w>
man .</w>
man .,</w>
ma d</w>
m ín
m iso</w>
loit ando</w>
loca tion</w>
lix o</w>
liqu id</w>
lingu a,</w>
lim par</w>
lifesty le</w>
life -
lif t</w>
li e</w>
li bre
let ters</w>
less ly</w>
les sons</w>
les s."</w>
lear ning,</w>
le tra</w>
le ite</w>
laboratori os</w>
la y</w>
l ú
l ar</w>
k m</w>
k er
iz ing</w>
ist as,</w>
is o.</w>
is land</w>
irmá ns</w>
ir st,</w>
invest ment</w>
interes ante.,</w>
interes ado</w>
inter sec
inter rog
inter face</w>
inten si
inten se</w>
inte l
instin c
innov ación</w>
inici al</w>
ingredi ents</w>
ing ?"</w>
inf ancia</w>
indica dor</w>
indi ca</w>
incre mento</w>
in tim
in stead,</w>
in me</w>
in k
in esper
implica cións</w>
impac ts</w>
immedi ate</w>
im prim
il ing</w>
if ,</w>
ida .,</w>
ic el
ic ally."</w>
i ón.,</w>
i as</w>
háb it
human os.",</w>
hu mor</w>
hu mil
hospit aliz
hos t</w>
horiz on
homes .,</w>
ho mi
hipo campo</w>
hi p</w>
hi de</w>
hel pl
health .</w>
head ach
he 'd</w>
happines s,</w>
happen ed."</w>
happ y,</w>
ha us
ha te
ha m</w>
h ous
gus ti
guerr as</w>
guer ra,</w>
gu y
groun d."</w>
gri pe</w>
gri d</w>
gran des,</w>
gra os</w>
gr os
gr is</w>
gent le
ge ome
gas es</w>
garanti r</w>
galaxi as</w>
gal le
g ut</w>
g old</w>
g ap
g ando</w>
fí gado</w>
fundament ally</w>
funcion ou</w>
func tional</w>
ful l
fro m,</w>
fres h</w>
fres h
fran k
fra ud
fr ustr
fortun adamente,</w>
for tes</w>
for d
for ."</w>
foo d.</w>
fol la</w>
fo ca</w>
fis h,</w>
fil tr
fil led</w>
figur a</w>
fi ren</w>
fi cientes</w>
fer ida</w>
fe ature</w>
fas ter,</w>
far ían</w>
fal arlles</w>
fal ante</w>
faci al</w>
facer lles</w>
f o</w>
f la
f ase</w>
ey e,</w>
extre m
extr act</w>
expres s</w>
expl os
experi encia,</w>
exper to</w>
exp and</w>
exist encia</w>
ex pul
ex it
evid encia</w>
eta pa</w>
et a,</w>
estu do,</w>
estru turas</w>
estre l
estiv esen</w>
esti mate</w>
estand ariz
est ó
est ar,</w>
est ar
espec tá
esp ite</w>
escán er</w>
escrib ín</w>
es sen
es s
es quizofr
es cé
es cus
es cr
es ...</w>
er -
enxeñ ería</w>
entr an</w>
enten de</w>
enorm ous</w>
engine er</w>
engag ing</w>
end or
encoun ter</w>
enci es</w>
en ví
en quis
en o,</w>
en f
en ding</w>
en cour
empre gar
emp ty</w>
embr ace</w>
ele g
effec t."</w>
edu car</w>
econó mica</w>
eco sistemas</w>
e ds</w>
e ""</w>
dólar es.",</w>
dul a</w>
dr ink</w>
don' t."</w>
do lor
dist into</w>
dis posición</w>
din :</w>
different ly."</w>
did n'
di dos</w>
determin ado</w>
detec ción</w>
detail s</w>
des tr
der ed</w>
depen ding</w>
demostr a</w>
demonstra ted</w>
demo cra
del es.,</w>
deix ádeme</w>
defini tely</w>
deep est</w>
dedi ca
decisi óns,</w>
de leg
de fici
de faul
de aling</w>
day s.</w>
dar se</w>
da tion,</w>
d ent
cán cer
cur ta</w>
cumpr ir</w>
cultur a,</w>
cru zar</w>
cre atures</w>
coñec ía</w>
cour t</w>
cour se."</w>
countr y.</w>
correc to</w>
correc ta</w>
contor no</w>
cont én</w>
conscien temente</w>
consci encia,</w>
conf lito</w>
condi tions,</w>
con cl
común ,</w>
comun idade.",</w>
compro miso</w>
compre h
compr ar</w>
comple xa</w>
compañe iro</w>
compas sion,</w>
compaix ón,</w>
commit ted</w>
com part
colo car</w>
collec tive</w>
collec ted</w>
cole ga</w>
colabor ación</w>
col ors</w>
coch e,</w>
co ordin
co lum
co as
clo pedi
cli ck</w>
cle an
circumst anc
ci ta</w>
ci ous</w>
chis co</w>
chil d."</w>
che gue</w>
chang es,</w>
chan ces</w>
chan ,</w>
challeng ing</w>
cha ir
ch as</w>
cent í
cele bra
casa .,</w>
cas as</w>
car se</w>
car ing</w>
can se</w>
camiñ ando</w>
calcul ar</w>
ca se."</w>
ca ma,</w>
ca eu</w>
c y."</w>
bó las</w>
bó la</w>
bási cos</w>
bá sica</w>
bul o</w>
bro c
brea thing</w>
br ó
br and</w>
bor n,</w>
boo k
blo ck</w>
ble mente</w>
bin do</w>
believ e,</w>
b era</w>
b au
b ame</w>
b ad,</w>
aí .",</w>
axud ando</w>
axud an</w>
avali ar</w>
av es</w>
auton om
autist as</w>
audi o</w>
ate d.</w>
ata que</w>
at or."</w>
at aqu
as ks</w>
as ento</w>
as "".",</w>
artist as</w>
ar se.",</w>
ar ?,</w>
aprove itar</w>
apro xima
aprendiza xe.,</w>
app li
aparec en</w>
apar tamento</w>
ap pl
antibió ticos,</w>
ant as</w>
answ ers</w>
and ar</w>
an other.</w>
an me</w>
an gusti
amy gdal
amos :</w>
am í
am e,</w>
alzhé imer,</w>
algu én
al ong
al er
al ed</w>
agr í
agor a.",</w>
aforr ar</w>
afec tar</w>
af ast
ador es.,</w>
adoit aba</w>
ade mais,</w>
ad ing</w>
activi ties</w>
activ ely</w>
aconte cer
accur ate</w>
acces i
aca bar
ac túa</w>
ac in
abur rid
absolu tamente</w>
a us
a tivo</w>
a id</w>
Zim bab
Zik a</w>
Z o
Yeah .</w>
X es
Wh at's</w>
W all</w>
To m</w>
To da</w>
T O
So mos</w>
S m
S cien
S ,</w>
Pen sen</w>
Pen sade</w>
Par k
Par is</w>
Pal est
Nor u
Myri ad</w>
Mun di
Montan a</w>
M is
L a</w>
Kev in</w>
J e
In dus
H os
H ill
G las
F un</w>
F un
F oun
EE UU</w>
E r
E bola</w>
E as
D u
Contr ol</w>
Can tos</w>
Can ada</w>
C r
C oun
Bos ton,</w>
Bi g</w>
B rid
B ra
B ion
B ay
B :</w>
Alzheimer '
A í</w>
A pren
9 5</w>
6 5</w>
4 6</w>
4 50</w>
3 ,000</w>
2 9</w>
10 %</w>
,Wh ich</w>
,Wh at's</w>
,Some times</w>
,O n
,M any</w>
,E very</w>
,C A:</w>
,"Th ose</w>
,"M any</w>
,"Fin ally,</w>
,"B o
,"An y
,"A c
,"A F:</w>
,""" I</w>
&amp;quo t;
"T iña</w>
"Po dedes</w>
"N ese</w>
"Imaxin ade</w>
"C lar
"" Os</w>
" é</w>
" pero</w>
ó mi
índi ce</w>
í bel
éx ito,</w>
éron se</w>
é moslles</w>
é ce
ám ica</w>
á tico</w>
á bel</w>
youn ger</w>
year- old</w>
y ar
y a
xun tas</w>
xor nal</w>
xen te
xen e
x ol
world wide</w>
wor se,</w>
wor ds."</w>
wonder ing</w>
wonder ,</w>
wis e,</w>
wee k."</w>
web si
wat ch
was .</w>
war m</w>
wan aw
w id
w are</w>
w ant."</w>
vó s.,</w>
vol ven</w>
viv ía</w>
vis to</w>
vis itar</w>
viol ent</w>
viol ent
vin te</w>
vie w,</w>
vi xi
veterin arios</w>
ver edes</w>
ver .",</w>
vell o</w>
ve -
vas o</w>
v ouvos</w>
v ista,</w>
v al</w>
ut ter
use i</w>
univers idades</w>
un like</w>
un it</w>
un fortunately,</w>
u k</w>
trá tase</w>
tru cos</w>
tron co</w>
trigg er</w>
tric ks</w>
tri un
tri p</w>
tri als,</w>
tre i</w>
trau matic</w>
trans misión</w>
trans cen
trag ed
tra zos</w>
tra zo</w>
tra jec
tra ción</w>
to pic
to le
tiv idade</w>
ti ra
ti po,</w>
thre aten
thes e."</w>
thera peu
ther s</w>
the -
that ?"</w>
test .</w>
terapi as</w>
ter ror</w>
tent a</w>
tem pt</w>
telescopi o</w>
telesco pes</w>
tel os</w>
technolog y."</w>
tas te</w>
tas ks</w>
tar ía</w>
ta y</w>
ta tion,</w>
t ly.</w>
t es.",</w>
surger y.</w>
sup ply</w>
sum mer</w>
suici di
sugg es
sufri r</w>
suficien temente</w>
sudden ,</w>
suce deu</w>
subst ance</w>
su xeitos</w>
su gar
structu re,</w>
stra igh
st ar</w>
sp aces</w>
soun d,</w>
sos peit
soldi ers</w>
sol ving</w>
sol dados</w>
socie dade.",</w>
sm all
situ ación,</w>
simple mente,</w>
sil ence</w>
sig ned</w>
shor e</w>
seroton in</w>
seri o.,</w>
sensor y</w>
sensi ble</w>
semell antes</w>
segun do,</w>
segre dos</w>
see king</w>
se tting</w>
se t,</w>
se a,</w>
scre am
scr at
scienti fic
samp le</w>
sabed oría</w>
sa índo</w>
s ím
s ul
s tica</w>
s id
s al</w>
rá ne
rr rr
rout ine</w>
roo t</w>
rom pe
ro mos
ro me
ro les</w>
ro cke
ro .</w>
ri f
responsi bil
respon de</w>
resist ente</w>
res ur
reproduc tive</w>
repres ents</w>
reper cus
ren unci
ren se</w>
reflexi on
ref res
ref er</w>
redu cir
recuper ación</w>
recover ed</w>
re vista</w>
re think</w>
re min
re fin
re cover</w>
re coller</w>
re co
rastre x
rais ing</w>
ra í
ra tional</w>
ra te,</w>
qué ro
quiz áis</w>
quim io
quick ly,</w>
ques tion.</w>
ques tion
que les</w>
puzz les</w>
puzz le</w>
psychi atr
proxec to,</w>
provo car</w>
prou d</w>
protec ted</w>
proper ly</w>
pron unci
promo te</w>
promis e</w>
prof ound</w>
produc ing</w>
produc en</w>
proces ses</w>
proce dur
problem as.",</w>
pro geri
principi o,</w>
pregun tando</w>
pre xuí
pre val
pr ize</w>
pou co.",</w>
pot ente</w>
poin ted</w>
poder iades</w>
poder .,</w>
poder ,</w>
play ers</w>
planet ."</w>
plane ta.,</w>
plan ta</w>
plan ning</w>
plac ed</w>
pla y.</w>
pi pe
pharmaceu tical</w>
perspec tive,</w>
person alized</w>
person .</w>
perman ec
percei ve</w>
per dín</w>
per den</w>
per demos</w>
per de</w>
per d
pens ar,</w>
pe d,</w>
paxar os</w>
pas sing</w>
pare za</w>
paral y
par k</w>
par aí
paper s</w>
pade cer</w>
pa .,</w>
outr as.",</w>
our o</w>
ou ter</w>
other wise</w>
os amente</w>
os .""",</w>
orgul los
or ques
opio ides</w>
opini on</w>
oper ación</w>
op posi
oll y
oll ar</w>
of ten,</w>
of fici
océ anos</w>
océ ano.,</w>
occur red</w>
occa sion
oc tors</w>
obst ante,</w>
obses sed</w>
ob sole
ob ese</w>
o vari
o logical</w>
o liz
o este</w>
o ...</w>
nov as.,</w>
no is
neuro transmis
nervi oso</w>
nen a,</w>
nega tivo</w>
necesit aba</w>
ne ar
n í
n outro</w>
n iso</w>
médi co,</w>
máxim o</w>
mus cle</w>
muller .",</w>
mu tu
mu tan
mor ning.</w>
mone y.</w>
mon te</w>
molécul as,</w>
moit o.",</w>
mo zo</w>
mo zas</w>
mo tivos</w>
mo dif
mir aba</w>
minu to</w>
mil k</w>
mid -
micros co
micro ARN</w>
meta is</w>
mest ura</w>
mes tre</w>
mes ma.",</w>
medicin e."</w>
medicin e,</w>
medi o.,</w>
measu red</w>
me et
me do.,</w>
mathema tics</w>
mathema tical</w>
mat h</w>
mar char
mane ira,</w>
machin ery</w>
ma tically</w>
ma quin
ma gni
ma gaz
m iro</w>
lév anos</w>
lun g</w>
lu z
lonx itude</w>
longe v
lo ves</w>
lo op
lo "".",</w>
listen ed</w>
lingu a.",</w>
lin k</w>
limit acións</w>
libr ary</w>
li ñ
li ve,</w>
leopar d</w>
lec cións</w>
le ts</w>
le tras</w>
le gi
le d."</w>
lawy ers</w>
lau gh
lands cap
l óxi
l ó
l ado.",</w>
kill ing</w>
kid s.</w>
k olo
jour ne
jo y</w>
j un
j ell
it ting</w>
it ?"""</w>
it ;</w>
irmá n
ir os.,</w>
investi gar</w>
interest ing,</w>
intent a</w>
insul ina</w>
insi gh
inmediat amente</w>
infec tious</w>
infec tions</w>
infec tion,</w>
individu ais</w>
incrible .,</w>
increas ingly</w>
inclu í
inclu des</w>
incen tive</w>
in s."</w>
in os,</w>
in no
impul sos</w>
impul so</w>
implica tions</w>
imag e,</w>
im os.",</w>
iki pedi
ig o,</w>
ig ni
identi fic
identi cal</w>
ide as.",</w>
ida .",</w>
id ing</w>
ic e."</w>
ic an
i m</w>
i gh</w>
i ficar</w>
i bu
ibu prof
hy ?</w>
human idade.",</w>
human a.,</w>
hou se."</w>
histor y."</w>
hid ro
hear t
head ."</w>
he ter
happi er</w>
happen s."</w>
happen s,</w>
happen ."</w>
han d."</w>
hallucin ations</w>
hal f-
h one</w>
h i</w>
h ero</w>
h ac
gu én</w>
gu ys,</w>
gu y.</w>
gu ga</w>
gre at,</w>
grand mother</w>
gram s</w>
gram a</w>
gra ves</w>
gg ing</w>
gar da</w>
ga in</w>
g os
g aga</w>
g a,</w>
fú t
fósi les</w>
fór mula</w>
fó ra.",</w>
fó ra,</w>
físi cos</w>
fá li
fundament ais</w>
fun ding</w>
free dom</w>
fr ío</w>
fr í
four th</w>
forma ,</w>
for e,</w>
for .</w>
fon tes</w>
fixe ches</w>
fin ishe
fill os.,</w>
fil lo.",</w>
fi res</w>
fi f
fantas tic</w>
famili es."</w>
famili es,</w>
fall ing</w>
fal sos</w>
fal ou</w>
fal arvos</w>
fag os</w>
fac tores</w>
fac e.</w>
fac e,</w>
f ed</w>
ey es."</w>
exter nal</w>
explica ción</w>
experim enter</w>
expecta tivas</w>
exemp lo.",</w>
examp le.</w>
examp le."</w>
exam es</w>
ex tend</w>
ex por
ex pedi
ex haus
every thing,</w>
eu .,</w>
estí mul
estr an
estran xe
estr ag
estima ted</w>
est s</w>
est ou
est able
esquer da,</w>
esfer a</w>
esenci al</w>
escé p
escoit ando</w>
escoit amos</w>
es te.",</w>
es qu
es got
es encia,</w>
es con
es ax
er a:</w>
er :</w>
er ."""</w>
ep iso
environ ments</w>
entre vist
entre pren
entr en
ente ira</w>
enough .</w>
enferm idade.,</w>
enferm idade,</w>
enci as.",</w>
ence fáli
en d.</w>
empez ando</w>
emo tionally</w>
ement o.",</w>
em os:</w>
electri city</w>
el low
ei ro.",</w>
efici encia</w>
econom ías</w>
ear ch</w>
e ye
e ing</w>
e ?",</w>
e 'd</w>
dur mir
drug -
dra wing</w>
dra w
dor .,</w>
do mes
do m."</w>
divi de</w>
disappe ar
dis tr
dis postos</w>
dis per
dis order</w>
din ámica</w>
din os</w>
dificul tades</w>
dicir me</w>
diagnosti car</w>
di e."</w>
di e,</w>
di cion
detec tion</w>
des praz
der ing</w>
depend ent</w>
demen ti
dema is.",</w>
del o</w>
del ,</w>
degre e</w>
defens ores</w>
debux os</w>
deba tes</w>
dead ly</w>
de z,</w>
de it
de ime</w>
de cem
de be
d unhas</w>
d ous
cur ación</w>
cu lo.,</w>
cris is,</w>
crec ente</w>
cre ba
cr óni
cr us
coñe zo</w>
coñe cid
correc to.,</w>
cor p
cor al,</w>
conver té
conve y</w>
control ."</w>
contribu te</w>
const an
constan temente</w>
consegu i
consecu encia</w>
conflit os</w>
condu tas</w>
concl usión</w>
concer ns</w>
concer n</w>
concep tos</w>
con ten
con str
con sel
con mo
con fron
con fin
compoñ entes</w>
comportam entos</w>
comportam ento.",</w>
complex as</w>
comp ounds</w>
comodi dade</w>
comm it</w>
comfor table</w>
comez os</w>
com o:</w>
coche .,</w>
co s.</w>
ción ?",</w>
circuí tos</w>
circu its</w>
cion ais</w>
cin ta</w>
chá man
child hoo
che ese</w>
characteris tics</w>
char ge</w>
chan nel
chan .",</w>
cham an</w>
cham ados</w>
ch romos
centur y,</w>
cent o,</w>
cel er
cefal eas</w>
care ful</w>
car te
cap as</w>
canc ro.",</w>
camp amento</w>
cam is
cal or
caix as</w>
ca ída</w>
c írculo</w>
c ía</w>
c king</w>
bus y</w>
bus ca
bur n</w>
bur bul
bro wn</w>
bro ad</w>
bre n</w>
bra zos</w>
br it
bom bar
bo at</w>
blo que
bibliote ca</w>
befor e.</w>
beauti ful,</w>
be iz
be cause,</w>
back ground</w>
bab i
b ú
b lan
b ill</w>
azu cre
autis m."</w>
audi ence,</w>
ató pase</w>
atom s</w>
aten ción.,</w>
at tempt</w>
at temp
asu mir</w>
assu med</w>
associ ate</w>
asegur arnos</w>
asegur ar</w>
as um
as k,</w>
as ign
as ed</w>
artist s</w>
arti st</w>
ari an</w>
ari ades</w>
ar reci
ar que
ar es.",</w>
approach ,</w>
appreci ate</w>
anteri or</w>
answ er."</w>
anom al
and a,</w>
anc és</w>
an nu
an no
an acos</w>
amí gdal
ampli ar</w>
ambi entes</w>
am ó
am ong
am bul
ali ve."</w>
ali a</w>
algu én,</w>
al one.</w>
al li
al ity."</w>
al idade.,</w>
al a.",</w>
al ",</w>
air ,</w>
agricul tural</w>
ag o.</w>
afec tan</w>
adv ice</w>
adv ent
adi o</w>
ad hes
ad es.,</w>
ad a.</w>
ace ite</w>
aca bo</w>
ac quired</w>
ac ciden
ac celer
ab us
ab an,</w>
a u</w>
a tivos</w>
a --</w>
Y our</w>
Y an
Washing ton</w>
W est
W e're</w>
V emos</w>
Th or
TRAPPIS T-
T ri
T res</w>
T im
T i</w>
T ha
Su pre
Stat es."</w>
Star bu
Sm ith</w>
Sab en</w>
S mi
S ir</w>
S ID
Re zero</w>
R em
Qu é</w>
Qu ería</w>
Presid ent</w>
Ph il
Per fec
P her
P T
P :</w>
O x
O r</w>
O kin
Nigeri a</w>
N úmero</w>
N ar
N O
N I
Mc Pher
Mar s</w>
M uti
M id
M ende
M as
M and
Luci fer</w>
Klei ber</w>
Jan u
J err
J ack</w>
J O:</w>
Ira q
In u
Imaxin en</w>
Imaxin ade</w>
Human ae</w>
H AL</w>
Gu ine
Gre ek</w>
Go od</w>
G h
G ,</w>
F i
F a
Ex x
Est u
Es per
Eng land</w>
E very
E di
E ast</w>
Deix ádeme</w>
DNA .</w>
DNA ."</w>
D urante</w>
D ra
D id</w>
D ende</w>
D ec
D amas
D .
D -
Col um
Che ers)</w>
Canad á,</w>
Can cer</w>
Can ada,</w>
C antas</w>
Bion ic
B ab
B B
Ar th
An g
Afric an-
Ab u</w>
A ma
A m
A l</w>
A gora,</w>
7 5
5 ."</w>
201 3,</w>
200 5,</w>
2 4
1 20</w>
. com
-- e</w>
- based</w>
,T ake</w>
,"Th eir</w>
,"I s</w>
,"C om
,"C an</w>
,"Be fore</w>
, To
, K
, Be
(Ris as
(A udi
"To das</w>
"Qu izais</w>
"Por que,</w>
"Pen samos</w>
"O bvi
"N unca</w>
"Fin almente,</w>
"F un</w>
"B as
"A qu
""S on</w>
""O K,</w>
""D o</w>
"" eu
"" Como</w>
" porque</w>
" a</w>
" G
” .,</w>
úni co,</w>
ón ?,</w>
ó p
ñe zo</w>
í monos</w>
í anos</w>
émol os</w>
éce me</w>
árab e</w>
án imo</w>
án ica</w>
ám bito</w>
á ci
Í a</w>
y fish</w>
y al</w>
xis ten</w>
xener aliz
xe tin
xe o,</w>
x iro</w>
x estión</w>
x est
wor ms</w>
wonder ed</w>
wo man."</w>
wo ke</w>
wi red</w>
what ?"</w>
wh y,</w>
week end</w>
wea k</w>
was ."</w>
w ound</w>
w ol
w all</w>
vol vendo</w>
vol vemos</w>
vol t
vo te</w>
visi óns</w>
vis tes</w>
vis ta.",</w>
vis e</w>
victi ms</w>
vessel s,</w>
versi óns</w>
verdade .,</w>
ver me</w>
ver de.",</w>
vel os</w>
veh ículo</w>
ve ño</w>
v é
v ira</w>
us trat
us arse</w>
us aron</w>
ur b
ur as</w>
under ne
under lying</w>
un equal</w>
um .</w>
ul tim
udi ence:</w>
u ts</w>
u :</w>
tóxi cos</w>
tá ronse</w>
ty -
tur es,</w>
tun e</w>
treat ment."</w>
transfor med</w>
traball os</w>
tra its</w>
tra ine
tor y</w>
topi c</w>
ton s)</w>
ton es)</w>
to d
tiv os.,</w>
tiv o.,</w>
titu des</w>
ti ze</w>
ti ver
ti les</w>
ti l,</w>
ti dos</w>
though t.</w>
themsel ves."</w>
the or
the at
teñ as</w>
ter s.</w>
telescopi os</w>
tar á</w>
tar .",</w>
tan os</w>
tamén .",</w>
tal o</w>
tal king,</w>
tal ento</w>
table ."</w>
t ly."</w>
sím bol
séx ting</w>
syn dro
sustain able</w>
surroun ding</w>
sur geri
sup pose</w>
suf fici
suf fer</w>
su xeito</w>
strugg le</w>
strong ly</w>
stron ger</w>
stress ful</w>
str ang
sta ying</w>
st in
st ers</w>
squ are</w>
spiritu al</w>
speci es."</w>
spec tr
sp inal</w>
sou thern</w>
some what</w>
soci aliz
simul tane
si gh
si des</w>
si .,</w>
sh are
sex ting</w>
sex amos</w>
servi zo</w>
serv ice</w>
serv ic
seroton ina</w>
seri o.",</w>
senti do.",</w>
sen se."</w>
sempre ,</w>
seguin te,</w>
se min
se d.</w>
se at</w>
se :</w>
scientist ,</w>
scien ce.</w>
sav ings</w>
sai ban</w>
s ess</w>
s ans
s and
s ali
s aba</w>
rough ly</w>
room s</w>
rol led</w>
ro me</w>
ro ck
ri de</w>
respos ta.",</w>
responsab ili
respon ds</w>
respon de
resist entes</w>
res cu
res .",</w>
repe at</w>
rela x
reflic te</w>
redu ción</w>
recor dar</w>
reci pro
rec entemente</w>
rec ente</w>
re tos</w>
re tir
re pen
repen te,</w>
re ais,</w>
ran se</w>
rai g</w>
ra ti
quí mico</w>
qu ere
qu er</w>
pílul a</w>
psycho logy</w>
psic ólog
protec ting</w>
protec ción</w>
prote in,</w>
program ar</w>
profoun dly</w>
profes ora</w>
produ ces</w>
proces s.</w>
procedur e</w>
proble ma
pro long
pro hi
prison ers</w>
princip les</w>
pres ion
pres ented</w>
pren sa</w>
preguntar ,</w>
pregun tas,</w>
pre ten
pre fir
praz o,</w>
prac tical</w>
pr é
pr ices</w>
poñ ía</w>
poñ elo</w>
pou ca</w>
posi tions</w>
por én,</w>
por ta,</w>
pon se</w>
pobo ación.,</w>
pob res,</w>
plaus i
plat form</w>
plant as</w>
plane t,</w>
pla ques</w>
pit ch</w>
pit al</w>
phan ts</w>
pha ges</w>
permí ten
peri ódi
percent age</w>
per mission</w>
per deron</w>
per ante</w>
pens ament
pedr as</w>
pe lo</w>
patient 's</w>
pas aron</w>
pas ado.,</w>
participan ts</w>
partic les</w>
partic le</w>
par á
par o
par k,</w>
pantas ma</w>
pais es</w>
pain ting</w>
pain t</w>
pain ."</w>
padr óns</w>
pa que
pa is,</w>
p é
p p
p lease</w>
p ali
p age</w>
oxyto cin</w>
own ,</w>
outr as,</w>
our ing</w>
ou vido</w>
ou te
ou co</w>
orixin ais</w>
organiz ation</w>
orden ador.",</w>
or r
or b
op lan
op at
on e?</w>
oll os.,</w>
oll ada</w>
ol ds</w>
offic er</w>
ocor rer</w>
oc curr
obvi ously,</w>
o ír</w>
o vos</w>
o it
o h</w>
o "",</w>
number s."</w>
nu clear
nor th</w>
nor mas</w>
no thing."</w>
no ci
ning unha
nigh t."</w>
neuron as,</w>
neuron a</w>
necesit an</w>
natu re,</w>
na tive</w>
na h</w>
n ing."</w>
n ela</w>
mó bil</w>
music .</w>
mun do.</w>
movem ents</w>
mostr an</w>
mosqu itos</w>
more as</w>
mor tos</w>
mor te
mon str
moitísim o</w>
mo ves</w>
mo m
mo de
mix ed</w>
misteri o</w>
minu te,</w>
minis tro</w>
min ing</w>
mil ag
metab oliz
mes .,</w>
ment es,</w>
men os.",</w>
meiran de</w>
medr ar</w>
medr a</w>
medica ción,</w>
meas uring</w>
me tric</w>
me -
mar co</w>
manag ed</w>
man ual</w>
man te
man 's</w>
mal ia</w>
machin e."</w>
ma xia</w>
m m,</w>
lí qu
lí mite</w>
lu min
lu me</w>
loo k,</w>
loca ted</w>
lo t."</w>
lo ad</w>
liter ature</w>
liter almente,</w>
li kes</w>
lev ando</w>
lembr o</w>
le tr
le an
lan dia</w>
l ag
l a.",</w>
ke t</w>
k y
k en
jud ge</w>
job .</w>
j az
it self."</w>
it es,</w>
it :</w>
is h,</w>
ir rever
invol ve</w>
invent ou</w>
invent ar</w>
introdu ced</w>
interes ante.",</w>
interac ting</w>
inter pret
inter actuar</w>
intellig ent</w>
int ac
institu to</w>
insi ght</w>
initi al</w>
infor me</w>
infec t</w>
inf ant</w>
inevit able</w>
indu ced</w>
individu als,</w>
independen temente</w>
independ ente</w>
independ ent</w>
in tri
in im
in crí
impro vis
importan tes,</w>
imaxin a</w>
imagin e,</w>
ill usion</w>
ill usi
ill as</w>
il usión</w>
ide as."</w>
id o.,</w>
id as,</w>
i ño</w>
i ven</w>
i ro.,</w>
i di
háb itos</w>
hun ger</w>
human os.,</w>
human it
hospit als</w>
hormon al</w>
ho tel
ho t
ho mo
ho li
histori cal</w>
histor y.</w>
hist ó
hippocamp us</w>
happen s.</w>
hand sha
hab it</w>
h ould</w>
h es</w>
h emis
gúst ame</w>
gus taba</w>
gu e,</w>
groun d.</w>
green house</w>
great- great-
graph y</w>
gr atu
gluco se</w>
glob al.,</w>
gir l,</w>
gen i
gar galladas)</w>
gar b
gal ax
ga tion</w>
g as.",</w>
g ada</w>
fó sil
fó semos</w>
funcion a.",</w>
fro z
fra u
forma .,</w>
for mar
fo to,</w>
flexi ble</w>
fixer an</w>
fix ese</w>
fis icamente</w>
fis ca
first .</w>
fin x
fin ds</w>
filos ó
fill os.",</w>
fill ing</w>
fi ve,</w>
fer tiliz
femin ist</w>
fas t,</w>
far mers</w>
famili ares</w>
fal ar.",</w>
facil mente</w>
fabr ic
fa ino</w>
fa il</w>
fa i.,</w>
extre me</w>
extra verti
expres sion</w>
exerci ses</w>
ex er
ex change</w>
evid ente</w>
evid ence.</w>
ev il
eti que
están dar</w>
est ando</w>
est a:</w>
esquec er</w>
esque le
especí fico</w>
especi ficamente</w>
escri bi
escoit an</w>
es va
es h</w>
es .""",</w>
es "".",</w>
er án</w>
equival ent</w>
equi pos</w>
epine fr
entr ou</w>
enter tain
ent ering</w>
ent ered</w>
enfer mar
enf ad
energ y."</w>
enci as.,</w>
ench er</w>
en l
en gur
en cy</w>
en a</w>
empreg an</w>
empreg amos</w>
empre ga</w>
emo tion
emis ións</w>
ement .</w>
em power
efec tivo</w>
educa ción.,</w>
e gu
dé be
dá lle</w>
du ca
dro ve</w>
driver 's</w>
dra wn</w>
dor es,</w>
domé sti
domin io</w>
domin ant</w>
domes tic</w>
do es,</w>
dix emos:</w>
div or
dispar os</w>
dis posto</w>
dis positiv
dis o.",</w>
direc tion</w>
din ner</w>
dimin úe</w>
dign idade</w>
difíci les</w>
di lu
di ga
devic es,</w>
dev ice,</w>
dev as
dev ance
deser ve</w>
desenvol vemos</w>
desen cade
des igual
depres sed</w>
depen dendo</w>
demostr ou</w>
del es.",</w>
deix ou</w>
defec to</w>
decre ase</w>
decision- ma
decidi u</w>
deca des,</w>
debux ar</w>
de pos
de cep
de as</w>
de an</w>
dat ab
datab ase</w>
d ing."</w>
d ades,</w>
cén tr
cy cle</w>
curr icul
cul ar</w>
cu tting</w>
cu s</w>
cro mos
crec er</w>
cr ían</w>
cr an
coñec ementos</w>
cous a:</w>
cous a.",</w>
countri es.</w>
countr y's</w>
cor d</w>
cor ,</w>
conver te</w>
conv ince</w>
control a</w>
control .</w>
contra dic
contr olling</w>
contr as
continu ed</w>
contin ú
contamin ación</w>
contain s</w>
cont a,</w>
constru ir</w>
conse llos</w>
connec tions</w>
confid ent</w>
confi ar</w>
confer ence</w>
conec tados</w>
con vid
con ser
compu ter."</w>
comple ment
compar ten</w>
compar is
compan ies,</w>
commun ity.</w>
coment ario</w>
combusti ble</w>
com prob
com pla
com ba
col or,</w>
coid ando</w>
co res,</w>
clo th
clin ics</w>
climá tico,</w>
cli entes</w>
class room,</w>
cl ara</w>
cir úr
ci ñas</w>
ci ber
cho ice,</w>
cho cola
child 's</w>
chick en</w>
chemic als</w>
char la,</w>
cham ámoslle</w>
cer teza</w>
cer imon
cas ar</w>
car rí
car a,</w>
capí tulo</w>
cam p</w>
cal quer
cabez a.,</w>
ca ble</w>
c tur
c le,</w>
c ents</w>
bu tt
bro ,</w>
bri ef</w>
bri ef
bon it
bo w
bin d</w>
bi op
bet ter
ber t</w>
ben s</w>
behavior al</w>
behavi ors</w>
begin ning,</w>
be ta</w>
be ing."</w>
batall a</w>
bale iro</w>
baix os</w>
bac k.</w>
bab y,</w>
ba g</w>
ba des</w>
b out</w>
b ores</w>
b or</w>
b low</w>
b log
b imos</w>
b es,</w>
aín da,</w>
aí .,</w>
ay or
ax ú
ax encias</w>
awa y.</w>
aver age,</w>
avanz ar</w>
avali ación</w>
av ing</w>
av ance</w>
autó no
automa tically</w>
autis mo,</w>
att ack</w>
atrá s,</w>
atopar on</w>
at or,</w>
assa ul
asoci ados</w>
arti stic</w>
arran xar</w>
ar ts</w>
ar rest
ar on,</w>
ar ma</w>
ar is
ar g
appe ars</w>
apari ción</w>
ap p</w>
any where</w>
any thing,</w>
any more.</w>
anxiet y,</w>
anti go</w>
anthro po
answ er,</w>
ansie dade,</w>
an u
an os?,</w>
an cé
an atom
among st</w>
amilo ides</w>
amig os.",</w>
amig a</w>
ambi gu
am s</w>
am a,</w>
am :</w>
alí .,</w>
alterna tive</w>
alcan zar</w>
alcan ce</w>
al ó
al mente
al as.",</w>
al ?",</w>
ais .</w>
ai re,</w>
ago ch
ag nos
af as
advant age</w>
ador a.",</w>
adolesc ente</w>
adolesc encia</w>
adestr ar</w>
ad os.</w>
ad a
acab aba</w>
ac y.</w>
ac titude</w>
ac tion,</w>
abstr act</w>
abl es.,</w>
abil ity."</w>
abaix o,</w>
a xentes</w>
a xe
a fro
a ,""</w>
Y ellow
Xes ú
X en
WALL- E</w>
W o
W ikipedi
Vi et
Valle y</w>
V is
Unid os.",</w>
U. S
Twit ter</w>
Ti ven</w>
Tha ayor
Th ese</w>
Telesco pio</w>
Ste ph
Segur o</w>
S un
S tar</w>
S is
S AR
R evolución</w>
R en
R ed
Públi co:</w>
Projec t</w>
Post Secre
Po em</w>
Par ty</w>
PI B</w>
P ep
P aul</w>
Ob ama</w>
Nixeri a</w>
Nigeri an</w>
Nen o:</w>
N O</w>
Mus lim
Mir ade</w>
Mc Donal
Man hat
M er
M any
M ak
M :</w>
Lon dres
Lo ve</w>
Lag os</w>
Ku uk</w>
K or
Joh n
J us
Isra el
Institu te</w>
Inglat er
H un
H omo</w>
H olly
Goli ath</w>
Ger man</w>
G ra
G ates</w>
Fe bru
Es pero</w>
E i
E dis
E S
Dic kin
Dec em
Chin a.</w>
Chica go</w>
Can to</w>
CO 2</w>
CE O</w>
C raig</w>
C l
C A
Bro wn</w>
Bon net</w>
Ban co</w>
B as
Australi a</w>
Asper ger</w>
Andro id</w>
Alex an
Afri ca
A T
6 ,000</w>
201 4,</w>
20 00</w>
20 ,000</w>
2 1
2 .",</w>
197 0,</w>
19 70
19 50
1 50
-- ",</w>
,W hy?</w>
,Th eir</w>
,N umber</w>
,E x
,B G:</w>
,"Secon d,</w>
,"P er
,"O h,</w>
,"E ach</w>
,"D o</w>
,"D espite</w>
, An
( aplausos)</w>
( P
' 9
"T es</w>
"Ou tro</w>
"Mir ade,</w>
"M esmo</w>
"H abía</w>
"Est abamos</w>
"Es pero</w>
"E les</w>
"Dix o:</w>
"Des pois,</w>
"D ous</w>
"D este</w>
""Y es,</w>
""W ow,</w>
""S ab
""" .</w>
"" non</w>
"" U
"" There</w>
"" Re
"" No</w>
"" Look,</w>
"" Is</w>
"" But</w>
"" As</w>
" J
" (Música)</w>
” ",</w>
ú as</w>
órgan o</w>
ór b
ís tico</w>
ín dose</w>
í anse</w>
é ra
é mos
é ...</w>
áron o</w>
ár bores</w>
ángul o</w>
án s.",</w>
ámol as</w>
á stico</w>
á ne
á fri
á bal
¿ que</w>
¿ Por</w>
y ing."</w>
y ,""</w>
xur diu</w>
xogue te</w>
xo o</w>
xo me:</w>
xin do</w>
xig ante</w>
xer ar
xer ación,</w>
xené tico</w>
xeit o.,</w>
xar dín</w>
worl ds</w>
wor ri
wor ked."</w>
women 's</w>
wh o,</w>
wh at,</w>
war ming</w>
w on</w>
w est</w>
vól vense</w>
vol ta,</w>
vocabul ario</w>
vixil ancia</w>
vivir .",</w>
visu aliz
vir ul
view ."</w>
vide o,</w>
vida .</w>
vid os</w>
vi ño</w>
vi bra
ver mes</w>
ver e
venti la
ven da</w>
vem ente</w>
ve .,</w>
vari ation</w>
val bar
vai an</w>
v istas</w>
v ing,</w>
v a,</w>
us es,</w>
ur ge</w>
univer se."</w>
univer se,</w>
underst and,</w>
un expected</w>
un able</w>
un .",</w>
ul lo</w>
tí tulo</w>
té ñ
tur ing</w>
tur a.",</w>
tu re,</w>
tu m
tru co</w>
tru ck</w>
tro ver
tri ci
tre n</w>
transmit ted</w>
transmi tir
trans mit</w>
train ing,</w>
traball aba</w>
tra tei</w>
tr ick
tr amp
tr amos</w>
tr ace</w>
tou che
tor es,</w>
to xin
to ward</w>
to p,</w>
to "".",</w>
tiv es</w>
tist a</w>
tion ;</w>
tion ."""</w>
ti veran</w>
ti pping</w>
ti cas.,</w>
ti .</w>
ti .",</w>
thir ds</w>
thing 's</w>
there fore,</w>
there ?</w>
teñ en.",</w>
terapi a,</w>
ter zos</w>
ter ing</w>
tempor ary</w>
telesco pe</w>
teenag ers</w>
techno logical</w>
team s</w>
te ens</w>
tarxe ta</w>
tar gets</w>
tar da</w>
tama ño,</w>
tam ente.,</w>
tack le</w>
ta ción,</w>
t ín</w>
t s
t os.</w>
t ories</w>
t ni
t eses</w>
t ag
t .,</w>
t ,""</w>
system s.</w>
syn chron
suxi ren</w>
sub xac
su it
studi es,</w>
stud y,</w>
stres sed</w>
stran ger
stra ight</w>
str of
sto ck</w>
st ores</w>
st on</w>
st age,</w>
spon tane
spea ks</w>
spe cul
sour ces</w>
sos ti
sophistica ted</w>
son .,</w>
some times,</w>
some one's</w>
solucion ar</w>
sofis tica
so pr
so ar</w>
smar ter</w>
sm ile</w>
sleep ing</w>
sk ul
siz e,</w>
sign als,</w>
si óns,</w>
si ón.,</w>
si go</w>
si der</w>
sho p</w>
sho ck
she et</w>
sha pe,</w>
sh ame</w>
sh am
seri ously</w>
ser vir
ser en</w>
ser .",</w>
separ ar</w>
sent ados</w>
sensa tion</w>
sen se.</w>
seman a.",</w>
sel o</w>
sel les</w>
segu ido</w>
sec ción</w>
se mán
sch ol
saú de
san s,</w>
sam e."</w>
sam e,</w>
safe ."</w>
sa .",</w>
s á
s me
ró fon
ros of
ro t
ris k,</w>
ri r</w>
ri end
revolu cion
retro alimentación</w>
reti rement</w>
resur rec
resour ces,</w>
resolu tion</w>
reser vas</w>
res ca
represent ation</w>
remat ou</w>
rema ining</w>
reli able</w>
rejec tion</w>
refer red</w>
red or,</w>
recuper arse</w>
recor r
recor ded</w>
recor d,</w>
recom pensa</w>
recom en
recei ving</w>
read ,</w>
reach ing</w>
re versi
re turned</w>
re pu
re mor
re lox
re gre
re fí
re ferr
re d."</w>
re conci
re colli
raz ón.,</w>
rapi d</w>
ra g
quiz ais,</w>
qui et</w>
qui et
qui e
