a 52115
the 35220
to 31543
de 31260
que 27747
of 22122
is 20318
o 17287
and 16983
I 16972
e 16484
é 15732
in 14171
that 11846
para 11553
The 10411
do 9966
A 9542
as 9487
unha 8601
O 8564
un 7973
for 7645
en 7429
os 7190
you 6897
da 6853
be 6700
we 6506
can 6339
se 6323
are 5997
non 5688
with 5553
my 5317
have 5301
this 5217
me 5124
was 5105
an 5015
on 5009
no 4859
it 4773
Non 4391
not 4374
ser 4218
na 3923
máis 3821
like 3571
pode 3538
como 3401
, 3359
por 3280
our 3245
dos 3211
." 3184
about 2987
your 2987
es 2929
We 2917
""@@ 2914
con 2849
um 2835
at 2815
what 2782
need 2756
ou 2733
. 2666
está 2628
very 2627
all 2602
uma 2589
they 2581
from 2572
don't 2513
-- 2462
das 2460
more 2454
ao 2437
re@@ 2410
or 2409
in@@ 2376
miña 2359
son 2345
nos 2305
"And 2299
am 2241
so 2233
meu 2172
em 2148
moi 2146
a@@ 2143
á 2135
s. 2117
one 2115
but 2100
te 2090
if 2082
Os 2012
their 1966
by 1959
de@@ 1918
people 1898
y 1885
when 1860
s 1851
s, 1850
di@@ 1830
? 1811
la 1792
era 1744
i@@ 1712
hai 1694
has 1691
I'm 1690
way 1679
ing 1674
how 1670
facer 1669
just 1668
a. 1663
súa 1663
And 1649
E 1649
e@@ 1634
will 1624
o@@ 1623
ar 1617
en@@ 1614
ar@@ 1613
-@@ 1612
it's 1612
ca@@ 1610
Estou 1605
o. 1595
cando 1590
forma 1588
: 1576
es. 1553
know 1546
sobre 1529
make 1523
My 1506
co 1499
vida 1495
"E 1493
S@@ 1493
who 1484
al@@ 1478
going 1471
com 1463
pero 1448
ti@@ 1446
us 1438
es, 1430
were 1429
think 1421
ter 1418
an@@ 1412
todo 1411
s@@ 1407
un@@ 1398
A@@ 1385
out 1381
want 1380
.""" 1361
a, 1354
had 1347
these 1346
al 1337
would 1334
s." 1329
ci@@ 1324
go 1322
ted 1322
d@@ 1312
es@@ 1303
g@@ 1299
ma@@ 1298
el 1288
des@@ 1276
up 1273
er@@ 1265
podemos 1256
important 1255
ed 1240
get 1239
new 1237
co@@ 1231
feel 1217
ten 1213
foi 1199
algo 1195
because 1194
ta@@ 1182
"A 1181
time 1171
It 1164
ra@@ 1164
u@@ 1164
he 1161
see 1151
seu 1151
do. 1139
o, 1139
This 1138
ro@@ 1138
should 1138
there 1130
le@@ 1126
or@@ 1120
As 1118
esta 1117
se@@ 1116
tion 1115
t@@ 1105
used 1104
tes 1095
só 1093
really 1092
help 1086
many 1080
his 1078
to@@ 1078
ar. 1076
si@@ 1076
other 1073
than 1072
ver 1072
ri@@ 1068
into 1064
te@@ 1064
xente 1061
ac@@ 1060
b@@ 1058
este 1057
p@@ 1056
ando 1055
con@@ 1054
must 1051
isto 1050
"So 1048
t 1045
importante 1039
"The 1038
some 1038
ción 1036
st@@ 1031
La 1019
You 1019
li@@ 1015
coa 1009
"O 999
e, 998
something 995
pro@@ 990
car@@ 986
"I 984
É 981
them 980
So 978
ca 978
mais 978
good 973
n@@ 971
vi@@ 970
?" 961
os. 961
e. 950
could 948
es." 946
do@@ 943
which 938
a." 936
mi@@ 932
porque 929
take 929
cada 928
tan 925
eu 924
al. 921
antes 921
ta 920
í@@ 918
nosa 917
B@@ 916
P@@ 911
mos 910
cos 906
always 902
sen 902
fi@@ 901
todos 901
m@@ 900
most 900
as@@ 899
where 899
work 899
l@@ 898
una 895
as. 893
pa@@ 893
ás 892
ía 887
c@@ 886
those 884
sei 880
M@@ 879
z@@ 876
pi@@ 875
me@@ 869
su@@ 869
love 868
par@@ 868
been 866
da@@ 862
it@@ 860
different 859
"Non 855
D@@ 855
mo@@ 855
y@@ 855
nas 853
f@@ 852
la@@ 852
estou 851
's 848
for@@ 845
aos 841
find 838
pe@@ 832
also 828
ing. 828
y. 828
r@@ 827
use 826
mundo 824
são 823
me. 821
C@@ 820
that's 819
any 811
po@@ 808
life. 804
mellor 803
tra@@ 802
ver@@ 802
per@@ 798
k@@ 797
lo@@ 797
er 793
can't 790
polo 790
E@@ 788
m 788
"@@ 787
d, 780
estar 779
its 779
gra@@ 778
cannot 777
tempo 777
y, 777
It's 776
able 774
ting 774
things 772
life 771
é@@ 770
te. 767
lle 766
let 765
so@@ 761
tamén 757
as, 755
pola 755
T@@ 754
"But 752
amos 752
noso 752
o." 752
at@@ 747
O@@ 745
ado 745
vida. 745
There 744
being 744
only 744
t. 739
estaba 737
sa@@ 736
ts 735
persoas 733
no@@ 729
tion. 729
d. 727
temos 727
iso 725
then 725
Preciso 724
v@@ 723
da. 722
man@@ 722
ab@@ 718
el@@ 718
dis@@ 714
even 712
ha@@ 711
x@@ 711
moito 709
onde 709
much 708
dun 706
tar 706
N@@ 705
over 702
anos 698
best 698
á@@ 697
But 696
through 694
bi@@ 693
on@@ 693
made 689
están 686
poden 686
ce@@ 684
lugar 684
ses 684
túa 683
sempre 681
Don't 680
every 680
cousas 679
súas 678
d 674
ir 674
h@@ 673
os@@ 667
ga@@ 664
her 663
first 659
Não 658
xa 658
idea 657
t, 656
vez 656
F@@ 653
os, 653
i 651
look 651
cor@@ 649
"" 648
Pero 648
y." 648
great 647
seus 647
"We 646
lot 646
actually 641
nun 640
ten@@ 640
two 640
cu@@ 639
gu@@ 638
ate 637
can@@ 637
sure 636
bo@@ 632
little 629
dunha 628
u 628
gusta 624
cre@@ 622
ex@@ 621
G@@ 620
mar@@ 617
entre 615
ción. 613
do, 613
d." 612
ma 612
parte 610
L@@ 609
des 609
ch@@ 608
nunha 606
be@@ 605
teñen 605
El 604
it. 604
est@@ 602
without 600
fe@@ 599
e." 598
us@@ 598
H@@ 596
coma 596
ter@@ 596
los 595
right 595
lles 594
you're 594
human 592
tions 587
ção 587
na@@ 585
nada 585
ante 584
le 584
ó@@ 584
ese 583
world 583
ata 582
mesmo 582
Me 580
is@@ 579
ru@@ 577
change 575
favorite 574
ho@@ 574
; 573
ag@@ 573
before 572
learn 572
better 570
n 570
aprender 569
lo 569
día 568
"""I 566
too 563
tri@@ 563
cións 562
te, 561
around 559
mente 559
todas 559
ent@@ 558
pas@@ 558
ad@@ 557
own 554
give 553
place 552
she 552
years 551
No 550
after 550
ni@@ 550
os." 546
ing, 545
ada 544
here 543
esa 542
you. 542
... 541
never 540
op@@ 538
same 538
""." 536
vos 536
social 534
to. 534
Eu 533
as." 533
"(Laughter) 532
gran 529
"In 527
I@@ 527
muito 527
cal@@ 526
fa@@ 524
ir@@ 524
les 524
ly 524
R@@ 523
?""" 521
ca. 520
ol@@ 520
(Laughter) 519
tu@@ 519
back 514
key 514
Este 513
What 513
al, 513
pre@@ 512
ba@@ 511
sexa 510
brain 507
(@@ 505
come 505
fai 505
com@@ 504
durante 502
ación 500
ds 500
ados 499
minha 498
thing 496
ve@@ 495
mento 492
quero 492
ta. 492
V@@ 491
amor 491
car 491
che@@ 491
we're 491
fo@@ 490
l 490
did 488
"Pero 487
nosos 486
meus 484
se. 483
ity 482
now 482
try 482
ó 482
makes 481
got 479
ve 479
fal@@ 478
mor@@ 478
"Se 477
K@@ 477
cer@@ 477
er. 477
dar 476
day 475
der@@ 475
do." 474
th@@ 473
! 472
w@@ 472
is, 471
light 470
ali@@ 469
min@@ 469
aínda 468
ap@@ 467
ben 467
outra 462
essential 460
tipo 459
que@@ 457
j@@ 456
m. 455
it." 454
boa 453
making 453
teu 452
W@@ 451
ers 451
doing 450
música 450
everything 448
aquí 446
así 446
t." 445
c 444
didn't 444
fundamental 444
pouco 443
ation 442
"A@@ 441
Hai 441
inter@@ 441
ais 440
ente 440
tive 440
each 439
co. 438
sal@@ 438
qu@@ 437
mon@@ 436
"If 435
They 435
doesn't 435
al." 434
sen@@ 434
ne@@ 433
despois 432
sistema 432
may 431
needs 431
se, 430
traballo 430
cas 429
p 429
veces 429
podo 428
tar@@ 427
still 426
it, 425
me, 425
" 424
He 423
dor 423
part 423
pri@@ 423
Precisamos 422
ding 422
za 422
kind 420
tion, 420
ur@@ 420
keep 419
necessary 419
persoa 419
não 418
there's 418
understand 418
estamos 417
il@@ 417
va@@ 416
cha@@ 415
mas 415
mental 415
novo 415
problema 415
Así 413
ce 413
nothing 413
ían 413
adas 411
moitas 411
re 411
tos 411
"C@@ 410
ban@@ 410
ou@@ 410
tell 410
they're 410
animal 409
man 408
tiña 408
"S@@ 407
Teño 407
xi@@ 406
du@@ 405
esta@@ 405
lu@@ 405
go@@ 404
tas 403
"Now, 402
improve 402
natural 402
put 402
down 401
ar, 400
au@@ 400
calquera 400
Debemos 399
ability 398
im@@ 398
mi 398
said, 398
ñ@@ 398
dous 395
start 395
called 394
this. 394
ú@@ 394
che 392
ia 392
"Así 390
tomar 390
cerebro 389
dan@@ 389
say 389
world. 389
saúde 388
"It 384
agora 384
cal 384
estes 384
moitos 384
aba 383
bo 383
case 383
diferentes 383
luz 382
ge@@ 381
ment 381
quen 380
working 380
k 379
nunca 379
sta@@ 379
te." 379
long 378
momento 378
That 377
bu@@ 377
ded 377
er, 377
manter 377
et@@ 376
tion." 376
Re@@ 375
ción, 375
ing." 375
mal@@ 374
nosas 374
tal@@ 374
," 373
que, 373
hi@@ 372
mu@@ 372
éxito 372
atopar 371
mundo. 371
ec@@ 370
las 370
lan@@ 369
nós 369
vai 369
ating 368
tan@@ 368
deste 367
gar@@ 367
men@@ 367
mo 367
poder 367
ra 367
ts. 367
pensar 366
ces 365
"When 364
control 364
estas 364
sh@@ 363
"You 362
res@@ 362
va 362
health 361
indicador 361
live 361
plan@@ 361
ul@@ 361
between 360
care 360
gi@@ 360
Isto 359
col@@ 359
cul@@ 359
falar 359
he@@ 359
found 358
ren@@ 358
talk 358
vo@@ 358
might 357
next 357
tivo 357
menos 356
ven@@ 356
Que 355
ón 355
"Por 354
outros 354
sound 354
fac@@ 353
vel@@ 353
cent@@ 352
red 352
inten@@ 351
le. 351
ment@@ 350
person 350
"D@@ 349
"This 349
tor@@ 349
form 348
ran@@ 346
her@@ 345
indicator 345
Your 344
emos 344
"Don't 343
ari@@ 343
entes 343
arte 342
believe 342
less 342
seguro 342
2@@ 341
equipo 341
bar@@ 340
historia 340
sta 340
does 339
started 339
vol@@ 339
while 339
cur@@ 338
ks 337
sin@@ 337
xeito 337
trying 336
est 335
ing@@ 335
outras 335
problemas 335
why 335
der 334
king 333
ms 333
traballar 333
"M@@ 332
ck@@ 332
encia 332
posi@@ 332
qui@@ 331
team 331
to, 331
uns 331
pra@@ 330
ser@@ 330
"Cando 328
water 328
1@@ 327
alguén 327
sed 327
animais 326
clave 326
mellorar 326
mp@@ 326
"As 325
Temos 325
ally 325
da, 325
ent 325
real 325
sub@@ 325
ble 324
someone 324
such 324
Let's 323
gen@@ 323
ori@@ 323
tiv@@ 323
home 322
tr@@ 322
In@@ 321
deix@@ 321
fu@@ 321
on, 321
ous 321
Do 320
problem 320
rar 319
son@@ 319
ar." 318
three 318
deixar 316
fin@@ 316
us. 316
ano 315
mar 315
neste 315
J@@ 314
bor@@ 314
another 312
led 312
pu@@ 312
ce, 311
den@@ 311
ga 311
información 311
cri@@ 310
g 310
imp@@ 310
dicir 309
si 309
nova 308
cara 307
sa 307
seguir 307
gar 306
realmente 306
requires 306
sentir 306
went 306
z 306
(Risas) 305
ado. 305
ce. 305
mis@@ 305
r 305
3@@ 304
difficult 304
big 303
dade 302
dos. 302
time. 302
vou 302
ela 301
full 301
lack 301
levar 301
lin@@ 301
"N@@ 300
X@@ 300
create 300
ber@@ 299
de. 299
ed. 299
res 299
,"" 298
having 298
often 297
za@@ 297
ha 296
mer@@ 296
music 296
mes 295
super@@ 295
tro@@ 295
am@@ 294
difícil 294
ro 294
ca, 293
few 293
grande 293
puede 293
source 293
"T@@ 292
Co@@ 292
anti@@ 292
ble. 292
bra@@ 292
face 292
novas 292
ão 292
"It's 291
mentres 291
move 291
ob@@ 291
ín 291
10 290
Esta 290
ción." 290
feeling 290
out@@ 290
show 290
♫ 290
Our 289
cambiar 289
learning 289
solución 289
people. 288
se." 288
"Os 287
ei 287
m, 287
miñas 287
teño 287
aron 286
require 286
tres 286
outro 285
ía. 285
An@@ 284
last 284
mento. 284
tem 284
toda 284
fra@@ 283
mes@@ 283
sing 283
is. 282
maior 282
mb@@ 282
"No 281
dar@@ 281
emp@@ 281
looking 281
situation 281
nenos 280
option 280
¿@@ 280
small 279
I've 278
den 278
or. 278
val@@ 278
Quero 277
ge 277
pen@@ 277
percent 277
senón 277
din@@ 276
food 276
system 276
ven 276
fonte 275
rec@@ 275
sab@@ 275
tions. 275
Sinto 274
ch 274
co, 274
fil@@ 274
ll@@ 274
wor@@ 274
Con@@ 273
cidade 273
del 273
evitar 273
others. 273
ph@@ 273
ted. 273
ever 271
eran 270
ideas 270
means 270
th 270
hard 269
situación 269
ti 269
work. 269
"É 268
coas 268
falta 268
isto. 268
popular 268
that, 268
yourself 268
) 267
That's 267
age 267
body 267
dad 267
dade. 267
fer@@ 267
information 267
She 266
arse 266
axudar 266
city 266
come@@ 266
crear 266
ly. 266
pres@@ 266
sur@@ 266
tá@@ 266
ção. 266
millóns 265
ated 264
him 264
nin 264
parece 264
primeiro 264
activ@@ 263
bit 263
capacidade 263
end 263
off 263
primeira 263
ste@@ 263
usar 263
bal@@ 262
más 262
precisa 262
tanto 262
that. 262
apar@@ 261
ase 261
dúas 261
tic 261
"F@@ 260
day. 260
we@@ 260
"(Risas) 259
.@@ 259
demasiado 259
grandes 258
maneira 258
má@@ 258
funcion@@ 257
preci@@ 257
say, 257
took 257
tre@@ 257
war@@ 257
ds. 256
tur@@ 256
ín@@ 256
anos, 255
call 255
comes 255
simple 255
Life 254
en. 254
feito 254
gh@@ 254
heart 254
stop 254
'@@ 253
Gústame 253
allow 253
almente 253
"They 252
ante. 252
comp@@ 252
felt 252
"E@@ 251
deci@@ 251
ei@@ 251
high 251
opportunity 251
reduce 251
How 250
ação 250
ness 250
ty 250
uni@@ 250
"P@@ 249
auto@@ 249
ly, 249
others 248
seems 248
solution 248
wa@@ 248
adi@@ 247
already 247
cunha 247
deixes 247
came 246
ho 246
ine 246
on. 246
time, 246
tion@@ 246
ence 245
me." 245
oportunidade 245
prevent 245
tiva 245
dade." 244
mind 244
san@@ 244
"En 243
Por 243
contra 243
cun 243
lo. 243
ment. 243
nesta 243
por@@ 243
sti@@ 243
together 243
xer@@ 243
bro@@ 242
fan 242
ira 242
power 242
Unha 241
getting 241
k. 241
sol@@ 241
true 241
using 241
atención 240
ita 240
star@@ 240
aca@@ 239
nega@@ 239
helps 238
perfect 238
so. 238
sua 238
utilizado 238
ç@@ 238
ías 238
4@@ 237
gran@@ 237
mentos 237
mos, 237
"Well, 236
U@@ 236
Un 236
canto 236
during 236
esper@@ 236
la. 236
mente, 236
podes 236
re. 236
thinking 236
us, 236
cos. 235
dores 235
family 235
ma. 235
través 235
wanted 235
"V@@ 234
ña 234
En@@ 233
healthy 233
ores 233
personal 233
proces@@ 233
senti@@ 233
sion 233
ba 232
bri@@ 232
cambi@@ 232
estás 232
fica@@ 232
medo 232
physical 232
set 232
solve 232
towards 232
algún 231
ask 231
cer 231
debe 231
dende 231
desde 231
entender 231
habilidade 231
ite 231
mente. 231
min 231
taking 231
ton@@ 231
Love 230
ant 230
axuda 230
bio@@ 230
ce." 230
fazer 230
poder@@ 230
produ@@ 230
resposta 230
thought 229
das. 228
human@@ 228
over@@ 228
rela@@ 228
s.""" 228
well 228
xen@@ 228
conta 227
data 227
ide@@ 227
medio 227
ts, 227
ze 227
30 226
algúns 226
anything 226
ario 226
dor@@ 226
medi@@ 226
done 225
dro@@ 225
educación 225
endo 225
quer@@ 225
you, 225
dade, 224
number 224
open 224
vari@@ 224
we've 224
De@@ 223
are@@ 223
ck 223
cli@@ 223
cultura 223
encontrar 223
ev@@ 223
happy 223
maintain 223
pin@@ 223
possible 223
20 222
an. 222
away 222
become 222
cin@@ 222
cion@@ 222
corpo 222
point 222
tal 222
Cada 221
or, 221
post@@ 221
tempo. 221
Estamos 220
Y@@ 220
casa 220
experi@@ 220
ina 220
sión 220
à 220
esencial 219
eses 219
neuro@@ 219
ta, 219
tions, 219
ve. 219
whole 219
ary 218
educa@@ 218
hope 218
zo 218
children 217
enci@@ 217
k, 217
gan@@ 216
pl@@ 216
2 215
hacer 215
know, 215
re, 215
xe@@ 215
xu@@ 215
ais. 214
animals 214
cia 214
ke 214
relación 214
saber 214
teus 214
ving 214
ções 214
base 213
de, 213
global 213
punto 213
reci@@ 213
situation. 213
to." 213
tos. 213
build 212
h 212
pes@@ 212
reducir 212
Como 211
debemos 211
enough 211
esas 211
experience 211
med 211
remember 211
segu@@ 211
dades 210
ger@@ 210
iro 210
protect 210
sol 210
óns 210
Gosto 209
[@@ 209
comida 209
gener@@ 209
logo 209
longo 209
of@@ 209
respon@@ 209
rou@@ 209
story 209
success. 209
tecnoloxía 209
until 209
His 208
avoid 208
gre@@ 208
old 208
opción 208
rar@@ 208
wi@@ 208
zar 208
against 207
amigos 207
contra@@ 207
cr@@ 207
infec@@ 207
moita 207
moment 207
order 207
s? 207
xe 207
"W@@ 206
achieve 206
an, 206
cambio 206
datos 206
fun@@ 206
har@@ 206
le, 206
tru@@ 206
able. 205
b 205
bre@@ 205
char@@ 205
cousa 205
ns 205
respect 205
said 205
told 205
"So, 204
] 204
cas@@ 204
especi@@ 204
play 204
beleza 203
capaz 203
comple@@ 203
dí@@ 203
go. 203
some@@ 203
sor@@ 203
"Para 202
art 202
bad 202
cl@@ 202
debería 202
enjoy 202
imos 202
medical 202
situa@@ 202
uso 202
what's 202
x 202
% 201
(Applause) 201
--@@ 201
50 201
ador@@ 201
ear@@ 201
forma@@ 201
lev@@ 201
za. 201
ência 201
ambiente 200
consider@@ 200
células 200
esti@@ 200
far@@ 200
gas 200
st 200
ves 200
actu@@ 199
bur@@ 199
cla@@ 199
here. 199
mat@@ 199
person@@ 199
án 199
"B@@ 198
any@@ 198
based 198
bon@@ 198
common 198
emocion@@ 198
future 198
left 198
positive 198
proceso 198
realidade 198
tivos 198
ón, 198
"", 197
easy 197
emotional 197
opção 197
ra. 197
"He 196
Pro@@ 196
desta 196
ele@@ 196
oso. 196
perfec@@ 196
work@@ 196
ós 196
"De 195
"H@@ 195
heard 195
mulleres 195
pan@@ 195
pat@@ 195
sion@@ 195
so, 195
technology 195
éxito. 195
adap@@ 194
ani@@ 194
bus@@ 194
ma, 194
matter 194
di 193
fácil 193
maioría 193
room 193
stas 193
tin@@ 193
beautiful 192
ments 192
ón. 192
both 191
buscar 191
hora 191
leave 191
support 191
tou@@ 191
xo@@ 191
Vou 190
antes. 190
bles 190
enten@@ 190
ler 190
pe 190
public 190
quite 190
van 190
aban 189
book 189
bran@@ 189
conver@@ 189
da." 189
feito, 189
lado 189
oso 189
pasar 189
study 189
tool 189
zas 189
attention 188
auga 188
bastante 188
ble@@ 188
cen@@ 188
en, 188
estra@@ 188
familia 188
fun 188
iras 188
nu@@ 188
pregun@@ 188
trans@@ 188
willing 188
"O@@ 187
Now 187
Vamos 187
all@@ 187
ant@@ 187
compar@@ 187
deve 187
futuro 187
habilidades 187
idea. 187
living 187
polos 187
saw 187
stra@@ 187
5@@ 186
ación. 186
cas. 186
quality 186
self-@@ 186
sense 186
ties 186
única 186
9@@ 185
There's 185
ation. 185
beauty 185
crucial 185
cultural 185
ed@@ 185
lead 185
permite 185
unique 185
cor 184
ira. 184
ju@@ 184
ron@@ 184
significa 184
soci@@ 184
within 184
"For 183
Po@@ 183
chegar 183
ed, 183
felicidade 183
mesma 183
osa 183
overcome 183
this, 183
up@@ 183
w 183
ño 183
Mar@@ 182
ajuda 182
certain 182
decided 182
exemplo, 182
experiencia 182
is." 182
ita@@ 182
myself 182
second 182
tei 182
vemos 182
way. 182
arti@@ 181
ches 181
conta@@ 181
cra@@ 181
ensin@@ 181
ity." 181
n. 181
podería 181
sel@@ 181
av@@ 180
caus@@ 180
de." 180
ents 180
in, 180
them. 180
them." 180
times 180
under@@ 180
ados. 179
course, 179
encia. 179
exist@@ 179
final 179
i, 179
ings 179
interes@@ 179
les@@ 179
men 179
mos@@ 179
nivel 179
resolver 179
seen 179
st, 179
Thank 178
aria 178
asi@@ 178
escoit@@ 178
friends 178
sion. 178
sive 178
tamos 178
áreas 178
én@@ 178
cap@@ 177
dentro 177
ell@@ 177
language 177
m." 177
pessoas 177
sería 177
talking 177
ale@@ 176
clear 176
everyone 176
hoxe 176
interesting 176
ist@@ 176
liber@@ 176
maybe 176
ry 176
under 176
ying 176
Sometimes 175
Xa 175
allows 175
almost 175
chi@@ 175
dou@@ 175
emo@@ 175
produc@@ 175
chan@@ 174
cións. 174
learned 174
número 174
valuable 174
women 174
ares 173
ciencia 173
direc@@ 173
hu@@ 173
individu@@ 173
motiv@@ 173
sabor 173
asked 172
creo 172
deal 172
ity. 172
nai 172
seem 172
sex@@ 172
showed 172
Mo@@ 171
anos. 171
baixo 171
cru@@ 171
er." 171
había 171
libro 171
pal@@ 171
problem. 171
vin@@ 171
vir@@ 171
ça 171
Acho 170
Adoro 170
cho@@ 170
demais. 170
fixo 170
pul@@ 170
reali@@ 170
side 170
tado 170
tiva. 170
tos, 170
vo 170
world, 170
19@@ 169
alimentos 169
ax@@ 169
continu@@ 169
grupo 169
muitas 169
natureza 169
ways 169
!" 168
"Now 168
5 168
7@@ 168
des, 168
enti@@ 168
favorito 168
flu@@ 168
gos 168
ner@@ 168
process 168
r. 168
rin@@ 168
solution. 168
somos 168
traballo. 168
ved 168
verdade 168
"Ben, 167
af@@ 167
dra@@ 167
eco@@ 167
eles 167
incluso 167
ity, 167
perder 167
pos@@ 167
research 167
the@@ 167
turn 167
3 166
Par@@ 166
amente 166
axu@@ 166
co." 166
dades. 166
ers. 166
ess 166
health. 166
ly." 166
pacientes 166
propia 166
sha@@ 166
vivir 166
"My 165
100 165
lost 165
mal 165
mos. 165
problems 165
quando 165
science 165
tional 165
tipos 165
(Risos) 164
amento 164
foron 164
gue 164
leg@@ 164
low 164
polas 164
recor@@ 164
single 164
understanding 164
(Aplausos) 163
I'll 163
Le@@ 163
ador 163
ca." 163
facendo 163
ic@@ 163
itos 163
ling 163
osos 163
publi@@ 163
segundo 163
tes. 163
tradi@@ 163
ado@@ 162
avi@@ 162
bring 162
chave 162
dé@@ 162
hand@@ 162
now. 162
ow@@ 162
par 162
preciso 162
them, 162
tions." 162
6@@ 161
ada. 161
ajudar 161
ance 161
correc@@ 161
fir@@ 161
gado 161
gal@@ 161
inclu@@ 161
local 161
lon@@ 161
mesmo. 161
multi@@ 161
podem 161
prote@@ 161
sabemos 161
stri@@ 161
table 161
usado 161
"What 160
ben@@ 160
estaban 160
famili@@ 160
fear 160
o? 160
read 160
ted, 160
way, 160
Se@@ 159
Tes 159
ben, 159
cells 159
cos, 159
ferramenta 159
hon@@ 159
ira@@ 159
ked 159
material 159
necesario 159
pay 159
penso 159
pla@@ 159
pun@@ 159
superar 159
th. 159
ties. 159
tão 159
words 159
"Hai 158
Car@@ 158
Nunca 158
c. 158
cel@@ 158
coming 158
dic@@ 158
don@@ 158
enfermidades 158
forget 158
job 158
patients 158
share 158
tratar 158
túas 158
act 157
algunhas 157
complex@@ 157
cro@@ 157
dri@@ 157
energy 157
four 157
itar 157
looked 157
necesaria 157
ors 157
posible 157
visit@@ 157
20@@ 156
atop@@ 156
contro@@ 156
demais 156
dist@@ 156
et 156
happen@@ 156
ke@@ 156
ones 156
palabras 156
people, 156
society. 156
Agora 155
Can@@ 155
across 155
cause 155
consci@@ 155
días 155
go, 155
goes 155
gri@@ 155
he's 155
inf@@ 155
la, 155
let's 155
lo, 155
mente." 155
mento, 155
nor@@ 155
podía 155
problema. 155
revi@@ 155
sa. 155
tics 155
viol@@ 155
Los 154
ara 154
began 154
dá@@ 154
ente. 154
game 154
identi@@ 154
iso. 154
moder@@ 154
sk@@ 154
spend 154
Al@@ 153
Some 153
ais, 153
als 153
clo@@ 153
comezar 153
crea@@ 153
fro@@ 153
gets 153
inside 153
jo@@ 153
probably 153
sinto 153
special 153
ster@@ 153
year 153
Di@@ 152
Necesito 152
blo@@ 152
cos@@ 152
couldn't 152
dor. 152
ds, 152
ix@@ 152
lar@@ 152
miles 152
nature. 152
one. 152
respec@@ 152
simplemente 152
"There 151
apren@@ 151
ful@@ 151
hor@@ 151
indo 151
kids 151
lives 151
ninguén 151
osa. 151
ta." 151
ther@@ 151
tivas 151
top 151
type 151
Per@@ 150
acións 150
aliza@@ 150
arme 150
caso 150
fí@@ 150
homes 150
name 150
normal 150
now, 150
phone 150
ran 150
reason 150
relationship 150
sp@@ 150
sta. 150
strong 150
tor 150
,000 149
ble, 149
mellores 149
nome 149
novos 149
ras 149
regi@@ 149
rá@@ 149
sai@@ 149
sea 149
tas. 149
vel 149
walk 149
win@@ 149
Iso 148
afec@@ 148
algunha 148
ces@@ 148
das, 148
dy 148
exactly 148
fan@@ 148
figure 148
formas 148
front 148
gosto 148
precisamos 148
pretty 148
re." 148
relax@@ 148
sendo 148
situación. 148
train 148
us." 148
ão. 148
ía, 148
"To 147
adores 147
cións, 147
cks 147
color 147
comuni@@ 147
condi@@ 147
dan 147
facelo 147
forte 147
k." 147
mo. 147
oper@@ 147
our@@ 147
pon@@ 147
prepar@@ 147
ro. 147
sas 147
success 147
án@@ 147
15 146
Est@@ 146
People 146
audi@@ 146
determin@@ 146
día. 146
effective 146
entón 146
fre@@ 146
ge, 146
ging 146
momentos 146
paci@@ 146
permitir 146
sos 146
you." 146
200@@ 145
To@@ 145
ban 145
catro 145
company 145
cy 145
day, 145
defen@@ 145
example 145
exemplo 145
fact, 145
importantes 145
night 145
powerful 145
ra, 145
ses. 145
sts 145
/@@ 144
del@@ 144
e? 144
eng@@ 144
far 144
history 144
ideal 144
imaxin@@ 144
ki@@ 144
level 144
n, 144
political 144
provide 144
up, 144
..." 143
Be@@ 143
arios 143
des. 143
dicir, 143
flo@@ 143
gave 143
happens 143
l. 143
media 143
ming 143
mit@@ 143
nossas 143
one, 143
problems. 143
sent@@ 143
sociedade 143
test 143
"(Risos) 142
I'd 142
Li@@ 142
ana 142
ata@@ 142
cancer 142
confi@@ 142
mellor@@ 142
once 142
ons 142
pain@@ 142
person. 142
plan 142
razón 142
step 142
today. 142
trust 142
unhas 142
Se 141
ally, 141
ball 141
ción@@ 141
environment 141
every@@ 141
favor@@ 141
idade 141
known 141
large 141
partes 141
rí@@ 141
solu@@ 141
têm 141
"Life 140
8@@ 140
Success 140
aliz@@ 140
bel@@ 140
building 140
changes 140
concer@@ 140
confianza 140
defin@@ 140
f 140
imaxe 140
nature 140
pens@@ 140
som 140
"L@@ 139
causa 139
concentra@@ 139
dir@@ 139
dos, 139
ficar 139
importante. 139
lugares 139
relacións 139
sem 139
sometimes 139
stor@@ 139
usada 139
wait 139
years, 139
ón@@ 139
affect 138
ambi@@ 138
ami@@ 138
aría 138
casa. 138
cidade. 138
completely 138
complex 138
deu 138
entire 138
example, 138
expres@@ 138
million 138
mundo, 138
people's 138
ris@@ 138
st. 138
tando 138
ço 138
Podemos 137
Ti@@ 137
aqu@@ 137
baix@@ 137
consu@@ 137
education 137
em@@ 137
encias 137
estão 137
future. 137
ino 137
instead 137
mo, 137
momento. 137
nen@@ 137
oportunidades 137
sil@@ 137
vas 137
zed 137
único 137
Des@@ 136
comezou 136
financial 136
g, 136
h, 136
house 136
ido 136
imagine 136
life, 136
ments. 136
médi@@ 136
nes@@ 136
noite 136
pain 136
past 136
sun 136
sun@@ 136
ti. 136
video 136
vista 136
"Ao 135
Todos 135
bul@@ 135
connect 135
deca@@ 135
dia 135
diante 135
encanta 135
entes. 135
explor@@ 135
focus 135
hold 135
lose 135
mercado 135
qué 135
recursos 135
rest@@ 135
several 135
simply 135
tori@@ 135
é, 135
"I'm 134
Creo 134
Será 134
alto 134
ama@@ 134
became 134
comi@@ 134
condu@@ 134
estado 134
extra@@ 134
fin 134
free 134
ge. 134
i. 134
mas@@ 134
muller 134
piece 134
question 134
ros 134
sorpren@@ 134
tema 134
utilizada 134
verdadeira 134
xo 134
zing 134
"""@@ 133
"(@@ 133
"I@@ 133
"Unha 133
Ela 133
Qu@@ 133
aquí. 133
climate 133
dent@@ 133
dura@@ 133
ef@@ 133
estudo 133
fl@@ 133
ful 133
gr@@ 133
group 133
indi@@ 133
lim@@ 133
melhor 133
ningún 133
nutri@@ 133
países 133
pelo 133
rich 133
ve, 133
worry 133
acep@@ 132
answer 132
anyone 132
bil@@ 132
ces. 132
coche 132
conseguir 132
days 132
der. 132
estu@@ 132
ho. 132
isn't 132
line 132
listen 132
long@@ 132
mother 132
quere 132
regul@@ 132
tación 132
tou 132
"Como 131
"Isto 131
Bo@@ 131
a? 131
alta 131
decora@@ 131
domin@@ 131
ed." 131
ent. 131
favorita 131
fru@@ 131
here, 131
natureza. 131
offer 131
ourselves 131
ouse 131
poli@@ 131
sou 131
stand 131
tried 131
vida, 131
world." 131
Mon@@ 130
Su@@ 130
amos@@ 130
areas 130
axud@@ 130
bol@@ 130
buy 130
construír 130
gs 130
med@@ 130
min. 130
pela 130
product 130
rit@@ 130
sto@@ 130
tempo, 130
tivo. 130
tras 130
young 130
Can 129
Ex@@ 129
Th@@ 129
arri@@ 129
aten@@ 129
bed 129
brill@@ 129
coñec@@ 129
ct 129
early 129
economic 129
exces@@ 129
fix@@ 129
forza 129
fri@@ 129
humanos 129
insul@@ 129
io 129
knew 129
market 129
nossa 129
osas 129
persoas. 129
sho@@ 129
speak 129
turned 129
ver. 129
wasn't 129
whether 129
0 128
1 128
back@@ 128
damos 128
descubri@@ 128
ely 128
five 128
happiness 128
informa@@ 128
log@@ 128
looks 128
per 128
remo@@ 128
so." 128
ve." 128
ad 127
comez@@ 127
conec@@ 127
emocións 127
enerxía 127
escol@@ 127
escri@@ 127
friend 127
indica@@ 127
kin@@ 127
option. 127
paz 127
prefer 127
progra@@ 127
roo@@ 127
specific 127
stay 127
stress 127
ts." 127
ty. 127
useful 127
virus 127
wal@@ 127
""I 126
One 126
ai@@ 126
ang@@ 126
bought 126
capable 126
close 126
constant 126
dos." 126
ger 126
organiza@@ 126
reac@@ 126
resultado 126
rode@@ 126
tw@@ 126
ure 126
Es@@ 125
Z@@ 125
accept 125
anima@@ 125
aí 125
cambios 125
dentes 125
emb@@ 125
escoitar 125
esperar 125
evolu@@ 125
inner 125
investigación 125
isto, 125
itas 125
micro@@ 125
mol@@ 125
obter 125
pasa 125
paso 125
poñer 125
produtos 125
s: 125
seri@@ 125
servi@@ 125
things. 125
zos 125
"Co@@ 124
.000 124
Estoy 124
Every 124
Why 124
alo 124
chor@@ 124
corazón 124
dad. 124
ensure 124
hear@@ 124
historias 124
ins 124
ito. 124
kinds 124
ly@@ 124
oil 124
pequenas 124
política 124
promo@@ 124
será 124
sinal 124
takes 124
today 124
you've 124
"Este 123
Sempre 123
again. 123
cancro 123
defini@@ 123
distin@@ 123
ens 123
evi@@ 123
ill@@ 123
in. 123
list@@ 123
mos." 123
move@@ 123
pensa@@ 123
quería 123
reach 123
saír 123
sentido 123
sou@@ 123
ste 123
traball@@ 123
value 123
Au@@ 122
Music 122
access 122
adecu@@ 122
air 122
aire 122
alidade 122
an." 122
ano. 122
break 122
camiñ@@ 122
competi@@ 122
conexión 122
detec@@ 122
emotions 122
enfermidade 122
excep@@ 122
facer@@ 122
grow 122
king. 122
mind. 122
moving 122
objec@@ 122
oun@@ 122
país 122
pedi@@ 122
produto 122
reg@@ 122
stan@@ 122
visión 122
""" 121
Son 121
bilidade 121
course 121
culture 121
encia, 121
fol@@ 121
grateful 121
liña 121
ment." 121
parti@@ 121
pel@@ 121
pequena 121
tentar 121
th, 121
tica 121
tores 121
ver, 121
Todo 120
adul@@ 120
conser@@ 120
corre@@ 120
country 120
có@@ 120
drug 120
due 120
ence. 120
gol@@ 120
instru@@ 120
logi@@ 120
menta@@ 120
médico 120
oume 120
playing 120
production 120
school 120
starting 120
tex@@ 120
tico. 120
tive. 120
trees 120
tura 120
én 120
ans 119
coller 119
decision. 119
destes 119
en." 119
futuro. 119
hos 119
imagin@@ 119
life." 119
like, 119
medica@@ 119
mil 119
ms, 119
ning 119
ready 119
tica. 119
tivas. 119
ud@@ 119
"Because 118
6 118
8 118
ates 118
decisión 118
decisións 118
define 118
desafi@@ 118
destin@@ 118
dur@@ 118
efec@@ 118
fascin@@ 118
feliz 118
gui@@ 118
half 118
lec@@ 118
obxectos 118
ps 118
resili@@ 118
works 118
úni@@ 118
ará 117
brea@@ 117
cing 117
frequentemente 117
ig@@ 117
lidar 117
money 117
muy 117
poida 117
port@@ 117
radi@@ 117
simp@@ 117
tarde 117
teach 117
trabal@@ 117
uti@@ 117
vel. 117
wh@@ 117
DNA 116
Es 116
all, 116
chamada 116
changing 116
cias 116
collec@@ 116
eat 116
fó@@ 116
gust@@ 116
hand 116
impac@@ 116
iro. 116
necesita 116
significa@@ 116
sort 116
valor 116
vida." 116
vit@@ 116
write 116
"E, 115
"Un 115
Estados 115
camiño 115
computer 115
cou 115
edes 115
empresa 115
err@@ 115
esfor@@ 115
fish 115
han@@ 115
hun@@ 115
play@@ 115
puedo 115
read@@ 115
run 115
sar 115
sistemas 115
sit@@ 115
skin 115
star 115
together. 115
vén 115
adver@@ 114
air@@ 114
az@@ 114
bem 114
ben. 114
cabeza 114
carne 114
cé@@ 114
disease 114
diversidade 114
end@@ 114
hear 114
humano 114
ic 114
kes 114
non@@ 114
objects 114
path 114
priori@@ 114
sala 114
security 114
separ@@ 114
skills 114
stories 114
trata 114
travel 114
turns 114
up. 114
9 113
ades 113
ard 113
calidade 113
cinco 113
comunidade 113
constru@@ 113
diferente 113
estrés 113
excited 113
happen 113
id@@ 113
ir. 113
medicin@@ 113
mundo." 113
on." 113
redu@@ 113
s' 113
suposto, 113
syn@@ 113
though 113
todo, 113
ture 113
vali@@ 113
wonder@@ 113
za, 113
Era 112
United 112
científicos 112
comportamento 112
elec@@ 112
equi@@ 112
impact 112
iso, 112
ito 112
len@@ 112
lif@@ 112
mate 112
mean 112
mostra 112
mountain 112
night. 112
ol 112
ora 112
polí@@ 112
present 112
relationships. 112
short 112
tada 112
tamente 112
thousands 112
types 112
use@@ 112
ños 112
ón." 112
"She 111
ago, 111
business 111
complica@@ 111
constante 111
creating 111
environment. 111
ey@@ 111
goals. 111
horas 111
iros 111
ned 111
nossos 111
obxectivo 111
papel 111
preocupa@@ 111
propio 111
risk 111
sensación 111
seres 111
sig@@ 111
since 111
speci@@ 111
água 111
ñas 111
ões 111
,@@ 110
alí 110
blood 110
choice 110
compartir 110
creative 110
ction 110
devi@@ 110
ers, 110
escu@@ 110
food. 110
head 110
ima@@ 110
interpre@@ 110
knowledge 110
l, 110
meio 110
movie 110
one@@ 110
project 110
protexer 110
rei 110
rest 110
room. 110
sión. 110
ted." 110
that." 110
ther 110
tos." 110
view 110
vostedes 110
zo. 110
"Não 109
Imos 109
Porque 109
acceso 109
at. 109
cabe@@ 109
ced 109
cir@@ 109
clase 109
connection 109
dicir@@ 109
es? 109
esperanza 109
fica 109
foundation 109
fóra 109
giving 109
glo@@ 109
grazas 109
happened 109
hormon@@ 109
impacto 109
lemb@@ 109
liv@@ 109
ness. 109
obser@@ 109
resist@@ 109
seguridade 109
sh 109
stro@@ 109
tos@@ 109
ura 109
van@@ 109
viax@@ 109
volver 109
ví@@ 109
worry, 109
xun@@ 109
American 108
Está 108
Tamén 108
amount 108
ario. 108
arre@@ 108
atra@@ 108
aw@@ 108
cantidade 108
continue 108
couple 108
deben 108
diver@@ 108
docu@@ 108
dos@@ 108
hair 108
hospit@@ 108
image 108
ment, 108
minu@@ 108
monos 108
needed 108
nos@@ 108
ous. 108
place. 108
presente 108
rain 108
real@@ 108
roupa 108
sensi@@ 108
tes@@ 108
whi@@ 108
New 107
Ro@@ 107
Vi@@ 107
available 107
behind 107
blue 107
busca 107
certo 107
comer 107
d-@@ 107
dream 107
ero 107
escrit@@ 107
eyes 107
fran@@ 107
growth 107
judge 107
late 107
limp@@ 107
ma." 107
mari@@ 107
mellor. 107
ously 107
pregunta 107
process. 107
professional 107
space 107
sting 107
there, 107
thing." 107
ticas 107
tratamento 107
tu 107
watch 107
"Agora 106
...@@ 106
Maybe 106
appropriate 106
ations 106
attitude 106
bir@@ 106
bos 106
cabelo 106
choose 106
conectar 106
creativ@@ 106
dade@@ 106
dr@@ 106
facemos 106
friends. 106
helped 106
lab@@ 106
meet 106
necesitamos 106
neuron@@ 106
oc@@ 106
podedes 106
seeing 106
seguinte 106
showing 106
table. 106
test@@ 106
tran@@ 106
waste 106
woman 106
word 106
"Th@@ 105
Algúns 105
Pa@@ 105
These 105
agora. 105
ante, 105
arei 105
bacteri@@ 105
bat@@ 105
bási@@ 105
city. 105
communication 105
comparti@@ 105
control. 105
crí@@ 105
deb@@ 105
demos 105
dici@@ 105
effec@@ 105
función 105
importa 105
neno 105
posición 105
progres@@ 105
saying 105
students 105
this." 105
ty@@ 105
és 105
Go@@ 104
Let 104
bacteria 104
camin@@ 104
changed 104
cle@@ 104
cy@@ 104
cá@@ 104
figura 104
flor@@ 104
funciona 104
g. 104
happiness. 104
har 104
ia. 104
lat@@ 104
lo." 104
min, 104
necesidades 104
novo. 104
out, 104
outros. 104
p. 104
pol@@ 104
ral 104
veces, 104
viaxe 104
watching 104
white 104
wouldn't 104
z. 104
"In@@ 103
En 103
Is 103
amp@@ 103
c, 103
calm 103
cial 103
down@@ 103
día, 103
ento 103
envi@@ 103
ep@@ 103
estudantes 103
experimentar 103
fora 103
ful. 103
hours 103
increase 103
ined 103
infor@@ 103
intentar 103
main 103
preparar 103
ques 103
rather 103
rede 103
resources 103
right?" 103
risco 103
seemed 103
sexan 103
situação 103
symbol 103
time." 103
ting. 103
vidas 103
visi@@ 103
za." 103
"Entón, 102
"Eu 102
accep@@ 102
actitude 102
adas. 102
along 102
ble." 102
boas 102
campo 102
cio 102
comeza 102
compu@@ 102
countries 102
cour@@ 102
cous@@ 102
develop 102
ds." 102
ente@@ 102
eu@@ 102
fose 102
help. 102
ist 102
le." 102
muitos 102
médicos 102
poñ@@ 102
pr@@ 102
ren 102
running 102
shouldn't 102
símbolo 102
tico 102
transforma@@ 102
técnica 102
voz 102
worth 102
xogo 102
""O@@ 101
De 101
Education 101
aceptar 101
alidade. 101
black 101
car. 101
ched 101
clar@@ 101
consider 101
cuestión 101
distan@@ 101
dream@@ 101
efectos 101
esco@@ 101
específi@@ 101
fact 101
igu@@ 101
les. 101
longer 101
losing 101
music. 101
n." 101
negative 101
produce 101
refer@@ 101
vulner@@ 101
ía." 101
útil 101
!""" 100
"Al@@ 100
Foi 100
Penso 100
chamado 100
cle 100
comunicación 100
dixo 100
estava 100
finance@@ 100
ha. 100
head@@ 100
ice 100
impul@@ 100
lear@@ 100
least 100
listening 100
low@@ 100
mun@@ 100
necesit@@ 100
nee@@ 100
opportunities 100
proxecto 100
secu@@ 100
sions 100
taken 100
toma@@ 100
té@@ 100
va. 100
vex@@ 100
wonderful 100
ças 100
Fi@@ 99
actuar 99
agre@@ 99
ando. 99
bola 99
br@@ 99
camente 99
cer. 99
comfortable 99
completamente 99
dado 99
democra@@ 99
foods 99
garantir 99
hands 99
highly 99
ignor@@ 99
indepen@@ 99
ine@@ 99
interac@@ 99
investiga@@ 99
ira, 99
mer 99
mul@@ 99
new@@ 99
parec@@ 99
receitas 99
ro, 99
sli@@ 99
social. 99
sof@@ 99
spent 99
telling 99
totalmente 99
visu@@ 99
"G@@ 98
So@@ 98
acordo 98
arnos 98
así, 98
child 98
ders 98
elas 98
empresas 98
fied 98
friend@@ 98
frustra@@ 98
físi@@ 98
institu@@ 98
likely 98
lingu@@ 98
moment. 98
musi@@ 98
o: 98
prefer@@ 98
present@@ 98
see, 98
size 98
suici@@ 98
tica@@ 98
todo. 98
various 98
well, 98
wrong 98
"(Applause) 97
Cal@@ 97
Debo 97
activi@@ 97
atten@@ 97
base@@ 97
call@@ 97
ch. 97
clas@@ 97
clean 97
contribu@@ 97
dando 97
desa@@ 97
dy@@ 97
ence, 97
ideas. 97
influence 97
ismo 97
ja 97
mean, 97
memor@@ 97
mental. 97
mil@@ 97
ms. 97
or." 97
particular 97
pe. 97
pequen@@ 97
produción 97
pó@@ 97
reser@@ 97
satis@@ 97
sed. 97
siempre 97
tle 97
zo@@ 97
últimos 97
"One 96
12 96
40 96
D 96
Euro@@ 96
Gustaríame 96
Hoxe 96
amigo 96
amigos. 96
beginning 96
camp@@ 96
cións." 96
community 96
dance 96
dedica@@ 96
difer@@ 96
differ@@ 96
elemento 96
else 96
estres@@ 96
family. 96
fez 96
home. 96
limit@@ 96
loo@@ 96
lá@@ 96
mejor 96
parts 96
places 96
preocupes, 96
rai@@ 96
rock 96
similar 96
str@@ 96
suce@@ 96
tic@@ 96
together, 96
25 95
4 95
Lo@@ 95
again 95
ano@@ 95
better. 95
brain, 95
cia. 95
cold 95
concep@@ 95
conclu@@ 95
consegu@@ 95
deberiamos 95
dese 95
difference 95
dio 95
dish 95
enfermi@@ 95
espazo 95
exercise 95
intent@@ 95
interested 95
lingua 95
mentos. 95
mira@@ 95
movi@@ 95
neuronas 95
ningunha 95
online 95
pequeno 95
prescri@@ 95
pá@@ 95
queremos 95
resulta 95
right, 95
sign 95
sion, 95
system. 95
toler@@ 95
transporte 95
treat 95
ua@@ 95
vent@@ 95
activity 94
agree 94
anse 94
apoio 94
app@@ 94
arro@@ 94
ation, 94
bab@@ 94
billion 94
built 94
cade@@ 94
caixa 94
común 94
cousas. 94
cómo 94
days. 94
deep 94
desex@@ 94
dix@@ 94
estima@@ 94
exten@@ 94
gh 94
greater 94
id 94
insi@@ 94
lembrar 94
lista 94
mento." 94
noite. 94
pa 94
peso 94
picture 94
planning 94
poin@@ 94
power@@ 94
quizais 94
reading 94
ron 94
t? 94
visual 94
viv@@ 94
well. 94
wo@@ 94
Aquí 93
afraid 93
análise 93
bebés 93
colabor@@ 93
contar 93
curios@@ 93
der, 93
descri@@ 93
desenvol@@ 93
disposto 93
empez@@ 93
estud@@ 93
et, 93
fall@@ 93
ferramentas 93
festa 93
follow 93
fon@@ 93
ges 93
incen@@ 93
labor@@ 93
leva 93
minhas 93
máis. 93
perspec@@ 93
plac@@ 93
police 93
políticas 93
resul@@ 93
result 93
safe 93
save 93
segunda 93
seis 93
six 93
skill 93
skills. 93
smell 93
tedes 93
tical 93
tired 93
tividade 93
tren 93
virtu@@ 93
vós 93
weight 93
wil@@ 93
worked 93
"Po@@ 92
"That 92
10@@ 92
60 92
Today 92
Tra@@ 92
actividade 92
amazing 92
basic 92
benefici@@ 92
cake 92
cali@@ 92
capaces 92
capturar 92
cell 92
cento 92
cional. 92
clear@@ 92
consigo 92
controlar 92
conveni@@ 92
cora@@ 92
cuando 92
cultu@@ 92
current 92
descubrir 92
device 92
environmental 92
ería 92
explain 92
fresh 92
ga. 92
given 92
hol@@ 92
hou@@ 92
ida@@ 92
ilumin@@ 92
libros 92
limpeza 92
materi@@ 92
modo 92
mother@@ 92
news 92
pais 92
palabra 92
part@@ 92
project. 92
ques@@ 92
rece@@ 92
respecto 92
see@@ 92
ses, 92
ses@@ 92
sing@@ 92
surpri@@ 92
ter. 92
thing@@ 92
tors 92
transpar@@ 92
tus 92
tí@@ 92
ura@@ 92
valor@@ 92
vin 92
vosa 92
well-@@ 92
won't 92
you'll 92
""S@@ 91
""W@@ 91
Pre@@ 91
area 91
asu@@ 91
avo@@ 91
cover 91
diferen@@ 91
equ@@ 91
eri@@ 91
estre@@ 91
finding 91
fit 91
gives 91
goal 91
gor@@ 91
ini@@ 91
les, 91
lí@@ 91
mel@@ 91
modern 91
nós. 91
object 91
pe, 91
persever@@ 91
pesar 91
popul@@ 91
pou@@ 91
resto 91
show@@ 91
sí@@ 91
tados 91
tener 91
tically 91
Ás 91
óns, 91
<i>@@ 90
Cor@@ 90
Ele 90
aber@@ 90
account 90
apa@@ 90
atta@@ 90
atu@@ 90
até 90
behavior 90
chea 90
das." 90
dead@@ 90
design 90
esgo@@ 90
estilo 90
exactamente 90
exerci@@ 90
ge." 90
hero@@ 90
hos@@ 90
lea@@ 90
linguaxe 90
meaning 90
meta@@ 90
months 90
necesito 90
ollos 90
outra@@ 90
party 90
película 90
procrastin@@ 90
profes@@ 90
rema@@ 90
respe@@ 90
safety 90
sociais 90
stu@@ 90
stud@@ 90
thes@@ 90
thing. 90
vital 90
vor@@ 90
ê@@ 90
óns. 90
ADN 89
All 89
ach@@ 89
alcanzar 89
among 89
ava 89
açúcar 89
babies 89
cheese 89
chocolate 89
desenvolvemento 89
diagnos@@ 89
fixemos 89
histori@@ 89
lies 89
marabill@@ 89
meses 89
mesmos 89
muse@@ 89
necesidade 89
out. 89
preocupes 89
preto 89
prin@@ 89
proce@@ 89
público 89
queres 89
ra." 89
response 89
scientists 89
shows 89
sky 89
tel@@ 89
tiven 89
valores 89
xuntos 89
zona 89
íamos 89
“@@ 89
"Sometimes, 88
50@@ 88
Ba@@ 88
Col@@ 88
Gu@@ 88
Ma@@ 88
T 88
ade 88
ago 88
birds 88
cell@@ 88
complete 88
compren@@ 88
deser@@ 88
distribu@@ 88
efecto 88
especially 88
excellent 88
expression 88
facer. 88
ficou 88
gem 88
hot 88
il 88
jo 88
len 88
love. 88
límites 88
neces@@ 88
opinión 88
out." 88
pedir 88
poe@@ 88
pratos 88
presenta@@ 88
resultados 88
semos 88
software 88
somebody 88
su 88
temp@@ 88
transfor@@ 88
was@@ 88
with@@ 88
ándo@@ 88
í 88
ír 88
"Esta 87
201@@ 87
Cando 87
Ha@@ 87
Have 87
Mi@@ 87
Pen@@ 87
We're 87
abri@@ 87
action 87
arte. 87
banqueta 87
bility 87
boo@@ 87
cama 87
carga 87
ck. 87
clientes 87
connec@@ 87
cura@@ 87
decision 87
delici@@ 87
delicious 87
do? 87
ecer 87
enc@@ 87
exciting 87
fight 87
force 87
fotos 87
física 87
gada 87
home@@ 87
identidade 87
imaxes 87
interesante 87
lou@@ 87
obra 87
one." 87
options 87
predic@@ 87
quen@@ 87
reco@@ 87
redor 87
resol@@ 87
sleep 87
solución. 87
subjec@@ 87
terms 87
th." 87
tocar 87
tó@@ 87
year, 87
ys 87
zación 87
ár@@ 87
ça. 87
ía@@ 87
"Pero, 86
Nor@@ 86
ala 86
aqueles 86
argu@@ 86
bamos 86
bli@@ 86
caused 86
celebra@@ 86
cked 86
confer@@ 86
deles 86
deman@@ 86
depen@@ 86
depres@@ 86
destas 86
diversity 86
dog 86
dose 86
dou 86
foo@@ 86
fully 86
games 86
growing 86
important. 86
ke, 86
meat 86
nel@@ 86
nós, 86
ose 86
peace 86
pel 86
poboación 86
rapi@@ 86
raz@@ 86
realidade, 86
realize 86
rápido 86
stre@@ 86
suas 86
swe@@ 86
t-@@ 86
tas, 86
today, 86
treat@@ 86
truly 86
tun@@ 86
zes 86
""The 85
- 85
7 85
Deix@@ 85
Fran@@ 85
Gra@@ 85
Man@@ 85
Só 85
absolu@@ 85
algu@@ 85
ano, 85
ast 85
ay@@ 85
books 85
box 85
cado 85
café 85
cheiro 85
culture. 85
day@@ 85
deseñ@@ 85
dollars 85
dá 85
dín 85
ente, 85
eron 85
especialmente 85
fai@@ 85
go." 85
guer@@ 85
il. 85
importance 85
impost@@ 85
inspira@@ 85
interior. 85
inv@@ 85
life@@ 85
mans 85
prob@@ 85
programa 85
propi@@ 85
protec@@ 85
redes 85
sabe 85
sións 85
st." 85
stool 85
tivos. 85
usu@@ 85
varios 85
você 85
waiting 85
xusto 85
00@@ 84
80 84
Ar@@ 84
accident@@ 84
agar@@ 84
age. 84
agra@@ 84
ality 84
am. 84
ars 84
art. 84
asking 84
board 84
clu@@ 84
combin@@ 84
comporta@@ 84
comprar 84
connected 84
cooking 84
correr 84
decisions 84
depor@@ 84
económi@@ 84
elo 84
es: 84
evidence 84
felicidade. 84
forward. 84
foto 84
gun@@ 84
ión 84
limita@@ 84
lit@@ 84
llo 84
los@@ 84
loved 84
medit@@ 84
miss 84
modelo 84
moments 84
mou@@ 84
oce@@ 84
other@@ 84
paciencia 84
pai 84
peri@@ 84
physi@@ 84
prato 84
probablemente 84
quar@@ 84
reflec@@ 84
responsible 84
rou 84
sinxel@@ 84
sugar 84
systems 84
tiñan 84
usi@@ 84
wit@@ 84
xené@@ 84
yourself. 84
ér@@ 84
Dis@@ 83
For@@ 83
Tengo 83
ales 83
ambiente. 83
ato@@ 83
centro 83
coll@@ 83
compani@@ 83
confu@@ 83
control@@ 83
cos." 83
developed 83
fast 83
gamos 83
huge 83
igualdade 83
implica@@ 83
impres@@ 83
interven@@ 83
liberdade 83
loca@@ 83
obxec@@ 83
paper 83
patient 83
probas 83
problemas. 83
products 83
representa@@ 83
riqueza 83
scre@@ 83
serie 83
shape 83
siento 83
sociedade. 83
traballando 83
trata@@ 83
voso 83
wind 83
work, 83
xestión 83
yed 83
ções. 83
"e 82
0, 82
a: 82
absor@@ 82
ada@@ 82
agri@@ 82
agu@@ 82
als, 82
autis@@ 82
be, 82
bles. 82
brought 82
calcul@@ 82
capture 82
carreira 82
chu@@ 82
cionar 82
company. 82
conversa@@ 82
dark 82
epi@@ 82
expresión 82
express 82
genetic 82
históri@@ 82
ime 82
kept 82
mas. 82
mesa 82
mic 82
minds 82
mort@@ 82
orden@@ 82
ous@@ 82
perspectiva 82
posed 82
possible. 82
potential 82
preguntas 82
pren@@ 82
priva@@ 82
proble@@ 82
run@@ 82
scar@@ 82
sexual 82
she@@ 82
tar. 82
themselves 82
times. 82
ton 82
view@@ 82
voice 82
y.""" 82
área 82
último 82
"Porque 81
Because 81
Comp@@ 81
Pri@@ 81
To 81
ables 81
ados, 81
affec@@ 81
almente, 81
alone 81
amig@@ 81
apoi@@ 81
bel 81
centos 81
ceo 81
construí@@ 81
consul@@ 81
coun@@ 81
cus@@ 81
ele 81
eli@@ 81
eléctri@@ 81
empre@@ 81
escribir 81
exemp@@ 81
fair 81
grand@@ 81
green 81
hal@@ 81
incredible 81
instrumento 81
ism 81
ligh@@ 81
long-term 81
market. 81
neurons 81
no. 81
pasado 81
porta 81
preferido 81
queren 81
questions 81
rate 81
relacion@@ 81
sounds 81
stress. 81
tempor@@ 81
ters 81
tive, 81
training 81
Aínda 80
Che@@ 80
Each 80
Inter@@ 80
Parece 80
Spinach 80
Sta@@ 80
admira@@ 80
again, 80
aliment@@ 80
ant. 80
celebrate 80
companies 80
coo@@ 80
corr@@ 80
creativity 80
cs 80
culo 80
d.""" 80
debido 80
development 80
ding. 80
drugs 80
e-@@ 80
economi@@ 80
empezar 80
enter@@ 80
ered 80
esp@@ 80
expan@@ 80
fortal@@ 80
gañ@@ 80
help@@ 80
impro@@ 80
international 80
lar 80
las@@ 80
mes. 80
mudar 80
necesari@@ 80
ness, 80
ome@@ 80
perig@@ 80
perten@@ 80
photograph@@ 80
preven@@ 80
queda 80
strength 80
tation 80
tec@@ 80
tica, 80
ties, 80
traditional 80
traffic 80
trá@@ 80
var@@ 80
vez, 80
vic@@ 80
walking 80
xente. 80
¡@@ 80
"These 79
/a 79
C 79
Isso 79
Mais 79
Mu@@ 79
No@@ 79
acu@@ 79
adapta@@ 79
adop@@ 79
animals. 79
appreciate 79
aprendizaxe 79
arredor 79
carre@@ 79
cau@@ 79
causar 79
celebrar 79
cha 79
comecei 79
compañ@@ 79
cualquier 79
deberíamos 79
desenvolver 79
divi@@ 79
esenci@@ 79
essencial 79
estiv@@ 79
eti@@ 79
event@@ 79
forward 79
hes 79
hy@@ 79
ides 79
in." 79
individual 79
introdu@@ 79
inva@@ 79
inven@@ 79
know@@ 79
man, 79
mill@@ 79
myself. 79
natur@@ 79
navi@@ 79
nese 79
opini@@ 79
pac@@ 79
pur@@ 79
públi@@ 79
qualquer 79
resistant 79
revolu@@ 79
rápi@@ 79
school@@ 79
semell@@ 79
serious 79
sesión 79
sign@@ 79
sobre@@ 79
termos 79
then, 79
torrão 79
tortilla 79
touch 79
transfer 79
usually 79
verdadeiro 79
wear 79
"(Aplausos) 78
"Agora, 78
"R@@ 78
"There's 78
Hu@@ 78
Learning 78
acces@@ 78
acor@@ 78
alterna@@ 78
aquí, 78
asse@@ 78
assi@@ 78
atri@@ 78
ats 78
attrac@@ 78
brain@@ 78
concre@@ 78
confidence 78
confor@@ 78
diferenza 78
diseases. 78
dixo: 78
duro 78
e.""" 78
effort 78
emocional 78
empresa. 78
ence@@ 78
encia." 78
enfron@@ 78
escolha 78
experiment@@ 78
facía 78
fag@@ 78
fe 78
financi@@ 78
habit@@ 78
hay 78
ias 78
industri@@ 78
leaves 78
legal 78
network 78
pare@@ 78
perfecto 78
pit@@ 78
plas@@ 78
po 78
position 78
potencial 78
pped 78
recuperar 78
right. 78
search 78
selec@@ 78
series 78
sitting 78
society 78
solução 78
spo@@ 78
starts 78
suitable 78
taught 78
tendo 78
ther, 78
tor. 78
tranqui@@ 78
world@@ 78
"At 77
"Na 77
)@@ 77
Hay 77
Minha 77
Pode 77
ancia 77
approach@@ 77
areas. 77
así. 77
cam@@ 77
cas, 77
comfor@@ 77
comfort 77
delica@@ 77
dru@@ 77
dul@@ 77
entre@@ 77
explo@@ 77
fixen 77
ged 77
government 77
greatest 77
gro@@ 77
ground 77
hood 77
infla@@ 77
interest@@ 77
interior 77
ke. 77
land 77
let@@ 77
lives. 77
lun@@ 77
measure 77
medidas 77
metros 77
mo." 77
moment@@ 77
moral 77
morr@@ 77
much. 77
obes@@ 77
plu@@ 77
preser@@ 77
ras@@ 77
rep@@ 77
responsabilidade 77
ro." 77
s) 77
sac@@ 77
semana 77
sobremesa 77
state 77
stop@@ 77
só@@ 77
technique 77
there. 77
total 77
usa 77
uses 77
wel@@ 77
xes 77
z, 77
áni@@ 77
ética 77
última 77
Ho@@ 76
Podo 76
Res@@ 76
appro@@ 76
atur@@ 76
aver@@ 76
bacterias 76
casos 76
ch, 76
chegar@@ 76
ching 76
cido 76
class 76
cobre 76
conci@@ 76
conversation 76
crescimento 76
ef 76
element 76
empreg@@ 76
ently 76
equipment 76
ester@@ 76
facing 76
father 76
feli@@ 76
fiel@@ 76
fijar 76
glass 76
integra@@ 76
matic 76
middle 76
more. 76
musical 76
músi@@ 76
nov@@ 76
organiz@@ 76
parents 76
peace. 76
perfume 76
que. 76
reli@@ 76
role 76
saí@@ 76
sin 76
soa 76
tain@@ 76
te? 76
team. 76
terapia 76
throughout 76
treatment 76
values 76
veis 76
vision 76
wan@@ 76
y? 76
yet 76
úe 76
"Re@@ 75
70 75
Dr. 75
Entón 75
Para 75
TED 75
abóbada 75
ación, 75
actual 75
agem 75
alone. 75
anos." 75
aper@@ 75
atopar@@ 75
balance 75
but@@ 75
cabal@@ 75
comezamos 75
communica@@ 75
cost@@ 75
cou@@ 75
creatividade 75
critical 75
cí@@ 75
decisi@@ 75
decision@@ 75
diferente. 75
discover 75
discovered 75
dry 75
eram 75
excelente 75
exercicio 75
feliz. 75
high@@ 75
information. 75
instal@@ 75
inver@@ 75
jar 75
kid 75
king, 75
l." 75
la." 75
mar. 75
me? 75
morte 75
máis, 75
noti@@ 75
ocorre 75
range 75
recipes. 75
recuper@@ 75
sec@@ 75
tería 75
thing, 75
think, 75
ticos 75
tory 75
trabalho 75
truth 75
we'll 75
"Mais 74
You're 74
add 74
amizade 74
answ@@ 74
ares. 74
bas@@ 74
basically 74
body. 74
cari@@ 74
cerebro, 74
clientes. 74
contin@@ 74
cut 74
decisions. 74
deli@@ 74
des." 74
dest@@ 74
doctor 74
drink 74
efici@@ 74
electri@@ 74
ell 74
entemente 74
espa@@ 74
especial 74
especie 74
extre@@ 74
function 74
igual 74
investi@@ 74
iras. 74
iro, 74
jar@@ 74
mean@@ 74
mus@@ 74
national 74
negoci@@ 74
ner 74
obvi@@ 74
ous, 74
realizar 74
ref@@ 74
related 74
says, 74
segui@@ 74
seman@@ 74
situacións 74
solucións 74
t.""" 74
tarefa 74
taste 74
tent@@ 74
tic. 74
tools 74
tra 74
tudo 74
vac@@ 74
varias 74
whatever 74
"Son 73
' 73
English 73
Gar@@ 73
Si@@ 73
als. 73
ance. 73
are, 73
at, 73
barri@@ 73
challenge 73
cheo 73
climá@@ 73
considered 73
contacto 73
coñece@@ 73
daily 73
dei 73
dereitos 73
dez 73
dly 73
dores. 73
emocional. 73
entes, 73
esto 73
ests 73
face. 73
fec@@ 73
feel@@ 73
fire 73
foun@@ 73
fres@@ 73
func@@ 73
garden 73
grow@@ 73
guar@@ 73
haber 73
including 73
lac@@ 73
later, 73
licor 73
mai@@ 73
medication 73
model 73
nit@@ 73
nuvem 73
passion 73
posible. 73
preparing 73
presence 73
pressure 73
prime@@ 73
reno@@ 73
row@@ 73
ship@@ 73
socie@@ 73
son, 73
soñ@@ 73
structu@@ 73
tanto, 73
tapar 73
tarse 73
task 73
ter, 73
teñ@@ 73
tir 73
univer@@ 73
y-@@ 73
"Es@@ 72
0@@ 72
Fo@@ 72
Medi@@ 72
They're 72
accompli@@ 72
analysis 72
bag@@ 72
ben." 72
born 72
cen 72
ch." 72
collabor@@ 72
community. 72
computa@@ 72
demost@@ 72
dente 72
developing 72
diverti@@ 72
ear 72
emotions. 72
enorme 72
essa 72
este@@ 72
estudos 72
exac@@ 72
familia. 72
fillo 72
fillos 72
fy 72
gur@@ 72
happy. 72
health@@ 72
his/her 72
jun@@ 72
lica@@ 72
my@@ 72
nave@@ 72
ning. 72
presión 72
probar 72
quem 72
rado 72
realized 72
regular 72
religi@@ 72
segun@@ 72
segurança 72
she's 72
signal 72
sus@@ 72
termin@@ 72
thank 72
tivamente 72
trend 72
understan@@ 72
vendo 72
whe@@ 72
writing 72
xente, 72
ã@@ 72
óri@@ 72
"That's 71
"With 71
Com@@ 71
Self-@@ 71
Você 71
aci@@ 71
admi@@ 71
alcan@@ 71
bl@@ 71
blu@@ 71
bom 71
cabo 71
cally 71
ces." 71
comb@@ 71
crecemento 71
cura 71
curi@@ 71
decisión. 71
divin@@ 71
ece 71
elimin@@ 71
enta 71
era@@ 71
esca@@ 71
explore 71
ficación 71
fracaso 71
fron@@ 71
heart. 71
house. 71
há 71
inci@@ 71
interesante. 71
involved 71
lla 71
management 71
moléculas 71
nuestra 71
ou. 71
paix@@ 71
people." 71
pequenos 71
pping 71
prazo. 71
presen@@ 71
previ@@ 71
program 71
recibir 71
rights 71
ros. 71
sanit@@ 71
seek 71
segue 71
semana. 71
tase 71
there." 71
trip 71
tódolos 71
water. 71
xec@@ 71
ência. 71
ô@@ 71
"Aínda 70
"Temos 70
"U@@ 70
90 70
A, 70
Comprei 70
Estás 70
He@@ 70
TV 70
able, 70
acción 70
ache@@ 70
aco@@ 70
antes, 70
ath@@ 70
cami@@ 70
cheg@@ 70
cloud 70
comprender 70
cultures. 70
desas 70
desta@@ 70
discus@@ 70
elementos 70
emocionado 70
erros 70
establish 70
et. 70
ets 70
fermos@@ 70
festiv@@ 70
fish@@ 70
fit@@ 70
fying 70
gift 70
hur@@ 70
igual@@ 70
incredibly 70
ingrediente 70
ining 70
ino@@ 70
inte@@ 70
interna@@ 70
io@@ 70
isso 70
justi@@ 70
mercado. 70
migra@@ 70
mountain@@ 70
moved 70
opcións 70
perhaps 70
perman@@ 70
played 70
population 70
pron@@ 70
red. 70
responsibility 70
s?" 70
saben 70
saúde. 70
scientific 70
secre@@ 70
soon 70
suficiente 70
surprise 70
syste@@ 70
tell@@ 70
teri@@ 70
terri@@ 70
thi@@ 70
tido 70
tiva, 70
tly 70
typical 70
urban@@ 70
vento 70
éx@@ 70
'll 69
500 69
Har@@ 69
TED@@ 69
adora 69
agora, 69
amar@@ 69
ana. 69
arm 69
avanz@@ 69
aventura 69
becomes 69
becoming 69
bit@@ 69
brin@@ 69
buil@@ 69
cales 69
cast@@ 69
ciones 69
clinical 69
clíni@@ 69
coñecer 69
created 69
dor, 69
dólares 69
envol@@ 69
equipo. 69
ere 69
examp@@ 69
exchange 69
fast@@ 69
faz@@ 69
gan 69
gender 69
gustaría 69
happening 69
incl@@ 69
incri@@ 69
ingredient 69
ion@@ 69
irmá@@ 69
ións 69
lots 69
medida 69
menta 69
met 69
modi@@ 69
moslles 69
ne 69
noi@@ 69
nosso 69
objeto 69
ofrecer 69
one's 69
oí@@ 69
paisa@@ 69
player 69
practice 69
predict 69
preguntar@@ 69
prepared 69
próxima 69
próximo 69
reality 69
refres@@ 69
relax. 69
repar@@ 69
ship 69
song 69
sons 69
species 69
sports 69
sto. 69
tain 69
teña 69
ther. 69
thre@@ 69
tiempo 69
ut 69
vaca@@ 69
vibra@@ 69
way@@ 69
well." 69
xor@@ 69
year. 69
""N@@ 68
"Polo 68
-lo 68
18@@ 68
200 68
Grazas 68
If 68
Pu@@ 68
ada, 68
ade@@ 68
ante@@ 68
ation." 68
atrás 68
behavi@@ 68
brush 68
change. 68
chas 68
colec@@ 68
conflic@@ 68
cores 68
coñecemento 68
criar 68
culos 68
death 68
dent 68
dirección 68
disfrutar 68
dú@@ 68
ence." 68
esquivar 68
estrutura 68
experience. 68
fill@@ 68
fortun@@ 68
grupos 68
here's 68
hundreds 68
invit@@ 68
ish 68
knowing 68
lex@@ 68
list 68
magn@@ 68
manipul@@ 68
melhorar 68
memory 68
metade 68
minutos 68
mis 68
miti@@ 68
mosquetão 68
nal 68
nea 68
ning@@ 68
non-@@ 68
ort@@ 68
partir 68
patient@@ 68
pensamos 68
pes 68
plane@@ 68
posso 68
preocu@@ 68
proto@@ 68
quickly 68
recipro@@ 68
repeti@@ 68
sit 68
taba 68
tarefas 68
team@@ 68
tendencia 68
teodolito 68
tes, 68
thin@@ 68
todos. 68
ty, 68
way." 68
xenes 68
xeo 68
zado 68
"Cada 67
"Sen 67
Afri@@ 67
Jo@@ 67
Pe@@ 67
Ru@@ 67
Tiña 67
Uni@@ 67
active 67
aer@@ 67
agradecido 67
algodão 67
all. 67
amente, 67
amos, 67
animal@@ 67
attention. 67
begin 67
bs 67
cerca 67
chegou 67
chuva 67
coida@@ 67
cole@@ 67
cont@@ 67
convenci@@ 67
creación 67
código 67
dereito 67
digital 67
door 67
electróni@@ 67
esque@@ 67
esquezas 67
everybody 67
everything. 67
expli@@ 67
gañar 67
gradu@@ 67
importancia 67
industria 67
inspiration 67
joy 67
mediante 67
merca@@ 67
mid@@ 67
miúdo 67
momento, 67
mí@@ 67
nada. 67
numb@@ 67
onto 67
pensab@@ 67
perso@@ 67
pessoas. 67
poderían 67
pássaros 67
quei 67
sent 67
smile 67
smo@@ 67
soun@@ 67
speaking 67
sustainable 67
sy@@ 67
traballo, 67
tú@@ 67
utiliz@@ 67
velocidade 67
ver." 67
via 67
volta 67
xeit@@ 67
xog@@ 67
ável. 67
""A@@ 66
Cotton 66
absolutely 66
achieving 66
are. 66
arran@@ 66
assu@@ 66
ate. 66
ations. 66
ative 66
bla@@ 66
brains 66
ces, 66
challenges 66
chec@@ 66
clothes 66
considerar 66
culin@@ 66
customer 66
deses 66
differences 66
dir 66
drin@@ 66
driving 66
eleg@@ 66
empres@@ 66
espaci@@ 66
existe 66
fall 66
favor, 66
fla@@ 66
fr@@ 66
fur@@ 66
goberno 66
gy@@ 66
hospital 66
humil@@ 66
ia, 66
identify 66
illumin@@ 66
importante, 66
logical 66
mp 66
noise 66
optimi@@ 66
osas. 66
passa@@ 66
pensando 66
permiti@@ 66
persoa. 66
persoas, 66
plantas 66
princip@@ 66
programa@@ 66
provo@@ 66
psycho@@ 66
respira@@ 66
ros@@ 66
says 66
ship. 66
sincer@@ 66
sion." 66
skull 66
sobrevi@@ 66
soft 66
stran@@ 66
survi@@ 66
tese 66
things, 66
toma 66
treated 66
universal 66
usando 66
val 66
vamos 66
vermel@@ 66
volu@@ 66
you@@ 66
ña, 66
"""We 65
"Est@@ 65
Esa 65
Espero 65
Everything 65
Lu@@ 65
Nova 65
Ou@@ 65
S 65
aburri@@ 65
ado, 65
ais." 65
aler@@ 65
ality. 65
amendoim 65
amosou 65
apreci@@ 65
audience 65
autori@@ 65
cción 65
coffee 65
cogni@@ 65
confir@@ 65
constantly 65
consumi@@ 65
contar@@ 65
corpor@@ 65
corri@@ 65
deberías 65
dig@@ 65
digo 65
dispositivo 65
dre@@ 65
easily 65
economía 65
either 65
engine@@ 65
ent, 65
entes." 65
est. 65
establecer 65
exci@@ 65
explorar 65
familiar 65
flexi@@ 65
fondo 65
forms 65
forte. 65
ful, 65
gam@@ 65
harmon@@ 65
haven't 65
historia. 65
humana 65
hurt 65
ida 65
itu@@ 65
journey 65
ks. 65
level@@ 65
lograr 65
loy@@ 65
mala 65
medita@@ 65
mentes 65
mirar 65
montaña 65
máxi@@ 65
neu@@ 65
piques 65
plans 65
positiva 65
proper 65
propor@@ 65
relev@@ 65
relixi@@ 65
sabía 65
stic 65
sufri@@ 65
são. 65
tells 65
teléfono 65
up." 65
variety 65
veñen 65
ân@@ 65
♪ 65
"On 64
Fin@@ 64
Ter@@ 64
aj@@ 64
alo. 64
american@@ 64
ancient 64
antar 64
aparec@@ 64
axuda. 64
back. 64
beyond 64
brings 64
bun@@ 64
cadra 64
capit@@ 64
carabiner 64
causes 64
cep@@ 64
chemical 64
choi@@ 64
ck, 64
conse@@ 64
cooper@@ 64
culturas 64
curso 64
despois, 64
din 64
diri@@ 64
eiro 64
el, 64
el. 64
enor@@ 64
ers." 64
escal@@ 64
especta@@ 64
ess@@ 64
estrés. 64
fabri@@ 64
gru@@ 64
hacer@@ 64
hacia 64
hel@@ 64
humana. 64
humans 64
idade. 64
ies 64
internet 64
ish@@ 64
law@@ 64
libro@@ 64
marca 64
maz@@ 64
medicamento 64
mirror 64
mucho 64
nur@@ 64
ons. 64
opinion 64
os? 64
outside 64
paciente 64
parque 64
pasou 64
ple@@ 64
proba 64
puzz@@ 64
quími@@ 64
rain@@ 64
rever@@ 64
room, 64
secon@@ 64
sensa@@ 64
service 64
significant 64
situations. 64
sky. 64
speed 64
system, 64
tas@@ 64
tis@@ 64
ved. 64
verse 64
who's 64
ável 64
éron@@ 64
"""My 63
"En@@ 63
"Every 63
"Quero 63
"Without 63
000 63
Be 63
Bi@@ 63
Necesitamos 63
Sol@@ 63
ack 63
ador. 63
affected 63
ame@@ 63
amor@@ 63
anal@@ 63
apetece 63
aspecto 63
ast@@ 63
axudar@@ 63
bebida 63
boar@@ 63
chil@@ 63
cidad@@ 63
cociña 63
comerci@@ 63
corpo. 63
cria@@ 63
cultiv@@ 63
cure 63
date 63
demás. 63
depresión 63
deserve 63
dia. 63
dora 63
eas 63
effects 63
efficient 63
eg@@ 63
eight 63
eira 63
ela. 63
ency 63
escola 63
esquec@@ 63
extremely 63
faci@@ 63
falando 63
fá@@ 63
h. 63
hair@@ 63
hoo@@ 63
hook 63
include 63
innov@@ 63
mane@@ 63
mission 63
obri@@ 63
ocu@@ 63
pagar 63
park 63
party. 63
peaceful 63
pira@@ 63
propias 63
proxecto. 63
ps. 63
recognize 63
roman@@ 63
sexu@@ 63
shown 63
solucionar 63
solutions 63
sufici@@ 63
swi@@ 63
though@@ 63
tible 63
ticas. 63
viaxar 63
visit 63
ward 63
weather 63
xogar 63
zapatos 63
zo, 63
"J@@ 62
"Se@@ 62
"Ás 62
12@@ 62
5, 62
Ri@@ 62
Ser@@ 62
able." 62
acci@@ 62
age, 62
alco@@ 62
algumas 62
all." 62
alos 62
applica@@ 62
are." 62
aware 62
axudarnos 62
baby 62
ball@@ 62
bb@@ 62
break@@ 62
carbon 62
carry 62
condicións 62
conduc@@ 62
congel@@ 62
cono@@ 62
consumo 62
copi@@ 62
cuida@@ 62
cump@@ 62
dades, 62
detrás 62
disa@@ 62
diseases 62
eating 62
ences 62
ene@@ 62
enfer@@ 62
enfoque 62
engag@@ 62
enro@@ 62
entrar 62
environ@@ 62
ering 62
esforzo 62
esse 62
estar@@ 62
femin@@ 62
gastar 62
gent@@ 62
gin@@ 62
guy 62
have. 62
ight 62
importan@@ 62
languag@@ 62
merec@@ 62
misión 62
molecules 62
muller@@ 62
mur@@ 62
nos. 62
nuestros 62
nuev@@ 62
oca@@ 62
océ@@ 62
oria 62
other. 62
profun@@ 62
repe@@ 62
retener 62
sei@@ 62
sentirme 62
seven 62
sole@@ 62
solo 62
spec@@ 62
spread 62
stimul@@ 62
story. 62
studies 62
tamaño 62
tele@@ 62
tranquil@@ 62
universi@@ 62
verdade@@ 62
veri@@ 62
vez. 62
vive 62
vivi@@ 62
viñ@@ 62
vul@@ 62
xe. 62
ído 62
"La 61
."" 61
Apren@@ 61
Ou 61
able@@ 61
adolesc@@ 61
adventure 61
afe@@ 61
afectar 61
amea@@ 61
approach 61
aquela 61
asoci@@ 61
astron@@ 61
beach 61
caix@@ 61
child@@ 61
circul@@ 61
color@@ 61
comunidades 61
construc@@ 61
construir 61
conversa 61
célul@@ 61
demais, 61
dente. 61
der." 61
doctor@@ 61
dura 61
dão 61
ents. 61
expecta@@ 61
fix 61
following 61
four@@ 61
frequ@@ 61
física. 61
gate 61
idea, 61
ine. 61
innova@@ 61
is: 61
itself 61
je@@ 61
lau@@ 61
lugar. 61
mathema@@ 61
medicina 61
nervi@@ 61
ore 61
ou, 61
ox@@ 61
particip@@ 61
participa@@ 61
pec@@ 61
perda 61
pho@@ 61
poderiamos 61
prepare 61
previr 61
primeiros 61
projec@@ 61
protección 61
puido 61
refu@@ 61
rul@@ 61
ré@@ 61
screen 61
sequera 61
shed 61
spea@@ 61
sta, 61
stal@@ 61
standing 61
tax@@ 61
tempo." 61
things." 61
tina 61
tives 61
u. 61
usados 61
ves. 61
vibration 61
vontade 61
washing 61
xardín 61
às 61
á. 61
ña. 61
""Non 60
"Con@@ 60
"De@@ 60
"Ex@@ 60
"Mo@@ 60
Aquela 60
Ch@@ 60
In 60
acariciar 60
adiante. 60
afford 60
again." 60
ak@@ 60
ally. 60
aman@@ 60
area. 60
atopamos 60
beb@@ 60
begin@@ 60
ber 60
canción 60
carried 60
certas 60
check 60
claro 60
comprensión 60
comú@@ 60
consi@@ 60
covered 60
crise 60
darlle 60
dece@@ 60
dere@@ 60
desig@@ 60
detal@@ 60
diferentes. 60
different@@ 60
dire@@ 60
dreams. 60
dres@@ 60
enjo@@ 60
estea 60
fears 60
feita 60
fer 60
girl 60
great@@ 60
growth. 60
idio@@ 60
ill 60
images 60
inteli@@ 60
invest@@ 60
irmán 60
lei 60
less@@ 60
lling 60
lugar@@ 60
man. 60
mañ@@ 60
medios 60
memb@@ 60
mática 60
nice 60
now." 60
offers 60
pan 60
perdi@@ 60
proper@@ 60
pé@@ 60
ras. 60
relationships 60
riscos 60
rus@@ 60
sco@@ 60
sentimento 60
solar 60
spac@@ 60
substan@@ 60
tamb@@ 60
tesouro 60
tho@@ 60
thought, 60
tivity 60
trabalhar 60
técni@@ 60
ury 60
valori@@ 60
valu@@ 60
virtual 60
was, 60
xar 60
xen 60
xeni@@ 60
"""I'm 59
""What 59
"After 59
"An@@ 59
"El 59
"Xa 59
"[@@ 59
-se 59
Ameri@@ 59
Anhelo 59
Fear 59
allowed 59
altura 59
analy@@ 59
antena 59
antenna 59
aplica@@ 59
appe@@ 59
beach. 59
biological 59
capaci@@ 59
carapuço 59
case, 59
chama@@ 59
chat 59
cio. 59
colle@@ 59
compon@@ 59
contact 59
d? 59
decide 59
defe@@ 59
deron 59
dimensión 59
energ@@ 59
escen@@ 59
escova 59
espiritu@@ 59
estudar 59
exis@@ 59
extra 59
finally 59
flores 59
focused 59
formación 59
fuer@@ 59
goo@@ 59
hoxe. 59
ili@@ 59
isto? 59
ión. 59
lav@@ 59
ling@@ 59
lle@@ 59
mando 59
mix@@ 59
motivación 59
nac@@ 59
no, 59
non, 59
o-@@ 59
observ@@ 59
organized 59
peor 59
pha@@ 59
philosop@@ 59
plan. 59
principal 59
privacidade 59
quin@@ 59
segura 59
sentimentos 59
shar@@ 59
soap 59
solavanco 59
solving 59
stage 59
substitu@@ 59
talked 59
telesco@@ 59
tenda 59
third 59
titude 59
tivo, 59
tóxi@@ 59
urban 59
valioso 59
vimos 59
water@@ 59
xénero 59
years. 59
""M@@ 58
"Our 58
'd 58
Aprender 58
Cu@@ 58
Europa 58
Gi@@ 58
Happiness 58
Yor@@ 58
actividades 58
addic@@ 58
ado." 58
ainda 58
alma 58
anzol 58
aren't 58
auth@@ 58
bed@@ 58
biggest 58
box@@ 58
cal, 58
careful 58
circumstan@@ 58
cleaning 58
coraz@@ 58
courage 58
cres@@ 58
daba 58
damente 58
dangerous 58
day." 58
discovery 58
discu@@ 58
distintas 58
doen@@ 58
drug@@ 58
encan@@ 58
eni@@ 58
equipamento 58
eter@@ 58
expresar 58
fat@@ 58
fren@@ 58
geo@@ 58
goals 58
helping 58
here." 58
iamos 58
identity 58
ily 58
impor@@ 58
impresion@@ 58
ings. 58
inspir@@ 58
intentando 58
isso. 58
job. 58
lap@@ 58
logos 58
machin@@ 58
manage 58
mbi@@ 58
medicamentos 58
mente@@ 58
most@@ 58
mou 58
música. 58
natural. 58
organize 58
orienta@@ 58
origin@@ 58
pai@@ 58
paper@@ 58
país. 58
posto 58
poucos 58
problem, 58
puiden 58
rase 58
relax 58
release 58
ries 58
sabonete 58
scan@@ 58
scienti@@ 58
singing 58
sity 58
spin@@ 58
stone 58
sus 58
tico, 58
transpor@@ 58
tro 58
vation 58
vidas. 58
vía 58
warm 58
web@@ 58
wish 58
woo@@ 58
z." 58
áron@@ 58
"All 57
-year-old 57
/ 57
At@@ 57
Copper 57
Sinto-me 57
Un@@ 57
York 57
ago@@ 57
alegría 57
altos 57
apo@@ 57
bandit 57
bar 57
brother 57
buscando 57
calma 57
captu@@ 57
cartos 57
caso, 57
caviar 57
cerebros 57
chang@@ 57
children. 57
chin@@ 57
cine 57
cionais 57
circu@@ 57
committed 57
compas@@ 57
conex@@ 57
contamin@@ 57
conven@@ 57
correct 57
cular 57
cy. 57
dela 57
demostrar 57
desper@@ 57
difícil. 57
dimension 57
dishes. 57
disor@@ 57
doctors 57
dora. 57
draw@@ 57
dólar@@ 57
ea@@ 57
easier 57
ela, 57
engan@@ 57
enta@@ 57
enxeñ@@ 57
erro 57
espinafre 57
gain 57
gar. 57
gli@@ 57
hoje. 57
ignore 57
información. 57
inglés 57
knows 57
laboratorio 57
limits 57
lived 57
loit@@ 57
manag@@ 57
mastro 57
matemá@@ 57
me: 57
mest@@ 57
moslle 57
mostrar 57
motor 57
net@@ 57
objective 57
ordenador 57
orixin@@ 57
pas 57
pir@@ 57
po, 57
poor 57
praia. 57
práctica 57
psicó@@ 57
romp@@ 57
semanas 57
si, 57
solit@@ 57
spe@@ 57
sup@@ 57
temor 57
tively 57
transportation 57
u, 57
vida@@ 57
viola@@ 57
violencia 57
viven 57
vulnerable 57
xin@@ 57
xustiza 57
ño. 57
?"" 56
Acredito 56
Ger@@ 56
Internet 56
Pas@@ 56
Pi@@ 56
ace@@ 56
action. 56
and, 56
anymore. 56
arlles 56
beautiful. 56
biolóxi@@ 56
boy 56
camino 56
campa@@ 56
cancer, 56
clási@@ 56
comen@@ 56
constan@@ 56
contagi@@ 56
correspon@@ 56
costu@@ 56
curta 56
customi@@ 56
córtex 56
desenvolve@@ 56
develop@@ 56
diferenzas 56
discrimin@@ 56
disease, 56
días. 56
ement 56
ener@@ 56
enri@@ 56
ensinar 56
equilibra@@ 56
equilibrio 56
espada 56
estimul@@ 56
exclu@@ 56
explicar 56
fair@@ 56
foot@@ 56
genes 56
hidroplano 56
hing 56
home, 56
honestidade 56
humano. 56
initi@@ 56
ins@@ 56
intercambiar 56
iro@@ 56
language. 56
mach@@ 56
maiores 56
manu@@ 56
medir 56
melo@@ 56
miento 56
minutes 56
more, 56
neighbor@@ 56
nós." 56
objetos 56
ors. 56
particularly 56
period 56
pieces 56
proteger 56
purpose 56
qualidade 56
race 56
rapaces 56
resi@@ 56
samp@@ 56
satisfac@@ 56
scen@@ 56
shap@@ 56
shoes 56
succes@@ 56
sweet 56
television 56
tiñamos 56
tolerate 56
trau@@ 56
tura. 56
ures. 56
vos@@ 56
week@@ 56
wher@@ 56
work." 56
zada 56
zar@@ 56
óni@@ 56
"Despois 55
"To@@ 55
Chin@@ 55
Her 55
Quizais 55
Ra@@ 55
abadia 55
abandon@@ 55
adequ@@ 55
aju@@ 55
alter@@ 55
ante." 55
armar 55
assombro 55
ater@@ 55
baixa 55
barco 55
basi@@ 55
bright 55
car, 55
cars 55
chega 55
coche. 55
coidado 55
confiar 55
costume 55
crimin@@ 55
cómo@@ 55
dele@@ 55
determine 55
difícil, 55
dispostos 55
dreams 55
efica@@ 55
emoción 55
empatía 55
encontra@@ 55
energy. 55
especial. 55
estrelas 55
extraordin@@ 55
fascinating 55
fronte 55
gel@@ 55
hab@@ 55
head. 55
helicopter 55
hop@@ 55
hos. 55
igh@@ 55
imaxinar 55
influenced 55
insec@@ 55
intelix@@ 55
intelixencia 55
interest 55
isto." 55
ls 55
milit@@ 55
millions 55
mir 55
misteri@@ 55
mobile 55
morning 55
nature@@ 55
necess@@ 55
neighborhood 55
niveis 55
osos. 55
pedra 55
perspective 55
places. 55
preferida 55
price 55
really, 55
relationship. 55
resistente 55
ricos 55
rid 55
risks 55
saliva 55
sar@@ 55
significado 55
sinais 55
sob@@ 55
sorriso 55
spi@@ 55
stars 55
store 55
structure 55
stuff@@ 55
successful 55
talent@@ 55
theodolite 55
this? 55
thri@@ 55
tiny 55
tivemos 55
tree 55
variedade 55
vesti@@ 55
vitamin 55
volume 55
where. 55
whistle 55
wide 55
xe." 55
xeito, 55
xeno@@ 55
zation 55
zou 55
— 55
199@@ 54
B 54
His/her 54
Many 54
Their 54
aberto 54
ability. 54
acadar 54
aconte@@ 54
ad, 54
ads 54
ajud@@ 54
anz@@ 54
aroun@@ 54
automa@@ 54
avan@@ 54
axeitada 54
ayuda 54
ação. 54
be. 54
biu 54
cante. 54
catch 54
chronic 54
clima 54
coisas 54
compare 54
compassion 54
concent@@ 54
contex@@ 54
cool 54
coordin@@ 54
corrup@@ 54
country. 54
dades." 54
desa 54
dish@@ 54
diñeiro 54
do/a 54
doce 54
dor." 54
elements 54
ene 54
equality 54
eso 54
estiver@@ 54
everyone. 54
field 54
gone 54
heavy 54
helicóptero 54
him, 54
history. 54
hit 54
hour@@ 54
immediate 54
immune 54
inde@@ 54
ings, 54
intoler@@ 54
invest 54
ket 54
largest 54
learning. 54
me.""" 54
medicine 54
mistakes 54
money. 54
movemento 54
máquina 54
olóxi@@ 54
opportunities. 54
organis@@ 54
other, 54
paixón 54
performance 54
policies 54
profession@@ 54
protection 54
ramos 54
received 54
rememb@@ 54
respect. 54
resulta@@ 54
reuni@@ 54
sete 54
simul@@ 54
siv@@ 54
sm@@ 54
teñan 54
therapy 54
this: 54
tow@@ 54
trabalho. 54
traballa@@ 54
ular 54
var 54
vide@@ 54
vitamina 54
years." 54
á, 54
éndo@@ 54
ótima 54
Aqu@@ 53
Are 53
Ben, 53
China 53
Emp@@ 53
Estaba 53
Health 53
Nu@@ 53
Pine 53
Sab@@ 53
Walking 53
You@@ 53
abamos 53
activities 53
ad. 53
adultos 53
affects 53
ain@@ 53
alización 53
alize 53
anci@@ 53
ating. 53
ave 53
bail@@ 53
bebidas 53
camente, 53
cantos 53
cat@@ 53
clara 53
clean@@ 53
compre@@ 53
comprometi@@ 53
comunica@@ 53
contigo. 53
cousas." 53
cuisine. 53
culturas. 53
cán@@ 53
d's 53
danger@@ 53
dark@@ 53
degre@@ 53
depende 53
depression 53
disappe@@ 53
dness 53
effici@@ 53
ende@@ 53
enfo@@ 53
ess. 53
está@@ 53
ew@@ 53
feedback 53
feelings 53
filled 53
flow@@ 53
formar 53
fruit 53
fun. 53
gast@@ 53
gene 53
glu@@ 53
gráfi@@ 53
higher 53
humanos. 53
humildade 53
identificar 53
inspiración 53
instrument 53
investig@@ 53
irmá 53
ka@@ 53
linguas 53
lled 53
machine 53
major 53
mentar 53
mica 53
mir@@ 53
mover 53
máis." 53
neg@@ 53
office 53
org@@ 53
other." 53
pena 53
pensan 53
pic@@ 53
pinheiros 53
planeta 53
poidan 53
poten@@ 53
promote 53
proxec@@ 53
que? 53
razóns 53
recep@@ 53
remain@@ 53
ring 53
risk@@ 53
ritmo 53
roer 53
sa, 53
school, 53
shared 53
si?" 53
simil@@ 53
siste@@ 53
sonar 53
stuff 53
suave 53
suces@@ 53
síntomas 53
televisión 53
tentando 53
ter." 53
turning 53
vaso 53
weeks 53
xuntos. 53
xur@@ 53
y's 53
y: 53
zepelim 53
ço. 53
ên@@ 53
ñar 53
ôni@@ 53
”@@ 53
"Pen@@ 52
11 52
30@@ 52
Ad@@ 52
America 52
Debes 52
Lemb@@ 52
Mi 52
Not 52
Please 52
abbey 52
abil@@ 52
according 52
address 52
admirable. 52
advi@@ 52
amos. 52
ampli@@ 52
ator 52
boat 52
bos@@ 52
branch 52
catapul@@ 52
ciar 52
cional 52
contac@@ 52
creation 52
crer 52
dese@@ 52
difficul@@ 52
dispar@@ 52
economy 52
eiros 52
elabor@@ 52
enferme@@ 52
estades 52
eta@@ 52
eth@@ 52
evolución 52
exter@@ 52
fago 52
fixeron 52
flavor 52
força 52
fotografia 52
funda@@ 52
fármaco 52
govern@@ 52
groups 52
ina. 52
incrí@@ 52
inst@@ 52
jec@@ 52
lawy@@ 52
ler@@ 52
libr@@ 52
light. 52
lights 52
mellora 52
message 52
microbios 52
mind, 52
moit@@ 52
mostra@@ 52
ofer@@ 52
ola 52
parecia 52
partido 52
pir 52
polici@@ 52
posing 52
pui@@ 52
question@@ 52
recover 52
refuxi@@ 52
rejec@@ 52
silenci@@ 52
slow@@ 52
smi@@ 52
sociais. 52
soul 52
specta@@ 52
stronger 52
sts, 52
symptoms 52
tam@@ 52
teacher@@ 52
tend 52
tes." 52
that? 52
transi@@ 52
ulti@@ 52
underestimate 52
vers 52
wants 52
xulgar 52
én, 52
ões. 52
-la 51
., 51
70@@ 51
Asi@@ 51
Cha@@ 51
Keep 51
Min@@ 51
Talvez 51
Wor@@ 51
actually, 51
alizar 51
apito 51
ario, 51
arma@@ 51
ath 51
attitude. 51
aumentar 51
authori@@ 51
average 51
bandeira 51
bas 51
bele@@ 51
bin@@ 51
bloo@@ 51
bottom 51
bril@@ 51
certo, 51
cias. 51
cliente 51
code 51
compa@@ 51
complicated 51
consciencia 51
conscious 51
cook 51
cool@@ 51
cost 51
daqu@@ 51
desaparec@@ 51
deseño 51
despite 51
die 51
director 51
dixo, 51
down. 51
eci@@ 51
edade 51
electrical 51
else@@ 51
emerx@@ 51
emocionante. 51
emotion 51
encar@@ 51
energi@@ 51
enerx@@ 51
enga@@ 51
enquanto 51
esqu@@ 51
estra 51
expect 51
face@@ 51
flag 51
formul@@ 51
friend. 51
fronte@@ 51
futu@@ 51
game. 51
graf@@ 51
gue@@ 51
horizon@@ 51
hydroplane 51
há@@ 51
illi@@ 51
illu@@ 51
interese 51
issue 51
jolt 51
justice 51
language, 51
library 51
libre. 51
like@@ 51
loc@@ 51
luck@@ 51
mbe@@ 51
mber 51
measures 51
medição 51
mers 51
mistakes. 51
mit 51
month@@ 51
needs. 51
nigh@@ 51
odi@@ 51
oso, 51
p, 51
pati@@ 51
percep@@ 51
período 51
plastic 51
policía 51
positivo 51
practi@@ 51
practical 51
presenza 51
products. 51
programas 51
psicolóxi@@ 51
pux@@ 51
reas@@ 51
religião 51
renew@@ 51
right@@ 51
sabor@@ 51
sensitive 51
simplici@@ 51
sopor@@ 51
spending 51
stuck 51
subesti@@ 51
suppose 51
sust@@ 51
sword 51
tadas 51
também 51
tari@@ 51
task@@ 51
tch 51
technologies 51
temperat@@ 51
tenho 51
terapi@@ 51
ticamente 51
tives. 51
tiz@@ 51
trou@@ 51
use. 51
usto 51
verdade. 51
week 51
xuí@@ 51
zonas 51
óns." 51
"Con 50
"Des@@ 50
"Entón 50
"People 50
"Some 50
1, 50
CRISPR 50
Indi@@ 50
Lon@@ 50
Peanuts 50
Unidos 50
adversi@@ 50
ages 50
ajudam 50
alá 50
animal. 50
aproxima@@ 50
artificial 50
auga. 50
bath 50
benefits 50
biblioteca 50
bilidade. 50
brain. 50
brain." 50
care@@ 50
ceder 50
cerebro. 50
charla 50
closer 50
clou@@ 50
cociñ@@ 50
colaboración 50
communicate 50
compro@@ 50
consecuencias 50
coti@@ 50
cremallera 50
deeper 50
deporte 50
desen@@ 50
detectar 50
determinar 50
deteñ@@ 50
distintos 50
econom@@ 50
ender 50
entalhe 50
epidemi@@ 50
es.""" 50
execu@@ 50
facelo. 50
fail@@ 50
fen@@ 50
final, 50
fisi@@ 50
fundação 50
fútbol 50
guil@@ 50
ham 50
honest 50
honest@@ 50
ideas, 50
ing? 50
intui@@ 50
já 50
later 50
laun@@ 50
listen@@ 50
mal. 50
man." 50
mañá 50
meeting 50
memori@@ 50
memoria 50
mesmo." 50
mé@@ 50
named 50
nobody 50
novo, 50
occu@@ 50
offer@@ 50
opio@@ 50
ores. 50
others, 50
ourselves. 50
palab@@ 50
park. 50
peixe 50
pensei 50
persoal 50
personas 50
plants 50
point, 50
praia 50
print 50
producir 50
pueden 50
putting 50
pódese 50
queijo 50
rapaz 50
replac@@ 50
responsabili@@ 50
responsi@@ 50
revel@@ 50
rocha 50
ry, 50
s; 50
sau@@ 50
seas@@ 50
seguro/a 50
shopping 50
simples 50
siti@@ 50
smar@@ 50
somb@@ 50
street 50
sá@@ 50
technical 50
tecido 50
tics, 50
tiene 50
tive." 50
tivos, 50
traspaso 50
tua 50
upon 50
vanta@@ 50
vest@@ 50
ving. 50
vir 50
vivir@@ 50
wing 50
words. 50
wrote 50
xeración 50
Á@@ 50
ámo@@ 50
íase 50
!@@ 49
16 49
As@@ 49
Europe 49
Friendship 49
G: 49
Grazas. 49
Im@@ 49
Moitas 49
Ne@@ 49
Or 49
Organi@@ 49
Te@@ 49
Where 49
abon@@ 49
acontece 49
ading 49
advan@@ 49
antes." 49
antibio@@ 49
appreci@@ 49
arrepio 49
assa@@ 49
associated 49
at." 49
atori@@ 49
atrac@@ 49
avali@@ 49
azul 49
bes 49
bill@@ 49
breathing 49
cambiou 49
camos 49
capacity 49
chamamos 49
cian 49
ciona 49
comezo 49
comida. 49
compaix@@ 49
cros@@ 49
cróni@@ 49
culpa 49
customers. 49
cámar@@ 49
deberían 49
denti@@ 49
dera 49
desenvolvi@@ 49
discover@@ 49
do: 49
easi@@ 49
eding 49
edit@@ 49
elección 49
electric 49
empe@@ 49
entón, 49
espírito 49
etas 49
evol@@ 49
exa@@ 49
experiencias 49
experiment 49
eza 49
faces 49
faga 49
fas 49
follow@@ 49
freedom 49
gando 49
garden@@ 49
grew 49
guerra 49
hand, 49
heada@@ 49
high-@@ 49
impressive. 49
inclinación 49
ith 49
keys 49
later@@ 49
lef@@ 49
les." 49
libre 49
liña. 49
logo, 49
mali@@ 49
managed 49
maneiras 49
maxi@@ 49
medos 49
memories 49
mensaxe 49
ments, 49
meta 49
molecul@@ 49
montanha 49
nesa 49
nestes 49
obses@@ 49
old, 49
ow, 49
performance. 49
plástico 49
positiva. 49
prazo 49
precisa@@ 49
prevenir 49
quil@@ 49
recogni@@ 49
remolque 49
repugn@@ 49
request 49
res. 49
rexi@@ 49
ronse 49
seja 49
sempre. 49
seren@@ 49
sett@@ 49
sharing 49
shoul@@ 49
sintas 49
sistema. 49
sister 49
strength. 49
sín@@ 49
sões 49
tasty 49
tecnoloxías 49
thetic 49
think. 49
tinha 49
tion.""" 49
transmit@@ 49
uncertain@@ 49
visitar 49
volunte@@ 49
wake 49
window@@ 49
úti@@ 49
"CA: 48
"Do 48
"Durante 48
"Per@@ 48
"Que 48
"Todos 48
/a. 48
18 48
300 48
Alzheimer's 48
Estes 48
Honesty 48
Las 48
Perseverance 48
Que@@ 48
Science 48
Senti 48
States 48
Tenho 48
UU. 48
a?" 48
abrir 48
accións 48
actions 48
adapt 48
african@@ 48
ai 48
air. 48
ake 48
alucin@@ 48
ants 48
aprendín 48
aria. 48
arqui@@ 48
as: 48
back, 48
behavior. 48
bloque@@ 48
body, 48
boun@@ 48
cansa@@ 48
carbon@@ 48
casa, 48
castidade 48
cata@@ 48
cerebral 48
cerebro." 48
certa 48
clon@@ 48
commitment 48
compaixón 48
cookies 48
ctu@@ 48
culp@@ 48
dados 48
death@@ 48
depresi@@ 48
dieta 48
dress 48
drive 48
ecemos 48
edades 48
effect 48
ente." 48
eo@@ 48
equal 48
ery 48
et." 48
expec@@ 48
experienced 48
eye 48
facilit@@ 48
failure 48
falla 48
famos@@ 48
flavor. 48
frigideira 48
full@@ 48
g." 48
gg@@ 48
gon@@ 48
guys 48
hipo@@ 48
ilu@@ 48
imple@@ 48
implica 48
intelligence 48
intense 48
it.""" 48
led. 48
lider@@ 48
linguax@@ 48
liz@@ 48
lla@@ 48
logists 48
maintaining 48
marin@@ 48
medo. 48
mist@@ 48
molécula 48
mutu@@ 48
necessary. 48
need. 48
nuestras 48
obstac@@ 48
occa@@ 48
ocul@@ 48
ondas 48
oneself 48
opinions 48
organizar 48
parede 48
pass 48
pensa 48
pensamento 48
pensamentos 48
pesso@@ 48
pover@@ 48
precis@@ 48
pregn@@ 48
premi@@ 48
problema@@ 48
processo 48
promi@@ 48
prosper@@ 48
raise 48
rely 48
respeito 48
rica 48
sali@@ 48
saying, 48
send 48
ses." 48
sle@@ 48
sol. 48
stru@@ 48
supposed 48
sóli@@ 48
taron 48
temperatura 48
tendência 48
ticos. 48
tics. 48
titude. 48
ton, 48
torn@@ 48
train@@ 48
tras@@ 48
técnicas 48
universo 48
vezes, 48
violence 48
wall 48
xusti@@ 48
year@@ 48
zipper 48
zon@@ 48
ára@@ 48
é. 48
íci@@ 48
ísti@@ 48
""You 47
"Lo@@ 47
8, 47
AR@@ 47
Ap@@ 47
Arabi@@ 47
Caviar 47
Dan@@ 47
Eres 47
Essa 47
Esse 47
Fe@@ 47
Patience 47
Poder@@ 47
Quer@@ 47
Then 47
Try 47
aboli@@ 47
about, 47
addres@@ 47
afrontar 47
alar@@ 47
amente. 47
amonton@@ 47
amos." 47
angel 47
anteri@@ 47
aparece 47
apenas 47
apple 47
apreciar 47
aprendendo 47
ary. 47
aument@@ 47
autism 47
biscoitos 47
bó@@ 47
care. 47
científi@@ 47
cina 47
come. 47
communities 47
consist@@ 47
conti@@ 47
continua@@ 47
coração 47
corren@@ 47
célula 47
danos 47
decidín 47
deepest 47
depending 47
depois 47
desmoron@@ 47
detail@@ 47
dimen@@ 47
diu 47
dragóns 47
earli@@ 47
ece@@ 47
enjoying 47
espelho 47
espremedor 47
estalactite 47
esto. 47
fala 47
fantasia 47
fill 47
fli@@ 47
flowers 47
fore@@ 47
ga." 47
grou@@ 47
guide@@ 47
her. 47
him. 47
interesting. 47
ite@@ 47
ito, 47
kill 47
ks, 47
larger 47
law 47
liquidar 47
liter@@ 47
literally 47
lower 47
lé@@ 47
m-@@ 47
main@@ 47
nalgún 47
non?" 47
now@@ 47
ocean 47
outro@@ 47
partner 47
patience 47
pelos 47
pobo@@ 47
posibilidades 47
practic@@ 47
primeiras 47
própri@@ 47
puntos 47
quer 47
reasons 47
recur@@ 47
representa 47
requ@@ 47
respectar 47
say@@ 47
sequ@@ 47
shiver 47
sorpres@@ 47
spar@@ 47
sque@@ 47
stalactite 47
stas. 47
strange 47
stro 47
style 47
suffer@@ 47
surve@@ 47
século 47
tamento 47
tarde. 47
teacher 47
techni@@ 47
teléfon@@ 47
they've 47
ties." 47
titu@@ 47
usamos 47
usti@@ 47
vación 47
vag@@ 47
vaia 47
versión 47
villa@@ 47
víde@@ 47
wine 47
writ@@ 47
written 47
xener@@ 47
xogador 47
ying. 47
zan 47
éri@@ 47
"". 46
""O 46
"Let's 46
"Ou@@ 46
"Porén, 46
4, 46
400 46
Cre@@ 46
Deber@@ 46
Earth 46
Esto 46
Mc@@ 46
Sh@@ 46
Technology 46
Ten 46
abor@@ 46
abun@@ 46
accura@@ 46
acontec@@ 46
acumul@@ 46
acumulação 46
afecta 46
amor. 46
anivers@@ 46
anxiety 46
aumento 46
autismo 46
ba, 46
bac@@ 46
balan@@ 46
biquíni 46
body." 46
bomb@@ 46
bra 46
business. 46
by@@ 46
can. 46
cardí@@ 46
cerebro@@ 46
certainly 46
cida@@ 46
class@@ 46
clock 46
conditions 46
contr@@ 46
country, 46
coura@@ 46
couro 46
coñ@@ 46
deixou 46
diab@@ 46
diet. 46
distancia 46
disto 46
edi@@ 46
embar@@ 46
entendo 46
entra@@ 46
esperan@@ 46
eventos 46
exhaus@@ 46
exper@@ 46
explica@@ 46
f. 46
factor 46
fanta@@ 46
festa. 46
fing@@ 46
fixer@@ 46
forzas 46
frecu@@ 46
féri@@ 46
gla@@ 46
gover@@ 46
hoxe, 46
ignorar 46
illa 46
inglé@@ 46
invi@@ 46
irá 46
ita. 46
itude 46
ição 46
jump@@ 46
lab 46
lay@@ 46
levan@@ 46
lines 46
lives." 46
ll 46
mante@@ 46
mark@@ 46
masco@@ 46
mañá. 46
mesmo, 46
monit@@ 46
obxectivos. 46
parecer 46
patr@@ 46
paz. 46
persist@@ 46
persoal. 46
plane 46
plat@@ 46
poly@@ 46
pos 46
possí@@ 46
posta 46
psychological 46
quickly. 46
real, 46
realejo 46
resid@@ 46
results 46
rápido. 46
sad 46
sail@@ 46
seco 46
sensor 46
señ@@ 46
snow@@ 46
son. 46
story." 46
strong@@ 46
subject 46
suddenly 46
suspen@@ 46
tecnolóxi@@ 46
terra 46
throat 46
tir@@ 46
transla@@ 46
two, 46
ume 46
ust 46
valiosa 46
verán 46
veterin@@ 46
viable 46
vé@@ 46
wearing 46
win 46
zer 46
zi@@ 46
én. 46
ór@@ 46
""A 45
""V@@ 45
"Even 45
"Ou 45
"Sab@@ 45
"We're 45
3, 45
?@@ 45
Bu@@ 45
Fun 45
Ste@@ 45
Supoño 45
Those 45
Water 45
activar 45
added 45
afor@@ 45
agit@@ 45
altamente 45
ana@@ 45
ando, 45
answer. 45
anto 45
anza. 45
arse. 45
attemp@@ 45
axeit@@ 45
balanced 45
before. 45
benef@@ 45
bir 45
birth@@ 45
boss 45
bín 45
cabel@@ 45
cansado 45
castelo 45
castle 45
causing 45
church 45
clothes. 45
compared 45
constante. 45
construction 45
content@@ 45
correcto. 45
cré@@ 45
cultivar 45
cumprir 45
curar 45
deber@@ 45
defensa 45
designed 45
dido 45
dif@@ 45
diversi@@ 45
document@@ 45
dollar@@ 45
doub@@ 45
ds@@ 45
días, 45
end, 45
eno 45
entrevi@@ 45
equipe 45
eria 45
espuma 45
eu, 45
experimenta@@ 45
fel@@ 45
ferro 45
fication 45
fontes 45
frí@@ 45
galho 45
general 45
happ@@ 45
imag@@ 45
incorpor@@ 45
inferi@@ 45
infin@@ 45
interfer@@ 45
iting 45
itos. 45
languages 45
leads 45
light, 45
limpar 45
logy 45
lugar, 45
lying 45
m? 45
manifesta@@ 45
metaph@@ 45
metro@@ 45
microbes 45
modelos 45
molho 45
not, 45
ocupa@@ 45
oito 45
ones. 45
organización 45
ors, 45
outros, 45
parecía 45
pe." 45
peix@@ 45
perpe@@ 45
po. 45
privacy 45
prác@@ 45
puidese 45
receita 45
recompen@@ 45
retro@@ 45
safe@@ 45
scal@@ 45
secret 45
sed, 45
seguen 45
sell 45
sentir@@ 45
shel@@ 45
short@@ 45
situations 45
state@@ 45
strategy 45
superficie 45
surrounded 45
system." 45
tame 45
tching 45
them@@ 45
therap@@ 45
this.""" 45
ths 45
totally 45
toxic 45
trabajo 45
trapézio 45
valued 45
veces. 45
videoxogos 45
violin 45
viu 45
vivo 45
vídeo 45
war 45
wea@@ 45
wha@@ 45
zos. 45
És 45
é: 45
í. 45
óleo 45
""Well, 44
"Era 44
"Par@@ 44
"Às 44
's, 44
14 44
198@@ 44
Algu@@ 44
An 44
Ban@@ 44
Devemos 44
EE@@ 44
English@@ 44
Estas 44
He's 44
Is@@ 44
Make 44
Polo 44
Rus@@ 44
We@@ 44
a""." 44
aberta 44
abili@@ 44
above 44
admire 44
ados." 44
algo. 44
ally." 44
apro@@ 44
armos 44
artísti@@ 44
arán 44
asegur@@ 44
atención. 44
aç@@ 44
barbecue 44
baseada 44
bigger 44
birth 44
blow@@ 44
bodies 44
breath 44
bru@@ 44
cabrito 44
cadea 44
cent 44
challeng@@ 44
chamar 44
chance 44
children's 44
ckers 44
cking 44
classical 44
condición 44
configura@@ 44
consciente 44
corazón. 44
correo 44
counter@@ 44
cámara 44
d: 44
dama@@ 44
dari@@ 44
deni@@ 44
dessert 44
determinación 44
devem 44
difficult, 44
disap@@ 44
disciplin@@ 44
dragão 44
déca@@ 44
email 44
emer@@ 44
empathy 44
ende 44
ended 44
ends 44
estudante 44
fagas 44
famíli@@ 44
farol 44
fire@@ 44
fundamental. 44
gen 44
generate 44
gou 44
gul@@ 44
hate 44
hed 44
him@@ 44
historical 44
impossible 44
improve. 44
industry. 44
infra@@ 44
ing.""" 44
inju@@ 44
inmedi@@ 44
inspired 44
irrit@@ 44
ito." 44
keeping 44
key@@ 44
leather 44
leaving 44
lemente 44
liberar 44
líderes 44
mb 44
mentais 44
mill 44
morning. 44
motivation 44
ms." 44
mudanças 44
mó@@ 44
negoti@@ 44
nova@@ 44
nuestro 44
observar 44
offi@@ 44
pain. 44
pair 44
partici@@ 44
pasado, 44
pencil 44
perform 44
pick 44
ping 44
planet 44
planeta. 44
potenti@@ 44
precise 44
probable 44
produção 44
projetos 44
propiciar 44
purcha@@ 44
quo@@ 44
rapa@@ 44
reason@@ 44
receive 44
recent 44
recomen@@ 44
relaxar 44
reliable 44
requi@@ 44
resolu@@ 44
rise 44
salvar 44
segre@@ 44
siz@@ 44
sorry, 44
stopped 44
studying 44
sugg@@ 44
that@@ 44
ticar 44
tivo." 44
tor, 44
tors. 44
transfer@@ 44
tráfico 44
usan 44
uten@@ 44
utilizar 44
ves@@ 44
walked 44
water, 44
weap@@ 44
window 44
wn 44
working. 44
xefe 44
xogos 44
xén@@ 44
xía 44
yet, 44
zas, 44
ámonos 44
ü@@ 44
"BG: 43
"By 43
"Iso 43
"Nos 43
2. 43
Bri@@ 43
CE@@ 43
Da@@ 43
Dragons 43
Ese 43
Fal@@ 43
Ira 43
Me@@ 43
Now, 43
Sé 43
We've 43
World 43
abondo 43
abordar 43
acer 43
acerca 43
adestra@@ 43
adults 43
alis@@ 43
alle@@ 43
alma. 43
alternative 43
alu@@ 43
amon@@ 43
aproveitar 43
aquel 43
aquí@@ 43
ar? 43
aran 43
as? 43
aspec@@ 43
aurora 43
banho 43
bater 43
benestar 43
bili@@ 43
bore@@ 43
broke 43
bud@@ 43
cancro@@ 43
cante 43
carto@@ 43
cemos 43
churrasco 43
cia." 43
cocin@@ 43
colors 43
competen@@ 43
compromiso 43
comunidade. 43
condition 43
cordo 43
cover@@ 43
creativi@@ 43
cren@@ 43
crow@@ 43
curación 43
cycle 43
dalgún 43
datos. 43
debo 43
defense 43
deixa 43
depends 43
depu@@ 43
desbo@@ 43
descan@@ 43
dessert. 43
diafrag@@ 43
died 43
difíci@@ 43
diminu@@ 43
disease. 43
distra@@ 43
drama@@ 43
día." 43
económico 43
effectiv@@ 43
effor@@ 43
eficiente 43
eleva@@ 43
ench@@ 43
encias. 43
eres 43
ero. 43
events 43
exaggerate 43
facel@@ 43
falling 43
fantásti@@ 43
faz 43
ff@@ 43
figu@@ 43
filme 43
finish 43
fresco 43
function@@ 43
galaxi@@ 43
gente 43
girls 43
graphi@@ 43
grati@@ 43
guide 43
hec@@ 43
height 43
hundred 43
hy 43
individuals 43
indu@@ 43
ingu@@ 43
innovation 43
invent@@ 43
iso@@ 43
issu@@ 43
itas. 43
kitchen 43
levels 43
levou 43
limit 43
local. 43
lonxe 43
macarrão 43
manex@@ 43
manual 43
mini@@ 43
mirr@@ 43
moinho 43
molecule 43
ocorr@@ 43
opera@@ 43
outro. 43
parecen 43
pausa 43
pen 43
petróleo 43
piled 43
planet. 43
policy 43
postos 43
pp@@ 43
prac@@ 43
precisab@@ 43
presente. 43
problema, 43
progress 43
progress. 43
prá@@ 43
público. 43
rain. 43
reduzir 43
remédio 43
resistencia 43
restaur@@ 43
round 43
sacar 43
samos 43
seguin@@ 43
sing. 43
skin. 43
softwar@@ 43
soul. 43
ss 43
stori@@ 43
story, 43
succe@@ 43
surface 43
tamborim 43
teaches 43
televi@@ 43
terrible 43
territ@@ 43
thern 43
tic, 43
tiver@@ 43
track 43
transform 43
utilizados 43
vegeta@@ 43
version 43
verti@@ 43
verán. 43
wisdom 43
worried 43
yoga 43
you.""" 43
zas. 43
ándose 43
ços 43
"Success 42
196@@ 42
Ab@@ 42
Bar@@ 42
Cent@@ 42
Could 42
EE.@@ 42
Fa@@ 42
Follow 42
French 42
Here's 42
Ir@@ 42
Ni@@ 42
Prefiro 42
Todas 42
a.""" 42
ace 42
actions. 42
acudir 42
agor@@ 42
almente. 42
amaz@@ 42
angu@@ 42
anjo 42
antibióti@@ 42
antibióticos 42
ape@@ 42
aspectos 42
axeitado 42
azul@@ 42
battery 42
be." 42
bicicleta 42
book. 42
branco 42
bú@@ 42
camiño. 42
canela 42
career 42
casu@@ 42
center 42
central 42
cho 42
cia, 42
classi@@ 42
cobra 42
colon@@ 42
coment@@ 42
communi@@ 42
conducir 42
correctamente. 42
cousas, 42
cuarto 42
cuestion@@ 42
cuidado 42
dal@@ 42
demonstration 42
dia@@ 42
dicir. 42
dragon 42
dúbi@@ 42
espera 42
espero 42
espor@@ 42
everyday 42
existen 42
falamos 42
fe. 42
feitos 42
fle@@ 42
flight 42
fundament@@ 42
garganta 42
gasol@@ 42
gober@@ 42
hace 42
harmony 42
her, 42
iguana 42
implan@@ 42
importantes. 42
income 42
industry 42
infección 42
influ@@ 42
inmun@@ 42
itamos 42
kil@@ 42
laboratori@@ 42
lent@@ 42
limited 42
mater@@ 42
media. 42
mensa@@ 42
moda 42
more." 42
mundi@@ 42
nerv@@ 42
o""." 42
o) 42
obxectivos 42
original 42
pade@@ 42
padr@@ 42
passed 42
percepción 42
perfor@@ 42
pher@@ 42
piec@@ 42
pil@@ 42
podían 42
predi@@ 42
principi@@ 42
profunda 42
properly 42
proud 42
pti@@ 42
publica@@ 42
quali@@ 42
queri@@ 42
reflexi@@ 42
religious 42
reloxo 42
requer 42
respostas 42
ric 42
rápida 42
sacrifi@@ 42
saudable. 42
secure 42
seguri@@ 42
serve 42
sex 42
sión, 42
slow 42
slowly 42
solid 42
something. 42
stres@@ 42
sucesso 42
superfici@@ 42
t's 42
tampouco 42
teaching 42
televisi@@ 42
tension 42
terse 42
thanks 42
til 42
ting, 42
tomar@@ 42
topic 42
tratamentos 42
turas 42
universe 42
veci@@ 42
vegetari@@ 42
verde 42
vizinhança 42
x, 42
zação 42
án, 42
""Oh, 41
"Dix@@ 41
"Fin@@ 41
"Of 41
"Or 41
"Tamén 41
"Ti@@ 41
Ac@@ 41
Af@@ 41
African 41
Being 41
China, 41
Ci@@ 41
Come@@ 41
Food 41
K, 41
Kan@@ 41
National 41
R 41
Sy@@ 41
Terra 41
Tur@@ 41
Whi@@ 41
abaixo 41
ahondar 41
alon@@ 41
amiza@@ 41
animais. 41
ança 41
aro@@ 41
artifici@@ 41
ated. 41
ato 41
atures 41
bame 41
barre@@ 41
basis 41
beli@@ 41
bet@@ 41
bles, 41
bodi@@ 41
brar 41
brigh@@ 41
c." 41
cally, 41
capital 41
card 41
casa@@ 41
cases 41
change@@ 41
chastity 41
choiva 41
civil 41
clari@@ 41
clearly 41
coher@@ 41
consequences 41
corpo, 41
countries, 41
cular. 41
cál@@ 41
dal 41
damage 41
dar. 41
declar@@ 41
demonstra@@ 41
derra@@ 41
descar@@ 41
descen@@ 41
destru@@ 41
detect 41
devemos 41
dixen: 41
dol@@ 41
elevar 41
enda 41
eness 41
entertain@@ 41
ep 41
erra@@ 41
escoller 41
espinafres 41
essential. 41
estran@@ 41
eventually 41
exact 41
exige 41
expensive 41
faith 41
finan@@ 41
football 41
free@@ 41
frying 41
generation 41
geons 41
glas@@ 41
good. 41
healthcare 41
heiro 41
holi@@ 41
houbo 41
humor 41
hypo@@ 41
idade, 41
important@@ 41
innovative 41
inos 41
instan@@ 41
internacional 41
itan 41
juicer 41
kill@@ 41
lada 41
line. 41
lion 41
longa 41
mark 41
market@@ 41
materiais 41
may@@ 41
mejorar 41
menti@@ 41
mesmas 41
mesmos. 41
metho@@ 41
monta@@ 41
mor 41
ne, 41
near 41
ns. 41
numbers 41
ould 41
oxi@@ 41
p." 41
parar 41
pasta 41
person, 41
planetas 41
planificación 41
poderosa 41
preparados 41
prevención 41
principais 41
proteínas 41
prove@@ 41
quente 41
raised 41
rando 41
recuperación 41
recy@@ 41
red@@ 41
responsibili@@ 41
ries. 41
rú@@ 41
sed." 41
sely 41
sentín 41
servizos 41
silence 41
sinxelo 41
smaller 41
solutions. 41
sores 41
sorte 41
soños. 41
standar@@ 41
student 41
sugges@@ 41
surprised 41
tail@@ 41
taxa 41
tel 41
tely 41
tempos 41
thoughts 41
thro@@ 41
ting." 41
tion? 41
today@@ 41
tol@@ 41
transformar 41
transport 41
travel@@ 41
trepidação 41
udo 41
ug@@ 41
unci@@ 41
vaccin@@ 41
very, 41
vibração 41
visible 41
voi@@ 41
volun@@ 41
winter 41
xel@@ 41
xir@@ 41
your@@ 41
zamos 41
ń@@ 41
"Come@@ 40
"Not 40
)" 40
24 40
75 40
A. 40
Bra@@ 40
CA: 40
Creativity 40
European 40
Expresar 40
Expressing 40
Google 40
I, 40
Institu@@ 40
Já 40
Lev@@ 40
Neces@@ 40
Never 40
Oc@@ 40
Podes 40
Quen 40
U 40
aceler@@ 40
ach 40
algorit@@ 40
algorith@@ 40
aliviar 40
amo 40
anno@@ 40
ansiedade 40
antibiotics 40
anza 40
apply 40
aroma 40
arrived 40
bei@@ 40
bever@@ 40
borracha 40
broken 40
cal. 40
celular 40
certifica@@ 40
challenge. 40
challenges. 40
chan 40
che. 40
ches. 40
chá@@ 40
científica 40
cionais. 40
classic 40
co-@@ 40
cognitive 40
college 40
colo@@ 40
comezan 40
compass 40
comum 40
convinced 40
cuar@@ 40
daughter 40
days, 40
desafí@@ 40
desast@@ 40
descubr@@ 40
detalles 40
diagnosed 40
diagnósti@@ 40
direction 40
do?" 40
doenças 40
durmir 40
educational 40
em. 40
emocionante 40
ena 40
enig@@ 40
ening 40
escolas 40
esquecer 40
etting 40
eyes. 40
familias 40
fashion 40
faun 40
fauno 40
favorita. 40
favorito. 40
feels 40
fell 40
figur@@ 40
filla 40
fotografí@@ 40
future." 40
fáci@@ 40
gados 40
garanti@@ 40
ger. 40
guarantee 40
guess 40
hallucin@@ 40
han 40
handle 40
história 40
horse 40
hour 40
humanos, 40
hydro@@ 40
idad 40
ide 40
igre@@ 40
improvement 40
inar 40
ingredi@@ 40
investment 40
is? 40
iso." 40
isto@@ 40
ked, 40
lavar 40
ld 40
leading 40
leis 40
lembran@@ 40
limi@@ 40
liqueur 40
lixe@@ 40
loita 40
lot. 40
mag@@ 40
magical 40
matri@@ 40
membros 40
men, 40
meter 40
mismo 40
mudan@@ 40
muta@@ 40
mán@@ 40
nada." 40
necesitas 40
ners 40
ness." 40
night, 40
ning, 40
obras 40
obxecto 40
oll@@ 40
overwhel@@ 40
pa, 40
pacífi@@ 40
pantal@@ 40
partes. 40
pasado. 40
pattern 40
phenomen@@ 40
pictu@@ 40
pis@@ 40
plen@@ 40
posibles 40
possi@@ 40
possible." 40
pota@@ 40
power. 40
practicar 40
principio 40
profundi@@ 40
projects 40
proporcion@@ 40
propósito 40
pull 40
r, 40
raio 40
reflect 40
refreshing 40
refuge@@ 40
regener@@ 40
regras 40
regular@@ 40
represen@@ 40
reprodu@@ 40
res, 40
reti@@ 40
reunión 40
rewar@@ 40
rich@@ 40
ruído 40
ry. 40
sand 40
sas. 40
sauce 40
saudable 40
saudável 40
science, 40
sea. 40
segredo 40
session. 40
shin@@ 40
shine 40
side. 40
sido 40
sleep. 40
sophisticated 40
sozin@@ 40
space. 40
sue@@ 40
suffering 40
summer 40
surger@@ 40
tac@@ 40
teen@@ 40
tely. 40
thers 40
though, 40
tradu@@ 40
transport@@ 40
transportar 40
try. 40
turing 40
té 40
vely 40
vexo 40
w, 40
wash 40
we'd 40
women@@ 40
worst 40
wron@@ 40
zz@@ 40
á-@@ 40
árbores 40
ças. 40
""Que 39
"Pode 39
-to-@@ 39
100@@ 39
Ber@@ 39
Breaking 39
CO@@ 39
Chinese 39
Cul@@ 39
Eles 39
Fu@@ 39
Gran@@ 39
Imaxin@@ 39
Jan@@ 39
Mantén 39
Resulta 39
San 39
Sent@@ 39
Taking 39
Time 39
True 39
Vol@@ 39
ables. 39
ada." 39
adores. 39
advanced 39
agradeci@@ 39
alambique 39
als." 39
ambientes 39
amen@@ 39
amiga 39
após 39
arios. 39
arquitec@@ 39
arrepen@@ 39
artistas 39
arvos 39
associ@@ 39
asun@@ 39
atmos@@ 39
autén@@ 39
believ@@ 39
bike 39
birthday 39
brillante 39
camera 39
características 39
carefully 39
cas." 39
cells, 39
certos 39
civili@@ 39
cling 39
colocar 39
compromi@@ 39
conheci@@ 39
conxunto 39
costs 39
count 39
crea 39
crian@@ 39
cs. 39
cuidar 39
cust@@ 39
de-@@ 39
ded. 39
deliver 39
deri@@ 39
desesper@@ 39
desollar 39
diet 39
dificul@@ 39
ding, 39
dishes 39
dle 39
down, 39
dying 39
dyna@@ 39
education. 39
ema@@ 39
employe@@ 39
empresari@@ 39
eno@@ 39
enough. 39
equation 39
es; 39
espi@@ 39
espon@@ 39
estan@@ 39
estoy 39
evit@@ 39
exclusi@@ 39
exemplos 39
experto 39
exteri@@ 39
famous 39
fei@@ 39
fly 39
forward." 39
further 39
ght 39
gl@@ 39
has. 39
held 39
hin@@ 39
ign 39
important, 39
inesper@@ 39
inher@@ 39
inici@@ 39
job@@ 39
kilometers 39
kiss 39
lighthouse 39
liked 39
lock 39
low-@@ 39
malo 39
marketing 39
meses, 39
moment, 39
montan@@ 39
moves 39
movie. 39
mã@@ 39
móbil@@ 39
necesitan 39
ner. 39
nó@@ 39
objects. 39
ofici@@ 39
oportunidades. 39
organ@@ 39
paid 39
país, 39
pel. 39
perdendo 39
personalized 39
perspective. 39
pezas 39
poi@@ 39
pouco, 39
pre-@@ 39
precisar 39
preda@@ 39
preju@@ 39
prezo 39
properly. 39
quick 39
química 39
realidade. 39
recoñecer 39
relaxing 39
rematar 39
remove 39
respost@@ 39
reve@@ 39
robot 39
ros, 39
roupas 39
río 39
sabedes 39
seeking 39
serious@@ 39
set@@ 39
shing 39
sos. 39
sost@@ 39
soño 39
spoke 39
sport@@ 39
stration 39
superi@@ 39
support@@ 39
surprising 39
tado. 39
tanta 39
tante 39
temblar 39
temper@@ 39
ters, 39
tesoura 39
textura 39
til@@ 39
togra@@ 39
tool@@ 39
torno 39
traballamos 39
trailer 39
traveling 39
true. 39
ty." 39
típica 39
vestido 39
vezes 39
viaj@@ 39
victi@@ 39
vó@@ 39
well@@ 39
wood 39
xul@@ 39
yo@@ 39
zeppelin 39
íame 39
ída 39
"Aquí 38
"Estamos 38
"Só 38
00 38
9, 38
Aprendín 38
Art 38
Bon@@ 38
Californi@@ 38
David 38
Gre@@ 38
Imp@@ 38
Learn 38
Mun@@ 38
OK@@ 38
Ren@@ 38
Stu@@ 38
US 38
Washing@@ 38
Wo@@ 38
activities. 38
adiante 38
ame 38
analiz@@ 38
ancest@@ 38
aprender. 38
aprendiza@@ 38
atenção 38
athle@@ 38
atory 38
atrá@@ 38
axe 38
bandoleiro 38
baño 38
bel. 38
blan@@ 38
bolso 38
brilliant 38
caras 38
careful@@ 38
carro 38
carse 38
cat 38
cena 38
certeza 38
certo. 38
chocolate. 38
ción? 38
ck." 38
climático 38
colli@@ 38
color. 38
comigo 38
comprome@@ 38
conmi@@ 38
conscientes 38
content 38
contigo 38
cop@@ 38
coste@@ 38
coñeci@@ 38
cremos 38
cultur@@ 38
debaixo 38
descoberta 38
desexo 38
destapar 38
determination 38
diabet@@ 38
dial 38
dispoñible 38
distance 38
diversity. 38
dom 38
don 38
duro. 38
e: 38
education, 38
ela." 38
electro@@ 38
elev@@ 38
enfrentar 38
escuri@@ 38
esen 38
espe@@ 38
event 38
evolucion@@ 38
expen@@ 38
exposición 38
expression. 38
f, 38
facer." 38
facilmente 38
feminist@@ 38
fera 38
fine 38
fishing 38
fregar 38
futuro." 38
gall@@ 38
gh. 38
girl@@ 38
given@@ 38
haxa 38
historia, 38
historia." 38
house@@ 38
il, 38
impose 38
ina, 38
increased 38
incrible 38
inmedia@@ 38
integr@@ 38
invol@@ 38
iron 38
issues 38
ka 38
ked. 38
lado. 38
landscape 38
lead@@ 38
lha 38
lip@@ 38
loss 38
lóxi@@ 38
majority 38
metal 38
mistak@@ 38
model@@ 38
monkey 38
monu@@ 38
motivo 38
mudança 38
myself, 38
mús@@ 38
nada, 38
naqu@@ 38
nel 38
new. 38
ningu@@ 38
ny 38
ofrec@@ 38
ound 38
ounos 38
ous." 38
ouvi@@ 38
parella 38
parties 38
pastel 38
patter@@ 38
paí@@ 38
perceive 38
perfecta 38
pictures 38
pio 38
plant 38
posibilidade 38
protected 38
próxi@@ 38
queixo 38
quick@@ 38
radio 38
raça 38
refle@@ 38
remote 38
repu@@ 38
responder 38
responsibility. 38
resposta. 38
rexión 38
row 38
satisfactori@@ 38
sci@@ 38
sector 38
seguro. 38
self, 38
semp@@ 38
session 38
sist@@ 38
sitio 38
sity. 38
smoke 38
sna@@ 38
sneak@@ 38
snow 38
social, 38
sorri@@ 38
sorry 38
soños 38
speak@@ 38
spit 38
sty@@ 38
success@@ 38
supor@@ 38
sustenta@@ 38
suéter 38
sweater 38
talento 38
tantes 38
tarta 38
te: 38
tort@@ 38
torta 38
trato 38
tumor@@ 38
tódalas 38
une 38
utiliza@@ 38
vam 38
ved." 38
vehicle 38
veis. 38
ves, 38
viver 38
vu@@ 38
waterfall 38
waves 38
web 38
xemel@@ 38
áis 38
ária 38
çar 38
ómi@@ 38
"And, 37
"Así, 37
"Li@@ 37
"Okay, 37
"Then 37
"We've 37
(Music) 37
5. 37
6. 37
90@@ 37
= 37
Bus@@ 37
Chi@@ 37
Có@@ 37
Desoín 37
Deus 37
Ge@@ 37
Here 37
Jud@@ 37
N 37
Nature 37
Nigeri@@ 37
Nós 37
Perdín 37
Race 37
San@@ 37
Sec@@ 37
Tran@@ 37
Vex@@ 37
a"" 37
aconchego 37
acontece@@ 37
al? 37
algo, 37
alguém 37
amosar 37
anas 37
anil 37
anything. 37
apneia 37
appearance 37
application 37
aprendizaxe. 37
ate, 37
atmosphere 37
ato. 37
ator@@ 37
auti@@ 37
avanzar 37
aves 37
axe@@ 37
ayud@@ 37
beat 37
belief@@ 37
beneficios 37
bility. 37
bles@@ 37
bolsa 37
bowl 37
cancer." 37
carbono 37
chees@@ 37
chegamos 37
chol@@ 37
cidades 37
cinema 37
ciones. 37
circular 37
clini@@ 37
commer@@ 37
communication. 37
como@@ 37
compañía 37
compra 37
comunhão 37
confun@@ 37
conscious@@ 37
corpos 37
cortar 37
cosas 37
cozin@@ 37
craf@@ 37
creativity. 37
crecer 37
dding 37
dead 37
decisións. 37
dedes 37
democracia 37
demás 37
dendo 37
depart@@ 37
ders. 37
desafíos 37
desire 37
did. 37
dificultades 37
difíciles. 37
discriminación 37
disfra@@ 37
divertido. 37
divine 37
dom@@ 37
draw 37
díxen@@ 37
enviar 37
equação 37
ess." 37
est, 37
est." 37
establi@@ 37
exha@@ 37
expectativas 37
experiences 37
experimento 37
external 37
facelo." 37
failu@@ 37
fighting 37
flying 37
forces 37
friends, 37
fácil. 37
garden. 37
gif@@ 37
goal. 37
gravidade 37
gú@@ 37
hand. 37
himself 37
idea." 37
impe@@ 37
impresionante. 37
inclination 37
incre@@ 37
innovación 37
intelligen@@ 37
invented 37
inverno. 37
investir 37
iron@@ 37
ishing 37
join 37
kitchen. 37
language." 37
lei@@ 37
lib@@ 37
lici@@ 37
llas 37
meas@@ 37
measuring 37
menor 37
mine 37
mm@@ 37
moito. 37
momento." 37
morea 37
mosqu@@ 37
neighbors 37
nenos. 37
net 37
non." 37
notice 37
opinións 37
oportunidade. 37
opposite 37
orth 37
orégano 37
osity 37
overcoming 37
parque. 37
partículas 37
pasaría 37
pase@@ 37
pay@@ 37
paying 37
permitir@@ 37
personaliza@@ 37
plea@@ 37
plásti@@ 37
po." 37
poidamos 37
presented 37
problem." 37
profesor 37
pré@@ 37
pública 37
quality. 37
question, 37
rapidamente 37
recently 37
recovery 37
reducing 37
region 37
remain 37
reo 37
rexións 37
road 37
rules 37
rúa 37
s"" 37
sapatilha 37
scale 37
sentirse 37
sible 37
side, 37
simple, 37
snac@@ 37
sofistica@@ 37
solici@@ 37
sos@@ 37
spirit 37
spon@@ 37
spr@@ 37
squ@@ 37
stat@@ 37
sum@@ 37
suppor@@ 37
sustain@@ 37
t?" 37
table, 37
tage 37
tamente. 37
tas." 37
tation. 37
teor@@ 37
ters. 37
tica." 37
tigres 37
tivity. 37
too." 37
trip. 37
truth. 37
understood 37
valent@@ 37
vault 37
vese 37
violino 37
vis@@ 37
wai@@ 37
won 37
world's 37
xas 37
xestionar 37
yes, 37
zo." 37
ándonos 37
áveis. 37
â@@ 37
ância 37
ísi@@ 37
"""You 36
""D@@ 36
""I'm 36
"Tra@@ 36
"Un@@ 36
"X@@ 36
2, 36
Accumulation 36
Brazilian 36
Cam@@ 36
Caminar 36
Cinnamon 36
Deixa 36
Hel@@ 36
Mag@@ 36
Na@@ 36
OK, 36
Ob@@ 36
On@@ 36
Onde 36
Preci@@ 36
Sacri@@ 36
T: 36
Tigers 36
Ton@@ 36
]@@ 36
aborda@@ 36
acompañ@@ 36
acto 36
alas 36
alcançar 36
aled 36
alimento 36
alive. 36
amento. 36
arra@@ 36
ary, 36
así@@ 36
ati@@ 36
através 36
auga, 36
avó 36
away." 36
axiña 36
baiacu 36
bbed 36
begins 36
believed 36
bly 36
bras 36
bridge 36
bunch 36
bússola 36
cambia 36
ceremon@@ 36
cians 36
cidade, 36
cigar@@ 36
coches 36
coidados 36
começ@@ 36
compañeiros 36
consciousness 36
consecu@@ 36
construción 36
contagious. 36
continuar 36
coñecemos 36
cubri@@ 36
cuestións 36
culinária 36
curious 36
customers 36
cómodo 36
cú@@ 36
debes 36
debux@@ 36
delivered 36
demasi@@ 36
dentes. 36
descoñeci@@ 36
destro@@ 36
dign@@ 36
dinosaur@@ 36
disease." 36
dixit@@ 36
dodge 36
dow@@ 36
emergency 36
emocións. 36
encon@@ 36
engine 36
ensaios 36
ental 36
entrecosto 36
escala 36
especiarias 36
estrar 36
excel@@ 36
expertos 36
felici@@ 36
feri@@ 36
finally, 36
first, 36
food, 36
gene@@ 36
gent 36
grandmother 36
ground. 36
guei 36
hawk 36
humanity 36
ids 36
illness 36
imperador 36
importância 36
impression@@ 36
influenci@@ 36
inspire 36
interpon@@ 36
involved. 36
itada. 36
keeps 36
ker@@ 36
leav@@ 36
lesson 36
lica 36
lux@@ 36
malas 36
manequim 36
mannequin 36
mase 36
mast 36
mej@@ 36
mellorar. 36
milli@@ 36
mostly 36
mouse 36
mpre 36
multiple 36
móbil 36
nais 36
nam@@ 36
nat@@ 36
nervous 36
normalmente 36
novo." 36
nuclear 36
obstacles 36
od 36
options. 36
ory 36
os: 36
ounds 36
oy 36
particul@@ 36
pegada 36
planets 36
política. 36
pon 36
precisión 36
preguntá@@ 36
preparado 36
quanti@@ 36
racial 36
rare 36
raridade 36
rato 36
raí@@ 36
reality. 36
recibi@@ 36
relação 36
remos 36
resis@@ 36
responsable 36
risa 36
rowing 36
rup@@ 36
salva@@ 36
sat 36
self-este@@ 36
servizo 36
sia 36
sidade 36
simpli@@ 36
sions. 36
sports. 36
sympto@@ 36
technological 36
temperature 36
tensión 36
term 36
terror@@ 36
testing 36
therapi@@ 36
think@@ 36
threat 36
tie 36
to? 36
together." 36
tolerar 36
traballa 36
trained 36
tren@@ 36
uais 36
um, 36
vast 36
vehi@@ 36
vement 36
versatile 36
veu 36
voste@@ 36
vou@@ 36
warm@@ 36
watched 36
ways. 36
wise 36
words, 36
worse 36
xene 36
you'd 36
á." 36
áde@@ 36
ário 36
ã 36
ía: 36
íde@@ 36
índice 36
” 36
"Estes 35
"Estou 35
"Just 35
%@@ 35
000@@ 35
1,@@ 35
197@@ 35
Ali@@ 35
C, 35
Cal 35
Does 35
EE. 35
Fai 35
Friends 35
Kar@@ 35
South 35
Tal@@ 35
Teñen 35
Tit@@ 35
Tu@@ 35
When 35
Zi@@ 35
abilities. 35
absolute 35
aches 35
ación." 35
acolle@@ 35
adventure. 35
afi@@ 35
ahead 35
aling 35
almacen@@ 35
am, 35
ambiental 35
ano." 35
ans, 35
aplicación 35
approach. 35
apres@@ 35
apresenta@@ 35
apropi@@ 35
ara@@ 35
areia 35
artesan@@ 35
aspect 35
atopei 35
atraer 35
audit@@ 35
avail@@ 35
aventura@@ 35
bag 35
bea@@ 35
bebé 35
beer 35
belon@@ 35
benefit 35
better." 35
bikini 35
blin@@ 35
bo, 35
brazo 35
camer@@ 35
candle 35
care, 35
caso. 35
cei@@ 35
charac@@ 35
chose 35
cilindros 35
citiz@@ 35
cle. 35
clonagem 35
cola@@ 35
collective 35
collemos 35
complexo 35
correctly. 35
corti@@ 35
cuber@@ 35
culture, 35
cén@@ 35
daquela 35
daqui. 35
dea 35
decidir. 35
dense 35
depend 35
destino 35
difíciles 35
dinosau@@ 35
dores, 35
efectiva 35
ellos 35
encoura@@ 35
engineering 35
ense 35
eror 35
escape 35
escur@@ 35
estabilidade 35
estivese 35
estratexia 35
experiencing 35
expert 35
facer, 35
fagan 35
falo 35
fascinante. 35
fici@@ 35
forma. 35
ful." 35
ges. 35
gest@@ 35
ghter@@ 35
glob@@ 35
graphic 35
gráfico 35
habit 35
hard. 35
hen@@ 35
humanidade 35
humano, 35
illnes@@ 35
immedia@@ 35
impoñer 35
improving 35
industrial 35
inste@@ 35
invited 35
ising 35
isola@@ 35
it?" 35
ixo 35
justify 35
learn. 35
lección 35
lexi@@ 35
lic@@ 35
lidade 35
load 35
loitar 35
look. 35
low. 35
lápis 35
match 35
mensaxes 35
mes." 35
mesmo@@ 35
metas 35
mia 35
mim. 35
mobili@@ 35
models 35
mone@@ 35
mostrou 35
movement 35
nada@@ 35
neve 35
nieve 35
normal@@ 35
normas 35
obstácul@@ 35
obstáculos 35
occur@@ 35
oferece 35
offen@@ 35
ome 35
opinion. 35
opportunity. 35
organic 35
orgul@@ 35
orio 35
outdoor 35
oxy@@ 35
perfectly 35
perfu@@ 35
person's 35
pessoa 35
peza 35
pleasant 35
polic@@ 35
poltrona 35
portra@@ 35
possibility 35
precisam 35
preocupar@@ 35
press 35
private 35
probabilidade 35
profesional. 35
profunda@@ 35
progreso 35
provação 35
pru@@ 35
pus@@ 35
puxo 35
rapaza 35
rarity 35
regions 35
resolución 35
reson@@ 35
retain 35
ride 35
right." 35
road@@ 35
romantic 35
sanguíne@@ 35
saú@@ 35
scissors 35
scra@@ 35
seguridade. 35
shining 35
sigue 35
silencio 35
sinal@@ 35
sintonia 35
sociedad 35
solidari@@ 35
sources 35
speech 35
streets 35
sustent@@ 35
tarnos 35
tea 35
temas 35
tempo@@ 35
ten. 35
tense 35
there@@ 35
ti, 35
tious 35
tiva." 35
tiveron 35
tivese 35
triste@@ 35
unexpected 35
v 35
vacin@@ 35
vai@@ 35
viajar 35
view. 35
wat@@ 35
weir@@ 35
well-being. 35
who@@ 35
wild 35
wonder 35
works. 35
xeral 35
ários 35
ífi@@ 35
óli@@ 35
úen 35
"Be@@ 34
"Imaxin@@ 34
"They're 34
"Y@@ 34
"Your 34
3. 34
</i> 34
A." 34
Admiro 34
Agra@@ 34
BG: 34
Castration 34
Char@@ 34
Chil@@ 34
Cloning 34
Fantasy 34
Men@@ 34
RN@@ 34
Religion 34
Remember 34
Ten@@ 34
Than@@ 34
UU@@ 34
Universidade 34
Would 34
aces@@ 34
adoro 34
alli@@ 34
ambient@@ 34
ant." 34
aparencia 34
architec@@ 34
arias 34
artigo 34
artists 34
asunto 34
atenuar 34
atividades 34
audiencia 34
authentic 34
ave@@ 34
avestruces 34
awar@@ 34
axudarte 34
babi@@ 34
bacterial 34
bai@@ 34
basketball 34
beauti@@ 34
before, 34
bicicle@@ 34
bird 34
brus@@ 34
busy 34
cab@@ 34
cadeira 34
caminho 34
característi@@ 34
chama 34
char 34
charge 34
chur@@ 34
cional, 34
city, 34
ciu@@ 34
cliente. 34
clásica 34
coinci@@ 34
completa 34
conf@@ 34
contido 34
cortex@@ 34
costumes 34
coul@@ 34
countries. 34
debu@@ 34
delegate 34
delve 34
describe 34
describes 34
desfrutar 34
dicía 34
dispens@@ 34
display 34
diñeiro. 34
doors 34
e?" 34
edes, 34
efervescência 34
elevação 34
ences. 34
energia 34
enough, 34
enth@@ 34
entusias@@ 34
escoll@@ 34
esquer@@ 34
esquerda 34
estable@@ 34
evolution 34
experiencia. 34
extreme 34
farinha 34
feet 34
final. 34
forest 34
forever. 34
friendly 34
gas. 34
gavião 34
graph@@ 34
guitar@@ 34
guy@@ 34
harder 34
honor 34
illed 34
inflama@@ 34
influir 34
inimi@@ 34
instructions 34
intr@@ 34
istic 34
it? 34
ital 34
ito@@ 34
jac@@ 34
juntos. 34
key. 34
kno@@ 34
know. 34
lasting 34
laws 34
light." 34
literatura 34
magine 34
map 34
materia 34
mind@@ 34
minist@@ 34
nace@@ 34
naturais. 34
nearly 34
net, 34
noctur@@ 34
nos, 34
note 34
números 34
objetivos 34
objetivos. 34
obliga@@ 34
off. 34
oli@@ 34
one-@@ 34
ores, 34
osíxen@@ 34
ou." 34
palabras. 34
paral@@ 34
patients, 34
pecha@@ 34
perio@@ 34
persoas." 34
pet 34
place, 34
planificar 34
pobres 34
pose 34
possibili@@ 34
postura 34
poñía 34
present. 34
princi@@ 34
profission@@ 34
propri@@ 34
protein 34
protexi@@ 34
própria 34
próximos 34
ption 34
queix@@ 34
real. 34
recipes 34
refriger@@ 34
regalo 34
regar@@ 34
report 34
respeto 34
restri@@ 34
resu@@ 34
results. 34
sabi@@ 34
sal 34
saluda@@ 34
sani@@ 34
sauda@@ 34
segur@@ 34
self 34
self@@ 34
sentido. 34
sexas 34
sinta 34
skill. 34
sla@@ 34
smart 34
smoo@@ 34
somewhere 34
sour@@ 34
space, 34
stac@@ 34
sto 34
strategi@@ 34
streng@@ 34
strugg@@ 34
summer. 34
sweetness 34
sé 34
tane@@ 34
tema. 34
ten, 34
teoría 34
tigela 34
tissu@@ 34
tivi@@ 34
tividade. 34
toque 34
town 34
tril@@ 34
turi@@ 34
um. 34
universit@@ 34
usuarios 34
velo@@ 34
verificar 34
virtude 34
vist@@ 34
vo. 34
voice. 34
weren't 34
where, 34
wo 34
wrong. 34
xeitos 34
yellow 34
ãos 34
ém 34
íxen@@ 34
ó. 34
óti@@ 34
única. 34
"Bu@@ 33
"How 33
"However, 33
"Mentres 33
"Podemos 33
"Poder@@ 33
"Pro@@ 33
1. 33
10, 33
4. 33
7. 33
;@@ 33
?] 33
Ao 33
Bur@@ 33
Cacti 33
Cen@@ 33
Communion 33
Customization 33
DN@@ 33
Dar@@ 33
E, 33
Humility 33
Isra@@ 33
Ku@@ 33
Mexi@@ 33
Nada 33
Ori@@ 33
Ostriches 33
P 33
Righ@@ 33
Ti 33
Wealth 33
Well, 33
X 33
a! 33
a-@@ 33
accoun@@ 33
aceite 33
actitud 33
adiante." 33
adventu@@ 33
afetar 33
agarrar 33
aging 33
alg@@ 33
antici@@ 33
appear@@ 33
aprendi@@ 33
arroj@@ 33
así." 33
ather 33
auton@@ 33
azeitonas 33
ações 33
batt@@ 33
bañ@@ 33
blame 33
book, 33
bre 33
buena 33
bá@@ 33
cachoeira 33
cactos 33
calf 33
camiñar 33
can, 33
cancer@@ 33
cancro, 33
cantas 33
case@@ 33
chis@@ 33
choosing 33
chope 33
cir 33
clos@@ 33
coidar 33
colori@@ 33
compassion@@ 33
comunicação 33
conhe@@ 33
connecting 33
control, 33
control." 33
cose 33
coñece 33
crisis 33
cultura. 33
céu 33
data@@ 33
daughter@@ 33
decidiu 33
deep@@ 33
deeply 33
defec@@ 33
dencia 33
derro@@ 33
desi@@ 33
desparra@@ 33
details 33
dias 33
dinner 33
disfru@@ 33
distrac@@ 33
dome 33
doutor@@ 33
doutro 33
doçura 33
duras 33
durmi@@ 33
débe@@ 33
ea 33
effervescence 33
el." 33
elegan@@ 33
else. 33
es?" 33
especiali@@ 33
espectador 33
essence 33
esta. 33
estraté@@ 33
existence 33
expressão 33
extin@@ 33
fabric 33
familia, 33
families 33
fascinated 33
felices 33
festas 33
fole 33
foot 33
fotogra@@ 33
fruits 33
funcionar 33
fur 33
fármacos 33
gado. 33
games. 33
ght. 33
gos@@ 33
grande. 33
guen 33
habili@@ 33
harmoni@@ 33
have, 33
heav@@ 33
herramienta 33
high. 33
ign@@ 33
ille 33
impressive 33
incriblemente 33
infection 33
inse@@ 33
integrar 33
involucra@@ 33
iros. 33
ita, 33
jos 33
judg@@ 33
ken 33
ker 33
las. 33
leite 33
leque 33
levan 33
luz. 33
lã 33
líquido 33
material. 33
matter. 33
mble 33
meaningful 33
mecanismo 33
mentos, 33
merece 33
microbi@@ 33
microsco@@ 33
mim 33
mode@@ 33
molecular 33
molécul@@ 33
montañ@@ 33
months, 33
moon 33
mos: 33
muscle 33
nea. 33
necesitar 33
noite, 33
occi@@ 33
ok 33
oloxía 33
ológi@@ 33
open@@ 33
oportuni@@ 33
oportunidad 33
opti@@ 33
oral 33
organization 33
oso." 33
ouri@@ 33
outon@@ 33
pasando 33
path. 33
peixes 33
películ@@ 33
perci@@ 33
permi@@ 33
pero, 33
picni@@ 33
pipe 33
planet@@ 33
poder. 33
pow@@ 33
prancha 33
precisan 33
preferi@@ 33
prema@@ 33
preso 33
previous 33
profesion@@ 33
propios 33
prove 33
published 33
pública. 33
racis@@ 33
raza 33
receiving 33
recommended 33
refuxiados 33
rehabil@@ 33
resources. 33
rights. 33
rúas 33
sabedes, 33
saborosa. 33
sacrifice 33
sand@@ 33
screw 33
seguros 33
seroton@@ 33
services 33
sexo 33
si. 33
site 33
sivo 33
solicitude 33
solidar@@ 33
son." 33
sono 33
soul@@ 33
spiritual 33
swimming 33
tar, 33
tarde, 33
tecnolo@@ 33
terr@@ 33
testemu@@ 33
than@@ 33
theory 33
through@@ 33
tic." 33
times, 33
tly. 33
to-@@ 33
tolerancia 33
transcen@@ 33
tter@@ 33
ultra@@ 33
uno 33
upda@@ 33
uras 33
valiosa. 33
vec@@ 33
vedes 33
você@@ 33
weak@@ 33
wee@@ 33
week. 33
weigh@@ 33
wri@@ 33
xa@@ 33
xar@@ 33
xeo@@ 33
xerar 33
xunto 33
água. 33
ámi@@ 33
áticos 33
émo@@ 33
ências 33
órg@@ 33
""Por 32
"Estas 32
"Precisamos 32
"Some@@ 32
&amp;@@ 32
Alzheimer@@ 32
Aprende 32
Do@@ 32
El@@ 32
Esper@@ 32
F: 32
God 32
Goli@@ 32
Han@@ 32
Pol@@ 32
Respect 32
Sle@@ 32
Sur@@ 32
US@@ 32
Who 32
achieve@@ 32
activate 32
advantage 32
afron@@ 32
ale, 32
alized 32
alone, 32
alta. 32
amortiguar 32
analizar 32
anc@@ 32
antioxi@@ 32
ança. 32
apor@@ 32
aries 32
arlle 32
arme. 32
arru@@ 32
artistic 32
ascen@@ 32
asen 32
assistir 32
asumir 32
atmospher@@ 32
attract 32
auto-@@ 32
away, 32
axudarche 32
bandido 32
barulho 32
batal@@ 32
bem-@@ 32
bien 32
blac@@ 32
bled 32
body's 32
bombóns 32
bonito 32
bosque 32
boys 32
brand 32
cabeza. 32
cadra@@ 32
canario 32
canary 32
cancer. 32
celul@@ 32
chamar@@ 32
chamá@@ 32
cial. 32
cionado 32
cis@@ 32
clara. 32
cluso 32
coffee. 32
colheitadeira 32
combusti@@ 32
começar 32
conditions. 32
conflict 32
conflitos 32
conseguiu 32
consequences. 32
conve@@ 32
coragem 32
corner 32
crowd 32
cumpri@@ 32
customer@@ 32
cúmpli@@ 32
deba@@ 32
debruçado 32
decidir 32
decorative 32
dedi@@ 32
delegado 32
demi@@ 32
demostración 32
derly 32
descreve 32
describ@@ 32
despo@@ 32
despotismo 32
deter@@ 32
development. 32
di, 32
difficult. 32
discurso 32
dog@@ 32
duración 32
eas@@ 32
edu@@ 32
ego 32
eliminar 32
elétri@@ 32
encontr@@ 32
enriba 32
ent." 32
entende@@ 32
ently, 32
entrada 32
equivoca@@ 32
erros. 32
escondidin@@ 32
esix@@ 32
espec@@ 32
espinha@@ 32
estatísticas 32
estean 32
ethical 32
evalua@@ 32
evento 32
examples 32
exercise. 32
explicar@@ 32
ezo 32
fame 32
family, 32
fear. 32
feed@@ 32
ficar@@ 32
figured 32
fis@@ 32
flow 32
folks 32
for. 32
future, 32
galochas 32
gastron@@ 32
gers 32
gotten 32
grafía 32
grave 32
groun@@ 32
habilidades. 32
hambur@@ 32
hang 32
home." 32
horri@@ 32
idade." 32
idades. 32
importantly, 32
imposible 32
impostor 32
indica 32
infeccións 32
influenciada 32
instin@@ 32
instruc@@ 32
instrucións 32
integração 32
intelligent 32
internal 32
inverno 32
iros, 32
irst 32
ishe@@ 32
ismo. 32
leaders 32
lives, 32
livro 32
lonx@@ 32
magic 32
massa@@ 32
mately 32
matters 32
med. 32
medio@@ 32
mercar 32
mes, 32
metaboli@@ 32
meters 32
metri@@ 32
minimi@@ 32
moito, 32
molo 32
mortalidade 32
multip@@ 32
mán 32
máquin@@ 32
nacional 32
negocio 32
nestas 32
night@@ 32
novas. 32
oficin@@ 32
old. 32
ollos. 32
online. 32
orgáni@@ 32
orial 32
pa. 32
pack@@ 32
pants 32
paradi@@ 32
participar 32
patri@@ 32
pedras 32
perd@@ 32
perseverance. 32
perseveranza 32
pharma@@ 32
pila 32
pill@@ 32
pizza 32
poderoso 32
potenci@@ 32
poucas 32
predicir 32
prefiro 32
presentación 32
probab@@ 32
process, 32
profesionais 32
profundo 32
projects. 32
pró@@ 32
pt 32
quix@@ 32
recipe 32
recordos 32
red, 32
reduci@@ 32
refin@@ 32
reflic@@ 32
relaxar. 32
remedy 32
represents 32
restric@@ 32
rico 32
s?""" 32
sangue 32
say. 32
section 32
serán 32
shop@@ 32
signals 32
simple. 32
sleeping 32
slightly 32
sor 32
sorprendente 32
sorpresa 32
sters 32
suposto 32
surf@@ 32
teatro 32
tenta 32
thir@@ 32
thousand 32
three-@@ 32
tici@@ 32
tien@@ 32
tindo 32
too, 32
touri@@ 32
trabajo. 32
trapezoid 32
trials 32
trouble 32
tt@@ 32
uri@@ 32
vale 32
verdade, 32
viagem 32
vibrating 32
vindo 32
vól@@ 32
vós, 32
ways, 32
well-being 32
women, 32
xe, 32
ya 32
zando 32
ádeme 32
árbor@@ 32
áre@@ 32
árvores 32
âni@@ 32
época 32
ú 32
"Co 31
"Ob@@ 31
"So@@ 31
13 31
50, 31
9. 31
Ax@@ 31
California 31
Chope 31
Chris 31
Christmas 31
Did 31
Están 31
Everyone 31
FDA 31
Fac@@ 31
Fix@@ 31
Freedom 31
Good 31
Healing 31
Hou@@ 31
John 31
Ph@@ 31
Pois 31
Q@@ 31
Qui@@ 31
Rob@@ 31
Stan@@ 31
Tal 31
VI@@ 31
Vou@@ 31
Wa@@ 31
Xulgar 31
a" 31
aban@@ 31
abces@@ 31
abraz@@ 31
activity. 31
acudiu 31
agrada@@ 31
ak 31
alimenta@@ 31
alimentação 31
alo, 31
alternativa 31
amigo. 31
ansioso 31
anxi@@ 31
aplau@@ 31
appearance. 31
aremos 31
arian 31
armchair 31
arrebat@@ 31
artic@@ 31
atraves@@ 31
avaliar 31
away. 31
back." 31
bal 31
balls 31
bebe@@ 31
bei 31
boundari@@ 31
breaking 31
breast 31
cambio. 31
candi@@ 31
cargo 31
cei 31
centur@@ 31
cerebr@@ 31
cha. 31
characteris@@ 31
chegan 31
clasi@@ 31
combater 31
comentarios 31
commun@@ 31
compli@@ 31
conectado 31
confident 31
confron@@ 31
contento 31
contribute 31
credit 31
criaturas 31
cs, 31
currently 31
debate 31
decidi@@ 31
defined 31
delicate 31
delicious. 31
demostra@@ 31
dental 31
dente@@ 31
dep@@ 31
dependencia 31
descendeu 31
descon@@ 31
destruc@@ 31
deva@@ 31
diabetes 31
ding." 31
dio@@ 31
disciplina 31
discovering 31
dispon@@ 31
diversas 31
divertido 31
doenza 31
e's 31
económica 31
elo. 31
employ@@ 31
encaix@@ 31
ency. 31
endo. 31
engadir 31
equitable 31
eraser 31
españ@@ 31
essentially 31
estatísti@@ 31
estiven 31
estratexi@@ 31
eze 31
factors 31
faster 31
fat 31
faul@@ 31
festa? 31
finalmente 31
fixe@@ 31
flavor@@ 31
flour 31
fosen 31
fotografía 31
ft 31
gación 31
gato 31
gem. 31
gift. 31
gle 31
habita@@ 31
hado 31
hair. 31
hands. 31
happening. 31
hipopótamos 31
hob@@ 31
hood. 31
humanas 31
identity. 31
improve@@ 31
increasingly 31
infanti@@ 31
inflamma@@ 31
inspiration. 31
institucións 31
interi@@ 31
inti@@ 31
intimi@@ 31
ira." 31
its. 31
jan@@ 31
je 31
jud@@ 31
jury 31
knowledge. 31
ks." 31
lad@@ 31
lamos 31
lanterna 31
laran@@ 31
later. 31
le: 31
level. 31
lidade. 31
lifesty@@ 31
logro@@ 31
lumin@@ 31
management. 31
manif@@ 31
manufac@@ 31
mapa 31
marabillosa 31
mass 31
master@@ 31
ments." 31
mn 31
motor@@ 31
mous 31
método 31
métri@@ 31
míni@@ 31
naturais 31
nenas 31
non. 31
normal, 31
noticias 31
numer@@ 31
obstáculos. 31
obtain 31
obviously 31
ocor@@ 31
ocuparnos 31
ol. 31
pantalla 31
parte, 31
parties. 31
passion. 31
patience. 31
pense@@ 31
people@@ 31
perm@@ 31
permitas 31
persoa." 31
pesca 31
photo 31
pleasure 31
pob@@ 31
poderemos 31
point. 31
points 31
populares 31
poñemos 31
poñen 31
precious 31
precision 31
preservação 31
prexuí@@ 31
primaver@@ 31
produced 31
prome@@ 31
propa@@ 31
psi@@ 31
pulled 31
purpo@@ 31
pé 31
quece@@ 31
qué@@ 31
radio@@ 31
ramente 31
ree 31
relevant 31
resultou 31
risk. 31
s-@@ 31
sad@@ 31
sadness 31
sangu@@ 31
satura@@ 31
sensação 31
separate 31
set. 31
setting 31
shor@@ 31
sinxela 31
soamente 31
street@@ 31
systems. 31
tada. 31
tade 31
taref@@ 31
tasks 31
temporal 31
tend@@ 31
terceira 31
tests 31
they'll 31
thy 31
tico." 31
tionary 31
tment 31
tradition 31
treating 31
trenó 31
true." 31
ure. 31
vasos 31
verdadeiramente 31
vessel@@ 31
vibr@@ 31
várias 31
weal@@ 31
yourself." 31
zados 31
zas." 31
África 31
ótimo 31
"I've 30
"Penso 30
(Música) 30
7, 30
80@@ 30
</i>@@ 30
America, 30
Change 30
Cleaning 30
Customização 30
Cylinders 30
Despotism 30
K 30
ON@@ 30
Phi@@ 30
Scot@@ 30
Sen 30
Some@@ 30
States, 30
Sugar 30
Teamwork 30
Trust 30
U.S. 30
What's 30
a; 30
ably 30
about. 30
acab@@ 30
acción. 30
acer@@ 30
adecuada 30
adora. 30
afirma@@ 30
aking 30
ales. 30
alo@@ 30
although 30
alto. 30
amazed 30
amosa 30
animals, 30
anti-@@ 30
aqui 30
ash@@ 30
asing 30
ataque 30
atos 30
atro@@ 30
attack 30
aventura. 30
barn 30
bath@@ 30
bear@@ 30
beauty. 30
best. 30
bet 30
boli@@ 30
books. 30
calor 30
campo. 30
candea 30
capace@@ 30
casos, 30
castiçal 30
cate@@ 30
categor@@ 30
caveira 30
cegonhas 30
celeiro 30
change, 30
change." 30
children, 30
chácara 30
ciclo 30
civi@@ 30
claro. 30
cober@@ 30
cola 30
collaboration 30
colleagues 30
compla@@ 30
compras 30
concept 30
condition@@ 30
confianza. 30
conflit@@ 30
consegui@@ 30
construção 30
contempor@@ 30
contexto 30
conut 30
corda 30
countr@@ 30
coñecida 30
crime 30
crânio 30
curiosidade 30
curto 30
dabon@@ 30
dano 30
decreased 30
defender 30
delas 30
descubrimos 30
desentona 30
detección 30
dida 30
dinner. 30
diría 30
discrimination. 30
discutir 30
diso 30
diálogo 30
domes@@ 30
don'@@ 30
doubt 30
drop 30
edo 30
elegant 30
eleph@@ 30
els 30
emotion@@ 30
end. 30
enfrent@@ 30
enormes 30
entra 30
environments. 30
er's 30
estabamos 30
estímul@@ 30
expla@@ 30
extract 30
fab@@ 30
facelo, 30
fairly 30
falar. 30
fami@@ 30
farm 30
fears. 30
fenó@@ 30
first. 30
fish. 30
follas 30
formed 30
geno@@ 30
gos. 30
guía 30
habitación 30
hablar 30
hap@@ 30
happen. 30
healing 30
healthier 30
hes@@ 30
hidden 30
high-quality 30
hó@@ 30
imax@@ 30
incluíndo 30
indigenous 30
inspi@@ 30
intri@@ 30
involves 30
iría 30
k-@@ 30
lamp 30
land, 30
le-@@ 30
leadership 30
lectu@@ 30
led, 30
levamos 30
ley 30
lied 30
lit 30
llos 30
located 30
longer. 30
love, 30
lúa 30
mal, 30
mantener@@ 30
mariju@@ 30
mas, 30
mas." 30
measu@@ 30
mecáni@@ 30
melhores 30
mero 30
meth@@ 30
minutes, 30
miramos 30
mismo. 30
missing 30
mood. 30
morning, 30
mostrando 30
mostras 30
movementos 30
muita 30
mulleres, 30
mystery 30
mági@@ 30
mí. 30
necessarily 30
neural 30
not." 30
novela 30
ns, 30
ní@@ 30
obstacles. 30
od@@ 30
off@@ 30
office. 30
onda 30
ordenador@@ 30
ories 30
others." 30
ously, 30
ovos 30
panturrilha 30
parafuso 30
partner@@ 30
past, 30
past. 30
patterns 30
peac@@ 30
percent@@ 30
photos 30
pobre@@ 30
pocket 30
poes@@ 30
pointed 30
poor@@ 30
pop 30
port 30
possibilities 30
possu@@ 30
pouco. 30
poñer@@ 30
preocup@@ 30
pressu@@ 30
previsão 30
prior@@ 30
priority 30
prison@@ 30
procesos 30
profesional 30
proteína 30
puri@@ 30
pursu@@ 30
push 30
quei@@ 30
quilômetros 30
quisi@@ 30
rada 30
recei@@ 30
recicla@@ 30
record 30
reflection 30
regardless 30
regeneration 30
regeneração 30
regret 30
relacionado 30
rendemento 30
resistance 30
respiración 30
restaurant 30
rexeita@@ 30
rir 30
river 30
road. 30
roider@@ 30
ros." 30
roupa. 30
sabes 30
sala. 30
saltar 30
same, 30
seal 30
security. 30
sets 30
silêncio 30
sobri@@ 30
soccer 30
soli@@ 30
sorts 30
stag@@ 30
statisti@@ 30
status 30
stick 30
studi@@ 30
subir 30
suxi@@ 30
séri@@ 30
súpeto 30
taman@@ 30
technology, 30
technology. 30
tida 30
tion: 30
trabalhos 30
treasure 30
tribu@@ 30
tristeza 30
tumor 30
ventila@@ 30
virtue 30
w. 30
wer@@ 30
whose 30
worldwide@@ 30
xear 30
xir 30
xogue@@ 30
xome 30
ze. 30
zona. 30
¿Qué 30
á-lo 30
ário. 30
ção." 30
éc@@ 30
índo 30
’s 30
""How 29
"Ela 29
"Qu@@ 29
"Today, 29
"Todo 29
17 29
23 29
8. 29
Amo 29
Asomou 29
Ato@@ 29
Boston 29
Bre@@ 29
Brun@@ 29
Choosing 29
DNA, 29
Encender 29
Gran 29
Great 29
Hun@@ 29
Justice 29
Lighting 29
Mou@@ 29
Nothing 29
Pal@@ 29
Perhaps 29
S: 29
Saú@@ 29
Ser 29
Siempre 29
Stre@@ 29
Swe@@ 29
TV@@ 29
Take 29
Tolerance 29
Tor@@ 29
accumul@@ 29
adamente 29
adear 29
advice 29
algo@@ 29
alguien 29
alleviate 29
alo." 29
alty 29
amar 29
ams 29
angústia 29
anos@@ 29
antiga 29
apaixon@@ 29
appar@@ 29
aquilo 29
aring 29
arrenda@@ 29
aspects 29
ately 29
atrapa@@ 29
aul@@ 29
autoridades 29
bad@@ 29
bado 29
bata 29
batería 29
beings 29
bibliote@@ 29
blemente 29
bol 29
brave 29
break. 29
bringing 29
camar@@ 29
canoe 29
case. 29
castra@@ 29
cerebrais 29
childhood 29
chocola@@ 29
chy 29
cif@@ 29
cker 29
clases 29
cociñar 29
coli@@ 29
completo 29
complicado 29
concepto 29
converte@@ 29
convin@@ 29
convér@@ 29
cooki@@ 29
cortex 29
coz@@ 29
creates 29
crumble. 29
cry@@ 29
crystal 29
cycles 29
datos, 29
demonstrate 29
dependendo 29
depender 29
ders, 29
design. 29
destrución 29
di: 29
difficulties 29
difficulty 29
dimin@@ 29
directly 29
diron 29
discoura@@ 29
discrimination 29
disgui@@ 29
diso, 29
disposi@@ 29
dito 29
dobre 29
douro 29
duns 29
dúbida 29
easy, 29
ejerci@@ 29
elaquí 29
eles. 29
empezou 29
era. 29
especies 29
estar. 29
esten@@ 29
estivo 29
están@@ 29
europe@@ 29
evalu@@ 29
evolved 29
excite@@ 29
extraer 29
facerse 29
fainos 29
falan 29
false 29
favori@@ 29
feed 29
file 29
filosof@@ 29
firmeza 29
floor 29
foam 29
frec@@ 29
freedom. 29
frío 29
fór@@ 29
genome 29
global. 29
goat 29
grav@@ 29
heal@@ 29
heat 29
hours. 29
hug 29
humanas. 29
humility 29
iades 29
imaxinación 29
in-@@ 29
inicia@@ 29
injec@@ 29
integral 29
integrate 29
intensi@@ 29
investigadores 29
invisible 29
inxec@@ 29
ista 29
jor@@ 29
juntos 29
leopar@@ 29
less. 29
liquid 29
luz@@ 29
madeira 29
mais. 29
manter@@ 29
marine 29
mary 29
materials 29
mbling 29
medos. 29
mentira 29
messa@@ 29
metro 29
metá@@ 29
midade 29
mientras 29
min." 29
mistake 29
mness 29
mom 29
motion 29
movies 29
much@@ 29
multiplica@@ 29
mundial 29
músicos 29
n'@@ 29
nai@@ 29
nalgúns 29
nar@@ 29
narra@@ 29
negocio. 29
negra 29
negro@@ 29
nenos, 29
ner, 29
nex@@ 29
ney 29
normal." 29
noutros 29
nova. 29
of. 29
older 29
ology 29
orange 29
orixe 29
ought 29
pair@@ 29
palabras, 29
path@@ 29
pelota 29
percibir 29
pescador 29
peti@@ 29
petróle@@ 29
physici@@ 29
plano 29
play. 29
plena 29
poesía 29
político 29
pork 29
porque, 29
posible." 29
position. 29
posí@@ 29
prefrontal 29
presentar 29
preserve 29
preventing 29
programming 29
protexer@@ 29
pufferfish 29
páxin@@ 29
rapidamente. 29
rapidly 29
rates 29
re-@@ 29
reaccion@@ 29
reaching 29
recoñecemento 29
requiren 29
respecto. 29
return 29
risks. 29
rough 29
salvação 29
scent 29
schools 29
seni@@ 29
sentindo 29
sito 29
solution." 29
something, 29
specialized 29
speech@@ 29
spir@@ 29
spre@@ 29
store. 29
story@@ 29
sucede 29
sudden 29
sul@@ 29
tais 29
tantas 29
tarme 29
task. 29
tengo 29
tens 29
tenta@@ 29
terceiro 29
teñas 29
ting@@ 29
topic. 29
topic@@ 29
tradicional 29
tron@@ 29
twice 29
uncover 29
universe. 29
unpredic@@ 29
ura. 29
vacinas 29
vegetarian 29
ven, 29
vermell@@ 29
vinho 29
vio@@ 29
vista. 29
vocabul@@ 29
volver@@ 29
water." 29
wealth 29
wife 29
workers 29
xa. 29
xeral, 29
ye 29
year." 29
Í@@ 29
áronse 29
âmi@@ 29
ância. 29
’@@ 29
""F@@ 28
""We 28
"(Music) 28
"Actually, 28
"From 28
"Oh, 28
"Pois 28
"Pre@@ 28
"Si 28
"Whi@@ 28
150 28
40@@ 28
Africa 28
Agar@@ 28
Ani@@ 28
C. 28
CD@@ 28
DB@@ 28
Desenganchar 28
Ga@@ 28
Identi@@ 28
Jap@@ 28
MI@@ 28
Main@@ 28
Nobel 28
Olives 28
Quiero 28
Rel@@ 28
Running 28
Si, 28
Sor@@ 28
Sorrisos) 28
Soy 28
TE@@ 28
TR@@ 28
The@@ 28
U.@@ 28
Um 28
Well 28
Win@@ 28
You've 28
abaix@@ 28
aby@@ 28
académi@@ 28
acopla@@ 28
actor 28
acústi@@ 28
adelan@@ 28
ademais 28
adic@@ 28
adjust 28
advoca@@ 28
afterno@@ 28
ages. 28
aggres@@ 28
agresi@@ 28
agrí@@ 28
alizada 28
alzhéimer 28
alí, 28
andar 28
ando." 28
antí@@ 28
apologi@@ 28
aprendemos 28
aquí." 28
ares, 28
arma 28
arteri@@ 28
asegu@@ 28
asegurarnos 28
aspira@@ 28
aster 28
ators 28
aving 28
avoa 28
axi@@ 28
azucre 28
ba." 28
baixar 28
baixo. 28
bble 28
beating 28
behavior." 28
bes@@ 28
billi@@ 28
biombo 28
boca 28
bound 28
brasile@@ 28
brok@@ 28
brow@@ 28
caer 28
café. 28
calidad 28
campos 28
can." 28
cancel@@ 28
canoa 28
causas 28
challen@@ 28
changes. 28
chemistry 28
choice. 28
cities 28
claro, 28
clothing 28
co: 28
coci@@ 28
cociña. 28
combination 28
common@@ 28
complexos 28
comunicación. 28
confes@@ 28
confiança 28
conflito 28
consel@@ 28
consumption 28
convenient 28
conversations 28
converter 28
coñecín 28
crani@@ 28
craz@@ 28
criti@@ 28
cuesti@@ 28
culturais 28
cultures 28
cuse 28
cía 28
círculo 28
cúti@@ 28
data, 28
decoration 28
decoração 28
dejar 28
dela. 28
demo@@ 28
denomin@@ 28
desgraza, 28
destruction 28
devorador 28
diabóli@@ 28
dicin@@ 28
dies 28
different. 28
difíce@@ 28
dimension@@ 28
dinossaur@@ 28
directamente 28
discoun@@ 28
discuss 28
dise@@ 28
diseas@@ 28
disfarce 28
disinfec@@ 28
dispoñi@@ 28
do/a. 28
doc@@ 28
doutras 28
down." 28
driver@@ 28
dubi@@ 28
effort. 28
embarras@@ 28
embrace 28
empat@@ 28
empati@@ 28
enciar 28
enos 28
ensaio 28
ensal@@ 28
environment, 28
equival@@ 28
erra 28
esencia 28
essen@@ 28
estal@@ 28
estavam 28
ety 28
exaxerar 28
expectan@@ 28
expectations 28
experts 28
explosi@@ 28
failure. 28
faría 28
fasti@@ 28
father@@ 28
fillos. 28
film 28
folhas 28
fulfilling 28
funer@@ 28
galladas) 28
gas@@ 28
ghter 28
grown 28
gustaríame 28
ha, 28
habil@@ 28
harvester 28
he/she 28
hidra@@ 28
hip@@ 28
honesty 28
hope@@ 28
horas. 28
ight. 28
imagination 28
impedir 28
information, 28
ingly 28
ingresos 28
inovação 28
insur@@ 28
interesantes 28
introver@@ 28
investimentos 28
ister 28
laboratorio, 28
lay 28
lenço 28
letter 28
lexislación 28
licar 28
lin 28
ling. 28
lix@@ 28
mado 28
maior@@ 28
manera 28
many, 28
maravil@@ 28
marihuana 28
marri@@ 28
mascul@@ 28
men. 28
mesa. 28
metáfor@@ 28
minute 28
motorcycle 28
mountains. 28
mov@@ 28
na. 28
nari@@ 28
net. 28
neur@@ 28
news@@ 28
novel@@ 28
o?" 28
observa@@ 28
ofen@@ 28
on? 28
onal@@ 28
organi@@ 28
osa, 28
painting 28
pase 28
passar 28
patent 28
ped 28
pending 28
penici@@ 28
permit@@ 28
permí@@ 28
persoa, 28
persona 28
pling 28
poco 28
políticos 28
pombos 28
possibilities. 28
pressure. 28
profesores 28
provi@@ 28
provided 28
pump@@ 28
quis@@ 28
radical 28
rar. 28
ras." 28
razo@@ 28
reacción 28
real." 28
recoñec@@ 28
refor@@ 28
refugees 28
rehusar 28
relation 28
relationship@@ 28
relaxante. 28
relaxed 28
relieve 28
rende@@ 28
repor@@ 28
resour@@ 28
responsá@@ 28
restaurante 28
reto 28
román@@ 28
rátase 28
saudável. 28
scrat@@ 28
sección 28
seguimos 28
self. 28
self." 28
senso 28
sente 28
sermos 28
shine. 28
ships 28
shoes. 28
sieve 28
signifi@@ 28
significan@@ 28
sión." 28
sociedades 28
soil 28
someone's 28
sono. 28
spectacular 28
spilled 28
spira@@ 28
statistics 28
sticer@@ 28
sto, 28
stressful 28
suf@@ 28
suffer 28
suffici@@ 28
supp@@ 28
support. 28
survive 28
suscep@@ 28
symboli@@ 28
sécul@@ 28
tecnologia 28
teeth 28
tered 28
text 28
theater 28
threw 28
throw 28
ticas, 28
trapped 28
trauma 28
u." 28
unir 28
vela 28
vergo@@ 28
veter@@ 28
vi 28
visto 28
vivo. 28
vizinhos 28
vola@@ 28
vos. 28
weekend. 28
whenever 28
whom 28
ws 28
xac@@ 28
xente." 28
xé@@ 28
xéner@@ 28
zamento 28
émolo 28
"Estaba 27
"He's 27
"Neste 27
"Once 27
"You're 27
(Aplauso) 27
-free 27
27 27
800 27
:@@ 27
AS@@ 27
Algunhas 27
Australi@@ 27
Bel@@ 27
Canad@@ 27
Chica@@ 27
Cho@@ 27
Coração 27
Decidín 27
Earth. 27
Emb@@ 27
Empathy 27
Facebook 27
God, 27
HI@@ 27
Japanese 27
Jas@@ 27
Joe 27
Ju@@ 27
Just 27
MR@@ 27
Mad@@ 27
Mal@@ 27
Most 27
Máis 27
Mé@@ 27
Ninguén 27
Parí@@ 27
Perci@@ 27
Port@@ 27
Simp@@ 27
Social 27
Spitting 27
University 27
Vide@@ 27
Wi@@ 27
abilidade 27
abo@@ 27
abra@@ 27
abstrac@@ 27
acaba 27
achie@@ 27
addi@@ 27
adolescent@@ 27
after@@ 27
afternoon. 27
agora." 27
agrade@@ 27
agricultural 27
al-@@ 27
algun@@ 27
alive 27
alzhéimer@@ 27
anaco 27
ance, 27
animado 27
anybody 27
aplicar 27
apon@@ 27
appear 27
argument 27
ario." 27
arm@@ 27
arriba 27
arrincon@@ 27
asasin@@ 27
assault 27
aston@@ 27
ate@@ 27
atopou 27
atura 27
aumenta 27
avoiding 27
aí, 27
bbing 27
bese 27
bia 27
bioloxía 27
botto@@ 27
buen 27
busines@@ 27
calidade. 27
camaleão 27
candlestick 27
carta 27
challenging 27
character@@ 27
che." 27
chão 27
ciclos 27
cimento 27
cios 27
cirurxi@@ 27
cks. 27
claim 27
claramente 27
clients 27
clumsy 27
clássi@@ 27
coco 27
colors. 27
comfortable. 27
community, 27
compañeiro 27
competición 27
conforto 27
confortá@@ 27
consequ@@ 27
contrario 27
conversation. 27
cozinhar 27
cre 27
cream 27
criticis@@ 27
crucial. 27
cuali@@ 27
cultivate 27
cursos 27
custo 27
cy, 27
darlles 27
data. 27
dd@@ 27
democracy 27
dentemente 27
dependence 27
desco@@ 27
desinfec@@ 27
dest 27
determination. 27
dialo@@ 27
dicindo 27
dificulta@@ 27
dimensional 27
dindo 27
dirixi@@ 27
dit@@ 27
dixen 27
dixer@@ 27
dixeron 27
dous, 27
drew 27
drinking 27
ears 27
edge 27
embaraz@@ 27
empregados 27
encender 27
ensina 27
entos 27
enví@@ 27
ere@@ 27
escán@@ 27
estalo 27
estrutu@@ 27
eu. 27
evidencia 27
exercises 27
exhibi@@ 27
exi@@ 27
exit@@ 27
extraordinary 27
ey 27
factor@@ 27
fear@@ 27
flexible 27
followed 27
forced 27
fountain 27
frecuencia 27
frotar 27
fuel 27
funciona. 27
funcionan 27
futuro, 27
físico. 27
ged. 27
good." 27
hard@@ 27
hasn't 27
hat's 27
hearing 27
hearts 27
hibi@@ 27
highest 27
him." 27
hippocamp@@ 27
horiz@@ 27
husband 27
ideas." 27
igreja 27
iling 27
ils 27
important." 27
inclin@@ 27
incompar@@ 27
incu@@ 27
indicate 27
infer@@ 27
interesado 27
interpersonal 27
iro." 27
itable 27
ja. 27
ke." 27
kin 27
labi@@ 27
lado, 27
late. 27
laughter 27
liquor 27
locais 27
m.""" 27
magne@@ 27
mais, 27
makeup 27
malos 27
mar, 27
media, 27
meeting. 27
members 27
menos, 27
metas. 27
mics 27
millón 27
miñ@@ 27
miú@@ 27
moderna. 27
moments. 27
mood 27
morre@@ 27
myster@@ 27
mysterious 27
mático 27
mú@@ 27
múlti@@ 27
nena 27
none 27
norm@@ 27
ocorre@@ 27
océano 27
of, 27
offered 27
oficina 27
opinión. 27
oste@@ 27
outros." 27
palav@@ 27
passionate 27
pavio 27
países. 27
peculi@@ 27
peneira 27
perfe@@ 27
perseverance 27
personality. 27
pesquis@@ 27
pheri@@ 27
phone. 27
photograph 27
pie 27
possibly 27
prestar 27
principios 27
prioridade 27
privi@@ 27
problema." 27
procura@@ 27
promover 27
proof 27
protecting 27
proteins 27
proxectos 27
quedan 27
quedar 27
queira 27
queira@@ 27
quente. 27
quiet 27
quilo 27
reach@@ 27
react 27
recibín 27
recognized 27
recommend 27
redi@@ 27
relaxing. 27
remarkable 27
remédios 27
reproduc@@ 27
research, 27
researchers 27
responsab@@ 27
rindas 27
rique@@ 27
rita@@ 27
robo@@ 27
roll@@ 27
room." 27
rápido, 27
sacrifici@@ 27
san 27
sav@@ 27
scared 27
schedule 27
sear@@ 27
searching 27
sive. 27
sleep@@ 27
sos, 27
sospe@@ 27
sponge 27
stood 27
stream 27
sudden@@ 27
superior 27
supón 27
surfac@@ 27
surgery 27
survival 27
swit@@ 27
tarxeta 27
teachers 27
thought. 27
ticas." 27
ticos, 27
today." 27
tomamos 27
toume 27
traballo." 27
trac@@ 27
transmiti@@ 27
trial 27
triste 27
tropical 27
truck 27
tul@@ 27
unir@@ 27
universo. 27
vacacións 27
val. 27
vas@@ 27
vidas." 27
videoxog@@ 27
viron 27
virtue. 27
visão 27
voz. 27
vías 27
winter. 27
xan@@ 27
xig@@ 27
xuíz 27
ymous 27
zu@@ 27
ándolles 27
í, 27
ían@@ 27
ños. 27
ório 27
úa 27
"""The 26
""the 26
"Instead 26
"Si, 26
"Well 26
$@@ 26
5." 26
</i>, 26
AC@@ 26
AL@@ 26
AP@@ 26
América 26
At 26
Birds 26
CR@@ 26
Cab@@ 26
Cas@@ 26
Diver@@ 26
Du@@ 26
EU@@ 26
Esco@@ 26
He/she 26
Hip@@ 26
IA 26
India 26
Juli@@ 26
Leg@@ 26
Lou@@ 26
M 26
Myri@@ 26
Nin 26
Ouviase 26
Podería 26
Por@@ 26
Prefiero 26
Rain 26
Roman 26
Ros@@ 26
Sou@@ 26
Spe@@ 26
Ver@@ 26
Will 26
administra@@ 26
advanta@@ 26
again@@ 26
alcance 26
alimentación 26
ality, 26
altas 26
alumbrar 26
amansar 26
amazing. 26
ambienta@@ 26
amor, 26
ania 26
announ@@ 26
ansie@@ 26
anten@@ 26
anunci@@ 26
anxiety. 26
apla@@ 26
aproveit@@ 26
asy@@ 26
atender 26
ató@@ 26
awa@@ 26
awkward 26
balance. 26
ball. 26
baloncesto 26
bene@@ 26
bens 26
bi 26
biology 26
brillar 26
bé@@ 26
caballo 26
cable 26
caf@@ 26
camping 26
cardiovascular 26
carniça 26
carrying 26
cases, 26
catador 26
causou 26
ced. 26
cegonha 26
celebration 26
cell, 26
certe@@ 26
choices 26
ciencia, 26
clínica 26
coastal 26
combat 26
comezando 26
comezaron 26
comigo. 26
commonly 26
competition 26
compoñ@@ 26
comun@@ 26
configu@@ 26
contemp@@ 26
context 26
controla@@ 26
cooperación 26
coral 26
corpo." 26
coxin@@ 26
coñecido 26
creamos 26
cristal 26
criteri@@ 26
crun@@ 26
crítica 26
cultural. 26
custos 26
cutting 26
daf-@@ 26
dedication 26
defend 26
dele 26
deles. 26
dema@@ 26
depression, 26
desafío 26
descuber@@ 26
desfiladeiro 26
después 26
detall@@ 26
detection 26
dge 26
dignidade 26
dispositivos 26
dispoñibles 26
doado 26
doiro 26
doutros 26
dy. 26
década 26
díxome: 26
economy. 26
edificios 26
efectiva. 26
efforts 26
egoí@@ 26
eliness 26
elixir 26
ello 26
ely. 26
emoções 26
empregar 26
emprego 26
empty 26
entirely 26
envelle@@ 26
er-@@ 26
era, 26
ergu@@ 26
ering. 26
espazos 26
esponxa 26
espéci@@ 26
esqui@@ 26
estratégia 26
eta 26
etapa 26
etc." 26
evo@@ 26
examin@@ 26
except 26
expand 26
experienc@@ 26
experimen@@ 26
explan@@ 26
exposure 26
extremadamente 26
facão 26
fantas@@ 26
fará 26
feelings. 26
female 26
finais 26
fisherman 26
flash@@ 26
foli@@ 26
fomos 26
foram 26
forgot 26
fortes 26
forza. 26
fos@@ 26
fracas@@ 26
friendship 26
frighten@@ 26
froitas 26
funny 26
gather@@ 26
geometri@@ 26
gil@@ 26
go? 26
gobernos 26
gost@@ 26
graves 26
grupo. 26
grãos 26
gy 26
hardware 26
hat@@ 26
head, 26
hecer 26
herir 26
hipó@@ 26
humanidade. 26
humanity. 26
imprevi@@ 26
increí@@ 26
inequ@@ 26
inevit@@ 26
inha 26
inspira 26
inspiración. 26
inspiração 26
instance, 26
institutions 26
insult 26
introspec@@ 26
investigar 26
islation 26
itali@@ 26
iu 26
job, 26
jui@@ 26
jump 26
justificar 26
ked." 26
kids, 26
largo 26
lemon 26
ler. 26
levaba 26
levo 26
liñas 26
machete 26
madure@@ 26
magi@@ 26
mantener 26
maron 26
mazá 26
meant 26
measurement 26
mellor, 26
mergul@@ 26
metal@@ 26
moleta 26
montón 26
mortality 26
mother. 26
much, 26
mundo@@ 26
máquinas 26
máximo. 26
nas@@ 26
necessidades 26
negó@@ 26
ning." 26
normal. 26
nos." 26
noticia 26
obvious 26
officer 26
offici@@ 26
og@@ 26
olox@@ 26
om@@ 26
on: 26
opened 26
orde 26
organ 26
orgulloso 26
palm 26
participate 26
particular, 26
pasamos 26
pasan 26
pasear 26
películas 26
pensar. 26
perder@@ 26
performing 26
permanec@@ 26
permitirnos 26
persoais. 26
personal. 26
pessoal. 26
physically 26
ping@@ 26
pintura 26
pizza. 26
please 26
plena. 26
pois 26
population. 26
poño 26
pper@@ 26
pra 26
precau@@ 26
precisas 26
presentou 26
presid@@ 26
prever 26
probabili@@ 26
proceso. 26
propósit@@ 26
prosperi@@ 26
psico@@ 26
pue@@ 26
pú@@ 26
públicas 26
q@@ 26
questão 26
rais. 26
rarme 26
raron 26
rarse 26
ras, 26
raw 26
realidade." 26
rebote 26
recordar 26
relacionadas 26
relación. 26
relat@@ 26
religion 26
reminder 26
resist 26
resource 26
respectful 26
responsables 26
resultados. 26
risco. 26
rock. 26
rural 26
sagra@@ 26
sair 26
saúde, 26
sculp@@ 26
seguindo 26
semella 26
sensor@@ 26
sentence 26
sentía 26
severe 26
shock 26
sili@@ 26
sive, 26
smo 26
solicitu@@ 26
sound. 26
species. 26
spice 26
sport 26
stair@@ 26
sticks 26
stored 26
street. 26
strengthen 26
stret@@ 26
sts. 26
studied 26
sufrir 26
supervivencia 26
surrounding 26
sínto@@ 26
tail 26
talent 26
targe@@ 26
taste. 26
terapeu@@ 26
tested 26
texture. 26
theme 26
thou@@ 26
three, 26
tissue 26
tiñ@@ 26
too@@ 26
traballan 26
tranquilo 26
tratando 26
tros 26
tual 26
un. 26
unidade 26
urx@@ 26
usos 26
utili@@ 26
utiliza 26
ved, 26
verb@@ 26
verdadeiros 26
vita@@ 26
vivimos 26
voar 26
vosas 26
widely 26
worn 26
xil@@ 26
xuntos, 26
you? 26
yourself, 26
zer@@ 26
ác@@ 26
áli@@ 26
ático 26
áto@@ 26
évete 26
ñan 26
óxen@@ 26
últi@@ 26
"Di@@ 25
"Está 25
"His 25
"Hoxe 25
"Instead, 25
"Maybe 25
"Most 25
"Sabemos 25
"Segun@@ 25
"Sin@@ 25
"Ten 25
"que 25
10,000 25
25@@ 25
35 25
:" 25
Age 25
Ander@@ 25
Apple 25
Collaboration 25
Contro@@ 25
D, 25
Despois 25
Eng@@ 25
Francis@@ 25
Fue 25
Había 25
He/She 25
Hig@@ 25
Hol@@ 25
James 25
Ken@@ 25
Lag@@ 25
Lau@@ 25
Matur@@ 25
Poden 25
Prin@@ 25
Qué 25
R, 25
Rubi 25
Salvation 25
Shakespe@@ 25
Sin@@ 25
So, 25
Stor@@ 25
Tex@@ 25
Tru@@ 25
Val@@ 25
Wal@@ 25
abrazo 25
abstra@@ 25
accesi@@ 25
accidente 25
accurate 25
acións. 25
acompan@@ 25
acordo. 25
actual. 25
adamente. 25
adult 25
agrião 25
alcoholic 25
alegria 25
alguns 25
amable 25
amilo@@ 25
amounts 25
amylo@@ 25
another. 25
answer." 25
anyone. 25
aparición 25
apli@@ 25
apoy@@ 25
appropri@@ 25
aprenden 25
argue 25
arias. 25
arris@@ 25
asegurar 25
auten@@ 25
autoestima 25
avam 25
axudalo 25
azuis 25
ba. 25
baba 25
bacteria, 25
balón 25
basicamente 25
bear 25
before." 25
behin@@ 25
beneficial 25
bolero 25
bolo 25
bottle 25
brid@@ 25
bus 25
cachimbo 25
cambiando 25
cans 25
canta 25
cara. 25
carne@@ 25
caron 25
carte@@ 25
casti@@ 25
cendo 25
chain 25
chair@@ 25
chameleon 25
characters 25
chew 25
child, 25
chimp@@ 25
chimpanze@@ 25
chment 25
churras@@ 25
científica@@ 25
científico 25
cima 25
cipoal 25
circunstan@@ 25
cirur@@ 25
cirurxía 25
cks, 25
cle, 25
clients. 25
climb@@ 25
climbing 25
cold. 25
colleagu@@ 25
combine 25
compan@@ 25
compañei@@ 25
compres@@ 25
conce@@ 25
concentrate 25
concern 25
concerned 25
concert 25
condition, 25
conviv@@ 25
cores. 25
correcto 25
coxinhas 25
creatividade. 25
crece@@ 25
cross 25
cup 25
cup@@ 25
cushion 25
custo@@ 25
cáli@@ 25
cân@@ 25
dawn 25
dealing 25
debili@@ 25
decoración 25
decrease 25
ded, 25
dedicación 25
den, 25
denci@@ 25
departamento 25
desajeitado 25
desatar 25
descanso 25
described 25
deslumbrante. 25
detailed 25
detector 25
determined 25
diferente." 25
discre@@ 25
diseño 25
distingu@@ 25
diversos 25
divertida 25
dollar 25
domésti@@ 25
drives 25
earn 25
earth@@ 25
easy. 25
ech@@ 25
ecía 25
educación. 25
efficiency 25
eficaz 25
eime 25
elas. 25
encontrado 25
encán@@ 25
enni@@ 25
ensai@@ 25
enseñ@@ 25
enterrar 25
envellece@@ 25
epidemia 25
erto 25
escalada 25
escon@@ 25
espaço 25
espectáculo 25
específica@@ 25
estudi@@ 25
everything, 25
exciting. 25
exist 25
existence. 25
experience." 25
expl@@ 25
expressing 25
falar, 25
farmacé@@ 25
fic@@ 25
fiel 25
field. 25
figh@@ 25
fin, 25
flas@@ 25
flowers. 25
foreign 25
forman 25
funn@@ 25
fárma@@ 25
gada. 25
gas, 25
gation 25
gañou 25
gdal@@ 25
gia 25
gn@@ 25
good, 25
gras@@ 25
ground, 25
hada 25
harm 25
heard. 25
heigh@@ 25
heroes 25
hope. 25
horrible 25
humble 25
inclusion 25
incómo@@ 25
infantil 25
ingredientes 25
ins. 25
instrumentos 25
integridade 25
intención 25
interacción 25
interface 25
investimento 25
invisi@@ 25
invite 25
iran@@ 25
iring 25
issue. 25
itado. 25
ixa 25
jogo 25
joy. 25
king." 25
labor 25
lanter@@ 25
legi@@ 25
leve 25
like. 25
lingüísti@@ 25
litt@@ 25
los. 25
loving 25
luces 25
lâmpada 25
líder 25
magia 25
masa 25
medicine. 25
mellor." 25
menci@@ 25
meno 25
midd@@ 25
milk 25
milleiros 25
miner@@ 25
mira 25
mirada 25
mirando 25
miser@@ 25
mobilidade 25
monitor 25
morrer 25
mostrar@@ 25
music, 25
máis@@ 25
máximo 25
médica 25
na, 25
necesario. 25
necesarios 25
necessidade 25
nisto 25
noites 25
notas 25
nove 25
ofrece 25
ofrecer@@ 25
omb@@ 25
onal 25
opción. 25
opinions. 25
organizacións 25
organization. 25
origem 25
pace 25
paga 25
paisaxe 25
pani@@ 25
pantas@@ 25
para@@ 25
pareza 25
party? 25
pasei 25
past@@ 25
paxaros 25
pel, 25
pene@@ 25
pensades 25
pensar@@ 25
percent." 25
perdas 25
perdo@@ 25
perigo 25
permiten 25
petro@@ 25
place." 25
plataforma 25
plays 25
poetry 25
ponto 25
pouca 25
pregunta@@ 25
presentes 25
presença 25
problems." 25
profesor@@ 25
professor 25
programs 25
projeto. 25
propos@@ 25
proteín@@ 25
provoca@@ 25
psycholog@@ 25
páxina 25
pés 25
quedar@@ 25
queima@@ 25
queles 25
querer 25
quit@@ 25
rados 25
ratos 25
realis@@ 25
realistic 25
receptor 25
recomenda@@ 25
recurso 25
released 25
remedi@@ 25
repair 25
rer 25
resolve 25
rest. 25
retra@@ 25
rexist@@ 25
rosa 25
rose 25
routine 25
sangrar 25
sase 25
scare 25
sea@@ 25
selv@@ 25
semanas. 25
sever@@ 25
sharp 25
shoo@@ 25
sight 25
sodes 25
soidade 25
somehow 25
son: 25
sors 25
special. 25
squirre@@ 25
stem 25
stock 25
strongly 25
style. 25
sujetar 25
sun. 25
sw@@ 25
taban 25
table@@ 25
tam 25
tast@@ 25
teams 25
tente 25
terá 25
test. 25
themselves, 25
themselves. 25
therefore 25
thesis 25
they'd 25
times." 25
titudes 25
tone 25
tooth@@ 25
tradición 25
traffi@@ 25
trastornos 25
tres@@ 25
triste. 25
triun@@ 25
trump@@ 25
tubercul@@ 25
typically 25
tén@@ 25
tío 25
umb@@ 25
unciar 25
univers@@ 25
ur 25
usadas 25
usão 25
vado 25
valorar 25
values. 25
vas. 25
vella 25
ventu@@ 25
venu@@ 25
verdade." 25
vez." 25
vez@@ 25
vostede 25
vín 25
want. 25
women. 25
y?" 25
youn@@ 25
yp@@ 25
ári@@ 25
çã@@ 25
émonos 25
ías. 25
ímos 25
óis 25
óxido 25
""C@@ 24
""Why 24
"Algúns 24
"Debemos 24
"Foi 24
%." 24
-up 24
1.@@ 24
60@@ 24
ADN, 24
Americans 24
Asegúrate 24
Bill 24
Care@@ 24
Chri@@ 24
Comecei 24
Contin@@ 24
Custo@@ 24
Déixame 24
EC@@ 24
Ear@@ 24
FOXO 24
Failure 24
Gal@@ 24
Give 24
Goog@@ 24
Gratitude 24
H 24
HIV 24
Hallo@@ 24
Havia 24
Hist@@ 24
IS@@ 24
Lin@@ 24
Mel@@ 24
Micha@@ 24
Na 24
Ocupar 24
Queremos 24
Robert 24
Sha@@ 24
Sil@@ 24
Spanish 24
Telesco@@ 24
Think 24
Vaccin@@ 24
aba. 24
abandono 24
abelhas 24
abrai@@ 24
abu@@ 24
acabar 24
acceder 24
account. 24
acous@@ 24
acti@@ 24
adas, 24
additional 24
advertis@@ 24
agitada 24
ago." 24
ah@@ 24
alimentos. 24
aller@@ 24
altitude 24
alum@@ 24
am." 24
analysi@@ 24
anist@@ 24
ansiedade. 24
ant, 24
aphragmatic 24
apoiar 24
apost@@ 24
asal@@ 24
atercress 24
attention, 24
aula 24
authorities 24
ayudar 24
aín@@ 24
bank 24
barbecu@@ 24
beber 24
below 24
billions 24
biron 24
bito 24
bits 24
blocked 24
bonds 24
bonito. 24
buying 24
caba 24
cabritos 24
cados 24
cais 24
campainha 24
cantidades 24
capacidad 24
car." 24
cardiovas@@ 24
career. 24
casa." 24
cast 24
cation 24
censura 24
champanhe 24
chicken 24
chif@@ 24
chifres 24
children." 24
cicatri@@ 24
circuí@@ 24
clear. 24
cock@@ 24
codi@@ 24
coid@@ 24
colorful 24
commit@@ 24
comodi@@ 24
compares 24
comprobar 24
conciencia 24
conden@@ 24
conectados 24
conseguimos 24
constructive 24
conta. 24
conuts 24
convi@@ 24
conxun@@ 24
cooperation 24
copy 24
correct. 24
costa 24
cozinha. 24
craft 24
credi@@ 24
crisis. 24
cruci@@ 24
cualifica@@ 24
cycli@@ 24
có 24
dance. 24
dare 24
darnos 24
dazz@@ 24
death, 24
decidimos 24
defici@@ 24
definición 24
demic 24
demôni@@ 24
dence 24
dency 24
deny 24
desbloquear 24
deseñar 24
despe@@ 24
devourer 24
diagnosis 24
dias. 24
dicir: 24
direct 24
diverse 24
documenta@@ 24
donos 24
doorbell 24
doors. 24
doutra 24
dro 24
ecei 24
ecological 24
ego@@ 24
eles." 24
elo@@ 24
emerg@@ 24
emotionally 24
empathy. 24
employees 24
enable 24
encanta@@ 24
end." 24
enemy 24
entor@@ 24
equipos 24
erá 24
escapar 24
escoitei 24
escola, 24
ess, 24
estadounidenses 24
estará 24
esting 24
evidence. 24
fa 24
facial 24
faded 24
fall. 24
fascinante 24
fascinating. 24
fatores 24
favor 24
feature 24
fes@@ 24
fic 24
finalmente, 24
finished 24
flat 24
fore 24
fossil 24
fox 24
fresca 24
frescos 24
físico 24
gargarejo 24
geles 24
giant 24
graci@@ 24
gratifi@@ 24
gray 24
grazas. 24
gues@@ 24
haberá 24
habitu@@ 24
harmful 24
health, 24
health." 24
helmet 24
hide 24
hiding 24
history, 24
histórias 24
hitting 24
homemade 24
hora. 24
humor. 24
hydra@@ 24
hábit@@ 24
hábitos 24
illness. 24
impida 24
informá@@ 24
ings." 24
instinc@@ 24
insulin 24
intercambio 24
interess@@ 24
interview@@ 24
involun@@ 24
ished 24
isto: 24
itaba 24
jes 24
jogos 24
journey, 24
justa 24
justice. 24
kers 24
launched 24
licen@@ 24
life.""" 24
listo 24
liver 24
lle: 24
lo: 24
long-@@ 24
marabil@@ 24
marcha 24
massive 24
mecanismos 24
mediev@@ 24
medo, 24
member 24
membro 24
mencion@@ 24
mental, 24
mention@@ 24
mentos." 24
messages 24
mila@@ 24
military 24
minutos. 24
mistake. 24
mmer 24
moda. 24
moment." 24
month 24
morte, 24
moto 24
mozos 24
musicians 24
métodos 24
naval 24
nec@@ 24
nel. 24
nine 24
nostalgi@@ 24
nota 24
nunca. 24
observamos 24
ocorreu 24
oil. 24
ones, 24
ong 24
ons, 24
operación 24
orb@@ 24
ority 24
ourselves, 24
pancreatic 24
paraí@@ 24
pasión 24
pasteis 24
patho@@ 24
pensaba 24
perdido 24
perfeito 24
perseverancia 24
ples 24
pode@@ 24
ponte 24
portas 24
pou 24
pper 24
prece@@ 24
pregunte@@ 24
preservar 24
prev@@ 24
prevenção 24
proactiv@@ 24
procede@@ 24
product. 24
prof@@ 24
provides 24
providing 24
provocar 24
práctica. 24
psychi@@ 24
public. 24
puidemos 24
puts 24
páncre@@ 24
pílul@@ 24
quiló@@ 24
rador 24
ral@@ 24
raposa 24
rastre@@ 24
realiz@@ 24
recordo 24
redor. 24
regre@@ 24
renovar 24
report@@ 24
resistentes 24
respond 24
retos 24
ried 24
romper 24
ronme 24
sabedoría 24
saciar 24
sado. 24
sae 24
scene 24
scientist 24
scri@@ 24
season. 24
sees 24
selle 24
sentado 24
senten@@ 24
ser, 24
ser. 24
servir 24
shif@@ 24
shift 24
shop 24
simplest 24
sinté@@ 24
sity, 24
sively 24
six@@ 24
ske@@ 24
skill@@ 24
slo@@ 24
smell@@ 24
sofre@@ 24
solucion@@ 24
soubo 24
soñar 24
speakers 24
spiritu@@ 24
strong. 24
successfully 24
suspec@@ 24
sú@@ 24
tal. 24
talk, 24
tamañ@@ 24
tance 24
target 24
te.""" 24
tea. 24
teat@@ 24
techniques 24
teci@@ 24
tecidos 24
tecnolox@@ 24
tecnoloxía. 24
temente. 24
terror 24
texto 24
this@@ 24
thres@@ 24
tight 24
time@@ 24
tipo@@ 24
titul@@ 24
todo." 24
todos, 24
tomorrow. 24
tonight. 24
tons 24
tool. 24
tramp@@ 24
transmi@@ 24
tratamos 24
treatments 24
try, 24
un, 24
unca 24
unforgettable 24
unidos 24
ups 24
ure@@ 24
use." 24
user 24
vacation. 24
vada 24
value. 24
vary 24
vering 24
viag@@ 24
vision. 24
viño 24
voluntari@@ 24
vos, 24
wait@@ 24
walls 24
wards 24
wave 24
weaknes@@ 24
wer 24
xenética 24
year-@@ 24
yiel@@ 24
zation, 24
zos, 24
Áfri@@ 24
ában@@ 24
ábase 24
áns 24
áronme 24
én." 24
ério 24
éronme 24
í." 24
íns 24
​​@@ 24
""Ben, 23
""E@@ 23
""G@@ 23
""a 23
"Desde 23
"Over 23
"Primeiro, 23
"Secon@@ 23
"Teño 23
"Yes, 23
13@@ 23
15@@ 23
19 23
2,000 23
20, 23
6, 23
600 23
AID@@ 23
Always 23
Asper@@ 23
Braz@@ 23
Brow@@ 23
Central 23
Christi@@ 23
Coñ@@ 23
Cri@@ 23
Deberiamos 23
Depen@@ 23
Earth, 23
Emotional 23
Ensoño 23
Europe@@ 23
Gol@@ 23
Gústan@@ 23
Has@@ 23
Her@@ 23
Human@@ 23
Integration 23
Levant@@ 23
Levo 23
Mas@@ 23
Meu 23
Mor@@ 23
Multi@@ 23
Nixeri@@ 23
Prevention 23
Recognition 23
Sopla 23
Stanford 23
Star@@ 23
Steve 23
Sylvia 23
Te 23
Terra. 23
Toler@@ 23
Trata 23
UC@@ 23
Unidos, 23
VIH 23
Western 23
abilities 23
absces@@ 23
academic 23
accións. 23
accordi@@ 23
ache 23
acheg@@ 23
aching 23
adas." 23
adrenal@@ 23
afer@@ 23
aforrar 23
aid 23
aleatori@@ 23
alento 23
algo." 23
alidade, 23
also, 23
ambos 23
ampla 23
ancia. 23
análi@@ 23
aplicacións 23
apoya 23
apun@@ 23
arby 23
aria, 23
aria." 23
arly 23
arque@@ 23
artigos 23
asistencia 23
asombro@@ 23
asust@@ 23
autistic 23
auténtico 23
avances 23
avión 23
axudou 23
bathroom 23
bañar 23
beiju 23
belong 23
better, 23
bido 23
blind 23
bott@@ 23
box. 23
boy@@ 23
bury 23
cabeça 23
cantes 23
carecer 23
cause, 23
cedo 23
cele@@ 23
celebrating 23
ceo. 23
ceñ@@ 23
chamou 23
cheguei 23
chemi@@ 23
chemical@@ 23
cher@@ 23
choo@@ 23
chámase 23
cicatrices 23
circunstancias 23
citizenship. 23
ción: 23
cles 23
clinic 23
cloth@@ 23
co? 23
coisa 23
colegas 23
combinación 23
comment 23
commitment. 23
company, 23
compasi@@ 23
complexi@@ 23
complicated. 23
compri@@ 23
condition. 23
confus@@ 23
connection. 23
constantemente 23
contra, 23
contradic@@ 23
controle. 23
conversas 23
copy@@ 23
coração. 23
coron@@ 23
corporate 23
corte 23
countrysi@@ 23
coup@@ 23
criminal 23
cruel@@ 23
cuts 23
códi@@ 23
d?" 23
da-@@ 23
danza 23
dar." 23
deaf@@ 23
decepcion@@ 23
decir 23
ded." 23
deixamos 23
deixe 23
delicatessen 23
deliciosa. 23
demand 23
depresión, 23
desarro@@ 23
despre@@ 23
destituição 23
detail 23
detalle 23
diabéticos 23
diagnose 23
direitos 23
discipline 23
disgu@@ 23
diversidade. 23
dly, 23
done, 23
doutor 23
dust 23
ecolóxi@@ 23
effectively 23
eficiencia 23
eggs 23
eiro. 23
electronic 23
ences, 23
encourage 23
enerxía. 23
enfrontar 23
entorno 23
equilíbrio 23
equipa@@ 23
equitativa. 23
erro. 23
error 23
escale@@ 23
escenario 23
escoita 23
escolher 23
escribi@@ 23
espectro 23
espel@@ 23
estación 23
estaría 23
estré@@ 23
estupen@@ 23
ethics 23
eviden@@ 23
exa 23
exame 23
exercícios 23
existi@@ 23
existing 23
expected 23
experiência 23
explained 23
exploring 23
expressed 23
fací@@ 23
falei 23
fashi@@ 23
favor." 23
felicidad 23
felicidade, 23
fermoso 23
ffiti 23
fideli@@ 23
fillos, 23
financeira 23
firme 23
fixera 23
fomentar 23
fornec@@ 23
freshly 23
frien@@ 23
frozen 23
frutas 23
fuma@@ 23
funcionamento 23
funcións 23
futur@@ 23
fíci@@ 23
fío 23
gging 23
gni@@ 23
gozar 23
grade 23
grap@@ 23
graphy 23
gráfica 23
gue. 23
happened. 23
happier 23
happiness, 23
healthi@@ 23
hermos@@ 23
honesti@@ 23
horn 23
human, 23
humana, 23
humano." 23
illes 23
image. 23
imaxe, 23
imper@@ 23
importa@@ 23
importar 23
indíxen@@ 23
inging 23
inscri@@ 23
inspires 23
int 23
intelixente 23
interrup@@ 23
involve 23
jobs 23
journ@@ 23
journe@@ 23
journey. 23
kay, 23
king@@ 23
knowled@@ 23
lear 23
less, 23
liberdade. 23
lifestyle 23
linked 23
liquidate 23
literature 23
loud 23
loves 23
lógi@@ 23
mans. 23
mantén 23
matemáticas 23
mechanis@@ 23
media@@ 23
medicación 23
meet@@ 23
melan@@ 23
memory. 23
mili@@ 23
moi, 23
motivated 23
motivation. 23
movies. 23
mum 23
muscles 23
namor@@ 23
negros 23
neighbor 23
nervioso 23
ninguén. 23
no." 23
nois@@ 23
norte 23
noticed 23
now? 23
nuevos 23
nursing 23
númer@@ 23
o; 23
obesidade 23
ok@@ 23
omía 23
oneself. 23
orch@@ 23
ordinary 23
origin 23
osaur@@ 23
oulle 23
ouro 23
oxygen 23
paciencia. 23
parel@@ 23
pedí@@ 23
pelliz@@ 23
pensen 23
perce@@ 23
perceived 23
person." 23
personalidade 23
pink 23
place@@ 23
poderíamos 23
pois, 23
policy. 23
popular. 23
posicións 23
pregunta: 23
presentation 23
primi@@ 23
prison 23
profundamente 23
pronto 23
property 23
psicolo@@ 23
psiqui@@ 23
psy@@ 23
pursue 23
pyrami@@ 23
pódense 23
ques. 23
question. 23
razón. 23
reason. 23
rebel@@ 23
recommen@@ 23
reflexionar 23
relaj@@ 23
relatively 23
remember, 23
repen@@ 23
residuos 23
resistir 23
respected 23
respir@@ 23
responsabilidades 23
ress 23
review@@ 23
ri 23
riba 23
ricul@@ 23
rob@@ 23
roll 23
roller 23
routine. 23
rug@@ 23
rush 23
rúa. 23
s""." 23
salud 23
samb@@ 23
sando 23
satisfy 23
saud@@ 23
saíu 23
scary 23
seguranza 23
seguridad 23
services. 23
shake 23
shape. 23
sick 23
sino 23
ski@@ 23
skinning 23
sobrevivir 23
society." 23
socio@@ 23
som@@ 23
soon. 23
sorship 23
spicy 23
staying 23
stir 23
stron@@ 23
struggle 23
suave. 23
suggest 23
suit@@ 23
sunny 23
sy 23
súpeto, 23
taining 23
tantos 23
tears 23
tech 23
tempesta@@ 23
termo 23
that.""" 23
theat@@ 23
threaten@@ 23
ti." 23
tics." 23
tion?" 23
tiñas 23
tom 23
tome 23
touching 23
traballadores 23
tranquilidade 23
trastorno 23
tratada 23
treas@@ 23
tremendous 23
tures 23
típi@@ 23
unable 23
unless 23
vaccine 23
valuable. 23
vase 23
versátil 23
verte@@ 23
very@@ 23
vil@@ 23
violence. 23
viral 23
volveu 23
volvín 23
víti@@ 23
weak 23
websi@@ 23
wick 23
works." 23
xornali@@ 23
xusta 23
yet. 23
ysi@@ 23
zación, 23
zero 23
zin@@ 23
ál@@ 23
ária. 23
ários. 23
épo@@ 23
ín. 23
ña." 23
"""Your 22
""This 22
"Here 22
"Lev@@ 22
"No, 22
"Non, 22
"Please, 22
"Su@@ 22
"Teñen 22
"Unfortunately, 22
"Á 22
-year 22
16@@ 22
45 22
Adam 22
Ano@@ 22
Another 22
Blo@@ 22
Blu@@ 22
Brown 22
Classical 22
Devo 22
Dix@@ 22
Déix@@ 22
Encántame 22
English, 22
Extra@@ 22
Face@@ 22
Fixen 22
For 22
Gabri@@ 22
Galician 22
Geo@@ 22
Glo@@ 22
Goats 22
Graz@@ 22
Greek 22
IN@@ 22
India, 22
Ing@@ 22
Ira@@ 22
Italian 22
Joy 22
Liber@@ 22
Lit@@ 22
Look 22
Mediter@@ 22
Nacional 22
Parti@@ 22
Poderiamos 22
Sabemos 22
Segu@@ 22
Sei 22
Senti@@ 22
Sharks 22
Turing 22
UN@@ 22
Uma 22
Unidos. 22
Valle@@ 22
Yeah, 22
a's 22
a... 22
abertos 22
acabar@@ 22
achiev@@ 22
achieved 22
activa 22
adequada 22
adoles@@ 22
adqui@@ 22
ads. 22
agradable. 22
agul@@ 22
aia, 22
aire. 22
alegría. 22
alerta 22
alist 22
allowing 22
almor@@ 22
alumnos 22
ambul@@ 22
ance." 22
ander@@ 22
anotar 22
antigo 22
apoyo 22
aqui. 22
architecture 22
as?" 22
astern 22
atención, 22
ath. 22
atin 22
atividade 22
atr@@ 22
aumenta@@ 22
axes 22
axú@@ 22
barcos 22
beach@@ 22
bed. 22
being, 22
beings. 22
bell@@ 22
bol. 22
bomba 22
book@@ 22
bordo 22
botón 22
braid 22
brake 22
bro 22
bruñir 22
buildings 22
bura@@ 22
ca? 22
camera. 22
capacidades 22
capazes 22
caring 22
casas 22
caught 22
ce.""" 22
celebr@@ 22
cells." 22
chamadas 22
champ@@ 22
champagne 22
chap@@ 22
charlas 22
charuto 22
chosen 22
cigar 22
cin 22
cinema. 22
cious 22
circun@@ 22
citizens. 22
ciudad 22
clínicas 22
coa@@ 22
coat 22
coche, 22
cocos 22
colleu 22
colored 22
colum@@ 22
company's 22
compo@@ 22
compromiso. 22
comúns 22
concerns 22
confidence. 22
conflicts. 22
cong@@ 22
consecuencias. 22
consegue 22
considerado 22
considering 22
consistent 22
constitu@@ 22
contaxi@@ 22
contempla@@ 22
conten@@ 22
continuous 22
converter@@ 22
country's 22
crazy 22
creou 22
crimes 22
cuis@@ 22
dani@@ 22
debulhador 22
decateime 22
decision-@@ 22
degrada@@ 22
delicadeza 22
demasiada 22
democr@@ 22
dente, 22
dentro. 22
deprimi@@ 22
derec@@ 22
dereita 22
descanso. 22
desenganchar 22
desfru@@ 22
deta@@ 22
devices 22
diario 22
did, 22
dieta. 22
different, 22
dings 22
dinosaurs 22
direction. 22
diso. 22
distinta 22
divide 22
doenzas 22
done. 22
drama 22
drawing 22
duration 22
díxome 22
eager 22
econ@@ 22
economia 22
edificio 22
eds 22
eficacia 22
emi@@ 22
encoun@@ 22
endario 22
enhance 22
ening. 22
entren@@ 22
entrepreneur@@ 22
entrete@@ 22
ents, 22
enxeñería 22
epin@@ 22
equili@@ 22
escap@@ 22
escus@@ 22
especiais 22
espello 22
esperando 22
esperança 22
estru@@ 22
estruturas 22
estrés, 22
excur@@ 22
exercicios 22
existencia 22
exotic 22
expedi@@ 22
eyes, 22
failed 22
feeling. 22
fixed 22
flower 22
fold 22
founda@@ 22
gado, 22
gar, 22
gather 22
generations 22
gens 22
gir@@ 22
going. 22
gol 22
gorge 22
graduate 22
hambúr@@ 22
hell 22
hesitate 22
hixi@@ 22
hobby. 22
hole 22
horror 22
humanit@@ 22
iPhon@@ 22
ian 22
ility 22
im 22
imedi@@ 22
immediately 22
imperfec@@ 22
impli@@ 22
impoten@@ 22
imprescindi@@ 22
impri@@ 22
increasing 22
indicates 22
ine, 22
inhi@@ 22
innovation. 22
intoxi@@ 22
iramente 22
iscoitos 22
ish. 22
island 22
issues. 22
itself. 22
jaz@@ 22
jewel@@ 22
kid@@ 22
lands 22
landscap@@ 22
laugh@@ 22
leader 22
lean@@ 22
lectura 22
left, 22
legendary 22
lemos 22
leta 22
liderança 22
lighted 22
literalmente 22
location 22
lonxe@@ 22
límite 22
maci@@ 22
mad@@ 22
maj@@ 22
marcar 22
masti@@ 22
maximi@@ 22
mechanical 22
medra@@ 22
melhor. 22
microbial 22
miento. 22
mind." 22
minor@@ 22
minutos, 22
missal 22
molecu@@ 22
montar 22
motocicle@@ 22
mulleres. 22
mutual 22
necesariamente 22
necessary." 22
necessário 22
negocios 22
nephe@@ 22
nesas 22
news. 22
noutra 22
noutras 22
nível 22
núcle@@ 22
o" 22
obe@@ 22
obxectivo. 22
ol, 22
oldest 22
om 22
opcións. 22
open-@@ 22
opening 22
operating 22
operation 22
opportun@@ 22
oppres@@ 22
orien@@ 22
oring 22
ost 22
ouco 22
over, 22
own. 22
pain, 22
paint 22
palme@@ 22
pareci@@ 22
paredes 22
parent@@ 22
parte. 22
particles 22
passion@@ 22
peda@@ 22
pele 22
pelu@@ 22
perfectamente 22
peça 22
phan@@ 22
placa 22
plantation 22
plantação 22
plo@@ 22
plásticos 22
porcentaxe 22
posição 22
potentially 22
poñerse 22
practicing 22
pregún@@ 22
preocupación 22
presenta 22
presion@@ 22
presu@@ 22
prevention 22
prezos 22
protects 22
puides@@ 22
py 22
químicos 22
r." 22
rac@@ 22
recla@@ 22
reflects 22
regres@@ 22
reminded 22
rendi@@ 22
required 22
rescue 22
research. 22
respi@@ 22
rhyth@@ 22
riscos. 22
robots 22
ría 22
s,"" 22
sacrificar 22
saf@@ 22
satisfied 22
sche@@ 22
seat 22
seconds 22
sector. 22
secund@@ 22
seguro@@ 22
selection 22
sensation 22
sentia 22
served 22
sexa, 22
simples@@ 22
sing, 22
snow. 22
soaked 22
society, 22
soldi@@ 22
sometimes. 22
standard 22
start. 22
still@@ 22
strategies 22
strategy. 22
students, 22
surroun@@ 22
swor@@ 22
también 22
technologi@@ 22
terra@@ 22
tivas, 22
tomando 22
tor." 22
tornar 22
trade 22
trail 22
transmitir 22
tratados 22
tremble 22
tres, 22
tress 22
trigo 22
trust. 22
tton 22
tubarões 22
turis@@ 22
tér@@ 22
títulos 22
universidade 22
urar 22
variar 22
velo 22
veloci@@ 22
venda 22
verbal 22
vibrava 22
video@@ 22
week, 22
worl@@ 22
writer 22
wrong@@ 22
xardín. 22
xeri@@ 22
ximnasi@@ 22
ying." 22
á-la 22
án." 22
áti@@ 22
é." 22
íti@@ 22
ódese 22
óxeno 22
últimas 22
ADN@@ 21
Amé@@ 21
Bost@@ 21
Ca@@ 21
Deci@@ 21
Every@@ 21
F 21
Fre@@ 21
G 21
L 21
S. 21
ansi@@ 21
avent@@ 21
barul@@ 21
bot@@ 21
cano@@ 21
coast@@ 21
collea@@ 21
degra@@ 21
dó@@ 21
ek 21
empath@@ 21
exagger@@ 21
facil@@ 21
ferra@@ 21
fondos 21
foran 21
forge@@ 21
formation 21
forth 21
forwar@@ 21
frag@@ 21
freezing 21
fume 21
fundamentais 21
fute@@ 21
gali@@ 21
garda 21
garse 21
gas." 21
gen, 21
gently 21
gged 21
gling 21
global, 21
gold 21
government, 21
governments 21
great. 21
group, 21
group@@ 21
grow. 21
guar 21
guit@@ 21
hando 21
happi@@ 21
har. 21
hard, 21
helpl@@ 21
herself 21
hill@@ 21
holding 21
holds 21
homes, 21
homo@@ 21
hormone 21
hygien@@ 21
hã@@ 21
identidade. 21
iled 21
illas 21
imaging 21
inas 21
includes 21
increases 21
incrível. 21
inda 21
indis@@ 21
individuos 21
influencia 21
influír 21
informações 21
ingly, 21
ino. 21
inscrición 21
integ@@ 21
intelectu@@ 21
intento 21
interact 21
interesados 21
interro@@ 21
intestin@@ 21
intimida@@ 21
investments 21
ither 21
ize 21
km 21
landscape. 21
larg@@ 21
lembra@@ 21
lesi@@ 21
letting 21
levando 21
libre@@ 21
limitacións 21
line, 21
listened 21
little, 21
love." 21
luz, 21
líqui@@ 21
macaco 21
machines 21
maintenance 21
make. 21
manexar 21
mani@@ 21
marabilloso 21
marcha@@ 21
married 21
materials. 21
mato@@ 21
mañá, 21
meal 21
meaning. 21
measure@@ 21
mestura 21
migran@@ 21
minas 21
ming, 21
mio 21
mission. 21
moitísi@@ 21
monio 21
moso@@ 21
motivos 21
mouth 21
moverse 21
myself." 21
mí 21
nadar 21
naturale@@ 21
naturaleza. 21
naturally 21
neck 21
negra@@ 21
neo 21
neurogenes@@ 21
noche 21
nosotros 21
nuevas 21
nun@@ 21
nuns 21
objetivo 21
odio 21
off, 21
off." 21
oil@@ 21
ollar 21
omen 21
on-@@ 21
on.""" 21
ona 21
oppon@@ 21
opções 21
organismos 21
osidade 21
ouvir 21
overall 21
oxito@@ 21
pacientes, 21
paper, 21
patients." 21
país." 21
pensas 21
perdeu 21
perfect. 21
perigo. 21
perigoso 21
persoais 21
personaliz@@ 21
petición 21
physics 21
pile 21
pobre 21
pobreza 21
podiamos 21
politi@@ 21
pollution 21
posibilidades. 21
postas 21
poun@@ 21
pressão 21
privilexi@@ 21
proceso, 21
production. 21
puidésemos 21
quie@@ 21
quiño 21
raro 21
ration@@ 21
reached 21
reaction 21
reconfor@@ 21
refined 21
reflexion@@ 21
refrescante 21
refuse 21
regano 21
regulación 21
regulation 21
relacións. 21
remat@@ 21
renew 21
reper@@ 21
replace 21
represent 21
represented 21
resear@@ 21
responsabilidade. 21
response. 21
retire@@ 21
review 21
rhythm 21
ridi@@ 21
rigor@@ 21
rios 21
ritual 21
rival 21
rr@@ 21
rupt 21
saber@@ 21
satisfacción 21
saudables. 21
saving 21
saída 21
science. 21
se.""" 21
sedu@@ 21
see. 21
seguía 21
sense. 21
serio 21
service. 21
shirt 21
short-@@ 21
significantly 21
significativo 21
sincron@@ 21
sis@@ 21
sleep, 21
small, 21
so? 21
societies 21
solved 21
sonido 21
specifically 21
spectator 21
speed. 21
spices 21
spirit. 21
sta." 21
stance 21
ster 21
stork 21
stress, 21
struggling 21
suficiente. 21
supervi@@ 21
surpreen@@ 21
surviv@@ 21
swal@@ 21
tados. 21
tagon@@ 21
talvez 21
tamén, 21
tar." 21
tare@@ 21
tecnoloxía, 21
tee@@ 21
temos. 21
teremos 21
term. 21
terán 21
testoster@@ 21
thinking, 21
tile 21
till 21
todo@@ 21
tolerance 21
tolerant 21
tomorrow@@ 21
torna 21
toy 21
traer 21
transcri@@ 21
traxec@@ 21
treasure. 21
tremen@@ 21
trigger@@ 21
típico 21
ulle 21
umbre@@ 21
understanding. 21
university 21
users 21
va." 21
vehículo 21
vermello 21
vexa 21
vidas, 21
violación 21
visited 21
voca@@ 21
voo 21
vítimas 21
wall. 21
watch@@ 21
weekend 21
weeks. 21
what? 21
wisdo@@ 21
wra@@ 21
xamais 21
xeron 21
xogo. 21
xose 21
xurado 21
yester@@ 21
younger 21
zes. 21
águ@@ 21
ámolo 21
ándome 21
ásemos 21
éxito, 21
ículos 21
ítul@@ 21
ório. 21
úpi@@ 21
útil. 21
Christ@@ 20
Cy@@ 20
Fri@@ 20
Friend@@ 20
Hi@@ 20
Ris@@ 20
Sci@@ 20
Univer@@ 20
Y 20
Yea@@ 20
acari@@ 20
aco 20
acon@@ 20
anxiet@@ 20
aproxi@@ 20
autoesti@@ 20
azu@@ 20
bikin@@ 20
bow@@ 20
cere@@ 20
chron@@ 20
crisi@@ 20
crit@@ 20
decep@@ 20
demon@@ 20
descu@@ 20
discipl@@ 20
ecu@@ 20
ement. 20
emergen@@ 20
empre 20
equip@@ 20
ere's 20
espí@@ 20
gger 20
haber@@ 20
idades 20
inho 20
intelli@@ 20
legen@@ 20
mechani@@ 20
mming 20
obstá@@ 20
oul@@ 20
phe@@ 20
plata@@ 20
pollu@@ 20
privac@@ 20
pí@@ 20
sabe@@ 20
secun@@ 20
shopp@@ 20
superviv@@ 20
sym@@ 20
sí 20
tasy 20
technolog@@ 20
titud 20
tot@@ 20
toxi@@ 20
uro@@ 20
veh@@ 20
venti@@ 20
viru@@ 20
vizin@@ 20
wall@@ 20
zap@@ 20
án. 20
árvor@@ 20
ási@@ 20
"Aqu@@ 19
"No@@ 19
+ 19
99@@ 19
Sal@@ 19
algú@@ 19
alma@@ 19
ank 19
aphrag@@ 19
aridade 19
chair 19
coch@@ 19
colate 19
cro 19
disco@@ 19
dixen@@ 19
drag@@ 19
dían 19
espin@@ 19
eve 19
f-@@ 19
filling 19
focu@@ 19
histor@@ 19
iP@@ 19
ici@@ 19
import@@ 19
itch@@ 19
ket@@ 19
kitch@@ 19
liqui@@ 19
lli@@ 19
maca@@ 19
manten@@ 19
mate@@ 19
meaning@@ 19
mechan@@ 19
mer. 19
mient@@ 19
mina 19
mma@@ 19
ones@@ 19
oría 19
performan@@ 19
pinach 19
plani@@ 19
quanto 19
rais 19
recu@@ 19
research@@ 19
righ@@ 19
shir@@ 19
stame 19
tação 19
timi@@ 19
tisti@@ 19
trai@@ 19
tón, 19
uli@@ 19
ush 19
versá@@ 19
xardí@@ 19
xef@@ 19
zen 19
õ@@ 19
—@@ 19
..@@ 18
advent@@ 18
afir@@ 18
asist@@ 18
ater 18
ature 18
being. 18
bod@@ 18
canti@@ 18
carb@@ 18
chick@@ 18
circ@@ 18
colhe@@ 18
combus@@ 18
compe@@ 18
die@@ 18
eces@@ 18
exaxer@@ 18
fas@@ 18
femal@@ 18
ffer@@ 18
filos@@ 18
fresh@@ 18
gunhas 18
happin@@ 18
hid@@ 18
ics 18
increa@@ 18
increas@@ 18
incredi@@ 18
ingres@@ 18
intro@@ 18
irm@@ 18
jus@@ 18
maravi@@ 18
mejor@@ 18
mon 18
odo@@ 18
pei 18
phere 18
pleas@@ 18
residu@@ 18
ritu@@ 18
sil 18
sis 18
sofisti@@ 18
sola@@ 18
sper@@ 18
supost@@ 18
teach@@ 18
tesou@@ 18
torti@@ 18
total@@ 18
usias@@ 18
usos) 18
ween 18
wever, 18
ícul@@ 18
ículo 18
ógi@@ 18
Davi@@ 17
Joh@@ 17
band 17
busin@@ 17
consump@@ 17
cron@@ 17
curren@@ 17
cór@@ 17
dam 17
damente. 17
desajeit@@ 17
distri@@ 17
eful@@ 17
eventu@@ 17
exp@@ 17
gargan@@ 17
gustar@@ 17
humor@@ 17
jour@@ 17
leon 17
lími@@ 17
mbo 17
melhor@@ 17
minar 17
nostal@@ 17
obje@@ 17
olo@@ 17
ope 17
ourselv@@ 17
peop@@ 17
posibili@@ 17
ris 17
soa@@ 17
stopp@@ 17
sé@@ 17
tem@@ 17
tifica@@ 17
tting 17
uring 17
vege@@ 17
vem 17
"Por@@ 16
've 16
Gali@@ 16
Medit@@ 16
Sa@@ 16
aa@@ 16
appiness 16
aprove@@ 16
asomb@@ 16
ayu@@ 16
bandi@@ 16
bebi@@ 16
carni@@ 16
citizen@@ 16
coleg@@ 16
cumulation 16
deira 16
depar@@ 16
desser@@ 16
diñ@@ 16
does@@ 16
dren 16
envel@@ 16
escondi@@ 16
excell@@ 16
exo@@ 16
fia 16
firme@@ 16
frontal 16
ga, 16
geome@@ 16
gres@@ 16
guarante@@ 16
ilo 16
mble. 16
nali@@ 16
quera 16
relea@@ 16
remark@@ 16
resta@@ 16
sat@@ 16
sinton@@ 16
sophistica@@ 16
specifi@@ 16
stain@@ 16
traba@@ 16
trabaj@@ 16
ult 16
versa@@ 16
vidade 16
wis@@ 16
úas 16
ún 16
AD@@ 15
Educa@@ 15
Itali@@ 15
V 15
archi@@ 15
befor@@ 15
charu@@ 15
countri@@ 15
dice 15
dow 15
egg@@ 15
espre@@ 15
eur@@ 15
fav@@ 15
ff 15
fortunately, 15
freedo@@ 15
fú@@ 15
heiros 15
involu@@ 15
moo@@ 15
más. 15
n't 15
osi@@ 15
partic@@ 15
ped@@ 15
pran@@ 15
prima@@ 15
roun@@ 15
salu@@ 15
shi@@ 15
ssi@@ 15
stant 15
stin@@ 15
tambori@@ 15
teis 15
ture. 15
táculo 15
títul@@ 15
vate 15
vação 15
vered 15
ê 15
óxi@@ 15
"On@@ 14
-year-@@ 14
@@@ 14
Chan@@ 14
ID@@ 14
Pean@@ 14
Q 14
Shar@@ 14
awk@@ 14
balon@@ 14
beau@@ 14
biblio@@ 14
brilli@@ 14
centa@@ 14
cerebra@@ 14
curr@@ 14
decrea@@ 14
deiro 14
dence. 14
diagno@@ 14
disfar@@ 14
diá@@ 14
dn't 14
doll@@ 14
electron@@ 14
estadouni@@ 14
estr@@ 14
exax@@ 14
exer@@ 14
gora, 14
hat 14
hen 14
hoj@@ 14
hus@@ 14
ink 14
integri@@ 14
leiro 14
loxía 14
mbrar 14
mell@@ 14
ministra@@ 14
opportuni@@ 14
orix@@ 14
oín 14
penci@@ 14
queta 14
quí@@ 14
rapac@@ 14
rebo@@ 14
reme@@ 14
repres@@ 14
rom 14
selves 14
spic@@ 14
tén 14
uts 14
xestion@@ 14
ze@@ 14
zir 14
É@@ 14
Ó@@ 14
íni@@ 14
úr@@ 14
$ 13
A: 13
Communi@@ 13
FD@@ 13
Gú@@ 13
Preven@@ 13
aleão 13
amy@@ 13
apu@@ 13
as) 13
cket 13
cois@@ 13
conv@@ 13
cír@@ 13
diabe@@ 13
electr@@ 13
equita@@ 13
estadouniden@@ 13
ew 13
exercíci@@ 13
festa@@ 13
fút@@ 13
hygi@@ 13
ilure 13
leader@@ 13
literat@@ 13
melh@@ 13
miro 13
necessar@@ 13
orta@@ 13
partícul@@ 13
pes. 13
protex@@ 13
relo@@ 13
rexe@@ 13
rying 13
segú@@ 13
skin@@ 13
stitu@@ 13
stress@@ 13
tall@@ 13
themselv@@ 13
tim@@ 13
trab@@ 13
«@@ 13
Ó 13
"We@@ 12
't 12
+@@ 12
Emo@@ 12
FOX@@ 12
Hon@@ 12
Justi@@ 12
Ke@@ 12
Nig@@ 12
abel@@ 12
abía 12
abó@@ 12
amoun@@ 12
apari@@ 12
apeu@@ 12
bil 12
cand@@ 12
cave@@ 12
coffe@@ 12
compen@@ 12
cot@@ 12
desbloque@@ 12
desgra@@ 12
essenti@@ 12
estimate 12
ffe@@ 12
fisher@@ 12
got@@ 12
grá@@ 12
irre@@ 12
itting 12
ju 12
macar@@ 12
mail 12
notic@@ 12
odolite 12
osing 12
pesca@@ 12
proje@@ 12
pássar@@ 12
remin@@ 12
struc@@ 12
temente 12
terce@@ 12
urante 12
vers@@ 12
Á 12
ásti@@ 12
&@@ 11
Dev@@ 11
Música) 11
Nix@@ 11
bemos 11
bigg@@ 11
cacho@@ 11
chame@@ 11
devel@@ 11
enhan@@ 11
enough@@ 11
eppelin 11
erat@@ 11
estión 11
fico 11
galo@@ 11
inguén 11
itei 11
jet@@ 11
landsca@@ 11
mainten@@ 11
meri@@ 11
mite 11
mobi@@ 11
moun@@ 11
muni@@ 11
ordin@@ 11
panturri@@ 11
paxar@@ 11
peci@@ 11
peli@@ 11
perío@@ 11
pital 11
prog@@ 11
qual@@ 11
rag@@ 11
routin@@ 11
segúrate 11
spen@@ 11
tamp@@ 11
tech@@ 11
tecno@@ 11
tismo 11
together@@ 11
trape@@ 11
unning 11
vizinhan@@ 11
yel@@ 11
árias 11
Aplauso) 10
CRISP@@ 10
Sop@@ 10
They@@ 10
algui@@ 10
api@@ 10
beha@@ 10
biquín@@ 10
brio 10
certain@@ 10
dem@@ 10
desaje@@ 10
desfi@@ 10
digni@@ 10
edifici@@ 10
elin@@ 10
estern 10
expo@@ 10
ith@@ 10
ithout 10
lease 10
leiros 10
lik@@ 10
make@@ 10
mediate 10
natu@@ 10
ofre@@ 10
opp@@ 10
ple 10
profis@@ 10
q 10
refri@@ 10
rican@@ 10
rust 10
sapati@@ 10
sces@@ 10
scis@@ 10
skul@@ 10
teime 10
tever 10
tful 10
vail@@ 10
vio 10
von@@ 10
vés 10
whist@@ 10
»@@ 10
Às 10
éticos 10
… 10
&amp@@ 9
Apla@@ 9
Cali@@ 9
Dé@@ 9
Inte@@ 9
Let@@ 9
Rober@@ 9
aba@@ 9
achi@@ 9
ager 9
agger@@ 9
authen@@ 9
batter@@ 9
borra@@ 9
bús@@ 9
ca) 9
ció@@ 9
díxo@@ 9
ell, 9
elé@@ 9
eléc@@ 9
entres 9
euro@@ 9
gin 9
grar 9
has@@ 9
heli@@ 9
immun@@ 9
iti 9
kilo@@ 9
lexisla@@ 9
lti@@ 9
mecan@@ 9
mnasi@@ 9
olo 9
onas 9
oport@@ 9
oton@@ 9
pelo@@ 9
piz@@ 9
rabi@@ 9
rito 9
sabedor@@ 9
sacri@@ 9
sands 9
sligh@@ 9
stante 9
strateg@@ 9
symp@@ 9
símb@@ 9
tomor@@ 9
tón 9
winter@@ 9
yrami@@ 9
çado 9
ég@@ 9
ína 9
ñen 9
"Pe@@ 8
"Preci@@ 8
Appla@@ 8
Cin@@ 8
Encán@@ 8
Span@@ 8
allo@@ 8
ames 8
ately, 8
ativi@@ 8
aur@@ 8
bada 8
basket@@ 8
bey 8
brasi@@ 8
campain@@ 8
cender 8
clum@@ 8
comm@@ 8
dary 8
dação 8
decre@@ 8
desp@@ 8
deza 8
duca@@ 8
enfren@@ 8
estion@@ 8
eth 8
fía 8
harm@@ 8
hist@@ 8
industr@@ 8
ingl@@ 8
is/@@ 8
liga@@ 8
mely 8
mista@@ 8
mysteri@@ 8
nego@@ 8
noc@@ 8
ocupar@@ 8
ouldn't 8
penas 8
ph 8
pic 8
podi@@ 8
ramient@@ 8
rão 8
soc@@ 8
sten 8
teste@@ 8
ware 8
º 8
Fren@@ 7
Ouvi@@ 7
Resul@@ 7
Sel@@ 7
^@@ 7
aces 7
agne 7
alegri@@ 7
amin 7
antén 7
aph@@ 7
arrin@@ 7
asin@@ 7
attra@@ 7
ballo 7
barb@@ 7
biqu@@ 7
bor 7
cardio@@ 7
caste@@ 7
chego 7
cine@@ 7
circum@@ 7
crastin@@ 7
ctually, 7
das) 7
desent@@ 7
deslumb@@ 7
desmor@@ 7
develo@@ 7
disea@@ 7
doorb@@ 7
dra 7
dros 7
echnology 7
extrema@@ 7
ford 7
fter 7
hion 7
hão 7
lite 7
lâ@@ 7
mall@@ 7
mpada 7
necessi@@ 7
party@@ 7
poida@@ 7
rescu@@ 7
risos) 7
saur@@ 7
secur@@ 7
speec@@ 7
staríame 7
steri@@ 7
stern 7
stry 7
surpre@@ 7
tama@@ 7
tau@@ 7
temb@@ 7
tig@@ 7
tê@@ 7
uly 7
venting 7
won@@ 7
wro@@ 7
óle@@ 7
ô 7
Cop@@ 6
Fol@@ 6
It@@ 6
Pati@@ 6
Sac@@ 6
alcoholi@@ 6
alth 6
athy 6
açú@@ 6
cient@@ 6
cipl@@ 6
cipo@@ 6
desaf@@ 6
descober@@ 6
devor@@ 6
diag@@ 6
dless 6
dolos 6
eit@@ 6
eitonas 6
enced 6
ental@@ 6
entreco@@ 6
equilí@@ 6
espreme@@ 6
estrate@@ 6
estí@@ 6
farma@@ 6
grate@@ 6
haps 6
háb@@ 6
ilosop@@ 6
iner 6
intest@@ 6
keep@@ 6
kis@@ 6
leaning 6
moto@@ 6
namon 6
otros 6
percei@@ 6
pros@@ 6
rami@@ 6
roi@@ 6
ror 6
silên@@ 6
stity 6
strali@@ 6
sué@@ 6
sweet@@ 6
tism 6
treasu@@ 6
unforget@@ 6
vete 6
viar 6
voc@@ 6
wide@@ 6
ífica@@ 6
óticos 6
–@@ 6
"Fo@@ 5
=@@ 5
J 5
Musi@@ 5
Respec@@ 5
Z 5
[ 5
abur@@ 5
acadé@@ 5
accor@@ 5
acel@@ 5
acros@@ 5
adren@@ 5
ann@@ 5
antibi@@ 5
beyon@@ 5
brou@@ 5
capa@@ 5
children@@ 5
cica@@ 5
cicl@@ 5
dalas 5
deslumbran@@ 5
dispoñ@@ 5
dixo@@ 5
doro 5
enfr@@ 5
entrepren@@ 5
firo 5
galla@@ 5
genes@@ 5
gger@@ 5
helo 5
iding 5
imer 5
insu@@ 5
intu@@ 5
isco@@ 5
isla@@ 5
itate 5
lighthou@@ 5
mache@@ 5
mecanis@@ 5
mole@@ 5
paraf@@ 5
peace@@ 5
pical 5
rapo@@ 5
societ@@ 5
suc@@ 5
súpe@@ 5
tero 5
tine 5
tris@@ 5
trás 5
tty 5
twi@@ 5
ulgar 5
vidu@@ 5
zhe@@ 5
Ú@@ 5
è@@ 5
"Pri@@ 4
"Prime@@ 4
"Te@@ 4
Applause@@ 4
Clas@@ 4
Fan@@ 4
Religi@@ 4
ahon@@ 4
ain 4
amendo@@ 4
ange@@ 4
angústi@@ 4
apaix@@ 4
artes@@ 4
avestru@@ 4
blio@@ 4
bruñ@@ 4
c) 4
carab@@ 4
ccess 4
cilin@@ 4
cindi@@ 4
company@@ 4
ctos 4
cumul@@ 4
debru@@ 4
deleg@@ 4
deno@@ 4
desfila@@ 4
dure@@ 4
ej@@ 4
ejo 4
empo 4
erican@@ 4
espé@@ 4
frigi@@ 4
genous 4
ghten@@ 4
gún@@ 4
hamb@@ 4
harves@@ 4
haven@@ 4
helicóp@@ 4
herramient@@ 4
hori@@ 4
hundre@@ 4
husar 4
irds 4
lingü@@ 4
liqu@@ 4
lique@@ 4
mentas 4
nd 4
nósti@@ 4
ocê 4
opar@@ 4
orgull@@ 4
os) 4
ow 4
porcenta@@ 4
prou@@ 4
puide@@ 4
puidé@@ 4
pués 4
remol@@ 4
rg@@ 4
rgani@@ 4
rma@@ 4
sabone@@ 4
sanguí@@ 4
sne@@ 4
sort@@ 4
strate@@ 4
suav@@ 4
they@@ 4
trastor@@ 4
tubar@@ 4
vor 4
when@@ 4
yon@@ 4
yri@@ 4
zheimer@@ 4
² 4
€@@ 4
@ 3
Brazili@@ 3
FO@@ 3
Free@@ 3
Músi@@ 3
Vac@@ 3
acter@@ 3
allevi@@ 3
alqui@@ 3
arren@@ 3
assomb@@ 3
bando@@ 3
bússo@@ 3
cachi@@ 3
caracter@@ 3
champan@@ 3
cni@@ 3
cognition 3
colheita@@ 3
colu@@ 3
delicates@@ 3
descre@@ 3
devou@@ 3
dinos@@ 3
dule 3
efervesc@@ 3
erci@@ 3
espinaf@@ 3
hador 3
helicop@@ 3
idar 3
igers 3
imer@@ 3
justic@@ 3
lands@@ 3
lest 3
ligi@@ 3
linders 3
lul@@ 3
lumb@@ 3
láp@@ 3
marab@@ 3
mna@@ 3
mpli@@ 3
onesel@@ 3
partí@@ 3
perí@@ 3
pira 3
pomb@@ 3
recom@@ 3
relation@@ 3
rol@@ 3
sme@@ 3
so) 3
suje@@ 3
sí, 3
tex 3
tuber@@ 3
typic@@ 3
uar 3
via@@ 3
vine 3
wr@@ 3
zio 3
º@@ 3
– 3
# 2
& 2
're 2
* 2
/she 2
Aplau@@ 2
Classi@@ 2
Crea@@ 2
I'@@ 2
ISP@@ 2
Laughter@@ 2
Wash@@ 2
abadi@@ 2
acú@@ 2
afra@@ 2
antásti@@ 2
anze@@ 2
apne@@ 2
balonces@@ 2
cabr@@ 2
clá@@ 2
colóxi@@ 2
confli@@ 2
econo@@ 2
equil@@ 2
esty 2
ethi@@ 2
eval@@ 2
ferves@@ 2
frequen@@ 2
gration 2
hyth@@ 2
is/her 2
jol@@ 2
lvia 2
neigh@@ 2
ofi@@ 2
oler@@ 2
oran@@ 2
oster@@ 2
pheno@@ 2
photogra@@ 2
posite 2
potism 2
pás@@ 2
quilô@@ 2
reale@@ 2
remédi@@ 2
rit 2
sinx@@ 2
tambi@@ 2
telé@@ 2
thema@@ 2
to-me 2
trapé@@ 2
trepi@@ 2
zepeli@@ 2
zh@@ 2
|@@ 2
© 2
ª 2
²@@ 2
à@@ 2
ö@@ 2
ā 2
ā@@ 2
ī@@ 2
ū@@ 2
́@@ 2
"Ho@@ 1
@@ 1
Cac@@ 1
Collabor@@ 1
Customi@@ 1
He/@@ 1
Lear@@ 1
Ocu@@ 1
Team@@ 1
Tel@@ 1
alegr@@ 1
allow@@ 1
amorti@@ 1
anese 1
appin@@ 1
aturas 1
carapu@@ 1
cces@@ 1
cremall@@ 1
cress 1
cáni@@ 1
cíci@@ 1
cóp@@ 1
difí@@ 1
doç@@ 1
effervesc@@ 1
enganchar 1
esty@@ 1
fiero 1
forget@@ 1
forni@@ 1
ghting 1
hallu@@ 1
haw@@ 1
hobb@@ 1
horm@@ 1
j 1
jetos 1
kespe@@ 1
langu@@ 1
lease, 1
loning 1
líder@@ 1
mech@@ 1
nuest@@ 1
nú@@ 1
obst@@ 1
orith@@ 1
orque 1
osto 1
outr@@ 1
pancrea@@ 1
petr@@ 1
pitting 1
poltr@@ 1
propó@@ 1
quina 1
ragons 1
scho@@ 1
severance 1
signi@@ 1
soft@@ 1
somou 1
stal 1
striches 1
sud@@ 1
tarxe@@ 1
tece 1
teodo@@ 1
trapezo@@ 1
tware 1
xeñ@@ 1
@@ 1
 1
» 1
¿ 1
À 1
ânio 1
ì@@ 1
ï@@ 1
ø@@ 1
úsi@@ 1
ŕ@@ 1
‘@@ 1
’ 1
…@@ 1
™ 1
♫@@ 1
madeupword0000 0
