a 25298
the 19600
que 18372
to 13636
de 13539
of 11535
"@@ 11107
o 11078
and 10923
e 10757
that 8361
in 7606
." 6708
I 6596
is 6177
as 5764
é 5491
do 5173
we 5066
un 4997
you 4802
os 4560
en 4458
non 4247
. 4157
unha 4048
And 3930
para 3786
se 3717
this 3635
it 3504
da 3154
for 3147
are 3127
have 3045
no 2841
was 2829
on 2747
an 2612
-- 2450
máis 2407
with 2382
they 2370
""@@ 2335
como 2309
be 2250
can 2248
por 2039
So 2025
about 2023
ou 2004
what 1977
at 1918
not 1918
or 1911
na 1849
me 1842
my 1786
all 1726
con 1630
dos 1615
E 1610
our 1594
one 1554
from 1534
ao 1528
so 1510
"E 1491
but 1489
like 1472
? 1458
son 1455
a." 1445
people 1412
just 1400
á 1397
nos 1394
your 1393
But 1391
a. 1369
if 1336
, 1312
these 1311
ar 1310
re@@ 1281
it's 1272
"I@@ 1251
when 1246
cando 1228
The 1211
a, 1202
in@@ 1191
their 1188
We 1143
by 1138
s." 1126
das 1116
more 1105
he 1104
moi 1096
because 1095
?" 1089
how 1076
very 1061
(Laughter) 1051
who 1051
pero 1048
out 1047
had 1040
hai 1036
going 1017
al@@ 1016
o, 1009
would 1007
s, 996
were 990
ser 986
o. 980
es." 976
get 973
s 972
t 970
s. 962
A 957
a@@ 953
e, 949
: 946
de@@ 942
es. 939
o." 922
es 919
sobre 917
really 915
e@@ 909
ar@@ 906
.""" 903
ing 901
there 895
está 891
xente 887
think 879
facer 875
up 875
see 873
ca@@ 872
só 861
an@@ 860
porque 858
which 853
S@@ 842
era 835
o@@ 835
us 833
them 825
i@@ 824
has 823
amos 822
esta 822
co@@ 820
-@@ 807
es, 805
into 804
know 799
todo 798
don't 788
" 787
will 785
s@@ 780
A@@ 779
d@@ 773
some 770
I'm 763
as. 763
could 761
ten 755
O 754
súa 752
as@@ 745
ter 741
os. 737
This 726
then 725
este 724
di@@ 721
other 720
make 715
un@@ 713
en@@ 712
miña 711
that's 705
as." 703
It's 702
t@@ 701
algo 700
n 700
as, 697
where 696
isto 694
"S@@ 688
seu 684
ver 683
want 682
"A 680
í@@ 668
go 667
os, 667
been 658
pode 657
those 652
eu 651
foi 646
p@@ 639
tamén 637
es@@ 636
You 635
actually 631
meu 629
than 629
ti@@ 623
Pero 622
W@@ 622
anos 615
al 612
also 612
os@@ 610
to@@ 610
ed 604
des@@ 603
y 602
way 601
C@@ 599
two 597
os." 591
n@@ 590
todos 590
his 588
even 585
or@@ 585
lle 582
Non 581
te@@ 581
need 580
time 578
er@@ 577
temos 571
tan 570
They 569
ted 568
aos 567
ando 566
co 560
coma 560
g@@ 560
el@@ 559
ad@@ 558
z@@ 558
cada 556
most 556
ir@@ 553
only 553
mundo 551
te 551
ci@@ 546
u@@ 542
first 541
iso 541
mo@@ 541
onde 537
dun 536
"O 535
ac@@ 529
lo@@ 529
ía 527
"A@@ 525
teñen 525
ado 523
están 523
"O@@ 519
D@@ 519
something 518
xa 518
years 517
ada 514
par@@ 514
things 514
she 508
b@@ 506
much 506
idea 505
many 505
M@@ 504
persoas 504
vez 504
able 503
look 501
you're 500
P@@ 499
T@@ 497
H@@ 496
podemos 496
brain 495
t, 495
é@@ 492
e." 490
?""" 489
r@@ 487
"Pero 486
nun 485
"" 484
lles 484
over 484
on@@ 480
coa 479
different 476
f 476
ata 474
we're 474
l@@ 471
ás 471
ción 470
cousas 469
polo 468
ta@@ 468
al, 467
N@@ 466
car@@ 466
e. 466
nas 466
ación 465
every 463
f@@ 461
ro@@ 460
same 460
se@@ 460
cos 459
moito 458
y, 458
little 456
ing, 455
being 454
dis@@ 454
tion 454
le@@ 452
take 451
ent@@ 450
li@@ 448
pe@@ 448
use 447
Now, 445
me@@ 445
tes 445
k@@ 444
ma@@ 444
ese 443
it@@ 443
sen 443
O@@ 442
What 442
É 442
E@@ 440
Th@@ 439
do@@ 438
mesmo 436
nunha 436
,@@ 434
now 434
back 433
noso 433
got 432
ta 432
poden 431
entre 430
y@@ 430
ados 428
er 427
im@@ 424
dunha 421
"Se 420
est@@ 419
through 419
así 418
c@@ 417
nosa 417
L@@ 416
v@@ 414
estaba 413
ts 411
te." 410
's 409
esa 409
her 408
new 408
Así 407
be@@ 406
they're 405
aínda 404
is@@ 404
te. 402
world 402
at@@ 400
thing 400
d, 399
F@@ 398
any 397
said, 397
B@@ 396
It 396
parte 396
con@@ 395
work 395
did 393
lot 393
do." 392
here 392
ate 391
is, 391
m@@ 391
seus 391
there's 390
"Así 389
; 389
dous 389
ch@@ 386
forma 386
cerebro 384
it, 383
pola 382
si@@ 382
pro@@ 381
h@@ 380
vida 380
kind 377
right 377
no@@ 376
... 374
come 373
I@@ 370
al." 370
estes 369
á@@ 368
al. 366
good 365
outra 365
am@@ 364
called 362
ción@@ 359
pas@@ 359
"T@@ 358
"F@@ 356
y." 355
around 354
ting 354
antes 353
tell 353
x@@ 353
per@@ 351
He 350
human 350
que, 350
for@@ 348
estas 347
tipo 347
might 345
vos 345
its 344
pre@@ 344
ra@@ 344
ver@@ 344
te, 343
d." 341
ter@@ 341
G@@ 339
"M@@ 338
súas 336
cor@@ 335
tempo 335
ar, 334
ón@@ 334
ab@@ 333
agora 333
bo@@ 333
ation 330
tr@@ 327
ais 326
Now 325
man@@ 325
t. 325
case 324
durante 324
w@@ 324
aba 323
R@@ 322
t." 322
K@@ 321
after 321
d 321
estamos 319
me, 319
tiña 319
despois 318
should 318
com@@ 317
us@@ 315
put 310
say 309
día 308
three 308
ase 307
ben 307
change 307
ex@@ 307
po@@ 307
(Risas) 305
y. 304
it." 303
"Por 302
em@@ 302
That's 301
st@@ 301
cu@@ 300
didn't 300
find 300
"Non 298
(Applause) 298
do, 298
why 298
give 297
ing." 297
adas 296
ag@@ 296
so@@ 296
ce@@ 295
el 295
men@@ 291
ir 290
♫ 290
il@@ 289
ca 288
V@@ 287
er, 287
i 287
nós 287
do. 285
doing 285
life 285
aquí 284
qu@@ 284
quen 284
ó 284
enci@@ 283
made 283
mellor 283
pa@@ 283
pouco 283
sistema 283
tar 283
down 282
nosos 282
moitos 281
fi@@ 280
m 280
on, 280
can@@ 279
menos 279
ing. 278
sa@@ 278
tres 278
can't 277
own 277
percent 277
xeito 277
When 276
mi@@ 276
"Cando 275
I've 273
min@@ 273
each 272
vai 272
10 270
day 270
ou@@ 270
"D@@ 269
des 269
still 269
uns 269
go@@ 268
ly 268
real 268
Well, 267
le 267
estar 265
human@@ 265
ri@@ 265
ur@@ 265
,"" 264
inter@@ 264
millóns 264
start 264
todas 264
Os 263
imos 263
mar@@ 263
social 263
aron 262
fe@@ 262
man 262
started 262
su@@ 262
(@@ 261
few 261
next 261
anos, 260
calquera 260
never 260
to, 260
"(Risas) 259
ga@@ 257
lugar 257
op@@ 257
that, 257
"É 256
falar 256
realmente 256
ol@@ 255
dicir 253
doesn't 253
tion, 253
da@@ 252
xe@@ 252
"As 251
alguén 251
say, 251
cre@@ 250
an, 249
bi@@ 249
There 248
ano 248
mor@@ 248
th@@ 246
"E@@ 245
ent 245
ers 245
la@@ 245
part 245
persoa 245
dúas 244
ve 244
gran 243
pi@@ 243
activ@@ 242
ar." 242
nenos 242
tri@@ 242
feel 241
ho@@ 241
important 241
talk 240
fai 239
it. 239
3@@ 238
vo@@ 238
d. 237
historia 237
senón 237
nin 236
used 235
less 234
traballo 234
ce 233
moitas 233
primeira 233
went 233
ari@@ 232
between 232
mais 232
nosas 231
"En 230
big 230
cara 230
found 230
veces 230
"C@@ 229
Isto 229
cur@@ 229
ente 229
mos 229
time, 229
tiv@@ 229
vi@@ 229
bo 228
home 228
outro 227
Que 226
does 226
another 225
pos@@ 225
health 224
id@@ 224
p 224
came 223
last 223
outros 223
understand 223
ve@@ 223
primeiro 222
we've 222
"P@@ 221
sub@@ 221
ul@@ 221
aban 220
ado@@ 220
J@@ 218
ante 218
ic@@ 218
That 216
ben@@ 216
isto@@ 216
les 216
let 216
problema 216
cer@@ 215
idade 215
know, 215
pensar 215
cións 214
eses 214
help 214
l 214
ant@@ 213
idade@@ 213
res@@ 213
to. 213
ían 212
call 211
fac@@ 211
may 211
quero 211
before 210
emos 210
estou 210
fal@@ 210
nunca 210
tra@@ 210
ó@@ 210
[@@ 209
ca, 209
fo@@ 209
mental 209
ten@@ 209
dende 208
tions 208
am 207
ating 207
cal@@ 207
better 206
cun 206
gu@@ 206
mes@@ 206
meus 206
non@@ 206
amos@@ 205
der@@ 205
to." 205
30 204
gar@@ 204
try 204
mal@@ 203
ne@@ 201
esas 200
est 200
mon@@ 200
Because 199
How 199
ap@@ 199
long 199
mos@@ 199
show 199
tar@@ 199
ds 198
ela 197
pr@@ 197
tu@@ 197
20 196
cr@@ 196
is." 196
person 196
xen@@ 196
"B@@ 195
'@@ 195
car 195
ever 195
importante 194
tal@@ 194
too 194
Hai 193
au@@ 193
cal 193
great 193
love 193
thought 193
ñ@@ 193
live 192
logo 192
momento 192
said 192
poder 191
"Os 190
ar. 190
en, 190
--@@ 189
der 189
lo. 189
wanted 189
ación@@ 188
ei 188
told 188
always 187
led 187
tas 187
tor@@ 187
ador@@ 186
algúns 186
br@@ 186
feito, 186
mer@@ 186
such 186
"N@@ 185
"V@@ 185
ción, 185
co, 185
cunha 185
ded 185
looking 185
ment@@ 185
mulleres 185
tos 185
! 184
ban@@ 184
ity 184
off 184
sempre 184
tivo 184
took 184
ín 184
care 183
dar 183
maioría 183
outras 183
us, 183
bit 182
comes 182
dí@@ 182
neste 182
"De 181
cousa 181
end 181
eran 181
means 181
má@@ 181
células 180
exemplo, 180
ing@@ 180
amente 179
course, 179
him 179
tion." 179
toda 179
As 178
ador 178
ally 178
best 178
control 178
mente 178
number 178
sexa 178
teño 178
et@@ 177
medi@@ 177
story 177
system 177
you, 177
ha@@ 176
in, 176
mat@@ 176
Por 175
age 175
what's 175
.@@ 174
k 174
maior 174
nada 174
pres@@ 174
ven 174
cambiar 173
che 173
maybe 173
perso@@ 173
without 173
2@@ 172
X@@ 172
den@@ 172
gra@@ 172
medical 172
min 172
someone 172
place 171
] 170
ask 170
encia 170
global 170
um@@ 170
ón 170
body 169
ses 169
this, 169
Este 168
believe 168
deste 168
problem 168
"Ben, 167
ideas 167
mentres 167
tos@@ 167
ción. 166
iro 166
mas@@ 166
realidade 166
tan@@ 166
using 166
za 166
ín@@ 166
become 165
learn 165
om@@ 165
pens@@ 165
ta. 165
tanto 165
women 165
(Risos) 164
bas@@ 164
den 164
du@@ 164
ed, 164
funcion@@ 164
hoxe 164
ob@@ 164
través 164
u 164
"Para 163
(Aplausos) 163
These 163
making 163
simple 163
túa 163
Esta 162
che@@ 162
cous@@ 162
ed@@ 162
er." 162
getting 162
he@@ 162
ill@@ 162
light 162
podería 162
"H@@ 161
canto 161
day, 161
er. 161
iz@@ 161
me." 161
Y@@ 160
arse 160
cont@@ 160
done 160
ks 160
mis@@ 160
ph@@ 160
punto 160
saúde 160
si 160
whole 160
"", 159
% 159
Como 159
ma 159
por@@ 159
tive 159
trying 159
ven@@ 159
bor@@ 158
is. 158
le, 158
them, 158
50 157
sab@@ 157
val@@ 157
almente 156
asked 156
diferentes 156
king 156
or, 156
point 156
sabemos 156
segu@@ 156
tica@@ 156
world, 156
cambi@@ 155
lo, 155
ous 155
out@@ 155
pl@@ 155
que@@ 155
single 155
1@@ 154
Mar@@ 154
ber@@ 154
c 154
gen@@ 154
grandes 154
ia 154
información 154
ran@@ 154
real@@ 154
tro@@ 154
way, 154
working 154
Eu 153
ba@@ 153
ben, 153
cham@@ 153
coas 153
data 153
datos 153
ly, 153
mesma 153
res 153
second 153
tur@@ 153
ais, 152
cells 152
desde 152
four 152
g 152
ni@@ 152
probably 152
while 152
án 152
ú@@ 152
de, 151
fan 151
you. 151
ías 151
makes 150
ris@@ 150
sh@@ 150
sin@@ 150
tic 150
times 150
incluso 149
children 148
crear 148
fin@@ 148
ist@@ 148
medio 148
novo 148
people, 148
teu 148
van 148
ación, 147
patients 147
penso 147
"Hai 146
ation, 146
ec@@ 146
entón 146
ira 146
kids 146
present@@ 146
somos 146
study 146
algunhas 145
catro 145
dar@@ 145
ev@@ 145
feito 145
ke 145
me. 145
pacientes 145
pretty 145
tal 145
ts, 145
"No 144
ado, 144
ally, 144
eles 144
esper@@ 144
fact, 144
he's 144
segundo 144
sen@@ 144
) 143
U@@ 143
contra 143
k." 143
miles 143
thinking 143
xi@@ 143
year 143
"(Risos) 142
100 142
There's 142
across 142
boa 142
ear@@ 142
ente@@ 142
facer@@ 142
i, 142
tas@@ 142
vol@@ 142
Con@@ 141
adores 141
dicir, 141
et 141
exactly 141
mun@@ 141
now, 141
over@@ 141
ru@@ 141
sería 141
them." 141
water 141
I'd 140
co. 140
experiment@@ 140
había 140
soci@@ 140
son@@ 140
almost 139
ble 139
ide@@ 139
saber 139
th 139
together 139
Re@@ 138
anti@@ 138
bad 138
men 138
often 138
problemas 138
15 137
ke@@ 137
ome 137
red 137
sal@@ 137
tion. 137
years, 137
ós 137
Un 136
acións 136
bur@@ 136
col@@ 136
endo 136
example, 136
homes 136
k, 136
language 136
move 136
ara 135
both 135
creo 135
dan@@ 135
deix@@ 135
entender 135
grande 135
ine 135
ment 135
million 135
podo 135
significa 135
super@@ 135
talking 135
corpo 134
fun@@ 134
having 134
mellor@@ 134
outr@@ 134
plan@@ 134
pu@@ 134
resposta 134
sei 134
small 134
vemos 134
9@@ 133
Iso 133
nov@@ 133
pregun@@ 133
tico@@ 133
fr@@ 132
happens 132
high 132
luz 132
vis@@ 132
vou 132
well 132
ía, 132
"Como 131
ensin@@ 131
h 131
ity, 131
quite 131
r 131
tempo@@ 131
up@@ 131
é, 131
4@@ 130
6@@ 130
bastante 130
poder@@ 130
so, 130
test 130
usar 130
200@@ 129
Unha 129
bu@@ 129
cancer 129
dentro 129
ent, 129
fil@@ 129
heart 129
podes 129
podía 129
re 129
ón, 129
"Unha 128
2 128
Thank 128
all@@ 128
ated 128
del@@ 128
foron 128
xer@@ 128
Agora 127
ades 127
bio@@ 127
bl@@ 127
build 127
create 127
experience 127
grupo 127
na@@ 127
nothing 127
technology 127
ados, 126
lev@@ 126
ne 126
on. 126
side 126
sure 126
ta, 126
tecnoloxía 126
within 126
animal 125
any@@ 125
capacidade 125
cl@@ 125
dor 125
dr@@ 125
everything 125
ge@@ 125
inside 125
isto, 125
mundo, 125
trat@@ 125
ón. 125
and@@ 124
desta 124
enough 124
five 124
fu@@ 124
hard 124
ita 124
número 124
old 124
once 124
parece 124
pen@@ 124
us." 124
alo 123
an." 123
ant 123
gets 123
here, 123
keep 123
nos@@ 123
sense 123
án@@ 123
ability 122
anos. 122
ario 122
cancro 122
caso 122
cha@@ 122
cin@@ 122
cri@@ 122
estaban 122
family 122
har@@ 122
histori@@ 122
j@@ 122
novas 122
on." 122
power 122
rec@@ 122
s: 122
until 122
whether 122
5@@ 121
algún 121
aí 121
conta 121
fer@@ 121
goes 121
idade, 121
question 121
you've 121
"Isto 120
..." 120
ais@@ 120
all, 120
atopar 120
ers, 120
heard 120
idade. 120
muller 120
remember 120
s? 120
saw 120
ton@@ 120
xo@@ 120
óns 120
De@@ 119
already 119
auga 119
bal@@ 119
cambio 119
cas@@ 119
looked 119
mo 119
moita 119
nó@@ 119
vida@@ 119
world." 119
3 118
ach@@ 118
av@@ 118
drug 118
like, 118
multi@@ 118
reason 118
san@@ 118
virus 118
x 118
coming 117
enfermidades 117
imagine 117
imaxe 117
kinds 117
maneira 117
normal 117
ouse 117
respon@@ 117
the@@ 117
vid@@ 117
wa@@ 117
"L@@ 116
Be@@ 116
Se 116
anos@@ 116
ans 116
aprender 116
escoit@@ 116
her@@ 116
ic 116
ler 116
ma, 116
re, 116
th, 116
""I 115
"E, 115
"In@@ 115
aría 115
bar@@ 115
facendo 115
mil 115
science 115
sort 115
today 115
ña 115
8@@ 114
DNA 114
away 114
come@@ 114
dade@@ 114
ding 114
ga 114
half 114
ll@@ 114
ren@@ 114
tre@@ 114
ty 114
a? 113
baixo 113
cerebro@@ 113
cul@@ 113
importan@@ 113
isn't 113
let's 113
pan@@ 113
quería 113
razón 113
read 113
research 113
sed 113
suposto, 113
tic@@ 113
turns 113
up, 113
wasn't 113
ada, 112
destes 112
far@@ 112
food 112
nai 112
nesta 112
seen 112
sing 112
taking 112
tempo, 112
this. 112
ties 112
words 112
"Un 111
ations 111
difícil 111
facelo 111
iso, 111
pasa 111
prob@@ 111
sent@@ 111
simplemente 111
ted, 111
7@@ 110
af@@ 110
ago, 110
amento 110
became 110
ches 110
continu@@ 110
fixo 110
form 110
information 110
lu@@ 110
se, 110
unhas 110
vostedes 110
Porque 109
adi@@ 109
ali@@ 109
caus@@ 109
cinco 109
debería 109
estudo 109
media 109
palabras 109
re." 109
ser@@ 109
tei 109
tiva 109
traballar 109
viol@@ 109
único 109
An@@ 108
Estados 108
a: 108
amente, 108
anything 108
ch 108
direc@@ 108
don@@ 108
gi@@ 108
gr@@ 108
nova 108
one, 108
oso 108
program@@ 108
that. 108
tion@@ 108
trans@@ 108
Co@@ 107
actu@@ 107
alí 107
científicos 107
gan@@ 107
ix@@ 107
les@@ 107
países 107
set 107
thousands 107
verdade 107
United 106
ents 106
exist@@ 106
ey're 106
face 106
lim@@ 106
lin@@ 106
ome@@ 106
podedes 106
senti@@ 106
tions, 106
tá@@ 106
Se@@ 105
We're 105
ame 105
arios 105
dor@@ 105
early 105
educa@@ 105
entire 105
lan@@ 105
ori@@ 105
én@@ 105
ación. 104
an. 104
atención 104
días 104
en. 104
hope 104
of@@ 104
par 104
physical 104
ps 104
there, 104
tipos 104
tí@@ 104
"""@@ 103
ado. 103
ary 103
bacteria 103
ce, 103
chegar 103
cion@@ 103
coñec@@ 103
desenvol@@ 103
dos@@ 103
enten@@ 103
entes 103
ica 103
ity." 103
learned 103
left 103
longo 103
polos 103
turn 103
.000 102
19@@ 102
contr@@ 102
decided 102
es: 102
gas@@ 102
historias 102
instead 102
ked 102
knew 102
looks 102
ores 102
quere 102
tos, 102
traball@@ 102
video 102
vir@@ 102
z 102
"Agora 101
Why 101
based 101
de." 101
dé@@ 101
ei@@ 101
everyone 101
final 101
imaxin@@ 101
k. 101
la 101
part@@ 101
s.""" 101
that." 101
todo, 101
we@@ 101
young 101
¿@@ 101
""S@@ 100
"Entón, 100
I'll 100
ados@@ 100
auto@@ 100
bon@@ 100
bring 100
cións, 100
cos, 100
en." 100
ence 100
happened 100
inten@@ 100
living 100
mellores 100
per 100
right?" 100
tomar 100
ways 100
Tamén 99
algunha 99
b 99
far 99
ness 99
quer@@ 99
takes 99
ves 99
"Este 98
En 98
causa 98
climate 98
di 98
dixo 98
dur@@ 98
estudantes 98
familia 98
front 98
gre@@ 98
neuro@@ 98
out, 98
school 98
In@@ 97
als 97
axud@@ 97
casa 97
e? 97
enfermidade 97
gave 97
ina 97
mean, 97
min, 97
mind 97
myself 97
neno 97
relación 97
sex@@ 97
under@@ 97
war@@ 97
!" 96
aliz@@ 96
ares 96
cli@@ 96
hi@@ 96
humanos 96
ig@@ 96
interes@@ 96
liber@@ 96
ll 96
ninguén 96
nor@@ 96
play 96
pregunta 96
them. 96
tras 96
ur 96
visi@@ 96
you." 96
...@@ 95
Let's 95
anse 95
brain, 95
detec@@ 95
disease 95
during 95
emocion@@ 95
experiencia 95
fact 95
hor@@ 95
learning 95
mir@@ 95
must 95
neuronas 95
proceso 95
see, 95
seguinte 95
sion 95
students 95
tivos 95
única 95
against 94
aquí@@ 94
así@@ 94
bacteri@@ 94
course 94
iras 94
moment 94
médicos 94
ningún 94
open 94
ti 94
under 94
woman 94
work@@ 94
De 93
En@@ 93
Li@@ 93
Son 93
bebés 93
billion 93
bran@@ 93
ck@@ 93
emo@@ 93
esti@@ 93
fix@@ 93
long@@ 93
nen@@ 93
nivel 93
order 93
pat@@ 93
share 93
ts." 93
ver, 93
viv@@ 93
vós 93
well, 93
6 92
Le@@ 92
Wh@@ 92
así, 92
bro@@ 92
bus@@ 92
ce." 92
cento 92
chamado 92
clase 92
da, 92
days 92
gener@@ 92
gran@@ 92
hear 92
indo 92
iros 92
likely 92
pe 92
polas 92
quizais 92
six 92
star@@ 92
tom@@ 92
últimos 92
8 91
aca@@ 91
cent@@ 91
char@@ 91
comezar 91
compar@@ 91
ds, 91
día, 91
entr@@ 91
fa@@ 91
infec@@ 91
ose 91
prim@@ 91
qué 91
right, 91
sol@@ 91
sometimes 91
stop 91
tor 91
tratar 91
us. 91
vosa 91
!""" 90
"Eu 90
<i>@@ 90
ance 90
are@@ 90
couple 90
de. 90
ell@@ 90
facemos 90
fose 90
fun 90
ista 90
known 90
mean 90
medo 90
natural 90
normal@@ 90
or. 90
or." 90
pag@@ 90
xe 90
xun@@ 90
25 89
are, 89
babies 89
bre@@ 89
cannot 89
certain 89
chamada 89
estás 89
grazas 89
group 89
ist 89
ons 89
particular 89
picture 89
poida 89
poñer 89
proces@@ 89
public 89
room 89
seis 89
tam@@ 89
this." 89
turned 89
wor@@ 89
""A@@ 88
"Esta 88
40 88
ADN 88
Al@@ 88
American 88
Car@@ 88
bra@@ 88
correc@@ 88
dir@@ 88
funciona 88
future 88
ida 88
intent@@ 88
leg@@ 88
life, 88
pasar 88
prepar@@ 88
recor@@ 88
since 88
somebody 88
ste@@ 88
though 88
top 88
tura 88
)@@ 87
20@@ 87
Mon@@ 87
My 87
She 87
apar@@ 87
atop@@ 87
bos 87
ciencia 87
deci@@ 87
dese 87
din@@ 87
ería 87
exactamente 87
felt 87
fixemos 87
iv@@ 87
meses 87
months 87
nad@@ 87
ors 87
word 87
you'll 87
“@@ 87
"Pero, 86
12 86
5 86
Aquí 86
New 86
Todos 86
ana 86
diferen@@ 86
gar 86
go. 86
imaxes 86
ión 86
lado 86
line 86
moment@@ 86
mundo. 86
oume 86
país 86
pequena 86
produ@@ 86
se. 86
seems 86
similar 86
simply 86
some@@ 86
telling 86
tica 86
""" 85
4 85
amos, 85
ation." 85
encia, 85
form@@ 85
inv@@ 85
mu@@ 85
preci@@ 85
saying 85
sti@@ 85
stress 85
anim@@ 84
blood 84
destas 84
dollars 84
ed." 84
feeling 84
ico 84
identi@@ 84
io 84
job 84
ke, 84
novos 84
rat@@ 84
rather 84
realidade, 84
seem 84
time." 84
tions." 84
today, 84
um 84
1 83
Está 83
No@@ 83
Po@@ 83
Pro@@ 83
couldn't 83
da. 83
edes 83
efectos 83
end@@ 83
energy 83
happen 83
ime 83
interesting 83
mal 83
modo 83
motiv@@ 83
nós, 83
o: 83
pay 83
pes@@ 83
situ@@ 83
sp@@ 83
sto@@ 83
tamos 83
together, 83
tw@@ 83
vel@@ 83
"e 82
80 82
Cando 82
Est@@ 82
aliment@@ 82
base 82
countries 82
dan 82
deca@@ 82
deles 82
dro@@ 82
ell 82
estr@@ 82
fóra 82
given 82
go." 82
hero@@ 82
ine@@ 82
investigación 82
ith 82
ito 82
lat@@ 82
lives 82
mesmo@@ 82
needs 82
pal@@ 82
probablemente 82
sho@@ 82
trata 82
vida. 82
visión 82
"Porque 81
60 81
Par@@ 81
Temos 81
able, 81
child 81
consider@@ 81
conver@@ 81
creativ@@ 81
fre@@ 81
happen@@ 81
ings 81
istas 81
lingua 81
material 81
mes 81
natur@@ 81
neurons 81
o? 81
tico 81
understanding 81
ust 81
yourself 81
One 80
amount 80
arme 80
ble, 80
ca. 80
cap@@ 80
ces 80
comez@@ 80
comple@@ 80
deixar 80
dic@@ 80
e've 80
e-@@ 80
elas 80
else 80
especi@@ 80
exemplo 80
famili@@ 80
fica@@ 80
full 80
futuro 80
gas 80
ists 80
ite 80
libro 80
ma. 80
médico 80
ningunha 80
ones 80
pais 80
reci@@ 80
resulta 80
stories 80
uso 80
ving 80
voso 80
Mais 79
ano, 79
aria 79
cantidade 79
centos 79
demasiado 79
es? 79
figure 79
hu@@ 79
humano 79
lo 79
micro@@ 79
one. 79
oper@@ 79
palabra 79
process 79
procrastin@@ 79
propia 79
ros@@ 79
speak 79
then, 79
tin@@ 79
tiven 79
ved 79
w, 79
year, 79
"(Aplausos) 78
,000 78
Ch@@ 78
No 78
Z@@ 78
acep@@ 78
ais. 78
apren@@ 78
cambios 78
cas 78
cen@@ 78
close 78
cons@@ 78
cultur@@ 78
dade. 78
dixo: 78
explor@@ 78
fin 78
gus@@ 78
hear@@ 78
life." 78
limit@@ 78
linguaxe 78
ly." 78
monos 78
ms 78
poboación 78
political 78
problems 78
queremos 78
verdade@@ 78
vida, 78
"Agora, 77
- 77
arredor 77
book 77
cam@@ 77
cell 77
condi@@ 77
country 77
developed 77
drugs 77
ed. 77
efecto 77
ep@@ 77
individu@@ 77
inf@@ 77
leave 77
miñas 77
oc@@ 77
one." 77
osa 77
perfec@@ 77
rela@@ 77
ron@@ 77
scientists 77
sentido 77
tedes 77
ter, 77
tratamento 77
vez, 77
y? 77
Era 76
Quero 76
ago 76
ai@@ 76
baix@@ 76
centr@@ 76
computer 76
construír 76
có@@ 76
determin@@ 76
deu 76
educación 76
err@@ 76
estrés 76
genetic 76
itas 76
name 76
ner@@ 76
poñ@@ 76
probas 76
resto 76
ro. 76
tiñan 76
tos. 76
ud@@ 76
vari@@ 76
ví@@ 76
write 76
""M@@ 75
"Ao 75
Dr. 75
Entón 75
Podemos 75
ambi@@ 75
aten@@ 75
bacterias 75
black 75
certo 75
comezamos 75
condu@@ 75
der, 75
encias 75
expres@@ 75
gam@@ 75
le. 75
lec@@ 75
matter 75
mo, 75
others 75
precisamos 75
proxecto 75
sa 75
se." 75
segunda 75
ve. 75
zo 75
"Mais 74
You're 74
again, 74
aquí, 74
audi@@ 74
basically 74
ble@@ 74
ce. 74
cerebro, 74
cost@@ 74
ef@@ 74
el, 74
ere 74
eu@@ 74
grow 74
least 74
life. 74
log@@ 74
our@@ 74
partes 74
person@@ 74
pic@@ 74
raz@@ 74
says, 74
self-@@ 74
teach 74
type 74
ár@@ 74
"Son 73
70 73
TED 73
adap@@ 73
arán 73
axuda 73
estado 73
femin@@ 73
ful 73
ge 73
image 73
nome 73
ocorre 73
pin@@ 73
sendo 73
sitting 73
spend 73
systems 73
t-@@ 73
tando 73
tex@@ 73
think, 73
time. 73
tores 73
ture 73
vén 73
ala 72
along 72
amente@@ 72
animais 72
answer 72
ará 72
camiño 72
cidade 72
common 72
completely 72
control@@ 72
dat@@ 72
education 72
estud@@ 72
huge 72
ile 72
m, 72
mente, 72
negativ@@ 72
oll@@ 72
organiz@@ 72
ourselves 72
publi@@ 72
sor@@ 72
tir@@ 72
ton 72
totalmente 72
uni@@ 72
wouldn't 72
xente, 72
201@@ 71
Bo@@ 71
amazing 71
ative 71
ax@@ 71
be, 71
bil@@ 71
building 71
comunidade 71
deseñ@@ 71
enerxía 71
espazo 71
ey@@ 71
go, 71
history 71
innov@@ 71
inspir@@ 71
int@@ 71
máis, 71
nac@@ 71
needed 71
nese 71
pequen@@ 71
questions 71
ren 71
run 71
seguir 71
seri@@ 71
será 71
significa@@ 71
sistemas 71
volver 71
work, 71
za, 71
7 70
A, 70
at, 70
cause 70
comun@@ 70
constru@@ 70
dade 70
desas 70
example 70
fl@@ 70
h, 70
hand 70
lab@@ 70
liña 70
moléculas 70
mp@@ 70
news 70
osos 70
regul@@ 70
ve." 70
visual 70
xené@@ 70
xusto 70
Es@@ 69
Not 69
Qu@@ 69
acceso 69
age, 69
amor 69
atr@@ 69
cabeza 69
changed 69
coller 69
consu@@ 69
defen@@ 69
dist@@ 69
ele@@ 69
especially 69
every@@ 69
fis@@ 69
happy 69
hours 69
ignor@@ 69
igual 69
ino 69
inst@@ 69
levar 69
lingu@@ 69
mesmos 69
observ@@ 69
od@@ 69
parents 69
paso 69
piece 69
preguntas 69
sexan 69
tanto, 69
tru@@ 69
ure 69
worked 69
wrong 69
ía@@ 69
English 68
Ho@@ 68
Mo@@ 68
ade 68
ante, 68
arnos 68
attention 68
camiñ@@ 68
clas@@ 68
clinical 68
cos. 68
cos@@ 68
dici@@ 68
dólares 68
ent." 68
fillos 68
formas 68
hand@@ 68
here's 68
horas 68
in." 68
later, 68
med 68
mother 68
pedi@@ 68
perhaps 68
pla@@ 68
produc@@ 68
produce 68
seeing 68
specific 68
spent 68
step 68
sur@@ 68
ther 68
use@@ 68
vivir 68
y-@@ 68
"Re@@ 67
arte 67
asen 67
asi@@ 67
bol@@ 67
ces@@ 67
combin@@ 67
difference 67
eco@@ 67
empres@@ 67
entes, 67
equ@@ 67
eri@@ 67
esperanza 67
everybody 67
fam@@ 67
gal@@ 67
gol@@ 67
le." 67
level 67
moit@@ 67
muller@@ 67
p." 67
people." 67
pequenas 67
pequeno 67
pesar 67
positiv@@ 67
seguro 67
she's 67
sive 67
son, 67
tab@@ 67
thing." 67
tried 67
true 67
vez@@ 67
world. 67
yet 67
"(@@ 66
200 66
Com@@ 66
adas, 66
ados. 66
alidade 66
alos 66
ament@@ 66
are." 66
ation. 66
brains 66
comecei 66
des, 66
desenvolvemento 66
estudos 66
fir@@ 66
las@@ 66
lost 66
metade 66
médi@@ 66
night 66
ous, 66
p, 66
parti@@ 66
posible 66
possible 66
pou@@ 66
progres@@ 66
protect 66
pun@@ 66
saben 66
seres 66
situación 66
sta@@ 66
ted." 66
tem@@ 66
there. 66
there." 66
tou 66
xenes 66
y: 66
ying 66
último 66
"An@@ 65
(Music) 65
D 65
Foi 65
Nor@@ 65
Su@@ 65
To@@ 65
able." 65
ada. 65
axudar 65
bles 65
cho@@ 65
complex@@ 65
conseguir 65
debemos 65
diferente 65
dou@@ 65
eat 65
fas@@ 65
fill@@ 65
flu@@ 65
game 65
ger@@ 65
gh@@ 65
giving 65
id 65
interested 65
longer 65
lots 65
medicin@@ 65
morte 65
nam@@ 65
patient 65
pensamos 65
poderían 65
polí@@ 65
powerful 65
pur@@ 65
rest 65
rou@@ 65
soa 65
tiz@@ 65
y.""" 65
♪ 65
""O@@ 64
"Na 64
"Temos 64
adop@@ 64
agora, 64
ake 64
all." 64
back@@ 64
bat@@ 64
bed 64
bir@@ 64
blue 64
color@@ 64
cá@@ 64
descri@@ 64
despois, 64
developing 64
enfron@@ 64
eron 64
este@@ 64
fixen 64
foto 64
head@@ 64
hora 64
hundreds 64
ia, 64
igu@@ 64
individual 64
list@@ 64
m. 64
money 64
nes@@ 64
reg@@ 64
separ@@ 64
system, 64
taken 64
tema 64
themselves 64
treat 64
works 64
Mi@@ 63
adul@@ 63
aybe 63
ba 63
began 63
cadra 63
cales 63
cel@@ 63
coll@@ 63
consegu@@ 63
diante 63
diferenza 63
econom@@ 63
empresas 63
enti@@ 63
especialmente 63
eyes 63
feli@@ 63
fied 63
fillo 63
fully 63
fí@@ 63
gor@@ 63
key 63
large 63
leva 63
listening 63
minutos 63
momento, 63
ollos 63
past 63
population 63
project 63
s?" 63
sobre@@ 63
ticas 63
ties, 63
ts. 63
va 63
w 63
we'll 63
world@@ 63
""The 62
"Al@@ 62
90 62
Só 62
ante@@ 62
behind 62
comezou 62
contar 62
diagnos@@ 62
discovered 62
ere's 62
evidence 62
fic@@ 62
guy 62
in. 62
ins 62
lad@@ 62
m." 62
marabill@@ 62
mento 62
met 62
oil 62
posi@@ 62
preguntar@@ 62
queren 62
realized 62
remo@@ 62
semana 62
ses@@ 62
seven 62
shown 62
team 62
tent@@ 62
tions. 62
vidas 62
000 61
18@@ 61
access 61
actual 61
ativ@@ 61
basic 61
cas, 61
changes 61
cir@@ 61
cogni@@ 61
comportamento 61
corazón 61
cru@@ 61
cultura 61
death 61
depresión 61
develop 61
din 61
either 61
ence, 61
enorme 61
futuro@@ 61
ic, 61
idad@@ 61
impor@@ 61
inci@@ 61
institu@@ 61
instru@@ 61
lembr@@ 61
ments 61
mol@@ 61
molecules 61
moral 61
ning 61
ou, 61
pai 61
pain 61
parts 61
poderiamos 61
pon@@ 61
públi@@ 61
says 61
saír 61
teach@@ 61
tou@@ 61
ty@@ 61
tódolos 61
una 61
vista 61
és 61
"De@@ 60
"J@@ 60
agor@@ 60
antes, 60
beautiful 60
boas 60
brea@@ 60
coche 60
comida 60
community 60
complex 60
concep@@ 60
conec@@ 60
cus@@ 60
easy 60
elec@@ 60
fora 60
idades 60
mad@@ 60
mit@@ 60
miúdo 60
personal 60
propio 60
realize 60
resultado 60
risk 60
sabe 60
sentir 60
size 60
space 60
test@@ 60
thought, 60
ty, 60
was, 60
who's 60
""F@@ 59
""What 59
"[@@ 59
."" 59
500 59
aber@@ 59
ables 59
absolutely 59
act 59
anci@@ 59
as: 59
atopamos 59
aument@@ 59
company 59
cou 59
d-@@ 59
deses 59
envi@@ 59
grand@@ 59
indica@@ 59
interven@@ 59
música 59
n, 59
obter 59
oportunidade 59
p. 59
persoas, 59
predic@@ 59
pren@@ 59
pul@@ 59
radi@@ 59
remat@@ 59
represent@@ 59
sequera 59
support 59
terms 59
th." 59
tional 59
vit@@ 59
walk 59
well-@@ 59
""C@@ 58
""Non 58
"Quero 58
0, 58
ad, 58
afec@@ 58
again 58
almente, 58
amigos 58
and, 58
aran 58
becomes 58
born 58
built 58
cy@@ 58
dade, 58
domin@@ 58
dín 58
eas@@ 58
economic 58
ente, 58
especie 58
ful@@ 58
gañ@@ 58
goberno 58
government 58
growing 58
hospital 58
humans 58
hy@@ 58
ics 58
idea, 58
il, 58
interpre@@ 58
investi@@ 58
ismo 58
kay, 58
king, 58
knowledge 58
lugares 58
minds 58
neces@@ 58
osas 58
out." 58
paciente 58
pasou 58
prefer@@ 58
pros@@ 58
pó@@ 58
ses, 58
sil@@ 58
tado 58
ticos 58
trabal@@ 58
traballo, 58
ño 58
óns, 58
"R@@ 57
-year-old 57
Des@@ 57
In 57
ack@@ 57
ase@@ 57
asking 57
benefici@@ 57
calcul@@ 57
cerebr@@ 57
cerebros 57
clar@@ 57
created 57
desex@@ 57
doctors 57
eight 57
entre@@ 57
evid@@ 57
friend 57
friends 57
head 57
hel@@ 57
ida@@ 57
iro@@ 57
ity. 57
mam@@ 57
mer 57
non, 57
ously 57
pol@@ 57
primeiros 57
refer@@ 57
respec@@ 57
response 57
ry 57
s' 57
si, 57
thing, 57
thing. 57
tly 57
u, 57
ve, 57
ys 57
éxito 57
"Un@@ 56
?"" 56
Col@@ 56
Do 56
Nova 56
aco@@ 56
arre@@ 56
art 56
ates 56
az@@ 56
caixa 56
class 56
companies 56
compartir 56
complica@@ 56
cy 56
córtex 56
damos 56
defin@@ 56
defini@@ 56
dos, 56
ds." 56
dy 56
dá 56
effec@@ 56
ere@@ 56
escoitar 56
estu@@ 56
iamos 56
images 56
ina, 56
including 56
inglés 56
ings, 56
ly. 56
man, 56
manter 56
mar 56
mostr@@ 56
new@@ 56
noite 56
pris@@ 56
rar@@ 56
save 56
selec@@ 56
sociedade 56
solu@@ 56
stand 56
talked 56
terri@@ 56
things, 56
total 56
van@@ 56
view 56
wal@@ 56
whatever 56
xog@@ 56
ér@@ 56
"Polo 55
All 55
Cal@@ 55
adora 55
ah@@ 55
ak@@ 55
aren't 55
ast 55
box 55
brought 55
case, 55
cia 55
deep 55
dig@@ 55
disease, 55
enferm@@ 55
escola 55
feel@@ 55
fundamental 55
glob@@ 55
graph@@ 55
happening 55
importante, 55
importantes 55
ito, 55
ións 55
kin@@ 55
mid@@ 55
natureza 55
nu@@ 55
nutri@@ 55
obes@@ 55
posible@@ 55
rapaces 55
really, 55
risco 55
starting 55
stud@@ 55
studies 55
tación 55
tells 55
ther@@ 55
third 55
usa 55
vas 55
way." 55
well." 55
ze 55
— 55
"Es@@ 54
199@@ 54
Ar@@ 54
C 54
Estou 54
Pen@@ 54
aches 54
agar@@ 54
allows 54
ble. 54
cancer, 54
casos 54
corpo@@ 54
dei 54
ders 54
distribu@@ 54
dra@@ 54
dá@@ 54
equipo 54
escribir 54
fter 54
han@@ 54
incredibly 54
is: 54
laboratorio 54
local 54
loit@@ 54
mill@@ 54
minutes 54
modelo 54
neuron@@ 54
no, 54
people. 54
proba 54
problem@@ 54
resultados 54
sala 54
scan@@ 54
segur@@ 54
several 54
showed 54
shows 54
sis@@ 54
so." 54
sun@@ 54
tas, 54
ter." 54
termos 54
th. 54
this: 54
tici@@ 54
tir 54
tiñamos 54
tle 54
ume 54
univers@@ 54
vin 54
viven 54
wh@@ 54
xeito, 54
ámonos 54
íamos 54
ír 54
ñas 54
última 54
""W@@ 53
"En@@ 53
9 53
Ben, 53
China 53
Pode 53
Unid@@ 53
a.""" 53
aqu@@ 53
ber 53
ch, 53
chan@@ 53
cid@@ 53
coid@@ 53
concer@@ 53
contribu@@ 53
cour@@ 53
dest@@ 53
distin@@ 53
ently 53
ers." 53
exis@@ 53
explain 53
falando 53
flo@@ 53
forma@@ 53
gene 53
genes 53
home, 53
i. 53
idea. 53
il 53
ili@@ 53
imagin@@ 53
interesante 53
ira, 53
itos 53
land 53
lar@@ 53
les, 53
life@@ 53
lose 53
low@@ 53
medica@@ 53
middle 53
more, 53
ned 53
oma 53
oun@@ 53
partir 53
path@@ 53
places 53
playing 53
preto 53
queres 53
realiz@@ 53
recursos 53
redor 53
resol@@ 53
ro, 53
sabía 53
school, 53
scientific 53
semanas 53
sha@@ 53
sli@@ 53
stuff 53
ters 53
tería 53
tica, 53
up." 53
veces, 53
veñen 53
volta 53
vos@@ 53
white 53
y's 53
years." 53
""D@@ 52
""H@@ 52
' 52
11 52
Per@@ 52
S 52
Xa 52
amento, 52
aper@@ 52
atori@@ 52
beginning 52
behavior 52
boo@@ 52
cabez@@ 52
ces, 52
city 52
conduc@@ 52
das, 52
device 52
difficult 52
emocións 52
empresa 52
evolu@@ 52
exac@@ 52
excep@@ 52
existe 52
familiar 52
fear 52
fármaco 52
gender 52
hold 52
icas 52
ice 52
jo@@ 52
l, 52
microbios 52
mil@@ 52
morr@@ 52
mud@@ 52
ost 52
paci@@ 52
paí@@ 52
prescri@@ 52
protec@@ 52
que? 52
respir@@ 52
result@@ 52
sac@@ 52
sing@@ 52
sions 52
smo@@ 52
sociais 52
sounds 52
speaking 52
sufr@@ 52
things." 52
thre@@ 52
tico, 52
time@@ 52
tiny 52
towards 52
varios 52
ún@@ 52
"Que 51
"To@@ 51
America 51
Creo 51
TED@@ 51
actually, 51
animals 51
anyone 51
aquela 51
areas 51
campo 51
cantos 51
completamente 51
consciencia 51
conversa@@ 51
deal 51
dentes 51
difer@@ 51
dixo, 51
elimin@@ 51
entos 51
esp@@ 51
expli@@ 51
facelo@@ 51
finally 51
focus 51
fotos 51
games 51
grav@@ 51
here. 51
him, 51
idos 51
impres@@ 51
ks, 51
meaning 51
medr@@ 51
mellorar 51
mur@@ 51
ora 51
particularly 51
people's 51
perig@@ 51
poucos 51
read@@ 51
resist@@ 51
rest@@ 51
running 51
sete 51
sion@@ 51
table 51
tradi@@ 51
weeks 51
wi@@ 51
xo 51
"Entón 50
/ 50
5, 50
CRISPR 50
Em@@ 50
Ex@@ 50
Inter@@ 50
Todo 50
acción 50
adultos 50
als, 50
ando, 50
aparec@@ 50
ario, 50
ate@@ 50
atur@@ 50
beb@@ 50
ble." 50
blo@@ 50
brain." 50
brill@@ 50
capaces 50
carbon 50
causes 50
cha 50
changing 50
charla 50
cle@@ 50
comparti@@ 50
cooper@@ 50
cra@@ 50
cure 50
decisi@@ 50
demostr@@ 50
depression 50
desaparec@@ 50
descubr@@ 50
dez 50
dri@@ 50
effects 50
empreg@@ 50
environment 50
estades 50
extraordin@@ 50
extremely 50
ge, 50
gone 50
graz@@ 50
hon@@ 50
ish 50
ism 50
itself 50
legal 50
loved 50
millions 50
mirar 50
moder@@ 50
other, 50
ould 50
paper 50
pequenos 50
permite 50
pir@@ 50
plane@@ 50
point, 50
power@@ 50
pped 50
prote@@ 50
provide 50
qui@@ 50
re. 50
rede 50
rich 50
rode@@ 50
sinais 50
sit 50
starts 50
tivemos 50
tors 50
va@@ 50
watch 50
zar 50
án, 50
"Con 49
0@@ 49
12@@ 49
16 49
Esa 49
G: 49
Ou 49
Ro@@ 49
York 49
a"" 49
absolu@@ 49
avi@@ 49
aw@@ 49
barri@@ 49
begin 49
cartos 49
chamamos 49
chor@@ 49
clear 49
clear@@ 49
comeza 49
compu@@ 49
construc@@ 49
cor 49
creating 49
cuestión 49
culture 49
deberiamos 49
decisións 49
descubrir 49
diseases 49
dix@@ 49
entón, 49
father 49
fondo 49
hands 49
hol@@ 49
inos 49
investig@@ 49
iso. 49
ist, 49
language, 49
mentes 49
mentos 49
metros 49
mic@@ 49
mus@@ 49
named 49
obxectivo 49
parec@@ 49
ped 49
poidan 49
reach 49
sound 49
source 49
soñ@@ 49
speci@@ 49
sum@@ 49
ted. 49
treatment 49
won't 49
work. 49
z, 49
"Aínda 48
"CA: 48
"U@@ 48
1, 48
30@@ 48
Cor@@ 48
Grazas. 48
Pe@@ 48
T 48
Your 48
abamos 48
actividade 48
again." 48
alta 48
alto 48
arti@@ 48
ation@@ 48
ations, 48
ave 48
average 48
bab@@ 48
baby 48
casa@@ 48
ching 48
ck 48
clos@@ 48
comprender 48
cultural 48
darlle 48
discus@@ 48
estrutura 48
free 48
gos 48
gram@@ 48
grew 48
gue@@ 48
habit@@ 48
haven't 48
health@@ 48
imaxinar 48
ise 48
largest 48
las 48
ling 48
linguas 48
listen 48
lon@@ 48
molécula 48
moving 48
obvi@@ 48
ocorr@@ 48
old, 48
orden@@ 48
os: 48
pe, 48
pel@@ 48
precisa 48
programa 48
proto@@ 48
repeti@@ 48
rápido 48
sent 48
sion, 48
tamente 48
teñ@@ 48
teñan 48
thank 48
thing@@ 48
traballando 48
training 48
ura 48
waiting 48
wonderful 48
xeración 48
xuntos 48
""T@@ 47
"Despois 47
"Durante 47
"Xa 47
8, 47
Europa 47
If 47
Internet 47
Unidos 47
a-@@ 47
about, 47
abr@@ 47
ace 47
ack 47
air@@ 47
allow 47
ally." 47
apoio 47
axe 47
ay 47
base@@ 47
biological 47
buscar 47
caso, 47
centro 47
communica@@ 47
competi@@ 47
compr@@ 47
conserv@@ 47
corr@@ 47
coun@@ 47
day." 47
desa 47
diferenzas 47
dores 47
escol@@ 47
favorite 47
ferramentas 47
fixeron 47
fol@@ 47
forms 47
fro@@ 47
fron@@ 47
grupos 47
guys 47
hab@@ 47
ically 47
ies 47
impac@@ 47
impact 47
incl@@ 47
influ@@ 47
late 47
lif@@ 47
lis@@ 47
literally 47
loo@@ 47
los@@ 47
magn@@ 47
main 47
mean@@ 47
medida 47
metr@@ 47
mos, 47
music 47
nesa 47
nestes 47
novo, 47
odi@@ 47
plac@@ 47
política 47
quality 47
quix@@ 47
reality 47
relationship 47
s; 47
saying, 47
sel@@ 47
seman@@ 47
stri@@ 47
tec@@ 47
they've 47
tic, 47
tically 47
truly 47
uses 47
vas@@ 47
vendo 47
vimos 47
vir 47
vo 47
wo@@ 47
wrote 47
xir@@ 47
zona 47
á, 47
íase 47
""You 46
00@@ 46
18 46
Para 46
People 46
Pre@@ 46
able. 46
action 46
ade@@ 46
am, 46
app@@ 46
aremos 46
atu@@ 46
autis@@ 46
autism 46
aí@@ 46
bin@@ 46
ced 46
cerebral 46
chega 46
chegou 46
chi@@ 46
clu@@ 46
connec@@ 46
consider 46
crise 46
das@@ 46
divi@@ 46
down@@ 46
ely 46
fag@@ 46
four@@ 46
fronte 46
hand, 46
here@@ 46
house 46
ick@@ 46
ill 46
ily 46
increase 46
inici@@ 46
kill 46
lab 46
lem@@ 46
libros 46
llo 46
materi@@ 46
medios 46
ment." 46
mind, 46
model 46
movemento 46
niveis 46
opini@@ 46
organ@@ 46
ous@@ 46
pensando 46
popul@@ 46
positive 46
proxec@@ 46
pódese 46
rápid@@ 46
serie 46
showing 46
sión 46
solve 46
terapia 46
terror@@ 46
tes@@ 46
tor, 46
two, 46
usamos 46
vil@@ 46
work." 46
xogo 46
xus@@ 46
ír@@ 46
""V@@ 45
"Con@@ 45
"Est@@ 45
"Ou 45
"Porén, 45
"Sab@@ 45
10@@ 45
Alzheimer's 45
For@@ 45
States 45
alá 45
arvos 45
atrás 45
auth@@ 45
autismo 45
beyond 45
books 45
bri@@ 45
cell@@ 45
certainly 45
certo, 45
cheg@@ 45
cociñ@@ 45
comerci@@ 45
contin@@ 45
célula 45
desenvolver 45
digo 45
distintas 45
e's 45
efec@@ 45
emotional 45
eng@@ 45
ers. 45
eu, 45
exercise 45
fish 45
fri@@ 45
gives 45
gro@@ 45
here." 45
high@@ 45
hospit@@ 45
hoxe, 45
ideas, 45
ima@@ 45
interac@@ 45
involved 45
lived 45
low 45
microbes 45
my@@ 45
obxectos 45
ol 45
perder 45
plan 45
plas@@ 45
promo@@ 45
ra 45
rap@@ 45
ras@@ 45
recognize 45
redu@@ 45
sensación 45
short 45
sk@@ 45
subjec@@ 45
supposed 45
t? 45
tamaño 45
trac@@ 45
tó@@ 45
usually 45
verse 45
walking 45
was@@ 45
ws 45
xeit@@ 45
é: 45
""Well, 44
"Todos 44
%@@ 44
's, 44
300 44
400 44
Estes 44
Is@@ 44
Moitas 44
alg@@ 44
alter@@ 44
ame@@ 44
area 44
axu@@ 44
bel@@ 44
bro 44
buy 44
colle@@ 44
común 44
concentra@@ 44
corpor@@ 44
crí@@ 44
código 44
demais 44
dul@@ 44
ense 44
ental 44
est, 44
exci@@ 44
exercicio 44
fai@@ 44
fall@@ 44
fascin@@ 44
favor@@ 44
formar 44
foun@@ 44
fur@@ 44
higher 44
hope@@ 44
ides 44
ido 44
incredible 44
ined 44
intentar 44
invent@@ 44
ize 44
kid 44
la. 44
later 44
listen@@ 44
medicina 44
mostra 44
moved 44
nobody 44
not, 44
obxec@@ 44
ocul@@ 44
og@@ 44
ors, 44
oso, 44
outside 44
pensan 44
peor 44
philosop@@ 44
phone 44
pping 44
present 44
prevent 44
rab@@ 44
real, 44
require 44
resources 44
room, 44
so. 44
solución 44
sos@@ 44
stor@@ 44
str@@ 44
types 44
té@@ 44
univer@@ 44
up. 44
utiliz@@ 44
win@@ 44
xur@@ 44
you@@ 44
"". 43
"BG: 43
"Iso 43
"Nos 43
He's 43
Penso 43
Res@@ 43
Si@@ 43
What's 43
abon@@ 43
als. 43
amaz@@ 43
aprendín 43
ars 43
ato@@ 43
back, 43
body, 43
cabo 43
casa, 43
comezo 43
comp@@ 43
comunidades 43
confer@@ 43
contar@@ 43
coo@@ 43
country, 43
curios@@ 43
deman@@ 43
desig@@ 43
divers@@ 43
diverti@@ 43
doctor 43
dream 43
ement@@ 43
end, 43
estab@@ 43
estre@@ 43
evitar 43
falta 43
fan@@ 43
fire 43
forza 43
g, 43
girls 43
hun@@ 43
impacto 43
inclu@@ 43
ink 43
iros, 43
ish@@ 43
itar 43
kept 43
kid@@ 43
logo, 43
major 43
molecule 43
mundo@@ 43
nature 43
necesitamos 43
nur@@ 43
pain@@ 43
pech@@ 43
plástico 43
poor 43
probable 43
público 43
ran 43
range 43
seguridade 43
shi@@ 43
sob@@ 43
standing 43
story." 43
sup@@ 43
temper@@ 43
tend 43
tese 43
teña 43
usan 43
valor 43
virtual 43
viñ@@ 43
way. 43
worth 43
xes 43
xu@@ 43
xénero 43
yet, 43
áreas 43
""A 42
""N@@ 42
"G@@ 42
"Qu@@ 42
14 42
196@@ 42
198@@ 42
Europe 42
Gen@@ 42
absor@@ 42
acor@@ 42
aprendizaxe 42
arlle 42
asoci@@ 42
axeit@@ 42
bes 42
biggest 42
brain. 42
bun@@ 42
business 42
camp@@ 42
chegar@@ 42
chemical 42
comer 42
concre@@ 42
conti@@ 42
design 42
differen@@ 42
diri@@ 42
discover@@ 42
ela, 42
enta 42
ered 42
esco@@ 42
exten@@ 42
fit@@ 42
función 42
ge." 42
green 42
haber 42
her, 42
hundred 42
ks." 42
lista 42
liter@@ 42
lugar@@ 42
mans 42
mas 42
meet 42
minu@@ 42
model@@ 42
nalgún 42
negative 42
non-@@ 42
now." 42
objec@@ 42
opportunity 42
papel 42
perman@@ 42
poli@@ 42
porta 42
predict 42
puidese 42
puido 42
rapaz 42
razóns 42
sexual 42
sorpren@@ 42
state 42
stay 42
story, 42
suddenly 42
tarde 42
ther, 42
therapy 42
valor@@ 42
wan@@ 42
week 42
written 42
your@@ 42
área 42
áron@@ 42
í 42
ña, 42
”@@ 42
""Oh, 41
"Era 41
"Se@@ 41
"Tamén 41
/@@ 41
50@@ 41
:@@ 41
China, 41
Dis@@ 41
Health 41
Is 41
ach 41
acheg@@ 41
acontece 41
ad 41
ades, 41
agricul@@ 41
amigo 41
antibióticos 41
ary, 41
ato 41
cade@@ 41
clíni@@ 41
coñecemento 41
crimin@@ 41
cro@@ 41
current 41
dalgún 41
dead@@ 41
deber@@ 41
decidín 41
demos 41
dereito 41
designed 41
detrás 41
digital 41
disto 41
dixen: 41
dixit@@ 41
dose 41
días, 41
effect 41
embaraz@@ 41
entrar 41
eta@@ 41
evolucion@@ 41
ficar 41
finding 41
fá@@ 41
hormon@@ 41
humana 41
importa 41
industria 41
infor@@ 41
intelixencia 41
ire 41
loca@@ 41
lá@@ 41
me: 41
mesmo, 41
national 41
oce@@ 41
organis@@ 41
ox@@ 41
oí@@ 41
pensa 41
principal 41
priv@@ 41
proce@@ 41
pá@@ 41
reac@@ 41
recoñec@@ 41
salv@@ 41
seguen 41
self 41
sexu@@ 41
siste@@ 41
suppor@@ 41
tamén@@ 41
tecnoloxías 41
teus 41
tiva, 41
traballo@@ 41
vermell@@ 41
viax@@ 41
visu@@ 41
vía 41
water, 41
wn 41
writing 41
ábase 41
ándose 41
ños 41
""E@@ 40
75 40
Au@@ 40
Aínda 40
CA: 40
Can@@ 40
Google 40
I, 40
Ken@@ 40
Ten 40
Vi@@ 40
World 40
abondo 40
abor@@ 40
analy@@ 40
análise 40
apoi@@ 40
ard 40
argu@@ 40
ate, 40
bodies 40
body." 40
brain@@ 40
bul@@ 40
canc@@ 40
cen 40
choose 40
collemos 40
connected 40
conven@@ 40
cost 40
countries, 40
cán@@ 40
decisión 40
development 40
dicir@@ 40
die 40
do? 40
dou 40
dream@@ 40
e: 40
edit@@ 40
effective 40
enferme@@ 40
estudante 40
eventually 40
exp@@ 40
experiment 40
fat@@ 40
fe 40
final, 40
fon@@ 40
fru@@ 40
gradu@@ 40
healthy 40
hos@@ 40
introdu@@ 40
larger 40
lear@@ 40
ligh@@ 40
lives." 40
ly@@ 40
mala 40
medicamentos 40
memory 40
mercado 40
nel@@ 40
nice 40
now. 40
oito 40
ordenador 40
pensei 40
period 40
plastic 40
pobo@@ 40
pobre@@ 40
poe@@ 40
primeiras 40
prin@@ 40
pux@@ 40
refuxi@@ 40
shape 40
shor@@ 40
situation 40
solar 40
sou@@ 40
suce@@ 40
taught 40
technologies 40
termin@@ 40
though, 40
ticamente 40
tro 40
um, 40
usando 40
ut 40
valu@@ 40
vex@@ 40
vin@@ 40
we'd 40
wonder@@ 40
zed 40
""Que 39
"Come@@ 39
"Po@@ 39
Euro@@ 39
Imos 39
Ne@@ 39
Sab@@ 39
Ti@@ 39
aci@@ 39
ador, 39
adults 39
ai 39
amig@@ 39
ans, 39
antibiotics 39
anza 39
arlles 39
arri@@ 39
arí@@ 39
available 39
avanz@@ 39
becoming 39
bottom 39
cells, 39
cer 39
claro 39
comunicación 39
consci@@ 39
conversation 39
correspon@@ 39
dado 39
debe 39
died 39
director 39
ement 39
emotions 39
emp@@ 39
erra 39
escri@@ 39
estudar 39
falamos 39
fast 39
fiel@@ 39
fit 39
formación 39
formul@@ 39
girl 39
glo@@ 39
grou@@ 39
groups 39
guess 39
helped 39
high-@@ 39
identify 39
ilo 39
indi@@ 39
inte@@ 39
integr@@ 39
kil@@ 39
knows 39
land@@ 39
libr@@ 39
lugar, 39
mari@@ 39
measure 39
medicine 39
meses, 39
modelos 39
month@@ 39
ness, 39
obser@@ 39
ony 39
ore 39
outros, 39
pasado 39
preciso 39
presión 39
probar 39
program 39
propias 39
próxima 39
ra, 39
reading 39
redes 39
relacións 39
remos 39
respos@@ 39
sabedes 39
secon@@ 39
simpl@@ 39
sm@@ 39
soon 39
species 39
spread 39
st 39
system." 39
século 39
sín@@ 39
síntomas 39
taron 39
tel@@ 39
tendo 39
ters, 39
totally 39
tun@@ 39
varias 39
virtu@@ 39
vision 39
vivir@@ 39
volu@@ 39
vulner@@ 39
watching 39
ór@@ 39
óxica 39
óxico 39
"Aquí 38
"Pen@@ 38
9, 38
David 38
Don't 38
Estamos 38
Los 38
Medi@@ 38
a; 38
abandon@@ 38
ache@@ 38
adores, 38
air 38
aire 38
among 38
amp@@ 38
ang@@ 38
aparece 38
aspecto 38
atra@@ 38
blu@@ 38
box@@ 38
boy 38
care@@ 38
chance 38
cing 38
clo@@ 38
colec@@ 38
compan@@ 38
conscien@@ 38
cris@@ 38
deberían 38
despite 38
differences 38
difficul@@ 38
dispar@@ 38
encontr@@ 38
enz@@ 38
es?" 38
exemp@@ 38
facía 38
familias 38
fermos@@ 38
física 38
gene@@ 38
ger 38
ging 38
houbo 38
ice, 38
inmun@@ 38
interior 38
investiga@@ 38
io@@ 38
iro, 38
itu@@ 38
kes 38
know@@ 38
lack 38
lead 38
len 38
levels 38
logr@@ 38
lun@@ 38
marke@@ 38
mensaxe 38
meta@@ 38
ores, 38
percep@@ 38
person, 38
petróleo 38
peza 38
ping 38
pit@@ 38
play@@ 38
polic@@ 38
potencial 38
preocu@@ 38
preocup@@ 38
proporcion@@ 38
rate 38
ready 38
recuper@@ 38
reducir 38
rematar 38
result 38
revel@@ 38
school@@ 38
ses." 38
simul@@ 38
special 38
tampouco 38
televisi@@ 38
teri@@ 38
ting, 38
train 38
tras@@ 38
value 38
whe@@ 38
wish 38
x, 38
xuí@@ 38
y?" 38
ímos 38
"Así, 37
"Cada 37
"Co@@ 37
(Aplauso) 37
24 37
70@@ 37
CE@@ 37
Chin@@ 37
Fran@@ 37
Gre@@ 37
Gu@@ 37
National 37
Or 37
Ter@@ 37
Teño 37
able@@ 37
acadar 37
afraid 37
age. 37
agre@@ 37
als." 37
americ@@ 37
analiz@@ 37
ancia 37
anima@@ 37
aquel 37
are. 37
aspir@@ 37
atopar@@ 37
autor@@ 37
break 37
busines@@ 37
calidade 37
cambiou 37
camente 37
cancer." 37
capaz 37
car, 37
chea 37
cks 37
climá@@ 37
conf@@ 37
conscious 37
contex@@ 37
cousas, 37
crecemento 37
cremos 37
célul@@ 37
dades 37
decide 37
deliver 37
der. 37
dir 37
distintos 37
down, 37
dre@@ 37
dólar@@ 37
economía 37
electr@@ 37
emos, 37
empez@@ 37
ence." 37
ento 37
existen 37
faces 37
fala 37
generation 37
gue 37
home@@ 37
humanos, 37
ich 37
idas 37
improve 37
incrible 37
iso@@ 37
issu@@ 37
lam@@ 37
language." 37
languages 37
lent@@ 37
let@@ 37
light, 37
lou@@ 37
man." 37
march@@ 37
matemá@@ 37
ment, 37
ment. 37
night, 37
ocean 37
océ@@ 37
other." 37
parent@@ 37
perspectiva 37
pictures 37
planeta 37
posición 37
potential 37
pre-@@ 37
prác@@ 37
psychological 37
question, 37
recent 37
recep@@ 37
reduce 37
relev@@ 37
repar@@ 37
resid@@ 37
segue 37
semell@@ 37
send 37
sic@@ 37
simil@@ 37
sinxel@@ 37
soun@@ 37
symptoms 37
tarse 37
tase 37
tics 37
tis@@ 37
tivos, 37
too." 37
tools 37
tros 37
velo@@ 37
very, 37
videoxogos 37
wants 37
waste 37
wee@@ 37
yes, 37
zon@@ 37
ís@@ 37
úen 37
2, 36
Ese 36
Go@@ 36
Gr@@ 36
Gustaríame 36
OK, 36
Pas@@ 36
T: 36
US 36
Uni@@ 36
accep@@ 36
accid@@ 36
ages 36
all. 36
alle@@ 36
alo, 36
ance, 36
appro@@ 36
arm 36
artificial 36
at." 36
ator@@ 36
ay@@ 36
break@@ 36
bunch 36
ch." 36
chegamos 36
cognitive 36
collabor@@ 36
color 36
compared 36
condicións 36
corpo, 36
creative 36
cuarto 36
custo@@ 36
dam@@ 36
dark 36
deron 36
develop@@ 36
dirix@@ 36
e.""" 36
ece 36
económi@@ 36
electri@@ 36
enga@@ 36
envellec@@ 36
ery 36
esfor@@ 36
espaci@@ 36
experimento 36
explicar 36
face@@ 36
fair@@ 36
fer 36
fica 36
fight 36
finally, 36
foo@@ 36
fran@@ 36
func@@ 36
gri@@ 36
gs 36
historia, 36
imp@@ 36
impro@@ 36
individuals 36
interest@@ 36
lit@@ 36
local@@ 36
luz@@ 36
mai@@ 36
market 36
mañá 36
ments, 36
message 36
morea 36
movem@@ 36
nais 36
nee@@ 36
ning@@ 36
ns 36
number@@ 36
ow@@ 36
perci@@ 36
perten@@ 36
período 36
police 36
principio 36
projec@@ 36
protexer 36
reasons 36
recently 36
relacion@@ 36
rema@@ 36
reser@@ 36
respostas 36
sad@@ 36
sea 36
sensa@@ 36
sign@@ 36
sion. 36
socie@@ 36
software 36
stage 36
strong 36
student 36
sus@@ 36
tarefa 36
tele@@ 36
terrible 36
that? 36
tics, 36
tive, 36
tumor@@ 36
ular 36
vec@@ 36
ves, 36
vive 36
wel@@ 36
xene 36
xor@@ 36
zas 36
zing 36
íxen@@ 36
” 36
""I'm 35
"Estes 35
"Per@@ 35
3, 35
C, 35
EE. 35
Estas 35
Grazas 35
Lo@@ 35
Man@@ 35
R 35
Tal@@ 35
Teñen 35
abaixo 35
abili@@ 35
acordo 35
ami@@ 35
ance." 35
ano@@ 35
ans@@ 35
aprender@@ 35
audience 35
auga, 35
baixa 35
ball 35
ban 35
but@@ 35
caras 35
central 35
challenge 35
ched 35
choic@@ 35
chronic 35
college 35
communities 35
copi@@ 35
coraz@@ 35
crer 35
cámara 35
cómo 35
depresi@@ 35
dif@@ 35
do: 35
efica@@ 35
elabor@@ 35
elementos 35
empezar 35
encar@@ 35
ended 35
ensaios 35
escoll@@ 35
escrit@@ 35
ess 35
ester@@ 35
estimul@@ 35
et, 35
ever@@ 35
experienced 35
financi@@ 35
fácil 35
grow@@ 35
guerra 35
ide 35
incen@@ 35
ine, 35
irmá@@ 35
iron 35
iting 35
ju@@ 35
lanz@@ 35
lap@@ 35
manag@@ 35
manipul@@ 35
memoria 35
mesmas 35
mic 35
microbi@@ 35
mostly 35
ms, 35
mé@@ 35
negoci@@ 35
ness." 35
normalmente 35
ons, 35
open@@ 35
orixin@@ 35
other@@ 35
pa 35
paid 35
parecen 35
pasaría 35
patient@@ 35
país, 35
po 35
podían 35
pri@@ 35
prosper@@ 35
provo@@ 35
publica@@ 35
putting 35
quei 35
quickly 35
reas@@ 35
recom@@ 35
reflec@@ 35
relixi@@ 35
reprodu@@ 35
sai@@ 35
saú@@ 35
sco@@ 35
security 35
see@@ 35
seemed 35
self. 35
shoul@@ 35
side, 35
simple, 35
skin 35
social, 35
structure 35
surviv@@ 35
tarefas 35
te: 35
ter. 35
tered 35
tes, 35
throughout 35
tivo, 35
train@@ 35
treat@@ 35
trou@@ 35
trust 35
truth 35
upon 35
vexo 35
vó@@ 35
wait 35
walked 35
with@@ 35
xeni@@ 35
you'd 35
"Pode 34
"Só 34
"X@@ 34
-lo 34
1,@@ 34
</i> 34
BG: 34
Ber@@ 34
Bi@@ 34
Cada 34
Fix@@ 34
Polo 34
San 34
Universidade 34
afric@@ 34
alas 34
alterna@@ 34
ambiente 34
amosar 34
anz@@ 34
artist@@ 34
bili@@ 34
bos@@ 34
cases 34
choice 34
circul@@ 34
clave 34
complete 34
comportam@@ 34
condición 34
conditions 34
consciousness 34
contacto 34
corpos 34
costs 34
critical 34
ctually, 34
cura 34
cut 34
dea 34
deb@@ 34
depen@@ 34
der." 34
detectar 34
di, 34
disease." 34
diversidade 34
door 34
eci@@ 34
education, 34
eg@@ 34
ences 34
engine@@ 34
estea 34
extre@@ 34
fago 34
fall 34
feels 34
fici@@ 34
field 34
follow 34
ght 34
gusta 34
hed 34
if@@ 34
igualdade 34
ille 34
income 34
inflam@@ 34
instal@@ 34
ir, 34
magine 34
maiores 34
men, 34
ming 34
moslles 34
nearly 34
necesit@@ 34
ner 34
one-@@ 34
opción 34
opposite 34
pati@@ 34
patients, 34
permitir@@ 34
photograph@@ 34
pouco, 34
precis@@ 34
problem, 34
profesor 34
pron@@ 34
propor@@ 34
pull 34
quen@@ 34
refu@@ 34
related 34
role 34
room@@ 34
s) 34
science, 34
secre@@ 34
serious 34
sol 34
stopped 34
suffer@@ 34
suici@@ 34
surpris@@ 34
taba 34
teacher 34
teaching 34
than@@ 34
think@@ 34
though@@ 34
tic." 34
toma 34
tra 34
traditional 34
usi@@ 34
ved." 34
versión 34
verán 34
veu 34
vídeo 34
weren't 34
whi@@ 34
wo 34
world's 34
xogar 34
zos 34
éxit@@ 34
"Podemos 33
4, 33
?] 33
Do@@ 33
Hu@@ 33
Ob@@ 33
acerca 33
active 33
after@@ 33
agu@@ 33
ameaz@@ 33
antibió@@ 33
armos 33
artigo 33
be." 33
beleza 33
cancro, 33
colabor@@ 33
controlar 33
corre@@ 33
crow@@ 33
culp@@ 33
days, 33
deberíamos 33
depres@@ 33
dereitos 33
desen@@ 33
destru@@ 33
doutor@@ 33
ds. 33
enfer@@ 33
escala 33
esquerda 33
estra@@ 33
exerci@@ 33
extra@@ 33
eye 33
facer, 33
first, 33
forte 33
frecu@@ 33
friend@@ 33
fusi@@ 33
fármacos 33
física@@ 33
fó@@ 33
greatest 33
gustaría 33
heav@@ 33
hit 33
hour@@ 33
idea." 33
industri@@ 33
ingly 33
insul@@ 33
invol@@ 33
irst 33
it?" 33
ixo 33
iñ@@ 33
ks. 33
law 33
lines 33
list 33
losing 33
low-@@ 33
majority 33
measu@@ 33
mencion@@ 33
mind@@ 33
minis@@ 33
months, 33
more." 33
morning 33
mortal@@ 33
mou@@ 33
much. 33
mul@@ 33
necessary 33
net@@ 33
nother 33
numbers 33
off@@ 33
ol, 33
path 33
pedir 33
percepción 33
perfect 33
pero, 33
peti@@ 33
plant 33
poñer@@ 33
preguntá@@ 33
proble@@ 33
propi@@ 33
publis@@ 33
química 33
raise 33
reaccion@@ 33
received 33
ree 33
reli@@ 33
resistencia 33
resul@@ 33
rexión 33
rid@@ 33
sabedes, 33
sat 33
sens@@ 33
sex 33
ship 33
significado 33
sinal 33
sym@@ 33
task 33
therap@@ 33
tiveron 33
tratamentos 33
try, 33
turning 33
universo 33
vedes 33
visible 33
volv@@ 33
voz 33
w." 33
willing 33
áronse 33
""O 32
""Por 32
"Estas 32
(S@@ 32
100@@ 32
?@@ 32
B 32
Bar@@ 32
Come@@ 32
Earth 32
F: 32
Fac@@ 32
Fal@@ 32
Podo 32
Tiña 32
a... 32
add 32
address 32
adecu@@ 32
afecta 32
algo, 32
alimentos 32
alize 32
analysis 32
applica@@ 32
apply 32
aprob@@ 32
arían 32
asegur@@ 32
ath 32
bale@@ 32
beauty 32
bigger 32
bot@@ 32
cadea 32
camos 32
capital 32
cep@@ 32
cional 32
coidados 32
collec@@ 32
coment@@ 32
compren@@ 32
condition 32
content 32
conxunto 32
coñecemos 32
curi@@ 32
curso 32
dead 32
democraci@@ 32
dest 32
effor@@ 32
encan@@ 32
ende@@ 32
enough, 32
ens 32
enxeñ@@ 32
escur@@ 32
espec@@ 32
espero 32
eth@@ 32
excited 32
familia, 32
figur@@ 32
figured 32
folks 32
foot@@ 32
force 32
ged 32
graf@@ 32
greater 32
hing 32
hour 32
ight 32
ilidade 32
immune 32
importantly, 32
ingl@@ 32
intelligence 32
interese 32
international 32
invest@@ 32
ion@@ 32
ke. 32
languag@@ 32
ler@@ 32
level@@ 32
lic@@ 32
lies 32
lonxe 32
machine 32
mag@@ 32
mel@@ 32
memories 32
mentais 32
miramos 32
models 32
moment, 32
monit@@ 32
myself, 32
máis@@ 32
nature@@ 32
noi@@ 32
noite, 32
oci@@ 32
on: 32
one@@ 32
onto 32
pick 32
planetas 32
policía 32
potenci@@ 32
precisan 32
problem. 32
produto 32
protex@@ 32
psycholog@@ 32
refuxiados 32
rep@@ 32
rev@@ 32
revolu@@ 32
rexeit@@ 32
right@@ 32
robot 32
rom 32
safe 32
segun@@ 32
sleep 32
sos 32
space, 32
spr@@ 32
story. 32
stu@@ 32
suffering 32
taxa 32
tical 32
today. 32
tradu@@ 32
transpor@@ 32
trá@@ 32
tódalas 32
ver. 32
viaxe 32
vivo 32
vulnerable 32
vós, 32
war 32
words, 32
xul@@ 32
13 31
California 31
Chris 31
E, 31
Fin@@ 31
On@@ 31
Pois 31
Terra 31
Tur@@ 31
ably 31
activity 31
acu@@ 31
acumul@@ 31
al-@@ 31
ally. 31
alone 31
alí@@ 31
amar@@ 31
ant, 31
apo@@ 31
até 31
avo@@ 31
away, 31
bilidade 31
biolóxi@@ 31
bit@@ 31
book, 31
boys 31
cancer@@ 31
capacity 31
capital@@ 31
care, 31
carre@@ 31
challeng@@ 31
clin@@ 31
coidado 31
comezan 31
common@@ 31
compaixón 31
comput@@ 31
comunica@@ 31
connect 31
construí@@ 31
coñecer 31
crea 31
ction 31
cuar@@ 31
cé@@ 31
daba 31
dando 31
deben 31
depende 31
desexo 31
dimen@@ 31
diminu@@ 31
disor@@ 31
drive 31
driving 31
e?" 31
eal@@ 31
email 31
emento 31
ent. 31
era, 31
es.""" 31
es; 31
escolas 31
essentially 31
et." 31
event@@ 31
evolución 31
exact 31
falo 31
family, 31
feed@@ 31
fixer@@ 31
fortun@@ 31
fosen 31
free@@ 31
goal 31
gotten 31
guer@@ 31
h." 31
helping 31
highly 31
humano, 31
ian 31
ically, 31
id, 31
impli@@ 31
impul@@ 31
incri@@ 31
incriblemente 31
inhi@@ 31
integra@@ 31
invented 31
ista, 31
ivo 31
knowing 31
lea@@ 31
leading 31
like@@ 31
lives, 31
mediante 31
medir 31
mell@@ 31
milli@@ 31
modern 31
molecul@@ 31
molecular 31
momentos 31
nada, 31
nestas 31
network 31
notice 31
objects 31
observar 31
obviously 31
ocor@@ 31
ounos 31
patr@@ 31
pensamento 31
perio@@ 31
poidamos 31
pot@@ 31
predi@@ 31
programas 31
promis@@ 31
puntos 31
queda 31
rac@@ 31
recibir 31
rei 31
resili@@ 31
resolver 31
restaur@@ 31
results 31
rexións 31
ronse 31
s-@@ 31
sacar 31
sangue 31
saud@@ 31
scen@@ 31
semos 31
signal 31
slightly 31
solici@@ 31
somewhere 31
succes@@ 31
superficie 31
superi@@ 31
suposto 31
sy@@ 31
t.""" 31
tac@@ 31
tense 31
thes@@ 31
trau@@ 31
trial 31
trials 31
unique 31
vide@@ 31
viu 31
well. 31
wever, 31
wing 31
wn@@ 31
women, 31
worst 31
zo@@ 31
émolo 31
én 31
"Dix@@ 30
'd 30
(Música) 30
7, 30
</i>@@ 30
America, 30
Cal 30
EE@@ 30
El 30
Estaba 30
Europe@@ 30
European 30
Indi@@ 30
Jo@@ 30
Lon@@ 30
Quen 30
South 30
States, 30
U.S. 30
Un@@ 30
a) 30
affect 30
age." 30
allowed 30
amosa 30
ancient 30
anteri@@ 30
aqueles 30
ares, 30
ascen@@ 30
associated 30
ately 30
avog@@ 30
bacterial 30
before, 30
brazo 30
bs 30
buil@@ 30
busca 30
cab@@ 30
cambia 30
cantas 30
chegan 30
children, 30
comida@@ 30
communicate 30
compassion 30
complicated 30
compon@@ 30
corrup@@ 30
crea@@ 30
d: 30
dal@@ 30
decisions 30
dly 30
document@@ 30
doenza 30
dy@@ 30
eli@@ 30
elix@@ 30
empe@@ 30
enor@@ 30
ents, 30
esquec@@ 30
estabamos 30
estiven 30
etc@@ 30
expan@@ 30
explo@@ 30
fail@@ 30
fonte 30
fund@@ 30
físi@@ 30
him@@ 30
homes@@ 30
ide, 30
identificar 30
ills 30
important, 30
impos@@ 30
ingly, 30
inher@@ 30
institucións 30
intelix@@ 30
intentando 30
issue 30
itari@@ 30
land, 30
len@@ 30
levan 30
lexi@@ 30
lin 30
luck@@ 30
manifest@@ 30
memori@@ 30
mente@@ 30
mers 30
minutes, 30
moito, 30
motor 30
mountain@@ 30
mán@@ 30
n." 30
necesidade 30
neural 30
now@@ 30
nuclear 30
ny 30
obxecto 30
opioid@@ 30
out. 30
own@@ 30
pade@@ 30
perda 30
planet 30
planet@@ 30
ple 30
pobres 30
posto 30
postos 30
predicir 30
pregn@@ 30
problema@@ 30
profes@@ 30
ps, 30
published 30
ques 30
raza 30
run@@ 30
rus@@ 30
scale 30
scar@@ 30
sentimentos 30
sentir@@ 30
sexo 30
show@@ 30
sion." 30
society 30
solution 30
sorts 30
subject 30
success@@ 30
suficiente 30
só@@ 30
súpeto 30
tain@@ 30
tho@@ 30
ticos, 30
tivas 30
tivese 30
too, 30
tris@@ 30
trus@@ 30
tumor 30
understood 30
verb@@ 30
verdade, 30
version 30
violencia 30
visit@@ 30
water@@ 30
wear 30
well@@ 30
where, 30
writ@@ 30
zas, 30
ándo@@ 30
áronme 30
ásemos 30
úe 30
""How 29
"Penso 29
Algúns 29
Ali@@ 29
Asi@@ 29
Boston 29
Cam@@ 29
Chr@@ 29
DNA, 29
FDA 29
Hoxe 29
John 29
K, 29
Lev@@ 29
ON@@ 29
Pol@@ 29
Q@@ 29
S: 29
Stan@@ 29
Wor@@ 29
X 29
aberto 29
abri@@ 29
acións, 29
acontec@@ 29
again. 29
asombr@@ 29
automa@@ 29
awa@@ 29
bebé 29
biol@@ 29
bir 29
bli@@ 29
bom@@ 29
boun@@ 29
breast 29
buscando 29
caf@@ 29
caix@@ 29
cerebrais 29
chama 29
científica 29
cked 29
colon@@ 29
común@@ 29
concentr@@ 29
conexión 29
conflic@@ 29
consciente 29
consid@@ 29
contido 29
cortex 29
cultu@@ 29
cum@@ 29
dad@@ 29
day. 29
decision 29
dendo 29
deseño 29
destin@@ 29
determinar 29
di: 29
diagnosed 29
dinosaur@@ 29
diría 29
disease. 29
diso, 29
distint@@ 29
diversity 29
dixer@@ 29
doutro 29
duns 29
dynam@@ 29
econ@@ 29
ener@@ 29
enerx@@ 29
engan@@ 29
escal@@ 29
escen@@ 29
estean 29
estilo 29
evalu@@ 29
evit@@ 29
exemplos 29
expensive 29
experien@@ 29
experiencias 29
families 29
feelings 29
fen@@ 29
fix 29
food, 29
forz@@ 29
fras@@ 29
ft 29
ful. 29
ful." 29
function 29
further 29
gall@@ 29
grad@@ 29
guar@@ 29
hal@@ 29
have, 29
home." 29
ida, 29
imag@@ 29
implica 29
incrible@@ 29
incu@@ 29
industry 29
infección 29
informa@@ 29
interest 29
investigadores 29
ists, 29
itamos 29
izar 29
light." 29
lower 29
lí@@ 29
maior@@ 29
malas 29
mecanismo 29
mensaxes 29
mento, 29
micas 29
mover 29
mulleres, 29
muse@@ 29
máquina 29
mí@@ 29
nenos, 29
o) 29
ocu@@ 29
office 29
others, 29
palabras, 29
paper@@ 29
parte, 29
partici@@ 29
pasando 29
película 29
perfectly 29
permit@@ 29
pho@@ 29
porque, 29
position 29
poñemos 29
prefrontal 29
preser@@ 29
previ@@ 29
previous 29
previr 29
prima@@ 29
print 29
produtos 29
protein 29
proteínas 29
próximos 29
queir@@ 29
quími@@ 29
re-@@ 29
recogni@@ 29
red, 29
rejec@@ 29
remember@@ 29
repe@@ 29
right. 29
rou 29
rú@@ 29
salvar 29
sanitari@@ 29
saí@@ 29
scre@@ 29
sensitive 29
series 29
sett@@ 29
sorte 29
stat@@ 29
studying 29
subst@@ 29
tain 29
tarde, 29
tation 29
teoría 29
terceira 29
terceiro 29
there@@ 29
they'll 29
thousand 29
through@@ 29
universal 29
valores 29
vent@@ 29
ver." 29
ward 29
who@@ 29
years. 29
zonas 29
África 29
árab@@ 29
ética 29
úa 29
""Wh@@ 28
"Pois 28
150 28
Ad@@ 28
Chinese 28
Deus 28
Di@@ 28
Every@@ 28
Gran 28
Ma@@ 28
Nobel 28
Si, 28
Ste@@ 28
TE@@ 28
Todas 28
UU. 28
You've 28
]@@ 28
aces 28
addi@@ 28
ademais 28
agree 28
although 28
alucin@@ 28
alzhéimer 28
ampl@@ 28
anal@@ 28
anas 28
answ@@ 28
approach@@ 28
aries 28
aspectos 28
ati@@ 28
ators 28
atractiv@@ 28
audiencia 28
aul@@ 28
away." 28
axiña 28
azul 28
beneficios 28
bly 28
bridge 28
cadr@@ 28
cau@@ 28
caused 28
cio 28
claim 28
code 28
communication 28
concepto 28
conci@@ 28
confir@@ 28
contexto 28
control." 28
conversa 28
correo 28
coñecida 28
coñecín 28
crisis 28
curar 28
delas 28
descar@@ 28
descen@@ 28
describe 28
descubrimos 28
detect 28
discrimin@@ 28
distancia 28
doctor@@ 28
ear 28
efectiv@@ 28
embr@@ 28
ends 28
esperanz@@ 28
evol@@ 28
expect 28
expertos 28
explore 28
f, 28
facelo, 28
faga 28
feedback 28
feitos 28
focused 28
forget 28
forward 28
fos@@ 28
future." 28
galaxi@@ 28
gen 28
genome 28
ground 28
gues@@ 28
gun@@ 28
hallucin@@ 28
haxa 28
healthcare 28
horri@@ 28
i: 28
icamente, 28
illes 28
ilumin@@ 28
incentiv@@ 28
ing? 28
ingu@@ 28
inmediat@@ 28
invisible 28
job@@ 28
keeping 28
laboratorio, 28
lead@@ 28
levamos 28
lex@@ 28
ley 28
lingua@@ 28
longa 28
lox@@ 28
mac@@ 28
mando 28
marihuana 28
mesa 28
motivo 28
móbil@@ 28
nar@@ 28
need@@ 28
ness. 28
normal, 28
not." 28
noutros 28
o-@@ 28
olog@@ 28
palabr@@ 28
parecer 28
parecía 28
patent 28
pattern 28
pec@@ 28
peg@@ 28
physici@@ 28
planets 28
plant@@ 28
played 28
políticas 28
posibilidade 28
posibilidades 28
pow@@ 28
prime@@ 28
probabilidade 28
problem." 28
problema, 28
produción 28
products 28
prof@@ 28
profesor@@ 28
proper@@ 28
rece@@ 28
recordos 28
recur@@ 28
representa 28
revis@@ 28
sentimento 28
serán 28
shop@@ 28
signals 28
sinxe@@ 28
sitio 28
smaller 28
sons 28
soño 28
spoke 28
stead 28
stimul@@ 28
strange 28
stres@@ 28
substitu@@ 28
successful 28
sucede 28
tat@@ 28
tecnolox@@ 28
teor@@ 28
thin@@ 28
tifica@@ 28
til@@ 28
tim@@ 28
tive." 28
tor. 28
trop@@ 28
universe 28
various 28
vast 28
verdadeira 28
volunt@@ 28
ways, 28
web 28
weigh@@ 28
whose 28
wr@@ 28
xeo 28
xeral 28
xeral, 28
zan 28
éndo@@ 28
íame 28
""P@@ 27
""We 27
"Mentres 27
"Pas@@ 27
'll 27
-la 27
16@@ 27
27 27
40@@ 27
At@@ 27
Bos@@ 27
Da@@ 27
God 27
James 27
Joe 27
So@@ 27
Stu@@ 27
US@@ 27
University 27
We@@ 27
aba, 27
above 27
accur@@ 27
added 27
advoca@@ 27
afford 27
agra@@ 27
agrad@@ 27
ahead 27
alo@@ 27
ances 27
anybody 27
arei 27
artifici@@ 27
ath@@ 27
atopei 27
atos 27
aumento 27
aver@@ 27
aware 27
axus@@ 27
añ@@ 27
ba, 27
bad@@ 27
bloo@@ 27
breath 27
camera 27
capaci@@ 27
casos, 27
cei@@ 27
ch. 27
chan 27
change, 27
change@@ 27
chas@@ 27
cir 27
claro, 27
compañ@@ 27
consumid@@ 27
contac@@ 27
contrario 27
cré@@ 27
cubr@@ 27
culo 27
debido 27
desas@@ 27
desgraza, 27
dicindo 27
dicía 27
difícil@@ 27
diso 27
dobre 27
drug@@ 27
dying 27
ecu@@ 27
edes, 27
edi@@ 27
electrical 27
emer@@ 27
emis@@ 27
ento, 27
epidemi@@ 27
equi@@ 27
exam@@ 27
execu@@ 27
extra 27
eñ@@ 27
facing 27
false 27
fantásti@@ 27
fas 27
fat 27
feet 27
feit@@ 27
felicidade 27
financial 27
first@@ 27
following 27
ful, 27
fundament@@ 27
fying 27
general 27
gg@@ 27
hou@@ 27
ica@@ 27
ical 27
ick 27
ideal 27
ideas. 27
importancia 27
informá@@ 27
ining 27
irmán 27
istic 27
isto: 27
join 27
ker 27
kno@@ 27
law@@ 27
machin@@ 27
materia 27
mañá@@ 27
media, 27
member 27
merca@@ 27
metaph@@ 27
millón 27
morning, 27
mother@@ 27
mundial 27
nal 27
neg@@ 27
none 27
nos, 27
oportunidades 27
oulles 27
pass 27
pe. 27
pena 27
persoal 27
petróle@@ 27
place, 27
plásti@@ 27
poly@@ 27
pose 27
possibly 27
pra 27
prac@@ 27
praz@@ 27
process, 27
producir 27
psico@@ 27
purpos@@ 27
purpose 27
quil@@ 27
quit@@ 27
r, 27
raci@@ 27
rates 27
recib@@ 27
red@@ 27
refugees 27
requires 27
right." 27
s?""" 27
scal@@ 27
sequen@@ 27
shouldn't 27
silenci@@ 27
simple. 27
sinto 27
sorpres@@ 27
squ@@ 27
ster@@ 27
suces@@ 27
supón 27
tade 27
tame 27
tanta 27
testing 27
things. 27
ties. 27
ties." 27
tiñ@@ 27
together." 27
top@@ 27
traballa 27
tradicion@@ 27
trained 27
transform 27
trib@@ 27
trigg@@ 27
twice 27
variety 27
vasos 27
vill@@ 27
víde@@ 27
wife 27
ye@@ 27
year." 27
áde@@ 27
ándonos 27
ń@@ 27
’s 27
"Com@@ 26
"El 26
"Neste 26
"Par@@ 26
"Si, 26
"Todo 26
$@@ 26
25@@ 26
80@@ 26
90@@ 26
</i>, 26
AS@@ 26
Africa 26
African 26
Bur@@ 26
D, 26
Deix@@ 26
EU@@ 26
Englis@@ 26
Están 26
IA 26
K 26
Mal@@ 26
Nigeri@@ 26
Oc@@ 26
Organiz@@ 26
Quer@@ 26
Quizais 26
Ri@@ 26
a"", 26
adminis@@ 26
ality 26
alles 26
alí, 26
amor@@ 26
ancia, 26
aprendemos 26
asus@@ 26
ations." 26
ats 26
audit@@ 26
axi@@ 26
back." 26
behavior." 26
believ@@ 26
better. 26
billi@@ 26
biolog@@ 26
bits 26
bosque 26
brother@@ 26
by@@ 26
campa@@ 26
caracter@@ 26
carbono 26
cell, 26
ces. 26
ces." 26
chang@@ 26
change." 26
chemistry 26
chose 26
cifr@@ 26
ck, 26
claim@@ 26
clá@@ 26
clínica 26
comfor@@ 26
conclusi@@ 26
const@@ 26
continue 26
contra@@ 26
convers@@ 26
converter 26
coul@@ 26
cover@@ 26
creamos 26
criteri@@ 26
cros@@ 26
crón@@ 26
cuestion@@ 26
curr@@ 26
data, 26
datos, 26
daughter@@ 26
define 26
deli@@ 26
democracia 26
determine 26
disas@@ 26
diseas@@ 26
dispens@@ 26
dixeron 26
dous, 26
díxome: 26
dú@@ 26
ely, 26
emotion 26
empregar 26
eni@@ 26
enormes 26
enriba 26
ensinar 26
ering 26
escoller 26
esenci@@ 26
especial 26
esperar 26
estat@@ 26
evolved 26
except 26
exces@@ 26
expecta@@ 26
exper@@ 26
fagan 26
fairly 26
falla 26
father@@ 26
feliz 26
finalmente 26
fing@@ 26
follow@@ 26
fotografí@@ 26
friends, 26
frustra@@ 26
funcionan 26
fy 26
gur@@ 26
hard@@ 26
helps 26
honest@@ 26
house@@ 26
hydro@@ 26
ider@@ 26
ign 26
illa 26
illness 26
imit@@ 26
impresion@@ 26
incre@@ 26
increased 26
infeccións 26
instance, 26
ism, 26
it.""" 26
ión, 26
ke." 26
kids, 26
laboratori@@ 26
laws 26
lay@@ 26
levou 26
lle@@ 26
lonxev@@ 26
los 26
man. 26
many, 26
map 26
maz@@ 26
medicamento 26
migr@@ 26
mix@@ 26
montón 26
mouse 26
mov@@ 26
movi@@ 26
mundi@@ 26
necesario 26
negr@@ 26
nena 26
neutr@@ 26
object 26
of, 26
one's 26
opinión 26
original 26
ous." 26
outra@@ 26
pai@@ 26
pasado, 26
passed 26
paying 26
pe." 26
perspective 26
pes 26
peso 26
plen@@ 26
pli@@ 26
poderemos 26
point@@ 26
presente 26
press 26
prev@@ 26
price 26
product 26
profesionais 26
profesores 26
regions 26
replac@@ 26
research, 26
researchers 26
respecto 26
responsi@@ 26
reti@@ 26
rit@@ 26
sell 26
sempre@@ 26
sensi@@ 26
shared 26
sig@@ 26
sim@@ 26
sinal@@ 26
soamente 26
solucións 26
sos, 26
stead, 26
tada 26
television 26
that@@ 26
them@@ 26
three, 26
ths 26
ti, 26
tic. 26
ticas, 26
titude 26
tiu 26
tool@@ 26
tori@@ 26
toxic 26
tran@@ 26
transla@@ 26
treated 26
treating 26
tú@@ 26
understand@@ 26
urr@@ 26
use, 26
useful 26
vali@@ 26
vem@@ 26
view@@ 26
vivimos 26
volunte@@ 26
vosas 26
where@@ 26
win 26
worse 26
xas 26
xen 26
ábame 26
ándolles 26
íron 26
"Está 25
"Sabemos 25
"Ten 25
"que 25
17 25
23 25
35 25
800 25
Ben@@ 25
Cas@@ 25
Cre@@ 25
Dar@@ 25
Despois 25
Did 25
Ela 25
Facebook 25
Gi@@ 25
God, 25
He@@ 25
Me@@ 25
Pan@@ 25
Pr@@ 25
R, 25
Russi@@ 25
So, 25
Sur@@ 25
Tex@@ 25
Tr@@ 25
Wal@@ 25
Yeah, 25
abo@@ 25
abrir 25
accoun@@ 25
adestr@@ 25
adolesc@@ 25
advan@@ 25
advers@@ 25
aged 25
aging 25
ago." 25
altos 25
amentos 25
anc@@ 25
anda 25
approach 25
arriba 25
arro@@ 25
as... 25
asasin@@ 25
aur@@ 25
azuis 25
aí, 25
bac@@ 25
basicamente 25
basis 25
be. 25
believed 25
better." 25
bioloxía 25
birth 25
body's 25
bra 25
brother 25
build@@ 25
bá@@ 25
cami@@ 25
cancer. 25
candi@@ 25
carbon@@ 25
carry 25
categor@@ 25
ceo 25
certa 25
certas 25
child@@ 25
cho 25
ciencia, 25
clases 25
climático 25
coches 25
community, 25
compas@@ 25
compe@@ 25
condition, 25
considered 25
creates 25
crec@@ 25
cruci@@ 25
cualifica@@ 25
cuesti@@ 25
cuestións 25
currently 25
darlles 25
deeply 25
depression, 25
dicí@@ 25
did. 25
different@@ 25
dirección 25
dispositivo 25
diñeiro 25
docu@@ 25
doen@@ 25
dor, 25
due 25
déca@@ 25
dúb@@ 25
easier 25
eating 25
eir 25
electro@@ 25
elo 25
emerx@@ 25
enviar 25
environment, 25
estivese 25
estivo 25
estrañ@@ 25
etas 25
exempl@@ 25
experi@@ 25
exter@@ 25
fame 25
famous 25
fine 25
fli@@ 25
fomos 25
future, 25
fárma@@ 25
gado 25
gate 25
ge. 25
graphic 25
ham@@ 25
hate 25
hipó@@ 25
humanidade 25
husband 25
iades 25
iment@@ 25
imper@@ 25
implant@@ 25
implica@@ 25
impossible 25
ince 25
injur@@ 25
institutions 25
intelligen@@ 25
interacción 25
irá 25
ished 25
ishing 25
jum@@ 25
ka@@ 25
know. 25
lei 25
lica@@ 25
loita 25
líderes 25
mar, 25
mass 25
medication 25
membros 25
memor@@ 25
ments." 25
meter 25
milleiros 25
minut@@ 25
mirando 25
mission 25
mom 25
moments 25
mostras 25
multiple 25
music@@ 25
nenas 25
nervi@@ 25
neuroscien@@ 25
nigh@@ 25
números 25
offic@@ 25
onda 25
ong, 25
opos@@ 25
ory 25
parar 25
particular, 25
partido 25
partner@@ 25
partículas 25
pensades 25
pensamentos 25
people@@ 25
percent." 25
perfor@@ 25
perspec@@ 25
pieces 25
pon 25
posed 25
potenti@@ 25
precisab@@ 25
pregunte@@ 25
prezo 25
profession@@ 25
prome@@ 25
prove 25
psicolóxi@@ 25
quar@@ 25
quo@@ 25
race 25
rapid@@ 25
reacción 25
reason@@ 25
receptor 25
ref@@ 25
region 25
rely 25
resistant 25
roll@@ 25
rápido, 25
rúas 25
s"" 25
satis@@ 25
sed, 25
segredo 25
sente 25
significant 25
sit@@ 25
som@@ 25
somehow 25
sopor@@ 25
sorprendente 25
spi@@ 25
stag@@ 25
stre@@ 25
surface 25
system@@ 25
t?" 25
table, 25
technology, 25
ted@@ 25
temp@@ 25
term 25
thern 25
they'd 25
this? 25
three-@@ 25
tist@@ 25
tod@@ 25
toda@@ 25
tool 25
travel 25
ug@@ 25
un, 25
uri@@ 25
ved, 25
viron 25
voice 25
vías 25
whal@@ 25
áb@@ 25
ído 25
ín, 25
""Why 24
"Des@@ 24
"Estaba 24
"Sen 24
10,000 24
ADN, 24
Americans 24
Chil@@ 24
FOXO 24
Fo@@ 24
Ger@@ 24
HIV 24
India, 24
Liber@@ 24
Look 24
Poden 24
Precisamos 24
Robert 24
Ru@@ 24
Sou@@ 24
Than@@ 24
Vou 24
Western 24
a's 24
aban@@ 24
abas@@ 24
ablemente 24
abrai@@ 24
accept 24
account 24
adaptab@@ 24
adult 24
agres@@ 24
ain@@ 24
alle 24
anaco 24
apor@@ 24
at. 24
att@@ 24
aumenta 24
avali@@ 24
avos 24
awar@@ 24
azucre 24
band@@ 24
baseada 24
before." 24
benefit 24
billions 24
bing 24
bo, 24
boca 24
brings 24
broken 24
cado 24
características 24
card 24
cardí@@ 24
carga 24
carto@@ 24
cases, 24
causing 24
celebr@@ 24
chec@@ 24
child, 24
children." 24
chimp@@ 24
cidade, 24
científico 24
civil 24
ciña 24
classi@@ 24
clearly 24
coch@@ 24
coinci@@ 24
colleu 24
complexo 24
confes@@ 24
conscientes 24
constantly 24
control, 24
coral 24
count 24
cover 24
cultiv@@ 24
d? 24
daily 24
declar@@ 24
deeper 24
dema@@ 24
democr@@ 24
denomin@@ 24
diabetes 24
dicir: 24
disappe@@ 24
diver@@ 24
dixen 24
doado 24
dog 24
dollar 24
doutras 24
draw 24
dura 24
década 24
ef 24
elev@@ 24
elos 24
empath@@ 24
en: 24
ence@@ 24
enfoque 24
engineering 24
enos 24
epidemia 24
erá 24
esca@@ 24
escola, 24
escrib@@ 24
esforzo 24
estadounidenses 24
esten@@ 24
et. 24
extraer 24
facilit@@ 24
fec@@ 24
finalmente, 24
finish 24
forman 24
funcionar 24
ges 24
girl@@ 24
graci@@ 24
gui@@ 24
happ@@ 24
happiness 24
hasn't 24
heroes 24
him." 24
humanity 24
ian@@ 24
igh@@ 24
ign@@ 24
important." 24
ines@@ 24
infection 24
information, 24
ingresos 24
ini@@ 24
inspired 24
inven@@ 24
invisi@@ 24
iron@@ 24
iría 24
issues 24
it? 24
ixe 24
lado, 24
lawy@@ 24
learn@@ 24
led, 24
lesson 24
lib@@ 24
mach@@ 24
main@@ 24
malo 24
mapa 24
massive 24
mecanismos 24
medicament@@ 24
mellor, 24
migra@@ 24
mira 24
month 24
mor 24
morrer 24
mortalidade 24
movie 24
na, 24
nave@@ 24
necesidades 24
necessarily 24
ner, 24
nine 24
nove 24
observamos 24
ones, 24
online 24
organizacións 24
ought 24
ov@@ 24
pagar 24
pancreatic 24
persoa, 24
pleas@@ 24
poñen 24
premat@@ 24
psicó@@ 24
psych@@ 24
puiden 24
páncre@@ 24
quí@@ 24
rato 24
recibín 24
responsible 24
rich@@ 24
rí@@ 24
rúa 24
sas 24
saúde, 24
secret 24
secu@@ 24
ser, 24
serve 24
servizos 24
shif@@ 24
simple@@ 24
simpli@@ 24
sincer@@ 24
slow@@ 24
soli@@ 24
something, 24
sorprenden@@ 24
spe@@ 24
speech 24
spo@@ 24
state@@ 24
stro@@ 24
swe@@ 24
tadas 24
tados 24
tell@@ 24
tempor@@ 24
ten, 24
tendencia 24
tests 24
til 24
ting." 24
titu@@ 24
tivamente 24
tive. 24
today." 24
traballan 24
track 24
transpar@@ 24
tric@@ 24
true." 24
tío 24
usu@@ 24
ut, 24
vell@@ 24
ven, 24
wis@@ 24
worried 24
xerar 24
xogos 24
xunto 24
yed 24
zer@@ 24
és@@ 24
""Ben, 23
""G@@ 23
""a 23
""the 23
"Fin@@ 23
"Foi 23
13@@ 23
15@@ 23
20, 23
6, 23
AID@@ 23
Arab@@ 23
CD@@ 23
CO@@ 23
Ear@@ 23
Esco@@ 23
French 23
Mos@@ 23
Nin 23
Nixeri@@ 23
Stanford 23
Steve 23
Sylvia 23
UC@@ 23
Unidos, 23
VIH 23
acces@@ 23
accións 23
aceler@@ 23
achiev@@ 23
adamente 23
adoras 23
ah 23
ale@@ 23
also, 23
analizar 23
angu@@ 23
architec@@ 23
asunto 23
ated, 23
atopou 23
autistic 23
automá@@ 23
bacteria, 23
bail@@ 23
bese 23
bió@@ 23
bru@@ 23
canta 23
casu@@ 23
cent 23
cheo 23
chin@@ 23
choices 23
cidades 23
clinic 23
closer 23
co-@@ 23
comb@@ 23
company, 23
completo 23
concept 23
conducir 23
contact 23
contra, 23
contrat@@ 23
conveni@@ 23
cool 23
cool@@ 23
culture, 23
death, 23
debate 23
decidimos 23
dens@@ 23
depends 23
descoñeci@@ 23
deser@@ 23
desper@@ 23
despo@@ 23
diagnose 23
dida 23
dido 23
dispoñi@@ 23
distrac@@ 23
do?" 23
doutros 23
down." 23
dram@@ 23
easily 23
ecía 23
elemento 23
elements 23
eles, 23
eléctri@@ 23
encaix@@ 23
enfo@@ 23
ensaio 23
enter 23
entirely 23
equip@@ 23
erro 23
espall@@ 23
espectro 23
específi@@ 23
everyday 23
examin@@ 23
exampl@@ 23
exo 23
experience." 23
explorar 23
factor 23
female 23
ferramenta 23
ficas 23
fillos, 23
finance@@ 23
frag@@ 23
fronte@@ 23
gas, 23
gañar 23
gobernos 23
good, 23
good@@ 23
grafía 23
ha 23
habilidades 23
habitu@@ 23
head, 23
help@@ 23
hin@@ 23
humana, 23
ice@@ 23
id." 23
ideas." 23
include 23
incluíndo 23
incorpor@@ 23
ino, 23
insec@@ 23
interi@@ 23
irmá 23
ki@@ 23
labor@@ 23
lección 23
lectu@@ 23
leis 23
lembrar 23
liñas 23
logical 23
lying 23
malari@@ 23
mane@@ 23
marri@@ 23
mater@@ 23
mechan@@ 23
membro 23
menos, 23
mercar 23
metab@@ 23
metro 23
milit@@ 23
moi, 23
molo 23
morte, 23
moslle 23
mostrar 23
método 23
n't 23
nalgúns 23
narra@@ 23
oli@@ 23
omas 23
ondas 23
oriz@@ 23
os... 23
oulle 23
pac@@ 23
paga 23
palab@@ 23
pare@@ 23
pasei 23
patent@@ 23
pel 23
pensaba 23
pensar@@ 23
peri@@ 23
perm@@ 23
place." 23
plu@@ 23
post@@ 23
pregunta: 23
profundo 23
proteína 23
puidemos 23
pé@@ 23
racion@@ 23
ram@@ 23
ratos 23
react 23
relationshi@@ 23
release 23
remember, 23
remote 23
repor@@ 23
responsab@@ 23
responsibility 23
reve@@ 23
ricos 23
rights 23
road@@ 23
sanguíne@@ 23
sar@@ 23
screen 23
search 23
secuenci@@ 23
seguimos 23
senten@@ 23
side." 23
simples 23
sociedades 23
spee@@ 23
spor@@ 23
stem 23
stic@@ 23
stream@@ 23
streets 23
succe@@ 23
superar 23
survi@@ 23
synthes@@ 23
taref@@ 23
tested 23
themselves, 23
theory 23
therefore 23
tics." 23
times, 23
tissu@@ 23
toler@@ 23
tome 23
total@@ 23
trastornos 23
ure@@ 23
videoxog@@ 23
violence 23
volveu 23
volvín 23
vostede 23
wake 23
water." 23
weight 23
works. 23
xener@@ 23
xenética 23
year. 23
zamos 23
zo, 23
émonos 23
és, 23
ésemos 23
ística 23
""This 22
"Ch@@ 22
"Desde 22
"Fal@@ 22
"Mo@@ 22
"Primeiro, 22
"Teñen 22
1.@@ 22
5." 22
600 22
Adam 22
As@@ 22
Bill 22
Bus@@ 22
Dix@@ 22
Earth, 22
Goog@@ 22
India 22
Jap@@ 22
Jason 22
Lu@@ 22
M 22
Nacional 22
OK@@ 22
Por@@ 22
Sabemos 22
TV 22
Tom@@ 22
Ton@@ 22
Turing 22
a! 22
ace@@ 22
aer@@ 22
aforr@@ 22
aleatori@@ 22
angr@@ 22
ani@@ 22
antidepres@@ 22
antiga 22
aplica@@ 22
aproveit@@ 22
ariamos 22
ast, 22
ations. 22
ator 22
atura 22
ature 22
ató@@ 22
avoid 22
axudarnos 22
b, 22
benestar 22
birth@@ 22
blin@@ 22
branco 22
brilliant 22
bringing 22
camer@@ 22
can, 22
carreira 22
catch 22
chámase 22
clam@@ 22
colleagues 22
comi@@ 22
communi@@ 22
consecuencias 22
conseguimos 22
consist@@ 22
consumo 22
coti@@ 22
có 22
date 22
daughter 22
ded." 22
definición 22
demasi@@ 22
dent@@ 22
depresión, 22
detector 22
diagnosis 22
dicin@@ 22
did, 22
directamente 22
discover 22
doubt 22
doutor 22
drop 22
dúbida 22
earli@@ 22
ecer 22
edu@@ 22
effort 22
ema 22
email@@ 22
emos@@ 22
ep 22
epidemic@@ 22
eremos 22
ergu@@ 22
ero 22
españ@@ 22
espe@@ 22
especial@@ 22
estados 22
estres@@ 22
eur@@ 22
europe@@ 22
examples 22
exciting 22
experimentar 22
explicar@@ 22
extraordinary 22
extremadamente 22
factor@@ 22
fair 22
falan 22
falei 22
faría 22
feed 22
felices 22
filla 22
flow@@ 22
fossil 22
future. 22
gli@@ 22
grade 22
gustaríame 22
h. 22
harder 22
held 22
history, 22
home. 22
human, 22
humanas 22
iPhon@@ 22
imaxe, 22
imos, 22
inas 22
industrial 22
ist." 22
kers 22
king@@ 22
lav@@ 22
leads 22
lei@@ 22
liked 22
linked 22
literalmente 22
marcha 22
mate 22
member@@ 22
minute 22
minutos, 22
mista@@ 22
molécul@@ 22
movement 22
mozos 22
necesari@@ 22
necesita 22
negra 22
negros 22
nel 22
nesas 22
news@@ 22
obra 22
ocup@@ 22
océano 22
ofic@@ 22
ofre@@ 22
ofrec@@ 22
ok 22
ology 22
olóxi@@ 22
on? 22
orient@@ 22
orixe 22
ound 22
ous. 22
pa, 22
pantall@@ 22
parell@@ 22
pasan 22
peix@@ 22
peixes 22
pensen 22
perform 22
place@@ 22
poes@@ 22
potentially 22
poucas 22
practi@@ 22
practice 22
prece@@ 22
prevent@@ 22
prison 22
procesos 22
production 22
profun@@ 22
provoca@@ 22
práctica 22
próximo 22
quin@@ 22
racis@@ 22
radical 22
rare 22
recibir@@ 22
recoñecer 22
relation 22
relationships 22
remarkable 22
report 22
resour@@ 22
responder 22
responsabilidade 22
resultou 22
rexistr@@ 22
round 22
row@@ 22
s,"" 22
sa, 22
sangu@@ 22
schools 22
self, 22
self." 22
sets 22
shar@@ 22
shift 22
shopping 22
shr@@ 22
sico 22
signific@@ 22
silencio 22
six@@ 22
skin@@ 22
smart 22
sodes 22
song 22
speakers 22
students, 22
success 22
surgery 22
swit@@ 22
system. 22
sú@@ 22
t; 22
talk, 22
tante 22
temas 22
tens 22
terá 22
thi@@ 22
tissue 22
titul@@ 22
tively 22
to-@@ 22
tocar 22
tomar@@ 22
transformar 22
trastorno 22
tremendous 22
tres, 22
trouble 22
turas 22
typical 22
técnicas 22
túas 22
urx@@ 22
ustra@@ 22
vacinas 22
verdadeiro 22
vergo@@ 22
vers@@ 22
ves@@ 22
vesti@@ 22
vic@@ 22
volume 22
watched 22
wearing 22
web@@ 22
week, 22
whom 22
wood 22
wri@@ 22
xubil@@ 22
yellow 22
yn@@ 22
yp@@ 22
ámoslles 22
ést@@ 22
ólogos 22
óxido 22
útil 22
!"" 21
"Creo 21
"Ela 21
"Em@@ 21
"Estou 21
"Imaxin@@ 21
"Non, 21
"Poden 21
"Á 21
"Ás 21
19 21
194@@ 21
2,000 21
99 21
ADN@@ 21
America@@ 21
Bruno 21
Che@@ 21
Deber@@ 21
English, 21
Gal@@ 21
Goli@@ 21
Har@@ 21
Has@@ 21
Im@@ 21
Jud@@ 21
Mc@@ 21
Mic@@ 21
Mor@@ 21
Mé@@ 21
Na 21
Ninguén 21
Ou@@ 21
Outra 21
Parece 21
Podería 21
Righ@@ 21
Ros@@ 21
Syri@@ 21
UN@@ 21
Val@@ 21
Yor@@ 21
ables, 21
abordar 21
absolute 21
acabamos 21
accumul@@ 21
addres@@ 21
advanced 21
affec@@ 21
affects 21
afron@@ 21
aga@@ 21
alem@@ 21
ant." 21
anti-@@ 21
apenas 21
appar@@ 21
appe@@ 21
aprendendo 21
artí@@ 21
autén@@ 21
awk@@ 21
axe@@ 21
bag@@ 21
barre@@ 21
begin@@ 21
berg@@ 21
bes@@ 21
better, 21
biology 21
bles, 21
board 21
bought 21
brain's 21
bre 21
brid@@ 21
carne 21
cells." 21
centur@@ 21
certos 21
chamar 21
charlas 21
chis@@ 21
chocolate 21
chá@@ 21
cicl@@ 21
cidad@@ 21
cirurxía 21
civiliz@@ 21
clim@@ 21
clínicas 21
coche@@ 21
coidar 21
compare 21
compañeiros 21
compañía 21
conse@@ 21
cores 21
corri@@ 21
culos 21
células, 21
dación 21
danger@@ 21
daqu@@ 21
dedi@@ 21
defined 21
democracy 21
den, 21
deprim@@ 21
dereita 21
descubriment@@ 21
deseñar 21
dia@@ 21
did." 21
discurso 21
distinta 21
dle 21
doenzas 21
durmir 21
ego@@ 21
eiros 21
elixir 21
emi@@ 21
eno 21
entendemos 21
environmental 21
especies 21
espera 21
essenti@@ 21
est." 21
estiv@@ 21
estratexia 21
estrés, 21
está@@ 21
eter@@ 21
evolution 21
experiences 21
ext@@ 21
ey 21
fabri@@ 21
fel@@ 21
fill 21
fin, 21
fisio@@ 21
fle@@ 21
flexi@@ 21
foot 21
fácil@@ 21
gen, 21
gl@@ 21
graduate 21
grave 21
ground, 21
growth 21
gru@@ 21
gráfico 21
gs, 21
habilidade 21
health, 21
homes, 21
horrible 21
ici@@ 21
idades, 21
identifica@@ 21
ingredi@@ 21
initi@@ 21
inner 21
instruc@@ 21
insulin 21
intern@@ 21
intui@@ 21
invit@@ 21
inxec@@ 21
ith@@ 21
job, 21
k-@@ 21
ked, 21
king." 21
lef@@ 21
letter 21
levaba 21
lights 21
line, 21
lix@@ 21
liñ@@ 21
loitar 21
mais, 21
mal, 21
manage 21
mascul@@ 21
matters 21
mes, 21
microbial 21
minim@@ 21
miser@@ 21
mobile 21
mountain 21
movementos 21
much, 21
mudar 21
máquin@@ 21
médica 21
near 21
neurogenes@@ 21
nisto 21
note 21
noticed 21
notici@@ 21
noutras 21
obesidade 21
offer@@ 21
oficina 21
old. 21
ons. 21
opportunities 21
organic 21
origin@@ 21
orio 21
ously, 21
outra, 21
over, 21
oxygen 21
pair@@ 21
pais@@ 21
partner 21
pasamos 21
patients." 21
patterns 21
películ@@ 21
pensa@@ 21
pensab@@ 21
perder@@ 21
personaliz@@ 21
phr@@ 21
physically 21
piec@@ 21
po, 21
poderíamos 21
podiamos 21
políticos 21
popular 21
porcentaxe 21
possibility 21
poun@@ 21
pover@@ 21
precisión 21
pregún@@ 21
preven@@ 21
prior@@ 21
privacy 21
private 21
proteins 21
puidésemos 21
quali@@ 21
quedan 21
quedar 21
qué@@ 21
radio 21
rapa@@ 21
rapidly 21
realizar 21
recicl@@ 21
regi@@ 21
relatively 21
resu@@ 21
rica 21
rid 21
robots 21
roub@@ 21
sabes 21
sacrific@@ 21
sad 21
sanit@@ 21
sector 21
seguros 21
sharing 21
side@@ 21
situacións 21
siz@@ 21
slow 21
society, 21
specifically 21
streng@@ 21
surve@@ 21
súpeto, 21
tail 21
tamén, 21
tantas 21
teachers 21
tech 21
tecnoloxía, 21
teléfono 21
tentar 21
teremos 21
termo 21
terr@@ 21
terán 21
testoster@@ 21
thinking, 21
this@@ 21
thr@@ 21
together. 21
tomamos 21
touch 21
transcri@@ 21
transmi@@ 21
tratando 21
treatments 21
trin@@ 21
tró@@ 21
tting 21
ty. 21
vai@@ 21
values 21
vella 21
velo 21
velocidade 21
viral 21
what? 21
wil@@ 21
works." 21
xeitos 21
xeo@@ 21
xose 21
xuntos, 21
yo@@ 21
ámolo 21
áni@@ 21
éronme 21
""B@@ 20
""R@@ 20
""É 20
"Fix@@ 20
"Hoxe 20
"Lev@@ 20
"Resulta 20
,000@@ 20
-year 20
.] 20
197@@ 20
AN@@ 20
Ao 20
Apple 20
B, 20
Braz@@ 20
C. 20
EE.UU. 20
GF@@ 20
Harvard 20
Hou@@ 20
Internet, 20
Kanner 20
Ku@@ 20
Logo 20
Luther 20
Mex@@ 20
Máis 20
Nós 20
Ori@@ 20
P 20
Prime@@ 20
Pu@@ 20
San@@ 20
Sch@@ 20
Sen 20
Trátase 20
Vol@@ 20
West 20
abl@@ 20
abstrac@@ 20
aceptar 20
actuar 20
addic@@ 20
afirma@@ 20
algorith@@ 20
ality, 20
alized 20
ambient@@ 20
ampli@@ 20
ana, 20
animals, 20
ansi@@ 20
ant. 20
apart@@ 20
aplau@@ 20
aplicar 20
aquilo 20
argument 20
arias 20
arquitec@@ 20
arr@@ 20
arteri@@ 20
aspec@@ 20
ate." 20
aterr@@ 20
attention, 20
avoa 20
avó 20
bed, 20
bed@@ 20
beli@@ 20
below 20
benefits 20
bid@@ 20
blind 20
body. 20
bol 20
breaking 20
cabezas 20
cali@@ 20
cambian 20
cantidades 20
capit@@ 20
captur@@ 20
cardiovascular 20
caron 20
causas 20
century 20
challenges 20
chamou 20
characters 20
children. 20
cido 20
científi@@ 20
cities 20
city, 20
class, 20
clima 20
clus@@ 20
cold 20
comezando 20
comezaron 20
compos@@ 20
comunic@@ 20
concerned 20
conciencia 20
confi@@ 20
confor@@ 20
consum@@ 20
context 20
conversations 20
cou@@ 20
cousa, 20
coñecido 20
cre 20
creación 20
creou 20
crucial 20
ctu@@ 20
custo 20
danos 20
daquela 20
death@@ 20
debía 20
degrad@@ 20
deixa 20
derram@@ 20
ders, 20
described 20
describir 20
desesper@@ 20
devices 20
diabetes, 20
diag@@ 20
dicirlle 20
discipl@@ 20
disciplin@@ 20
dispositivos 20
distingu@@ 20
diñ@@ 20
doentes 20
door, 20
doutra 20
dres@@ 20
dry 20
déix@@ 20
díxen@@ 20
díxome 20
edge 20
eiro, 20
electróni@@ 20
embar@@ 20
ence. 20
encán@@ 20
enjo@@ 20
epile@@ 20
escale@@ 20
esquer@@ 20
estaría 20
estatísti@@ 20
estiveron 20
estupen@@ 20
exclusi@@ 20
exercici@@ 20
expla@@ 20
exposición 20
exteri@@ 20
facerse 20
failu@@ 20
favorit@@ 20
figh@@ 20
finais 20
fire@@ 20
fixera 20
flow 20
focus@@ 20
foran 20
forced 20
gar, 20
giant 20
gla@@ 20
government, 20
graph 20
group, 20
grá@@ 20
guil@@ 20
harmon@@ 20
have. 20
healthi@@ 20
her. 20
hormone 20
humans, 20
hurt 20
hy? 20
imaging 20
indu@@ 20
información, 20
ins, 20
ins@@ 20
interesados 20
interesantes 20
internacion@@ 20
intr@@ 20
introspec@@ 20
irse 20
itude 20
ive 20
journal@@ 20
judg@@ 20
kid, 20
kill@@ 20
lab, 20
language. 20
leaders 20
lexis@@ 20
liberdade 20
libre 20
limited 20
maneiras 20
manufac@@ 20
marca 20
marijuana 20
medo, 20
meeting 20
menor 20
mental@@ 20
meta 20
meter@@ 20
modi@@ 20
modifica@@ 20
montaña 20
métodos 20
nacion@@ 20
ners 20
neses 20
nex@@ 20
noutra 20
ns, 20
nun@@ 20
nuns 20
núcle@@ 20
obvious 20
obxectiv@@ 20
ocorreu 20
od, 20
oil@@ 20
on-@@ 20
ordinary 20
organized 20
oste@@ 20
osíxeno 20
ough 20
pacientes, 20
pape@@ 20
participa@@ 20
pedir@@ 20
pene@@ 20
performance 20
permi@@ 20
permiten 20
photograph 20
pico 20
picture, 20
pill@@ 20
ple@@ 20
pois 20
practic@@ 20
prazo 20
precisamente 20
presentar 20
pressu@@ 20
pressure 20
privacidade 20
proceso, 20
profundi@@ 20
propos@@ 20
public@@ 20
puid@@ 20
pus@@ 20
pár@@ 20
pú@@ 20
querían 20
rai@@ 20
raised 20
rapidamente 20
recommen@@ 20
record 20
reflect 20
regras 20
released 20
religi@@ 20
requ@@ 20
residuos 20
riba 20
rica, 20
riqueza 20
robo@@ 20
room." 20
rul@@ 20
ré@@ 20
safe@@ 20
sam@@ 20
san 20
scri@@ 20
self@@ 20
senior 20
serv@@ 20
sexa, 20
shap@@ 20
she@@ 20
sinxela 20
sleep, 20
sociais, 20
sorr@@ 20
spac@@ 20
spar@@ 20
speak@@ 20
speed 20
standard 20
stars 20
statis@@ 20
status 20
studied 20
sugar 20
suicid@@ 20
sun 20
superior 20
supos@@ 20
surfac@@ 20
suscepti@@ 20
suxer@@ 20
synap@@ 20
talvez 20
tantes 20
tarnos 20
tax@@ 20
tel 20
temente, 20
terapeu@@ 20
test, 20
th-@@ 20
thoughts 20
thro@@ 20
tion: 20
to: 20
traballamos 20
transfer@@ 20
transforma@@ 20
trauma 20
tre 20
trillion 20
tura, 20
umber 20
universidade 20
v 20
variedade 20
veciñ@@ 20
verde 20
vermello 20
vidas, 20
vision@@ 20
volve 20
waveleng@@ 20
weeks, 20
wide@@ 20
with, 20
wn." 20
wonder 20
worry 20
wrong." 20
ym@@ 20
za@@ 20
ában@@ 20
áns, 20
ñe@@ 20
óxicas 20
""Hey, 19
""If 19
""No@@ 19
"Algúns 19
"Bas@@ 19
"Co 19
"Máis 19
"Nun 19
"Obvi@@ 19
"Poder@@ 19
"Su@@ 19
"¿@@ 19
., 19
00, 19
11@@ 19
250 19
AC@@ 19
Ac@@ 19
Amé@@ 19
Angeles 19
Augus@@ 19
Browne 19
Californi@@ 19
Canad@@ 19
Cham@@ 19
Charles 19
D. 19
Den@@ 19
Deus, 19
Entón, 19
Face@@ 19
G 19
Gor@@ 19
Graci@@ 19
Han@@ 19
Harvar@@ 19
Isra@@ 19
Martin 19
No, 19
Nunca 19
Parí@@ 19
Poder@@ 19
Reino 19
Rus@@ 19
Sar@@ 19
Scien@@ 19
Shadi 19
Solly 19
Sud@@ 19
Swe@@ 19
T, 19
U 19
Vexamos 19
YouTu@@ 19
académi@@ 19
acy 19
aded 19
adic@@ 19
adiviñ@@ 19
adults, 19
aff@@ 19
affected 19
aggres@@ 19
agr@@ 19
al: 19
algo@@ 19
algorit@@ 19
almacen@@ 19
alum@@ 19
amounts 19
amplo 19
ampu@@ 19
ancest@@ 19
ansiedade 19
antibiotic 19
antici@@ 19
anto 19
anunci@@ 19
apli@@ 19
aplicación 19
aprenden 19
aren 19
argue 19
arios, 19
arran@@ 19
arris@@ 19
article 19
artigos 19
aspects 19
atención, 19
ater@@ 19
atopan 19
atraves@@ 19
attac@@ 19
avail@@ 19
axe, 19
aza 19
ball@@ 19
batt@@ 19
being, 19
bill@@ 19
bodi@@ 19
bola, 19
boreal 19
broad@@ 19
bó@@ 19
cación 19
cadeira 19
campos 19
canción 19
cars 19
cast 19
cerca 19
chamadas 19
check 19
cheguei 19
childhood 19
cirurx@@ 19
clou@@ 19
coher@@ 19
cola 19
coli@@ 19
colli@@ 19
comigo 19
comprensión 19
compromis@@ 19
computa@@ 19
conclu@@ 19
confianz@@ 19
confianza 19
conscious@@ 19
consciously 19
consegue 19
considerar 19
consiste 19
constitu@@ 19
control. 19
converteuse 19
corais 19
corazón, 19
cortisol 19
crean 19
creando 19
cursos 19
custa 19
d.""" 19
dance 19
dano 19
deira 19
descubriron 19
desenvolvem@@ 19
devast@@ 19
different, 19
dio 19
doing, 19
don 19
dramatically 19
drin@@ 19
drug, 19
dólares, 19
ecen 19
económico 19
electron@@ 19
else@@ 19
embarras@@ 19
emocional 19
empatía 19
empezou 19
employ@@ 19
empregados 19
encoun@@ 19
entende@@ 19
entra 19
entusias@@ 19
environ@@ 19
enxeñe@@ 19
equal 19
equival@@ 19
equivoca@@ 19
erros 19
escap@@ 19
escoita 19
espa@@ 19
espazo, 19
especializ@@ 19
especí@@ 19
espiritu@@ 19
esque@@ 19
establis@@ 19
este, 19
estra 19
existing 19
eyes, 19
falar, 19
fashi@@ 19
faster 19
father, 19
favor, 19
fenómeno 19
fewer 19
fic 19
finished 19
ford, 19
fore 19
fore@@ 19
forming 19
fortunately, 19
frecuencia 19
frighten@@ 19
funcións 19
futur@@ 19
futuro, 19
geo@@ 19
gies 19
global, 19
gn@@ 19
governments 19
grao 19
gráfica 19
haberá 19
had@@ 19
health." 19
hidróxen@@ 19
hop@@ 19
hormonas 19
hypothes@@ 19
ic. 19
ics, 19
identidade 19
idio@@ 19
ido, 19
ids 19
ies, 19
ies. 19
illness, 19
immediately 19
incó@@ 19
indigenous 19
individuos 19
inevit@@ 19
infin@@ 19
infl@@ 19
ing.""" 19
ing: 19
intención 19
internet 19
ion 19
ited 19
itei 19
iter@@ 19
ivos 19
ización 19
ized 19
journey 19
keeps 19
lac@@ 19
left, 19
less, 19
levan@@ 19
levant@@ 19
libro@@ 19
lit 19
liver 19
lla 19
long, 19
long-term 19
love, 19
loxía 19
maintain 19
malos 19
masa 19
mañá, 19
meant 19
mellora 19
mental, 19
mess@@ 19
messages 19
metáforas 19
mice 19
mirr@@ 19
misión 19
monitor 19
mortes 19
mother, 19
music, 19
músi@@ 19
ned, 19
neno, 19
noticias 19
nucle@@ 19
oca@@ 19
off, 19
office, 19
ollo 19
ona 19
open-@@ 19
orde 19
organización 19
osa, 19
osas, 19
ourselves, 19
paper, 19
pareci@@ 19
particip@@ 19
pea@@ 19
ped@@ 19
pedí@@ 19
pengu@@ 19
person." 19
pha@@ 19
physi@@ 19
physician 19
prestar 19
primeiro, 19
principal@@ 19
principi@@ 19
principios 19
privi@@ 19
privilexi@@ 19
pro-@@ 19
problems." 19
ps. 19
psycho@@ 19
push 19
puts 19
puxo 19
pé 19
quedar@@ 19
ques@@ 19
quisi@@ 19
radio@@ 19
rapaza 19
raro 19
recordo 19
recover@@ 19
reflexi@@ 19
refuge@@ 19
refugee 19
regres@@ 19
regular 19
relat@@ 19
relevant 19
replica@@ 19
resistance 19
respond 19
responsables 19
reun@@ 19
ritu@@ 19
ro 19
rob@@ 19
row 19
rá@@ 19
samos 19
scary 19
sec@@ 19
second, 19
seconds 19
see." 19
sees 19
seg@@ 19
segura 19
semella 19
semellante 19
senten 19
sentí@@ 19
sentía 19
severe 19
shel@@ 19
signi@@ 19
siti@@ 19
sións 19
sle@@ 19
slowly 19
solutions 19
sorte, 19
statistics 19
stood 19
storytell@@ 19
street 19
suggest 19
suggests 19
sur 19
surge@@ 19
systems, 19
sé@@ 19
t's 19
table. 19
tail@@ 19
tamente, 19
tantos 19
target 19
tate 19
taxas 19
tenden 19
testemu@@ 19
these, 19
throw 19
ti. 19
times." 19
tists 19
tly, 19
todos, 19
tomor@@ 19
transporte 19
tratament@@ 19
tremen@@ 19
true. 19
tuberculos@@ 19
tures 19
two-@@ 19
typically 19
ultimately 19
ut@@ 19
veron 19
verti@@ 19
viven@@ 19
volver@@ 19
ward, 19
wards 19
ways. 19
ways." 19
wea@@ 19
weal@@ 19
weir@@ 19
whenever 19
which, 19
will@@ 19
wn, 19
xenoma 19
xente@@ 19
xornal@@ 19
y?""" 19
youn@@ 19
Ás 19
ám@@ 19
ámoslle 19
én, 19
éron@@ 19
ía: 19
íde@@ 19
úl@@ 19
ún 19
úti@@ 19
—@@ 19
!@@ 18
""o 18
"Ademais, 18
"Antes 18
"Ata 18
"Estamos 18
"Pola 18
"Vale, 18
1,000 18
17@@ 18
2,@@ 18
;@@ 18
AR@@ 18
Acade@@ 18
Afghanist@@ 18
América 18
Ath@@ 18
BR@@ 18
Ban@@ 18
Bon@@ 18
Brita@@ 18
California, 18
Cent@@ 18
Central 18
China. 18
DBC 18
El@@ 18
Europa, 18
F 18
Franci@@ 18
Gol@@ 18
HIV@@ 18
Ig 18
Instituto 18
Ital@@ 18
Jenni@@ 18
Jer@@ 18
Jes@@ 18
Juliano 18
K: 18
Leads 18
Lis@@ 18
MRI 18
Medical 18
Mundial 18
Nathani@@ 18
Oh, 18
Onde 18
Pri@@ 18
RN@@ 18
Squ@@ 18
TED, 18
Ten@@ 18
Tit@@ 18
Toraj@@ 18
V: 18
VIH@@ 18
Velaquí 18
War@@ 18
Ya@@ 18
aa@@ 18
about. 18
aburr@@ 18
acab@@ 18
according 18
acen@@ 18
adoitan 18
adolescentes 18
ago@@ 18
alegr@@ 18
algoritmos 18
ality. 18
alone, 18
alu@@ 18
alucinacións 18
aming 18
amosan 18
ane@@ 18
ants 18
antí@@ 18
anxiety 18
anzas 18
apun@@ 18
ariz@@ 18
around." 18
ash@@ 18
asistencia 18
assump@@ 18
asylu@@ 18
attrac@@ 18
aumentar 18
autist@@ 18
axes 18
balance 18
bar 18
barely 18
bas 18
bei 18
beings 18
bet@@ 18
bido 18
bolsa 18
busca@@ 18
cabeza, 18
calling 18
camente, 18
capable 18
cardiovascul@@ 18
cardíac@@ 18
cat@@ 18
catal@@ 18
center 18
change. 18
chave 18
cla@@ 18
clean 18
clínicos 18
colegas 18
colle 18
colleagu@@ 18
compañe@@ 18
compañías 18
complicado 18
compoñ@@ 18
comprome@@ 18
comuni@@ 18
conceptu@@ 18
conden@@ 18
confun@@ 18
consecu@@ 18
consul@@ 18
contain@@ 18
contem@@ 18
convencion@@ 18
converter@@ 18
conxel@@ 18
conxun@@ 18
cop@@ 18
correr 18
cortex, 18
craz@@ 18
creatividade 18
creativity 18
credit 18
cren 18
cruz@@ 18
cría 18
cí@@ 18
cómpre 18
d's 18
damage 18
darnos 18
dato 18
death." 18
decidir 18
ded, 18
degrees 18
deixamos 18
del 18
dela 18
demais, 18
demonstra@@ 18
demostrar 18
deni@@ 18
depor@@ 18
descuber@@ 18
descubrín 18
detalles 18
diapositiv@@ 18
diari@@ 18
dicirlles 18
dicían 18
dindo 18
diná@@ 18
directly 18
discu@@ 18
distance 18
done, 18
dop@@ 18
drugs, 18
dus@@ 18
décadas 18
e'll 18
e; 18
economy 18
educación, 18
effici@@ 18
empecei 18
ends) 18
eness 18
engadir 18
ents." 18
environment. 18
equivo@@ 18
escrito 18
estase 18
estatísticas 18
esto 18
están@@ 18
event 18
exame 18
exo@@ 18
exposed 18
expresión 18
facemos, 18
faci@@ 18
fará 18
fascinating 18
fear@@ 18
febre@@ 18
fighting 18
fixéron@@ 18
flor@@ 18
forever@@ 18
fortal@@ 18
forth 18
fotografía 18
fra@@ 18
frase 18
fuel 18
funny 18
fíxen@@ 18
gali@@ 18
generate 18
genes, 18
glas@@ 18
good." 18
gray 18
gres@@ 18
guen 18
hall@@ 18
hid@@ 18
highest 18
him. 18
hospital, 18
humor@@ 18
ick, 18
igual@@ 18
iled 18
illi@@ 18
ilusi@@ 18
imaxinade 18
imple@@ 18
increases 18
iness 18
inglés, 18
injec@@ 18
inser@@ 18
insi@@ 18
introver@@ 18
invest 18
investigacións 18
involves 18
iva 18
justi@@ 18
know." 18
labor 18
lands 18
laun@@ 18
leaves 18
line. 18
linguaxe, 18
lo: 18
long-@@ 18
loss 18
loxi@@ 18
luz, 18
lé@@ 18
marabillosa 18
marido 18
mark 18
match 18
matemáticas 18
maxim@@ 18
me.""" 18
memory, 18
mest@@ 18
metáfora 18
mili@@ 18
mind." 18
missing 18
mm@@ 18
mortality 18
mp 18
muller, 18
médicos, 18
mó@@ 18
nai, 18
neighbor@@ 18
new, 18
nic@@ 18
ninguén@@ 18
nit@@ 18
novela 18
numer@@ 18
obesity 18
obrig@@ 18
oficial 18
optimis@@ 18
orch@@ 18
ories 18
ority 18
other. 18
oxy@@ 18
pasaba 18
patentes 18
patter@@ 18
peculi@@ 18
pegada 18
peixe 18
pensas 18
perfectamente 18
petro@@ 18
pezas 18
phone, 18
physic@@ 18
pictu@@ 18
place. 18
plo@@ 18
plásticos 18
pocke@@ 18
pode@@ 18
poid@@ 18
point. 18
ponte 18
posible, 18
posicións 18
possible. 18
possible." 18
powerful, 18
pre 18
preg@@ 18
preocupa@@ 18
prescribe 18
presence 18
presentes 18
prest@@ 18
princi@@ 18
professional 18
professor@@ 18
profundamente 18
propag@@ 18
propios 18
providing 18
proxectos 18
psi@@ 18
puber@@ 18
puider@@ 18
punto, 18
pursu@@ 18
puxemos 18
páxina 18
pública 18
queredes 18
question: 18
ras 18
reaccións 18
recru@@ 18
recuperar 18
reflic@@ 18
relato 18
remove 18
representan 18
retin@@ 18
reuni@@ 18
rise 18
risks 18
ritmo 18
road 18
roman@@ 18
row, 18
rápida 18
sae 18
scientist 18
seas@@ 18
seguramente 18
sell@@ 18
sem@@ 18
sensor 18
sentado 18
sentimos 18
sentirse 18
sequence 18
sever@@ 18
shall 18
sick 18
simp@@ 18
sincron@@ 18
sist@@ 18
skill@@ 18
societies 18
society." 18
softw@@ 18
solar@@ 18
solo 18
sorry, 18
spec@@ 18
spectrum 18
spir@@ 18
stair@@ 18
states 18
structu@@ 18
stuff@@ 18
surprising 18
symptom@@ 18
syste@@ 18
tanme 18
tara 18
teléfon@@ 18
terra 18
texto 18
tics. 18
tido 18
tion?" 18
tivity 18
ton, 18
tonel@@ 18
traballadores 18
tratamos 18
tratan 18
traumá@@ 18
tured 18
unha@@ 18
use." 18
usión 18
ustin 18
utili@@ 18
vaccine 18
vaccines 18
var@@ 18
vely 18
vermel@@ 18
vos, 18
voste@@ 18
vul@@ 18
vítimas 18
waves 18
window 18
wit@@ 18
women." 18
word, 18
works, 18
wrong. 18
wrong@@ 18
xamais 18
xemel@@ 18
xenial 18
xim@@ 18
xin@@ 18
xustiza 18
year@@ 18
zap@@ 18
ábamos 18
ámolos 18
áns 18
éx@@ 18
í, 18
ían@@ 18
íbel 18
ícul@@ 18
ífer@@ 18
ódese 18
ónico 18
óxi@@ 18
últimas 18
""It's 17
""Teño 17
"(Sorrisos) 17
"Dic@@ 17
"Imos 17
"Nunha 17
"Outra 17
"Teño 17
(A@@ 17
(Ris@@ 17
(ris@@ 17
-to-@@ 17
10, 17
10.000 17
1: 17
22 17
45 17
60@@ 17
99@@ 17
Ab@@ 17
Africa, 17
Ba@@ 17
Cu@@ 17
Dan@@ 17
Debemos 17
Eles 17
Gargalladas) 17
Giussani: 17
Give 17
H: 17
Kar@@ 17
King 17
Lem@@ 17
Lor@@ 17
Mark 17
Mat@@ 17
Michael 17
Mil@@ 17
Moi 17
Mouaz 17
N 17
NCRA 17
Necesitamos 17
Neste 17
Phili@@ 17
RNA 17
Right? 17
Robin 17
Sam@@ 17
Sen@@ 17
Sor@@ 17
Stre@@ 17
Times 17
U.@@ 17
UU@@ 17
Vouvos 17
Y 17
ability, 17
about@@ 17
accompl@@ 17
acer@@ 17
acts 17
actualmente 17
acy, 17
adolescen@@ 17
again@@ 17
alco@@ 17
alcohol@@ 17
alento 17
algorithms 17
alivi@@ 17
alumnos 17
ama 17
amyloid 17
and-@@ 17
ando@@ 17
aplicacións 17
apos@@ 17
apreci@@ 17
asist@@ 17
assem@@ 17
ately, 17
ates, 17
ativa 17
atten@@ 17
autism, 17
avances 17
baixar 17
behavior, 17
bell@@ 17
bias@@ 17
bled 17
block@@ 17
blocks 17
bore@@ 17
brains, 17
brillante 17
básica@@ 17
caba 17
cadra@@ 17
call@@ 17
capacidades 17
carbono, 17
care. 17
career 17
carta 17
catastrop@@ 17
causan 17
causar 17
cei 17
cells. 17
chegando 17
choos@@ 17
cidadáns 17
cis@@ 17
clase, 17
classical 17
commerci@@ 17
compassion@@ 17
completa 17
complexos 17
compor@@ 17
concor@@ 17
concreto 17
conectar 17
confid@@ 17
configur@@ 17
conflict 17
connection 17
conseguiu 17
counter@@ 17
country." 17
courage 17
coñece 17
creation 17
cuber@@ 17
cumpr@@ 17
curto 17
custos 17
cy, 17
cár@@ 17
daf-2 17
dalgunha 17
deaths 17
debaixo 17
decade 17
decades 17
decateime 17
decenas 17
decidiron 17
deep@@ 17
definition 17
dente 17
dereit@@ 17
descubrimento 17
destro@@ 17
detall@@ 17
devic@@ 17
dia 17
dicimos 17
diferenci@@ 17
diferente, 17
differ@@ 17
different." 17
dign@@ 17
dimension@@ 17
dimensional 17
discovery 17
discre@@ 17
dispoñibles 17
distor@@ 17
dixital 17
doctors, 17
dog@@ 17
dollars, 17
dom, 17
donos 17
drama@@ 17
dys@@ 17
díxenlle: 17
edificios 17
eding 17
educational 17
eime 17
eleph@@ 17
eliminar 17
elle 17
end." 17
enerxía, 17
engage 17
enjoy 17
ens, 17
ensai@@ 17
entrei 17
ents. 17
epidemic 17
ere, 17
ere." 17
escenario 17
escuro 17
estará 17
estivera 17
estudamos 17
everywhere@@ 17
exercicios 17
experts 17
expos@@ 17
expressed 17
extin@@ 17
exu@@ 17
facili@@ 17
falaba 17
falantes 17
fav@@ 17
features 17
fell 17
ff@@ 17
fican 17
ficien@@ 17
fico 17
filósof@@ 17
flu 17
fly 17
followed 17
forzas 17
foundation 17
g. 17
gain, 17
gamos 17
gap 17
gasol@@ 17
generated 17
gif@@ 17
gift 17
gober@@ 17
gobern@@ 17
govern@@ 17
grupo, 17
gy@@ 17
hack@@ 17
hearing 17
heart, 17
hidden 17
himself 17
hiper@@ 17
hospitais 17
hot 17
how, 17
iP@@ 17
idén@@ 17
illy 17
ily, 17
imo 17
imposible 17
in-@@ 17
indeed 17
indíxen@@ 17
infanti@@ 17
ings." 17
intelectu@@ 17
intelixente 17
interaccións 17
interaction 17
interesante, 17
internacional 17
intest@@ 17
intre 17
invited 17
involucr@@ 17
iras, 17
ismo, 17
isol@@ 17
ist. 17
its, 17
iu 17
jobs 17
knowled@@ 17
la, 17
learning. 17
leas@@ 17
leaving 17
leen 17
lege 17
leopar@@ 17
lider@@ 17
llas 17
lli@@ 17
lock 17
logy 17
ls 17
magne@@ 17
marabilloso 17
married 17
matar 17
mathema@@ 17
men. 17
mensa@@ 17
microscopi@@ 17
mine 17
mistake 17
molecules, 17
monkey 17
montañ@@ 17
musical 17
musici@@ 17
myself." 17
myst@@ 17
máquinas 17
mú@@ 17
mús@@ 17
namor@@ 17
naturally 17
negocio 17
neur@@ 17
neurons." 17
noticia 17
nurses 17
númer@@ 17
obe@@ 17
off." 17
offer 17
oka@@ 17
ollos, 17
omen 17
omes 17
on't 17
oportun@@ 17
organismos 17
organize 17
os; 17
ough@@ 17
ouno 17
parecido 17
participantes 17
participar 17
patient, 17
pay@@ 17
pensaban 17
perpetu@@ 17
picked 17
plane 17
podí@@ 17
policy 17
positiva 17
positivo 17
poño 17
precisaba 17
precisas 17
preguntar 17
premio 17
prepared 17
presenza 17
presidente 17
primate 17
principais 17
priori@@ 17
problems. 17
professor 17
profund@@ 17
programs 17
progress 17
project, 17
pt 17
pulled 17
páxinas 17
quanti@@ 17
questions, 17
quiló@@ 17
quiño 17
racial 17
random 17
rating 17
raw 17
razo@@ 17
reactions 17
realmente, 17
recently, 17
recibe 17
reduci@@ 17
regr@@ 17
relacionadas 17
relativamente 17
releas@@ 17
rendemento 17
repair 17
research@@ 17
responses 17
reven@@ 17
rexeitamento 17
ri 17
ridicul@@ 17
righ@@ 17
riscos 17
roll 17
saber@@ 17
samples 17
sear@@ 17
section 17
secundarios 17
seek 17
semanas, 17
sense, 17
sensor@@ 17
sentiment@@ 17
sentín 17
sign 17
sinap@@ 17
sinté@@ 17
sinxelo 17
sir@@ 17
sister 17
sla@@ 17
small, 17
something. 17
sour@@ 17
spre@@ 17
stick 17
stra@@ 17
stret@@ 17
stuck 17
suicide 17
sóli@@ 17
tades 17
talks 17
tanse 17
tar, 17
techni@@ 17
tecnol@@ 17
temporal 17
tend@@ 17
ters." 17
terían 17
this.""" 17
tida 17
ting. 17
ting@@ 17
tioning 17
tirar 17
tivas, 17
tivera 17
toman 17
tons 17
torn@@ 17
town 17
transmit@@ 17
treatment, 17
tul@@ 17
tár@@ 17
ual 17
ually 17
universidade, 17
ura, 17
urban 17
usual 17
utilizar 17
vaca@@ 17
vaccin@@ 17
ved. 17
versus 17
ves." 17
veter@@ 17
veterinari@@ 17
viewed 17
vio@@ 17
viruses 17
vital 17
vivindo 17
vosos 17
vostedes, 17
vín 17
wait@@ 17
wat@@ 17
workers 17
wrong, 17
xac@@ 17
zar@@ 17
ámo@@ 17
ámol@@ 17
érase 17
ífi@@ 17
óxen@@ 17
"Algunhas 16
"Canto 16
"Col@@ 16
"Daquela, 16
"Hoxe, 16
"Pu@@ 16
&amp;@@ 16
've 16
-up 16
2010, 16
50% 16
50, 16
Algunhas 16
Andrew 16
Arabic 16
Australi@@ 16
Chi@@ 16
Christi@@ 16
Con 16
Danny 16
Deci@@ 16
Dé@@ 16
E: 16
Encán@@ 16
Eric 16
Europe, 16
Geo@@ 16
Global 16
H 16
Higgs 16
House 16
Hub@@ 16
Human@@ 16
Jane 16
Karaj@@ 16
Linu@@ 16
MIT 16
Minis@@ 16
Mu@@ 16
North 16
OK?" 16
Podedes 16
Podes 16
Prince@@ 16
Resulta 16
Saúde 16
Scott 16
Sei 16
Shakespeare 16
Sir@@ 16
Terra, 16
Titus 16
Ver@@ 16
William 16
York, 16
about." 16
acaba 16
acabar 16
accident@@ 16
ache 16
aco 16
actions 16
actividades 16
adiante 16
adora, 16
adv@@ 16
advant@@ 16
alcan@@ 16
alive 16
allowing 16
alma 16
almor@@ 16
altas 16
americanos 16
amigos, 16
analog@@ 16
ance. 16
apart 16
appear 16
appear@@ 16
aprendiza@@ 16
aproximadamente 16
arily 16
arm@@ 16
ary. 16
ary." 16
aspect 16
astronom@@ 16
ata@@ 16
ate. 16
ating, 16
atmos@@ 16
babies, 16
baseado 16
bear@@ 16
bemos 16
birds 16
bit, 16
boar@@ 16
bordo 16
botell@@ 16
bottom, 16
box, 16
bras 16
bud@@ 16
buying 16
cabal@@ 16
calls 16
cama 16
carefully 16
carica@@ 16
carri@@ 16
carrying 16
cartoon@@ 16
categ@@ 16
cemos 16
centros 16
ceremon@@ 16
certifica@@ 16
chamo 16
cien@@ 16
circunstancias 16
claramente 16
class@@ 16
co: 16
codi@@ 16
coffee 16
colleague 16
collen 16
collín 16
comman@@ 16
comparación 16
compet@@ 16
composto 16
compostos 16
computers 16
comúns 16
conect@@ 16
conexións 16
conferencia 16
consentimento 16
convenci@@ 16
convinced 16
copy 16
corals 16
cortex@@ 16
counsel@@ 16
coñecen 16
cras@@ 16
crecen@@ 16
cultivos 16
curiosidade 16
curious 16
cuxa 16
d?" 16
dad 16
dangerous 16
darvos 16
data." 16
debu@@ 16
debux@@ 16
delas, 16
delivered 16
demostra@@ 16
depression." 16
dereita, 16
descubriu 16
diagnósti@@ 16
diferentes, 16
dimos 16
dinosaurs 16
discriminación 16
disto, 16
dit@@ 16
dito 16
dixen, 16
dly, 16
dom@@ 16
don'@@ 16
doses 16
down. 16
dían 16
ea 16
earlier 16
economi@@ 16
edifici@@ 16
education." 16
effect, 16
ego 16
eigh@@ 16
either@@ 16
eleccións 16
element@@ 16
els 16
else's 16
else, 16
eléctr@@ 16
emento, 16
emergency 16
employe@@ 16
encion@@ 16
enfermidades, 16
ented 16
entí@@ 16
equilibrio 16
eramos 16
es... 16
escra@@ 16
escribir@@ 16
escribiu 16
espazos 16
espon@@ 16
espírito 16
esta, 16
establecer 16
esterol 16
estima@@ 16
estraño 16
estrelas 16
estrutur@@ 16
events 16
everywhere 16
evil 16
evolutionary 16
exhal@@ 16
exhi@@ 16
expec@@ 16
expected 16
experience, 16
experiments 16
expert 16
explica@@ 16
exérci@@ 16
failed 16
failure 16
falar@@ 16
fantas@@ 16
farmacéu@@ 16
favor 16
fe, 16
femal@@ 16
feridas 16
fermoso 16
fillo, 16
floo@@ 16
fondo, 16
foreign 16
forest 16
forge@@ 16
frontal 16
functions 16
fíxome 16
generations 16
glass 16
go: 16
guei 16
gustar@@ 16
guía 16
h! 16
handle 16
head. 16
heads 16
hiding 16
hippocamp@@ 16
hormones 16
house, 16
however, 16
ifica@@ 16
image." 16
imaxinación 16
implan@@ 16
indus@@ 16
infer@@ 16
influence 16
instin@@ 16
insur@@ 16
inteli@@ 16
inti@@ 16
investir 16
justice 16
ka 16
ked. 16
kitch@@ 16
le: 16
les." 16
light. 16
like. 16
limp@@ 16
lingü@@ 16
lles: 16
logi@@ 16
lonel@@ 16
magic 16
malaria 16
male 16
management 16
mandar@@ 16
manif@@ 16
manu@@ 16
mate@@ 16
materiais 16
mates 16
matter, 16
mechanis@@ 16
mechanism 16
members 16
men." 16
mentar 16
metal 16
migh@@ 16
millon@@ 16
moment. 16
morrer@@ 16
morreu 16
mosquit@@ 16
mothers 16
mouth 16
ms." 16
mutacións 16
n'@@ 16
nacional 16
naquel 16
nas@@ 16
necesariamente 16
necess@@ 16
nega@@ 16
negra@@ 16
nome@@ 16
norte 16
nota 16
o; 16
obstá@@ 16
occident@@ 16
occur 16
occur@@ 16
oh, 16
olox@@ 16
one: 16
opened 16
opening 16
option 16
orbit@@ 16
ordin@@ 16
org@@ 16
organizations 16
orgáni@@ 16
oscopi@@ 16
ously." 16
pai, 16
pain, 16
paix@@ 16
part, 16
partamento 16
particul@@ 16
passion@@ 16
país@@ 16
pei 16
penicilin@@ 16
pensei, 16
pensei: 16
percent, 16
phere 16
photos 16
picos 16
pido 16
pil@@ 16
pingü@@ 16
pis@@ 16
plain 16
plastics 16
pleasure 16
pobre 16
poderoso 16
políglo@@ 16
pop 16
portra@@ 16
posibles 16
poten@@ 16
pracer 16
premi@@ 16
preocupar@@ 16
presentación 16
primi@@ 16
prioriz@@ 16
priva@@ 16
probab@@ 16
processing 16
profunda 16
proteín@@ 16
provoca 16
psicol@@ 16
psicoloxía 16
psychologists 16
ption 16
pulm@@ 16
quecemento 16
queira 16
quick@@ 16
r. 16
radical@@ 16
reacciona 16
reaction 16
realis@@ 16
receit@@ 16
reflects 16
remind 16
repli@@ 16
reported 16
research." 16
resis@@ 16
retina 16
return 16
rip@@ 16
rom@@ 16
rules 16
río 16
saving 16
science." 16
secundari@@ 16
seguintes 16
segundos 16
sending 16
serio 16
señ@@ 16
similar@@ 16
sinte@@ 16
sively 16
skills 16
sky, 16
smar@@ 16
smart@@ 16
so-called 16
sociedade, 16
soidade 16
soul@@ 16
special@@ 16
spending 16
sque@@ 16
standar@@ 16
state, 16
ster 16
stereo@@ 16
stream 16
stru@@ 16
struc@@ 16
struggling 16
subir 16
submar@@ 16
sudden 16
suggesting 16
supervivencia 16
survive 16
suxeit@@ 16
suxire 16
t: 16
table@@ 16
tal, 16
tan, 16
technolog@@ 16
televisión 16
tempos 16
tenda 16
tern 16
text 16
thing: 16
till 16
tiñas 16
told, 16
too@@ 16
tradición 16
transformar@@ 16
transi@@ 16
trato 16
traveling 16
triar@@ 16
tries 16
try." 16
tural 16
técnica 16
tér@@ 16
túan 16
uk@@ 16
ultravio@@ 16
uncle 16
university 16
urban@@ 16
ustr@@ 16
uti@@ 16
valuable 16
vantaxe 16
velaquí 16
vese 16
vessels 16
vexamos 16
veñ@@ 16
village 16
visit 16
vivi@@ 16
war." 16
washing 16
weak@@ 16
weap@@ 16
weird 16
whereas 16
while, 16
windo@@ 16
words. 16
worse." 16
xe, 16
xestion@@ 16
xir 16
xusti@@ 16
xé@@ 16
y; 16
yl@@ 16
you.""" 16
yourself, 16
ys, 16
zoom 16
zos, 16
Á@@ 16
Áfri@@ 16
ándome 16
écen@@ 16
éndose 16
época 16
ículo 16
índolle 16
úst@@ 16
útil@@ 16
’t 16
""It 15
""My 15
""Se 15
""Si, 15
"Dende 15
"Dí@@ 15
"Incluso 15
"Moitos 15
"Nas 15
"Ou@@ 15
"Pregun@@ 15
"Segundo 15
"Sempre 15
"Somos 15
), 15
-of-@@ 15
..@@ 15
000, 15
000@@ 15
14@@ 15
2050, 15
3D 15
4,000 15
700 15
85 15
Ale@@ 15
Algo 15
America." 15
Anderson: 15
Ap@@ 15
Aus@@ 15
Bab@@ 15
Bang@@ 15
Bra@@ 15
British 15
Bu@@ 15
CA@@ 15
Cap@@ 15
Ci@@ 15
Clar@@ 15
Dous 15
ECT 15
Ebola 15
Flor@@ 15
Frank 15
Fre@@ 15
George 15
Great 15
Hawai@@ 15
Her@@ 15
Hun@@ 15
Ir@@ 15
JO: 15
Leg@@ 15
Louis 15
Mag@@ 15
Mandela 15
Mediter@@ 15
Moitos 15
Mr. 15
Myriad 15
Ox@@ 15
Pregun@@ 15
Proxecto 15
Que@@ 15
Ra@@ 15
Satur@@ 15
Ser@@ 15
States. 15
TV@@ 15
Vai 15
Van 15
Xap@@ 15
You'll 15
a-lo 15
abund@@ 15
achieve 15
aconteceu 15
acordo, 15
activa 15
activate 15
ada@@ 15
adoita 15
adquir@@ 15
ads 15
afir@@ 15
afrontar 15
agan 15
agardando 15
agas@@ 15
aise 15
aj@@ 15
ala, 15
alidade, 15
alizar 15
aliñ@@ 15
alén 15
ambos 15
amiz@@ 15
amor, 15
amosarlles 15
analox@@ 15
another." 15
antibio@@ 15
anális@@ 15
apag@@ 15
apaixon@@ 15
aparello 15
apple 15
appropri@@ 15
area, 15
aredes 15
aria, 15
arly 15
around, 15
arra@@ 15
arse, 15
astronau@@ 15
ated." 15
atopa 15
atro 15
attention. 15
attention." 15
avent@@ 15
avogados 15
avó@@ 15
awful 15
barat@@ 15
bear 15
beauti@@ 15
belief 15
bici 15
big, 15
bike 15
bis@@ 15
blac@@ 15
blog 15
bodies, 15
bolsas 15
botón 15
bub@@ 15
by, 15
cabe@@ 15
cambiando 15
cardi@@ 15
carn@@ 15
catá@@ 15
celebrate 15
cem@@ 15
centen@@ 15
challen@@ 15
chil@@ 15
children's 15
chimpanzees 15
citizens 15
city." 15
ción: 15
clasifica@@ 15
cle 15
cles 15
closed 15
college, 15
come, 15
comida, 15
commit@@ 15
commitment 15
comprobar 15
confu@@ 15
consciousness, 15
consen@@ 15
consequences 15
constante 15
construción 15
construímos 15
controver@@ 15
converterse 15
copyright 15
correct 15
corrente 15
corti@@ 15
costa 15
countri@@ 15
coñeci@@ 15
cry@@ 15
culpa 15
cámaras 15
cós 15
day@@ 15
decision@@ 15
def@@ 15
defec@@ 15
deles, 15
demand 15
demonstr@@ 15
dencia 15
dependen@@ 15
descan@@ 15
desire 15
destino 15
destruc@@ 15
deter 15
development, 15
diagnóstico 15
dicirvos 15
dicía: 15
diet 15
dieta 15
difícil, 15
diga@@ 15
dinosau@@ 15
dinosauros 15
direct 15
diseases, 15
disorders 15
distanci@@ 15
divin@@ 15
doctor, 15
does. 15
does@@ 15
dollars." 15
doors 15
dozens 15
driven 15
drives 15
duci@@ 15
duro 15
dó@@ 15
easy, 15
efficient 15
egg@@ 15
elas, 15
elección 15
elector@@ 15
elef@@ 15
else. 15
emerging 15
empathy 15
empre@@ 15
emprego 15
encant@@ 15
ench@@ 15
encias, 15
encourage 15
ene 15
engag@@ 15
engaged 15
entemente, 15
entorno 15
entrada 15
environment." 15
escena 15
espello 15
espi@@ 15
est. 15
esteamos 15
estereo@@ 15
estou@@ 15
estratexi@@ 15
even@@ 15
ew 15
existence 15
expectancy 15
experimentos 15
family. 15
far, 15
feita 15
ficiency 15
filosof@@ 15
flas@@ 15
floor 15
fluxo 15
foods 15
form, 15
fully, 15
fíg@@ 15
físico 15
fór@@ 15
galle@@ 15
games, 15
glico@@ 15
gon@@ 15
good. 15
grafí@@ 15
gras@@ 15
great. 15
grown 15
guy, 15
habitación 15
han 15
hand. 15
happi@@ 15
harm@@ 15
heigh@@ 15
her." 15
honest 15
hum@@ 15
hóspe@@ 15
identity 15
illnes@@ 15
imagination 15
immedi@@ 15
important. 15
impot@@ 15
inclúe 15
increas@@ 15
ines 15
infantil 15
infected 15
inferi@@ 15
information." 15
infra@@ 15
ing) 15
ingredientes 15
ings. 15
insp@@ 15
instrucións 15
instructions 15
intended 15
intens@@ 15
intento 15
interact 15
introduce 15
introverti@@ 15
investigación, 15
irrit@@ 15
isolated 15
ivemos 15
jus@@ 15
kick 15
king. 15
lación 15
laran@@ 15
lau@@ 15
launched 15
lease 15
leu 15
levoume 15
line." 15
lines, 15
lixeiramente 15
locais 15
lot, 15
lowing 15
luces 15
límites 15
líquido 15
magi@@ 15
marine 15
matic 15
may@@ 15
me? 15
medicinal 15
medio@@ 15
menta 15
mesmos, 15
metaphor 15
methods 15
mex@@ 15
mia 15
mica 15
mind. 15
mirada 15
miran 15
mirror 15
misteri@@ 15
mit 15
modo, 15
morren 15
musul@@ 15
mutations 15
máns 15
múltiples 15
música@@ 15
n. 15
nano@@ 15
negocios 15
negro@@ 15
neither 15
net 15
neurociencia 15
neuron 15
news, 15
ney 15
nitro@@ 15
nor 15
notas 15
obri@@ 15
older 15
orange 15
ordes 15
orial 15
ourselves." 15
outbreak 15
oxitocina 15
padrón 15
pant@@ 15
paraliz@@ 15
parella 15
pas 15
patho@@ 15
patróns 15
peace 15
percent@@ 15
permí@@ 15
pes, 15
phenomen@@ 15
phones 15
pill 15
piro@@ 15
plataforma 15
play, 15
poderosos 15
points 15
pois@@ 15
polyglo@@ 15
population. 15
practicar 15
preguntamos 15
prescription 15
primary 15
prioritiz@@ 15
priz@@ 15
probabilidades 15
produci@@ 15
projects 15
proper 15
propiedades 15
propósito 15
prot@@ 15
protexer@@ 15
provi@@ 15
provided 15
ps@@ 15
psicólogos 15
psiquiatr@@ 15
puidera 15
puidesen 15
pí@@ 15
pódense 15
queim@@ 15
queix@@ 15
queriamos 15
receive 15
recibiu 15
rehabilit@@ 15
reino 15
representación 15
requi@@ 15
requir@@ 15
required 15
rese 15
reson@@ 15
respect 15
responsable 15
reto 15
reunión 15
rever@@ 15
rexis@@ 15
romper 15
ronme 15
roo@@ 15
roupa 15
rup@@ 15
saben, 15
saved 15
saíu 15
seco 15
sed." 15
sedu@@ 15
segre@@ 15
semana, 15
sentada 15
she'd 15
shepher@@ 15
sica@@ 15
side. 15
significantly 15
sleep@@ 15
slide 15
sobrevivir 15
sofren 15
sor 15
space." 15
speak, 15
speaker 15
statement 15
stem@@ 15
stig@@ 15
store 15
stran@@ 15
strategy 15
street@@ 15
stress, 15
subjects 15
sufrimento 15
suicidio 15
surrounded 15
surveill@@ 15
suspec@@ 15
suspen@@ 15
synthetic 15
table." 15
tais 15
tecido 15
tee@@ 15
tely 15
temos, 15
temperatur@@ 15
terior@@ 15
teñamos 15
thinks 15
tindo 15
tionally 15
tira 15
tira@@ 15
todo@@ 15
toume 15
traballei 15
trade 15
traxectori@@ 15
trick 15
ty." 15
técni@@ 15
ue 15
um." 15
unidade 15
use. 15
vag@@ 15
vamos 15
vende@@ 15
verbal 15
versi@@ 15
verte@@ 15
ves. 15
vexan 15
via 15
viaxar 15
vitamin 15
vitamina 15
vocabul@@ 15
voces 15
voic@@ 15
vólvese 15
walks 15
warri@@ 15
witness 15
woul@@ 15
xa, 15
xar@@ 15
xico, 15
xide 15
xido 15
xos 15
xud@@ 15
xéner@@ 15
yeah, 15
zz@@ 15
Án@@ 15
ádevos 15
ánico 15
átomos 15
ésim@@ 15
ídeo) 15
íns 15
ísti@@ 15
ñec@@ 15
último, 15
úni@@ 15
úp@@ 15
""No, 14
""Non, 14
""Oh 14
""] 14
"Aos 14
"Chámase 14
"Esa 14
"Logo 14
"Mais, 14
"Neces@@ 14
"Nós 14
"Parece 14
"Podería 14
"Podes 14
"Precisamos 14
"Queremos 14
-like 14
-los 14
-ra@@ 14
-year-@@ 14
0s, 14
195@@ 14
2.@@ 14
21 14
28 14
2: 14
31 14
59 14
Afganist@@ 14
Afric@@ 14
Americ@@ 14
Amy 14
Antes 14
Ato@@ 14
Bal@@ 14
Bio@@ 14
Blo@@ 14
Breta@@ 14
Bro@@ 14
Bron@@ 14
Brookly@@ 14
C: 14
Calais 14
Centro 14
Chica@@ 14
Comecei 14
Cons@@ 14
Có@@ 14
DV@@ 14
Du@@ 14
EEUU 14
Eas@@ 14
Francisco, 14
Fun 14
GM@@ 14
Geig@@ 14
Gertrude 14
Gillian 14
Hos@@ 14
Incluso 14
Joel 14
Jus@@ 14
Kevin 14
LH@@ 14
Mars 14
Mir@@ 14
Neander@@ 14
Neces@@ 14
Nos 14
Partido 14
Poderiamos 14
R: 14
Rezero 14
S. 14
Sal@@ 14
Silicon 14
Simplemente 14
Spanish 14
Sta@@ 14
Tes 14
Tes@@ 14
Univers@@ 14
Washington, 14
XX@@ 14
Yan@@ 14
acaban 14
academic 14
accidente 14
ach, 14
acting 14
acto 14
ade, 14
adestramento 14
admi@@ 14
adolescent@@ 14
adren@@ 14
adulto 14
adultos, 14
adver@@ 14
ale, 14
algún@@ 14
aló 14
amilo@@ 14
ances@@ 14
anes@@ 14
anestes@@ 14
animal, 14
anivers@@ 14
announ@@ 14
anon@@ 14
antibiotics, 14
apoiar 14
arbit@@ 14
arras@@ 14
arrived 14
artista 14
as) 14
ase, 14
asked, 14
ast@@ 14
astron@@ 14
asu@@ 14
atmosfer@@ 14
atope@@ 14
atory 14
atribu@@ 14
attribu@@ 14
augas 14
awes@@ 14
axudou 14
balls 14
beat 14
begins 14
bele@@ 14
benef@@ 14
bias 14
bicicle@@ 14
biles 14
billóns 14
bling 14
bod@@ 14
bombe@@ 14
bott@@ 14
boy@@ 14
brades 14
broke 14
buscamos 14
bási@@ 14
bé@@ 14
caer 14
care." 14
carried 14
case." 14
cast@@ 14
celul@@ 14
cerebra@@ 14
cervex@@ 14
chap@@ 14
charac@@ 14
character@@ 14
chase 14
cheap@@ 14
chegaron 14
chemo@@ 14
ches, 14
chick@@ 14
chinés 14
chol@@ 14
choosing 14
chos@@ 14
cia, 14
ciencias 14
cientí@@ 14
científica, 14
científicos, 14
cindo 14
circu@@ 14
cirurxiáns 14
cke@@ 14
classroom 14
collect 14
combustibles 14
comfort 14
comment 14
community." 14
compart@@ 14
compañeira 14
compli@@ 14
compra 14
comprensi@@ 14
condicion@@ 14
conform@@ 14
confus@@ 14
conso@@ 14
conta@@ 14
contan 14
contarlles 14
contaxi@@ 14
conversas 14
convic@@ 14
convul@@ 14
convér@@ 14
convértese 14
core 14
coste@@ 14
covered 14
crani@@ 14
crazy 14
creo, 14
criaturas 14
cross 14
cubrir 14
culo, 14
curta 14
cálculos 14
damente 14
data. 14
debo 14
dece@@ 14
deixan 14
deliver@@ 14
denunci@@ 14
dependencia 14
dera 14
deral 14
deriv@@ 14
dermat@@ 14
desafi@@ 14
desafío 14
desafíos 14
describ@@ 14
describing 14
desenvolvemento, 14
deseñado 14
desp@@ 14
detail@@ 14
dev@@ 14
develo@@ 14
diario 14
dic 14
dies 14
different. 14
dificul@@ 14
dig 14
ding, 14
director@@ 14
disrup@@ 14
distinc@@ 14
distinto 14
distributed 14
dixéron@@ 14
diá@@ 14
doce 14
doing." 14
dollar@@ 14
doub@@ 14
dozen 14
dramatic 14
dreams 14
easi@@ 14
ecosistema 14
education. 14
educativo 14
effectively 14
efs 14
else." 14
empezamos 14
employees 14
enable 14
ence: 14
enem@@ 14
energy, 14
enes@@ 14
engad@@ 14
enhan@@ 14
enme 14
ensi@@ 14
ensure 14
entanto, 14
ential 14
entor@@ 14
epi@@ 14
equality 14
equally 14
er.""" 14
eredes 14
escan@@ 14
esix@@ 14
específica 14
esperamos 14
espos@@ 14
estadounidense 14
ested 14
estimates 14
estivemos 14
estudantes, 14
eta 14
etiqu@@ 14
ev 14
everything. 14
exist 14
expensive, 14
experiencing 14
experiment, 14
explained 14
explan@@ 14
exposure 14
extrac@@ 14
fabul@@ 14
faced 14
facen@@ 14
facernos 14
facul@@ 14
facéndo@@ 14
fagamos 14
familiar@@ 14
family." 14
fascinated 14
favori@@ 14
felicidade, 14
fellow 14
fem@@ 14
field, 14
figuras 14
film 14
firing 14
fixen@@ 14
for." 14
force, 14
formed 14
fracas@@ 14
fracaso 14
frequ@@ 14
frequen@@ 14
friends." 14
fronteira 14
funcionamento 14
funeral 14
gai@@ 14
ghter@@ 14
gin@@ 14
girls, 14
grab@@ 14
grande, 14
graos 14
gris 14
groun@@ 14
gráfi@@ 14
gráficos 14
gual 14
guerre@@ 14
guide 14
hackers 14
half@@ 14
hambur@@ 14
hard, 14
have." 14
heli@@ 14
hipocam@@ 14
hits 14
holding 14
holds 14
hole 14
hoping 14
hormona 14
hyper@@ 14
ic." 14
icamente 14
icel@@ 14
icul@@ 14
iel@@ 14
iliz@@ 14
ima 14
images, 14
imaxes, 14
included 14
increasing 14
indeed, 14
indirec@@ 14
inferior 14
insis@@ 14
inste@@ 14
intelixentes 14
invas@@ 14
invernado@@ 14
inverno 14
ios 14
is? 14
istine 14
items 14
itself, 14
iña 14
je@@ 14
jec@@ 14
jud@@ 14
kay. 14
key@@ 14
killed 14
ky 14
laboratory 14
land." 14
languages, 14
largely 14
le-@@ 14
lean 14
leather 14
leav@@ 14
left." 14
legis@@ 14
lemos 14
ler, 14
less@@ 14
leve@@ 14
level, 14
lica 14
like." 14
limb 14
little, 14
liv@@ 14
lives. 14
lixe@@ 14
llelo 14
llos 14
logists 14
logos 14
love." 14
lucky 14
machines 14
manex@@ 14
mantén 14
market, 14
masculin@@ 14
master@@ 14
material, 14
mazás 14
mañ@@ 14
meas@@ 14
med, 14
medicación 14
medio, 14
medit@@ 14
mer, 14
mercado, 14
merely 14
mergul@@ 14
metal@@ 14
method 14
mico 14
military 14
mirac@@ 14
moda 14
money." 14
monkeys 14
mono 14
monta@@ 14
mood 14
morreron 14
much." 14
mín@@ 14
names 14
nat@@ 14
navi@@ 14
nec@@ 14
negoti@@ 14
neighborhood 14
nervous 14
neurons, 14
neuroscience 14
neurotransmit@@ 14
nitróxen@@ 14
nixer@@ 14
notion 14
ny, 14
né@@ 14
o"" 14
o... 14
objective 14
objects, 14
observando 14
obses@@ 14
obsesion@@ 14
odio 14
of." 14
offered 14
old." 14
ome, 14
onal 14
opcións 14
opposed 14
optim@@ 14
ordenadores 14
oria 14
osos, 14
ostedes 14
osíxen@@ 14
others." 14
overcome 14
overwhel@@ 14
paciente, 14
pair 14
pantalla 14
pantas@@ 14
paradig@@ 14
party 14
pasar@@ 14
past." 14
países, 14
pel, 14
pensade 14
pense@@ 14
performan@@ 14
permitir 14
personaxes 14
phantom 14
phenomenon 14
photo 14
phras@@ 14
physics 14
pione@@ 14
plata@@ 14
pneu@@ 14
poem 14
poem@@ 14
point." 14
policies 14
político 14
poorest 14
population, 14
porno@@ 14
possibili@@ 14
post-@@ 14
posu@@ 14
practicamente 14
precise 14
predicted 14
prefer 14
preocupación 14
preparados 14
preparing 14
prezos 14
prison@@ 14
probability 14
profesional 14
project. 14
propó@@ 14
protagon@@ 14
pró@@ 14
ps." 14
pulmon@@ 14
puntu@@ 14
puzz@@ 14
py@@ 14
público, 14
qued@@ 14
quera 14
questions." 14
rapac@@ 14
rapazas 14
ration@@ 14
razón, 14
reais 14
reality, 14
reality." 14
refriger@@ 14
regardless 14
relacionado 14
remain 14
remata 14
represent 14
residu@@ 14
resolución 14
resonancia 14
responded 14
result, 14
retro@@ 14
reverse 14
revolución 14
rhyth@@ 14
rico 14
ritual 14
rock 14
ruta 14
sabían 14
samp@@ 14
say@@ 14
scene 14
sche@@ 14
school." 14
schools, 14
scientists, 14
score 14
screening 14
seguindo 14
selves 14
sensibles 14
separate 14
set@@ 14
shot 14
sica 14
sicas 14
signs 14
sitios 14
sión, 14
skep@@ 14
skill 14
sky 14
sl@@ 14
snow@@ 14
sobrevivir@@ 14
sof@@ 14
sofre 14
sol, 14
solit@@ 14
something." 14
sono 14
soños 14
species, 14
spot 14
stands 14
steps 14
stories, 14
strate@@ 14
struck 14
stuff, 14
stuff." 14
substancias 14
superfici@@ 14
superviv@@ 14
supoño 14
surgical 14
surprise 14
surprised 14
swi@@ 14
síndrome 14
targeted 14
tax 14
team@@ 14
techniques 14
tecidos 14
teen@@ 14
teléfonos 14
temente 14
temperatura 14
tendemos 14
test. 14
therapy, 14
thri@@ 14
thy 14
tie 14
tion? 14
tivesen 14
tomando 14
topamos 14
tors, 14
toxi@@ 14
toy 14
trab@@ 14
transition 14
transmitir 14
triang@@ 14
triste 14
true, 14
tt@@ 14
tude 14
uck@@ 14
une 14
universit@@ 14
unos 14
urios@@ 14
vac@@ 14
vacin@@ 14
vacina 14
vaia 14
vehic@@ 14
vement 14
verdadeiramente 14
vertical 14
video@@ 14
vido 14
vie@@ 14
vision, 14
viña 14
voltas 14
volveuse 14
vontade 14
vídeos 14
warm@@ 14
water. 14
wave 14
wear@@ 14
website 14
were, 14
wisdom 14
witnes@@ 14
woman, 14
xera 14
xeracións 14
xudici@@ 14
xénero, 14
y"" 14
ye 14
ymous 14
yon@@ 14
¡@@ 14
É@@ 14
ábe@@ 14
ác@@ 14
ándoo 14
áronlle 14
éc@@ 14
écese 14
édes@@ 14
émol@@ 14
ías, 14
ío 14
ísi@@ 14
ísim@@ 14
íu 14
ólog@@ 14
óne@@ 14
órganos 14
únicos 14
ńa 14
""Os 13
"Aqu@@ 13
"Clar@@ 13
"Imaxinade 13
"Nese 13
"Podedes 13
"Tiña 13
"pero 13
"é 13
$ 13
(Video) 13
10% 13
29 13
3,000 13
450 13
46 13
65 13
95 13
A: 13
Al 13
Alzheimer'@@ 13
Am@@ 13
Apren@@ 13
Aí 13
B: 13
Bay@@ 13
Boston, 13
Brid@@ 13
Canada 13
Cantos 13
Control 13
Coun@@ 13
Cr@@ 13
DNA." 13
Dra@@ 13
Er@@ 13
FD@@ 13
Foun@@ 13
Fr@@ 13
Fun@@ 13
Gar@@ 13
Glas@@ 13
Gra@@ 13
Grazas, 13
HAL 13
Hill@@ 13
Humanae 13
Imaxin@@ 13
Indus@@ 13
Jan@@ 13
Je@@ 13
Kleiber 13
La 13
Mas@@ 13
Mid@@ 13
Mis@@ 13
Montana 13
Mundi@@ 13
Nar@@ 13
Noru@@ 13
Or@@ 13
Pal@@ 13
Palest@@ 13
Paris 13
Park@@ 13
Parkinson@@ 13
Pensade 13
Pensen 13
Q 13
S, 13
Sa@@ 13
Saú@@ 13
Sir 13
Somos 13
TO@@ 13
Telesco@@ 13
Thor@@ 13
Tim@@ 13
Toda 13
Tom 13
Vis@@ 13
Wall 13
Yeah. 13
Zika 13
Zimbab@@ 13
Zo@@ 13
absolutamente 13
aburrid@@ 13
acabar@@ 13
accesi@@ 13
accurate 13
acin@@ 13
aconte@@ 13
acontecer@@ 13
actively 13
activities 13
actúa 13
ademais, 13
ading 13
adoitaba 13
afast@@ 13
afectar 13
aforrar 13
aga 13
agrí@@ 13
aid 13
ail@@ 13
aled 13
aler@@ 13
alguén@@ 13
aling 13
almac@@ 13
along@@ 13
alos, 13
alzhéimer, 13
ame, 13
amos: 13
amygdal@@ 13
ance@@ 13
ancias 13
andar 13
angusti@@ 13
animais, 13
ank 13
anme 13
another. 13
answers 13
antibióticos, 13
aparecen 13
apartamento 13
appl@@ 13
appli@@ 13
aproveitar 13
aproxima@@ 13
ara, 13
ariades 13
artic@@ 13
artistas 13
asento 13
asks 13
asun@@ 13
ataqu@@ 13
ataque 13
ated. 13
ater 13
ativo 13
ator." 13
atrá@@ 13
audio 13
aus@@ 13
autistas 13
autonom@@ 13
avaliar 13
aves 13
axudan 13
axudando 13
azul, 13
bad, 13
bame 13
bau@@ 13
bel 13
believe, 13
bera 13
bici@@ 13
bility 13
bindo 13
blemente 13
block 13
born, 13
brand 13
breathing 13
broc@@ 13
bró@@ 13
bulo 13
básica 13
básicos 13
bóla 13
bólas 13
caeu 13
calcular 13
cama, 13
camiñando 13
camiño, 13
canse 13
carb@@ 13
caring 13
carse 13
casas 13
celebra@@ 13
centí@@ 13
chair@@ 13
challenging 13
chan, 13
chances 13
changes, 13
chas 13
chegue 13
child." 13
chisco 13
cious 13
circumst@@ 13
circumstanc@@ 13
cirurxi@@ 13
cita 13
citiz@@ 13
clean@@ 13
click 13
clopedi@@ 13
coas@@ 13
colaboración 13
colega 13
collected 13
collective 13
colocar 13
colors 13
colum@@ 13
committed 13
compaix@@ 13
compaixón, 13
compassion, 13
compañeiro 13
complexa 13
comprar 13
compreh@@ 13
compro@@ 13
compromiso 13
conditions, 13
conflit@@ 13
conflito 13
conscientemente 13
consequen@@ 13
contorno 13
contén 13
coordin@@ 13
cora@@ 13
correcta 13
correcto 13
country. 13
coup@@ 13
course." 13
court 13
coñecía 13
creatures 13
cruzar 13
cultura, 13
cumprir 13
cy." 13
cáncer@@ 13
daquela, 13
darse 13
dation, 13
days. 13
dealing 13
decisións, 13
dedica@@ 13
deepest 13
defaul@@ 13
defici@@ 13
definitely 13
degre@@ 13
deixádeme 13
deleg@@ 13
demen@@ 13
demo@@ 13
democra@@ 13
demonstrated 13
demostra 13
dense 13
depending 13
dered 13
desafí@@ 13
destr@@ 13
details 13
detal@@ 13
detección 13
determinado 13
diagnosti@@ 13
didn'@@ 13
didos 13
differently." 13
din: 13
disposición 13
dolor@@ 13
don't." 13
drink 13
dula 13
e"" 13
económica 13
ecosistemas 13
eds 13
educar 13
effect." 13
efici@@ 13
eleg@@ 13
embrace 13
empat@@ 13
empregar@@ 13
empty 13
encies 13
encounter 13
encour@@ 13
endor@@ 13
engaging 13
engineer 13
eno, 13
enormous 13
enquis@@ 13
entemente 13
entende 13
entran 13
enví@@ 13
enxeñería 13
enza 13
equilibri@@ 13
er-@@ 13
er: 13
escr@@ 13
escribín 13
escus@@ 13
escáner 13
espectá@@ 13
espite 13
esquizofr@@ 13
ess@@ 13
essen@@ 13
estadouniden@@ 13
estandariz@@ 13
estar@@ 13
estimate 13
estivesen 13
estruturas 13
estudo, 13
estó@@ 13
eta, 13
etapa 13
etc., 13
ets 13
evidencia 13
examos 13
existencia 13
exit@@ 13
expand 13
experimento, 13
experto 13
explos@@ 13
express 13
expul@@ 13
extract 13
extrem@@ 13
eye, 13
facerlles 13
facial 13
fagos 13
falante 13
falarlles 13
farían 13
fase 13
faster, 13
feature 13
ferida 13
ficientes 13
figura 13
filled 13
firen 13
fish, 13
fla@@ 13
fo 13
foca 13
folla 13
food. 13
fortes 13
fortunadamente, 13
frank@@ 13
fraud@@ 13
fresh 13
fresh@@ 13
from, 13
frustr@@ 13
full@@ 13
funcionou 13
functional 13
fundamentally 13
fígado 13
galaxias 13
gando 13
gap@@ 13
garantir 13
gases 13
gentle@@ 13
geome@@ 13
gold 13
gos@@ 13
gram 13
grandes, 13
grid 13
gripe 13
gros@@ 13
ground." 13
guerras 13
gut 13
guy@@ 13
ham 13
happened." 13
happines@@ 13
happiness, 13
happy, 13
haps 13
hate@@ 13
he'd 13
headach@@ 13
health. 13
helpl@@ 13
hide 13
hip 13
hipocampo 13
homi@@ 13
horizon@@ 13
hospitaliz@@ 13
host 13
hous@@ 13
humil@@ 13
humor 13
hur@@ 13
hus@@ 13
hábit@@ 13
ias 13
ically." 13
iden@@ 13
if, 13
iling 13
imax@@ 13
imento 13
immediate 13
impacts 13
implicacións 13
imprim@@ 13
incremento 13
indica 13
indicador 13
individual, 13
inesper@@ 13
infancia 13
ing?" 13
ingredients 13
ingres@@ 13
inicial 13
ink@@ 13
inme 13
innovación 13
instead, 13
instinc@@ 13
intel@@ 13
intense 13
intensi@@ 13
interesado 13
interface 13
interrog@@ 13
intersec@@ 13
intim@@ 13
inver@@ 13
investment 13
irmáns 13
irst, 13
island 13
istas, 13
izing 13
ker@@ 13
km 13
laboratorios 13
lar 13
lay 13
learning, 13
leite 13
less." 13
lessly 13
lessons 13
letra 13
letters 13
libre@@ 13
libros, 13
lie 13
life-@@ 13
lifestyle 13
lift 13
limi@@ 13
limpar 13
lingua, 13
liquid 13
lixo 13
lob@@ 13
location 13
loitando 13
lú@@ 13
mad 13
manexar 13
manter@@ 13
marr@@ 13
materials 13
matrimon@@ 13
mazá 13
meaningful 13
means, 13
meat 13
medidas 13
memoria, 13
memory." 13
mention 13
mentioned 13
ments. 13
meters 13
metho@@ 13
micros@@ 13
middle-@@ 13
mide 13
milag@@ 13
minús@@ 13
mio 13
miúdo, 13
molecule, 13
money, 13
moratori@@ 13
motion 13
motor@@ 13
mover@@ 13
moverse 13
multi-@@ 13
música, 13
nacemento 13
nap@@ 13
nari@@ 13
narrow 13
neighborhoo@@ 13
neles 13
nerve 13
net, 13
neu@@ 13
neuroxénes@@ 13
nitric 13
nomes 13
normally 13
nova, 13
novel 13
obstac@@ 13
obviamente 13
obxectivos 13
obxectos, 13
ocean." 13
ocial 13
ocorre@@ 13
od 13
off. 13
ofici@@ 13
ofrecer 13
ois 13
oloxía 13
om, 13
oma, 13
opath@@ 13
operacións 13
organ 13
origam@@ 13
ors. 13
ors." 13
oín 13
pacien@@ 13
painful 13
paint@@ 13
paired 13
papel@@ 13
participate 13
particularmente 13
parv@@ 13
pase@@ 13
pasos 13
past, 13
patents 13
pensaron 13
peores 13
permis@@ 13
persist@@ 13
person's 13
persu@@ 13
physicians 13
pink 13
piques 13
placas 13
planet. 13
plat@@ 13
poema 13
polar 13
politici@@ 13
politics 13
pollu@@ 13
política, 13
portas 13
possi@@ 13
possible, 13
pounds 13
poverty 13
precisely 13
pregnanc@@ 13
presid@@ 13
primeira, 13
problems, 13
procedemento 13
produced 13
profesion@@ 13
prophe@@ 13
propiedade 13
protocol@@ 13
proxer@@ 13
pulling 13
pushing 13
pílul@@ 13
pór 13
queixo 13
question." 13
quick 13
químicos 13
raball@@ 13
raballamos 13
rad@@ 13
randomly 13
rar 13
reached 13
reactiv@@ 13
reason, 13
reciben 13
recognized 13
recoll@@ 13
records 13
recycl@@ 13
reducing 13
relative 13
religious 13
remains 13
rement 13
reo 13
revolution 13
rewar@@ 13
right? 13
rowing 13
rug@@ 13
rule 13
sacri@@ 13
saen 13
safety 13
sanguíneos 13
sanitario 13
satisfac@@ 13
scan 13
scared 13
schizophren@@ 13
searching 13
secuencia 13
sedes 13
seguía 13
sentido, 13
sermos 13
services 13
serían 13
shin@@ 13
shir@@ 13
shock 13
shoo@@ 13
short-@@ 13
sid@@ 13
sistem@@ 13
situations 13
society. 13
solid 13
solved 13
souben 13
soul 13
space. 13
spea@@ 13
specialized 13
spirit 13
spoken 13
squee@@ 13
standardiz@@ 13
stayed 13
stica 13
sticks 13
still, 13
stolen 13
stored 13
strength 13
strong@@ 13
strugg@@ 13
struggled 13
subsi@@ 13
subxec@@ 13
suggested 13
suit 13
sum 13
supervis@@ 13
surger@@ 13
survival 13
swal@@ 13
swimming 13
syn@@ 13
taban 13
tacul@@ 13
tama@@ 13
tarme 13
technical 13
tecnolóxi@@ 13
tentando 13
test." 13
that.""" 13
them? 13
themselves. 13
therapi@@ 13
thered 13
thos@@ 13
threat 13
tical, 13
tocar@@ 13
track@@ 13
transform@@ 13
transición 13
trataba 13
traxe@@ 13
tree 13
tribun@@ 13
típica 13
ultra@@ 13
ums 13
underst@@ 13
unh@@ 13
universidades 13
universitari@@ 13
unless 13
uno 13
vase 13
vege@@ 13
vehicle 13
vender 13
ventu@@ 13
veran 13
very@@ 13
vial 13
vibr@@ 13
views 13
virus, 13
vis 13
vist@@ 13
visuais 13
voices 13
vían 13
víti@@ 13
walls 13
war, 13
we, 13
wealth 13
wet@@ 13
whatso@@ 13
wide 13
wild 13
will, 13
winter 13
wireless 13
wise 13
women. 13
woun@@ 13
xenes, 13
xeron 13
xis@@ 13
xogar@@ 13
yet. 13
you? 13
zes 13
zou 13
«@@ 13
¿Como 13
¿Que 13
Í@@ 13
Ó 13
ábel 13
ál@@ 13
ándolle 13
árbore 13
ática 13
ébola 13
émo@@ 13
épo@@ 13
índice 13
índo 13
ñan 13
ólogo 13
ón: 13
""Como 12
""Do 12
""OK, 12
""Son 12
""Y@@ 12
""eu@@ 12
"Finalmente, 12
"Fun 12
"Mir@@ 12
"Nunca 12
"Pensamos 12
"Porque, 12
"Pre@@ 12
"Quizais 12
"Todas 12
"a 12
"porque 12
(Audi@@ 12
(aplausos) 12
--e 12
-based 12
.com@@ 12
120 12
2005, 12
24@@ 12
75@@ 12
Abu 12
African-@@ 12
Agora, 12
Alg@@ 12
Alzhe@@ 12
Ama@@ 12
Ang@@ 12
Arth@@ 12
Asper@@ 12
Bas@@ 12
Big 12
Bionic@@ 12
Bre@@ 12
Canadá, 12
Cantas 12
Cheers) 12
Colum@@ 12
D-@@ 12
D.@@ 12
DNA. 12
Damas@@ 12
Deixádeme 12
Dende 12
Durante 12
EE.@@ 12
East 12
Edi@@ 12
Esper@@ 12
Estu@@ 12
Exx@@ 12
FOX@@ 12
Fa@@ 12
Fe@@ 12
G, 12
Gh@@ 12
Good 12
Greek 12
Guine@@ 12
Holly@@ 12
Imaxinade 12
Imaxinen 12
Inu@@ 12
Iraq@@ 12
Israel@@ 12
Jack 12
Janu@@ 12
Jerr@@ 12
Lag@@ 12
Lou@@ 12
Lucifer 12
MI@@ 12
Mand@@ 12
McPher@@ 12
Mende@@ 12
Min@@ 12
Mus@@ 12
Muti@@ 12
NI@@ 12
NO@@ 12
Nigeria 12
Número 12
Obama 12
Okin@@ 12
P: 12
PT@@ 12
Perfec@@ 12
Ph@@ 12
Phil@@ 12
PostSecre@@ 12
President 12
Quería 12
Qué 12
Rem@@ 12
SID@@ 12
Saben 12
Sis@@ 12
Smi@@ 12
Smith 12
Starbu@@ 12
States." 12
Steph@@ 12
Supre@@ 12
Sy@@ 12
TR@@ 12
TRAPPIST-@@ 12
Ti 12
Tres 12
Tri@@ 12
V 12
Vemos 12
Washington 12
West@@ 12
Wikipedi@@ 12
Wo@@ 12
You@@ 12
a-- 12
abus@@ 12
acabo 12
acade@@ 12
acceler@@ 12
acciden@@ 12
aceite 12
acquired 12
adhes@@ 12
adio 12
advent@@ 12
advice 12
afectan 12
afor@@ 12
ago. 12
agricultural 12
air, 12
alguén, 12
alia 12
ality." 12
alive." 12
alone. 12
alzhé@@ 12
ambientes 12
ambul@@ 12
ampliar 12
amígdal@@ 12
amó@@ 12
an-@@ 12
anacos 12
ancés 12
anda, 12
anno@@ 12
annu@@ 12
answer." 12
anterior 12
appreciate 12
approach, 12
arian 12
arque@@ 12
arreci@@ 12
artist 12
artists 12
ased 12
asegurar 12
asegurarnos 12
asign@@ 12
ask, 12
associate 12
assumed 12
asum@@ 12
asumir 12
ativos 12
atoms 12
attemp@@ 12
attempt 12
atópase 12
au 12
audience, 12
autism." 12
azucre@@ 12
babi@@ 12
background 12
beautiful, 12
because, 12
before. 12
behavior@@ 12
behin@@ 12
beiz@@ 12
biblioteca 12
bill 12
blan@@ 12
bloque@@ 12
boat 12
bombar@@ 12
brazos 12
bren 12
brit@@ 12
broad 12
brown 12
burbul@@ 12
burn 12
busy 12
bú@@ 12
caixas 12
calor@@ 12
camis@@ 12
campamento 12
capas 12
careful 12
carte@@ 12
caída 12
cefaleas 12
cento, 12
century, 12
chamados 12
chaman 12
channel@@ 12
characteristics 12
charge 12
cheese 12
chemis@@ 12
childhoo@@ 12
chromos@@ 12
cháman@@ 12
cinta 12
cionais 12
circuits 12
circuítos 12
ciñ@@ 12
ciñas 12
cking 12
coche, 12
coleg@@ 12
comezos 12
comfortable 12
commit 12
como: 12
comodidade 12
complexas 12
comportamentos 12
compounds 12
compoñentes 12
común, 12
conceptos 12
concern 12
concerns 12
conclusión 12
condutas 12
confin@@ 12
conflitos 12
confron@@ 12
conmo@@ 12
consciencia, 12
consecuencia 12
consegui@@ 12
consel@@ 12
constantemente 12
constr@@ 12
conten@@ 12
contor@@ 12
contribute 12
converté@@ 12
convey 12
coral, 12
covery 12
coñecid@@ 12
coñezo 12
creba@@ 12
crecente 12
crisis, 12
crus@@ 12
cun@@ 12
curación 12
cía 12
círculo 12
cór@@ 12
deadly 12
debates 12
debuxos 12
decem@@ 12
defensores 12
degree 12
deime 12
deit@@ 12
delo 12
dementi@@ 12
dependent 12
dering 12
despraz@@ 12
detection 12
diagnosticar 12
dial 12
dicion@@ 12
dicirme 12
die, 12
die." 12
dificultades 12
dinos 12
dinámica 12
disappear@@ 12
disorder 12
disper@@ 12
dispostos 12
distr@@ 12
divide 12
diz@@ 12
dom 12
dom." 12
dous@@ 12
draw@@ 12
drawing 12
drug-@@ 12
dunhas 12
durmir@@ 12
earch 12
ease 12
economías 12
eficiencia 12
eing 12
electricity 12
ema@@ 12
emotionally 12
empezando 12
encefáli@@ 12
end. 12
ending 12
enough. 12
enteira 12
entender@@ 12
entren@@ 12
entrepren@@ 12
entrevist@@ 12
envel@@ 12
environments 12
episo@@ 12
era: 12
eral 12
esax@@ 12
escoitamos 12
escoitando 12
escon@@ 12
escán@@ 12
escép@@ 12
esen 12
esencia, 12
esencial 12
esfera 12
esgot@@ 12
esqu@@ 12
estable@@ 12
estar, 12
estimated 12
estrag@@ 12
estranxe@@ 12
ests 12
estímul@@ 12
everything, 12
exames 12
example. 12
example." 12
exhaus@@ 12
expectativas 12
expedi@@ 12
expen@@ 12
experiencia, 12
experimenter 12
explicación 12
expor@@ 12
extend 12
external 12
eye@@ 12
eyes." 12
face, 12
face. 12
factores 12
falarvos 12
falling 12
falou 12
falsos 12
families, 12
families." 12
fant@@ 12
fantastic 12
fed 12
ferrament@@ 12
ficial 12
fif@@ 12
filtr@@ 12
finishe@@ 12
fires 12
fixeches 12
fontes 12
for. 12
forma, 12
fourth 12
freedom 12
fres@@ 12
frío 12
fundamentais 12
funding 12
físicos 12
fóra, 12
fórmula 12
fósiles 12
fút@@ 12
ga, 12
gaga 12
gain 12
garda 12
gging 12
grama 12
grams 12
grandmother 12
graves 12
great, 12
guga 12
gul@@ 12
guy. 12
guys, 12
guén 12
hac@@ 12
half-@@ 12
hallucinations 12
hand." 12
hap@@ 12
happen." 12
happens, 12
happens." 12
happier 12
head." 12
heart@@ 12
hero 12
heter@@ 12
hi 12
hidro@@ 12
history." 12
hone 12
house." 12
hypo@@ 12
ibuprof@@ 12
ican@@ 12
ice." 12
identical 12
identific@@ 12
iding 12
ificar 12
igh 12
igni@@ 12
igo, 12
ik@@ 12
im 12
image, 12
implications 12
impulso 12
impulsos 12
incentive 12
includes 12
incluí@@ 12
increasingly 12
inde@@ 12
independ@@ 12
individuais 12
infection, 12
infections 12
infectious 12
inmediatamente 12
inno@@ 12
inos, 12
ins." 12
insigh@@ 12
insulina 12
intenta 12
interesting, 12
investigar 12
it; 12
it?""" 12
itting 12
jell@@ 12
jour@@ 12
journe@@ 12
joy 12
jun@@ 12
kids. 12
killing 12
kolo@@ 12
landscap@@ 12
laugh@@ 12
lawyers 12
leccións 12
led." 12
legi@@ 12
leopard 12
letras 12
lets 12
library 12
limitacións 12
link 12
listened 12
live, 12
longev@@ 12
lonxitude 12
loop@@ 12
loves 12
lung 12
lévanos 12
ló@@ 12
lóxi@@ 12
machinery 12
magaz@@ 12
magni@@ 12
maneira, 12
maquin@@ 12
marchar@@ 12
math 12
mathematical 12
mathematics 12
matically 12
measured 12
medicine, 12
medicine." 12
meet@@ 12
mero 12
mestre 12
mestura 12
metais 12
microARN 12
microsco@@ 12
mid-@@ 12
milk 12
minuto 12
miraba 12
miro 12
modif@@ 12
money. 12
monte 12
morning. 12
morte@@ 12
motivos 12
mozas 12
mozo 12
muscle 12
mutan@@ 12
mutu@@ 12
máximo 12
médico, 12
near@@ 12
necesitaba 12
negativo 12
nena, 12
nervioso 12
neurotransmis@@ 12
niso 12
nois@@ 12
noutro 12
ní@@ 12
obese 12
obsessed 12
obsole@@ 12
obstante, 12
occasion@@ 12
occurred 12
octors 12
océanos 12
oes 12
oeste 12
offici@@ 12
often, 12
ollar 12
olo@@ 12
ological 12
omen@@ 12
operación 12
opinion 12
opioides 12
opor@@ 12
opportun@@ 12
opposi@@ 12
orgullos@@ 12
orques@@ 12
osamente 12
otherwise 12
ouro 12
outer 12
ovari@@ 12
padecer 12
papers 12
paraly@@ 12
paraí@@ 12
pareza 12
park 12
partícul@@ 12
passing 12
paxaros 12
paz 12
ped, 12
penici@@ 12
pensament@@ 12
pensar, 12
perceive 12
perd@@ 12
perde 12
perde@@ 12
perdemos 12
perden 12
perdín 12
permanec@@ 12
person. 12
personalized 12
perspective, 12
pharmaceutical 12
pher@@ 12
pipe@@ 12
placed 12
planet." 12
planning 12
planta 12
play. 12
players 12
poder, 12
poderiades 12
pointed 12
poor@@ 12
potente 12
preguntando 12
preval@@ 12
prexuí@@ 12
princip@@ 12
principio, 12
prize 12
processes 12
producen 12
producing 12
profound 12
progeri@@ 12
promise 12
promote 12
pronunci@@ 12
properly 12
protección 12
protected 12
proud 12
provocar 12
proxecto, 12
próxim@@ 12
psychiatr@@ 12
puzzle 12
puzzles 12
queles 12
question. 12
question@@ 12
quickly, 12
quimio@@ 12
quizáis 12
quéro@@ 12
rais@@ 12
raising 12
rastrex@@ 12
rate, 12
rational 12
raí@@ 12
recei@@ 12
reco@@ 12
recoller 12
recover 12
recovered 12
recu@@ 12
recuperación 12
reducir@@ 12
refer 12
refin@@ 12
reflexion@@ 12
refres@@ 12
regar@@ 12
remark@@ 12
remin@@ 12
rense 12
renunci@@ 12
repercus@@ 12
repres@@ 12
represents 12
reproductive 12
resistente 12
responde 12
responsibil@@ 12
rethink 12
revista 12
rif@@ 12
rocke@@ 12
roles 12
rome@@ 12
root 12
routine 12
ráne@@ 12
sabedoría 12
sal 12
sample 12
sav@@ 12
saíndo 12
scientific@@ 12
scientist@@ 12
scrat@@ 12
scream@@ 12
sea, 12
seeking 12
segredos 12
segundo, 12
semellantes 12
sensible 12
sensory 12
serotonin 12
set, 12
setting 12
shore 12
signed 12
silence 12
simplemente, 12
situación, 12
small@@ 12
soldados 12
soldiers 12
solving 12
sospeit@@ 12
sound, 12
spaces 12
sper@@ 12
star 12
straigh@@ 12
structure, 12
substance 12
sucedeu 12
sudden, 12
suficientemente 12
sufrir 12
sugar@@ 12
sugges@@ 12
suicidi@@ 12
sul@@ 12
summer 12
supply 12
surgery. 12
sus 12
suxeitos 12
taría 12
tasks 12
taste 12
tation, 12
technology." 12
telescopes 12
telescopio 12
telos 12
tenta 12
terapias 12
terror 12
that?" 12
the-@@ 12
therapeu@@ 12
thers 12
these." 12
threaten@@ 12
tipo, 12
tividade 12
tly. 12
tole@@ 12
topic@@ 12
tración 12
trag@@ 12
traged@@ 12
trajec@@ 12
transcen@@ 12
transmisión 12
traumatic 12
trazo 12
trazos 12
trei 12
trials, 12
tricks 12
trigger 12
trip 12
triun@@ 12
tronco 12
trucos 12
trátase 12
tóxi@@ 12
um. 12
unfortunately, 12
unit 12
unlike 12
usei 12
usion 12
utter@@ 12
val 12
vaso 12
ve-@@ 12
vello 12
veredes 12
veterinarios 12
view, 12
vinte 12
violent 12
violent@@ 12
visitar 12
vista, 12
visto 12
vivía 12
vixi@@ 12
volven 12
vouvos 12
wanaw@@ 12
want." 12
ward@@ 12
ware 12
warm 12
was. 12
watch@@ 12
way@@ 12
websi@@ 12
week." 12
week@@ 12
wid@@ 12
wise, 12
wonder, 12
wondering 12
words." 12
worldwide 12
worse, 12
xene@@ 12
xig@@ 12
xol@@ 12
xornal 12
xuntas 12
ya@@ 12
yar@@ 12
year-old 12
younger 12
ático 12
émoslles 12
éronse 12
íbel@@ 12
ómi@@ 12
óni@@ 12
""". 11
""As 11
""But 11
""Is 11
""Look, 11
""No 11
""Re@@ 11
""Sab@@ 11
""There 11
""U@@ 11
""Yes, 11
""non 11
"(Música) 11
"Despois, 11
"Deste 11
"Dixo: 11
"Dous 11
"Eles 11
"Espero 11
"Estabamos 11
"Había 11
"Mesmo 11
"Mirade, 11
"Outro 11
"Tes 11
'9@@ 11
't 11
(Mus@@ 11
(P@@ 11
(Sorrisos) 11
(V@@ 11
150@@ 11
1950@@ 11
1970, 11
1970@@ 11
20,000 11
2000 11
2014, 11
21@@ 11
6,000 11
AD@@ 11
AT@@ 11
Africa@@ 11
Alexan@@ 11
Android 11
Asperger 11
Australia 11
Banco 11
Bonnet 11
Brown 11
CEO 11
CO2 11
Canada, 11
Canto 11
Char@@ 11
Chicago 11
Cl@@ 11
Craig 11
Decem@@ 11
Dickin@@ 11
ES@@ 11
Edis@@ 11
Ei@@ 11
England 11
Espero 11
Febru@@ 11
Fi@@ 11
Gates 11
German 11
Goliath 11
Homo 11
Institu@@ 11
Institute 11
John@@ 11
Kor@@ 11
Kuuk 11
Lagos 11
Love 11
M: 11
Mak@@ 11
Manhat@@ 11
Many@@ 11
McDonal@@ 11
Mer@@ 11
Mirade 11
Muslim@@ 11
Myri@@ 11
NO 11
Neno: 11
Nigerian 11
Nixeria 11
PIB 11
Party 11
Paul 11
Pep@@ 11
Project 11
Público: 11
Red@@ 11
Ren@@ 11
Revolución 11
Rob@@ 11
SAR@@ 11
Scot@@ 11
Seguro 11
Star 11
Sun@@ 11
Telescopio 11
Thaayor@@ 11
Tiven 11
Tor@@ 11
Twitter 11
U.S@@ 11
Valle@@ 11
Valley 11
Viet@@ 11
WALL-E 11
Xen@@ 11
Xesú@@ 11
Ye@@ 11
Yellow@@ 11
a,"" 11
abaix@@ 11
aban, 11
ability." 11
abstract 11
acababa 11
action, 11
actitude 11
acy. 11
adestrar 11
adolescencia 11
adolescente 11
advantage 11
afas@@ 11
afro@@ 11
agnos@@ 11
agoch@@ 11
agon@@ 11
aire, 11
alcance 11
alcanzar 11
almente@@ 11
alternative 11
aló@@ 11
am: 11
ama, 11
ambigu@@ 11
amiga 11
amiloides 11
amongst 11
ams 11
anatom@@ 11
ancé@@ 11
ands 11
anomal@@ 11
ansiedade, 11
answer, 11
anthropo@@ 11
antigo 11
antly 11
anu@@ 11
anxiet@@ 11
anxiety, 11
anymore. 11
anything, 11
anywhere 11
aparición 11
app 11
appears 11
arg@@ 11
aris@@ 11
arma 11
aron, 11
arranxar 11
arrest@@ 11
artistic 11
arts 11
asociados 11
assaul@@ 11
associ@@ 11
assu@@ 11
at's 11
atoparon 11
ator, 11
atrás, 11
attack 11
autismo, 11
automatically 11
autóno@@ 11
avaliación 11
avance 11
avanzar 11
average, 11
aving 11
away. 11
axencias 11
axentes 11
axú@@ 11
azul@@ 11
aínda, 11
baby, 11
back. 11
bades 11
bag 11
baixos 11
baleiro 11
batalla 11
beginning, 11
behavioral 11
behaviors 11
being." 11
bens 11
bert 11
bes, 11
beta 11
better@@ 11
bigg@@ 11
bimos 11
bind 11
biop@@ 11
blog@@ 11
blow 11
bor 11
bow@@ 11
brief 11
brief@@ 11
bro, 11
butt@@ 11
cable 11
calquer@@ 11
camp 11
capítulo 11
cara, 11
carrí@@ 11
casar 11
cents 11
cerimon@@ 11
certeza 11
chamámoslle 11
charla, 11
chem@@ 11
chemicals 11
chicken 11
child's 11
chocola@@ 11
choice, 11
ciber@@ 11
cirúr@@ 11
clara 11
classroom, 11
cle, 11
clientes 11
climático, 11
clinics 11
cloth@@ 11
coidando 11
color, 11
comba@@ 11
combustible 11
comentario 11
community. 11
companies, 11
comparis@@ 11
comparten 11
compla@@ 11
complement@@ 11
comprob@@ 11
computer." 11
conectados 11
conference 11
confiar 11
confident 11
connections 11
consellos 11
conser@@ 11
consi@@ 11
construir 11
conta, 11
contains 11
contaminación 11
continued 11
continú@@ 11
contradic@@ 11
contras@@ 11
controla 11
controlling 11
converte 11
convid@@ 11
convince 11
cord 11
cores, 11
corp@@ 11
countries. 11
country's 11
cousa: 11
coñ@@ 11
coñe@@ 11
coñecementos 11
cran@@ 11
crecer 11
cromos@@ 11
crían 11
cróni@@ 11
ctur@@ 11
cular 11
curricul@@ 11
cus 11
cutting 11
cycle 11
cámar@@ 11
cén@@ 11
céntr@@ 11
dades, 11
database 11
dean 11
deas 11
debe@@ 11
debuxar 11
decades, 11
decep@@ 11
decidiu 11
decision-ma@@ 11
decrease 11
defecto 11
deixou 11
del, 11
demostrou 11
dependendo 11
depos@@ 11
depressed 11
dere@@ 11
desencade@@ 11
desenvolvemos 11
deserve 11
detr@@ 11
devance@@ 11
devas@@ 11
device, 11
devices, 11
dez, 11
difíciles 11
dignidade 11
dilu@@ 11
dimin@@ 11
diminúe 11
ding." 11
dinner 11
direction 11
disparos 11
dispositiv@@ 11
disposto 11
divor@@ 11
dixemos: 11
does, 11
domestic 11
dominant 11
dominio 11
dores, 11
drawn 11
driver's 11
drove 11
duca@@ 11
dálle 11
débe@@ 11
efectivo 11
egu@@ 11
elaquí 11
ement. 11
emergen@@ 11
emisións 11
emotion@@ 11
empower@@ 11
empre 11
emprega 11
empregamos 11
empregan 11
ena 11
encher 11
ency 11
energy." 11
enfad@@ 11
enfermar@@ 11
enfermidade, 11
engur@@ 11
enl@@ 11
entered 11
entering 11
entertain@@ 11
entrou 11
epinefr@@ 11
equipos 11
equivalent 11
ero, 11
erán 11
escoitan 11
escribi@@ 11
esfer@@ 11
esh 11
especificamente 11
específico 11
esquecer 11
esquele@@ 11
esquerda, 11
esta: 11
estando 11
estándar 11
esva@@ 11
etique@@ 11
evidence. 11
evidente 11
evil@@ 11
exchange 11
exer@@ 11
exercises 11
expression 11
extraverti@@ 11
extreme 11
facil@@ 11
facilmente 11
fail 11
faino 11
familiares 11
farmers 11
fast, 11
faul@@ 11
feminist 11
fertiliz@@ 11
filling 11
filosó@@ 11
finds 11
first. 11
fisca@@ 11
fisicamente 11
five, 11
fixeran 11
fixese 11
flexible 11
formar@@ 11
foto, 11
frau@@ 11
froz@@ 11
frí@@ 11
fósemos 11
fósil@@ 11
gada 11
galax@@ 11
garb@@ 11
gargalladas) 11
gation 11
geni@@ 11
gh 11
girl, 11
glucose 11
graphy 11
gratu@@ 11
greenhouse 11
ground. 11
gue, 11
guerra, 11
gustaba 11
gúst@@ 11
gústame 11
habit 11
handsha@@ 11
happens. 11
heal@@ 11
hemis@@ 11
hes 11
hipo@@ 11
hippocampus 11
hist@@ 11
historical 11
history. 11
histó@@ 11
holi@@ 11
homo@@ 11
hoo@@ 11
hormonal 11
hospitals 11
hot@@ 11
hotel@@ 11
hould 11
humanit@@ 11
hunger 11
hy 11
hábitos 11
idas, 11
idi@@ 11
ility 11
illas 11
illusi@@ 11
illusion 11
ilusión 11
imagine, 11
imaxina 11
importantes, 11
improvis@@ 11
inal 11
incrí@@ 11
independen@@ 11
independent 11
independente 11
independentemente 11
individuals, 11
induced 11
inevitable 11
infant 11
infect 11
informe 11
inim@@ 11
initial 11
insight 11
instituto 11
intac@@ 11
intelligent 11
interacting 11
interactuar 11
interpret@@ 11
intri@@ 11
intro@@ 11
introduced 11
inventar 11
inventou 11
involve 11
irrever@@ 11
ish, 11
it: 11
ites, 11
itself." 11
iven 11
iño 11
jaz@@ 11
job. 11
judge 11
ken@@ 11
ket 11
ket@@ 11
ky@@ 11
landia 11
lean@@ 11
lembro 11
letr@@ 11
levando 11
likes 11
literalmente, 11
literature 11
load 11
located 11
lonx@@ 11
look, 11
lot." 11
lume 11
lumin@@ 11
límite 11
líqu@@ 11
machine." 11
malia 11
man's 11
managed 11
mante@@ 11
manual 11
marco 11
maxia 11
me-@@ 11
measuring 11
medra 11
medrar 11
meirande 11
mentes, 11
metaboliz@@ 11
metric 11
midd@@ 11
mining 11
ministro 11
minute, 11
misterio 11
mixed 11
mm, 11
mode@@ 11
modern@@ 11
moitísimo 11
moléculas, 11
mom@@ 11
monstr@@ 11
more. 11
more@@ 11
moreas 11
morre@@ 11
mortos 11
mosquitos 11
mostran 11
movements 11
moves 11
music. 11
muta@@ 11
máxim@@ 11
móbil 11
nah 11
native 11
nature, 11
necesitan 11
nela 11
neurona 11
neuronas, 11
night." 11
ning." 11
noci@@ 11
normas 11
north 11
nothing." 11
nuclear@@ 11
numbers." 11
o"", 11
obviously, 11
occa@@ 11
occid@@ 11
occu@@ 11
occurr@@ 11
ocorrer 11
officer 11
oh 11
olds 11
ollada 11
one? 11
ong 11
opat@@ 11
oplan@@ 11
opti@@ 11
orb@@ 11
organization 11
orgul@@ 11
orixinais 11
orr@@ 11
oría 11
os) 11
ouco 11
ouldn't 11
ouring 11
oute@@ 11
outras, 11
ouvido 11
ovos 11
own, 11
oxytocin 11
oír 11
padróns 11
page 11
pain." 11
paint 11
painting 11
pais, 11
paises 11
pali@@ 11
pantasma 11
paque@@ 11
park, 11
paro@@ 11
participants 11
particle 11
particles 11
pará@@ 11
pasaron 11
pase 11
patient's 11
pedras 11
pelo 11
perante 11
percei@@ 11
percentage 11
perderon 11
periódi@@ 11
permission 11
permíten@@ 11
perpe@@ 11
phages 11
phants 11
pital 11
pitch 11
planet, 11
plantas 11
plaques 11
platform 11
plausi@@ 11
please 11
pobres, 11
pois, 11
ponse 11
porta, 11
porén, 11
positions 11
pouca 11
poñelo 11
poñía 11
practical 11
prazo, 11
prefir@@ 11
preguntas, 11
prensa 11
presented 11
presion@@ 11
preten@@ 11
prices 11
principles 11
prisoners 11
privac@@ 11
procedure 11
process. 11
produces 11
profesora 11
profoundly 11
programar 11
prohi@@ 11
prolong@@ 11
protecting 11
protein, 11
pré@@ 11
psicólog@@ 11
psychology 11
pílula 11
quer 11
quir@@ 11
quis@@ 11
químico 11
ranse 11
rastre@@ 11
rati@@ 11
reais, 11
recente 11
recentemente 11
recipro@@ 11
recordar 11
recy@@ 11
redución 11
reflicte 11
relax@@ 11
repeat 11
repente, 11
rescu@@ 11
resistentes 11
resolu@@ 11
responds 11
responsabili@@ 11
retir@@ 11
retos 11
ride 11
rique@@ 11
rock@@ 11
rolled 11
rome 11
rompe@@ 11
rooms 11
rot@@ 11
roughly 11
saba 11
saib@@ 11
saiban 11
sali@@ 11
sand@@ 11
savings 11
science. 11
scientist, 11
se: 11
seat 11
sed. 11
seguinte, 11
semin@@ 11
sempre, 11
sense." 11
serio, 11
serotonina 11
servic@@ 11
service 11
servizo 11
sess 11
sexamos 11
sexting 11
share@@ 11
sides 11
sigh@@ 11
simultane@@ 11
socializ@@ 11
solucion@@ 11
somewhat 11
southern 11
species." 11
spectr@@ 11
spinal 11
spiritual 11
square 11
st, 11
staying 11
sters 11
stin@@ 11
stori@@ 11
strang@@ 11
stressful 11
stronger 11
strongly 11
struggle 11
sudden@@ 11
suffer 11
suffici@@ 11
suppose 11
surgeri@@ 11
surrounding 11
sustainable 11
suxeito 11
syndro@@ 11
séxting 11
símbol@@ 11
ta: 11
talento 11
talking, 11
talo 11
tanos 11
tará 11
tay 11
technologi@@ 11
teenag@@ 11
telescopios 11
ters. 11
teñas 11
theat@@ 11
themselves." 11
theor@@ 11
thir@@ 11
thought. 11
tidos 11
til, 11
tiles 11
tionary 11
tioned 11
titudes 11
tiver@@ 11
tize 11
tly." 11
tones) 11
tons) 11
topic 11
tory 11
traballos 11
traine@@ 11
traits 11
transformed 11
trav@@ 11
treatment." 11
tric 11
tune 11
tures, 11
ty-@@ 11
táronse 11
tóxicos 11
u: 11
ultim@@ 11
unca 11
und@@ 11
underlying 11
underne@@ 11
unequal 11
uras 11
urb@@ 11
uro@@ 11
usaron 11
usarse 11
ustrat@@ 11
uts 11
vehículo 11
velos 11
verme 11
versións 11
vessels, 11
veño 11
victi@@ 11
victims 11
vira 11
vise 11
visións 11
vistes 11
volvemos 11
volvendo 11
vote 11
vé@@ 11
wall 11
was." 11
weak 11
weekend 11
what?" 11
why, 11
wired 11
woke 11
wol@@ 11
woman." 11
wondered 11
worms 11
wound 11
xar 11
xeneraliz@@ 11
xentes 11
xeo, 11
xest@@ 11
xestión 11
xetin@@ 11
xiro 11
xisten 11
yal 11
yfish 11
Á 11
Ía 11
Ó@@ 11
áci@@ 11
ámbito 11
ánica 11
ánimo 11
árabe 11
é... 11
éceme 11
émolos 11
éxito, 11
íanos 11
ída 11
ím@@ 11
ímonos 11
ñezo 11
óp@@ 11
""Wow, 10
"Segun@@ 10
(R@@ 10
2013, 10
@@@ 10
AL@@ 10
Ander@@ 10
BB@@ 10
Bri@@ 10
CRISP@@ 10
Cancer 10
DB@@ 10
EC@@ 10
EE.UU., 10
Eng@@ 10
Gus@@ 10
Inglater@@ 10
Ira@@ 10
Kan@@ 10
Londres@@ 10
Mou@@ 10
Sol@@ 10
Washing@@ 10
abaixo, 10
abil@@ 10
achi@@ 10
alli@@ 10
amoun@@ 10
ansie@@ 10
anxi@@ 10
aroun@@ 10
ational 10
batall@@ 10
beau@@ 10
behavi@@ 10
betwe@@ 10
bibliote@@ 10
bic@@ 10
brilli@@ 10
cancr@@ 10
catr@@ 10
cause, 10
chemic@@ 10
chimpanze@@ 10
ciden@@ 10
cin 10
circunst@@ 10
circuí@@ 10
cións@@ 10
colo@@ 10
commun@@ 10
cor, 10
cording 10
countr@@ 10
cál@@ 10
dation 10
decre@@ 10
demos@@ 10
desigual@@ 10
dio@@ 10
domésti@@ 10
edade 10
edades 10
en's 10
enter@@ 10
ently, 10
epine@@ 10
estrel@@ 10
eve 10
ey, 10
fabric@@ 10
fica, 10
finx@@ 10
focu@@ 10
futu@@ 10
fáci@@ 10
glu@@ 10
goo@@ 10
got@@ 10
has@@ 10
inguén 10
involu@@ 10
keys 10
lag@@ 10
litt@@ 10
liz@@ 10
lími@@ 10
mariju@@ 10
mark@@ 10
medicación, 10
mosqu@@ 10
ningunha@@ 10
norm@@ 10
oi 10
oit@@ 10
onal@@ 10
oursel@@ 10
paxar@@ 10
pedr@@ 10
pp@@ 10
preguntar, 10
provid@@ 10
páxin@@ 10
q 10
quie@@ 10
quiet 10
quiet@@ 10
quizais, 10
rag@@ 10
rapid 10
reaching 10
read, 10
receiving 10
recolli@@ 10
recomen@@ 10
recompensa 10
reconci@@ 10
record, 10
recorded 10
recorr@@ 10
recuperarse 10
red." 10
redor, 10
referr@@ 10
referred 10
refí@@ 10
regre@@ 10
rejection 10
reliable 10
remaining 10
rematou 10
remor@@ 10
representation 10
repu@@ 10
resca@@ 10
reservas 10
resolution 10
resources, 10
responde@@ 10
resurrec@@ 10
retirement 10
retroalimentación 10
returned 10
reversi@@ 10
revolucion@@ 10
rib@@ 10
riend@@ 10
rir 10
risk, 10
rosof@@ 10
ró@@ 10
rófon@@ 10
safe." 10
same, 10
same." 10
sans, 10
saúde@@ 10
schol@@ 10
sección 10
seem@@ 10
seguido 10
selles 10
selo 10
sely 10
semán@@ 10
sensation 10
sense. 10
sentados 10
separar 10
seren 10
seriously 10
seroton@@ 10
servir@@ 10
sham@@ 10
shame 10
shape, 10
sheet 10
shock@@ 10
shop 10
sider 10
signals, 10
sigo 10
sinx@@ 10
size, 10
sións, 10
ske@@ 10
skul@@ 10
sleeping 10
smarter 10
sme@@ 10
smile 10
soar 10
sofistica@@ 10
solucionar 10
someone's 10
sometimes, 10
sophisticated 10
sopr@@ 10
sosti@@ 10
sources 10
speaks 10
specul@@ 10
spen@@ 10
spon@@ 10
spontane@@ 10
stage, 10
stand@@ 10
stock 10
ston 10
stores 10
story@@ 10
straight 10
stranger@@ 10
strateg@@ 10
stressed 10
strof@@ 10
studi@@ 10
studies, 10
study, 10
subxac@@ 10
suit@@ 10
sux@@ 10
suxiren 10
sw@@ 10
synchron@@ 10
systems. 10
sá@@ 10
sí 10
sí, 10
t,"" 10
tación, 10
tackle 10
tag@@ 10
tamaño, 10
tane@@ 10
tarda 10
targe@@ 10
targets 10
tarxeta 10
teams 10
tech@@ 10
technological 10
teenagers 10
teens 10
telescope 10
temporary 10
terapi@@ 10
terapia, 10
tering 10
terzos 10
teses 10
there? 10
therefore, 10
thetic 10
thing's 10
thirds 10
times@@ 10
tion.""" 10
tion; 10
tipping 10
tista 10
tiveran 10
tives 10
tni@@ 10
top, 10
tores, 10
tories 10
touche@@ 10
toward 10
toxin@@ 10
traballaba 10
trace 10
trad@@ 10
training, 10
tramos 10
tramp@@ 10
transfor@@ 10
transmit 10
transmitir@@ 10
transmitted 10
tratei 10
travel@@ 10
tren 10
trici@@ 10
trick@@ 10
trover@@ 10
truck 10
truco 10
ts@@ 10
tum@@ 10
ture, 10
turing 10
tén 10
téñ@@ 10
tín 10
título 10
uli@@ 10
ullo 10
unable 10
understand, 10
unexpected 10
universe, 10
universe." 10
urge 10
uring 10
uses, 10
va, 10
vaian 10
valbar@@ 10
vanta@@ 10
variation 10
vemente 10
venda 10
venti@@ 10
ventila@@ 10
vera 10
vere@@ 10
vermes 10
vibra@@ 10
video, 10
vidos 10
view." 10
ving, 10
virul@@ 10
vistas 10
visualiz@@ 10
vixilancia 10
viño 10
vocabulario 10
volta, 10
vólvense 10
warming 10
west 10
what, 10
who, 10
women's 10
won 10
worked." 10
worlds 10
worri@@ 10
xardín 10
xenético 10
xeración, 10
xerar@@ 10
xigante 10
xindo 10
xogue@@ 10
xoguete 10
xome 10
xome: 10
xoo 10
xurdiu 10
xén@@ 10
y,"" 10
ying." 10
»@@ 10
¿Por 10
¿que 10
ábal@@ 10
áfri@@ 10
ámolas 10
áne@@ 10
ángulo 10
árbores 10
árono 10
ástico 10
émos@@ 10
éra@@ 10
íanse 10
íci@@ 10
índo@@ 10
índose 10
ístico 10
órb@@ 10
órgano 10
úas 10
ü@@ 10
”, 10
"So@@ 9
&amp;quot;@@ 9
&amp@@ 9
(Aplaus@@ 9
Alzheimer@@ 9
Hig@@ 9
Inglat@@ 9
MR@@ 9
Poem 9
Rober@@ 9
Segur@@ 9
Shakespe@@ 9
York@@ 9
acontece@@ 9
adamente, 9
ath, 9
aín@@ 9
band 9
beg@@ 9
bil 9
biu 9
blis@@ 9
bonit@@ 9
book@@ 9
cola@@ 9
conex@@ 9
contamin@@ 9
credi@@ 9
daf-@@ 9
decidi@@ 9
demon@@ 9
diabet@@ 9
diron 9
diu 9
dixo@@ 9
doc@@ 9
dren 9
driver@@ 9
díxo@@ 9
eléc@@ 9
emplo@@ 9
energ@@ 9
enorm@@ 9
esmo 9
estru@@ 9
expectan@@ 9
ferr@@ 9
figu@@ 9
gaz@@ 9
ices 9
ilidades 9
intellig@@ 9
irmán@@ 9
itch@@ 9
ito@@ 9
ked." 9
ken 9
lifesty@@ 9
lév@@ 9
mail 9
mani@@ 9
meaning@@ 9
mem@@ 9
molecu@@ 9
moun@@ 9
ningu@@ 9
ong@@ 9
opio@@ 9
ounds 9
phan@@ 9
ples 9
pob@@ 9
posibili@@ 9
q@@ 9
quere@@ 9
rapi@@ 9
relox@@ 9
resear@@ 9
responder@@ 9
ror 9
sands 9
screen@@ 9
servi@@ 9
sica) 9
sligh@@ 9
specific@@ 9
sufri@@ 9
sustain@@ 9
tall@@ 9
teza 9
tol@@ 9
ulta 9
umin@@ 9
veh@@ 9
vel 9
veterin@@ 9
year-@@ 9
ámase 9
ásti@@ 9
íni@@ 9
ño, 9
óns@@ 9
órgan@@ 9
ú 9
único, 9
ús@@ 9
’@@ 9
(Ap@@ 8
Brit@@ 8
Brun@@ 8
Ge@@ 8
Gustar@@ 8
HI@@ 8
IS@@ 8
Jam@@ 8
Jas@@ 8
Juli@@ 8
Lin@@ 8
Projec@@ 8
Span@@ 8
Twit@@ 8
VI@@ 8
], 8
acel@@ 8
ae 8
ah, 8
amylo@@ 8
ander@@ 8
aparell@@ 8
aprendiz@@ 8
aproxim@@ 8
arqui@@ 8
asin@@ 8
azu@@ 8
befor@@ 8
biblio@@ 8
bottom@@ 8
bout 8
careful@@ 8
cefal@@ 8
cerem@@ 8
cess 8
cina 8
ció@@ 8
coffe@@ 8
cole@@ 8
converte@@ 8
cóm@@ 8
dados 8
demento 8
desa@@ 8
div@@ 8
drew 8
establec@@ 8
estión 8
famil@@ 8
gluco@@ 8
hip@@ 8
hood 8
ideo) 8
immun@@ 8
jur@@ 8
kinson@@ 8
lands@@ 8
ld 8
leiros 8
lum@@ 8
metáfor@@ 8
mir 8
nós@@ 8
pad@@ 8
peit@@ 8
peop@@ 8
phy@@ 8
pos 8
quim@@ 8
quina 8
rer 8
res, 8
reu 8
roun@@ 8
rrrr@@ 8
sequ@@ 8
site 8
soldi@@ 8
sole@@ 8
stitu@@ 8
sécul@@ 8
séx@@ 8
síntom@@ 8
tarxe@@ 8
tén@@ 8
udi@@ 8
vense 8
vil 8
viron@@ 8
zero 8
º 8
árbor@@ 8
áto@@ 8
ã@@ 8
ç@@ 8
… 8
&amp;quo@@ 7
(Lau@@ 7
(M@@ 7
(Sorris@@ 7
+@@ 7
00 7
Andro@@ 7
Cali@@ 7
Centr@@ 7
Graz@@ 7
Presid@@ 7
UU., 7
Yeah@@ 7
Zik@@ 7
^@@ 7
acadé@@ 7
acon@@ 7
acos 7
activi@@ 7
adas) 7
adoit@@ 7
aim 7
algu@@ 7
ann@@ 7
armente 7
atom@@ 7
beha@@ 7
canti@@ 7
cardio@@ 7
cate@@ 7
centra@@ 7
chron@@ 7
clín@@ 7
combusti@@ 7
comm@@ 7
commer@@ 7
convin@@ 7
depend@@ 7
desaf@@ 7
desgra@@ 7
did@@ 7
doll@@ 7
econó@@ 7
ek 7
ell, 7
ende 7
entres 7
enxe@@ 7
equili@@ 7
es) 7
espir@@ 7
estí@@ 7
examp@@ 7
f-@@ 7
ficamente 7
ford 7
ford@@ 7
frica 7
gely 7
great-great-@@ 7
great@@ 7
incredi@@ 7
inging 7
ird 7
led@@ 7
liqu@@ 7
ll, 7
lle: 7
mecan@@ 7
meth@@ 7
metá@@ 7
miú@@ 7
natu@@ 7
neuroxén@@ 7
ning. 7
notic@@ 7
ofr@@ 7
ost@@ 7
ouvos 7
paral@@ 7
ply 7
polici@@ 7
pou 7
psiqui@@ 7
pán@@ 7
quec@@ 7
quiz@@ 7
refri@@ 7
rexi@@ 7
rr@@ 7
scr@@ 7
societ@@ 7
son: 7
tau@@ 7
teci@@ 7
telesco@@ 7
tice 7
tima@@ 7
tron@@ 7
uly 7
wall@@ 7
wer 7
won@@ 7
wro@@ 7
xima@@ 7
ádeme 7
áre@@ 7
ñeiro 7
&@@ 6
..., 6
AP@@ 6
CR@@ 6
Loo@@ 6
Look, 6
PI@@ 6
Tu@@ 6
UU 6
Willi@@ 6
abstr@@ 6
abía 6
anding 6
aplausos) 6
bito 6
circun@@ 6
civi@@ 6
clini@@ 6
conve@@ 6
copy@@ 6
crastin@@ 6
deba@@ 6
diabe@@ 6
enough@@ 6
ensa@@ 6
estad@@ 6
estern 6
eti@@ 6
extr@@ 6
graphi@@ 6
hat@@ 6
ilit@@ 6
inmedi@@ 6
inspi@@ 6
ishe@@ 6
larg@@ 6
mata 6
mecanis@@ 6
mite 6
neuros@@ 6
nive@@ 6
ola 6
om 6
phe@@ 6
plá@@ 6
poin@@ 6
porcent@@ 6
psychi@@ 6
reproduc@@ 6
rol@@ 6
rátase 6
scien@@ 6
secund@@ 6
spiritu@@ 6
stic 6
suf@@ 6
sufici@@ 6
swim@@ 6
t;@@ 6
tamento 6
terce@@ 6
thous@@ 6
together@@ 6
togra@@ 6
tubercul@@ 6
tón 6
unci@@ 6
usti@@ 6
ustrali@@ 6
whate@@ 6
xia 6
xil@@ 6
yel@@ 6
áis 6
ína 6
últi@@ 6
–@@ 6
""", 5
ARN 5
Afri@@ 5
Dic@@ 5
Fren@@ 5
Joh@@ 5
L 5
Montan@@ 5
Mun@@ 5
Post@@ 5
Secre@@ 5
Star@@ 5
T-@@ 5
Z 5
[ 5
aba@@ 5
accom@@ 5
acros@@ 5
adoles@@ 5
amer@@ 5
analys@@ 5
anom@@ 5
anthro@@ 5
appreci@@ 5
archi@@ 5
assa@@ 5
aul 5
auton@@ 5
autó@@ 5
capí@@ 5
catas@@ 5
cere@@ 5
certain@@ 5
childr@@ 5
circum@@ 5
consis@@ 5
craci@@ 5
criatur@@ 5
cron@@ 5
cuali@@ 5
dalas 5
decen@@ 5
dedes 5
em 5
experim@@ 5
expl@@ 5
fab@@ 5
fotogra@@ 5
geles 5
ghter 5
great-@@ 5
histor@@ 5
iki@@ 5
implemente 5
ingü@@ 5
iran@@ 5
ital 5
masi@@ 5
meiran@@ 5
má 5
nal@@ 5
ning, 5
orix@@ 5
ow 5
oxito@@ 5
oxyto@@ 5
perío@@ 5
peu@@ 5
ph 5
phil@@ 5
podi@@ 5
psy@@ 5
rog@@ 5
rough@@ 5
rying 5
ráp@@ 5
sade 5
secur@@ 5
sive, 5
tally 5
teime 5
telescopi@@ 5
tious 5
tom 5
topi@@ 5
traves@@ 5
typic@@ 5
usias@@ 5
volt@@ 5
xam@@ 5
xel@@ 5
Ú@@ 5
éu@@ 5
írculo 5
"Prime@@ 4
(Applause@@ 4
+ 4
,"@@ 4
=@@ 4
?, 4
Chris@@ 4
Donal@@ 4
Francis@@ 4
Ing@@ 4
Kev@@ 4
Lau@@ 4
Luci@@ 4
Na@@ 4
Nen@@ 4
TRAPPIS@@ 4
WALL-@@ 4
abill@@ 4
afra@@ 4
alimentación 4
amy@@ 4
apari@@ 4
asom@@ 4
beyon@@ 4
blio@@ 4
bola 4
characteris@@ 4
comodi@@ 4
compre@@ 4
conv@@ 4
cumul@@ 4
defens@@ 4
descubri@@ 4
diab@@ 4
difíci@@ 4
dispoñ@@ 4
dolos 4
domé@@ 4
drome 4
dru@@ 4
ealth 4
eas 4
ementos 4
erci@@ 4
estes@@ 4
eñen 4
fabr@@ 4
fenómen@@ 4
fixe@@ 4
fú@@ 4
ganiz@@ 4
genes@@ 4
grap@@ 4
grup@@ 4
horiz@@ 4
hundre@@ 4
ic) 4
imer 4
imer, 4
iramente 4
item@@ 4
ither 4
lito 4
maj@@ 4
moitísim@@ 4
neigh@@ 4
nerv@@ 4
num@@ 4
opin@@ 4
opportuni@@ 4
phar@@ 4
poll@@ 4
pret@@ 4
puide@@ 4
quí 4
sito 4
stron@@ 4
suficien@@ 4
sugg@@ 4
suggest@@ 4
suxi@@ 4
symp@@ 4
súpe@@ 4
they@@ 4
tistic 4
tivi@@ 4
transmis@@ 4
trastor@@ 4
veuse 4
what@@ 4
when@@ 4
women@@ 4
yri@@ 4
zhe@@ 4
ális@@ 4
índa 4
ío@@ 4
ísticas 4
úbli@@ 4
"Alg@@ 3
"Por@@ 3
(Risas@@ 3
.""@@ 3
0 3
Afgh@@ 3
Alex@@ 3
DNA@@ 3
Geor@@ 3
Hawa@@ 3
J 3
Klei@@ 3
Micha@@ 3
NCR@@ 3
Parti@@ 3
Peop@@ 3
Públi@@ 3
apaix@@ 3
aplaus@@ 3
apro@@ 3
aprove@@ 3
aquela, 3
az 3
colate 3
combus@@ 3
compa@@ 3
crim@@ 3
cubri@@ 3
decision-@@ 3
dentr@@ 3
dless 3
e're 3
estion@@ 3
ety 3
farmac@@ 3
ffe@@ 3
fossi@@ 3
garanti@@ 3
gent@@ 3
gir@@ 3
green@@ 3
haven@@ 3
hes@@ 3
hó@@ 3
imon@@ 3
invi@@ 3
matr@@ 3
mely 3
membr@@ 3
mere@@ 3
múlti@@ 3
nd 3
olling 3
omo 3
oppos@@ 3
orit@@ 3
ospec@@ 3
oul@@ 3
ow, 3
partic@@ 3
penas 3
pharmaceu@@ 3
phen@@ 3
profoun@@ 3
random@@ 3
reach@@ 3
ric 3
rito 3
sofis@@ 3
sofre@@ 3
sophistica@@ 3
stico 3
stress@@ 3
suc@@ 3
sui@@ 3
surroun@@ 3
tack@@ 3
thou@@ 3
tiliz@@ 3
timately 3
tribu@@ 3
tui@@ 3
técn@@ 3
tón, 3
vascul@@ 3
vessel@@ 3
vitam@@ 3
vixil@@ 3
wer@@ 3
wire@@ 3
xec@@ 3
º@@ 3
ángul@@ 3
índi@@ 3
óx@@ 3
úmero 3
úr@@ 3
– 3
!, 2
# 2
're 2
(Mú@@ 2
:, 2
= 2
AL 2
Af@@ 2
Brown@@ 2
Contr@@ 2
FO@@ 2
I'@@ 2
ID@@ 2
ISP@@ 2
Sco@@ 2
Stat@@ 2
Wash@@ 2
Xes@@ 2
Zim@@ 2
a?, 2
abur@@ 2
alzhéimer@@ 2
amas@@ 2
artin 2
atures 2
aug@@ 2
cele@@ 2
cientes 2
clusi@@ 2
crit@@ 2
dam 2
dem@@ 2
descu@@ 2
disposi@@ 2
dixen@@ 2
dn't 2
doz@@ 2
eful@@ 2
enf@@ 2
enni@@ 2
ers) 2
es?, 2
euro@@ 2
exem@@ 2
eño 2
fenó@@ 2
fore, 2
fotograf@@ 2
fric@@ 2
fósi@@ 2
genous 2
gni@@ 2
gora, 2
guerr@@ 2
hili@@ 2
hyth@@ 2
háb@@ 2
imer@@ 2
keep@@ 2
leo@@ 2
longe@@ 2
lor@@ 2
mole@@ 2
mula 2
obst@@ 2
of-@@ 2
oles@@ 2
olo 2
orris@@ 2
oster@@ 2
ouniden@@ 2
oxe, 2
participan@@ 2
pharmac@@ 2
pio 2
plaus@@ 2
próx@@ 2
psic@@ 2
redi@@ 2
remem@@ 2
reper@@ 2
resur@@ 2
ried 2
sabed@@ 2
sans@@ 2
sch@@ 2
sero@@ 2
suscep@@ 2
tamin@@ 2
telé@@ 2
tement 2
tish 2
tuber@@ 2
tuni@@ 2
udience: 2
uding 2
vidu@@ 2
volun@@ 2
vól@@ 2
worl@@ 2
wron@@ 2
xecto 2
zh@@ 2
© 2
ª 2
²@@ 2
à 2
è@@ 2
ódi@@ 2
ô@@ 2
úns 2
ā 2
ā@@ 2
ī@@ 2
ū@@ 2
", 1
(Laughter@@ 1
Afghan@@ 1
Ameri@@ 1
Bion@@ 1
Dec@@ 1
Gius@@ 1
Medit@@ 1
O: 1
Sm@@ 1
Tha@@ 1
WALL@@ 1
among@@ 1
amí@@ 1
ange 1
antas 1
anze@@ 1
asy@@ 1
avid 1
bores 1
concl@@ 1
deno@@ 1
diagnó@@ 1
dinos@@ 1
domes@@ 1
ech 1
ecre@@ 1
ellow@@ 1
emos: 1
entan@@ 1
escé@@ 1
espí@@ 1
estand@@ 1
filos@@ 1
forni@@ 1
frigh@@ 1
habilit@@ 1
hak@@ 1
hakespe@@ 1
haus@@ 1
idado 1
ior 1
langu@@ 1
lul@@ 1
lvia 1
líder@@ 1
mob@@ 1
nú@@ 1
oliz@@ 1
orith@@ 1
orque 1
os), 1
osop@@ 1
pancrea@@ 1
photogra@@ 1
pica 1
pical 1
plau@@ 1
plause@@ 1
procedur@@ 1
prou@@ 1
quired 1
recisamos 1
relation@@ 1
ridi@@ 1
rout@@ 1
seguin@@ 1
so-@@ 1
sud@@ 1
sulin 1
sím@@ 1
tecno@@ 1
thema@@ 1
themsel@@ 1
tróle@@ 1
téc@@ 1
ucin@@ 1
uk 1
vern@@ 1
voca@@ 1
wom@@ 1
@@ 1
 1
» 1
¿ 1
à@@ 1
éce@@ 1
érci@@ 1
ì@@ 1
ï@@ 1
ósof@@ 1
ø@@ 1
ŕ@@ 1
‘@@ 1
’ 1
™ 1
♫@@ 1
madeupword0000 0
madeupword0001 0
madeupword0002 0
madeupword0003 0
