the 17698
to 11435
in 11308
of 10225
and 9745
a 9664
die 9628
"@@ 9049
und 8825
." 7238
that 6782
der 6487
I 5743
is 5247
zu 5093
das 4740
es 4703
ist 4305
you 4215
wir 4208
we 4101
ich 4083
was 3936
And 3543
. 3387
it 3157
sie 3133
von 3132
ein 3108
den 3101
dass 2952
an 2933
eine 2930
this 2924
-- 2910
nicht 2667
for 2604
Sie 2601
so 2520
are 2503
en." 2456
mit 2432
have 2343
on 2342
er 2298
wie 2138
auf 2096
with 2068
sich 2035
as 1946
für 1925
be 1912
they 1851
can 1839
""@@ 1821
all 1760
at 1747
about 1743
als 1730
um 1711
what 1711
t, 1710
man 1680
t." 1676
not 1635
or 1611
en, 1601
, 1557
my 1510
e, 1479
-@@ 1476
s 1462
sind 1461
t 1448
en. 1442
diese 1390
"W@@ 1380
im 1378
do 1374
our 1362
"Und 1359
from 1357
dem 1348
e 1327
like 1286
one 1285
ten 1275
einen 1258
en 1245
er@@ 1244
uns 1235
ver@@ 1222
but 1221
wenn 1218
des 1214
t. 1199
war 1196
en@@ 1185
oder 1179
it's 1178
te 1175
just 1165
"Ich 1163
people 1156
haben 1135
ing 1112
s, 1086
also 1081
But 1067
The 1062
by 1062
these 1060
if 1052
.""" 1051
? 1041
über 1039
t@@ 1033
: 1032
Und 993
einem 981
an@@ 975
your 966
aber 962
ed 962
more 962
out 962
their 957
S@@ 956
very 954
?" 951
when 951
going 949
einer 943
es, 941
un@@ 938
nur 936
auch 930
"So 928
because 926
had 914
Ich 913
were 897
aus 896
how 896
he 888
s@@ 878
s." 853
b@@ 851
up 848
be@@ 842
hat 839
ung 839
which 838
in@@ 834
Das 833
me 830
ist, 827
ten@@ 827
get 825
So 824
who 814
us 813
would 813
st@@ 807
f@@ 799
k@@ 799
re@@ 797
(Laughter) 796
e." 791
sehr 787
really 776
s. 773
"Es 767
This 765
ge@@ 763
think 761
al@@ 757
has 753
y 752
d@@ 746
will 744
into 743
noch 741
"Wir 739
B@@ 738
see 738
mich 732
e. 731
there 727
können 714
"Das 712
dann 700
werden 697
some 693
I'm 690
It's 690
– 689
Menschen 687
Wir 687
"S@@ 686
" 681
them 681
K@@ 675
It 666
don't 664
ein@@ 663
where 662
gibt 661
Es 655
e@@ 652
A@@ 651
am 649
nach 643
then 637
aus@@ 636
kann 633
want 629
hier 625
dieser 621
"In 620
actually 620
know 613
other 611
bei 610
that's 606
wird 606
C@@ 605
n@@ 603
g@@ 602
could 598
L@@ 596
etwas 596
h@@ 595
p@@ 595
T@@ 592
mehr 591
been 590
sch@@ 589
ch@@ 587
D@@ 586
zum 584
i@@ 580
"Sie 579
P@@ 577
o@@ 577
R@@ 576
F@@ 573
alle 570
ar@@ 570
You 566
H@@ 565
go 565
auf@@ 564
c@@ 564
m@@ 564
er, 562
M@@ 558
ab@@ 552
ist@@ 552
Ver@@ 550
"Wenn 548
We 546
than 539
mir 537
o 537
habe 536
make 535
z@@ 533
a@@ 532
y@@ 530
An@@ 529
"Die 527
G@@ 525
den@@ 524
those 522
unsere 520
it@@ 517
es." 515
time 514
ent@@ 512
keine 511
♫ 511
es@@ 509
way 509
things 508
el@@ 507
gen@@ 507
E@@ 505
ten, 505
on@@ 501
ing, 500
first 496
di@@ 488
They 486
weil 486
ihre 485
meine 485
"Aber 481
only 480
te, 480
W@@ 478
even 478
immer 477
y, 477
d, 476
durch 476
O@@ 474
most 474
te." 473
ter 472
Die 471
his 469
Welt 465
vor 464
look 460
"" 459
N@@ 459
viel 457
Aber 455
ung@@ 454
something 453
at@@ 451
l@@ 451
- 450
al 448
we're 448
years 447
no 446
um@@ 443
ation 440
ti@@ 440
le@@ 439
zu@@ 439
Ihnen 436
or@@ 436
r@@ 436
little 435
two 435
you're 434
,@@ 433
es. 433
de@@ 432
?""" 431
de 428
w@@ 428
se@@ 427
ate 426
back 426
ungen 425
wirklich 423
over 419
take 419
viele 418
her 414
"A@@ 410
's 407
able 407
need 407
li@@ 406
d 404
dieses 404
Sch@@ 403
da 402
many 401
über@@ 401
got 400
"O@@ 399
ier@@ 395
new 395
anderen 394
she 393
ts 392
; 391
much 391
o, 391
wurde 391
eines 390
zur 388
u@@ 385
world 385
now 384
ung, 384
thing 382
andere 378
end 376
y. 375
around 373
diesen 373
lot 371
sein 371
diesem 370
d." 368
ra@@ 368
kind 367
si@@ 367
different 366
m 366
here 363
Leben 362
there's 362
right 361
tion 358
Zeit 357
am@@ 357
Now, 356
use 356
"T@@ 355
said, 354
y." 353
wo 352
ihr 351
If 349
us@@ 346
sehen 342
bis 341
through 341
hatte 340
st 339
any 338
being 338
vor@@ 338
müssen 337
it, 335
its 335
ur@@ 335
th@@ 334
"M@@ 333
ern 333
every 333
ischen 333
könn@@ 333
hat@@ 331
zwei 331
gen 330
I@@ 329
du 329
work 329
dis@@ 328
as@@ 327
sen@@ 327
Leute 326
ter@@ 326
ische 325
ro@@ 323
same 323
J@@ 322
come 322
ma@@ 322
they're 322
ac@@ 321
is, 320
ck@@ 319
v@@ 318
co@@ 317
haben, 317
bin 316
ie 315
A 314
Er@@ 314
der@@ 314
is@@ 314
did 312
ri@@ 312
Th@@ 310
ated 310
sp@@ 310
te@@ 309
po@@ 308
Jahre 307
se 307
einfach 305
sind, 305
ted 304
g 302
ers 301
i 301
good 300
et@@ 298
mein 298
jetzt 297
lo@@ 297
waren 297
Aus@@ 296
to@@ 296
Jahren 294
"B@@ 293
Art 293
called 292
it." 292
I've 290
Z@@ 290
haben@@ 290
a, 289
n 289
p 289
Dinge 288
know, 288
ting 288
ing." 286
find 282
sondern 282
an, 279
tra@@ 279
made 278
ob 278
denn 276
alles 275
down 275
her@@ 274
He 273
machen 273
ul@@ 273
Ein@@ 272
Ab@@ 271
damit 271
three 271
dies 270
ungs@@ 270
doing 269
hen 268
war@@ 268
men 266
own 266
sten 266
(Applause) 265
em@@ 265
ch 264
.@@ 263
St@@ 263
mo@@ 263
ihnen 262
why 262
sind@@ 261
meiner 260
tell 260
unserer 260
ä@@ 260
geh@@ 259
ger@@ 259
ha@@ 259
life 259
ent 257
for@@ 257
ge 257
st, 256
il@@ 255
Er 254
om@@ 254
war, 254
ei@@ 253
ell, 253
put 253
ad@@ 252
ing. 250
never 250
selbst 250
geht 249
liche 249
talk 249
werden@@ 249
ir@@ 248
ten. 248
vielleicht 248
ber@@ 246
ihn 246
im@@ 246
percent 246
V@@ 245
wir@@ 245
k 244
pro@@ 244
sehen, 244
all@@ 243
ben@@ 243
ganz 243
ic@@ 243
j@@ 243
say 243
What 242
human 242
might 242
tion, 242
par@@ 241
ut@@ 241
we've 241
There 240
ag@@ 240
al, 240
Now 239
after 239
con@@ 239
last 238
nicht, 238
unter 238
do@@ 237
seine 237
ste 237
Be@@ 236
bo@@ 236
einige 236
neue 236
schon 236
"Er 234
denen 234
ins 234
paar 234
still 234
(@@ 233
d. 233
ie@@ 233
fl@@ 232
didn't 231
f 231
chen 230
ed, 230
muss 230
should 230
würde 230
give 229
ho@@ 227
ex@@ 226
That's 225
Vor@@ 225
ere 225
great 225
möchte 225
started 225
In 224
au@@ 224
each 224
that, 224
10 223
Al@@ 223
'@@ 222
op@@ 222
Was 221
day 221
ig@@ 221
! 220
ation, 220
another 219
ic 219
,"" 218
sein, 218
ung. 218
bl@@ 217
does 217
l 217
ol@@ 217
ve 217
vom 217
er. 216
ne@@ 216
came 215
mal 215
de." 214
wissen 214
heute 213
me, 213
tr@@ 213
used 213
zwischen 213
sa@@ 212
tun 212
change 211
lich 210
"E@@ 209
Geschichte 209
Mar@@ 209
drei 209
sogar 209
ing@@ 208
können, 208
on, 208
system 207
wieder 207
between 206
mach@@ 206
so@@ 206
ges@@ 205
ihren 205
ts@@ 205
"Als 204
bar@@ 204
next 204
ating 203
hin@@ 203
m, 203
pl@@ 203
sh@@ 203
unter@@ 203
genau 202
tatsächlich 202
vi@@ 202
"D@@ 201
20 201
big 201
few 201
er." 200
gel@@ 200
sein@@ 200
end@@ 199
ersten 199
it. 199
kann@@ 199
us, 199
U@@ 198
Un@@ 198
ed@@ 198
in, 198
nie 198
a. 197
can't 197
important 197
nun 197
say, 197
te. 197
time, 197
da@@ 196
looking 196
off 196
ta@@ 196
wa@@ 196
Jahr 195
Sp@@ 195
doesn't 195
dort 195
kein 195
lichen 195
(Lachen) 194
bi@@ 194
davon 194
tions 194
part 193
ü@@ 193
age 192
ak@@ 191
start 191
Kinder 190
better 190
unser 190
ende 189
ohne 189
real 189
werden, 189
3@@ 188
ast@@ 188
mit@@ 188
n." 188
Ge@@ 187
ern@@ 187
me@@ 187
"F@@ 186
Wie 186
b 186
gehen 186
went 186
Ihre 185
bit 185
feel 185
mer@@ 185
n, 185
tes 185
hat, 184
ly 184
(Gelächter) 183
Teil 183
dar@@ 183
est 183
sen 183
zurück@@ 183
ale 182
no@@ 182
ben 181
ever 181
go@@ 181
gut 181
k, 181
"(Lachen) 180
In@@ 180
hal@@ 180
ke 180
long 180
qu@@ 180
sagen, 180
New 179
idea 179
understand 179
gerade 178
show 178
wor@@ 178
ö@@ 178
50 177
call 177
may 177
th 177
tion@@ 177
wer@@ 177
gab 176
isch 176
le 176
less 175
meisten 175
res@@ 175
elle 173
enden 173
found 173
gen. 173
ging 173
man@@ 173
Auf@@ 172
an. 172
wanted 172
x@@ 172
z 172
"Also 171
him 171
star@@ 171
t: 171
während 171
"Der 170
Re@@ 170
ap@@ 170
br@@ 170
fen 170
inter@@ 170
mar@@ 170
seh@@ 170
tet 170
werde 170
a." 169
place 169
ru@@ 169
said 169
2@@ 168
ach@@ 168
before 168
help 168
Also 167
darüber 167
erste 167
h 167
ihrer 167
jeder 167
ment 167
sort 167
ed." 166
ell@@ 166
ert 166
et, 166
min@@ 166
mus@@ 166
per@@ 166
wurden 166
Par@@ 165
ich, 165
ine 165
meinem 165
ter, 165
Sie, 164
ally 164
live 164
sk@@ 164
"Was 163
nach@@ 163
sagen 163
trying 163
% 162
30 162
Der 162
den. 162
einmal 162
la@@ 162
ph@@ 162
using 162
"", 161
etwa 161
ge. 161
gu@@ 161
iert 161
lei@@ 161
st." 161
ts, 161
"(Gelächter) 160
) 160
Tag 160
com@@ 160
Millionen 159
Mo@@ 159
These 159
et." 159
nichts 159
sagte 159
thought 159
whole 159
working 159
always 158
comes 158
gen, 158
gra@@ 158
ill@@ 158
iz@@ 158
kommen 158
took 158
wur@@ 158
Frauen 157
ds 157
pre@@ 157
rei@@ 157
tive 157
we@@ 157
"L@@ 156
ans 156
car@@ 156
dazu 156
el 156
ess@@ 156
könnte 156
ungen, 156
unseren 156
Pro@@ 155
let 155
means 155
meinen 155
r 155
wi@@ 155
"H@@ 154
fast 154
hatten 154
ich@@ 154
brain 153
ch, 153
ep@@ 153
this, 153
tri@@ 153
Ma@@ 152
che 152
eren 152
wür@@ 152
Arbeit 151
How 151
bes@@ 151
cor@@ 151
große 151
ieren 151
ik@@ 151
warum 151
Beispiel 150
he@@ 150
ken 150
point 150
tun@@ 150
ations 149
create 149
maybe 149
ne 149
ou@@ 149
zusammen@@ 149
4@@ 148
ellen 148
getting 148
try 148
"N@@ 147
Kon@@ 147
Y@@ 147
ance 147
ar 147
eh@@ 147
mon@@ 147
ß@@ 147
100 146
ang@@ 146
doch 146
done 146
e-@@ 146
ganze 146
ieren, 146
tion." 146
5@@ 145
dr@@ 145
letzten 145
ous 145
story 145
Hier 144
To@@ 144
des@@ 144
durch@@ 144
gegen 144
pp@@ 144
war." 144
you, 144
bel@@ 143
ell 143
ger 143
making 143
power 143
what's 143
""W@@ 142
(Applaus) 142
day, 142
lich@@ 142
told 142
Ar@@ 141
En@@ 141
Ende 141
Thank 141
There's 141
ah@@ 141
al." 141
har@@ 141
kl@@ 141
nen 141
wollen 141
1@@ 140
love 140
women 140
"Diese 139
ck 139
without 139
Mon@@ 138
Wenn 138
build 138
ce 138
fact, 138
mat@@ 138
nen@@ 138
sagte: 138
se, 138
set 138
tung 138
weniger 138
wissen, 138
200@@ 137
Di@@ 137
Diese 137
become 137
en? 137
ens 137
igen 137
mis@@ 137
seit 137
"Man 136
20@@ 136
and@@ 136
ft 136
gef@@ 136
ige 136
million 136
pa@@ 136
too 136
weiter@@ 136
Bo@@ 135
Problem 135
Zu@@ 135
ary 135
de, 135
denken 135
kommt 135
pe@@ 135
them, 135
year 135
... 134
6@@ 134
ant 134
führ@@ 134
ganzen 134
sieht 134
stell@@ 134
wer 134
"Nun, 133
."" 133
woll@@ 133
having 132
wei@@ 132
Menschen, 131
course, 131
fe 131
heraus@@ 131
lin@@ 131
nehmen 131
saw 131
social 131
tier@@ 131
Über@@ 131
Land 130
et 130
finden 130
five 130
half 130
he's 130
ek@@ 129
geben 129
großen 129
men@@ 129
oft 129
ziemlich 129
Mal 128
Prozent 128
across 128
ander@@ 128
believe 128
bet@@ 128
body 128
data 128
en: 128
ge." 128
kleinen 128
su@@ 128
welche 128
world, 128
zurück 128
ask 127
das, 127
four 127
hard 127
talking 127
4 126
Man 126
fe@@ 126
machen, 126
ob@@ 126
weiter 126
x 126
ün@@ 126
Zeit@@ 125
[@@ 125
here, 125
learn 125
such 125
tru@@ 125
I'll 124
ann@@ 124
ation." 124
den, 124
eg@@ 124
gesch@@ 124
ies 124
kids 124
la 124
now, 124
or, 124
second 124
wird, 124
wäre 124
enough 123
indem 123
number 123
probably 123
quite 123
times 123
up@@ 123
you. 123
light 122
men, 122
on." 122
ster@@ 122
water 122
5 121
7@@ 121
kann, 121
kommen@@ 121
red 121
tet@@ 121
weiß 121
Gen@@ 120
Ro@@ 120
ass@@ 120
ely 120
em 120
ers, 120
ihm 120
ity 120
ks 120
like, 120
n. 120
old 120
technology 120
um, 120
Po@@ 119
ago, 119
building 119
fer@@ 119
ings 119
ken@@ 119
makes 119
nich@@ 119
ome 119
tig@@ 119
tigen 119
well 119
-S@@ 118
8@@ 118
I'd 118
al. 118
and, 118
bar 118
dabei 118
de. 118
form 118
king 118
kleine 118
leben@@ 118
let's 118
natürlich 118
out@@ 118
under 118
Ein 117
beim 117
coming 117
der, 117
ents 117
geben@@ 117
move 117
one, 117
seen 117
small 117
tige 117
19@@ 116
That 116
best 116
gener@@ 116
jedes 116
keinen 116
ok@@ 116
problem 116
se. 116
ser@@ 116
soll@@ 116
way, 116
Gehirn 115
allen 115
far@@ 115
glaube, 115
keep 115
macht 115
poli@@ 115
sollten 115
thinking 115
ze 115
„@@ 115
"Wie 114
Ihr 114
Wel@@ 114
besser 114
dern 114
ec@@ 114
ff@@ 114
information 114
lich, 114
play 114
seinen 114
t? 114
unserem 114
ation@@ 113
away 113
ecause 113
g, 113
jemand 113
land@@ 113
living 113
so, 113
ste@@ 113
versch@@ 113
while 113
zer@@ 113
Nach@@ 112
Or@@ 112
asked 112
ed. 112
ent." 112
fin@@ 112
kon@@ 112
los@@ 112
m. 112
person 112
together 112
Mensch@@ 111
Seite 111
ali@@ 111
enti@@ 111
kam 111
land 111
question 111
stellen 111
tion. 111
top 111
us." 111
years, 111
2 110
Frage 110
ben, 110
c 110
flo@@ 110
seiner 110
tu@@ 110
work@@ 110
""Ich 109
've 109
15 109
ent, 109
enz@@ 109
jeden 109
lange 109
licher 109
mu@@ 109
pretty 109
sho@@ 109
sollte 109
sub@@ 109
vor, 109
whether 109
wollte 109
würden 109
Ch@@ 108
Qu@@ 108
] 108
ber 108
isch@@ 108
often 108
on. 108
ty 108
"Hier 107
We@@ 107
Weg 107
Zukunft 107
ally, 107
ative 107
bring@@ 107
du@@ 107
gute 107
them." 107
tiv@@ 107
ur 107
3 106
Rei@@ 106
ability 106
bei@@ 106
denke, 106
ev@@ 106
lang 106
people, 106
re 106
school 106
tische 106
tor@@ 106
"J@@ 105
Le@@ 105
They're 105
both 105
ischer 105
rel@@ 105
sein. 105
t-@@ 105
tig 105
u 105
Bild 104
bas@@ 104
dafür 104
gr@@ 104
konnte 104
kt 104
nächsten 104
se." 104
see, 104
someone 104
tern 104
vielen 104
än@@ 104
almost 103
cht 103
ci@@ 103
eigentlich 103
fac@@ 103
geben, 103
gesehen 103
gi@@ 103
global 103
hel@@ 103
ig 103
jede 103
mal@@ 103
plan@@ 103
t?" 103
tor 103
under@@ 103
"""@@ 102
"Ein 102
Internet 102
anything 102
ation. 102
det 102
e: 102
e? 102
erst 102
example, 102
gl@@ 102
heit 102
leben 102
sel@@ 102
ver 102
1 101
500 101
Lebens@@ 101
hier@@ 101
lassen 101
leg@@ 101
stand 101
teil@@ 101
tic 101
40 100
Daten 100
Geld 100
Körper 100
Menge 100
ble 100
eln 100
hol@@ 100
inn@@ 100
inside 100
lass@@ 100
net@@ 100
neuen 100
reason 100
since 100
tionen 100
ves 100
vier 100
7 99
Bu@@ 99
Um@@ 99
ad 99
already 99
any@@ 99
ce, 99
food 99
pri@@ 99
sag@@ 99
sense 99
sor@@ 99
tun, 99
young 99
zei@@ 99
No@@ 98
ach 98
ein, 98
everything 98
rich@@ 98
sich@@ 98
stor@@ 98
there, 98
wasn't 98
ways 98
wir, 98
ying 98
zi@@ 98
an." 97
ange@@ 97
bt 97
bu@@ 97
geb@@ 97
high 97
if@@ 97
learned 97
nicht. 97
once 97
ors 97
public 97
s: 97
sagte, 97
steh@@ 97
ure 97
är@@ 97
Her@@ 96
Wasser 96
art 96
daran 96
hat's 96
ien 96
knew 96
könnten 96
me." 96
All 95
China 95
Dies 95
Eine 95
Frau 95
became 95
ear@@ 95
energy 95
fen, 95
id@@ 95
ihrem 95
rat@@ 95
sion 95
son@@ 95
ster 95
verstehen, 95
world." 95
ör@@ 95
!" 94
Con@@ 94
Erde 94
anzu@@ 94
brauchen 94
cre@@ 94
design 94
est@@ 94
ey@@ 94
fahr@@ 94
fel@@ 94
genug 94
goes 94
ity, 94
left 94
mean 94
moment 94
this. 94
tre@@ 94
within 94
Au@@ 93
Moment 93
Mutter 93
Ort 93
USA 93
bau@@ 93
darauf 93
eigenen 93
ene 93
get@@ 93
gibt, 93
open 93
ran@@ 93
trans@@ 93
until 93
wegen 93
win@@ 93
you've 93
äch@@ 93
,000 92
Ber@@ 92
Co@@ 92
Idee 92
Kar@@ 92
all, 92
ank@@ 92
care 92
che@@ 92
ent. 92
fact 92
möglich 92
off@@ 92
single 92
th, 92
that." 92
wahr@@ 92
wichtig 92
Bi@@ 91
Hand@@ 91
Probleme 91
Unter@@ 91
alten 91
ari@@ 91
at, 91
aus, 91
bor@@ 91
bro@@ 91
ded 91
ern, 91
ete 91
etwas, 91
ga@@ 91
ical 91
ko@@ 91
looked 91
looks 91
me. 91
schrei@@ 91
sen, 91
spiel@@ 91
tic@@ 91
ungefähr 91
us. 91
veränder@@ 91
w 91
"Eine 90
"K@@ 90
anders 90
bur@@ 90
cl@@ 90
det@@ 90
family 90
future 90
gehen, 90
happened 90
heard 90
home 90
hör@@ 90
je 90
met@@ 90
moving 90
ms 90
namens 90
ness 90
side 90
stra@@ 90
that. 90
ven 90
wahrscheinlich 90
weiß, 90
zen 90
Dollar 89
System 89
Technologie 89
United 89
against 89
arbeiten 89
av@@ 89
eil@@ 89
ess 89
finden, 89
ful 89
gemacht 89
imagine 89
nothing 89
order 89
out, 89
pro 89
rather 89
seinem 89
sprech@@ 89
tro@@ 89
turns 89
up, 89
wenig 89
"An@@ 88
"Im 88
De@@ 88
Ex@@ 88
For@@ 88
answer 88
built 88
chen@@ 88
children 88
ge, 88
le. 88
olog@@ 88
per 88
remember 88
run 88
sah 88
später 88
time." 88
today 88
uns@@ 88
Ha@@ 87
cht@@ 87
col@@ 87
fünf 87
gets 87
gt 87
heit, 87
ind@@ 87
müs@@ 87
piece 87
schen 87
this." 87
ts." 87
Antwort 86
Mann 86
Schul@@ 86
Se@@ 86
bereits 86
billion 86
country 86
ding 86
el, 86
eu@@ 86
exactly 86
gan@@ 86
id 86
kinds 86
leave 86
m." 86
mm@@ 86
over@@ 86
passier@@ 86
s-@@ 86
science 86
self-@@ 86
taking 86
the@@ 86
tions, 86
ving 86
weg@@ 86
word 86
world. 86
äu@@ 86
""I 85
"(@@ 85
' 85
8 85
Grund@@ 85
Kom@@ 85
Licht 85
Person 85
alis@@ 85
experience 85
fra@@ 85
ft, 85
ly, 85
ori@@ 85
pen@@ 85
sagt 85
sol@@ 85
stand@@ 85
stehen 85
ters 85
ve, 85
w. 85
weise 85
wurde, 85
y-@@ 85
änder@@ 85
"Dies 84
Informationen 84
Mit@@ 84
Zeit, 84
alen 84
besch@@ 84
decided 84
fol@@ 84
jedem 84
lich. 84
money 84
ones 84
person@@ 84
schnell 84
ub@@ 84
und@@ 84
viel@@ 84
vo@@ 84
weit 84
wohl 84
’s 84
18@@ 83
Bes@@ 83
Jahr@@ 83
again, 83
ationen 83
ct 83
dich 83
eher 83
hätte 83
ile 83
in. 83
ity." 83
kommen, 83
liches 83
man, 83
ment@@ 83
pi@@ 83
pres@@ 83
ry 83
setz@@ 83
ter. 83
ton@@ 83
verschiedenen 83
will@@ 83
you." 83
zwei@@ 83
6 82
Because 82
Lo@@ 82
Spiel@@ 82
ast 82
bad 82
bisschen 82
comp@@ 82
dollars 82
isn't 82
life, 82
lives 82
must 82
space 82
ther@@ 82
ts. 82
well, 82
wollen, 82
— 82
Kind 81
Schule 81
Sie@@ 81
York 81
af@@ 81
chen, 81
cken 81
dig@@ 81
e.""" 81
eit@@ 81
every@@ 81
exist@@ 81
happens 81
hatte, 81
here's 81
huge 81
ics 81
instead 81
le." 81
mor@@ 81
oll@@ 81
produc@@ 81
sam@@ 81
simple 81
thousands 81
wunder@@ 81
""The 80
12 80
Land@@ 80
My 80
brauch@@ 80
control 80
early 80
end, 80
hei@@ 80
ically 80
mag@@ 80
nis@@ 80
os@@ 80
zusammen 80
.000 79
:@@ 79
Angst 79
Dinge, 79
Ger@@ 79
We're 79
ant@@ 79
bring 79
countries 79
during 79
einfach@@ 79
fre@@ 79
gar 79
gib@@ 79
health 79
mi@@ 79
oc@@ 79
selbst@@ 79
sure 79
test 79
tl@@ 79
verschiedene 79
w, 79
9@@ 78
American 78
Kopf 78
Leute, 78
Milliarden 78
alt 78
das@@ 78
erte 78
far 78
fest@@ 78
glaube 78
h, 78
mel@@ 78
ris@@ 78
tel@@ 78
ties 78
wirk@@ 78
wis@@ 78
"und 77
60 77
Dar@@ 77
Welt, 77
also, 77
app@@ 77
aten 77
begann 77
besonders 77
city 77
completely 77
dri@@ 77
figure 77
ierte 77
lichkeit 77
liegt 77
lit@@ 77
read 77
sil@@ 77
six 77
stat@@ 77
turn 77
uns, 77
vis@@ 77
was@@ 77
zeigen 77
Inter@@ 76
Leben@@ 76
Sta@@ 76
Str@@ 76
created 76
elt 76
ence 76
et. 76
fan@@ 76
felt 76
finden@@ 76
front 76
habe, 76
halten@@ 76
hl@@ 76
hor@@ 76
ist. 76
mean, 76
mp@@ 76
of@@ 76
os 76
richtig 76
s? 76
sha@@ 76
sta@@ 76
tischen 76
ust 76
y? 76
"In@@ 75
Computer 75
Da@@ 75
Here's 75
Kinder@@ 75
Männer 75
One 75
Proz@@ 75
Raum 75
Warum 75
Welt@@ 75
ati@@ 75
auf, 75
braucht 75
ck, 75
couldn't 75
couple 75
ehr@@ 75
einander 75
enen 75
equ@@ 75
fi@@ 75
form@@ 75
human@@ 75
lie@@ 75
mer 75
ons 75
passiert 75
rec@@ 75
str@@ 75
today, 75
voll@@ 75
zeigen, 75
Bet@@ 74
Energie 74
Fragen 74
Gleich@@ 74
Gr@@ 74
Stadt 74
Why 74
aus. 74
beautiful 74
bevor 74
cra@@ 74
dir 74
do, 74
ens@@ 74
entire 74
interesting 74
ja 74
known 74
meines 74
mut@@ 74
one." 74
oo@@ 74
somebody 74
sprechen 74
z, 74
"(Applaus) 73
"Dann 73
80 73
Grund 73
Neu@@ 73
Wei@@ 73
ack@@ 73
amazing 73
computer 73
gave 73
hand@@ 73
konnten 73
musste 73
nutz@@ 73
por@@ 73
rate 73
reg@@ 73
says, 73
sie, 73
stuff 73
takes 73
wen@@ 73
words 73
you'll 73
"Denn 72
200 72
Bau@@ 72
Denn 72
Familie 72
age, 72
ates 72
back@@ 72
bit@@ 72
enc@@ 72
ess." 72
everybody 72
fro@@ 72
gerne 72
heart 72
hope 72
log@@ 72
stories 72
them. 72
tur@@ 72
wo@@ 72
!""" 71
199@@ 71
Do@@ 71
Fall 71
M: 71
Mädchen 71
She 71
be, 71
beiden 71
ben. 71
business 71
cannot 71
enk@@ 71
f, 71
iert, 71
ja, 71
je@@ 71
large 71
mark@@ 71
seeing 71
sit@@ 71
stop 71
super@@ 71
tete 71
wär@@ 71
..." 70
Bar@@ 70
Je@@ 70
Li@@ 70
Nor@@ 70
Sk@@ 70
ban@@ 70
bedeutet, 70
economic 70
ey 70
frei@@ 70
gar@@ 70
ie, 70
ierten 70
il 70
ion@@ 70
kam@@ 70
lan@@ 70
learning 70
mich, 70
our@@ 70
sc@@ 70
sche 70
sm@@ 70
ter." 70
ut 70
ven@@ 70
versteh@@ 70
äl@@ 70
""N@@ 69
Dann 69
Ideen 69
Mal@@ 69
Ur@@ 69
along 69
based 69
besten 69
bringen, 69
can@@ 69
einigen 69
eri@@ 69
fa@@ 69
fil@@ 69
gleich 69
gleichen 69
group 69
hoch@@ 69
key 69
ler@@ 69
lu@@ 69
matter 69
mother 69
ourselves 69
process 69
room 69
ses 69
study 69
ws 69
ßen 69
G: 68
Let's 68
TED 68
Te@@ 68
air@@ 68
anderes 68
ator@@ 68
cells 68
econom@@ 68
eng@@ 68
ft@@ 68
g." 68
hi@@ 68
ick@@ 68
iger 68
later, 68
life." 68
myself 68
ore 68
places 68
political 68
rech@@ 68
sion@@ 68
stre@@ 68
then, 68
tz@@ 68
woman 68
Ak@@ 67
Car@@ 67
Du 67
Gegen@@ 67
Geschichten 67
Go@@ 67
Macht 67
Proble@@ 67
Roboter 67
So@@ 67
Wh@@ 67
aller 67
anz@@ 67
are, 67
bedeutet 67
bin@@ 67
bra@@ 67
bringen 67
chte 67
days 67
ess. 67
guy 67
here." 67
ine, 67
is." 67
isches 67
lern@@ 67
manchmal 67
medi@@ 67
og@@ 67
picture 67
prof@@ 67
research 67
right?" 67
ron@@ 67
steht 67
sum@@ 67
ther 67
tik@@ 67
tlich 67
was, 67
work, 67
"Meine 66
Arten 66
Ho@@ 66
Weise 66
aff@@ 66
auszu@@ 66
car 66
dachte 66
denke 66
ender 66
eten 66
fühl@@ 66
hand 66
happen 66
happy 66
hin 66
line 66
lost 66
lots 66
men." 66
pan@@ 66
sagen: 66
simply 66
sound 66
spent 66
stellen, 66
taken 66
tal@@ 66
though 66
tin@@ 66
way." 66
wh@@ 66
worked 66
"Um 65
000 65
201@@ 65
Bro@@ 65
CA: 65
Form 65
Hause 65
Me@@ 65
Ta@@ 65
Unternehmen 65
common 65
cr@@ 65
design@@ 65
ess, 65
euch 65
here. 65
ideas 65
ity. 65
klein@@ 65
lernen 65
lose 65
lö@@ 65
mehr@@ 65
nah@@ 65
nahm 65
name 65
nen, 65
one. 65
oper@@ 65
posi@@ 65
possible 65
sal@@ 65
schie@@ 65
sei@@ 65
sin@@ 65
sion, 65
sometimes 65
sten@@ 65
tation 65
third 65
turned 65
typ@@ 65
w." 65
wing 65
äh@@ 65
Afrika 64
Aut@@ 64
Fl@@ 64
Gruppe 64
Har@@ 64
Natur 64
Sti@@ 64
basically 64
blo@@ 64
bri@@ 64
erg@@ 64
fish 64
hatten, 64
heraus, 64
ice 64
ide@@ 64
ier 64
job 64
lat@@ 64
media 64
mess@@ 64
months 64
needs 64
nächste 64
oh@@ 64
schaff@@ 64
son 64
tet, 64
there." 64
think, 64
unden 64
verstehen 64
write 64
zieh@@ 64
ß 64
"Für 63
Fahr@@ 63
Glück 63
Im 63
Körper@@ 63
Leuten 63
Man@@ 63
Punkt 63
Sache 63
Wer@@ 63
access 63
allow 63
amount 63
anc@@ 63
bedeut@@ 63
char@@ 63
child 63
course 63
del@@ 63
einzige 63
else 63
en-@@ 63
ence, 63
g. 63
habe@@ 63
halten 63
heit@@ 63
konn@@ 63
led 63
ll@@ 63
nam@@ 63
ome@@ 63
pped 63
sten, 63
sto@@ 63
themselves 63
und, 63
verb@@ 63
wat@@ 63
wieder@@ 63
überall 63
Eis@@ 62
Gesellschaft 62
Regierung 62
War@@ 62
Wort 62
as, 62
aufzu@@ 62
ca@@ 62
climate 62
cur@@ 62
deal 62
e's 62
els 62
face 62
full 62
glauben, 62
gleich@@ 62
government 62
größ@@ 62
gs 62
head 62
head@@ 62
her, 62
hinter 62
ia 62
ik 62
k." 62
kn@@ 62
kre@@ 62
los 62
menschliche 62
nahmen 62
natural 62
needed 62
ner@@ 62
people." 62
ps 62
recht 62
ren@@ 62
schaft 62
schau@@ 62
spar@@ 62
st. 62
system, 62
tak@@ 62
time. 62
ton 62
tä@@ 62
ve." 62
video 62
waren, 62
werden. 62
"All 61
'll 61
)@@ 61
17@@ 61
Com@@ 61
Eltern 61
Ent@@ 61
Far@@ 61
Gra@@ 61
Ide@@ 61
Ri@@ 61
baren 61
beg@@ 61
case 61
community 61
cy@@ 61
daran, 61
eigene 61
einzu@@ 61
fall@@ 61
fand 61
hear 61
hören 61
immer@@ 61
machte 61
mir, 61
möglich@@ 61
neu@@ 61
oben 61
real@@ 61
sei 61
sign@@ 61
species 61
students 61
tes@@ 61
universe 61
“ 61
""S@@ 60
Br@@ 60
Fra@@ 60
Ko@@ 60
Lei@@ 60
Not 60
Sprache 60
Stunden 60
arbei@@ 60
cell 60
connec@@ 60
dat@@ 60
denk@@ 60
denken, 60
ders 60
direkt 60
example 60
fri@@ 60
k. 60
lang@@ 60
le, 60
leb@@ 60
letzte 60
mean@@ 60
medical 60
obwohl 60
organis@@ 60
pay 60
personal 60
physical 60
rau@@ 60
re, 60
schauen 60
sechs 60
sicher 60
sli@@ 60
stellt 60
such@@ 60
sur@@ 60
tel 60
um. 60
unseres 60
vel@@ 60
way. 60
""A@@ 59
9 59
Als 59
DNA 59
Für 59
Google 59
Hand 59
Met@@ 59
Wal@@ 59
ab, 59
ar, 59
began 59
behind 59
bre@@ 59
brought 59
cat@@ 59
ce." 59
cen@@ 59
cli@@ 59
do. 59
funktionier@@ 59
ger, 59
given 59
irgend@@ 59
kom@@ 59
mein@@ 59
ments 59
mind@@ 59
nehmen@@ 59
project 59
rig@@ 59
schließlich 59
share 59
ship 59
sive 59
size 59
some@@ 59
team 59
tried 59
ve. 59
""H@@ 58
"Da 58
30@@ 58
50@@ 58
Bilder 58
Buch 58
Haus@@ 58
Is 58
S 58
act 58
anti@@ 58
auf. 58
bekommen 58
benutz@@ 58
best@@ 58
book 58
ches 58
d-@@ 58
deren 58
dessen 58
ente 58
enten 58
fahren 58
force 58
giving 58
jedoch 58
kurz 58
likely 58
lon@@ 58
nor@@ 58
particular 58
saying 58
tag@@ 58
tim@@ 58
towards 58
uss@@ 58
weitere 58
y: 58
years. 58
yet 58
25 57
B: 57
Beispiel@@ 57
Geschich@@ 57
Haus 57
Lage 57
Lu@@ 57
Organis@@ 57
Su@@ 57
ad, 57
ans@@ 57
clo@@ 57
consum@@ 57
cul@@ 57
defin@@ 57
dic@@ 57
ds, 57
effec@@ 57
er-@@ 57
er: 57
erst@@ 57
fanden 57
fear 57
fter 57
genommen 57
guys 57
heißt 57
hours 57
hum@@ 57
in." 57
inten@@ 57
ip@@ 57
lassen, 57
lea@@ 57
longer 57
net 57
nis 57
ord@@ 57
ous@@ 57
realize 57
realized 57
respon@@ 57
sitting 57
stri@@ 57
tend 57
thing. 57
together, 57
view 57
walk 57
x, 57
ys 57
zwar 57
"Mit 56
"Un@@ 56
90 56
Bri@@ 56
Grunde 56
Hel@@ 56
Jetzt 56
Jo@@ 56
Minuten 56
Musik 56
Musik@@ 56
Rich@@ 56
System@@ 56
aler 56
ate, 56
az@@ 56
bauen 56
beh@@ 56
black 56
changing 56
cks 56
company 56
eller 56
enz 56
fir@@ 56
fragte 56
fü@@ 56
genauso 56
growing 56
ierung 56
ink@@ 56
ion 56
ize 56
level 56
lik@@ 56
ous, 56
ously 56
problems 56
right, 56
rit@@ 56
systems 56
tions." 56
tions@@ 56
ved 56
vier@@ 56
we'll 56
wrong 56
z. 56
zweite 56
"Also, 55
"R@@ 55
/@@ 55
Bel@@ 55
Ihrem 55
Ihrer 55
Indi@@ 55
Kindern 55
Patienten 55
Ph@@ 55
Reg@@ 55
Vater 55
anstatt 55
bare 55
basic 55
dazu, 55
emp@@ 55
ends 55
entwickel@@ 55
find@@ 55
geht, 55
happening 55
hear@@ 55
history 55
hr@@ 55
hundreds 55
i, 55
ie. 55
imagin@@ 55
ined 55
ir 55
literally 55
low 55
met 55
nutzen 55
others 55
prin@@ 55
reich@@ 55
ty, 55
versuchen, 55
wollten 55
würde, 55
üh@@ 55
ür@@ 55
Dieses 54
Doch 54
He@@ 54
Kunst@@ 54
Lehr@@ 54
Projekt 54
Rück@@ 54
Sei@@ 54
You're 54
You@@ 54
acht 54
ations, 54
big@@ 54
cer@@ 54
close 54
ero@@ 54
erzähl@@ 54
falls 54
fer 54
gel 54
gemach@@ 54
grand@@ 54
innerhalb 54
irgendwie 54
lauf@@ 54
meet 54
online 54
pat@@ 54
pf@@ 54
powerful 54
pr@@ 54
schön@@ 54
sehen. 54
setzen 54
shows 54
sing@@ 54
state 54
telling 54
tho@@ 54
top@@ 54
you@@ 54
Fisch@@ 53
Gefühl 53
Herz@@ 53
Pri@@ 53
Psych@@ 53
South 53
Stu@@ 53
Tag@@ 53
Wissen 53
Ziel 53
about, 53
allem 53
anim@@ 53
animals 53
ausge@@ 53
carbon 53
cut 53
designed 53
eas@@ 53
eit 53
ets 53
fast@@ 53
feeling 53
free 53
gemein@@ 53
gern 53
gives 53
grün@@ 53
gut@@ 53
happen@@ 53
herum@@ 53
hätten 53
ieren. 53
keit@@ 53
kur@@ 53
les@@ 53
mittel@@ 53
modern 53
music 53
new@@ 53
niemand 53
o. 53
outside 53
perhaps 53
really, 53
ret@@ 53
rie@@ 53
rä@@ 53
schaf@@ 53
seven 53
speci@@ 53
ständig 53
terms 53
things, 53
tisch 53
tle 53
tö@@ 53
völlig 53
wel@@ 53
wichtig@@ 53
wn@@ 53
work. 53
world@@ 53
wä@@ 53
"Auf 52
"Er@@ 52
10@@ 52
2, 52
Arbeit@@ 52
Chin@@ 52
Entwicklung 52
Gehirn@@ 52
Ihren 52
Länder 52
Stück 52
ab 52
als, 52
atten@@ 52
be. 52
cancer 52
cas@@ 52
darüber, 52
edi@@ 52
ence." 52
friends 52
fu@@ 52
gang 52
ged 52
gew@@ 52
haben. 52
ining 52
ins@@ 52
inv@@ 52
menschlichen 52
müssen, 52
named 52
nicht@@ 52
o-@@ 52
own@@ 52
parents 52
parts 52
playing 52
poor 52
popul@@ 52
schreiben 52
solche 52
stoff@@ 52
thought, 52
tiven 52
true 52
wach@@ 52
weg 52
year, 52
years." 52
zahl@@ 52
üch@@ 52
"Zum 51
1,@@ 51
70 51
Africa 51
All@@ 51
Americ@@ 51
Computer@@ 51
D 51
Gebäude 51
Hilfe 51
Min@@ 51
Ne@@ 51
People 51
Planeten 51
Tiere 51
Wissenschaft 51
Zei@@ 51
again 51
alle@@ 51
anderer 51
auch, 51
certain 51
companies 51
ction 51
da, 51
either 51
ensch@@ 51
führen 51
ges 51
gestell@@ 51
hab@@ 51
helfen 51
iges 51
ill 51
inst@@ 51
is. 51
kehr@@ 51
keit, 51
language 51
mag 51
ment, 51
middle 51
millions 51
planet 51
pos@@ 51
psych@@ 51
pur@@ 51
ration 51
roll@@ 51
s?" 51
says 51
schwer 51
scre@@ 51
showed 51
spend 51
starting 51
step 51
stu@@ 51
teten 51
things. 51
uses 51
uss 51
wal@@ 51
wes@@ 51
wider@@ 51
y's 51
zeigt 51
"Doch 50
17 50
Auto 50
Dis@@ 50
Geh@@ 50
Generation 50
Groß@@ 50
Mikro@@ 50
Mil@@ 50
Mit 50
Sachen 50
Ste@@ 50
Universum 50
Vielen 50
a-@@ 50
all." 50
ang 50
arbeiten, 50
ativ@@ 50
back, 50
books 50
buy 50
cher 50
deine 50
dies@@ 50
difficult 50
dra@@ 50
ef@@ 50
ein. 50
ents, 50
ers. 50
eth@@ 50
ett@@ 50
everyone 50
finally 50
gam@@ 50
gebor@@ 50
gehört 50
gewal@@ 50
gh@@ 50
gri@@ 50
hom@@ 50
imm@@ 50
ings, 50
ink 50
innen 50
ist: 50
ite 50
ität 50
kenn@@ 50
lag@@ 50
mussten 50
my@@ 50
ocean 50
onen 50
ort@@ 50
pain@@ 50
pas@@ 50
positive 50
produce 50
schw@@ 50
seems 50
several 50
she's 50
sprechen, 50
support 50
things." 50
tionen, 50
ue 50
understanding 50
very, 50
wonder@@ 50
writ@@ 50
"Nun 49
"P@@ 49
"Z@@ 49
5, 49
Bas@@ 49
Blick 49
Can 49
Earth 49
Entscheidungen 49
Gesch@@ 49
Kor@@ 49
Lebens 49
Physi@@ 49
Rolle 49
Ru@@ 49
Selbst@@ 49
Thema 49
Wes@@ 49
Woche 49
a's 49
air 49
aren't 49
audi@@ 49
bein@@ 49
beweg@@ 49
bom@@ 49
cap@@ 49
changed 49
clear 49
cool@@ 49
cou@@ 49
dem, 49
easy 49
erreich@@ 49
essen 49
fehl@@ 49
field 49
frag@@ 49
fragen 49
friend 49
funktioniert 49
gleiche 49
glück@@ 49
ih@@ 49
il, 49
iti@@ 49
kar@@ 49
kennen 49
kennen@@ 49
lar@@ 49
leben, 49
machen. 49
model 49
phone 49
plötzlich 49
risk 49
ss@@ 49
stark 49
stellte 49
thing, 49
thing." 49
thing@@ 49
tliche 49
tools 49
words, 49
world's 49
üs@@ 49
""Well, 48
"Oder 48
40@@ 48
C 48
Gedanken 48
Los 48
Res@@ 48
Sach@@ 48
Sor@@ 48
Wor@@ 48
Zellen 48
ade 48
am, 48
amp@@ 48
ard 48
atur@@ 48
berei@@ 48
bereit@@ 48
care@@ 48
cing 48
dy 48
e?" 48
ech@@ 48
ehr 48
ended 48
erkennen, 48
ers@@ 48
es? 48
fall 48
father 48
friend@@ 48
igh@@ 48
interested 48
ion, 48
l, 48
lau@@ 48
lic@@ 48
lock@@ 48
miteinander 48
nämlich 48
pass@@ 48
power@@ 48
predic@@ 48
re." 48
rest 48
rier@@ 48
sagt: 48
sau@@ 48
scar@@ 48
tieren 48
tiger 48
um." 48
won't 48
zut@@ 48
äre 48
're 47
00@@ 47
Anfang 47
Bild@@ 47
Bl@@ 47
Erfahrung 47
Freunde 47
Gemein@@ 47
Ges@@ 47
Indien 47
Kunst 47
Kur@@ 47
Meeres@@ 47
Mein 47
Mor@@ 47
Oder 47
States 47
The@@ 47
abl@@ 47
aden 47
alles, 47
bauen, 47
beginning 47
ble@@ 47
born 47
break 47
century 47
creating 47
deshalb 47
enth@@ 47
esen 47
ful@@ 47
gefähr@@ 47
gend 47
größte 47
house 47
igkeit 47
imp@@ 47
isten 47
ith 47
ker 47
kleines 47
kommt, 47
mechan@@ 47
men. 47
pic@@ 47
putting 47
sagt, 47
save 47
seem 47
sen. 47
sich, 47
spielen 47
tern@@ 47
them@@ 47
there. 47
ums 47
versuchen 47
well." 47
y.""" 47
zeit@@ 47
zen@@ 47
zus@@ 47
Boden 46
Da 46
Fran@@ 46
Hum@@ 46
Kat@@ 46
Liebe 46
S: 46
Spiel 46
Studi@@ 46
Wochen 46
ago 46
alist@@ 46
auth@@ 46
bab@@ 46
ber, 46
bil@@ 46
damals 46
darin 46
difference 46
dro@@ 46
eight 46
endlich 46
erin 46
flu@@ 46
fully 46
fun@@ 46
fur@@ 46
glaub@@ 46
grow 46
hold 46
hö@@ 46
ic, 46
iel@@ 46
ingen 46
innov@@ 46
issue 46
ka@@ 46
komplett 46
later 46
ler 46
lig@@ 46
län@@ 46
mal, 46
nehmen, 46
neur@@ 46
neuro@@ 46
niemals 46
od@@ 46
omen 46
pping 46
questions 46
sage 46
scientists 46
speak 46
speak@@ 46
ste, 46
stimm@@ 46
tau@@ 46
ted, 46
tik 46
tiny 46
tional 46
ty@@ 46
type 46
ute 46
ve@@ 46
verbrei@@ 46
wechsel@@ 46
wouldn't 46
wrote 46
zeichn@@ 46
zo@@ 46
""Oh, 45
"G@@ 45
"Jetzt 45
300 45
Africa, 45
Auf 45
Bücher 45
Design@@ 45
Fel@@ 45
Finanz@@ 45
Forsch@@ 45
Ist 45
Kl@@ 45
Medi@@ 45
Monate 45
Möglichkeit 45
Pa@@ 45
Per@@ 45
Schw@@ 45
Sh@@ 45
T 45
Vol@@ 45
Wo@@ 45
ame 45
arbeit@@ 45
aut 45
bal@@ 45
bessere 45
cal@@ 45
challenge 45
cle@@ 45
complex 45
dem@@ 45
developed 45
down@@ 45
einz@@ 45
elec@@ 45
end. 45
erwar@@ 45
especially 45
etz@@ 45
falsch 45
führt 45
gaben 45
gesagt, 45
hier, 45
him, 45
humans 45
ian 45
individu@@ 45
kauf@@ 45
keit 45
kin@@ 45
kommen. 45
least 45
leich@@ 45
lower 45
mind 45
mir@@ 45
nation@@ 45
non@@ 45
om 45
paper 45
population 45
practic@@ 45
re. 45
sch 45
schaffen, 45
schnell@@ 45
sonst 45
soziale 45
suchen 45
survi@@ 45
tar@@ 45
tat@@ 45
tern, 45
unten 45
up." 45
voll 45
wan@@ 45
wonderful 45
ziehen 45
""O@@ 44
198@@ 44
?"" 44
?@@ 44
Augen 44
Energie@@ 44
Forschung 44
Gesundheit 44
Jahrhundert 44
Kultur 44
Ob@@ 44
Pal@@ 44
Reihe 44
Schl@@ 44
Tages 44
Tran@@ 44
Vielleicht 44
Wahrheit 44
arm@@ 44
ass 44
asse 44
bat@@ 44
bed 44
bewusst 44
bio@@ 44
bleiben 44
cause 44
cost 44
coun@@ 44
dachte, 44
darum 44
davon, 44
developing 44
die, 44
dist@@ 44
do." 44
drück@@ 44
ently 44
erung 44
extremely 44
fly 44
game 44
gestellt 44
green 44
halten, 44
handel@@ 44
hands 44
heit. 44
hn@@ 44
interpre@@ 44
knowledge 44
liegen 44
local 44
möchte, 44
nature 44
night 44
onto 44
ose 44
out." 44
pati@@ 44
people's 44
quickly 44
role 44
saying, 44
schick@@ 44
sehr, 44
sicher@@ 44
sing 44
spec@@ 44
spo@@ 44
teach 44
techn@@ 44
tex@@ 44
tiert 44
trei@@ 44
unde 44
val@@ 44
well@@ 44
whatever 44
wichtig, 44
will, 44
"Bei 43
18 43
24 43
80@@ 43
African 43
Autos 43
Beg@@ 43
CO2 43
El@@ 43
Frei@@ 43
Gal@@ 43
Gel@@ 43
Gesundheits@@ 43
Gi@@ 43
Gre@@ 43
Mann, 43
National 43
San 43
Super@@ 43
Sü@@ 43
TED@@ 43
Web@@ 43
Werk@@ 43
World 43
X@@ 43
able, 43
activ@@ 43
all. 43
als." 43
are." 43
arti@@ 43
be." 43
becomes 43
begin 43
beyond 43
brachte 43
bringt 43
bt, 43
changes 43
chen. 43
culture 43
denken@@ 43
don@@ 43
explain 43
explo@@ 43
fail@@ 43
fied 43
ft. 43
gesagt 43
geseh@@ 43
getan 43
girls 43
groß 43
groß@@ 43
heiten 43
icht 43
inf@@ 43
interac@@ 43
ja@@ 43
jemanden 43
ju@@ 43
kaum 43
klar@@ 43
komm@@ 43
können. 43
langsam@@ 43
laufen 43
lung 43
market 43
micro@@ 43
neben 43
nennen 43
other@@ 43
poll@@ 43
pu@@ 43
rot@@ 43
running 43
s.""" 43
schul@@ 43
shown 43
slo@@ 43
spä@@ 43
stellung 43
structure 43
technolog@@ 43
technology, 43
treff@@ 43
unglaublich 43
verst@@ 43
vir@@ 43
wann 43
watch 43
watching 43
welches 43
zeug@@ 43
Ä@@ 43
""B@@ 42
"I@@ 42
$@@ 42
'd 42
11 42
Atom@@ 42
Augen@@ 42
Beziehung 42
Bil@@ 42
Bru@@ 42
Chris 42
Design 42
Dr. 42
Gesetz@@ 42
Größe 42
Hoch@@ 42
Lin@@ 42
Lösung 42
Meine 42
Namen 42
Pf@@ 42
Projek@@ 42
Sonnen@@ 42
Wahl@@ 42
Wohn@@ 42
abzu@@ 42
angel@@ 42
ase 42
außer 42
biolog@@ 42
blood 42
capit@@ 42
class@@ 42
cool 42
darum, 42
def@@ 42
dep@@ 42
desto 42
deut@@ 42
develop 42
eat 42
enn@@ 42
ert, 42
fantast@@ 42
forward 42
further 42
gemeinsam 42
go, 42
guten 42
happ@@ 42
hil@@ 42
invol@@ 42
kleiner 42
lernen, 42
les 42
lim@@ 42
ll 42
länger 42
ment. 42
ment." 42
news 42
niedri@@ 42
normal 42
oil 42
ole 42
passiert, 42
path@@ 42
photo@@ 42
post@@ 42
progra@@ 42
prä@@ 42
relationship 42
richtigen 42
robot 42
rul@@ 42
ry, 42
scientific 42
seri@@ 42
short 42
similar 42
sind. 42
sionen 42
sounds 42
source 42
standing 42
steck@@ 42
stehen, 42
surface 42
tig. 42
toll@@ 42
toren 42
unden@@ 42
ust@@ 42
viol@@ 42
voller 42
weltweit 42
wichtige 42
wom@@ 42
zul@@ 42
ähr@@ 42
"Al@@ 41
"Mein 41
"Während 41
Asi@@ 41
Dank. 41
Essen 41
Fin@@ 41
Firma 41
Flug@@ 41
Jahren, 41
Ker@@ 41
Our 41
Plat@@ 41
Rom@@ 41
Studie 41
Tex@@ 41
U.S. 41
Verb@@ 41
Well, 41
Zahl 41
Zugang 41
ance, 41
attention 41
beobach@@ 41
break@@ 41
certainly 41
ched 41
clear@@ 41
commun@@ 41
concep@@ 41
day." 41
down, 41
eben 41
eins 41
enst@@ 41
erle@@ 41
fear@@ 41
fen. 41
fes@@ 41
ffen 41
ges, 41
hack@@ 41
hät@@ 41
ic. 41
ili@@ 41
inves@@ 41
itä@@ 41
jemals 41
jo@@ 41
klar, 41
leuch@@ 41
li 41
liz@@ 41
lässt 41
mak@@ 41
male 41
mehrere 41
nei@@ 41
now. 41
ons, 41
organiz@@ 41
physic@@ 41
problem, 41
reach 41
read@@ 41
result 41
riff@@ 41
rise 41
rules 41
schaffen 41
sea 41
sehe 41
shar@@ 41
spread 41
tan@@ 41
te: 41
teach@@ 41
teilen 41
test@@ 41
thank 41
think@@ 41
tically 41
tics 41
tig, 41
tigkeit 41
tor, 41
train@@ 41
umen 41
unk@@ 41
ure@@ 41
value 41
visu@@ 41
water, 41
white 41
work." 41
works 41
wäre, 41
"Dieses 40
"Vor 40
"Wissen 40
197@@ 40
Ap@@ 40
Danke. 40
Dat@@ 40
Flu@@ 40
Frau@@ 40
Hin@@ 40
Inst@@ 40
Journ@@ 40
Mann@@ 40
Mensch 40
Mittel@@ 40
R: 40
Richtung 40
Robo@@ 40
Ster@@ 40
Sy@@ 40
achen 40
actually, 40
add 40
agen 40
alized 40
ator 40
aufge@@ 40
ay@@ 40
bel 40
bestimmten 40
bir@@ 40
bs 40
ch." 40
chance 40
cop@@ 40
current 40
cy 40
dam@@ 40
dass, 40
dreh@@ 40
eig@@ 40
einge@@ 40
el. 40
entwickelt 40
ern. 40
ersch@@ 40
essentially 40
faszinier@@ 40
gegenüber 40
gend@@ 40
generation 40
gesamte 40
gone 40
govern@@ 40
größten 40
haven't 40
hinter@@ 40
ignor@@ 40
image 40
inge 40
ismus 40
kamen 40
ke@@ 40
könnte, 40
lif@@ 40
low@@ 40
manche 40
mig@@ 40
mission 40
möglichen 40
nisse 40
offen@@ 40
or. 40
particularly 40
point, 40
pol@@ 40
projec@@ 40
psycholog@@ 40
s' 40
sec@@ 40
secon@@ 40
send 40
showing 40
soci@@ 40
stay 40
tens 40
times, 40
trag@@ 40
treffen 40
ulation 40
very@@ 40
vorher@@ 40
weeks 40
wusste 40
y?" 40
yes, 40
äm@@ 40
"Am 39
"CA: 39
., 39
Arbeits@@ 39
Art, 39
Din@@ 39
Gol@@ 39
John 39
Kno@@ 39
Lie@@ 39
Mark@@ 39
Meter 39
Mus@@ 39
OK, 39
Plan@@ 39
Pol@@ 39
Prozess 39
Red@@ 39
Sek@@ 39
Situation 39
Stad@@ 39
Stelle 39
Viele 39
Wi@@ 39
Zusammen@@ 39
ans, 39
area 39
arm 39
ask@@ 39
ately 39
ators 39
bewegen 39
ble, 39
blue 39
cars 39
dark 39
dau@@ 39
ds." 39
eben@@ 39
educ@@ 39
eil 39
ens, 39
est, 39
expec@@ 39
explor@@ 39
famous 39
feet 39
fr@@ 39
gehör@@ 39
gestal@@ 39
globalen 39
gro@@ 39
growth 39
high@@ 39
hören, 39
ig, 39
incredible 39
ism 39
ked 39
kei@@ 39
kept 39
knows 39
kor@@ 39
lab@@ 39
law 39
let@@ 39
liter@@ 39
machen@@ 39
market@@ 39
ms, 39
nachdem 39
ner 39
neues 39
nine 39
o." 39
other." 39
past 39
patients 39
plac@@ 39
promis@@ 39
reden 39
richtige 39
robo@@ 39
scale 39
solve 39
starts 39
ta 39
tausende 39
th. 39
tn@@ 39
traditional 39
un, 39
v 39
wander@@ 39
wert 39
worth 39
written 39
zeit 39
zu, 39
zuerst 39
""Das 38
"Nach 38
"Stellen 38
14@@ 38
196@@ 38
Beispiel, 38
Bereich 38
Einzel@@ 38
Foto 38
Gei@@ 38
Hälfte 38
India 38
Kan@@ 38
Leben, 38
Lehrer 38
Mag@@ 38
Mi@@ 38
Mitte 38
Nach 38
Pe@@ 38
Platz 38
Teil@@ 38
Tr@@ 38
Trau@@ 38
US-@@ 38
Vir@@ 38
Vor 38
Wasser@@ 38
Weil 38
Zwei@@ 38
ably 38
absolutely 38
ani@@ 38
anz 38
beginn@@ 38
besteh@@ 38
betrach@@ 38
bild@@ 38
bus@@ 38
busin@@ 38
case, 38
chan@@ 38
choose 38
comm@@ 38
condi@@ 38
dach@@ 38
das? 38
day. 38
deep 38
dent 38
differ@@ 38
dream 38
dung 38
e"" 38
entfern@@ 38
erkenn@@ 38
erstaun@@ 38
essed 38
findet 38
foo@@ 38
fort@@ 38
gegen@@ 38
gewöhn@@ 38
gn@@ 38
graph@@ 38
gut. 38
helfen, 38
hervor@@ 38
histor@@ 38
hit 38
hundred 38
ice, 38
ici@@ 38
ign@@ 38
itself 38
itz@@ 38
ium 38
las@@ 38
lead 38
leist@@ 38
loo@@ 38
macht, 38
mathema@@ 38
mer, 38
multi@@ 38
non-@@ 38
opportunity 38
quality 38
reading 38
rich 38
rin@@ 38
rü@@ 38
scal@@ 38
schreck@@ 38
sent 38
sex@@ 38
sieben 38
sl@@ 38
soll 38
spr@@ 38
statt 38
streng@@ 38
strong 38
surpris@@ 38
tag 38
th." 38
tief@@ 38
tieren, 38
tlichen 38
to, 38
truly 38
tun. 38
uch@@ 38
ure, 38
versucht 38
vie@@ 38
walking 38
well-@@ 38
wert@@ 38
wish 38
writing 38
wären 38
zeige 38
5,000 37
An 37
Aufgabe 37
Auswirkungen 37
Beh@@ 37
Berei@@ 37
Del@@ 37
Do 37
Fak@@ 37
Fil@@ 37
Film 37
Geschäfts@@ 37
HIV 37
Ihnen, 37
Ju@@ 37
Krank@@ 37
Let 37
Nord@@ 37
North 37
Regier@@ 37
Sa@@ 37
Schritt 37
Schüler 37
Spr@@ 37
Sprach@@ 37
Stat@@ 37
Team 37
Unsere 37
Video 37
Zell@@ 37
ales 37
ality 37
alt@@ 37
alte 37
among 37
answer@@ 37
asch@@ 37
ash@@ 37
asking 37
ath@@ 37
ational 37
atur 37
bemerk@@ 37
besteht 37
bewe@@ 37
blu@@ 37
book@@ 37
ce. 37
cell@@ 37
cha@@ 37
cir@@ 37
computers 37
consider 37
country, 37
cu@@ 37
daher 37
dein 37
discovered 37
eigen@@ 37
einzelnen 37
entwickeln 37
eren, 37
ers." 37
es.""" 37
evidence 37
extra@@ 37
gebaut 37
genann@@ 37
gene 37
gesehen, 37
gingen 37
gleichzeitig 37
großer 37
gut, 37
herum 37
hielt 37
hinzu@@ 37
ien, 37
ight 37
ihres 37
ily 37
ing) 37
it? 37
ive 37
know." 37
legen 37
läu@@ 37
ma 37
milli@@ 37
now." 37
objec@@ 37
oder@@ 37
ort 37
ould 37
place, 37
provide 37
rief 37
rom 37
s; 37
sam 37
sammel@@ 37
school, 37
schätz@@ 37
sel 37
sofort 37
solar 37
sozi@@ 37
sper@@ 37
squ@@ 37
stag@@ 37
statist@@ 37
sts 37
studi@@ 37
system." 37
tem 37
ten: 37
tigen, 37
today. 37
trau@@ 37
treat@@ 37
vari@@ 37
vision 37
vorstell@@ 37
wed 37
wissenschaf@@ 37
zähl@@ 37
ähn@@ 37
é@@ 37
-F@@ 36
America 36
Bedeutung 36
Bewegung 36
Daten@@ 36
Geschichte, 36
Gewalt 36
Haupt@@ 36
Information 36
Internet@@ 36
Is@@ 36
Kontrolle 36
Krieg 36
Labor 36
Luft 36
Medien 36
Möglichkeiten 36
Neuro@@ 36
No 36
Pan@@ 36
Produk@@ 36
So, 36
Stra@@ 36
Uhr 36
Unterschied 36
Verhalten 36
actual 36
ations@@ 36
aw@@ 36
biet@@ 36
biggest 36
bon@@ 36
center 36
cri@@ 36
dern, 36
dig 36
digen 36
dom@@ 36
dor@@ 36
drei@@ 36
eb@@ 36
ented 36
erhöh@@ 36
erklär@@ 36
es: 36
final 36
fron@@ 36
fru@@ 36
gas@@ 36
genden 36
gesetz@@ 36
großes 36
hero@@ 36
hän@@ 36
iert. 36
images 36
impact 36
incredibly 36
individual 36
krei@@ 36
kämp@@ 36
land, 36
langen 36
lehr@@ 36
leicht 36
licht 36
lieb@@ 36
life. 36
ligh@@ 36
ly. 36
ly." 36
major 36
metho@@ 36
mic@@ 36
minutes 36
mobile 36
motiv@@ 36
national 36
nd 36
nutzen, 36
oren 36
organ@@ 36
pe 36
pick 36
produk@@ 36
program 36
setzen, 36
sicher, 36
so. 36
son, 36
spro@@ 36
sy@@ 36
system. 36
talked 36
that? 36
that@@ 36
they've 36
tigt 36
tions. 36
tors 36
uc@@ 36
vorstellen, 36
we'd 36
you'd 36
ären 36
öffentliche 36
öffentlichen 36
üb@@ 36
""L@@ 35
"Unsere 35
60@@ 35
Alter 35
Blut@@ 35
Col@@ 35
Cor@@ 35
Entscheid@@ 35
Erd@@ 35
Fir@@ 35
Gebäu@@ 35
Got@@ 35
Grün@@ 35
I, 35
Idee, 35
Informa@@ 35
Jahrhunder@@ 35
Job 35
K: 35
Krebs 35
Kü@@ 35
Mu@@ 35
Nachrich@@ 35
Nutz@@ 35
Op@@ 35
Paul 35
Punk@@ 35
Reise 35
Star@@ 35
Video@@ 35
Wissenschaftler 35
Yeah, 35
able." 35
approach 35
arch@@ 35
ated, 35
aul@@ 35
available 35
beginnt 35
beide 35
brech@@ 35
bul@@ 35
ced 35
deck@@ 35
dige 35
direc@@ 35
erinnere 35
finding 35
fli@@ 35
forms 35
ften 35
fund@@ 35
fühlen 35
girl 35
glob@@ 35
ground 35
gän@@ 35
haf@@ 35
high-@@ 35
including 35
infec@@ 35
involved 35
isch, 35
ish 35
ists 35
ized 35
junge 35
konnte, 35
körper@@ 35
liebe 35
lung@@ 35
materi@@ 35
meine, 35
mem@@ 35
merk@@ 35
mil@@ 35
moved 35
much. 35
muss, 35
need@@ 35
nice 35
notice 35
nuclear 35
or." 35
other, 35
poin@@ 35
police 35
present 35
reag@@ 35
reality 35
repor@@ 35
rock@@ 35
sahen 35
sent@@ 35
sieht, 35
spür@@ 35
stän@@ 35
suff@@ 35
swe@@ 35
system@@ 35
tives 35
ump@@ 35
up. 35
verteil@@ 35
visual 35
wachsen 35
ward 35
web@@ 35
week@@ 35
wind 35
zeigt, 35
äng@@ 35
ön@@ 35
überhaupt 35
“@@ 35
""D@@ 34
"Vielleicht 34
"Weil 34
1.@@ 34
16 34
Bab@@ 34
Beispiele 34
Bezug 34
Can@@ 34
Chinese 34
Christ@@ 34
Dank@@ 34
Erfolg 34
Europa 34
Fol@@ 34
Freund 34
Gu@@ 34
H: 34
Ira@@ 34
Just 34
Kollegen 34
Mal, 34
Mc@@ 34
Pat@@ 34
Rau@@ 34
Richard 34
Sam@@ 34
Sen@@ 34
Tat 34
Technolog@@ 34
Tier@@ 34
Tri@@ 34
Vereinigten 34
Vortrag 34
Wirtschaft 34
Yor@@ 34
acc@@ 34
action 34
adap@@ 34
al-@@ 34
ann 34
architec@@ 34
areas 34
ay 34
bald 34
becoming 34
begrenz@@ 34
bezahl@@ 34
bis@@ 34
but@@ 34
chten 34
chter@@ 34
class 34
darin, 34
digital 34
disc@@ 34
ehen 34
einfache 34
ement 34
emotional 34
ence. 34
evolution 34
favorite 34
frequ@@ 34
ful, 34
geschaff@@ 34
girl@@ 34
gre@@ 34
großar@@ 34
guess 34
higher 34
hospit@@ 34
hu@@ 34
ils 34
ima@@ 34
increase 34
ingly 34
jec@@ 34
kümmer@@ 34
list 34
lived 34
machine 34
mental 34
nahme 34
nimmt 34
numbers 34
nö@@ 34
of, 34
old, 34
on-@@ 34
out. 34
pack@@ 34
people. 34
perfek@@ 34
play@@ 34
press@@ 34
pul@@ 34
rop@@ 34
rund 34
schn@@ 34
sitz@@ 34
smaller 34
smar@@ 34
speaking 34
stage 34
stron@@ 34
struc@@ 34
stör@@ 34
tells 34
ters, 34
tical 34
together." 34
totally 34
tou@@ 34
ture 34
unterschei@@ 34
unterstütz@@ 34
usi@@ 34
valu@@ 34
verbess@@ 34
version 34
vertrau@@ 34
verwenden 34
vide@@ 34
volle 34
weisen 34
weren't 34
wichtigsten 34
woo@@ 34
zed 34
"Tatsächlich 33
Am 33
Am@@ 33
App@@ 33
Auch 33
B 33
Bed@@ 33
Den@@ 33
Dieser 33
Foto@@ 33
Fähigkeit 33
Glück@@ 33
Grund, 33
Konzept 33
Kraft 33
Künstler 33
Meinung 33
Menschen@@ 33
Nicht 33
Person@@ 33
Programm@@ 33
Rak@@ 33
Ser@@ 33
Sinn@@ 33
Tage 33
Technik 33
Technik@@ 33
Technologien 33
Wass@@ 33
Wieder@@ 33
Wür@@ 33
Zum 33
ah 33
akzep@@ 33
alität 33
aller@@ 33
ance." 33
ancient 33
aner 33
are@@ 33
assen 33
au 33
außerhalb 33
beginnen 33
bekommen, 33
beste 33
blick 33
block@@ 33
box 33
box@@ 33
ching 33
cht, 33
citi@@ 33
cities 33
collabor@@ 33
connected 33
dafür, 33
dest 33
dru@@ 33
druck@@ 33
ds. 33
education 33
effek@@ 33
einig@@ 33
entscheiden@@ 33
entweder 33
erfüll@@ 33
examples 33
famili@@ 33
feel@@ 33
füll@@ 33
für@@ 33
gewinn@@ 33
glei@@ 33
goo@@ 33
grew 33
hast 33
hl 33
hour@@ 33
hy@@ 33
hä@@ 33
identi@@ 33
industry 33
ing-@@ 33
interest@@ 33
international 33
jen@@ 33
journ@@ 33
kan@@ 33
ket@@ 33
kil@@ 33
largest 33
lier@@ 33
ling 33
loss 33
low-@@ 33
lä@@ 33
mei@@ 33
mich@@ 33
miles 33
ne, 33
ni@@ 33
noch@@ 33
now@@ 33
nütz@@ 33
ograph@@ 33
on't 33
one's 33
optimist@@ 33
p, 33
pac@@ 33
plat@@ 33
potential 33
produz@@ 33
robots 33
selben 33
she@@ 33
shel@@ 33
sieh@@ 33
sodass 33
sou@@ 33
sound@@ 33
sowohl 33
sozialen 33
stab@@ 33
student 33
sun@@ 33
supposed 33
ted." 33
ther, 33
thir@@ 33
throughout 33
ties, 33
tisch@@ 33
trotzdem 33
ug@@ 33
ut, 33
verkauf@@ 33
waiting 33
wand@@ 33
weis@@ 33
where, 33
wn 33
ym@@ 33
zig 33
zurück, 33
zuvor 33
äd@@ 33
ös@@ 33
’@@ 33
"Oh, 32
Aufmerksamkeit 32
Besch@@ 32
Coun@@ 32
Ele@@ 32
English 32
Ergebnis 32
Es@@ 32
Fall@@ 32
Fre@@ 32
Funk@@ 32
Gl@@ 32
Hö@@ 32
Im@@ 32
Jahre, 32
Karte 32
Lag@@ 32
Ländern 32
Maß@@ 32
Mis@@ 32
Na@@ 32
Nacht 32
Oper@@ 32
Radi@@ 32
Realität 32
Sonne 32
Straß@@ 32
Umgebung 32
Umwelt@@ 32
Verbindung 32
Wohl@@ 32
Wol@@ 32
able. 32
ach, 32
adver@@ 32
allein 32
allowed 32
ally." 32
angeh@@ 32
ank 32
ary, 32
auch@@ 32
aware 32
ball@@ 32
bereit 32
berühm@@ 32
beschäf@@ 32
blei@@ 32
blick@@ 32
brain, 32
cial 32
continue 32
data, 32
death 32
door 32
dy@@ 32
einiger 32
erhalten 32
evol@@ 32
fire 32
focus 32
frei 32
gebrach@@ 32
glücklich 32
gs, 32
heißt, 32
hoch 32
hon@@ 32
hour 32
ill, 32
in-@@ 32
ind 32
invented 32
ion. 32
itu@@ 32
ka 32
kal@@ 32
kid@@ 32
klar 32
langsam 32
liber@@ 32
lies 32
links 32
ly@@ 32
läs@@ 32
map 32
mom@@ 32
more." 32
mou@@ 32
ological 32
ologie 32
ously, 32
policy 32
pon@@ 32
private 32
protect 32
radi@@ 32
right. 32
schlag@@ 32
schlä@@ 32
schrieb 32
schu@@ 32
schwierig 32
sleep 32
society 32
soon 32
steu@@ 32
teacher 32
testen 32
thes@@ 32
though, 32
thro@@ 32
tiges 32
to-@@ 32
too." 32
total 32
versucht, 32
ves, 32
wants 32
weigh@@ 32
well. 32
wie@@ 32
wollte, 32
yet, 32
yl@@ 32
your@@ 32
zing 32
ück@@ 32
""I'm 31
""Was 31
""You 31
"An 31
"Deshalb 31
"Einige 31
"Okay, 31
1, 31
14 31
4, 31
6, 31
70@@ 31
8, 31
Bal@@ 31
Bildung 31
Bra@@ 31
China, 31
Durch@@ 31
Ebene 31
Emp@@ 31
Erfahrungen 31
Evolution 31
Fähigkeiten 31
Galax@@ 31
Gar@@ 31
Gemeinschaf@@ 31
Geschle@@ 31
Gesellschaf@@ 31
God 31
Gott 31
Grenzen 31
Hirn@@ 31
Ingenie@@ 31
Kind@@ 31
Mut@@ 31
Name 31
Nummer 31
P 31
Por@@ 31
Prot@@ 31
Rat@@ 31
Regeln 31
Rep@@ 31
Revolution 31
Sache, 31
Schlaf@@ 31
Schn@@ 31
Sto@@ 31
Straße 31
Tal@@ 31
Tochter 31
Veränderung 31
Your 31
Zeu@@ 31
Ziel@@ 31
als. 31
anden 31
animal 31
anyone 31
ath 31
ba@@ 31
before, 31
bewer@@ 31
body, 31
build@@ 31
by@@ 31
continu@@ 31
cour@@ 31
creative 31
cru@@ 31
cultural 31
danach 31
dank@@ 31
deep@@ 31
develop@@ 31
drama@@ 31
draw 31
effizi@@ 31
egal 31
eln, 31
emotion@@ 31
en; 31
end." 31
entdeck@@ 31
environmental 31
erzählen 31
ete, 31
etr@@ 31
exam@@ 31
exp@@ 31
fing 31
fit 31
forder@@ 31
fähig@@ 31
gehen. 31
genetic 31
gesamten 31
gest@@ 31
glauben 31
haft 31
halb 31
have, 31
heat 31
helped 31
heraus 31
heutzutage 31
häl@@ 31
ically, 31
ick 31
ics, 31
ies, 31
ies." 31
is: 31
iso@@ 31
ke, 31
kno@@ 31
kompliz@@ 31
licherweise 31
ließ@@ 31
mache 31
machten 31
mass 31
material 31
meaning 31
meant 31
memor@@ 31
mind, 31
model@@ 31
männ@@ 31
möch@@ 31
network 31
ol 31
ong 31
photograph@@ 31
pit@@ 31
politische 31
process, 31
qui@@ 31
ral 31
ready 31
row 31
rän@@ 31
schnei@@ 31
schwer@@ 31
secre@@ 31
sions 31
sowie 31
specific 31
studied 31
suddenly 31
sugges@@ 31
sus@@ 31
taught 31
ted. 31
this? 31
though@@ 31
tischer 31
tively 31
tungen 31
umzu@@ 31
unbedingt 31
ute, 31
ver, 31
verhin@@ 31
verwandel@@ 31
way@@ 31
while, 31
wusste, 31
year." 31
yn@@ 31
ys, 31
zehn 31
zeig@@ 31
zellen 31
zogen 31
Ärzte 31
ähnlich 31
""Hey, 30
"Sch@@ 30
(Beifall) 30
..@@ 30
0@@ 30
4. 30
75 30
AR@@ 30
Amerikaner 30
Bürger@@ 30
Charles 30
Daten, 30
David 30
Denken 30
Deshalb 30
Experim@@ 30
Fach@@ 30
First 30
Gemeinschaft 30
Grupp@@ 30
Herausforderung 30
Imm@@ 30
Innov@@ 30
Jah@@ 30
Kampf 30
Les@@ 30
MR@@ 30
Maschinen 30
Materi@@ 30
Medikam@@ 30
Menschheit 30
Männ@@ 30
Nigeri@@ 30
No, 30
Nun, 30
Oberfläche 30
Personen 30
Politik 30
Relig@@ 30
Rest 30
Sal@@ 30
Schu@@ 30
Sci@@ 30
Stand@@ 30
Stim@@ 30
Städte 30
Sym@@ 30
T: 30
Tod 30
Tra@@ 30
Tre@@ 30
Twitter 30
Typ@@ 30
US@@ 30
Viel@@ 30
Weg@@ 30
Win@@ 30
Wör@@ 30
Wörter 30
ad." 30
ads 30
ante 30
appro@@ 30
ater 30
ations." 30
att@@ 30
bar. 30
bekann@@ 30
bekannt 30
benutzen 30
bigger 30
bist 30
bitte 30
boar@@ 30
bol@@ 30
brains 30
cam@@ 30
causes 30
cent 30
ces 30
check 30
cho@@ 30
ck. 30
clos@@ 30
code 30
communic@@ 30
computer@@ 30
crazy 30
dann, 30
daraus 30
daughter 30
days, 30
dd@@ 30
democra@@ 30
died 30
difficul@@ 30
discover 30
discover@@ 30
echte 30
effect 30
ehn@@ 30
ences 30
engine@@ 30
environment 30
erreichen 30
erstes 30
erwähn@@ 30
esses 30
experiment@@ 30
expla@@ 30
fal@@ 30
falsch@@ 30
fight 30
folgen 30
foot@@ 30
fundamental 30
führen, 30
galax@@ 30
gebracht 30
gene@@ 30
heits@@ 30
held 30
heutigen 30
hop@@ 30
ic." 30
iden@@ 30
ids 30
importantly, 30
inspirier@@ 30
institu@@ 30
intelligen@@ 30
ism, 30
keiner 30
krank@@ 30
lesen 30
ließ 30
life@@ 30
liv@@ 30
ma, 30
machin@@ 30
magine 30
military 30
mittel 30
mm 30
moral 30
mäß@@ 30
nachzu@@ 30
neu 30
normal@@ 30
normalerweise 30
offer 30
os, 30
paper@@ 30
peace 30
reichen 30
relationship@@ 30
room, 30
saf@@ 30
sagten: 30
sav@@ 30
schein@@ 30
sci@@ 30
scor@@ 30
sexu@@ 30
situ@@ 30
som@@ 30
spann@@ 30
story, 30
street 30
t's 30
tat 30
terror@@ 30
theory 30
thern 30
ths 30
tis@@ 30
tiv 30
tung, 30
umin@@ 30
usually 30
vermei@@ 30
vermutlich 30
wind@@ 30
wood 30
würden, 30
yourself 30
zentr@@ 30
zerstör@@ 30
zweiten 30
öff@@ 30
ücke 30
"Dieser 29
"Heute 29
"Natürlich 29
"Viele 29
"Von 29
0 29
2. 29
2000 29
7, 29
A: 29
Ad@@ 29
Amerika 29
Angel@@ 29
Antwor@@ 29
Anzahl 29
Beru@@ 29
Bon@@ 29
Denk@@ 29
Dor@@ 29
Ergebnisse 29
Europe 29
Facebook 29
Familien@@ 29
Flugzeug 29
Frage, 29
Fuß@@ 29
Hor@@ 29
Hü@@ 29
Ih@@ 29
Ka@@ 29
Kin@@ 29
L: 29
MI@@ 29
Nun 29
O 29
Okay. 29
On@@ 29
Ort, 29
Planet@@ 29
Pra@@ 29
Programm 29
Seiten 29
Staaten 29
Stimme 29
TV 29
Unterneh@@ 29
Wege 29
Wert 29
What's 29
Wo 29
Worte 29
Ziele 29
ages 29
ambi@@ 29
ances 29
anschau@@ 29
anten 29
approach@@ 29
are. 29
assi@@ 29
aten, 29
ature 29
average 29
b, 29
band@@ 29
beantwor@@ 29
besitz@@ 29
bli@@ 29
boy 29
brain@@ 29
capacity 29
choice 29
connect 29
cont@@ 29
deci@@ 29
dien@@ 29
dring@@ 29
dritte 29
e; 29
ebenso 29
econ@@ 29
elles 29
endes 29
ending 29
enter 29
ever@@ 29
exten@@ 29
extrem 29
eyes 29
forwar@@ 29
frage 29
fragen, 29
gab@@ 29
gende 29
gewesen 29
gezeigt 29
gotten 29
größer 29
guter 29
handelt 29
hat. 29
heav@@ 29
heil@@ 29
helping 29
history, 29
home, 29
ia, 29
ild@@ 29
improve 29
industri@@ 29
ines 29
inner@@ 29
innovation 29
irgendwo 29
ited 29
jungen 29
kill 29
kri@@ 29
laugh@@ 29
learn@@ 29
lief@@ 29
lieg@@ 29
lives." 29
medic@@ 29
meeting 29
mensch@@ 29
mus 29
near 29
nur, 29
obviously 29
offensichtlich 29
ohn@@ 29
oka@@ 29
optim@@ 29
phon@@ 29
played 29
ple@@ 29
pleas@@ 29
plo@@ 29
pris@@ 29
rein@@ 29
religi@@ 29
resul@@ 29
scheint 29
schwi@@ 29
seln 29
service 29
sla@@ 29
spe@@ 29
special 29
spi@@ 29
stie@@ 29
stop@@ 29
systems, 29
table 29
teachers 29
teaching 29
thre@@ 29
tie@@ 29
tly 29
tons 29
tragen 29
tran@@ 29
transpor@@ 29
two, 29
ual 29
usion 29
utz@@ 29
verdi@@ 29
verändern 29
veröffentlich@@ 29
voice 29
wurden, 29
wähl@@ 29
zug@@ 29
Öl 29
öl@@ 29
""G@@ 28
"Du 28
"Warum 28
--@@ 28
Ac@@ 28
Alle 28
Alles 28
Also, 28
Bus@@ 28
Che@@ 28
Dan@@ 28
Dollar@@ 28
Fehler 28
Formen 28
Frauen, 28
Freund@@ 28
Gefühle 28
Goog@@ 28
Hol@@ 28
Hu@@ 28
Innovation 28
Interak@@ 28
Jung@@ 28
Krieg@@ 28
Lern@@ 28
Luft@@ 28
Mach@@ 28
Mat@@ 28
Material 28
Medizin 28
Muster 28
My@@ 28
Pap@@ 28
Pl@@ 28
Politik@@ 28
Sand@@ 28
Sinne 28
Son@@ 28
Tagen 28
Temper@@ 28
Theorie 28
Vi@@ 28
Vier@@ 28
Wahl 28
Wider@@ 28
Wis@@ 28
]@@ 28
ack 28
acy 28
adi@@ 28
ah, 28
aliz@@ 28
amaz@@ 28
amerikanischen 28
ang, 28
ast, 28
ate." 28
ate@@ 28
aufgrund 28
back." 28
bar, 28
behavior 28
bekam 28
belie@@ 28
billi@@ 28
biological 28
bloo@@ 28
board 28
bottom 28
buil@@ 28
cal 28
calcul@@ 28
camp@@ 28
children, 28
chn@@ 28
chron@@ 28
cke 28
clean 28
combin@@ 28
conf@@ 28
confi@@ 28
control@@ 28
crisis 28
custom@@ 28
da. 28
dadurch 28
ded, 28
der. 28
differences 28
disease 28
diver@@ 28
driving 28
einfach, 28
ennen 28
essenti@@ 28
estim@@ 28
ests 28
expect 28
experienc@@ 28
fair@@ 28
fas@@ 28
fass@@ 28
fen@@ 28
finally, 28
fis@@ 28
follow 28
frühen 28
gefunden 28
gehol@@ 28
goal 28
greater 28
greatest 28
habit@@ 28
hand, 28
healthy 28
heiß@@ 28
help@@ 28
hou@@ 28
hung@@ 28
hängt 28
ige, 28
ine@@ 28
instrum@@ 28
intelligence 28
interessier@@ 28
ise 28
issu@@ 28
jek@@ 28
kill@@ 28
kit@@ 28
kra@@ 28
kun@@ 28
lad@@ 28
lagen 28
larger 28
laws 28
lieben 28
mark 28
mas@@ 28
measure 28
mod@@ 28
myself, 28
nachhal@@ 28
nearly 28
ology 28
opportun@@ 28
ors, 28
placed 28
ple 28
problem." 28
process@@ 28
ran 28
raus@@ 28
reac@@ 28
reduz@@ 28
right." 28
schließ@@ 28
schneller 28
selbst, 28
self." 28
sequ@@ 28
sim@@ 28
smo@@ 28
sn@@ 28
so." 28
soli@@ 28
sprach@@ 28
sted 28
story. 28
strategi@@ 28
stärk@@ 28
tei@@ 28
thei@@ 28
thers 28
thin@@ 28
this: 28
tief 28
tiere 28
tin 28
treat 28
treten 28
two-@@ 28
ulate 28
univers@@ 28
unterrich@@ 28
uren 28
vent@@ 28
verlassen 28
verletz@@ 28
violence 28
vorzu@@ 28
walked 28
weiteres 28
weiterhin 28
who's 28
wiederhol@@ 28
wissen@@ 28
zer 28
ziehen, 28
zuneh@@ 28
zz@@ 28
»@@ 28
"Da@@ 27
"Zu 27
600 27
Ander@@ 27
Ang@@ 27
Beweg@@ 27
Big 27
CE@@ 27
Cha@@ 27
City 27
Dingen 27
Fernseh@@ 27
Flü@@ 27
Forscher 27
Fotos 27
Gem@@ 27
Glauben 27
Größ@@ 27
HIV@@ 27
Ital@@ 27
Janu@@ 27
Juli@@ 27
Kam@@ 27
Klei@@ 27
Klima@@ 27
Kopf@@ 27
La 27
Lassen 27
Leuten, 27
Lö@@ 27
Mitgefühl 27
Pho@@ 27
Preis 27
Raum@@ 27
Schiff 27
Schrit@@ 27
Solar@@ 27
Spezies 27
Struktur 27
Studien 27
UN@@ 27
Vari@@ 27
Vort@@ 27
Wirtschafts@@ 27
Zahlen 27
Zukun@@ 27
ace 27
activity 27
ad. 27
adop@@ 27
aging 27
ahr@@ 27
alter 27
anst@@ 27
anybody 27
ars 27
asi@@ 27
ately, 27
attac@@ 27
away." 27
bed@@ 27
beeinflus@@ 27
befinden 27
berich@@ 27
beru@@ 27
bestimmte 27
betre@@ 27
bieten 27
bilden 27
bleiben@@ 27
brings 27
camera 27
challenges 27
change, 27
clin@@ 27
colle@@ 27
color 27
conversa@@ 27
corpor@@ 27
cover 27
d.""" 27
death@@ 27
decide 27
despite 27
down." 27
dur@@ 27
ect 27
einzelne 27
eless 27
energy, 27
entlich 27
environment, 27
eres 27
erkennen 27
erklären, 27
erleb@@ 27
ernähr@@ 27
erreicht 27
et's 27
eter 27
experiment 27
fach@@ 27
factor@@ 27
familiar 27
fangen 27
fill 27
financial 27
finden. 27
fliegen 27
focused 27
formed 27
früher 27
fte 27
ful. 27
func@@ 27
fäll@@ 27
gelernt 27
gestellt, 27
gewes@@ 27
glich 27
globale 27
ground@@ 27
happiness 27
herauszu@@ 27
herunter@@ 27
höch@@ 27
identify 27
imag@@ 27
impac@@ 27
invest@@ 27
issues 27
kes 27
kne@@ 27
könnten, 27
late 27
laut 27
lights 27
lob@@ 27
lös@@ 27
massive 27
materials 27
message 27
moder@@ 27
movem@@ 27
mäch@@ 27
nenne 27
ness, 27
neun 27
no, 27
not@@ 27
nother 27
nur@@ 27
oh, 27
ologen 27
one-@@ 27
ook 27
order@@ 27
ous. 27
paid 27
pain 27
pe." 27
percent." 27
pla@@ 27
plan 27
position 27
pra@@ 27
proper@@ 27
provi@@ 27
prü@@ 27
push 27
ration@@ 27
reasons 27
recht@@ 27
redu@@ 27
refle@@ 27
risk@@ 27
ro 27
ros@@ 27
rück@@ 27
safe 27
schön 27
sens@@ 27
series 27
setzt 27
sex 27
simp@@ 27
sinn@@ 27
sist@@ 27
situation 27
sprach 27
statt@@ 27
stud@@ 27
t"" 27
tain 27
terri@@ 27
tete, 27
theor@@ 27
thinking, 27
tigung 27
toler@@ 27
touch 27
truth 27
trä@@ 27
tter@@ 27
tum@@ 27
types 27
understand@@ 27
unglaub@@ 27
verl@@ 27
vol@@ 27
vorher 27
weder 27
wichtigen 27
wirtschaf@@ 27
year@@ 27
zeigte 27
zug 27
zw@@ 27
zü@@ 27
Öl@@ 27
ße 27
ändern 27
ärk@@ 27
ät 27
ät@@ 27
"". 26
""No@@ 26
""Wir 26
"Nein, 26
.) 26
10,000 26
1990@@ 26
2,@@ 26
Ahn@@ 26
Amerik@@ 26
Anti@@ 26
B. 26
Beine 26
Des@@ 26
Earth@@ 26
Ehr@@ 26
Em@@ 26
Ereig@@ 26
European 26
Fe@@ 26
Fehl@@ 26
Fü@@ 26
Gener@@ 26
Gro@@ 26
Herzen 26
Hoffn@@ 26
John@@ 26
Kapit@@ 26
Ken@@ 26
Konflik@@ 26
Kre@@ 26
Lernen 26
Lich@@ 26
Liste 26
Nachbar@@ 26
Nich@@ 26
Noch 26
Nur 26
Ordn@@ 26
Polizei 26
Prof@@ 26
Rech@@ 26
Rä@@ 26
Schwar@@ 26
Schwei@@ 26
Sehen 26
Sicherheit 26
Sinn 26
Spaß 26
Steu@@ 26
Stre@@ 26
Swe@@ 26
TV@@ 26
Tief@@ 26
Tur@@ 26
Vo@@ 26
When 26
Wirklichkeit 26
Wissenschaf@@ 26
Wur@@ 26
accep@@ 26
achie@@ 26
affect 26
again." 26
alle, 26
alone 26
amen 26
ano@@ 26
around, 26
arri@@ 26
at." 26
ax@@ 26
bares 26
bedro@@ 26
bes 26
besu@@ 26
bewusst@@ 26
bru@@ 26
bunch 26
calls 26
cases 26
change." 26
change@@ 26
cking 26
communicate 26
compan@@ 26
conserv@@ 26
dabei, 26
daily 26
depres@@ 26
did." 26
dly, 26
doctors 26
draußen 26
dream@@ 26
drive 26
dynam@@ 26
einfachen 26
engage 26
enormous 26
entirely 26
enzen 26
eter@@ 26
eventually 26
extraordinary 26
fak@@ 26
fertig 26
fiel@@ 26
fine 26
fix 26
fle@@ 26
foot 26
four@@ 26
freedom 26
friends, 26
ful." 26
games 26
geni@@ 26
giant 26
greif@@ 26
h. 26
has@@ 26
highly 26
hoffe, 26
hope@@ 26
humanity 26
hur@@ 26
immer, 26
income 26
indic@@ 26
individuals 26
ings@@ 26
interag@@ 26
interessan@@ 26
ire 26
ital 26
jemandem 26
kam, 26
lap@@ 26
ließen 26
link@@ 26
listen 26
loc@@ 26
losen 26
lösen 26
meet@@ 26
memory 26
mes@@ 26
minim@@ 26
moment, 26
more, 26
mostly 26
okay, 26
oun@@ 26
perfect 26
period 26
plus 26
pose 26
punk@@ 26
quar@@ 26
r, 26
recently 26
recognize 26
revol@@ 26
rier 26
s"" 26
sah@@ 26
schi@@ 26
seite 26
separate 26
set@@ 26
shif@@ 26
sicht@@ 26
skin 26
sleep@@ 26
slightly 26
so: 26
solchen 26
spielen, 26
st-@@ 26
stelle 26
stick@@ 26
successful 26
surfac@@ 26
sustainable 26
sü@@ 26
t; 26
teil 26
theore@@ 26
three-@@ 26
time@@ 26
ting, 26
today." 26
täglich 26
ular 26
univer@@ 26
untersuch@@ 26
various 26
verbunden 26
verrück@@ 26
voraus@@ 26
wachsen@@ 26
wahrschein@@ 26
water." 26
wü@@ 26
zell@@ 26
zes 26
zeug 26
ziel@@ 26
Ü@@ 26
""-@@ 25
""C@@ 25
""M@@ 25
""This 25
""Warum 25
""What 25
"Des@@ 25
"Nicht 25
"Unser 25
"Ver@@ 25
"[@@ 25
(Music) 25
100@@ 25
13@@ 25
15@@ 25
2.@@ 25
9, 25
AIDS 25
Afrik@@ 25
Außen@@ 25
Bei 25
Bei@@ 25
Besonder@@ 25
Best@@ 25
British 25
Bur@@ 25
Californi@@ 25
Cl@@ 25
Demokratie 25
Einfluss 25
Entwick@@ 25
Erkenn@@ 25
Et@@ 25
Firmen 25
Fähigkeit, 25
Führ@@ 25
Grad 25
Helden 25
Hinter@@ 25
Industri@@ 25
K, 25
Kal@@ 25
Kun@@ 25
Lang@@ 25
Leidenschaft 25
Lös@@ 25
Lösungen 25
Markt 25
Mars 25
Monaten 25
Museum 25
Natur@@ 25
Olymp@@ 25
Risik@@ 25
S-@@ 25
Schön@@ 25
Sim@@ 25
Stellen 25
Straßen 25
Ton@@ 25
University 25
Weg, 25
West 25
Where 25
Wirk@@ 25
abo@@ 25
about." 25
ager 25
agree 25
allows 25
anger 25
antwor@@ 25
applic@@ 25
argum@@ 25
ate. 25
begannen 25
benötig@@ 25
besei@@ 25
call@@ 25
car, 25
ce@@ 25
ch. 25
chemical 25
cle 25
clearly 25
competi@@ 25
conven@@ 25
critical 25
danke 25
dav@@ 25
dec@@ 25
decisions 25
del 25
des, 25
detec@@ 25
devic@@ 25
directly 25
duc@@ 25
ebenfalls 25
echt 25
eich@@ 25
eile 25
einzigen 25
entwickelten 25
erkann@@ 25
erschaff@@ 25
erw@@ 25
ese 25
esten 25
experim@@ 25
feed 25
fic@@ 25
finanz@@ 25
gab, 25
ganzes 25
gas 25
gender 25
genom@@ 25
gerä@@ 25
gesp@@ 25
gradu@@ 25
halte 25
ial 25
ing? 25
job@@ 25
jump@@ 25
keiten, 25
kel@@ 25
kid 25
klein 25
komplex@@ 25
kop@@ 25
le-@@ 25
lebt 25
legen, 25
leit@@ 25
ler, 25
ley 25
lichkeit@@ 25
limit@@ 25
listening 25
machines 25
many, 25
med 25
mehr, 25
models 25
morning 25
movement 25
movi@@ 25
mt 25
möglich, 25
nar@@ 25
nature, 25
nobody 25
nutri@@ 25
offen 25
ory 25
particip@@ 25
pe. 25
pictures 25
planet@@ 25
plant 25
popular 25
print 25
progres@@ 25
punkt 25
raised 25
reden, 25
report 25
resist@@ 25
resources 25
response 25
results 25
ries@@ 25
s) 25
san@@ 25
schei@@ 25
schl@@ 25
schle@@ 25
schlechte 25
search 25
sed 25
shape 25
shared 25
sichtlich 25
sitzen 25
slow 25
software 25
sollte, 25
solu@@ 25
sorts 25
spac@@ 25
spezi@@ 25
steht, 25
stress 25
struktur@@ 25
sts, 25
studies 25
sucht 25
sul@@ 25
syn@@ 25
tive, 25
together. 25
tool 25
tool@@ 25
trained 25
travel 25
trust 25
two@@ 25
unge@@ 25
verlor@@ 25
vern@@ 25
versteck@@ 25
wave 25
ways, 25
wearing 25
weiteren 25
weiß@@ 25
welcher 25
what@@ 25
whose 25
willing 25
windo@@ 25
worden 25
wuch@@ 25
yst@@ 25
Ö@@ 25
ände 25
""P@@ 24
""Why 24
"Ja, 24
's, 24
-year-old 24
3, 24
400 24
A-@@ 24
Anwend@@ 24
Artikel 24
At@@ 24
Ban@@ 24
Behand@@ 24
Bost@@ 24
Danke 24
Dem@@ 24
Don@@ 24
Dorf 24
Druck@@ 24
Erfahr@@ 24
Familien 24
Gerä@@ 24
Heute 24
Hoffnung 24
Hän@@ 24
Hände 24
Instrum@@ 24
Internet, 24
Jahrzehn@@ 24
Leu@@ 24
Mad@@ 24
Markt@@ 24
Modell 24
Möglich@@ 24
Nahrung 24
Netz@@ 24
Ozean@@ 24
Problemen 24
Schei@@ 24
Sicher@@ 24
Sicht 24
Sol@@ 24
Spe@@ 24
Spitze 24
Studenten 24
Systeme 24
Teile 24
Tim@@ 24
Tor@@ 24
Trans@@ 24
U.@@ 24
US 24
Um 24
Verantwortung 24
Version 24
Wat@@ 24
Wer 24
Wirtschaf@@ 24
York, 24
Zelle 24
age@@ 24
agen@@ 24
ahead 24
ak 24
alismus 24
alten, 24
although 24
analy@@ 24
ands 24
ant, 24
ant." 24
anxi@@ 24
appe@@ 24
apply 24
ative, 24
ats 24
aver@@ 24
away, 24
began@@ 24
behandel@@ 24
bekommt 24
besonder@@ 24
bezeichn@@ 24
bleibt 24
body's 24
book, 24
brei@@ 24
bridge 24
ca 24
cel@@ 24
cold 24
collec@@ 24
comfortable 24
compar@@ 24
conc@@ 24
consider@@ 24
contex@@ 24
conversation 24
correc@@ 24
countries, 24
cris@@ 24
cros@@ 24
crow@@ 24
danc@@ 24
darf 24
day@@ 24
dent@@ 24
dete 24
development 24
dn@@ 24
docum@@ 24
drop 24
echten 24
ee 24
ency 24
ents." 24
entwickelt, 24
era 24
erforsch@@ 24
essing 24
etri@@ 24
exciting 24
faster 24
fei@@ 24
fern@@ 24
fig@@ 24
finde 24
fo@@ 24
following 24
forest 24
formen 24
fortun@@ 24
gegeben@@ 24
gei@@ 24
general 24
genutzt 24
ger. 24
gli@@ 24
good. 24
hab 24
hate 24
health@@ 24
herstell@@ 24
hes 24
hinein@@ 24
hlen 24
indi@@ 24
initi@@ 24
ior 24
ish@@ 24
iver@@ 24
ject 24
jene 24
jetz@@ 24
join 24
journey 24
kel 24
kind@@ 24
komme 24
konnten, 24
kost@@ 24
labor@@ 24
lack 24
lag 24
ld@@ 24
leads 24
lernte 24
les, 24
less@@ 24
lle 24
läuft 24
masch@@ 24
mmer@@ 24
mom 24
mögliche 24
na@@ 24
nachdenken, 24
neighbor@@ 24
nennt 24
nie@@ 24
object 24
objects 24
obvi@@ 24
oce@@ 24
offic@@ 24
opin@@ 24
ordin@@ 24
ough 24
pag@@ 24
pair@@ 24
passieren 24
pattern 24
perio@@ 24
place." 24
platz@@ 24
politischen 24
posed 24
possibly 24
profession@@ 24
reason@@ 24
reduce 24
regul@@ 24
righ@@ 24
rights 24
schütz@@ 24
self. 24
sense, 24
sie: 24
sier@@ 24
sit 24
solution 24
sterben 24
succ@@ 24
success 24
sup@@ 24
symbo@@ 24
systeme 24
ter-@@ 24
than@@ 24
there@@ 24
thousand 24
thri@@ 24
tive. 24
tom@@ 24
ton, 24
trauma@@ 24
ture." 24
tw@@ 24
ty." 24
um? 24
understood 24
unterschiedlichen 24
versuche 24
verursach@@ 24
verwendet 24
vic@@ 24
village 24
wa 24
war. 24
ware, 24
wever, 24
wn, 24
wohner 24
ws, 24
yp@@ 24
ze, 24
zero 24
zur@@ 24
öffnet@@ 24
überrasch@@ 24
""Die 23
""K@@ 23
""Wie 23
16@@ 23
21. 23
3. 23
Anfang@@ 23
Angeles 23
Arm 23
Betrach@@ 23
Beziehungen 23
Bio@@ 23
Bühne 23
D: 23
Debat@@ 23
Depres@@ 23
Der@@ 23
Earth, 23
Erwachsen@@ 23
Fer@@ 23
Fluss 23
Flüchtl@@ 23
Fortschritt 23
Genau@@ 23
Hau@@ 23
Herausforder@@ 23
Hon@@ 23
Hy@@ 23
Hör@@ 23
Keny@@ 23
Konzep@@ 23
Krankheit 23
Krei@@ 23
Krise 23
Like 23
London 23
Mas@@ 23
Medikamente 23
Middle 23
Mittel 23
Not@@ 23
OK. 23
Oh, 23
Okay, 23
Pfle@@ 23
Prei@@ 23
Prinzip 23
Produkte 23
Publikum 23
Q@@ 23
Schauen 23
Sohn 23
Som@@ 23
Spa@@ 23
Stamm@@ 23
Städten 23
T-@@ 23
Teilen 23
Terror@@ 23
Titel 23
Tonnen 23
Tro@@ 23
Untersuch@@ 23
Vergangenheit 23
Verletz@@ 23
Versch@@ 23
Veränderungen 23
Wachstum 23
Werkzeuge 23
Western 23
Yeah. 23
Zahl@@ 23
Zer@@ 23
adul@@ 23
ail@@ 23
air, 23
alien 23
alleine 23
ana 23
anger@@ 23
ants 23
anywhere 23
arbeit 23
arbeite 23
arbeitet 23
ard@@ 23
aries 23
arms 23
außerdem 23
base 23
behaup@@ 23
behavi@@ 23
believed 23
bell@@ 23
bild 23
bin, 23
bot@@ 23
brachten 23
century, 23
chem@@ 23
chick@@ 23
cles 23
colon@@ 23
compared 23
compassion 23
concent@@ 23
constantly 23
darauf, 23
dasselbe 23
dead 23
decision@@ 23
dran@@ 23
economy 23
ee@@ 23
emo@@ 23
energ@@ 23
enten, 23
enter@@ 23
entrepreneur@@ 23
ep 23
ering 23
ermöglich@@ 23
ermöglicht 23
erzählte 23
etwas@@ 23
exc@@ 23
eye 23
family, 23
feels 23
fein@@ 23
fel 23
fest, 23
film 23
foc@@ 23
forget 23
fällt 23
förder@@ 23
gain, 23
gegeben 23
genommen, 23
gering@@ 23
geschrieben 23
gesprochen 23
gewor@@ 23
glo@@ 23
gol@@ 23
graduate 23
group@@ 23
groups 23
grow@@ 23
großartige 23
größere 23
günst@@ 23
hair 23
hair@@ 23
hearing 23
him@@ 23
hing 23
hoff@@ 23
hohen 23
hörte 23
ilo@@ 23
ina 23
indeed, 23
interest 23
ison 23
it.""" 23
it?" 23
ix@@ 23
jobs 23
just@@ 23
klingt 23
know@@ 23
kosten@@ 23
krieg@@ 23
leaders 23
left, 23
lieren 23
ligen 23
los, 23
lung, 23
lungs@@ 23
manip@@ 23
markets 23
math 23
ming 23
missing 23
modi@@ 23
month@@ 23
moral@@ 23
much." 23
mögen 23
n'@@ 23
necessarily 23
negative 23
nenn@@ 23
night, 23
occur@@ 23
off." 23
olo@@ 23
ooper@@ 23
part@@ 23
perfec@@ 23
performance 23
pha@@ 23
pieces 23
points 23
possibility 23
production 23
programs 23
projects 23
published 23
r. 23
rain@@ 23
recent 23
requires 23
rieben 23
right@@ 23
rip@@ 23
run@@ 23
sat@@ 23
scen@@ 23
school@@ 23
schwierig@@ 23
schönen 23
scienti@@ 23
seemed 23
sell 23
serious 23
serve 23
sicht 23
sity, 23
siv@@ 23
solutions 23
somewhere 23
somit 23
sprich@@ 23
stei@@ 23
step@@ 23
strange 23
studying 23
success@@ 23
tain@@ 23
tausend 23
they'll 23
this@@ 23
throw 23
tierten 23
tisches 23
to. 23
transpar@@ 23
ture. 23
turn@@ 23
uli@@ 23
ull@@ 23
unk 23
useful 23
ver." 23
verwenden, 23
verwirr@@ 23
verändert 23
vit@@ 23
vorbei@@ 23
whe@@ 23
wid@@ 23
wide 23
wife 23
with, 23
wählen 23
z.B. 23
zustellen, 23
äs@@ 23
öpf@@ 23
üt@@ 23
""F@@ 22
"Ihr 22
"Manche 22
"Manchmal 22
"Wer 22
&amp;@@ 22
13 22
194@@ 22
1960@@ 22
5. 22
800 22
A, 22
Aktiv@@ 22
Americans 22
Arm@@ 22
Armut 22
Autor@@ 22
Babys 22
Bat@@ 22
Beginn 22
Chirur@@ 22
Deutsch@@ 22
Effek@@ 22
England 22
Erleb@@ 22
Experiment 22
Gene 22
George 22
Gewal@@ 22
Grundlage 22
Hal@@ 22
Heil@@ 22
Infrastruktur 22
Intelligenz 22
Interess@@ 22
Japan 22
Jer@@ 22
Jugend@@ 22
Jungen 22
Kinder, 22
Kindheit 22
Kli@@ 22
Kn@@ 22
Krebs@@ 22
Kultur@@ 22
La@@ 22
Land, 22
Laufe 22
Länder@@ 22
Maschin@@ 22
Maybe 22
Medizin@@ 22
Mei@@ 22
Methode 22
Mö@@ 22
Möglichkeit, 22
Nachricht 22
Ner@@ 22
New@@ 22
Objekt 22
Organisation 22
Partner 22
RN@@ 22
Reaktion 22
Rechn@@ 22
Recht 22
Selb@@ 22
Spiele 22
Stattdessen 22
Sum@@ 22
Syn@@ 22
Todes@@ 22
Trä@@ 22
Vat@@ 22
Vergleich 22
Verständnis 22
Von 22
Wachst@@ 22
Wasser, 22
Wort@@ 22
Zeitpunkt 22
abor@@ 22
ago." 22
agre@@ 22
aktiv 22
allowing 22
ancy 22
annt 22
ants, 22
arbeitete 22
artificial 22
artists 22
ash 22
assign@@ 22
at. 22
ause 22
ausges@@ 22
baby 22
bau 22
beach@@ 22
benutzen, 22
berühr@@ 22
besser@@ 22
bling 22
body." 22
boo@@ 22
brach@@ 22
bran@@ 22
calling 22
caught 22
choo@@ 22
cies 22
cker@@ 22
clusi@@ 22
colleagues 22
collective 22
concept 22
conflic@@ 22
construc@@ 22
context 22
conver@@ 22
cot@@ 22
cultur@@ 22
dann@@ 22
dene 22
der." 22
dier@@ 22
dieselbe 22
dio@@ 22
dlich 22
dlichen 22
dollars, 22
dou@@ 22
drug 22
e?""" 22
education, 22
eigenes 22
einander@@ 22
einhalb 22
emotions 22
enden, 22
entwer@@ 22
entwickeln, 22
environ@@ 22
erv@@ 22
erzählen, 22
es?" 22
ets, 22
etzt 22
eur@@ 22
ewi@@ 22
except 22
explore 22
extre@@ 22
findet, 22
first, 22
folg@@ 22
forsch@@ 22
freund@@ 22
fuhr 22
fun 22
fung 22
führte 22
gebe 22
gebro@@ 22
gelang@@ 22
gesellschaf@@ 22
gh 22
great@@ 22
hang@@ 22
her." 22
hiel@@ 22
him." 22
hot 22
ied 22
ier, 22
ific@@ 22
ik, 22
important, 22
increasing 22
industr@@ 22
inner 22
interessante 22
ismus, 22
izing 22
journe@@ 22
kenne 22
km 22
kontrollier@@ 22
kraft@@ 22
künst@@ 22
kürz@@ 22
lands 22
letz@@ 22
light, 22
limited 22
lli@@ 22
lok@@ 22
lungen 22
magic 22
manage 22
marri@@ 22
medizinischen 22
members 22
messen 22
minist@@ 22
mir: 22
mit, 22
mitten 22
mix@@ 22
molecul@@ 22
ms." 22
much, 22
nach, 22
nahe 22
natur@@ 22
natürliche 22
necessary 22
nel 22
noticed 22
ns 22
ny 22
off, 22
ollen 22
passi@@ 22
pec@@ 22
phys@@ 22
plastic 22
potenti@@ 22
problem@@ 22
produced 22
products 22
programm@@ 22
project, 22
proz@@ 22
purpo@@ 22
ra 22
rant 22
rechte 22
rechten 22
rei 22
related 22
religious 22
remember@@ 22
researchers 22
respond 22
revolution 22
rid 22
ring 22
road 22
rocket 22
rooms 22
rup@@ 22
sagten, 22
sah, 22
schlag 22
schlecht 22
science, 22
security 22
sei, 22
seines 22
shor@@ 22
shot 22
sign 22
site 22
smart 22
standard 22
stellt, 22
stellten 22
structure, 22
synthes@@ 22
teren 22
ties." 22
town 22
traf 22
un 22
urban 22
urteil@@ 22
ution, 22
ution. 22
vergleich@@ 22
verloren 22
versuch@@ 22
voc@@ 22
week 22
wenden 22
wichtiger 22
with@@ 22
women, 22
wör@@ 22
ye@@ 22
zehn@@ 22
zog 22
ßt 22
ücken 22
""Es 21
""How 21
""If 21
"Auch 21
"Dar@@ 21
"Denken 21
"Nur 21
"die 21
11@@ 21
12@@ 21
195@@ 21
21 21
50,000 21
700 21
A. 21
Abend 21
Abl@@ 21
Aff@@ 21
Algorithmen 21
America, 21
Antworten 21
Architek@@ 21
As 21
As@@ 21
At 21
Ath@@ 21
Australi@@ 21
Ball@@ 21
Behandlung 21
Bevölker@@ 21
Bild, 21
Büch@@ 21
CO@@ 21
Chance 21
Cra@@ 21
Cy@@ 21
E-Ma@@ 21
Eben@@ 21
Eis 21
Farbe 21
Fas@@ 21
Feu@@ 21
Frau, 21
Fund@@ 21
Haiti 21
Health 21
Ill@@ 21
Jeder 21
K 21
Kaff@@ 21
Kamer@@ 21
Kap@@ 21
Kol@@ 21
Kolle@@ 21
Kosten 21
Kranken@@ 21
Krankheiten 21
Kön@@ 21
Können 21
Lau@@ 21
Licht@@ 21
Mathematik 21
Men@@ 21
Mess@@ 21
Mexic@@ 21
Minut@@ 21
Mom@@ 21
Nahrungs@@ 21
Natürlich 21
Netzwerk 21
No. 21
OK@@ 21
Orte 21
Orten 21
Pflanzen 21
Pres@@ 21
Privat@@ 21
Publikum: 21
Ressourcen 21
Schiff@@ 21
School 21
Schrei@@ 21
Schwe@@ 21
Seh@@ 21
Sex@@ 21
Sing@@ 21
Sou@@ 21
Spezi@@ 21
Strategi@@ 21
Stunde 21
Stör@@ 21
Suche 21
Technologie, 21
Themen 21
Toilet@@ 21
Tum@@ 21
Tür@@ 21
Umwelt 21
Unterschiede 21
Ven@@ 21
Vielfalt 21
Vis@@ 21
Vision 21
Völk@@ 21
Wahr@@ 21
Werte 21
Willi@@ 21
able@@ 21
absolut 21
absor@@ 21
acci@@ 21
addition 21
afford 21
ahn 21
alist 21
alists 21
alitä@@ 21
allo@@ 21
ally. 21
amerikanische 21
an: 21
ann, 21
anne 21
ano 21
appear 21
atives 21
atmosp@@ 21
auftau@@ 21
babies 21
belieb@@ 21
benutzt 21
beschrei@@ 21
bestimmt 21
bewahr@@ 21
bilit@@ 21
bloß 21
bodies 21
bought 21
boys 21
brain." 21
brauchen, 21
brauchte 21
catch 21
caused 21
challeng@@ 21
child@@ 21
choic@@ 21
commit@@ 21
communities 21
community, 21
complete 21
comput@@ 21
core 21
creativ@@ 21
curr@@ 21
dauer@@ 21
debate 21
defini@@ 21
denkt, 21
dent, 21
denti@@ 21
derung 21
designers 21
destro@@ 21
deutlich 21
diagno@@ 21
diejenigen, 21
din@@ 21
distribu@@ 21
dly 21
done, 21
efficient 21
ei 21
eigh@@ 21
einzigar@@ 21
electro@@ 21
elling 21
else." 21
empower@@ 21
empty 21
en"" 21
engli@@ 21
enh@@ 21
ening 21
errich@@ 21
erzeu@@ 21
erzeug@@ 21
esse 21
experiences 21
extreme 21
f. 21
feu@@ 21
ff 21
figh@@ 21
fing@@ 21
fire@@ 21
fix@@ 21
fla@@ 21
flying 21
folge 21
forced 21
foreign 21
forever@@ 21
function 21
funktion@@ 21
funktionieren 21
funktioniert, 21
furcht@@ 21
fühlen, 21
führung 21
geleg@@ 21
gem 21
gemacht, 21
genannt 21
genu@@ 21
ges. 21
gilt 21
ging@@ 21
glau@@ 21
gros@@ 21
grund 21
grupp@@ 21
hadn't 21
han@@ 21
hauptsächlich 21
heirat@@ 21
herauszufinden, 21
hid@@ 21
hundert 21
hus@@ 21
hält 21
ies. 21
impossible 21
information, 21
ing: 21
ingu@@ 21
integr@@ 21
invest 21
invited 21
ip 21
klin@@ 21
kol@@ 21
kraft 21
ku@@ 21
lach@@ 21
lasse 21
leading 21
lesson 21
lichkeit, 21
listen@@ 21
lossen 21
love, 21
luck@@ 21
ments, 21
minds 21
moderne 21
molecules 21
money, 21
mother, 21
mus, 21
mü@@ 21
nat@@ 21
nic@@ 21
nieder@@ 21
ning 21
noise 21
not, 21
näher 21
obvious 21
office 21
ogra@@ 21
ons." 21
ous." 21
party 21
pass 21
patient 21
pet@@ 21
plants 21
poor@@ 21
present@@ 21
prevent 21
primary 21
priv@@ 21
problem. 21
product 21
profit 21
question, 21
question: 21
quo@@ 21
rechn@@ 21
reflec@@ 21
reich 21
rein 21
religion 21
remarkable 21
ren 21
rep@@ 21
represent 21
ror@@ 21
ruh@@ 21
sand 21
sand@@ 21
schauen, 21
schlim@@ 21
schnit@@ 21
schrit@@ 21
ses@@ 21
sh 21
shoo@@ 21
signals 21
small@@ 21
sollen 21
song 21
speich@@ 21
spezif@@ 21
spielt 21
spir@@ 21
spreche 21
sterb@@ 21
stick 21
stoff 21
stoffe 21
store 21
survive 21
sä@@ 21
tal 21
talks 21
tem@@ 21
tere 21
test, 21
text 21
tici@@ 21
tiz@@ 21
tle, 21
to." 21
trees 21
träge 21
tungs@@ 21
turning 21
tut 21
ume 21
ume, 21
unden, 21
unterschiedliche 21
uti@@ 21
visit 21
vorstellen 21
wasser@@ 21
weap@@ 21
welt 21
wenige 21
werk@@ 21
wet@@ 21
who@@ 21
whom 21
win 21
wohl@@ 21
works. 21
zeu@@ 21
zimmer 21
zin@@ 21
zt 21
zumindest 21
ßen, 21
äf@@ 21
älter 21
""J@@ 20
"Di@@ 20
"Je@@ 20
"Lassen 20
"Obwohl 20
-B@@ 20
1970@@ 20
Afric@@ 20
African@@ 20
Alex@@ 20
Ali@@ 20
Arz@@ 20
Astron@@ 20
Atmosphäre 20
Aufgaben 20
Auge 20
Bien@@ 20
Blut 20
Boo@@ 20
Bor@@ 20
Botschaf@@ 20
Bä@@ 20
Cur@@ 20
Dau@@ 20
Durchschnit@@ 20
Dutz@@ 20
Eltern@@ 20
English@@ 20
Entscheidung 20
Euro@@ 20
Famili@@ 20
Fein@@ 20
Frank 20
Freu@@ 20
Frieden@@ 20
Fuß 20
Gelegen@@ 20
Geschäf@@ 20
Gesetze 20
Herz 20
High 20
High@@ 20
Himmel 20
Höh@@ 20
Ig@@ 20
Innen@@ 20
Institu@@ 20
Iran 20
Job@@ 20
Kamera 20
Kir@@ 20
Kontin@@ 20
Kra@@ 20
Kris@@ 20
Labor@@ 20
Lat@@ 20
Linie 20
Mandel@@ 20
Medien@@ 20
Meer 20
Merk@@ 20
Million 20
Modelle 20
Nachrichten 20
Nähe 20
Ox@@ 20
Ozean 20
Partn@@ 20
Pau@@ 20
Phän@@ 20
Poli@@ 20
Pop@@ 20
Position 20
Produkt 20
Projekt, 20
Punkte 20
Realitä@@ 20
Regel@@ 20
Right? 20
Risiko 20
Robert 20
Russi@@ 20
Satur@@ 20
Schmerz 20
Sommer 20
Sprachen 20
Stell@@ 20
Sun@@ 20
Südafri@@ 20
Tatsache, 20
Ther@@ 20
Train@@ 20
Treib@@ 20
Tu@@ 20
Tür 20
Unterstützung 20
Verfügung 20
Verk@@ 20
Vertrau@@ 20
Vertrauen 20
Veränder@@ 20
Vogel@@ 20
Vorstellung 20
Wissenschaftl@@ 20
Woh@@ 20
Wunder@@ 20
Zentrum 20
Zusammenarbeit 20
abel@@ 20
abge@@ 20
above 20
accept 20
again. 20
aged 20
ake 20
akter@@ 20
ala 20
algorith@@ 20
alisierung 20
alisten 20
alog@@ 20
analysi@@ 20
ancest@@ 20
anderem 20
anischen 20
apar@@ 20
ards 20
artige 20
artist 20
atom@@ 20
attack@@ 20
audience 20
aufs 20
ber. 20
berech@@ 20
besuch@@ 20
betra@@ 20
brechen 20
brid@@ 20
buch 20
ca. 20
camer@@ 20
cells, 20
challen@@ 20
cker 20
cket 20
collap@@ 20
cook@@ 20
cooper@@ 20
costs 20
counter@@ 20
cover@@ 20
craft 20
creates 20
cro@@ 20
dan@@ 20
descri@@ 20
dimension@@ 20
do? 20
doc@@ 20
dreht 20
drit@@ 20
einf@@ 20
electric 20
elem@@ 20
else@@ 20
ember 20
empath@@ 20
empf@@ 20
en) 20
enden@@ 20
ender@@ 20
engage@@ 20
enough, 20
entschied 20
entsteht 20
entwickelte 20
erfas@@ 20
erfolgreich 20
erk@@ 20
erwei@@ 20
erweiter@@ 20
excep@@ 20
excit@@ 20
exist 20
families 20
fascinating 20
fiel 20
fields 20
fiz@@ 20
flexi@@ 20
fließ@@ 20
fragt, 20
fragten 20
früh 20
funk@@ 20
future. 20
fühle 20
führt, 20
gabe 20
ge: 20
gearbeitet 20
gebau@@ 20
gehört, 20
gekommen 20
genau@@ 20
generate 20
ger." 20
ges." 20
geschich@@ 20
gewis@@ 20
go." 20
government, 20
grei@@ 20
grund@@ 20
größeren 20
h." 20
halt 20
helps 20
hing@@ 20
hoo@@ 20
hren 20
ich: 20
ideas, 20
inde@@ 20
infra@@ 20
ing.""" 20
insi@@ 20
inspired 20
instance, 20
interact 20
intern@@ 20
ishing 20
ists, 20
itting 20
itäten 20
keiten 20
knowing 20
kran@@ 20
kte 20
kultur@@ 20
lam@@ 20
leaving 20
lebens@@ 20
leg 20
levels 20
lieber 20
lin 20
lines 20
lives, 20
long, 20
lösen, 20
mac@@ 20
meistens 20
mes 20
miss@@ 20
months, 20
multiple 20
nicht-@@ 20
none 20
nun, 20
occasion@@ 20
om, 20
onnen 20
open-@@ 20
others, 20
ow, 20
oxygen 20
partner 20
passen 20
patterns 20
paying 20
peac@@ 20
performan@@ 20
person, 20
persön@@ 20
phones 20
physi@@ 20
possible, 20
predict 20
previous 20
produzieren 20
pull 20
rapidly 20
raum 20
reiche 20
responsible 20
rever@@ 20
riesigen 20
room@@ 20
rupp@@ 20
rö@@ 20
satz@@ 20
sch, 20
scher 20
second, 20
sek@@ 20
self@@ 20
sensor@@ 20
sichten 20
side, 20
significant 20
site, 20
skill@@ 20
sogenannte 20
soil 20
speed 20
spiele 20
spor@@ 20
spricht 20
sprü@@ 20
später, 20
staat@@ 20
stand, 20
stars 20
stimmt 20
stopped 20
story." 20
strö@@ 20
ständig@@ 20
stück@@ 20
subst@@ 20
sun 20
swit@@ 20
taten 20
technologies 20
temp@@ 20
temper@@ 20
term 20
teu@@ 20
ther's 20
therefore 20
thing: 20
training 20
transl@@ 20
traum 20
tree 20
tut@@ 20
unds 20
unglaubliche 20
upon 20
values 20
verwen@@ 20
verwend@@ 20
ves@@ 20
view, 20
vollkommen 20
wards 20
ways." 20
week, 20
wein@@ 20
wenig@@ 20
wesentlich 20
wichtigste 20
wies@@ 20
wit@@ 20
wohn@@ 20
women." 20
worry 20
worst 20
wussten 20
wäl@@ 20
yo@@ 20
zeichen 20
zel@@ 20
zufällig 20
zusetz@@ 20
zäh@@ 20
Öko@@ 20
Über 20
är 20
äuß@@ 20
é 20
überzeu@@ 20
üll@@ 20
"(Musik) 19
"(Video) 19
"Ein@@ 19
"Zuerst 19
(Video) 19
-jähri@@ 19
000@@ 19
10.000 19
21st 19
23 19
50, 19
90@@ 19
Affen 19
Ara@@ 19
Ari@@ 19
Arzt 19
Baum 19
Begriff 19
Bli@@ 19
Boot 19
Büro 19
C: 19
Center 19
Chicago 19
Cre@@ 19
DH: 19
Demokrati@@ 19
Dich@@ 19
Ding 19
East 19
Ecke 19
Egyp@@ 19
Eing@@ 19
Einstein 19
Elektro@@ 19
Erfolg@@ 19
Ernähr@@ 19
Exper@@ 19
Fernsehen 19
Feuer 19
Fi@@ 19
Fo@@ 19
Frage: 19
Freiheit 19
Frieden 19
Gefäng@@ 19
Gefühl@@ 19
Geheim@@ 19
Genau 19
Geor@@ 19
Geräte 19
Gestal@@ 19
Gesund@@ 19
Great 19
Grenz@@ 19
Ham@@ 19
India, 19
Indian 19
Infek@@ 19
Kern 19
Kil@@ 19
Klimawandel@@ 19
Kore@@ 19
Krankenhaus 19
Künst@@ 19
LE@@ 19
Leider 19
Leistung 19
Lü@@ 19
Meer@@ 19
Mengen 19
Milli@@ 19
Moment, 19
Most 19
Mr. 19
Mund 19
Mutter, 19
Märk@@ 19
Müll@@ 19
Müt@@ 19
Nat@@ 19
Null@@ 19
Objek@@ 19
Objekte 19
Ohr@@ 19
Pati@@ 19
Pu@@ 19
Reak@@ 19
Resul@@ 19
Roll@@ 19
Satelli@@ 19
Schlag@@ 19
Schlüssel 19
Seele 19
Software 19
Stoff@@ 19
Strom 19
Städ@@ 19
Team@@ 19
Teu@@ 19
Tisch 19
Tit@@ 19
Unser 19
Unterschie@@ 19
V 19
Versuch@@ 19
Vorstell@@ 19
Waff@@ 19
Waffen 19
Wand 19
Wir@@ 19
Wü@@ 19
Zwei 19
abstra@@ 19
according 19
account 19
active 19
address 19
ade, 19
aded 19
aden@@ 19
after@@ 19
agri@@ 19
alization 19
alize 19
allen@@ 19
aly@@ 19
ama 19
ange 19
angen 19
ans." 19
ansehen, 19
argue 19
aris@@ 19
ase, 19
ationen, 19
attack 19
attrac@@ 19
aufre@@ 19
auseinander@@ 19
bacteria 19
band 19
basis 19
beauti@@ 19
bees 19
begins 19
bekämp@@ 19
below 19
betrachten 19
big, 19
bili@@ 19
ble. 19
ble." 19
bly 19
books, 19
bound@@ 19
brauch 19
buildings 19
business, 19
carb@@ 19
carrying 19
cent@@ 19
chair@@ 19
cis@@ 19
city, 19
cked 19
classi@@ 19
closer 19
color@@ 19
come, 19
complicated 19
compo@@ 19
conscious@@ 19
convinced 19
country." 19
curi@@ 19
cycle 19
dance 19
decision 19
deeply 19
deliver 19
dge 19
direct 19
diseas@@ 19
doctor 19
dom 19
domin@@ 19
dre@@ 19
dum@@ 19
effects 19
effici@@ 19
egen@@ 19
ely, 19
em, 19
emis@@ 19
employ@@ 19
enjo@@ 19
entfernt 19
eo@@ 19
erforder@@ 19
erinnern 19
etc." 19
eviden@@ 19
excited 19
existing 19
exper@@ 19
f-@@ 19
fallen 19
famil@@ 19
fang@@ 19
fe, 19
feed@@ 19
feld 19
force, 19
frem@@ 19
fundament@@ 19
future, 19
fähig 19
fälle 19
för@@ 19
gebo@@ 19
geboren 19
genes 19
genommen@@ 19
geschlos@@ 19
go. 19
good, 19
ground, 19
gun 19
ham 19
health, 19
heiten, 19
hell 19
hinaus 19
holen 19
hous@@ 19
hy 19
häufig 19
höher 19
ihnen, 19
ika 19
il." 19
iling 19
inci@@ 19
increas@@ 19
inevit@@ 19
influ@@ 19
int 19
intui@@ 19
invisi@@ 19
iron@@ 19
ished 19
isol@@ 19
ition 19
ix 19
justice 19
kannst 19
klär@@ 19
kombin@@ 19
kommuniz@@ 19
komplexe 19
konzentrier@@ 19
krie@@ 19
kul@@ 19
kü@@ 19
lab 19
leader@@ 19
lec@@ 19
leh@@ 19
letztes 19
level, 19
level@@ 19
lichem 19
lige 19
long-term 19
losing 19
loved 19
ls 19
magnetic 19
mann@@ 19
medicin@@ 19
mern 19
meters 19
mid@@ 19
minute 19
mol@@ 19
mone@@ 19
mur@@ 19
mö@@ 19
möchten 19
na 19
nannte 19
ned 19
neg@@ 19
ness." 19
notwen@@ 19
novel 19
num@@ 19
old. 19
older 19
ood 19
ool 19
ordinary 19
ought 19
painting 19
parado@@ 19
passierte 19
passion 19
pedi@@ 19
pick@@ 19
place. 19
planning 19
point." 19
possible." 19
power, 19
prak@@ 19
prepar@@ 19
pressed 19
privi@@ 19
problems." 19
progress 19
puts 19
question. 19
ras@@ 19
rates 19
recogn@@ 19
recycl@@ 19
regi@@ 19
regist@@ 19
remain 19
respect 19
restauran@@ 19
reve@@ 19
roman@@ 19
runter@@ 19
sagten 19
saving 19
schlagen 19
schon, 19
schwier@@ 19
schä@@ 19
selten 19
sensi@@ 19
sexual 19
shap@@ 19
shift 19
sobald 19
societ@@ 19
soft@@ 19
sold 19
soldi@@ 19
sollten, 19
something, 19
space, 19
spek@@ 19
spon@@ 19
sport 19
sport@@ 19
stam@@ 19
standen 19
star 19
sterben@@ 19
stopp@@ 19
stro@@ 19
stück 19
suchte 19
suit 19
suppor@@ 19
sure, 19
surger@@ 19
tap@@ 19
tar 19
target@@ 19
technologi@@ 19
teile 19
temperature 19
terrible 19
therap@@ 19
there? 19
tik, 19
tissu@@ 19
tivi@@ 19
tivität 19
tolle 19
too, 19
transforma@@ 19
trotz 19
ture@@ 19
ulation, 19
ung: 19
ungen@@ 19
use@@ 19
vast 19
verbind@@ 19
verein@@ 19
versuchte 19
views 19
virtual 19
wait 19
wall 19
water@@ 19
weather 19
weiter, 19
wheel@@ 19
who, 19
whol@@ 19
wieso 19
wild@@ 19
wirst 19
witn@@ 19
women's 19
worse 19
y"" 19
y,"" 19
yed 19
yellow 19
ys@@ 19
zahl 19
zir@@ 19
zis@@ 19
ändert 19
äter 19
ätz@@ 19
äußerst 19
übrigens 19
ül@@ 19
ütz@@ 19
""We 18
""Wenn 18
"V@@ 18
/ 18
0,@@ 18
10, 18
2,000 18
20. 18
45 18
AID@@ 18
Abschl@@ 18
Al 18
Alb@@ 18
Ant@@ 18
Architektur 18
BG: 18
Bedeut@@ 18
Bevölkerung 18
Bewusst@@ 18
Biologie 18
Brasili@@ 18
Brenn@@ 18
Büro@@ 18
CO2-@@ 18
Ca@@ 18
Char@@ 18
Chr@@ 18
Did 18
Ding@@ 18
Dinosau@@ 18
Dur@@ 18
Ed@@ 18
Entwicklungs@@ 18
Erklär@@ 18
Fahrra@@ 18
Fle@@ 18
Frem@@ 18
Freunden 18
Fällen 18
Führungs@@ 18
Geburt@@ 18
Gedan@@ 18
Gelegenheit 18
Gerät 18
Geschwindigkeit 18
Gesicht 18
Gew@@ 18
Green@@ 18
Großteil 18
Haup@@ 18
Herstell@@ 18
Himm@@ 18
Holly@@ 18
Homo 18
IP@@ 18
Ihres 18
Initi@@ 18
Insek@@ 18
Intelligen@@ 18
Ja, 18
Jobs 18
Ke@@ 18
Kern@@ 18
Kriegs@@ 18
Ku@@ 18
Künstler@@ 18
Mau@@ 18
Mein@@ 18
Mem@@ 18
Metap@@ 18
Mich@@ 18
Militär@@ 18
Miss@@ 18
Molekü@@ 18
Morgen 18
Mur@@ 18
Nelson 18
Nep@@ 18
OK?" 18
Opfer 18
Pakist@@ 18
Partner@@ 18
Professor 18
Regel 18
Religion 18
Republi@@ 18
Risiken 18
S, 18
Schlüssel@@ 18
Schri@@ 18
Schulen 18
Schü@@ 18
September 18
Sha@@ 18
Sport@@ 18
Staat@@ 18
Säuge@@ 18
Süd@@ 18
Tau@@ 18
Tausende 18
Tes@@ 18
Thomas 18
Traum 18
Umfeld 18
Virgin@@ 18
W: 18
Wa@@ 18
Wahrnehmung 18
Well@@ 18
Wet@@ 18
Wie@@ 18
Wind@@ 18
aber, 18
ac 18
acceler@@ 18
accur@@ 18
addi@@ 18
adv@@ 18
affec@@ 18
agen, 18
ago. 18
algorithms 18
alism 18
altern@@ 18
another, 18
ara 18
ard, 18
arme 18
art, 18
article 18
assist@@ 18
asst 18
atel@@ 18
ations. 18
ats@@ 18
attra@@ 18
aturen 18
ausseh@@ 18
aussehen 18
awar@@ 18
ball 18
barkeit 18
because, 18
befindet 18
before. 18
before." 18
bene 18
benefits 18
beschäftig@@ 18
bess@@ 18
betrei@@ 18
billions 18
bing 18
bles 18
bringing 18
bruch 18
bung 18
bus 18
carri@@ 18
change. 18
chines@@ 18
chose 18
cil 18
clou@@ 18
clu@@ 18
college 18
creation 18
d's 18
dea@@ 18
ded." 18
degree 18
deinem 18
ders, 18
determin@@ 18
did@@ 18
digen, 18
digit@@ 18
disappear@@ 18
dische 18
disease, 18
diverse 18
diversity 18
dozens 18
dritten 18
driven 18
dün@@ 18
e,"" 18
easier 18
eff@@ 18
eigent@@ 18
element@@ 18
emer@@ 18
ente, 18
entier@@ 18
entlang 18
ently, 18
entscheiden 18
equal@@ 18
equivalent 18
er's 18
ered 18
erschaffen 18
eting 18
eure 18
experience." 18
experiments 18
extra 18
fahrt 18
falschen 18
female 18
fet@@ 18
figur@@ 18
fish, 18
fishing 18
five-@@ 18
flie@@ 18
folgen@@ 18
folgenden 18
food, 18
forschung 18
found@@ 18
fourth 18
from, 18
fäl@@ 18
fügen 18
fühlte 18
fün@@ 18
g-@@ 18
gather@@ 18
ge-@@ 18
gehe 18
gespro@@ 18
gewicht 18
geworden 18
gezeigt, 18
gier@@ 18
governments 18
grundle@@ 18
happin@@ 18
harder 18
head, 18
hell@@ 18
hi 18
hig@@ 18
hilft 18
home." 18
hospital 18
hätten, 18
höher@@ 18
iel 18
iere 18
ihr, 18
ike, 18
illi@@ 18
inen 18
inher@@ 18
inspi@@ 18
inven@@ 18
investig@@ 18
ions 18
irgendwann 18
issen 18
iting 18
ität, 18
kamen, 18
kennen, 18
key@@ 18
kick@@ 18
kling@@ 18
kollek@@ 18
kontrollieren 18
kostet 18
kunft 18
landscape 18
lautet: 18
lear@@ 18
legal 18
legs 18
lic 18
lives. 18
lot, 18
lucky 18
main 18
main@@ 18
mamm@@ 18
matters 18
medicine 18
medizin@@ 18
mittl@@ 18
mma@@ 18
mmen 18
modernen 18
morgen 18
mul@@ 18
mung 18
myth@@ 18
nation 18
natürlich, 18
ney 18
nois@@ 18
notic@@ 18
open@@ 18
operating 18
orien 18
orig@@ 18
ough@@ 18
pay@@ 18
peak 18
persönliche 18
plays 18
possible. 18
power." 18
praktisch 18
pregn@@ 18
price 18
protec@@ 18
protected 18
pun@@ 18
qual@@ 18
quantum 18
reached 18
research, 18
research@@ 18
responsibility 18
ress 18
retin@@ 18
riesige 18
rock 18
rub@@ 18
sai@@ 18
schaut 18
schaute 18
schlech@@ 18
schlimm@@ 18
schlu@@ 18
schöne 18
see. 18
selber 18
sett@@ 18
setzte 18
shou@@ 18
sick@@ 18
sion. 18
spot 18
stadt 18
stattdessen 18
steigen@@ 18
stieg 18
still@@ 18
strateg@@ 18
städ@@ 18
stände 18
suche 18
suchen, 18
talk, 18
team@@ 18
technology." 18
they'd 18
threat@@ 18
tics, 18
ties. 18
tigkeit@@ 18
times." 18
timm@@ 18
tive." 18
tled 18
tlicher 18
tol@@ 18
traditionellen 18
traffic 18
train 18
transform 18
trifft 18
trillion 18
tur 18
ump 18
unbe@@ 18
unique 18
unterschied@@ 18
ures 18
val 18
versuchte, 18
verzwei@@ 18
verändern, 18
voic@@ 18
wachst@@ 18
wake 18
waste 18
waves 18
web 18
weisen, 18
welchen 18
werk 18
wher@@ 18
which, 18
wiederum 18
winz@@ 18
wissenschaftliche 18
wissenschaftlichen 18
wohin 18
works, 18
wunderschön@@ 18
wächst 18
year. 18
you.""" 18
zen, 18
zunächst 18
ätze 18
äusch@@ 18
überprü@@ 18
überzeugt, 18
ünf@@ 18
ünst@@ 18
""] 17
"Alle 17
"Einer 17
"Jeder 17
"Letz@@ 17
#@@ 17
(Musik) 17
.] 17
150 17
2010 17
22 17
35 17
5.000 17
99@@ 17
Altern@@ 17
Arbeit, 17
Argum@@ 17
Aufgab@@ 17
Auto@@ 17
BM@@ 17
Baby 17
Bakter@@ 17
Bedürf@@ 17
Berg@@ 17
Betrie@@ 17
Billionen 17
Blas@@ 17
Bud@@ 17
Bürger 17
CA@@ 17
Cam@@ 17
Chem@@ 17
Come 17
DNA@@ 17
Dan 17
Definition 17
Dingen, 17
Dokum@@ 17
Eines 17
Einstell@@ 17
Emo@@ 17
Engli@@ 17
Erinnerung 17
Erzähl@@ 17
Fabri@@ 17
Farben 17
Folgen 17
Forschungs@@ 17
Fortschrit@@ 17
Freiwilli@@ 17
Fried@@ 17
Ganz@@ 17
Gas@@ 17
Gedank@@ 17
Gefängnis 17
Gehen 17
Gehirn, 17
Gehirne 17
Geist 17
Geld, 17
Gesellschaften 17
Gleiche 17
Haufen 17
Hei@@ 17
Höhe 17
IS@@ 17
Information@@ 17
Iran@@ 17
Israel 17
Jap@@ 17
Jungs 17
Kaliforni@@ 17
Kohlenstoff@@ 17
Konzent@@ 17
Kop@@ 17
Kr@@ 17
Krä@@ 17
Kö@@ 17
Lab@@ 17
Landschaft 17
Lap@@ 17
Liz@@ 17
Macht, 17
Manhattan 17
Materialien 17
Mechan@@ 17
Michael 17
Microsoft 17
Moleküle 17
Monat 17
Music) 17
Männer, 17
N: 17
Nar@@ 17
Nic@@ 17
Nigeria 17
OK 17
Organ@@ 17
P: 17
Papier 17
Pfer@@ 17
Proto@@ 17
Prä@@ 17
Publik@@ 17
Rass@@ 17
Rel@@ 17
Richt@@ 17
Roh@@ 17
Sar@@ 17
Sauerstoff 17
Schwes@@ 17
Selbst 17
Sicht@@ 17
Sozial@@ 17
State 17
Straßen@@ 17
Sud@@ 17
TEDTal@@ 17
Tag, 17
Tel@@ 17
Test@@ 17
Ti@@ 17
Tie@@ 17
Trag@@ 17
Twit@@ 17
Ty@@ 17
U.N. 17
Umgeb@@ 17
Universum@@ 17
Verlust 17
Vern@@ 17
Vö@@ 17
Wunsch 17
Während 17
Wär@@ 17
X 17
York@@ 17
[un@@ 17
ables 17
achieve 17
acou@@ 17
activi@@ 17
advanced 17
afraid 17
age." 17
ai 17
ale, 17
alone, 17
amer@@ 17
analys@@ 17
andere, 17
angen, 17
anthrop@@ 17
anti-@@ 17
appar@@ 17
appen 17
ar." 17
architecture 17
aren 17
arian 17
arro@@ 17
arten 17
associated 17
at-@@ 17
ating, 17
ativen 17
atmosphere 17
atri@@ 17
attemp@@ 17
auff@@ 17
außergewöhn@@ 17
bat 17
beauty 17
begeg@@ 17
beings 17
benötigt 17
besseren 17
bestim@@ 17
better, 17
bewegt 17
biologische 17
birth@@ 17
bit, 17
blau@@ 17
bled 17
brauche 17
brenn@@ 17
bub@@ 17
burg 17
capable 17
capture 17
cast@@ 17
categ@@ 17
cc@@ 17
central 17
chea@@ 17
civiliz@@ 17
claim@@ 17
collecting 17
company, 17
compassi@@ 17
conduc@@ 17
conflict 17
considered 17
contain@@ 17
content 17
crat@@ 17
crimin@@ 17
culture, 17
dam 17
damage 17
damit, 17
darstell@@ 17
de-@@ 17
dedic@@ 17
dehn@@ 17
demand@@ 17
demon@@ 17
des." 17
described 17
deser@@ 17
design, 17
desper@@ 17
devast@@ 17
device 17
digkeit 17
disrup@@ 17
drücken 17
durchge@@ 17
earli@@ 17
eck 17
effective 17
eigentliche 17
eingel@@ 17
electronic 17
elektron@@ 17
elev@@ 17
elimin@@ 17
eness 17
entwick@@ 17
equal 17
erfolg@@ 17
erfun@@ 17
erhält 17
ermöglichen, 17
erreichen, 17
erster 17
erzählt, 17
es"" 17
es; 17
essen, 17
essi@@ 17
ets." 17
evolved 17
experience, 17
explan@@ 17
fam@@ 17
fascin@@ 17
fell 17
field, 17
fik@@ 17
folgen, 17
fragte: 17
free@@ 17
frü@@ 17
fühlt 17
gebaut, 17
gelei@@ 17
gelernt, 17
gemeinsam@@ 17
genen 17
genutz@@ 17
geschieh@@ 17
geschrie@@ 17
geschütz@@ 17
gesetzt 17
gewohn@@ 17
gewähl@@ 17
glam@@ 17
greg@@ 17
hafte 17
halbe 17
handeln 17
happen." 17
hard@@ 17
hart 17
heavy 17
heim@@ 17
herausfinden, 17
him. 17
himself 17
hin, 17
hir@@ 17
hne 17
hoffentlich 17
holding 17
house, 17
ht 17
hunderte 17
hört 17
icht, 17
idea, 17
identifiz@@ 17
ife 17
important." 17
ing; 17
ingt 17
insec@@ 17
install@@ 17
instruc@@ 17
interaction 17
interesting, 17
invent@@ 17
investieren 17
island 17
istische 17
itself, 17
itte 17
itzen 17
ization 17
izi@@ 17
jetzt, 17
jüng@@ 17
kann. 17
krimin@@ 17
ks@@ 17
kürzlich 17
language, 17
lass 17
ld, 17
led." 17
leider 17
letter 17
licen@@ 17
lichen, 17
lichsten 17
liert 17
light." 17
look@@ 17
magn@@ 17
maxim@@ 17
micros@@ 17
mikro@@ 17
mim@@ 17
mind." 17
mine 17
mistak@@ 17
molecular 17
monit@@ 17
movie 17
musici@@ 17
mysteri@@ 17
mä@@ 17
neighborhoo@@ 17
net, 17
niem@@ 17
nom@@ 17
novel@@ 17
of." 17
ologists 17
ook, 17
opath@@ 17
opened 17
opposite 17
ord 17
ordn@@ 17
organisms 17
organization 17
origin@@ 17
original 17
path 17
pel 17
people@@ 17
perfectly 17
perspective 17
pflanz@@ 17
photo 17
physics 17
picked 17
planet, 17
platz 17
ple, 17
pler 17
poverty 17
pre-@@ 17
prim@@ 17
primi@@ 17
public@@ 17
questions, 17
quick 17
race 17
radio 17
range 17
ration, 17
raus 17
re-@@ 17
recor@@ 17
record@@ 17
recover@@ 17
refer@@ 17
remember, 17
represent@@ 17
resol@@ 17
rewar@@ 17
richten 17
rist@@ 17
robotic 17
room." 17
rt 17
ruf 17
sage, 17
sammeln 17
saß 17
scann@@ 17
schir@@ 17
schools 17
schreiben, 17
schrie@@ 17
see." 17
seien 17
selec@@ 17
sending 17
short@@ 17
shr@@ 17
six@@ 17
skelet@@ 17
skop@@ 17
slow@@ 17
sorg@@ 17
spending 17
spiegel@@ 17
spunk@@ 17
stag 17
stan@@ 17
stands 17
steps 17
stic 17
stim@@ 17
strei@@ 17
structures 17
stuck 17
stuff." 17
subject 17
surge@@ 17
surgery 17
sustain@@ 17
symptom@@ 17
tast@@ 17
tatsäch@@ 17
technology. 17
tent@@ 17
tered 17
thinks 17
tierte 17
title 17
trag 17
treatment 17
treffen, 17
tries 17
trit@@ 17
trop@@ 17
trou@@ 17
ule 17
ultim@@ 17
unless 17
ure. 17
urs@@ 17
variety 17
ved, 17
vel 17
verbinden 17
verhalten 17
verk@@ 17
verschie@@ 17
verschieden@@ 17
vielleicht, 17
virtu@@ 17
vollen 17
waff@@ 17
want, 17
warm 17
wass@@ 17
watched 17
water. 17
weich@@ 17
weltwei@@ 17
wen 17
wend@@ 17
währ@@ 17
wünsch@@ 17
zeichnet 17
zent@@ 17
zieht 17
ß, 17
ähnliche 17
änder 17
ändern, 17
öse 17
""Do 16
""Oh 16
"Daher 16
"Eines 16
"Et@@ 16
"Je 16
"Nachdem 16
"aber 16
1,000 16
19 16
1980@@ 16
65 16
Aben@@ 16
Afrika, 16
Alzheimer@@ 16
Amazon 16
Angst, 16
Anrei@@ 16
Ansatz 16
Arbei@@ 16
Arch@@ 16
Autom@@ 16
Außerdem 16
Behinder@@ 16
Beobach@@ 16
Besitz@@ 16
Bezieh@@ 16
Bienen 16
Bundes@@ 16
Bäume 16
Charakter@@ 16
College 16
Compu@@ 16
Dank 16
Designer 16
Dort 16
Dra@@ 16
Du@@ 16
Effekt 16
Entwicklungslän@@ 16
Ev@@ 16
Fa@@ 16
Febru@@ 16
Fische 16
Frank@@ 16
French 16
Fron@@ 16
Früh@@ 16
Gand@@ 16
Geb@@ 16
Geburt 16
Gemeinde 16
Generationen 16
Geschen@@ 16
Gesetz 16
Gesich@@ 16
Gespräch 16
Gewe@@ 16
Gewicht 16
Grie@@ 16
Großbritannien 16
Gruppen 16
Haben 16
Hack@@ 16
Haf@@ 16
Harv@@ 16
Harvard 16
Herausforderungen 16
Here, 16
Herr@@ 16
Higgs 16
House 16
Identität 16
Inhalt 16
Inten@@ 16
Interesse 16
Ir@@ 16
Irgend@@ 16
Jahres 16
James 16
Kampag@@ 16
Klassenz@@ 16
Klein@@ 16
Klin@@ 16
Kombin@@ 16
Kompon@@ 16
Konferenz 16
Konsequ@@ 16
Kreativ@@ 16
Kurz@@ 16
Körpers 16
L 16
Mak@@ 16
Maschine 16
Mathematik@@ 16
Mer@@ 16
Metho@@ 16
Minist@@ 16
Mond 16
Mount 16
Multi@@ 16
Mutter@@ 16
Nam@@ 16
Nation@@ 16
Nein. 16
Netz 16
Novem@@ 16
Oberfl@@ 16
Offen@@ 16
Ordnung 16
Os 16
Papier@@ 16
Pla@@ 16
Platt@@ 16
Potential 16
Prinzi@@ 16
Präsi@@ 16
Quanten@@ 16
Ras@@ 16
Regen@@ 16
Regi@@ 16
Ren@@ 16
Ret@@ 16
Riesen@@ 16
Righ@@ 16
Ruh@@ 16
S." 16
Saturn 16
Schluss 16
Scho@@ 16
Schreib@@ 16
Schwer@@ 16
Si@@ 16
Signale 16
Spielen 16
Stal@@ 16
Stress 16
Strom@@ 16
Student@@ 16
Studier@@ 16
Stück@@ 16
Sub@@ 16
Tab@@ 16
Telef@@ 16
Test 16
Tiere, 16
Tom 16
Träume 16
Typ 16
Umwel@@ 16
Universität 16
Unsicher@@ 16
Unterhal@@ 16
Verstand 16
Wandel 16
Wesentlichen 16
West@@ 16
Wikipedia 16
Wil@@ 16
Wind 16
Worten 16
Wäl@@ 16
Zau@@ 16
Zeiten 16
Zeug 16
Zi@@ 16
Zustand 16
abhäng@@ 16
abled 16
ace@@ 16
ache 16
acts 16
addr@@ 16
administ@@ 16
ahl@@ 16
ahn@@ 16
allge@@ 16
alternative 16
ames 16
an-@@ 16
ance. 16
andel@@ 16
anfangen, 16
angesch@@ 16
answers 16
anzen 16
apart 16
argu@@ 16
argument 16
arly 16
armen 16
ary. 16
as. 16
assum@@ 16
ated." 16
ates, 16
atory 16
avoid 16
back. 16
bahn@@ 16
ballo@@ 16
batter@@ 16
bauten 16
beginning, 16
behand@@ 16
beinhaltet 16
bekannten 16
besondere 16
bewusst, 16
bind@@ 16
birds 16
bisher 16
blin@@ 16
brie@@ 16
broke 16
broken 16
bubble 16
bud@@ 16
budget 16
bungen 16
by, 16
büch@@ 16
campaign@@ 16
capital 16
characters 16
che, 16
children." 16
choices 16
chromo@@ 16
city." 16
cken, 16
complet@@ 16
consci@@ 16
const@@ 16
contra@@ 16
contro@@ 16
cope 16
corner 16
correct 16
could@@ 16
counter 16
credit 16
cy." 16
d: 16
dachten, 16
dad 16
daugh@@ 16
definition 16
deinen 16
deiner 16
describe 16
detail@@ 16
diam@@ 16
dich@@ 16
dire@@ 16
distance 16
dog 16
dort, 16
drei, 16
druck 16
drücke 16
durchschnit@@ 16
eco@@ 16
ee, 16
ehrlich 16
eindeutig 16
einfacher 16
einmal, 16
einstimm@@ 16
electricity 16
elektr@@ 16
eline 16
email 16
emergen@@ 16
ende, 16
enem@@ 16
energi@@ 16
engineering 16
enjoy 16
enor@@ 16
enorme 16
ents. 16
entschieden 16
equally 16
erinnern, 16
erlaubt 16
erweise 16
erzeugt 16
essential 16
esses, 16
etzt, 16
events 16
eventu@@ 16
everyday 16
evolution@@ 16
example. 16
expan@@ 16
experienced 16
fach 16
faith 16
fand@@ 16
fantastic 16
farmers 16
fassung 16
federal 16
feh@@ 16
filled 16
fisher@@ 16
flag@@ 16
flow 16
flü@@ 16
flüss@@ 16
food." 16
form, 16
forma@@ 16
fortunately, 16
freed@@ 16
future." 16
fünf@@ 16
gap@@ 16
gebild@@ 16
gegeben, 16
gemeinsame 16
gendes 16
gendes: 16
gentle@@ 16
gerech@@ 16
geren 16
gesagt: 16
geschichte 16
ght 16
gigan@@ 16
graphic 16
gs." 16
hall@@ 16
harte 16
hau@@ 16
herr@@ 16
herz@@ 16
hy? 16
hydro@@ 16
hätte, 16
häufig@@ 16
häus@@ 16
i. 16
id-@@ 16
ide 16
idea. 16
idea." 16
ight@@ 16
igkeiten 16
igran@@ 16
ikan@@ 16
immediately 16
imple@@ 16
implic@@ 16
increased 16
inside, 16
inspir@@ 16
intelligent 16
intensi@@ 16
interessiert 16
introduced 16
ities, 16
jahr@@ 16
jok@@ 16
junger 16
ken, 16
killed 16
kontrolli@@ 16
kurz@@ 16
kühl@@ 16
laden 16
languages 16
langwei@@ 16
las 16
led, 16
leisten 16
lem 16
len@@ 16
lie 16
ließlich 16
like." 16
line, 16
linken 16
managed 16
meas@@ 16
mention 16
midd@@ 16
mile 16
minutes, 16
moments 16
more. 16
mov@@ 16
museum 16
muster 16
natür@@ 16
network@@ 16
neuer 16
neurons 16
night." 16
normally 16
number@@ 16
näher@@ 16
nützlich 16
old." 16
ously." 16
pal@@ 16
park 16
passen@@ 16
pen 16
per, 16
pers 16
persönlichen 16
phenomen@@ 16
philosoph@@ 16
pho@@ 16
plane 16
plann@@ 16
plant@@ 16
prepared 16
prescrip@@ 16
prison@@ 16
promise 16
präch@@ 16
ps, 16
psychological 16
purpose 16
quanti@@ 16
rap@@ 16
rea@@ 16
recei@@ 16
received 16
recently, 16
rechts 16
reck@@ 16
red@@ 16
reib@@ 16
relativ 16
releas@@ 16
respec@@ 16
rieren 16
roffen 16
round 16
rufen 16
rural 16
sac@@ 16
sation 16
satis@@ 16
schaft, 16
schaften 16
schlechter 16
schrift 16
schwar@@ 16
schwarze 16
schüt@@ 16
scrip@@ 16
servic@@ 16
setting 16
ship@@ 16
sierung 16
skills 16
society, 16
solution@@ 16
solved 16
somewhat 16
sozusagen 16
spati@@ 16
spirit 16
spread@@ 16
spricht, 16
springen 16
starb 16
stens 16
stets 16
stock 16
stone 16
straight 16
strang@@ 16
stream@@ 16
stru@@ 16
struggle 16
studier@@ 16
swimming 16
sätz@@ 16
table, 16
task@@ 16
taus@@ 16
tausenden 16
television 16
tempor@@ 16
tende 16
terrif@@ 16
tes, 16
theat@@ 16
til 16
tors, 16
tory 16
track 16
tradition@@ 16
travel@@ 16
treibt 16
tumor 16
ture, 16
tures, 16
typical 16
unabhängig 16
unde, 16
ungspro@@ 16
unmittel@@ 16
unsicht@@ 16
ve? 16
vely 16
verantwortlich 16
vergessen, 16
verlier@@ 16
verständ@@ 16
versus 16
verursacht 16
verändern@@ 16
victim@@ 16
vieles 16
vin@@ 16
wachen 16
wachsen, 16
walk@@ 16
weapons 16
wear 16
weite 16
wer, 16
werde, 16
whenever 16
where. 16
wich@@ 16
winden 16
wirkt 16
wirtschaftlichen 16
wisdom 16
wrong." 16
wäch@@ 16
year-old 16
yle 16
zulass@@ 16
«@@ 16
ösen 16
öt@@ 16
übri@@ 16
""T@@ 15
""Y@@ 15
"Dort 15
"Durch 15
"Falls 15
"Mir 15
"Nehmen 15
%@@ 15
-P@@ 15
.“@@ 15
2005 15
95 15
AS@@ 15
Ach@@ 15
Aktivität 15
Arab@@ 15
Aspek@@ 15
Atlan@@ 15
Audience: 15
Aufl@@ 15
Ausbildung 15
Ausma@@ 15
Bakterien 15
Bauch@@ 15
Belohn@@ 15
Bestand@@ 15
Bildschir@@ 15
Blu@@ 15
Braz@@ 15
Brie@@ 15
Brit@@ 15
Brita@@ 15
Brü@@ 15
Buch@@ 15
Bör@@ 15
Colle@@ 15
D. 15
Daher 15
Dam@@ 15
Damit 15
Dec@@ 15
Diagno@@ 15
Dollar, 15
Druck 15
E 15
Einige 15
Einkommen 15
Entdeckung 15
Erfindung 15
Ergebnis@@ 15
Europ@@ 15
Ever@@ 15
Evol@@ 15
Fenster 15
Fig@@ 15
Flori@@ 15
Fok@@ 15
Francisco 15
Frü@@ 15
Fähig@@ 15
Fälle 15
G 15
Gang 15
Geg@@ 15
Gegensatz 15
Gegenwar@@ 15
General 15
Glau@@ 15
Glet@@ 15
Global 15
Gründe 15
Gü@@ 15
Haut 15
Have 15
Hawai@@ 15
Heim@@ 15
Higgs-@@ 15
Hilf@@ 15
Hilfs@@ 15
Hir@@ 15
Hitze 15
Impf@@ 15
Israel@@ 15
Kilometer 15
Klimawandel 15
Koch@@ 15
Kommunik@@ 15
Konsum@@ 15
Kontroll@@ 15
Kredi@@ 15
Kri@@ 15
König@@ 15
Kühl@@ 15
Lektion 15
Letz@@ 15
Lev@@ 15
Liebe, 15
Lied 15
Loch 15
London@@ 15
Long 15
M 15
Manchmal 15
Massen@@ 15
Media 15
Mel@@ 15
Methode, 15
Mitgefühl@@ 15
Mod@@ 15
Mü@@ 15
N 15
NASA 15
Norden 15
Num@@ 15
Oh 15
Online-@@ 15
Optim@@ 15
Ori@@ 15
Park@@ 15
Perhaps 15
Perspektive 15
Physik 15
Pil@@ 15
Prozess@@ 15
Rat 15
Regierungen 15
Region 15
Research 15
Rock@@ 15
S. 15
Satz 15
Sau@@ 15
Schlaf 15
Schmer@@ 15
Schwester 15
See 15
Sekunden 15
Sex 15
Sicherheits@@ 15
Situ@@ 15
Sprech@@ 15
Sterne 15
Stimmen 15
Strategie 15
Such@@ 15
Symm@@ 15
T. 15
Teilnehmer 15
Tem@@ 15
Temp@@ 15
Ter@@ 15
Tä@@ 15
U-@@ 15
Ungleich@@ 15
Val@@ 15
Video: 15
Videos 15
Vorher@@ 15
Weise, 15
Wich@@ 15
Zahn@@ 15
Zeichen 15
Zivilisation 15
Zu 15
Zuschau@@ 15
Zweck 15
abili@@ 15
abilit@@ 15
aci@@ 15
ada 15
adults 15
ail 15
alive 15
amin@@ 15
amm@@ 15
anfangen 15
anks 15
arbeiten. 15
areas@@ 15
ario 15
arum 15
astronom@@ 15
ater@@ 15
attitu@@ 15
ausreich@@ 15
autom@@ 15
background 15
band, 15
bank 15
beat 15
beautiful, 15
beeindruck@@ 15
begann, 15
begrei@@ 15
bekamen 15
benef@@ 15
berfläche 15
bern 15
bert 15
beschleunig@@ 15
beschlos@@ 15
bill@@ 15
birth 15
blas@@ 15
bleiben, 15
blind@@ 15
broad@@ 15
can, 15
cars, 15
carto@@ 15
cell, 15
civil 15
civilization 15
clim@@ 15
cognitive 15
common@@ 15
companies, 15
connection 15
consequences 15
constant 15
countr@@ 15
country. 15
cross 15
cum@@ 15
cut@@ 15
damer@@ 15
dangerous 15
darüber@@ 15
daß 15
dealing 15
decades 15
deeper 15
degrees 15
democracy 15
denkt 15
desc@@ 15
destruc@@ 15
dioxide 15
direction 15
dolph@@ 15
don'@@ 15
done." 15
dopp@@ 15
drag@@ 15
drugs 15
due 15
eds 15
egt 15
eingesch@@ 15
eins, 15
electri@@ 15
elements 15
ences, 15
encourage 15
ency, 15
endste 15
energy." 15
enge 15
entdecken, 15
entr@@ 15
erhalten, 15
erhe@@ 15
ermu@@ 15
erzeugen 15
erziel@@ 15
escap@@ 15
eso@@ 15
eten, 15
etti 15
ety, 15
euer 15
exak@@ 15
exists 15
expen@@ 15
expres@@ 15
extrem@@ 15
ey've 15
faces 15
factors 15
facts 15
fahren, 15
fairly 15
fest 15
fighting 15
fluores@@ 15
folgt 15
forces 15
fragt 15
fran@@ 15
freien 15
fres@@ 15
frustri@@ 15
fähigkeit 15
fängt 15
füg@@ 15
game, 15
gebet@@ 15
ged@@ 15
gegenseitig 15
gegenwär@@ 15
gehei@@ 15
geist@@ 15
gel, 15
gelö@@ 15
gelöst 15
gerich@@ 15
geschick@@ 15
gesund 15
gesund@@ 15
gewinnen 15
gezeig@@ 15
gift 15
glac@@ 15
glich@@ 15
gliche 15
glieder 15
going, 15
gran@@ 15
grau@@ 15
grundlegende 15
grüne 15
gutes 15
history." 15
home. 15
how, 15
humanit@@ 15
hunder@@ 15
icht@@ 15
id, 15
id." 15
identif@@ 15
ief 15
iertes 15
ight, 15
ild 15
imation 15
inc@@ 15
industrial 15
inform@@ 15
information." 15
infrastructure 15
ingredi@@ 15
ings." 15
injur@@ 15
inte@@ 15
intellectual 15
intellektu@@ 15
intu@@ 15
is? 15
ites 15
itself." 15
job, 15
jump 15
kaufen 15
keeps 15
klu@@ 15
konfron@@ 15
konzent@@ 15
kurzem 15
ky 15
kä@@ 15
lage 15
lak@@ 15
lay@@ 15
lebte 15
legi@@ 15
lesen, 15
lessons 15
liche, 15
lief 15
liquid 15
live." 15
majority 15
meaning@@ 15
means, 15
mechanis@@ 15
meiste 15
mel 15
mented 15
metaph@@ 15
meter 15
misch@@ 15
moment@@ 15
month 15
morning, 15
mortality 15
musste, 15
nahme, 15
nann@@ 15
nannten 15
nec@@ 15
neh@@ 15
nehm@@ 15
nennen, 15
nete 15
nex@@ 15
nichts, 15
nimmt, 15
nis, 15
nit@@ 15
noch, 15
nächstes 15
oes 15
ologie, 15
ology, 15
oni@@ 15
organized 15
others." 15
ound@@ 15
parents, 15
partn@@ 15
passed 15
patho@@ 15
pattern@@ 15
perception 15
perspec@@ 15
pf 15
pflich@@ 15
phone, 15
phr@@ 15
physischen 15
pill@@ 15
pip@@ 15
pointed 15
positiven 15
ppe 15
practice 15
precis@@ 15
prob@@ 15
problems, 15
proc@@ 15
processing 15
profi@@ 15
property 15
pros@@ 15
prot@@ 15
proud 15
qualität 15
racht 15
raise 15
raten 15
record 15
ree 15
regelmäß@@ 15
release 15
repe@@ 15
resource 15
restri@@ 15
revolution@@ 15
rhyth@@ 15
ridicul@@ 15
riffe 15
roh@@ 15
room. 15
rou@@ 15
sak@@ 15
scheinen 15
school. 15
scrat@@ 15
search@@ 15
seas@@ 15
seitdem 15
self 15
selts@@ 15
sem 15
ser 15
serv@@ 15
ship, 15
shouldn't 15
sites 15
slide 15
small, 15
sni@@ 15
society." 15
solch 15
somehow 15
something. 15
sorgen, 15
species, 15
sphäre 15
spiel 15
spring@@ 15
starke 15
stecken 15
steel 15
stimmen 15
stimul@@ 15
stir@@ 15
stol@@ 15
stood 15
strategy 15
stration 15
stream 15
struggl@@ 15
struk@@ 15
stuff, 15
stärker 15
subjec@@ 15
supp@@ 15
surro@@ 15
sw@@ 15
t'@@ 15
tax@@ 15
technical 15
tell@@ 15
tenden 15
tens: 15
teste 15
thal@@ 15
the-@@ 15
theater 15
theme 15
ther. 15
tic, 15
tiefer 15
til@@ 15
tima@@ 15
tis 15
toward 15
transition 15
transmit@@ 15
trick@@ 15
triff@@ 15
trouble 15
träum@@ 15
tter 15
tured 15
tures 15
twice 15
ulier@@ 15
uncertain@@ 15
underst@@ 15
universal 15
untersuchen 15
unver@@ 15
upp@@ 15
urb@@ 15
utes 15
vas@@ 15
vement 15
verbin@@ 15
verbrachte 15
verbrauch@@ 15
verges@@ 15
verring@@ 15
verwand@@ 15
via 15
vice, 15
vielmehr 15
ving, 15
virus 15
vision@@ 15
volles 15
vorsich@@ 15
vote 15
wahr 15
wand 15
weeks, 15
weg, 15
weiss 15
weiße 15
welchem 15
wherever 15
why, 15
wichti@@ 15
wirklich, 15
wischen@@ 15
witz@@ 15
woh@@ 15
won 15
won@@ 15
wrong, 15
wunderbare 15
wussten, 15
young@@ 15
yourself, 15
zahlen 15
zep@@ 15
zeuge 15
zuzu@@ 15
Ägyp@@ 15
Ähn@@ 15
Überrasch@@ 15
änz@@ 15
ärz@@ 15
ökolog@@ 15
überzeugen, 15
!"" 14
""E@@ 14
""Okay, 14
"Andere 14
"Können 14
"Sehen 14
"Wür@@ 14
-K@@ 14
1. 14
100,000 14
12. 14
2003 14
32 14
3D 14
42 14
44 14
46 14
500@@ 14
AI 14
Amaz@@ 14
Amei@@ 14
Anderson: 14
Argentin@@ 14
Arme@@ 14
Armen 14
Aspekt 14
Audi@@ 14
Ausdruck 14
Autob@@ 14
BF: 14
Band@@ 14
Bank 14
Beim 14
Bein@@ 14
Benutz@@ 14
Beweis 14
Blo@@ 14
Blä@@ 14
Bom@@ 14
Botschaft 14
Brand@@ 14
Brun@@ 14
Carol@@ 14
Chanc@@ 14
Child@@ 14
Chromo@@ 14
Commun@@ 14
Comp@@ 14
Cour@@ 14
Details 14
Direk@@ 14
Dr@@ 14
Drei@@ 14
Drittel 14
Drogen@@ 14
Ehe@@ 14
Einer 14
Einkommen@@ 14
Eli@@ 14
Engl@@ 14
Entrop@@ 14
Fakten 14
Familie, 14
Film@@ 14
Finger 14
Flei@@ 14
Fort@@ 14
Frauen@@ 14
Freude 14
Funktion 14
GPS 14
Ganze 14
Gefahr 14
Gen 14
Gerechtigkeit 14
Geräusch 14
Gesam@@ 14
Ghan@@ 14
God, 14
Gor@@ 14
Gott, 14
Haar 14
Hab@@ 14
Handy 14
Hintergrund 14
Hit@@ 14
Hunderte 14
Individu@@ 14
Individuen 14
Inn@@ 14
Institutionen 14
Jim 14
KI 14
Kohlendiox@@ 14
Komment@@ 14
Kontext 14
Kraft, 14
Krie@@ 14
Kunden 14
Kämp@@ 14
Lauf@@ 14
Lebensmittel 14
Lebewesen 14
Leh@@ 14
Leist@@ 14
Liber@@ 14
Liter@@ 14
Mac@@ 14
Maga@@ 14
Ment@@ 14
Mäd@@ 14
Männern 14
Mär@@ 14
National@@ 14
Net@@ 14
Netzwerke 14
Niemand 14
Nutzen 14
Pass@@ 14
Patient@@ 14
Person, 14
Persön@@ 14
Pet@@ 14
Pilo@@ 14
Planet 14
Plastik@@ 14
President 14
Produ@@ 14
Program@@ 14
Programme 14
Projekte 14
Präsent@@ 14
Präsident 14
Qa@@ 14
Que@@ 14
Quelle 14
R 14
Rechts@@ 14
Recycl@@ 14
Restauran@@ 14
Ros@@ 14
Sachen, 14
Sand 14
Schimpan@@ 14
Schne@@ 14
Schokol@@ 14
Schutz@@ 14
Seel@@ 14
Selbstmor@@ 14
Show 14
Silicon 14
Situationen 14
Skl@@ 14
Spann@@ 14
Stanfor@@ 14
Stanford 14
Stern@@ 14
Stimm@@ 14
Struktur@@ 14
T, 14
Tanz@@ 14
Tatsache 14
Teles@@ 14
Theater 14
Titan 14
Tom@@ 14
Tru@@ 14
Uganda 14
Unternehmen, 14
Verfüg@@ 14
Verwand@@ 14
Vide@@ 14
Vorfahren 14
Wahrscheinlichkeit 14
Wald 14
War 14
Washing@@ 14
Wellen 14
Werk 14
Westen 14
Will@@ 14
Zerstör@@ 14
Zivilisa@@ 14
a"" 14
aband@@ 14
abhängig 14
abilities 14
accum@@ 14
acht@@ 14
adel@@ 14
aden, 14
ador@@ 14
advance 14
ague 14
aktu@@ 14
aktuelle 14
aku@@ 14
allerdings 14
amounts 14
ams 14
analog@@ 14
anderen, 14
anget@@ 14
anneh@@ 14
anpass@@ 14
aper 14
app 14
applied 14
archit@@ 14
artigen 14
arts 14
ases 14
associ@@ 14
assume 14
aster 14
ated. 14
ativ 14
atoren 14
aufgenommen 14
aufger@@ 14
augh@@ 14
bath@@ 14
bedeck@@ 14
beginnen, 14
beha@@ 14
behal@@ 14
beherr@@ 14
bekannte 14
belon@@ 14
benefit 14
beobachten 14
beobachten, 14
bers 14
beschrie@@ 14
betrachten, 14
bewegen, 14
bias 14
blind 14
block 14
brain. 14
brand@@ 14
breite 14
bringt, 14
broken@@ 14
cann@@ 14
career 14
carefully 14
cells." 14
chain 14
charge 14
cit@@ 14
citizens 14
cks, 14
ckt 14
classroom 14
clinical 14
cock@@ 14
coffee 14
collect 14
collected 14
collection 14
come." 14
commercial 14
complex@@ 14
complexity 14
complic@@ 14
computer, 14
concre@@ 14
corrup@@ 14
covered 14
covery 14
crash@@ 14
credi@@ 14
cure 14
d? 14
d?" 14
dachten 14
damag@@ 14
dauert 14
davor 14
de: 14
debat@@ 14
define 14
definitely 14
demand 14
denken: 14
deplo@@ 14
derzeit 14
designing 14
det, 14
diabet@@ 14
dies, 14
different, 14
digt 14
dinner 14
diplom@@ 14
dischen 14
discrimin@@ 14
doing, 14
doing." 14
done. 14
doppelt 14
dress@@ 14
drü@@ 14
drückt 14
easily 14
echn@@ 14
ed.""" 14
edge 14
effort 14
ehl@@ 14
eing 14
einmal@@ 14
electrical 14
electron@@ 14
eln@@ 14
else, 14
else. 14
emerging 14
emissions 14
emotion 14
energie 14
engineers 14
entdecken 14
entering 14
entstand 14
enz, 14
equipment 14
erfahren 14
erfolgreich@@ 14
erhielten 14
erhäl@@ 14
erinner@@ 14
erklären 14
erlauben 14
ernst 14
ernsthaf@@ 14
erschein@@ 14
erscheint 14
ery 14
erzähle 14
erzählt 14
ester@@ 14
eur 14
event@@ 14
everywhere 14
example." 14
exercis@@ 14
exhibi@@ 14
existiert 14
exo@@ 14
expand@@ 14
experts 14
extraordin@@ 14
fabri@@ 14
fabric 14
fai@@ 14
farm 14
fassen 14
fat 14
fit@@ 14
ford 14
form." 14
former 14
forms, 14
fort, 14
fought 14
frame@@ 14
frie@@ 14
gegangen 14
gelern@@ 14
genauer 14
generations 14
genetische 14
genie@@ 14
gens 14
geschaffen 14
gesetzt, 14
gesteu@@ 14
getrenn@@ 14
gewisser 14
gik 14
ging, 14
glichen 14
gold 14
got@@ 14
graf@@ 14
gras@@ 14
gross@@ 14
ground." 14
grown 14
groß, 14
großartigen 14
gung 14
ha, 14
handed 14
haus@@ 14
heart@@ 14
hed 14
heu@@ 14
heute, 14
hinaus@@ 14
hinein 14
hohe 14
holds 14
honest 14
honor 14
hormon@@ 14
hypo@@ 14
iegel 14
ierenden 14
ilit@@ 14
illenni@@ 14
ince 14
increasingly 14
indeed 14
industrie 14
infin@@ 14
ingly, 14
innovative 14
insbesondere 14
insur@@ 14
integra@@ 14
interessant 14
interessant, 14
intro@@ 14
ips 14
ities 14
izon@@ 14
jemand, 14
joined 14
jähr@@ 14
kannte 14
kaufen, 14
kid, 14
kids, 14
klei@@ 14
know. 14
kogni@@ 14
konstru@@ 14
krieg 14
kurze 14
labor 14
langu@@ 14
language." 14
lau 14
launched 14
lawy@@ 14
lay 14
leaves 14
lern 14
letzter 14
li, 14
lich: 14
lick@@ 14
life-@@ 14
liked 14
lish 14
magne@@ 14
mals 14
mass@@ 14
menschlicher 14
met, 14
minded 14
minister 14
mira@@ 14
mittleren 14
molekul@@ 14
monkeys 14
mountain 14
mouse 14
mouth 14
music, 14
mögen, 14
nah 14
nahmen, 14
near@@ 14
ner, 14
networks 14
nor 14
nt 14
näch@@ 14
ober@@ 14
of. 14
off-@@ 14
offered 14
ograf@@ 14
ohl@@ 14
oil@@ 14
ony 14
opening 14
opp@@ 14
organizations 14
ories 14
ors." 14
other. 14
ourselves, 14
overall 14
oxy@@ 14
p. 14
page 14
parent 14
participants 14
performing 14
person." 14
pher@@ 14
piec@@ 14
pig@@ 14
pilo@@ 14
ples 14
ples. 14
pock@@ 14
poly@@ 14
pop 14
pounds 14
prei@@ 14
pressure 14
pure 14
pyra@@ 14
q@@ 14
quasi 14
quickly, 14
quiet 14
radical 14
radik@@ 14
rank@@ 14
reagieren 14
realis@@ 14
realiz@@ 14
realizing 14
reas@@ 14
region 14
regions 14
require 14
required 14
resourc@@ 14
result, 14
retten 14
ring@@ 14
roll 14
roo@@ 14
ry. 14
räum@@ 14
sat 14
satz 14
scale, 14
scan 14
scheinbar 14
schen@@ 14
schluss@@ 14
schmerz@@ 14
scht 14
schule 14
schwe@@ 14
schwer, 14
schwierig, 14
schwieriger 14
schätzen 14
sculp@@ 14
sech@@ 14
seconds 14
sed, 14
sees 14
selling 14
sely 14
sensitive 14
services 14
setzung 14
sexuelle 14
shir@@ 14
shoes 14
shop 14
signal 14
sity 14
sky 14
societies 14
sogar, 14
soll, 14
spa@@ 14
space. 14
space." 14
spru@@ 14
stak@@ 14
stamm@@ 14
starken 14
stes 14
stig@@ 14
sting 14
stolz 14
strahl@@ 14
streets 14
stret@@ 14
stuff. 14
suffering 14
summer 14
switch 14
tail 14
tail@@ 14
tations 14
temporary 14
tene 14
teure 14
thiop@@ 14
three, 14
through@@ 14
thrown 14
ticians 14
tier 14
tiert, 14
tiver 14
tles 14
tly, 14
toda@@ 14
toren, 14
tritt 14
trägt 14
ually 14
ubli@@ 14
uch 14
unding 14
unend@@ 14
unendlich 14
ungewöhn@@ 14
uni@@ 14
universe, 14
unt@@ 14
unteren 14
ure." 14
use." 14
ussion 14
vehicle 14
vem@@ 14
verab@@ 14
verbrauch 14
verfügbar 14
verlieren 14
vermittel@@ 14
vermut@@ 14
vernetz@@ 14
verrückt 14
vers 14
verschw@@ 14
verständlich 14
veränderte 14
vess@@ 14
viel, 14
volunte@@ 14
wagen 14
wall@@ 14
wanting 14
ware 14
warm@@ 14
warten, 14
weird 14
weißen 14
welt@@ 14
whate@@ 14
wie: 14
wieder, 14
wil@@ 14
windig@@ 14
wobei 14
wodurch 14
woher 14
wol@@ 14
wollten, 14
ys. 14
yto@@ 14
zogen, 14
zone 14
zugänglich 14
zwei, 14
zy@@ 14
Äng@@ 14
ämp@@ 14
überleben 14
ühr@@ 14
ürz@@ 14
üsse 14
ützen 14
""Der 13
""Ja, 13
""Sie 13
"Alles 13
"Anstatt 13
"Dam@@ 13
"Damit 13
"Genau 13
"Ist 13
"Jedes 13
"Schauen 13
"Sol@@ 13
"Zwei@@ 13
"in 13
&amp; 13
(Lach@@ 13
,000@@ 13
.' 13
10-@@ 13
20, 13
2010, 13
26@@ 13
99 13
Abendessen 13
Absol@@ 13
Adam@@ 13
Africa. 13
Ansicht 13
Arbeitsk@@ 13
Arme 13
Aug@@ 13
Außer@@ 13
Bauern 13
Baum@@ 13
Bay 13
Bedrohung 13
Bedürfnisse 13
Beschei@@ 13
Bewegungen 13
Bewusstsein 13
Black 13
Bran@@ 13
Bul@@ 13
Cent@@ 13
Chic@@ 13
D, 13
Diplom@@ 13
Dre@@ 13
Dunkel@@ 13
ES@@ 13
Eigenschaften 13
Eigent@@ 13
El 13
Elektriz@@ 13
Englisch 13
Entdeckungen 13
Erfin@@ 13
Eric 13
Experimente 13
F 13
Feuer@@ 13
Foundation 13
Francisco@@ 13
Frequ@@ 13
Freun@@ 13
Führung@@ 13
Füße 13
GD@@ 13
Gedi@@ 13
Gedächtnis 13
Gef@@ 13
Gegenteil 13
Gericht 13
German@@ 13
Gesichter 13
Gesprä@@ 13
Gewin@@ 13
Gewohn@@ 13
Glas@@ 13
Greek 13
Gren@@ 13
Großmutter 13
Göt@@ 13
Hass@@ 13
Haw@@ 13
Hen@@ 13
Hier@@ 13
Holoc@@ 13
Hund 13
Hung@@ 13
IP 13
Ideen, 13
Inner@@ 13
Insel@@ 13
Institute 13
Inte@@ 13
J: 13
Jack 13
Jahrhunderts 13
Junge 13
K. 13
Kateg@@ 13
Keine 13
Klu@@ 13
Kommen 13
Komplexität 13
Kraft@@ 13
Kreb@@ 13
Kreis@@ 13
Kä@@ 13
LGB@@ 13
Lage, 13
Leistungs@@ 13
Lieblings@@ 13
Linien 13
Lou@@ 13
Macht@@ 13
Mah@@ 13
Manche 13
Mass@@ 13
Meinungen 13
Mensch, 13
Methoden 13
Misch@@ 13
Modell@@ 13
Motiv@@ 13
Muse@@ 13
Must@@ 13
Mädchen, 13
Nachbarn 13
Nahr@@ 13
Nehmen 13
Nein, 13
Netzwerk@@ 13
Neuronen 13
Nichts 13
Nobel 13
Ok@@ 13
Oka@@ 13
Parado@@ 13
Parkinson@@ 13
Perspek@@ 13
Pflanz@@ 13
Pfund 13
Phil@@ 13
Phili@@ 13
Pittsbur@@ 13
Portu@@ 13
Prior@@ 13
Probleme, 13
Produktion 13
Rechte 13
Rezept 13
Russ@@ 13
Saf@@ 13
Schaden 13
Schick@@ 13
Schuld 13
Schule, 13
Schwi@@ 13
Schwier@@ 13
Sec@@ 13
Sho@@ 13
Sign@@ 13
Signal 13
Sir@@ 13
Sitz@@ 13
Sonn@@ 13
Spektr@@ 13
Spitz@@ 13
St. 13
Staats@@ 13
States, 13
Stau@@ 13
Strukturen 13
Sä@@ 13
Terrorismus 13
Tieren 13
Tim 13
Tumor 13
Tun@@ 13
Typen 13
Universitä@@ 13
Unterrich@@ 13
V: 13
Verantwort@@ 13
Verhaltens@@ 13
Versuch 13
Vietnam 13
Weihnach@@ 13
Wert@@ 13
Wichtig@@ 13
Wink@@ 13
Winter@@ 13
Wochen@@ 13
Worten, 13
Wut 13
Zimmer 13
Zuhause 13
Zusammenhang 13
ability." 13
about@@ 13
absolute 13
acqu@@ 13
actions 13
actu@@ 13
adurch 13
affects 13
afford@@ 13
ages, 13
ago@@ 13
agon@@ 13
ails 13
akadem@@ 13
alo@@ 13
ament 13
amplif@@ 13
an's 13
anatom@@ 13
anced 13
angef@@ 13
angefangen 13
angen@@ 13
anschauen, 13
ant. 13
antast@@ 13
anten@@ 13
antibio@@ 13
arbeiteten 13
around." 13
asche 13
ask, 13
asks 13
athlet@@ 13
aun@@ 13
ausbrei@@ 13
ause, 13
aust@@ 13
außer@@ 13
außergewöhnliche 13
awful 13
bac@@ 13
bacter@@ 13
bah@@ 13
bahn 13
balance 13
behandelt 13
bei, 13
bekommt, 13
belief 13
believe, 13
believes 13
bemerkenswer@@ 13
besagt, 13
bestä@@ 13
bet 13
better." 13
bezüglich 13
beängstig@@ 13
bie 13
bieten, 13
bilden, 13
biom@@ 13
bits 13
blocks 13
boat 13
boden 13
body. 13
bottom@@ 13
brach 13
brand 13
breaking 13
breath@@ 13
brü@@ 13
cancer. 13
candid@@ 13
carry 13
cases, 13
causing 13
centr@@ 13
chemist@@ 13
ches@@ 13
child, 13
childhood 13
chimpanz@@ 13
chocol@@ 13
chts@@ 13
chur@@ 13
cities, 13
cke, 13
claim 13
clean@@ 13
communication 13
compare 13
conditions 13
confidence 13
consequ@@ 13
contin@@ 13
convince 13
countries. 13
craz@@ 13
creatures 13
crime 13
cs 13
cular 13
currently 13
dachte: 13
dahin 13
danach, 13
dead, 13
delici@@ 13
demonstr@@ 13
den: 13
dennoch 13
dependent 13
depends 13
design." 13
dessen, 13
dex 13
dialog@@ 13
did, 13
different." 13
different@@ 13
disku@@ 13
disor@@ 13
distra@@ 13
distributed 13
dium 13
divi@@ 13
dokum@@ 13
dollar 13
down. 13
draw@@ 13
dunk@@ 13
dür@@ 13
earlier 13
ears 13
easy, 13
eating 13
egal, 13
egro@@ 13
ehen, 13
ek 13
ek, 13
elli@@ 13
els, 13
emerg@@ 13
employe@@ 13
ems 13
endete 13
ends, 13
ener@@ 13
entscheiden, 13
environment." 13
equi@@ 13
erei@@ 13
erfahr@@ 13
erkannte 13
erleben 13
erneu@@ 13
err@@ 13
erseits 13
erstaunliche 13
esc@@ 13
esh 13
ett 13
evi@@ 13
evolution." 13
exact 13
exec@@ 13
expected 13
experiencing 13
express 13
failed 13
fall, 13
falsche 13
favor@@ 13
features 13
feelings 13
fern 13
figured 13
figuring 13
fill@@ 13
film@@ 13
finish 13
fisch@@ 13
fliegen, 13
flies 13
flower@@ 13
fluss@@ 13
follo@@ 13
followed 13
fore 13
fossil@@ 13
fotograf@@ 13
fragt: 13
französ@@ 13
fried@@ 13
fris@@ 13
fts@@ 13
fuel 13
function@@ 13
fut@@ 13
games, 13
gang@@ 13
gay 13
gedach@@ 13
gefunden, 13
gehö@@ 13
gehören 13
gekauf@@ 13
gelie@@ 13
generally 13
genetischen 13
gent@@ 13
gers 13
gesammelt 13
geschah 13
geschnit@@ 13
gewaltige 13
gewisse 13
gezw@@ 13
gier 13
gig@@ 13
glass 13
glaubt, 13
gluco@@ 13
great, 13
great-@@ 13
großartig@@ 13
gründet@@ 13
guid@@ 13
habt 13
had, 13
happens." 13
have." 13
heart, 13
heran@@ 13
hergestellt 13
heroes 13
hidden 13
hierher 13
history. 13
hole 13
hundert@@ 13
häng@@ 13
ica 13
ichts 13
ick, 13
ie-@@ 13
ien@@ 13
ierte, 13
ierungs@@ 13
igen, 13
ign 13
iken 13
ile, 13
illustr@@ 13
image, 13
immune 13
importance 13
important. 13
improvis@@ 13
include 13
influence 13
innern 13
instinc@@ 13
institutions 13
interessanten 13
internationalen 13
istic 13
iten 13
itiv 13
itt@@ 13
iv@@ 13
iziert 13
jag@@ 13
jeg@@ 13
jemand@@ 13
kat@@ 13
kaufs@@ 13
keeping 13
klar. 13
klass@@ 13
know? 13
koll@@ 13
kommun@@ 13
komplet@@ 13
kulturelle 13
kurzen 13
kö@@ 13
künstliche 13
langen, 13
laufen, 13
law@@ 13
leadership 13
lean 13
lebten 13
left-@@ 13
leistungen 13
len 13
lichkeits@@ 13
lieben@@ 13
linked 13
lit 13
machte, 13
mainly 13
mann 13
massi@@ 13
match 13
measur@@ 13
media, 13
meist 13
meister@@ 13
member 13
messages 13
method 13
mindestens 13
mistake 13
mith@@ 13
model, 13
morgens 13
morn@@ 13
mothers 13
mountain@@ 13
musik@@ 13
musst 13
mutzung 13
mächtig@@ 13
mächtige 13
möglicherweise 13
nachts 13
neben@@ 13
negativ@@ 13
neutr@@ 13
nochmal 13
normale 13
north 13
not." 13
note 13
nte 13
nut@@ 13
objek@@ 13
obs@@ 13
observ@@ 13
occup@@ 13
of-@@ 13
off. 13
ologi@@ 13
opportunities 13
or: 13
oral 13
org@@ 13
ossen 13
ourselves. 13
over, 13
ow@@ 13
ox@@ 13
p." 13
paint 13
pair 13
ped, 13
perman@@ 13
person's 13
perspective, 13
peti@@ 13
pfen 13
ph 13
phan@@ 13
photos 13
pie@@ 13
plan, 13
planet. 13
plans 13
plant, 13
politics 13
posit@@ 13
possibili@@ 13
potentially 13
preci@@ 13
presence 13
princi@@ 13
principles 13
probab@@ 13
proble@@ 13
process. 13
processes 13
producing 13
productive 13
profound 13
proto@@ 13
prove 13
provided 13
ption 13
publish@@ 13
ques@@ 13
question@@ 13
questions." 13
rach@@ 13
radio@@ 13
random 13
rann@@ 13
rat 13
rate, 13
reaching 13
reak@@ 13
receive 13
ref@@ 13
refugee 13
regel@@ 13
relationships 13
relativ@@ 13
relev@@ 13
repar@@ 13
repeat 13
replac@@ 13
replic@@ 13
represents 13
resili@@ 13
respek@@ 13
return 13
rige 13
right? 13
risk, 13
river 13
rom@@ 13
roots 13
runter 13
ry." 13
räume 13
safety 13
sammlung 13
sar@@ 13
satz, 13
saved 13
scene 13
schafft 13
schicken 13
schien 13
schlaf@@ 13
schlüs@@ 13
schnitt 13
schock@@ 13
schrieb@@ 13
schutz@@ 13
schätzen, 13
scientist 13
security, 13
separ@@ 13
served 13
sets 13
setzt, 13
shado@@ 13
shut 13
side@@ 13
sive, 13
siz@@ 13
sky@@ 13
sogenannten 13
something." 13
sophistic@@ 13
sorgen 13
soul 13
soviel 13
spectr@@ 13
spiritu@@ 13
spoke 13
sprachen 13
square 13
stabili@@ 13
states 13
steigen 13
steiger@@ 13
stero@@ 13
stitu@@ 13
stom@@ 13
streck@@ 13
strä@@ 13
study, 13
stum@@ 13
ständen 13
supply 13
surprised 13
surrounded 13
symbol@@ 13
symmetri@@ 13
t) 13
ta, 13
tanz@@ 13
tax 13
tech@@ 13
techniques 13
tens, 13
ters." 13
theit 13
themselv@@ 13
theory, 13
these, 13
thetic 13
through, 13
tivier@@ 13
topic@@ 13
tor. 13
tough 13
trag, 13
trast 13
tremendous 13
trieb 13
tron@@ 13
true, 13
tually, 13
ty. 13
tät 13
ultimately 13
umge@@ 13
ungeh@@ 13
uniqu@@ 13
unlike 13
unsich@@ 13
unterweg@@ 13
upper 13
use, 13
utel@@ 13
uten 13
vat@@ 13
vention 13
venu@@ 13
verantwor@@ 13
verblüff@@ 13
verfüg@@ 13
verkauft 13
verstanden 13
verstanden, 13
vertraut 13
vibr@@ 13
viele, 13
violent 13
voices 13
vorhan@@ 13
vulner@@ 13
vö@@ 13
war: 13
wash 13
weib@@ 13
weiterer 13
weltweiten 13
westlichen 13
what? 13
where." 13
wirken 13
wirkliche 13
wirklichen 13
womit 13
wonder 13
word, 13
wou@@ 13
wrong@@ 13
yon@@ 13
zeichnen 13
zukünf@@ 13
zurückkehr@@ 13
zwing@@ 13
« 13
ähnlichen 13
ärke 13
ürf@@ 13
""It 12
""It's 12
""Nein, 12
""No, 12
"Aus 12
"Gehen 12
"Normal@@ 12
"Ob@@ 12
"Und, 12
"Zu@@ 12
"wenn 12
"Über 12
'"" 12
'80@@ 12
(Applaus@@ 12
), 12
,5 12
-J@@ 12
.C@@ 12
0.@@ 12
00 12
120 12
2008 12
250 12
33 12
36 12
47 12
50-@@ 12
50.000 12
85 12
Achse 12
Afghanistan 12
Amerikan@@ 12
Analyse 12
Anführer 12
Angst@@ 12
Anpass@@ 12
April 12
Architektur@@ 12
Arten@@ 12
Aufmerksam@@ 12
Aust@@ 12
Banglad@@ 12
Berg 12
Bericht 12
Bess@@ 12
Bett 12
Bewei@@ 12
Bildungs@@ 12
Billi@@ 12
Bis 12
Bis@@ 12
Blau@@ 12
Blum@@ 12
Box 12
Brei@@ 12
Brookly@@ 12
CD@@ 12
Christmas 12
Christop@@ 12
Clonie. 12
Computern 12
Daniel 12
Darwin 12
Dev@@ 12
Diabet@@ 12
Diagra@@ 12
Dien@@ 12
Dig@@ 12
Dimen@@ 12
Diskussion 12
Does 12
Doktor@@ 12
Dou@@ 12
Drit@@ 12
Drucker 12
Earth. 12
Echtzeit 12
Eigenschaf@@ 12
Eindruck 12
Einst@@ 12
Elec@@ 12
Emis@@ 12
Energi@@ 12
Entwur@@ 12
Epidem@@ 12
Eri@@ 12
Erinnerungen 12
Eu@@ 12
Exc@@ 12
Exist@@ 12
Facebook, 12
Fall, 12
Fam@@ 12
Fantas@@ 12
Fisch 12
Flas@@ 12
Fläche 12
Folge 12
Folgendes 12
Freunde, 12
Fri@@ 12
Fru@@ 12
Fäll@@ 12
Gang@@ 12
Ganz 12
Gebiet 12
Gedichte 12
Gefühl, 12
Geistes@@ 12
German 12
Geräusche 12
Geschichten, 12
Geschäft 12
Gesichts@@ 12
Get@@ 12
Gewäss@@ 12
Gold@@ 12
Golf@@ 12
Goliath 12
Grafik 12
Großbritann@@ 12
Gründe, 12
Hall@@ 12
Handlungen 12
Haus, 12
Hem@@ 12
Herr 12
Heutzutage 12
Hill@@ 12
Hind@@ 12
Hinsicht 12
Hip@@ 12
Hom@@ 12
Hosp@@ 12
Howard 12
Häus@@ 12
Häuser 12
Hür@@ 12
Identi@@ 12
Imp@@ 12
Insel 12
International 12
Intu@@ 12
Islam@@ 12
Jahr, 12
Jede 12
Jerse@@ 12
Jun@@ 12
Kandid@@ 12
Kann 12
Karriere 12
Kindern, 12
Klassen@@ 12
Kohle 12
Kommun@@ 12
Kommunikation 12
Korrup@@ 12
Kräfte 12
Kultur, 12
LKW@@ 12
Landwirtschaf@@ 12
Larry 12
Lauf 12
Leg@@ 12
Liebl@@ 12
Link@@ 12
Lärm 12
Magnet@@ 12
Materie 12
Maßstab 12
Meg@@ 12
Mehr@@ 12
Milliarde 12
Minute 12
Mitarbeiter 12
Mobiltelef@@ 12
Music 12
Musli@@ 12
Muslim 12
NG@@ 12
Neben@@ 12
Nervenzellen 12
Ni@@ 12
Nieder@@ 12
O'@@ 12
Organe 12
Pacific 12
Palä@@ 12
Patri@@ 12
Pazi@@ 12
Pen@@ 12
Peter 12
Phase 12
Plan 12
Port@@ 12
Problem, 12
Prü@@ 12
Punkt, 12
Q 12
RE@@ 12
Ram@@ 12
Raum, 12
Rezep@@ 12
Rhyth@@ 12
Roman 12
Rö@@ 12
Rücken@@ 12
SM@@ 12
Samm@@ 12
Schauspiel@@ 12
Schle@@ 12
Schlei@@ 12
Schmerzen 12
Schutz 12
See@@ 12
Seine 12
Seite, 12
Sil@@ 12
Sinn, 12
Sklaver@@ 12
Skulp@@ 12
Softwar@@ 12
Sozi@@ 12
Spielzeug 12
Standard@@ 12
States." 12
Statistiken 12
Strahlung 12
Struktur, 12
Subst@@ 12
Syndro@@ 12
System, 12
Szen@@ 12
TE@@ 12
Taten 12
Teil, 12
Teilchen 12
Them@@ 12
Therap@@ 12
Thr@@ 12
Tier 12
Treffen 12
Ugan@@ 12
Uhr@@ 12
Uni@@ 12
Universit@@ 12
Universums 12
Urs@@ 12
Ursprung 12
Valley 12
Verbindungen 12
Verein@@ 12
Verkehr@@ 12
Verrück@@ 12
Versuch, 12
Vorurteile 12
Vögel 12
W 12
Wahrschein@@ 12
Wall 12
Wasch@@ 12
Washington 12
Weile 12
Weisheit 12
Welche 12
Welten 12
Weltrau@@ 12
Wen@@ 12
Wesen 12
Wett@@ 12
Wikipedi@@ 12
Wild@@ 12
Wirkung 12
Yo@@ 12
Zen@@ 12
Ziel, 12
Zy@@ 12
a.@@ 12
ability, 12
abin@@ 12
about. 12
absol@@ 12
abstract 12
abund@@ 12
accomp@@ 12
accoun@@ 12
aches 12
achtet 12
addic@@ 12
ade@@ 12
admit 12
advice 12
advis@@ 12
afrikan@@ 12
afterno@@ 12
aggres@@ 12
agreed 12
aid 12
airplan@@ 12
ais@@ 12
aking 12
akl@@ 12
aks 12
alien, 12
aligen 12
allgemeinen 12
alli@@ 12
along, 12
amm 12
anfäng@@ 12
anische 12
anschauen 12
anything, 12
anze 12
apart@@ 12
apor@@ 12
appear@@ 12
appears 12
appreciate 12
ard-@@ 12
ark@@ 12
around. 12
art@@ 12
ased 12
aspect 12
assump@@ 12
atoms 12
attention, 12
ausgesetzt 12
automatisch 12
bag@@ 12
bank@@ 12
baut 12
bec@@ 12
begeister@@ 12
behaviors 12
beispielsweise 12
belief@@ 12
bemer@@ 12
benutzt, 12
bereit, 12
bers, 12
berührt 12
besie@@ 12
besser, 12
besteht, 12
bestimmt, 12
beteilig@@ 12
beteiligt 12
beunruhig@@ 12
bevölkerung 12
bezahlt 12
bildung 12
biology, 12
bitten 12
bizar@@ 12
bodies, 12
boom@@ 12
brilliant 12
bs, 12
but, 12
cancer, 12
cancer@@ 12
cand@@ 12
cast 12
celebr@@ 12
century." 12
chao@@ 12
character 12
character@@ 12
chemische 12
childhoo@@ 12
chs 12
chter 12
club 12
co-@@ 12
coff@@ 12
colleagu@@ 12
commer@@ 12
commis@@ 12
compla@@ 12
conclu@@ 12
consi@@ 12
constrain@@ 12
construct 12
construction 12
contrac@@ 12
contribut@@ 12
controll@@ 12
copy 12
creatur@@ 12
dabei@@ 12
danger@@ 12
date 12
decade 12
decl@@ 12
decline 12
dee@@ 12
degra@@ 12
demokra@@ 12
depression 12
determine 12
devices 12
did. 12
diger 12
digitalen 12
dimen@@ 12
dinosaur@@ 12
disap@@ 12
disaster 12
distinc@@ 12
divided 12
dness 12
dop@@ 12
dorthin 12
dose 12
double 12
download 12
dozen 12
dramatic 12
dreams 12
drink 12
drinking 12
ed? 12
efficiency 12
ehem@@ 12
eingebau@@ 12
eingesetzt 12
einiges 12
einsch@@ 12
eir 12
eks 12
elektrische 12
eleph@@ 12
eless, 12
elten 12
embrace 12
ement, 12
enable 12
endet 12
engineered 12
enough. 12
entdeckt 12
entdeckte 12
entsprech@@ 12
entstehen 12
enttäusch@@ 12
entwor@@ 12
er"" 12
erfahren, 12
erinnerte 12
erschreck@@ 12
erstellt 12
ession@@ 12
etten 12
ety 12
europäischen 12
event 12
evolutionary 12
execu@@ 12
exercise 12
expensive 12
extin@@ 12
face." 12
faced 12
false 12
fashion 12
faszin@@ 12
fat@@ 12
favor 12
feedback 12
ffen@@ 12
finanzi@@ 12
finde, 12
floo@@ 12
floor 12
flüch@@ 12
folgende 12
folks 12
for, 12
forming 12
formu@@ 12
fossil 12
foundation 12
frustr@@ 12
frühe 12
fuhr@@ 12
fully, 12
fung@@ 12
fährt 12
füllt 12
gearbeit@@ 12
geber 12
gebr@@ 12
gebracht, 12
gedacht, 12
gefall@@ 12
gefangen 12
geführt 12
gelt 12
genau, 12
geschle@@ 12
geschwindigkeit 12
gesunde 12
get, 12
geteil@@ 12
getötet 12
gewählt 12
gig 12
gin@@ 12
glass@@ 12
glie@@ 12
glied 12
grain 12
gray 12
growth, 12
großen, 12
grundlegenden 12
grundsätzlich 12
gruppe 12
guar@@ 12
h-@@ 12
han 12
handle 12
hang 12
happens, 12
health. 12
hie@@ 12
highest 12
hilfrei@@ 12
hire 12
hopefully 12
humans, 12
hun@@ 12
hyper@@ 12
ichten 12
icial 12
identity 12
iegel@@ 12
iest 12
ight." 12
ihr@@ 12
iko 12
illegal 12
ilt 12
impro@@ 12
infinite 12
innen, 12
ins, 12
insight 12
intellig@@ 12
interess@@ 12
interessi@@ 12
intervie@@ 12
introduce 12
investieren, 12
irgendein 12
irgendetwas 12
iron 12
ischem 12
ischerweise 12
issues, 12
iste 12
istischen 12
istor@@ 12
ith@@ 12
job. 12
joy 12
judge 12
jung@@ 12
jährigen 12
kespe@@ 12
kilometers 12
know?" 12
knowled@@ 12
kommunizieren 12
konzentrieren, 12
kore@@ 12
kräf@@ 12
kämpfen 12
lab, 12
laub@@ 12
layer 12
lebenden 12
lediglich 12
legt 12
lernten 12
letztendlich 12
lichkeiten 12
liegt, 12
lien 12
lifer@@ 12
limits 12
locked 12
logic 12
lohn@@ 12
loves 12
loy@@ 12
luck 12
lun@@ 12
läch@@ 12
läng@@ 12
maj@@ 12
malaria 12
malen 12
mand@@ 12
manipul@@ 12
map, 12
marine 12
maybe, 12
me.""" 12
mechanism 12
menschliches 12
metabo@@ 12
metal 12
mich: 12
microbes 12
militär@@ 12
minu@@ 12
missed 12
monitor 12
moralische 12
mosqu@@ 12
mountains 12
mutz@@ 12
myster@@ 12
müsste 12
names 12
nehme 12
nervö@@ 12
nes@@ 12
nett 12
nigh@@ 12
nin@@ 12
nu@@ 12
numbers, 12
nutzt 12
obil@@ 12
oceans 12
ogar 12
olle@@ 12
online, 12
opposed 12
organs 12
orientier@@ 12
ortun@@ 12
oud 12
outside, 12
over." 12
overcome 12
overwhel@@ 12
particle 12
particles 12
passt 12
past, 12
per." 12
percent, 12
percentage 12
perform 12
permanent 12
pet 12
phen@@ 12
physici@@ 12
physikal@@ 12
planets 12
plast@@ 12
please 12
ples, 12
port@@ 12
posing 12
pover@@ 12
ppen 12
prefer@@ 12
privacy 12
proced@@ 12
produziert 12
promo@@ 12
protein 12
proteins 12
präsen@@ 12
publi@@ 12
pushed 12
put@@ 12
q 12
quote 12
raff@@ 12
raising 12
rational 12
raw 12
realen 12
reality, 12
reason, 12
reci@@ 12
recovery 12
red." 12
refuge@@ 12
regim@@ 12
rek@@ 12
religiöse 12
remind 12
repräsen@@ 12
reput@@ 12
resolution 12
responsibilit@@ 12
restor@@ 12
retten, 12
reu@@ 12
reverse 12
ri 12
rotz 12
rus 12
rus@@ 12
s,"" 12
s?""" 12
sage: 12
sample 12
satellite 12
scheinend 12
schlechten 12
schließen, 12
schnell, 12
school." 12
schri@@ 12
schwere 12
sector 12
secure 12
seem@@ 12
seits 12
self, 12
sequence 12
severe 12
sharing 12
sheep@@ 12
shipping 12
ships 12
shopping 12
sicherlich 12
side. 12
simil@@ 12
sinn 12
situation, 12
skill 12
sle@@ 12
smell 12
smoke 12
socie@@ 12
solange 12
solcher 12
soul@@ 12
sources 12
sozial 12
spaces 12
spaz@@ 12
spin@@ 12
sprach, 12
sprache 12
staff@@ 12
stage, 12
statistics 12
stayed 12
stens, 12
sters 12
sth@@ 12
storytell@@ 12
stren@@ 12
struktur 12
stütz@@ 12
succe@@ 12
suggest 12
sum 12
supporting 12
surv@@ 12
swer@@ 12
symmetr@@ 12
synthe@@ 12
systema@@ 12
tech 12
teilung 12
ters. 12
then@@ 12
ther." 12
thoughts 12
thr@@ 12
tics." 12
tile 12
timet@@ 12
ting." 12
tisier@@ 12
tnisse 12
today's 12
tomorro@@ 12
tonight 12
tor." 12
tour@@ 12
trade 12
transformed 12
träg@@ 12
twi@@ 12
uk@@ 12
ulti@@ 12
umm@@ 12
ums@@ 12
umso 12
unabhäng@@ 12
unbeliev@@ 12
unch 12
unfortunately, 12
ung"" 12
universe." 12
unternehmen 12
unächst 12
ur, 12
urch 12
users 12
ution 12
va@@ 12
ve.""" 12
ven, 12
verbessern 12
verbessern, 12
verdam@@ 12
verdienen 12
vergessen 12
vertre@@ 12
verwandeln 12
verz@@ 12
vill@@ 12
virus@@ 12
vollständig 12
vorbei 12
vorzug@@ 12
vulnerable 12
wacht 12
wahre 12
walls 12
want@@ 12
warten 12
wasser 12
we, 12
wech@@ 12
weight 12
weir@@ 12
wesen 12
wesent@@ 12
whi@@ 12
wird@@ 12
wirklich@@ 12
wirtschaftliche 12
wissenschaftl@@ 12
with. 12
wondering 12
woran 12
wore 12
workers 12
wählen, 12
wün@@ 12
wüs@@ 12
xim@@ 12
y; 12
zeitig 12
zeln 12
zeug, 12
ziell 12
zig@@ 12
zoom 12
zukünftige 12
zurückzu@@ 12
zusammen, 12
zwan@@ 12
zykl@@ 12
Ärz@@ 12
Übri@@ 12
ändern@@ 12
änge 12
änglich@@ 12
ärger@@ 12
äuse 12
öffnen 12
öfter 12
über, 12
ünsch@@ 12
üss@@ 12
–@@ 12
„Ich 12
!@@ 11
""Du 11
""Let's 11
""My 11
"(Beifall) 11
"Aber, 11
"Haben 11
"Selbst 11
"Sobald 11
"Was, 11
"Wäre 11
"Zwei 11
"Zweitens, 11
&gt;@@ 11
&lt;@@ 11
', 11
,000-@@ 11
-like 11
00, 11
1000 11
11, 11
19. 11
2-@@ 11
2000, 11
2003, 11
26 11
3D-@@ 11
9/@@ 11
Afrikan@@ 11
Agen@@ 11
Alzheimer 11
Analy@@ 11
Anweis@@ 11
Arbeiten 11
Aus 11
Ausrüst@@ 11
Aussage 11
Auswirk@@ 11
Baby@@ 11
Beijing 11
Bek@@ 11
Benjam@@ 11
Berkel@@ 11
Besuch@@ 11
Bibliothe@@ 11
Biolog@@ 11
Britain 11
Brust@@ 11
Brücke 11
Buchstaben 11
Canc@@ 11
Charakter 11
Chemikalien 11
Chinesen 11
City, 11
Columbi@@ 11
Comic@@ 11
Contro@@ 11
Cou@@ 11
DNA, 11
DNA-@@ 11
Day 11
Dazu 11
Democra@@ 11
Demok@@ 11
Detail 11
Detail@@ 11
Detroit 11
Dienst@@ 11
Dro@@ 11
Dynam@@ 11
EC@@ 11
Earth." 11
Effizienz 11
Ehemann 11
Eigen@@ 11
Einsatz 11
Einschränk@@ 11
Elektr@@ 11
Elemente 11
Emotionen 11
Energie, 11
Enkel@@ 11
Entfernung 11
Entschuldig@@ 11
Epo@@ 11
Erde, 11
Erfahrungen, 11
Ern@@ 11
Erwartungen 11
Europe." 11
Experten 11
Extre@@ 11
Feed@@ 11
Fei@@ 11
Felder 11
Filme 11
Fing@@ 11
Finger@@ 11
Firma, 11
Flag@@ 11
Folie 11
Form@@ 11
Freundin 11
Frühl@@ 11
För@@ 11
GP@@ 11
Geben 11
Gebiete 11
Geheimnisse 11
Gehirns 11
Gest@@ 11
Getrei@@ 11
Glauben@@ 11
Glob@@ 11
Glu@@ 11
Glück, 11
Gute 11
Hals 11
Handel@@ 11
Harry 11
Hause@@ 11
Haut@@ 11
Heimat@@ 11
Herangehens@@ 11
Herzin@@ 11
Hunger 11
Hyper@@ 11
Indien, 11
Industrie 11
Inv@@ 11
Investitionen 11
Island 11
Ja@@ 11
Jahrzehnt 11
Japanese 11
Jeff@@ 11
Jes@@ 11
June 11
Kla@@ 11
Klim@@ 11
Knochen@@ 11
Kohl@@ 11
Konflikte 11
Kontex@@ 11
Krankenhäus@@ 11
Kreuz@@ 11
Käf@@ 11
Lach@@ 11
Landes 11
Landwirtschaft 11
Las@@ 11
Latin 11
Lebenser@@ 11
Lebensmittel@@ 11
Lehrer@@ 11
Lek@@ 11
Leonardo 11
Ländern, 11
MP@@ 11
Malaria 11
Marke 11
May 11
Mechanis@@ 11
Medical 11
Meilen 11
Mig@@ 11
Milliar@@ 11
Mission 11
Mittagessen 11
Mittleren 11
Mode@@ 11
Model@@ 11
Moment@@ 11
Nase 11
Nation 11
Natur, 11
Noti@@ 11
Ober@@ 11
Ohi@@ 11
Organismen 11
Oze@@ 11
Partei@@ 11
Passag@@ 11
Patient 11
Pfl@@ 11
Polizei@@ 11
Posi@@ 11
Projekten 11
Quad@@ 11
Rahmen 11
Reaktionen 11
Rec@@ 11
Rede 11
Reich@@ 11
Ries@@ 11
Ritu@@ 11
Rolle@@ 11
Rollstu@@ 11
Rät@@ 11
Sat@@ 11
Schatten 11
Schriftstell@@ 11
Schuhe 11
Schwierigkeiten 11
Schätz@@ 11
Schönheit 11
Sein 11
Sich@@ 11
Soldat@@ 11
Soldaten 11
Sport 11
Staat 11
Star 11
Statistik@@ 11
Streck@@ 11
Street 11
Symptome 11
TED-@@ 11
Tages@@ 11
Tat@@ 11
Tatsächlich 11
Taus@@ 11
Teams 11
Telefon@@ 11
Teleskop@@ 11
Texas, 11
Theor@@ 11
Times 11
Ton 11
Tradi@@ 11
Trenn@@ 11
Täusch@@ 11
Tö@@ 11
Tön@@ 11
Universum, 11
Unternehmer 11
Verbind@@ 11
Verhältnis 11
Verkehrs@@ 11
Verlu@@ 11
Verwendung 11
Verzwei@@ 11
Viren 11
Voraus@@ 11
Vorstellung, 11
Wach@@ 11
Wahn@@ 11
Website 11
Wellen@@ 11
Werbung 11
Wetter@@ 11
Wort, 11
Wähl@@ 11
X-@@ 11
YouTube 11
Zehn@@ 11
Zeitalter 11
Zel@@ 11
Zentral@@ 11
Zit@@ 11
Zitat 11
Zweifel 11
a: 11
academic 11
accessi@@ 11
accurate 11
ada, 11
adequ@@ 11
ado@@ 11
advanc@@ 11
advantage 11
afrikanischen 11
agra@@ 11
airplane 11
aja, 11
alone." 11
alongside 11
alpha 11
alt, 11
amazing. 11
amerikan@@ 11
ami 11
analo@@ 11
analyze 11
and-@@ 11
anda 11
anders@@ 11
anfühl@@ 11
angeneh@@ 11
anges@@ 11
angha@@ 11
announ@@ 11
anony@@ 11
anta 11
antici@@ 11
ape@@ 11
appeared 11
arily 11
asked, 11
aspects 11
ass, 11
astroph@@ 11
atic 11
attached 11
attri@@ 11
atur, 11
auen 11
aup@@ 11
auseinander 11
aust 11
automatically 11
aven 11
azz 11
bacterial 11
ban 11
bands 11
barri@@ 11
basically, 11
basierte 11
baut, 11
bedingungen 11
beein@@ 11
beeinflusst 11
befrei@@ 11
beginnt, 11
behavior. 11
behör@@ 11
belprei@@ 11
benötigen 11
ber-@@ 11
berechn@@ 11
bereitet 11
berücksich@@ 11
berühmte 11
beschlossen 11
besitzen 11
besseres 11
bestimmtes 11
betrachtet 11
betrifft 11
bewegt, 11
bewohn@@ 11
bezahlen 11
bility 11
biologischen 11
biology 11
biotika 11
bird 11
bist, 11
bo 11
bodies." 11
bone 11
bot 11
brary 11
brauchten 11
brea@@ 11
brother 11
buch@@ 11
building, 11
building." 11
burn 11
burst 11
bü@@ 11
campaign 11
care, 11
cau@@ 11
celebrate 11
centers 11
century. 11
champ@@ 11
chann@@ 11
chemicals 11
ches, 11
children's 11
cin 11
circu@@ 11
civi@@ 11
cla@@ 11
class, 11
coast@@ 11
committed 11
compon@@ 11
components 11
contact 11
contain 11
continues 11
contradic@@ 11
counsel@@ 11
countries." 11
critic@@ 11
curious 11
cutting 11
cy, 11
cycl@@ 11
dagegen 11
dak@@ 11
dauerte 11
davon@@ 11
days. 11
decis@@ 11
decre@@ 11
degre@@ 11
dence 11
dende 11
derzei@@ 11
desire 11
deswegen 11
determined 11
develo@@ 11
died, 11
dieren 11
dieselben 11
different. 11
dir@@ 11
director 11
disease." 11
diseases 11
div@@ 11
dive 11
diversit@@ 11
doch, 11
dollars. 11
drawing 11
dreidimension@@ 11
drew 11
drän@@ 11
durchgeführt 11
durchs 11
economy. 11
ed: 11
education." 11
effect, 11
elek@@ 11
elte 11
ema 11
email@@ 11
embo@@ 11
emotionalen 11
ences." 11
enken 11
enough." 11
entdeckt, 11
enthält 11
entropy 11
epide@@ 11
erei 11
erer 11
erfor@@ 11
erinn@@ 11
erklärt 11
erlaubt, 11
ermaßen 11
ernal 11
erschu@@ 11
erwachsen@@ 11
erzählten 11
es-@@ 11
essence 11
establish@@ 11
etc@@ 11
everything, 11
everything. 11
evolution, 11
ew@@ 11
exhau@@ 11
exponenti@@ 11
expression 11
extent 11
face, 11
facing 11
fair 11
fand, 11
farmer@@ 11
fem@@ 11
femin@@ 11
ffer@@ 11
fif@@ 11
finger@@ 11
fire, 11
five, 11
flei@@ 11
flew 11
fold 11
forc@@ 11
founda@@ 11
frau 11
freie 11
fresh 11
früh@@ 11
früher@@ 11
fuhren 11
full@@ 11
fund 11
fän@@ 11
führten 11
fürch@@ 11
gain 11
gal, 11
garden@@ 11
gather 11
gebildet 11
gefällt 11
gefühl 11
gefühl@@ 11
gehend 11
gelben 11
gelegentlich 11
geln 11
gemeinsamen 11
gens, 11
genug, 11
geret@@ 11
gerichtet 11
gesag@@ 11
gesamt 11
geschehen 11
geschlag@@ 11
gestar@@ 11
gestern 11
getra@@ 11
getroff@@ 11
gewand@@ 11
gewissen 11
gewon@@ 11
gezogen 11
gif@@ 11
golf 11
good." 11
grade 11
grand 11
grav@@ 11
gress 11
griech@@ 11
griff 11
groups, 11
grün 11
grünen 11
guide 11
guy, 11
gy@@ 11
gä@@ 11
half, 11
hand." 11
happen, 11
happened." 11
happens. 11
harm 11
harmon@@ 11
hasst 11
haus 11
he'd 11
heimlich 11
hen@@ 11
herausgefunden, 11
herzu@@ 11
hetor@@ 11
hip@@ 11
hoffe 11
hoffnungs@@ 11
holen, 11
home@@ 11
honest@@ 11
hop 11
hope, 11
horri@@ 11
hurt 11
husband 11
hörten 11
iPh@@ 11
iPhone 11
iPod 11
ically." 11
ichts@@ 11
ics." 11
ide, 11
ideas." 11
ied, 11
iem@@ 11
ierung, 11
iet 11
iff@@ 11
igar@@ 11
ihn, 11
iles 11
ilfe 11
ility 11
important@@ 11
impres@@ 11
incen@@ 11
inclu@@ 11
independent 11
inne 11
innere 11
inno@@ 11
ino@@ 11
instead, 11
institution 11
intellec@@ 11
interven@@ 11
involves 11
io@@ 11
irgendeine 11
iri@@ 11
ison@@ 11
it'll 11
itz 11
jahr 11
jahrelang 11
jenen 11
jener 11
jewei@@ 11
judg@@ 11
jähri@@ 11
kap@@ 11
kaput@@ 11
keinerlei 11
klet@@ 11
kli@@ 11
knüpf@@ 11
konserv@@ 11
korrek@@ 11
kosten 11
kreativen 11
kräfte 11
lang, 11
langfrist@@ 11
language. 11
lasst 11
laun@@ 11
leap 11
lease 11
lege 11
legte 11
lemm@@ 11
leng@@ 11
lets 11
letting 11
licher, 11
lieben, 11
liebt 11
lift 11
liver 11
lou@@ 11
lunch 11
lächer@@ 11
lässt, 11
man's 11
man. 11
manchen 11
manu@@ 11
manufacturing 11
married 11
master 11
master@@ 11
mathematical 11
matter, 11
matter." 11
maximum 11
me: 11
mechanical 11
meinte 11
membran@@ 11
ments." 11
merkwür@@ 11
mid-@@ 11
minutes. 11
mirror 11
moment. 11
momentan 11
motion 11
music." 11
musical 11
müssten 11
n't 11
nachläss@@ 11
nachzudenken, 11
nap@@ 11
narrative 11
nature." 11
natürlichen 11
ned, 11
negoti@@ 11
neighborhood 11
nein, 11
ners 11
nerv@@ 11
ness@@ 11
new, 11
night@@ 11
nimm@@ 11
nissen 11
not. 11
notion 11
notwendig 11
numer@@ 11
ny, 11
n’t 11
obo@@ 11
ocean." 11
ocean@@ 11
oci@@ 11
offensicht@@ 11
offici@@ 11
often, 11
okay 11
olester@@ 11
ologe 11
ologischen 11
ond 11
orches@@ 11
organic 11
organism 11
orities 11
otherwise 11
outer 11
ov@@ 11
pad@@ 11
pain, 11
paradig@@ 11
parallel 11
paras@@ 11
parent@@ 11
partici@@ 11
partners 11
passing 11
percent. 11
persu@@ 11
persönlich 11
phar@@ 11
phenomenon 11
photograph 11
picking 11
picture, 11
plank@@ 11
plants, 11
play, 11
pleasure 11
plin@@ 11
poetry 11
policies 11
practical 11
projek@@ 11
promote 11
ps. 11
quarter 11
questions. 11
quickly." 11
rac@@ 11
rage 11
rain 11
rand@@ 11
rarely 11
raten, 11
rats 11
ray 11
real, 11
red, 11
reinig@@ 11
relatively 11
released 11
rema@@ 11
renz@@ 11
repair 11
responsi@@ 11
rid@@ 11
riere 11
rig 11
rights, 11
ritu@@ 11
root 11
rops 11
rose 11
rote 11
roughly 11
rule 11
rump@@ 11
ry@@ 11
sal 11
samm@@ 11
sauber@@ 11
schafften 11
schlau@@ 11
schließen 11
schließend 11
schriften 11
schwarzen 11
schweren 11
scra@@ 11
screen 11
searching 11
seat 11
section 11
setzten 11
ship. 11
sich: 11
side." 11
sie@@ 11
signific@@ 11
significantly 11
simple, 11
sitzt 11
slowly 11
soft 11
soil, 11
sound, 11
sour@@ 11
spectac@@ 11
speech 11
spielte 11
spiritual 11
sports 11
spreche, 11
stability 11
stad@@ 11
stammt 11
standar@@ 11
startete 11
states, 11
stel@@ 11
string 11
struck 11
stup@@ 11
stürz@@ 11
sudden 11
suic@@ 11
suici@@ 11
surveill@@ 11
sweise 11
sym@@ 11
synthetic 11
tac@@ 11
tags@@ 11
tains 11
takt 11
talk@@ 11
tangi@@ 11
task 11
tat, 11
teams 11
teenagers 11
teilweise 11
teln 11
tenzial 11
terin 11
terrorist 11
teten, 11
th-@@ 11
thedr@@ 11
themselves, 11
themselves." 11
thers, 11
this.""" 11
threat 11
three-dimensional 11
thum@@ 11
thwest 11
tigkeiten 11
till@@ 11
tin, 11
tism 11
tivieren 11
tivity 11
tnis 11
tnis, 11
tnis@@ 11
tom 11
too@@ 11
topic 11
tour 11
toxic 11
traf, 11
translat@@ 11
traveled 11
treated 11
treating 11
tree, 11
trenn@@ 11
trieb@@ 11
trin@@ 11
trug 11
tural 11
täglichen 11
umfass@@ 11
umgeben 11
umps 11
underne@@ 11
unglaublichen 11
unglück@@ 11
ungskraft 11
ungsprozess 11
unterschiedlich 11
unterstützen 11
untersuchen, 11
unusual 11
urban@@ 11
usu@@ 11
utter@@ 11
vac@@ 11
vacu@@ 11
valuable 11
var@@ 11
ve-@@ 11
ved." 11
veget@@ 11
vehic@@ 11
verbrach@@ 11
verbreitet 11
verkaufen 11
vermögen 11
versorgung 11
versuchten 11
verwal@@ 11
verwendet, 11
villa@@ 11
village, 11
visible 11
visuelle 11
voice, 11
volcan@@ 11
vollständig@@ 11
volume 11
von@@ 11
vorwärts 11
vorzustellen, 11
wandel@@ 11
want." 11
wards, 11
wea@@ 11
weak@@ 11
wealth 11
website 11
weck@@ 11
week." 11
weise, 11
weiten 11
wenden, 11
wenigstens 11
werfen, 11
werke 11
weshalb 11
whale 11
what, 11
whis@@ 11
whist@@ 11
winn@@ 11
winter@@ 11
winzigen 11
wl 11
wn." 11
writer 11
yiel@@ 11
young, 11
ystem 11
yway, 11
zar@@ 11
zeiten 11
zentrum 11
zerstört 11
zeuge, 11
zeugen 11
zin 11
zon@@ 11
zugleich 11
zunehmend 11
zweimal 11
zählen 11
Ära 11
Ökon@@ 11
Übersetz@@ 11
ächen 11
äll@@ 11
äus@@ 11
äß@@ 11
öcke 11
öffnet 11
ökonomischen 11
übernehmen 11
überras@@ 11
üst@@ 11
--, 10
.""@@ 10
.com@@ 10
23@@ 10
Algorith@@ 10
Andere 10
Austr@@ 10
D-@@ 10
DN@@ 10
Defin@@ 10
Dok@@ 10
Dru@@ 10
Dunk@@ 10
Einfl@@ 10
Gedäch@@ 10
Holl@@ 10
Hou@@ 10
Kamp@@ 10
Komplex@@ 10
Lar@@ 10
Leiden@@ 10
Micro@@ 10
Neuron@@ 10
Pha@@ 10
Poliz@@ 10
Rah@@ 10
Restau@@ 10
Roboter, 10
Trink@@ 10
Verantwor@@ 10
Vergangen@@ 10
Verl@@ 10
Zwe@@ 10
[""@@ 10
abilität 10
absence 10
abul@@ 10
account@@ 10
ached 10
acting 10
action." 10
added 10
ading 10
adol@@ 10
agricultural 10
ahl 10
ain't 10
air." 10
aktive 10
aktuellen 10
akust@@ 10
ald 10
alem 10
alen, 10
aling 10
alisiert 10
alism, 10
alities 10
ality, 10
all-@@ 10
analog 10
anda, 10
andau@@ 10
ander 10
anen 10
anf@@ 10
angemess@@ 10
angs@@ 10
animals, 10
ansehen 10
anspruchs@@ 10
antas@@ 10
anymore, 10
anymore. 10
apeu@@ 10
apit@@ 10
appl@@ 10
apple 10
appreci@@ 10
appropriate 10
arm, 10
arrang@@ 10
artic@@ 10
artist, 10
artistic 10
aside 10
assem@@ 10
assung 10
astro@@ 10
astrophe 10
ating. 10
ator, 10
atori@@ 10
attempt 10
aufen 10
aufmerksam 10
authority 10
autonomous 10
außen 10
avail@@ 10
available, 10
awes@@ 10
awesome 10
axis 10
bad@@ 10
bage 10
barer 10
bear@@ 10
beding@@ 10
bedürf@@ 10
beeinflussen 10
begrü@@ 10
behandeln, 10
behinder@@ 10
beinahe 10
being, 10
beitra@@ 10
bekomme 10
belast@@ 10
beleg@@ 10
believing 10
benutzten 10
berg@@ 10
berichten, 10
besag@@ 10
beschreiben 10
beschwer@@ 10
besorg@@ 10
besserung 10
betonen, 10
betrachtet, 10
betriff@@ 10
bewus@@ 10
bietet 10
blauen 10
born, 10
born." 10
boten 10
breathe 10
breathing 10
brilli@@ 10
brut@@ 10
buchstäblich 10
budget@@ 10
button@@ 10
buying 10
car. 10
care." 10
caus@@ 10
ce-@@ 10
centur@@ 10
chang@@ 10
chap@@ 10
characterist@@ 10
children. 10
cin@@ 10
circul@@ 10
cis 10
city. 10
climb 10
clock 10
closed 10
cloth@@ 10
cloud 10
club@@ 10
co 10
coal 10
cocc@@ 10
cold, 10
combine 10
comfort 10
comfort@@ 10
comple@@ 10
computers, 10
concerned 10
conference 10
conscious 10
consistent 10
continent 10
continued 10
contribute 10
controlled 10
convert 10
convey 10
cook 10
cool, 10
cortex@@ 10
cosm@@ 10
cost@@ 10
count 10
crack 10
crisis, 10
cy. 10
dafür@@ 10
data." 10
daughter, 10
dding 10
deb@@ 10
deca@@ 10
decad@@ 10
defe@@ 10
defic@@ 10
deli@@ 10
deliver@@ 10
democratic 10
dense 10
denselben 10
denten 10
der-@@ 10
dert 10
deserve 10
destruction 10
diagnost@@ 10
diagra@@ 10
diejen@@ 10
differently 10
digitale 10
dinosau@@ 10
distingu@@ 10
distri@@ 10
do-@@ 10
do?" 10
document@@ 10
dollars." 10
domestic 10
don’t 10
doors 10
doubt 10
drauf 10
draußen, 10
drawn 10
drehen 10
dreimal 10
driver 10
driver@@ 10
drivers 10
druck, 10
dunkle 10
dunklen 10
durch, 10
dynamic 10
e"", 10
earn 10
earthqu@@ 10
eber@@ 10
eding 10
effor@@ 10
einander, 10
either." 10
elegan@@ 10
ely." 10
emand 10
embra@@ 10
emen 10
eminist@@ 10
empha@@ 10
enag@@ 10
enager 10
enced 10
encounter@@ 10
endsten 10
endung 10
enforc@@ 10
engines 10
enorm 10
enorm@@ 10
entered 10
enters 10
entertain@@ 10
ential 10
entschie@@ 10
entschieden, 10
erb@@ 10
erf@@ 10
erfolgreicher 10
erie 10
erinnert 10
erlaub@@ 10
erlauben, 10
erlebt 10
ermor@@ 10
erschaffen, 10
erstaunlich 10
erten 10
erwarten 10
ession 10
ester 10
esti@@ 10
eth 10
eval@@ 10
existieren 10
ey, 10
eyes, 10
eyes. 10
fabulous 10
faith@@ 10
falt 10
family." 10
fangen, 10
fash@@ 10
father, 10
feeding 10
fellow 10
ference 10
fern, 10
fernen 10
fertiliz@@ 10
fic 10
fiction 10
fig 10
figures 10
fingen 10
finger 10
first. 10
flip 10
flowers 10
flung 10
forest@@ 10
formen, 10
forth, 10
forth." 10
four-@@ 10
fragen: 10
frieden 10
frist@@ 10
from. 10
fuel@@ 10
fundamentally 10
fälli@@ 10
füh@@ 10
gage@@ 10
gal@@ 10
gangenen 10
gearbeitet, 10
gebung 10
gegangen, 10
gegrün@@ 10
gelehr@@ 10
genauen 10
gender, 10
geo@@ 10
gerade@@ 10
gerei@@ 10
gerin 10
gesammel@@ 10
geschieht 10
geschrieben, 10
geschrit@@ 10
gesell@@ 10
gespielt 10
gestor@@ 10
getan, 10
geteilt 10
getragen 10
gewann 10
geworfen 10
gie 10
glaubten, 10
grab@@ 10
graben 10
graph 10
grass@@ 10
grateful 10
greenhouse 10
grenz@@ 10
gres@@ 10
griff@@ 10
grou@@ 10
grows 10
grös@@ 10
gäbe 10
ham@@ 10
hand. 10
hands, 10
happened. 10
happy." 10
hardly 10
hasn't 10
haus, 10
head." 10
heal@@ 10
healthy, 10
heiße 10
help. 10
hemis@@ 10
here@@ 10
heutige 10
historical 10
hits 10
homo@@ 10
houses 10
hungrig 10
hungry 10
häu@@ 10
höf@@ 10
i-@@ 10
iP@@ 10
ians 10
ideas@@ 10
ident 10
ids, 10
ierter 10
ieso 10
ila 10
ilosoph@@ 10
image." 10
immediate 10
improvem@@ 10
improving 10
incar@@ 10
includes 10
iness 10
infant 10
infl@@ 10
information. 10
ing?" 10
ingiti@@ 10
ingungen 10
initial 10
inspiriert 10
insul@@ 10
intelligente 10
intensive 10
interessiert, 10
interests 10
internationale 10
interrup@@ 10
invite 10
ionen 10
irk@@ 10
ischen, 10
isha 10
ism." 10
isst 10
itation 10
iter@@ 10
itze 10
izophren@@ 10
izz@@ 10
jelly@@ 10
jenem 10
ji@@ 10
job." 10
judgment 10
jun@@ 10
junk@@ 10
jur@@ 10
keln 10
key, 10
kick 10
kids. 10
kids." 10
king@@ 10
klag@@ 10
klusi@@ 10
kly, 10
km@@ 10
knowledge, 10
komplexen 10
ks, 10
kten 10
kurzer 10
landed 10
landen 10
landscape@@ 10
lange, 10
langfristige 10
largely 10
last@@ 10
later." 10
laugh 10
layers 10
le's 10
le: 10
least, 10
leeren 10
level." 10
lever@@ 10
lichten 10
liefer@@ 10
liegen, 10
lifest@@ 10
light-@@ 10
light. 10
like. 10
linke 10
list@@ 10
literally, 10
litt@@ 10
lity 10
lled 10
location 10
lower@@ 10
lust@@ 10
lustig@@ 10
länge 10
länger@@ 10
lötzlich 10
machten, 10
magazin@@ 10
males 10
manag@@ 10
management 10
manif@@ 10
matic 10
matri@@ 10
measured 10
mentioned 10
messen, 10
metap@@ 10
microbial 10
middle-@@ 10
miss 10
mobil@@ 10
mon 10
moon 10
mug@@ 10
multi-@@ 10
mum@@ 10
muse@@ 10
naja, 10
nationalen 10
native 10
nee@@ 10
need, 10
negativen 10
nervous 10
neural 10
neut 10
news. 10
normalen 10
nothing." 10
objective 10
obstac@@ 10
offenen 10
oh 10
ol, 10
ometer 10
ones@@ 10
onom@@ 10
ont@@ 10
op 10
opam@@ 10
opardy@@ 10
operate 10
operation 10
ordent@@ 10
ordnet 10
ound 10
outcome 10
pain." 10
particular, 10
partner@@ 10
passierte, 10
passionate 10
patient@@ 10
peace@@ 10
ped." 10
pedition 10
pend@@ 10
perceived 10
percep@@ 10
perfekt 10
peri@@ 10
persist@@ 10
pha 10
phase 10
picture. 10
pion@@ 10
places, 10
platform 10
poetr@@ 10
pointing 10
politisch 10
poor, 10
possible@@ 10
poverty, 10
ppel@@ 10
prech@@ 10
precise 10
presented 10
press 10
prevent@@ 10
primar@@ 10
princip@@ 10
principle 10
prison 10
privati@@ 10
procrastin@@ 10
professional 10
progr@@ 10
program@@ 10
programming 10
propor@@ 10
prosper@@ 10
protection 10
prototyp@@ 10
psychologische 10
pulled 10
pulling 10
pump@@ 10
punishment 10
punkt, 10
pushing 10
puzz@@ 10
question." 10
ra, 10
radiation 10
rang 10
rang@@ 10
rank 10
rapid 10
rated 10
reaction 10
ready, 10
real-@@ 10
reasons, 10
rebel@@ 10
recep@@ 10
rechnen 10
recover 10
reef@@ 10
refer 10
regular 10
reicht 10
reifen 10
relate 10
relative 10
relevant 10
relig@@ 10
rem@@ 10
remains 10
remote 10
ren, 10
repres@@ 10
resistant 10
reson@@ 10
reti@@ 10
rey 10
ride 10
rif@@ 10
riff 10
rise, 10
robu@@ 10
robust 10
rocks 10
ropha@@ 10
roten 10
routin@@ 10
runs 10
ränk@@ 10
samples 10
say." 10
say@@ 10
saßen 10
scheint, 10
schiff@@ 10
schließlich, 10
schol@@ 10
schon@@ 10
schools, 10
schöpf@@ 10
sculpture 10
secret 10
secur@@ 10
seek 10
sehe, 10
sell@@ 10
seltsame 10
sensory 10
separation 10
shame 10
shaped 10
shark 10
shock 10
shocked 10
sichtbar 10
sides 10
simultane@@ 10
sister 10
sister@@ 10
siv 10
sket@@ 10
smell@@ 10
so-called 10
sorgfältig 10
south 10
specif@@ 10
speech@@ 10
sphere 10
spring 10
stable 10
started, 10
state, 10
static 10
station 10
stays 10
steckt 10
steigt 10
stein 10
stem 10
stepping 10
ster, 10
stories, 10
stronger 10
struggling 10
studierte 10
stuff@@ 10
subjects 10
sudden, 10
sugar 10
sulin 10
super 10
swi@@ 10
swim 10
syndro@@ 10
table." 10
tackle 10
tank@@ 10
tate 10
teenag@@ 10
tei 10
teilen, 10
tel, 10
telescop@@ 10
televis@@ 10
tenen 10
termin@@ 10
tert 10
tested 10
testing 10
thanks 10
there?" 10
thesis 10
threats 10
tic." 10
tie 10
tigte 10
tiker 10
tious 10
tisch, 10
tismus 10
titu@@ 10
tively, 10
toilet 10
toy 10
trace 10
traits 10
translate 10
tras@@ 10
trat 10
traveling 10
treas@@ 10
trial 10
trials 10
trick 10
trig@@ 10
trover@@ 10
true. 10
truth, 10
trägt, 10
tut, 10
twör@@ 10
ty-@@ 10
täglich@@ 10
u, 10
uba 10
ublik@@ 10
uklear@@ 10
ull 10
um-@@ 10
umber 10
ums, 10
unangeneh@@ 10
unded 10
underlying 10
uneh@@ 10
unerwar@@ 10
unge 10
ungs-@@ 10
ungste@@ 10
unken 10
unknown 10
update 10
ups 10
upset 10
upside 10
ursprüngliche 10
ury 10
us? 10
user 10
usion@@ 10
ustin 10
uß@@ 10
vaccin@@ 10
veau 10
venti@@ 10
verarbeit@@ 10
verbessert 10
verbracht 10
verfolg@@ 10
verfolgt 10
verloren, 10
verse 10
versi@@ 10
versorg@@ 10
verstand 10
verstärkt 10
versuche, 10
verwund@@ 10
veröffentlicht 10
villages 10
virtually 10
virtuellen 10
visi@@ 10
volum@@ 10
volunteers 10
voran@@ 10
vorbereit@@ 10
vorhin 10
vorne 10
wach 10
want. 10
warming 10
weal@@ 10
weit@@ 10
welcome 10
were, 10
werfen 10
wesenheit 10
west@@ 10
we’re 10
whal@@ 10
wild 10
wischen 10
wissenschaften 10
with." 10
wo, 10
woke 10
woman, 10
worlds 10
worri@@ 10
worse, 10
worth@@ 10
worthy 10
worüber 10
wra@@ 10
wro@@ 10
ws." 10
wunderschöne 10
wärts 10
yager 10
ycle 10
yet. 10
yg@@ 10
ys." 10
ysi@@ 10
zeigte, 10
zentrale 10
zieht, 10
ziehung 10
zine 10
zusetzen, 10
zusätz@@ 10
zusätzlich 10
Änder@@ 10
Öffentlichkeit 10
Überleben 10
ädig@@ 10
äher@@ 10
ähne 10
ältere 10
ärm@@ 10
äuft 10
ç@@ 10
í@@ 10
öffentlich@@ 10
öß@@ 10
überall, 10
überqu@@ 10
übertragen 10
überwäl@@ 10
ügen 10
ündig@@ 10
""OK, 9
""We@@ 9
Afghanist@@ 9
Bang@@ 9
Ben@@ 9
Elek@@ 9
Entdeck@@ 9
Ep@@ 9
Erfind@@ 9
Erfol@@ 9
Erinner@@ 9
Face@@ 9
Gebur@@ 9
Geld@@ 9
Inf@@ 9
Intel@@ 9
Jan@@ 9
Klass@@ 9
Man: 9
Mol@@ 9
Netzwer@@ 9
Präsident@@ 9
Sauerstoff@@ 9
Sin@@ 9
Stan@@ 9
Strateg@@ 9
Technologi@@ 9
U 9
USA@@ 9
Univers@@ 9
Urspr@@ 9
Valle@@ 9
Viet@@ 9
Yeah@@ 9
abri@@ 9
ahe@@ 9
alon@@ 9
ament@@ 9
anci@@ 9
anda@@ 9
appropri@@ 9
auto@@ 9
beau@@ 9
begei@@ 9
bestimm@@ 9
biete 9
blie@@ 9
cele@@ 9
charac@@ 9
contri@@ 9
deu@@ 9
diff@@ 9
drau@@ 9
dunkl@@ 9
einzel@@ 9
encou@@ 9
ergi@@ 9
erkrank@@ 9
eso 9
essor 9
euch@@ 9
fang 9
financi@@ 9
flus@@ 9
fäh@@ 9
gen: 9
hem@@ 9
hielten 9
hosp@@ 9
idem@@ 9
iemand 9
imil@@ 9
immedi@@ 9
incredi@@ 9
irur@@ 9
ka, 9
kay. 9
kein@@ 9
kontro@@ 9
kreativ@@ 9
ktu@@ 9
landscap@@ 9
laying 9
limm@@ 9
lish@@ 9
lying 9
minut@@ 9
moun@@ 9
necess@@ 9
ocra@@ 9
onder@@ 9
ot@@ 9
perfor@@ 9
pite 9
plet@@ 9
plö@@ 9
roff@@ 9
ror 9
rying 9
scher@@ 9
schmer@@ 9
schwimm@@ 9
selb@@ 9
ses, 9
shi@@ 9
staun@@ 9
techniqu@@ 9
tent 9
thous@@ 9
tox@@ 9
tradi@@ 9
traff@@ 9
trink@@ 9
tzdem 9
une 9
ungsproz@@ 9
unterschie@@ 9
ution." 9
uz@@ 9
vacc@@ 9
verstär@@ 9
xi@@ 9
ybe 9
year-@@ 9
zog@@ 9
zufälli@@ 9
Är@@ 9
Öff@@ 9
ähl@@ 9
ähri@@ 9
ó@@ 9
ökonom@@ 9
“, 9
Atmosp@@ 8
Chemik@@ 8
Det@@ 8
Disk@@ 8
E-@@ 8
F: 8
H 8
Haar@@ 8
Hunder@@ 8
ID@@ 8
Infra@@ 8
Koh@@ 8
Kontro@@ 8
Mex@@ 8
Nervenz@@ 8
Ressour@@ 8
Säu@@ 8
Univer@@ 8
], 8
aben 8
aching 8
again@@ 8
age. 8
anon@@ 8
appli@@ 8
aring 8
asi 8
astron@@ 8
automati@@ 8
auton@@ 8
avo@@ 8
beit@@ 8
bemerken@@ 8
beton@@ 8
buted 8
certain@@ 8
concern@@ 8
contribu@@ 8
cording 8
crip@@ 8
dama@@ 8
dings 8
diox@@ 8
don 8
drin@@ 8
ekü@@ 8
emplo@@ 8
enheit 8
enschaf@@ 8
ept 8
ere, 8
erlei 8
ernen 8
eser 8
eute 8
exac@@ 8
future@@ 8
fähr@@ 8
fütter@@ 8
getö@@ 8
gic 8
gni@@ 8
gum@@ 8
hate@@ 8
het@@ 8
hh@@ 8
immel 8
interes@@ 8
ires 8
itely 8
j 8
jud@@ 8
lex@@ 8
liqu@@ 8
llig 8
long-@@ 8
läss@@ 8
manufactur@@ 8
maz@@ 8
maßen 8
milit@@ 8
mortal@@ 8
much@@ 8
omen@@ 8
ority 8
ourn@@ 8
partic@@ 8
peo@@ 8
pfl@@ 8
quick@@ 8
rais@@ 8
rati@@ 8
reco@@ 8
requ@@ 8
restau@@ 8
scheid@@ 8
schied 8
scho@@ 8
schuldig@@ 8
selbe 8
sever@@ 8
stati@@ 8
steig@@ 8
sudden@@ 8
teles@@ 8
they@@ 8
thin 8
tra 8
tual 8
usam@@ 8
ussi@@ 8
utz 8
vent 8
wick@@ 8
wie, 8
wirr@@ 8
yra@@ 8
älle 8
öhn@@ 8
’re 8
"Kön@@ 7
"Man@@ 7
(Geläch@@ 7
(Laugh@@ 7
-, 7
;@@ 7
= 7
Büh@@ 7
Bür@@ 7
Davi@@ 7
Ech@@ 7
Erwar@@ 7
Fern@@ 7
Ged@@ 7
Gerech@@ 7
Hey, 7
Investi@@ 7
Japan@@ 7
Lebe@@ 7
Lär@@ 7
Mid@@ 7
Opf@@ 7
Pas@@ 7
Prin@@ 7
Rest@@ 7
Schimp@@ 7
Schrift@@ 7
Tatsach@@ 7
Techn@@ 7
U.N@@ 7
Vereinig@@ 7
Verhalten@@ 7
Wesent@@ 7
Zentr@@ 7
ada@@ 7
add@@ 7
afri@@ 7
agu@@ 7
anno@@ 7
autonom@@ 7
auß@@ 7
bedeu@@ 7
berfl@@ 7
beschränk@@ 7
blich 7
body@@ 7
brau@@ 7
canc@@ 7
capac@@ 7
chemic@@ 7
chnolog@@ 7
convin@@ 7
demo@@ 7
deter@@ 7
dimensional 7
downlo@@ 7
eilen 7
eived 7
enever 7
enn 7
enthäl@@ 7
estab@@ 7
etry 7
example@@ 7
ferti@@ 7
foreig@@ 7
fort 7
gangen@@ 7
gespiel@@ 7
hood 7
incre@@ 7
informa@@ 7
konom@@ 7
kör@@ 7
maga@@ 7
mention@@ 7
mist@@ 7
most@@ 7
mptom@@ 7
neut@@ 7
norm@@ 7
näh@@ 7
occas@@ 7
ok 7
olle 7
omet@@ 7
ound, 7
ourselv@@ 7
perc@@ 7
ply 7
pus@@ 7
rely 7
rem 7
remark@@ 7
renn@@ 7
resear@@ 7
riert 7
rough@@ 7
rr@@ 7
ruhig@@ 7
schö@@ 7
seit@@ 7
sem@@ 7
stä@@ 7
susta@@ 7
symm@@ 7
tenzi@@ 7
täusch@@ 7
umindest 7
ungef@@ 7
unt 7
urspr@@ 7
uter 7
ution@@ 7
utsch@@ 7
vice 7
west 7
wise 7
wron@@ 7
yel@@ 7
ze@@ 7
zös@@ 7
Än@@ 7
äche 7
ähe 7
ñ@@ 7
” 7
… 7
♫@@ 7
"Do@@ 6
$ 6
(Applause@@ 6
(L@@ 6
21@@ 6
<@@ 6
Auß@@ 6
Bund@@ 6
Detro@@ 6
Europe@@ 6
Feh@@ 6
Fren@@ 6
Gehir@@ 6
Geist@@ 6
Indu@@ 6
Masch@@ 6
Mittag@@ 6
NAS@@ 6
Publikum@@ 6
Resear@@ 6
Ris@@ 6
Schau@@ 6
Seit@@ 6
Unterstütz@@ 6
Wahrnehm@@ 6
Wiki@@ 6
abhän@@ 6
absolut@@ 6
afra@@ 6
aga@@ 6
amoun@@ 6
andel 6
arbeiter 6
ause@@ 6
beispiel@@ 6
blü@@ 6
countri@@ 6
daten 6
dev@@ 6
does@@ 6
dollar@@ 6
ehmen 6
eim@@ 6
eindeu@@ 6
elet@@ 6
equip@@ 6
errei@@ 6
gegan@@ 6
glu@@ 6
green@@ 6
grü@@ 6
gyp@@ 6
hlung 6
ieh@@ 6
iff 6
inist@@ 6
inste@@ 6
internation@@ 6
introdu@@ 6
isi@@ 6
jeman@@ 6
kau@@ 6
kön@@ 6
künf@@ 6
laf 6
ld 6
may@@ 6
narra@@ 6
nehmer 6
occ@@ 6
ohn 6
oppo@@ 6
ow 6
passion@@ 6
produ@@ 6
rar@@ 6
ratie 6
remo@@ 6
requi@@ 6
resour@@ 6
selves 6
sheit 6
simul@@ 6
son: 6
spra@@ 6
t;@@ 6
tan 6
thi@@ 6
thou@@ 6
tikel 6
together@@ 6
uman 6
umbi@@ 6
unser@@ 6
uten, 6
verstand@@ 6
viellei@@ 6
vul@@ 6
willi@@ 6
wirtschaft 6
wund@@ 6
wusst@@ 6
ycl@@ 6
zun@@ 6
á@@ 6
ã@@ 6
è@@ 6
öffent@@ 6
’t 6
"Nach@@ 5
Appl@@ 5
Bü@@ 5
Dy@@ 5
Eind@@ 5
Eindru@@ 5
Energ@@ 5
Fu@@ 5
Geschä@@ 5
Glei@@ 5
Großmut@@ 5
Mathema@@ 5
Micha@@ 5
Milit@@ 5
Parkin@@ 5
Potenti@@ 5
Revolution@@ 5
Schat@@ 5
Soft@@ 5
Spek@@ 5
Tü@@ 5
Verhäl@@ 5
ain@@ 5
anal@@ 5
antly 5
ateg@@ 5
atures 5
befor@@ 5
beinhal@@ 5
betei@@ 5
bevölk@@ 5
beyon@@ 5
cally 5
chil@@ 5
chimp@@ 5
cogni@@ 5
dafri@@ 5
dies." 5
dle 5
eget@@ 5
elb@@ 5
ema@@ 5
enough@@ 5
entrepren@@ 5
entrop@@ 5
eph@@ 5
erhö@@ 5
erlau@@ 5
essour@@ 5
europä@@ 5
fik 5
führer 5
gest 5
haven@@ 5
hr 5
hund@@ 5
igeri@@ 5
ike 5
ilie 5
ilie@@ 5
illen@@ 5
inn 5
jam@@ 5
kum@@ 5
left@@ 5
melt 5
myst@@ 5
neigh@@ 5
näm@@ 5
od 5
oft@@ 5
ouldn't 5
pect 5
pliz@@ 5
prote@@ 5
rapid@@ 5
refu@@ 5
remem@@ 5
rob@@ 5
rüst@@ 5
schränk@@ 5
selv@@ 5
someh@@ 5
sorgfäl@@ 5
telef@@ 5
throp@@ 5
tika 5
tish 5
tograf@@ 5
tot@@ 5
ural 5
ured 5
ursprüng@@ 5
vil@@ 5
vili@@ 5
ween 5
wendung 5
zusam@@ 5
Öffent@@ 5
ächlich 5
änglich 5
änn@@ 5
überhaup@@ 5
überzeug@@ 5
ück 5
üpf@@ 5
β@@ 5
♪ 5
""", 4
+ 4
?""@@ 4
Af@@ 4
Bedroh@@ 4
Clon@@ 4
Effizi@@ 4
Eig@@ 4
Entfern@@ 4
Ergeb@@ 4
Fen@@ 4
Flä@@ 4
Frie@@ 4
Häl@@ 4
Ihr@@ 4
Leon@@ 4
Lon@@ 4
Manhat@@ 4
Pac@@ 4
Pit@@ 4
Progra@@ 4
Ressourc@@ 4
Septem@@ 4
Stati@@ 4
Thom@@ 4
Ye@@ 4
Z 4
adig@@ 4
advant@@ 4
agno@@ 4
antum 4
atsach@@ 4
aught 4
bod@@ 4
cially 4
coll@@ 4
consist@@ 4
domes@@ 4
en's 4
entschei@@ 4
etz 4
ferenz 4
gesam@@ 4
ghan@@ 4
had@@ 4
hause 4
hibi@@ 4
ilet@@ 4
jahrel@@ 4
kolog@@ 4
leun@@ 4
m., 4
manage@@ 4
mente 4
merksam@@ 4
mob@@ 4
mosp@@ 4
mun@@ 4
nov@@ 4
nuc@@ 4
ores@@ 4
ounda@@ 4
ourne@@ 4
pek@@ 4
plex@@ 4
possi@@ 4
ranken@@ 4
reds 4
relation@@ 4
ross 4
satelli@@ 4
senschaf@@ 4
sozus@@ 4
stab 4
stik@@ 4
stin@@ 4
story@@ 4
sug@@ 4
tane@@ 4
tenti@@ 4
tism@@ 4
trem@@ 4
tremend@@ 4
trie@@ 4
trot@@ 4
ustom@@ 4
usual 4
valent 4
verbra@@ 4
vices 4
viron@@ 4
zept 4
zähle 4
° 4
ängstig@@ 4
ätzen 4
ø@@ 4
ühm@@ 4
ī@@ 4
”@@ 4
›@@ 4
"Selb@@ 3
't 3
( 3
(Appl@@ 3
*@@ 3
> 3
>@@ 3
Apri@@ 3
Beij@@ 3
Bev@@ 3
Buchstab@@ 3
Geläch@@ 3
Geräu@@ 3
Heraus@@ 3
Hil@@ 3
KW@@ 3
Kul@@ 3
Mobil@@ 3
Musik) 3
Nerv@@ 3
Neur@@ 3
Pak@@ 3
Sauerst@@ 3
Schok@@ 3
Stru@@ 3
Ug@@ 3
Verständ@@ 3
Y 3
YouTu@@ 3
Zivili@@ 3
alifor@@ 3
amera 3
asili@@ 3
atelli@@ 3
atin 3
atsäch@@ 3
bege@@ 3
benö@@ 3
chin@@ 3
comb@@ 3
constra@@ 3
die@@ 3
dun@@ 3
earth@@ 3
ekul@@ 3
ele@@ 3
epres@@ 3
erstör@@ 3
experi@@ 3
fabul@@ 3
flik@@ 3
fos@@ 3
gefäll@@ 3
gendes@@ 3
geschn@@ 3
haup@@ 3
haupts@@ 3
hren@@ 3
häre 3
ieder@@ 3
ilet 3
inder@@ 3
keep@@ 3
keys 3
kolle@@ 3
lear 3
lektu@@ 3
leunig@@ 3
lymp@@ 3
manufac@@ 3
ogel@@ 3
ogni@@ 3
ou 3
pants 3
pret@@ 3
punish@@ 3
redi@@ 3
seitig 3
sligh@@ 3
so-@@ 3
spee@@ 3
ständ@@ 3
swimm@@ 3
sön@@ 3
tendlich 3
ter) 3
tome 3
tomor@@ 3
trilli@@ 3
uly 3
unbed@@ 3
usw@@ 3
uter@@ 3
utzen 3
utzut@@ 3
verurs@@ 3
vesti@@ 3
vey 3
vious 3
wai@@ 3
zeich@@ 3
ziem@@ 3
zoo@@ 3
² 3
ë@@ 3
ï@@ 3
überall@@ 3
üng@@ 3
ürlich 3
’ 3
‹ 3
"Nat@@ 2
+@@ 2
,"@@ 2
@@@ 2
Afghan@@ 2
Afri@@ 2
Archit@@ 2
Argent@@ 2
Charak@@ 2
During 2
Ear@@ 2
Echtz@@ 2
Eff@@ 2
Falls 2
Goli@@ 2
HI@@ 2
Isra@@ 2
J 2
Mittl@@ 2
Schlüs@@ 2
Spra@@ 2
Wik@@ 2
Zusam@@ 2
^ 2
aliforni@@ 2
along@@ 2
alth 2
arch 2
ardo 2
around@@ 2
ashing@@ 2
astrop@@ 2
believ@@ 2
brit@@ 2
britann@@ 2
constru@@ 2
damit@@ 2
devel@@ 2
dical 2
diesel@@ 2
ellei@@ 2
elson 2
ence: 2
eses 2
espe@@ 2
evit@@ 2
exer@@ 2
feder@@ 2
fühl 2
gorith@@ 2
grundsätz@@ 2
hnach@@ 2
ic) 2
icul@@ 2
ikro@@ 2
ilicon 2
imen@@ 2
imin@@ 2
import@@ 2
iqu@@ 2
iti 2
izop@@ 2
kilomet@@ 2
ligen@@ 2
meh@@ 2
mend 2
microbi@@ 2
mptome 2
obald 2
offn@@ 2
particul@@ 2
pren@@ 2
riech@@ 2
ropä@@ 2
sil 2
spre@@ 2
stac@@ 2
strie 2
strugg@@ 2
stützen 2
tschaf@@ 2
tschaft 2
unte@@ 2
versu@@ 2
wandel 2
welch@@ 2
wus@@ 2
wäss@@ 2
zeh@@ 2
Ç@@ 2
à 2
ähr 2
í 2
ölk@@ 2
ücksich@@ 2
Ō@@ 2
​@@ 2
—@@ 2
‚@@ 2
‟ 2
‟@@ 2
• 2
,J@@ 1
,P@@ 1
=@@ 1
Alzhei@@ 1
Christm@@ 1
Elektri@@ 1
Flüch@@ 1
Francis@@ 1
GB@@ 1
I'@@ 1
Kohlen@@ 1
Pitts@@ 1
Uns@@ 1
Video) 1
Vorur@@ 1
\@@ 1
^@@ 1
`@@ 1
abet@@ 1
ahr 1
anspruch@@ 1
aria 1
ategi@@ 1
beinah@@ 1
beit 1
bezü@@ 1
bliothe@@ 1
chall@@ 1
children@@ 1
crastin@@ 1
dab@@ 1
destru@@ 1
eler@@ 1
en't 1
enteil 1
entre@@ 1
eptem@@ 1
estens 1
flict 1
gely 1
gir@@ 1
goti@@ 1
grate@@ 1
hemann 1
icro@@ 1
ific 1
ilic@@ 1
indust@@ 1
istic@@ 1
jell@@ 1
krä@@ 1
lautet@@ 1
ldn't 1
ledig@@ 1
ligt 1
line-@@ 1
lück@@ 1
molec@@ 1
mög@@ 1
nam 1
ollar 1
ollar@@ 1
olph@@ 1
opar@@ 1
ople 1
oundation 1
pects 1
percent@@ 1
perf@@ 1
rasch@@ 1
reig@@ 1
rieg@@ 1
s., 1
sition 1
sog@@ 1
sogenann@@ 1
spruch@@ 1
strum@@ 1
sud@@ 1
tack@@ 1
thema@@ 1
tice 1
ulp@@ 1
umind@@ 1
unsch 1
ustr@@ 1
veh@@ 1
verblü@@ 1
vidu@@ 1
whel@@ 1
xt 1
zens 1
@@ 1
@@ 1
£ 1
£@@ 1
©@@ 1
²@@ 1
³ 1
´@@ 1
º@@ 1
» 1
½ 1
¾ 1
à@@ 1
ê@@ 1
ù@@ 1
ć@@ 1
ĥ@@ 1
œ@@ 1
…@@ 1
‹@@ 1
€ 1
♪@@ 1
madeupword0000 0
madeupword0001 0
madeupword0002 0
madeupword0003 0
madeupword0004 0
madeupword0005 0
madeupword0006 0
