#version: 0.2
i n
e r
e n
e n</w>
c h
t h
a n
c h</w>
e r</w>
u n
e s
i n</w>
l i
a r
i s
I ch</w>
r e
t i
e in
. "</w>
o r
i e</w>
a l
o n
th e</w>
a u
e l
i t
t o</w>
h a
in g</w>
e s</w>
s t
o u
i s</w>
d a
a t
o n</w>
an d</w>
b e
un d</w>
a n</w>
s ch
o f</w>
l e
r o
z u</w>
g e
i t</w>
v e</w>
v er
s i
a t</w>
m a
d er</w>
s e
d ie</w>
o l
in g
w i
b e</w>
a s</w>
t er
ein e</w>
o m
is t</w>
n e
r a
t e</w>
T h
e in</w>
r i
k e</w>
d e
d i
l o
u r
i ch</w>
en ,</w>
a m</w>
" Ich</w>
s .</w>
i e
s p
t e
a s
d en</w>
o r</w>
i l
Th e</w>
th at</w>
en ."</w>
i ch
l e</w>
d er
a m
en t
" "
i g
a b
m e
en .</w>
h e
li ke</w>
y .</w>
t en</w>
m y</w>
u s
d e</w>
w e
o o
f ü
a c
n o
v on</w>
h r
da s</w>
t ,</w>
es ,</w>
li e
l y</w>
er n
f e
i m
b in</w>
t .</w>
w a
c k
a ti
e d</w>
u m
u l
o p
f or</w>
w as</w>
ar e</w>
' s</w>
i r
n d</w>
D ie</w>
g en
g en</w>
er e</w>
th e
w h
g es
t r
w or
e .</w>
s s</w>
t a
ha ve</w>
g e</w>
s o</w>
s e</w>
b en</w>
m o
o u</w>
a ch
in d</w>
un g</w>
da ss</w>
t er</w>
u m</w>
h r</w>
k e
t o
i r</w>
p l
m it</w>
au f</w>
m e</w>
a l</w>
en d
i m</w>
ha be</w>
fü r</w>
i er
ein en</w>
a f
wi r</w>
li ch
s t</w>
p er
w e</w>
L e
w it
y ou</w>
D as</w>
d en
i c
p e
e m</w>
s h
t z
l d</w>
ern e</w>
c an</w>
ou t</w>
wit h</w>
i el
f f
s ,</w>
es .</w>
f a
S ch
b es
g erne</w>
en t</w>
el l
j o
r es
ich t</w>
an n</w>
en "</w>
d .</w>
ö n
" A
e x
p ro
ing .</w>
ha t</w>
li ch</w>
g h
en d</w>
u t</w>
p o
f or
b r
c om
a g
d o
w er
al l
ma g</w>
b er
al l</w>
z u
b er</w>
ou r</w>
ver y</w>
c on
ol l
c i
m ich</w>
s u
u te</w>
l au
a r</w>
t ."</w>
ch en</w>
e ,</w>
lo ve</w>
di es
or t
w ar
p p
an t</w>
ou ld</w>
un g
an d
c o
s ie</w>
th is</w>
u e</w>
F re
g i
S ie</w>
s ind</w>
lie be</w>
j e
ti on
h o
" W
t u
m eine</w>
G e
ch e</w>
n icht</w>
t ra
a d
c e</w>
u si
y ,</w>
e t
v or
ne w</w>
en jo
ä n
k ing</w>
au s
m or
an n
on e</w>
en sch
ein em</w>
da y.</w>
it e</w>
- -</w>
u t
S p
g o
b l
s en</w>
en n</w>
p ar
R e
z e
ge h
enjo y</w>
oo d</w>
f ri
s a
s o
s el
f t</w>
al s</w>
h n
si ch</w>
g ro
' t</w>
ein er</w>
D er</w>
al ly</w>
"" "</w>
in k</w>
ati on
w ie</w>
t s</w>
l a
d r
l l</w>
f in
b i
k ann</w>
wi r
s er
u r</w>
E in</w>
r e</w>
d ,</w>
ter n</w>
Z e
au f
at e</w>
s om
M y</w>
an der
se hr</w>
de m</w>
in e</w>
ab out</w>
e h
l an
o g
pe op
U nd</w>
m er</w>
m an</w>
f u
ma ch
m an
ig h
ön n
G es
wa r</w>
q u
g an
k önn
E s</w>
er .</w>
th er</w>
a ch</w>
e m
M ensch
un s</w>
L ie
" I
g r
ch ti
ti on</w>
l as
b o
im p
B e
v er</w>
th ink</w>
"A nd</w>
d es</w>
no t</w>
f ro
g re
ati on</w>
y s</w>
in ter
v i
is t
h l
m en</w>
ti me</w>
A r
g ood</w>
un d
ü ber</w>
W el
ne ue</w>
ur e</w>
ges tern</w>
. """</w>
w enn</w>
he ute</w>
li t
h er
f ul
Le ben</w>
the y</w>
gro ß
w hat</w>
es e</w>
th ing</w>
b en
V er
I n
fro m</w>
r u
sch af
h i
d o</w>
br ing
s ."</w>
b y</w>
d u
mor e</w>
c re
d ar
t re
a p
" S
fu l</w>
g u
th er
c ol
N at
au s</w>
fri end
be lie
Ze it</w>
re a
da y</w>
ü r
f an</w>
on n
un gen</w>
peop le</w>
E r
r is
us t</w>
u ch</w>
F an</w>
imp ort
h e</w>
es s
t 's</w>
f re
t ing</w>
u p</w>
u s</w>
ti v
bl ing
e l</w>
lo o
a hr
fa vor
ha s</w>
im mer</w>
g lau
Lie bling
o w
favor ite</w>
E n
ü ck
e ar
M e
it 's</w>
es ter
M ein</w>
f e</w>
ö r
e v
ß e</w>
A u
k .</w>
d s</w>
b t</w>
wi chti
or t</w>
w ould</w>
I '
w is
k no
au se</w>
p a
t ri
ä ch
k om
ti m
som e
wh en</w>
gen ie
M usi
ti c
s m
ou r
s on
ie l</w>
es s</w>
ma l</w>
te d</w>
un der
y ing</w>
g o</w>
g er
st ar
c k</w>
h al
A b
be au
ha pp
d is
belie ve</w>
' re</w>
v iel
T e
i z
b le
in n
A n
an k
th ing
d ur
s k
l l
te ,</w>
ü n
A nd</w>
m ir</w>
h en</w>
b ut</w>
w at
T a
e ."</w>
b oo
k l
Mensch en</w>
Liebling s
it y</w>
ha ben</w>
t ur
t en
d on
ch t</w>
Fre un
dies e</w>
h el
g ra
U n
P ro
d es
re .</w>
go ing</w>
m er
E ine</w>
? "</w>
Wel t</w>
" Und</w>
he it</w>
m ö
g el
import ant</w>
n at
o f
ha d</w>
wa ys</w>
j ust</w>
y ester
gh t</w>
d re
un s
g h</w>
un ter
m is
a k
no ch</w>
me hr</w>
st en</w>
wi ll</w>
S t
i l</w>
d ."</w>
me .</w>
p h
r ou
li fe
the ir</w>
o b
genie ße</w>
o der</w>
" I</w>
k s</w>
i li
s ein
don 't</w>
p as
z um</w>
le ar
en n
ar be
f as
di ff
" "</w>
c ause</w>
al ways</w>
fe e</w>
al so</w>
ch te</w>
ne u
pl a
o ther</w>
bi g</w>
( L
sp e
ab er</w>
m usi
es t
v el
v es</w>
n ach</w>
ä r
w al
ge b
v ing</w>
st r
m einen</w>
el l</w>
gre at</w>
m us
beau ti
is t,</w>
au ch</w>
ol og
c t</w>
i f</w>
st e</w>
ge t</w>
S onn
m ü
it ,</w>
b u
p re
er t</w>
ter )</w>
s ti
s am
ch an
to day.</w>
en c
H er
be i</w>
an t
i hr
ma ke</w>
Ges ch
y ou
b ein
y our</w>
" Es</w>
s sen</w>
l u
ha t
wh o</w>
ha b
st ell
Nat ur</w>
th at
s oll
le .</w>
k en</w>
ho w</w>
gi bt</w>
F am
z ier
com p
I' m</w>
B ut</w>
f am
it .</w>
W o
m ent
z en</w>
r ä
m einer</w>
h ar
ch n
v iel</w>
th ese</w>
a .</w>
fa hr
sp ann
y ."</w>
o ff
W e
ke ,</w>
S e
J ahr
z e</w>
k eine</w>
Ta g</w>
dur ch</w>
sp iel
e very</w>
P ar
lich e</w>
al le</w>
" N
t en,</w>
at e
on g</w>
fü h
life .</w>
n ur</w>
m ein</w>
" D
y ear
diff er
w ant</w>
m in
ab le</w>
s y
s in
wor l
f o
be t
yester day.</w>
in to</w>
n igh
w ere</w>
wor k</w>
ti ve</w>
Ab end</w>
is e</w>
re ally</w>
ne ed</w>
wa y</w>
m einem</w>
" Th
et was</w>
be cause</w>
en ce</w>
on der
ti g
pl ac
ü ber
b a
ver y
K in
r ü
c al
wor ld</w>
i de
en s
" Das</w>
sch ön
ke it</w>
an c
se in</w>
t h</w>
0 0</w>
groß er</w>
on .</w>
w ür
th rou
it en</w>
m ar
e p
s ag
könn en</w>
k ann
t al
po si
E in
t y</w>
bein g</w>
sch ie
ri e
"S o</w>
Z u
se e</w>
is ch
fam il
S ta
b ar</w>
ta ke</w>
es t</w>
li fe</w>
g l
e t</w>
st eh
O r
man y</w>
au gh
st a
re ad
wir k
in s</w>
i b
c ar
h ig
u ch
u se
sh ould</w>
c t
re la
i d
schaf t</w>
l ä
b ac
Fam ili
ver bring
v or</w>
el e
e very
w ur
n ing</w>
W ir</w>
wh ich</w>
w o</w>
d ank
viel e</w>
er ,</w>
throu gh</w>
ge t
br au
be ,</w>
b st</w>
tz e</w>
c ul
tr y</w>
N ach
st u
ou s</w>
wer den</w>
um e</w>
e ig
e 's</w>
w ä
th ere</w>
än der
n 't</w>
an ,</w>
M eine</w>
n ich
mo st</w>
A us
mach t</w>
c ould</w>
glau be</w>
kno w</w>
Musi k</w>
N e
m p
k t</w>
g t</w>
f lo
er n</w>
un ser
ver s
F il
kom m
uns ere</w>
f ol
is che</w>
er g
S o</w>
g ,</w>
s on</w>
pl an
a pp
a li
h er</w>
lo t</w>
ex per
ein es</w>
h in
f ris
(L augh
hn en</w>
en de</w>
w er</w>
v ol
las t</w>
S tr
w el
v is
be en</w>
h ä
v oll
g lich
ar o
den ke,</w>
au r
K on
(Laugh ter)</w>
ß en</w>
"I n</w>
it s</w>
b ar
f res
ander en</w>
som e</w>
ol d</w>
ing ,</w>
we it
f ir
I t</w>
Famili e</w>
r it
thing s</w>
i es</w>
a zier
wi e
fe el</w>
l ern
G r
wir d</w>
mus s</w>
f i
K af
wh ere</w>
differ ent</w>
w under
il d
g a
w o
a h
ti er
Ar be
i ck
ou t
f un
"W ir</w>
f ä
G er
D ing
En t
ges ch
ü ch
se h
s er</w>
sch ä
m .</w>
il li
g er</w>
mö chte</w>
friend s</w>
do w
m ent</w>
hi er</w>
un i
fin de</w>
f en</w>
the m</w>
g .</w>
Fre i
per son
pas si
P o
some thing</w>
ne h
is ch</w>
il e</w>
th o
st e
W e</w>
o ver</w>
s un
nat u
rela x
at ing</w>
M o
f ac
ful .</w>
ow n</w>
ut es</w>
ac tu
m on
in sp
f ind</w>
tz t</w>
p u
th ou
m m
t en."</w>
m y
kno w
k es</w>
an ce</w>
he al
d ann</w>
A l
n .</w>
es ."</w>
ber e
t en.</w>
k o
de .</w>
s ol
b al
sch au
b rea
we e
t el
is chen</w>
lich en</w>
w in
s it
co un
de ,</w>
geh e</w>
e y</w>
a de</w>
at ed</w>
c it
" Die</w>
th an</w>
f l
ic e</w>
com e</w>
v o
gl ück
t ro
Sta d
inter es
le d</w>
ti c</w>
h um
er i
K un
ver su
o w</w>
k enn
f an
p res
dies er</w>
is en</w>
f fe
d y</w>
ation .</w>
B l
be g
z ie
f il
aro und</w>
am p
s c
ma chen</w>
in .</w>
th en</w>
s en
ander e</w>
ag a
g ar
op p
b ra
c in
sh i
r au
m it
ihr e</w>
v el</w>
st or
l y.</w>
i h
b ir
t le</w>
de ck
le ,</w>
oo d.</w>
ü ck</w>
loo king</w>
B er
Gesch ich
der n</w>
boo k</w>
Freun den</w>
je der</w>
o k
sp ort
Ding e</w>
u p
c oo
Sonn en
a st
a ,</w>
t s.</w>
chn olog
g ut</w>
er s</w>
ä t</w>
sel f
end ing</w>
am e</w>
actu ally</w>
sti ll</w>
Y ou</w>
I t's</w>
ig e</w>
ge ,</w>
Kaf fee</w>
Freun de</w>
that 's</w>
mo v
o ther
re ci
b st
ge .</w>
sch e</w>
du c
le b
k ,</w>
ent spann
le a
on ,</w>
te ."</w>
de d</w>
m en
g ute</w>
exper i
ar t</w>
schä tze</w>
ter n
fü hr
ens ch</w>
M a
friend s.</w>
c an
" The</w>
z we
d en,</w>
loo k</w>
h om
o ,</w>
G el
l es
E ssen</w>
ung .</w>
gan g</w>
A p
m el
dank bar</w>
u tz
c l
worl d.</w>
fir st</w>
si ch
M or
" Sie</w>
w oll
gr ate
g le
se hen</w>
n ach
k un
B uch</w>
st re
K ul
musi c</w>
ati v
" But</w>
glau be,</w>
beauti ful</w>
m al
fe el
ent s</w>
l ong</w>
i c</w>
c or
füh le</w>
bes t</w>
" O
ma g
ch en
S om
L i
lit y</w>
i den
h ere</w>
H e
s ur
W as
z i
w en
sel bst</w>
aus zu
B üch
u ft</w>
"W enn</w>
zu r</w>
h ör
e p</w>
i d</w>
um en</w>
m ,</w>
l at
g utes</w>
Stad t</w>
M ensch</w>
is t."</w>
grate ful</w>
eig en
x t</w>
ver schie
re s</w>
h is</w>
ch il
s ci
per fe
famil y</w>
E r</w>
ung ,</w>
n is
b in
H im
per son</w>
par t
p s</w>
ier t</w>
wichti g</w>
d en.</w>
me di
le tz
tr ä
v ir
te t</w>
lear n</w>
sch on</w>
v e
c e
insp i
ev en</w>
v al
lit tle</w>
en g
d en."</w>
c ity</w>
s si
k ed</w>
bac k</w>
' ve</w>
sch ö
m uch</w>
end .</w>
Me er</w>
M ö
sch n
me ,</w>
ful l</w>
F ra
verschie den
tho se</w>
ri ght</w>
en s</w>
el n</w>
ze u
on ly</w>
natu re.</w>
s um
n o</w>
wirk lich</w>
ung s
z in
wür de</w>
tr in
wal k</w>
Un ter
rea d</w>
no w</w>
iz z
f li
M ar
m ein
C om
wat ch
se ,</w>
dis co
te .</w>
me l</w>
all es</w>
wie der</w>
er en</w>
2 0
we il</w>
war m</w>
ti g</w>
f ra
arbe it
P er
s ing
ev en
an s</w>
Ap pl
v ed</w>
wis h</w>
ier en</w>
D i
a d</w>
Th is</w>
w ün
ha t's</w>
el y</w>
ati ve</w>
tion .</w>
re d</w>
i g</w>
Le ben
( Appl
" T
us am
m s</w>
U m
ent ly</w>
pro b
con c
aur ant</w>
V or
sch ein
is ,</w>
sp ending</w>
o ft</w>
es s.</w>
col le
an y</w>
voll er</w>
se d</w>
m at
wi th
wi ck
sy st
on s</w>
f er</w>
" H
c c
s s
re ich
no w
a ge</w>
ist or
i er</w>
sp end</w>
lo w
heal th
fa ch</w>
app reci
G ar
w as
schö n</w>
of ten</w>
m ir
neu en</w>
ne xt</w>
li ve</w>
"A ber</w>
e d
igh t</w>
t un
n äch
go t</w>
flo wer
dre am</w>
te u
h ö
"A l
g n
ze it</w>
c ra
Sp ort</w>
w om
ä u
to gra
t wo</w>
sch re
f t
tra vel</w>
b li
t oll
se .</w>
f er
R o
1 9
un ta
A ber</w>
ze ig
? """</w>
z ur
posi tive</w>
ent deck
c u
ri gh
og a</w>
Ge b
o b</w>
il l
S tra
Fre und
k t
g en,</w>
C h
ne ver</w>
for ma
year s</w>
ell ,</w>
de li
d a</w>
i k
en z
F or
re ,</w>
Ar t</w>
res t
lan gu
i ß
ad v
D e
t ol
s eine</w>
musi c
hn e</w>
Mö glich
we 're</w>
tim es</w>
se a</w>
appreci ate</w>
" M
or s</w>
w onder
hat te</w>
geh t</w>
dies em</w>
it ."</w>
hel p</w>
f ood</w>
J e
geh en</w>
f all
B es
soll te</w>
si de</w>
dr ink</w>
Sonn e</w>
K at
p ic
ein fach</w>
ci al</w>
you 're</w>
h and
c lo
f fee</w>
co ffee</w>
bet ter</w>
G l
Arbe it</w>
to ge
h istor
war d</w>
us e</w>
da y,</w>
I hnen</w>
se tz
r an
ex cit
dies es</w>
n ess</w>
ne e
dar an,</w>
b le</w>
0 00</w>
st and</w>
ge l</w>
person .</w>
n ,</w>
en ti
bes onder
in v
M it
th in
Kul tur
un ter</w>
f le
y 're</w>
st ra
mo vi
ar i
s le
re l
re ch
plac e</w>
las s
beauti ful.</w>
wichti g,</w>
k re
tr ying</w>
ne d</w>
k s.</w>
Sch ön
fü hl
ent .</w>
I n</w>
Him mel</w>
Sp ra
I de
sel f</w>
w an
"" "I</w>
to o</w>
hab en,</w>
bo dy</w>
i hr</w>
füh l</w>
d ri
ul ar
nigh t.</w>
ges eh
th re
sch e
nigh t</w>
wor king</w>
mo unta
gen d
for der
ell en</w>
tr an
or gan
feel ing</w>
an y
ti me.</w>
f es
d n't</w>
al .</w>
"W e</w>
n er</w>
wi mm
Le ute</w>
v e.</w>
t es</w>
sch en</w>
ou s.</w>
ma kes</w>
wur de</w>
happ y</w>
we g
p ho
ne t</w>
je den</w>
experi enc
ber u
lau b
t in
l and
dre am
versu ch
el le</w>
tim m
su n</w>
sam e</w>
com m
t an
i d,</w>
do ing</w>
chan ge</w>
Pro ble
J a
ch o
ch all
Sp azier
sh e</w>
ensch af
se t</w>
pro ble
izz a</w>
fres h
lich .</w>
en )</w>
e -
F o
is i
c le
an .</w>
ou l
dies en</w>
a u</w>
wee k
Zu kun
t s
in ,</w>
iel e</w>
g än
le icht</w>
gi ve</w>
tion s</w>
ti ge</w>
read y</w>
pla y</w>
di d</w>
F rü
(L ach
sp azier
ow ,</w>
ach ie
K o
vir on
es en</w>
ar y</w>
W is
si on</w>
pla ying</w>
mov ie</w>
ma de</w>
f lie
Str and</w>
Mor gen</w>
M on
sch l
tra vel
r on
n ."</w>
g ing</w>
c ur
au t
d it
G en
po in
kom men</w>
d ing</w>
, "</w>
w ent</w>
ter .</w>
be i
Büch er</w>
nat ure</w>
k te</w>
st ru
peop le.</w>
k ind</w>
ing ."</w>
g en.</w>
In ter
st and
p ri
mor n
ger ade</w>
T ag
B o
Au f
lan ge</w>
in ing</w>
al s.</w>
al e</w>
bes ch
ach en</w>
Kun st</w>
(Lach en)</w>
ver mis
st at
for ward</w>
Th e
mis s</w>
b is</w>
F ar
A ben
n ie</w>
en viron
ch mal</w>
t y
dr u
c al</w>
T o
p le
b au
zie h
v ac
l in
i ben</w>
Geschich te</w>
" F
" (Laughter)</w>
k ing.</w>
des ig
ther e's</w>
m om
W al
K om
ri ch
p on
Möglich ke
ti es</w>
p er</w>
h ol
trin ke</w>
t oo
pe ac
mü ssen</w>
könn te</w>
dr au
beru hig
a ir
z usam
verschieden e</w>
li st
k on
el t</w>
ü tz
zwe i</w>
un der</w>
fas zin
at er</w>
y si
uns er</w>
d u</w>
Wo chen
R est
K re
neu es</w>
Le b
Bl umen</w>
vermis se</w>
il d</w>
glück lich</w>
fas cin
deli ci
in cre
b ro
Gel äch
Kon z
sa id,</w>
p ra
k auf
fre ue</w>
Li fe</w>
wer de</w>
i f
di g
c ke</w>
ar d</w>
Sonnen unter
z ä
m ä
ein mal</w>
( Geläch
tr u
L and
it e
watch ing</w>
t at
w us
sein ."</w>
s enschaf
ein z
ch e
brau che</w>
sh o
en den</w>
den ke</w>
bes u
Me di
adv ent
U r
H and
per c
je tzt</w>
h ou
(Geläch ter)</w>
read ing</w>
po ssi
t t
sp r
par t</w>
p rä
fres h</w>
T as
Kin der</w>
un de</w>
k ur
en erg
ab le.</w>
ver änder
unser er</w>
te il
t or
re g
h l</w>
n e</w>
hab en."</w>
di es</w>
T rä
F ahr
te chnolog
W in
v en
t ung</w>
k tion
bal d</w>
F l
ö ß
tr au
s or
an i
"Th is</w>
st .</w>
kann ."</w>
ic al</w>
Kultur en</w>
A mer
sk y</w>
sin d,</w>
l er</w>
c ri
c ar</w>
b re
an k</w>
Ges und
tu re.</w>
st ,</w>
k onn
er reich
ent wick
dow n</w>
ach .</w>
A fri
po wer</w>
can 't</w>
be im</w>
b all</w>
Jahr en</w>
pa in
d ra
Au to
p r
mü t
ie ,</w>
fahr en</w>
S u
s am</w>
ment .</w>
den k
bes ser
af ter</w>
thing s.</w>
f en,</w>
de vel
arbe ite</w>
Nat ure</w>
Gar ten</w>
w rit
lan g
aus forder
S y
war en</w>
w ell
t ter</w>
pre fer</w>
hä t
groß ar
get ting</w>
c up</w>
Ge fühl</w>
"N ow,</w>
ö ff
the y're</w>
star t</w>
music .</w>
morn ing.</w>
it y.</w>
ir gend
e ach</w>
chil dr
an im
a lit
t ell
s ing</w>
lo w</w>
at .</w>
S tern
Re isen</w>
Jahr e</w>
wor k
ta king</w>
c ame</w>
trä ume</w>
si mp
f rü
Schön heit</w>
st än
o hne</w>
flower s</w>
Zukun ft</w>
Sch u
ok ol
is p
f lu
en ing</w>
ac k
Tas se</w>
K ör
st er</w>
cal led</w>
c a
t on
po li
da mit</w>
Q u
wat ch</w>
ta st
l ou
is ter
inter ess
c tion</w>
E x
yester day</w>
opp ort
neh men</w>
n am
gle ich
fre e</w>
"" W
wa ch
tion ,</w>
ra l</w>
oo l</w>
famil y.</w>
es sen</w>
al t</w>
a hl
T ra
hum an</w>
drau ßen</w>
Th ere</w>
Sch okol
"I f</w>
al ten</w>
Te e</w>
Fil m</w>
F e
ular ly</w>
n u
l ar
g am
disco ver
Par k</w>
ig er</w>
ig en</w>
fris ch
v ie
qu es
par tic
i hnen</w>
ho b
"" ."</w>
wa hr
ti v</w>
th ing.</w>
s en,</w>
ri er
m i
lich er</w>
fri end</w>
all y,</w>
Wo hn
H ob
ä l
zä hl
y e
mach en."</w>
c ap
at en</w>
N o
on en</w>
m u
g ar</w>
L uft</w>
Ja hr</w>
M illi
M ann</w>
Her ausforder
op en</w>
lich ,</w>
ation ,</w>
an t.</w>
al ,</w>
Aben teu
tur es.</w>
sm all</w>
vo m</w>
thou gh
th er.</w>
star ted</w>
schau e</w>
pro du
har d</w>
my self</w>
H und</w>
tre ff
res pe
r y</w>
a ir</w>
ä d
verbring e</w>
su pp
ro man
li m
lan g</w>
ge w
every thing</w>
us s</w>
sin d."</w>
lie b
l li
b or
"I t</w>
tu r</w>
of f</w>
i en</w>
gr öß
da y
besonder s</w>
I hr
" My</w>
g s</w>
fo und</w>
fas t</w>
Sch l
mar ke
it ät</w>
ing s</w>
ha be
ge müt
Was ser</w>
Fre u
Er fahr
zur ück
tol le</w>
the m
ier en."</w>
ich ,</w>
ha t,</w>
er ."</w>
as t</w>
Sp a
stu di
son dern</w>
si eh
thre e</w>
sm ell</w>
gro w
Com pu
tal k</w>
de t</w>
b lo
ze p
z wis
sh ow
pro je
movi es.</w>
ma king</w>
know ,</w>
happ y.</w>
beg inn
Be isp
col or
Y oga</w>
Au to</w>
h or
g lo
f ar
Le iden
K ar
t ell</w>
p ut</w>
lern en</w>
kl einen</w>
den n</w>
P izza</w>
äch lich</w>
Wochen ende</w>
Te chnolog
Re gen</w>
sein ,</w>
le ck
k ein</w>
ih n</w>
au se
V iel
Un i
Sp ort
ro w
ou s
h ,</w>
ges .</w>
e at</w>
" You</w>
seh en,</w>
ro p
it u
ge ben</w>
chall en
we en</w>
wat er</w>
ti es.</w>
st res
pa ar</w>
l y,</w>
ab i
is ten</w>
ge macht</w>
e ffe
an other</w>
Ne w</w>
Ü ber
so ,</w>
h ir
dar über</w>
d s.</w>
c ts</w>
G o
"I t's</w>
un k
hal b</w>
groß e</w>
beau ty</w>
as e</w>
al le
Lie be</w>
En erg
M om
sch wi
h u
em p
de ut
Th ey</w>
I' ve</w>
with out</w>
u s.</w>
tic .</w>
p .</w>
lich keit</w>
könn en."</w>
ha ving</w>
h op
de ."</w>
Pro z
B au
z y</w>
v en</w>
th is
shi p</w>
le ben</w>
im pro
Nach t</w>
Mensch en,</w>
K ra
ri ll
on e.</w>
nich t,</w>
com ing</w>
ach t</w>
V ö
R u
zwis chen</w>
syst em
cul tures.</w>
ck t</w>
c our
ar t
L o
H a
(Appl ause
tu n</w>
tri p</w>
tion en</w>
sa y</w>
res pon
il y</w>
g en."</w>
bu ild
b un
ar s</w>
wün sche</w>
ter s</w>
gän ge</w>
bes te</w>
be ge
k in
Nat ur
Ges ell
vol l</w>
um ent
or d
neh m
lear ning</w>
hr t</w>
comp le
com for
H au
, ""</w>
v es.</w>
hr end</w>
weit er
k tiv
bet ween</w>
b ie
ant as
P e
Musi c</w>
(Applause )</w>
wh y</w>
sa w</w>
Te il</w>
In di
su cc
rest aurant</w>
n ie
h än
ein ige</w>
at es</w>
Kat ze</w>
F rau
ter ,</w>
gan z</w>
comm un
W or
ung laub
i mag
i es.</w>
fris ch</w>
coun tri
. .
"S o,</w>
my self
in ess</w>
h igh
f it</w>
da v
c y
be vor
Trä ume</w>
S o
C hin
" Y
t ure</w>
s ha
ne w
l es</w>
geseh en</w>
fü ll
wh ile</w>
r ank
nich ts</w>
faszin ier
da von</w>
be ach.</w>
ation s</w>
w är
w r
versuch e,</w>
n er
le ich
i ere</w>
gu ter</w>
dur ch
do g</w>
ch ite
al te</w>
Ne u
1 0</w>
war ,</w>
ver steh
te a</w>
t "</w>
n ä
n is</w>
l on
ie .</w>
do m</w>
be ein
W ir
F ü
F it
B i
p ur
n or
gr ün
gr ou
Som mer</w>
F lu
m ensch
k ü
it ed</w>
bes ser</w>
Stern e</w>
wer den."</w>
ou ght</w>
mir ,</w>
ant wor
al ready</w>
a th
W hat</w>
S tu
schein t</w>
man chmal</w>
c ou
c at</w>
Or t</w>
we a
nee ds</w>
li gh
inn er
f ic
comp u
com es</w>
R au
ö s
wel t
t :</w>
sk y.</w>
sein .</w>
other s.</w>
hö re</w>
gen er
dr ing
b us
auszu prob
viel leicht</w>
ob ach
fe w</w>
con vers
S k
Pro je
" Mein</w>
use d</w>
pro duc
ph one</w>
mor ning</w>
do es</w>
a part
mo tiv
b it</w>
b all
unser en</w>
st er
s ächlich</w>
perc ent</w>
f t.</w>
ein f
ck en</w>
Uni vers
z z
l le</w>
ihr en</w>
he d</w>
R a
H ar
soll ten</w>
sein "</w>
g lich</w>
g ently</w>
devel op
an d.</w>
spiel e</w>
m ight</w>
gan zen</w>
for m</w>
den en</w>
Fahr ra
spe ci
k au
de u
H aus
Ge dank
we 've</w>
n ah
ha t."</w>
S el
t ter
sp ä
rea li
pp e</w>
o ver
ge gen
en th
con ne
at ing.</w>
par k</w>
l ess</w>
g ier
fin den</w>
ent ,</w>
e duc
do es
c are</w>
br ing</w>
be ach</w>
Win ter</w>
M use
Leb en.</w>
F ä
ty p
ti gen</w>
se con
sche id
r un
l ing</w>
it ing</w>
f is
er st
en ou
ac c
könn en,</w>
jo b
incre di
ex p
an zu
an ge
" Er</w>
wo hl</w>
wis sen</w>
we ise</w>
ol e</w>
langu a
eigen en</w>
di dn't</w>
spazier en</w>
sp ro
gi ves</w>
gar den.</w>
er sten</w>
Gl ück</w>
Gesund heit</w>
ü s
re is
pro te
me m
me ."</w>
ke ep</w>
k er</w>
every one</w>
an der</w>
G ru
Amer ic
' ll</w>
star s</w>
schön .</w>
ri chti
n ess
m use
isch er</w>
hä l
ge ."</w>
e qu
does n't</w>
ar t.</w>
W er
sta y</w>
le t</w>
le ."</w>
c ent
a k</w>
Z iele</w>
Y or
Rest aurant</w>
G ro
C o
C hr
te l</w>
si on
posi tiv
par k.</w>
lau b</w>
f ood.</w>
et s</w>
ch ,</w>
Ze it
Was ser
W as</w>
val ue</w>
st ol
re al</w>
pl ann
h t</w>
h il
cre ate</w>
Fre und</w>
ze ich
z t</w>
wün sch
we i
s at
re isen</w>
o m</w>
for e</w>
b ig
T hat's</w>
te :</w>
sh ow</w>
ke iten</w>
g es</w>
cho col
achie ve</w>
Ge hir
sport s</w>
m illi
l ung</w>
interes si
ge mach
er zähl
ell s</w>
at t
Wis senschaf
, 000</w>
(Appl aus
ul ern
n ice</w>
lo s
im mer
ier en"</w>
dre i</w>
bring s</w>
Fra u</w>
th .</w>
some times</w>
schön e</w>
hal ten</w>
et ing</w>
di g</w>
cre ative</w>
bes s
0 0
un be
that ,</w>
m and</w>
geh ör
boo ks</w>
Spazier gang</w>
"W hen</w>
kenn enz
kennenz ulern
geh en."</w>
fresh ly</w>
cal m
B ä
str on
st o
ph ysi
es pe
e ver</w>
W et
"W ell,</w>
" B
ti me,</w>
re as
ol o
n um
mo sp
f en."</w>
da zu</w>
bring t</w>
bes uch
aut um
au b
tion s.</w>
in c
gen au</w>
ge fä
boo ks.</w>
auf ,</w>
at e.</w>
Ent spann
2 0</w>
"Th ey</w>
ung en.</w>
st ri
sci ence</w>
p rou
or t.</w>
mö glich
gen u
e y
de c
ch ten</w>
Vö gel</w>
H aus</w>
"D i
wor k.</w>
too k</w>
syst em</w>
spiel en</w>
even ing.</w>
dav on,</w>
d ro
c ted</w>
be obach
Wohn ung</w>
E l
" Der</w>
vis it</w>
o .</w>
it ä
ch .</w>
bevor zu
b is
at ten
an ts</w>
Schokol ade</w>
K le
Ger uch</w>
ung en,</w>
self -
sch le
pla y
no v
k am
interes ting</w>
gi b
f el
cl ou
al en</w>
Leiden schaft</w>
Geb ur
" E
ti e
su b
or i
ho t</w>
h n</w>
f ter</w>
c las
(Applaus )</w>
ti k</w>
sp ac
si de.</w>
sel bst
li ght</w>
land sc
ge mein
e mo
dring end</w>
bir ds</w>
b ri
V ide
Freu de</w>
D es
- S
wä re</w>
pu bli
p ing</w>
op tim
w ander
val u
m lich</w>
it s
de p
bege ister
ation en</w>
Kun st
wi ll
ra in</w>
plann ing</w>
ex pres
an z
Her bst</w>
Fil me</w>
uni ver
so gar</w>
r en
f oo
environ ment
ein ander</w>
di re
brau cht</w>
Sp iel
Re ise</w>
Po li
Fä hig
" Be
un ,</w>
sy ch
sp rech
se l</w>
p op
myself .</w>
las sen</w>
ist "</w>
ide a</w>
ge gen</w>
ge d</w>
ent lich</w>
d ist
an s
W ar
Frei zeit</w>
us ,</w>
t en"</w>
plan e</w>
komm t</w>
ic ul
f ur
do ch</w>
diff icul
B oo
B ild
5 0</w>
wä hrend</w>
t ly</w>
sieh t</w>
out do
be deu
ab ly</w>
Se el
Kör per</w>
Gedank en</w>
wie der
prou d</w>
m er.</w>
h on
f ru
end s</w>
ear ly</w>
aga in.</w>
E u
un d.</w>
partic ularly</w>
ne t
lau gh
h au
er le
e dom</w>
ble ib
a v
Par t
M in
An g
stol z</w>
jo g
interes ted</w>
hom e</w>
F u
"Al s</w>
sp re
ro ss</w>
passi on</w>
gu ten</w>
ex amp
d ort</w>
cul tu
ac tiv
P lan
togra f
tat sächlich</w>
so on.</w>
pro c
landsc ap
k a
conc ert</w>
c er
c all</w>
ac k</w>
W ol
Gesch en
pl or
ma z
igh t.</w>
h our
fun ktion
em ber
e t.</w>
bevorzu ge</w>
M ut
H o
Ges prä
y o
we d</w>
schl af
nu n</w>
li ving</w>
li c
in forma
groß en</w>
ch es</w>
b ur
to day</w>
the m.</w>
re ."</w>
nat ür
li sten</w>
happ en
en e</w>
delici ous.</w>
co zy</w>
childr en</w>
bring en</w>
Spra che</w>
R om
Gro ß
toge ther</w>
thin king</w>
sa y,</w>
s ort</w>
näch ste</w>
nis se</w>
n en</w>
l ese</w>
entwick el
e con
ch ar
B et
wünsch te,</w>
w es
lä s
lich es</w>
k einen</w>
ihr er</w>
genie ß
end lich</w>
ation al</w>
z ahl
ur gently</w>
g y
f ut
ba si
b el
wom an</w>
w ann</w>
under stand</w>
sh ining</w>
sag en,</w>
po wer
ma j
ern .</w>
au s.</w>
S ci
t y.</w>
mach en"</w>
l and</w>
j our
g li
en en</w>
Wal d</w>
W h
U S
T iere</w>
Kra ft</w>
wer den,</w>
so cial</w>
n utz
he iß
er st</w>
bac k
aga in
T rau
Konz ert</w>
tion ."</w>
tic al</w>
ol le
n ic
g ood.</w>
ful ly</w>
dru ck
aus ge
Ver änder
Musi k
Ge mein
tier en</w>
rel ation
p ie
experi ence</w>
c ie
M an
20 0
to p</w>
se as
schn ell</w>
r at
näch sten</w>
k e.</w>
in i
f lan
c e.</w>
W ie</w>
In forma
Gebur t
we gen</w>
ul ar</w>
letz ten</w>
lea ves</w>
l än
ern ."</w>
er ste</w>
co ffe
be tra
ati v</w>
Wo che</w>
Sonnenunter gang</w>
togra ph
me t</w>
m il
lie ß
jo b</w>
ing t</w>
g t,</w>
be fore</w>
b ak
Sel bst
B ro
wh ole</w>
ton ight.</w>
ro om
re m</w>
n s</w>
list ening</w>
ich .</w>
even ing</w>
c amp
at ur
Frei heit</w>
Be zieh
t ou
me ans</w>
m uch
li gi
hou se</w>
gen d</w>
g ab
den ken</w>
Technolog ie</w>
H ause</w>
t om
supp ort</w>
stell ung</w>
p le</w>
me isten</w>
je de</w>
in di
ig n</w>
e d,</w>
brea th
W ander
Ihr e</w>
wimm ing</w>
tran s
se it</w>
pro vi
me eting</w>
ma y</w>
disco ver</w>
col or</w>
ce i
bir th
at ember
all eine</w>
Sch re
w a</w>
um ,</w>
p ris
opport un
kann ,</w>
ing en</w>
ich t
h im</w>
fut ure</w>
ex plor
es se</w>
ein zu
d an
an ti
ac ross</w>
Er fol
z o
wunder schön</w>
wan ted</w>
stor y</w>
interess an
fu ture.</w>
cur r
coo k</w>
anc e.</w>
a ."</w>
K op
H e</w>
y be</w>
wichti ge</w>
t ?"</w>
sle ep</w>
ser v
sch o
me dit
he 's</w>
ga b</w>
We g</w>
Ur laub</w>
Spa ß</w>
L and</w>
ä f
vol u
perfe ct</w>
p t</w>
our sel
or .</w>
he im
h an
f al
e d.</w>
abi lity</w>
J o
J ap
Ent scheid
" (Lachen)</w>
we iß
vi du
ung ."</w>
st ütz
schre ib
out side</w>
m en.</w>
kl eine</w>
k ten</w>
hät te</w>
ff en</w>
econ om
d el
be come</w>
S ach
Per son</w>
A n</w>
3 0</w>
wr ite</w>
v e,</w>
ten ti
sa gen</w>
s ön
mä ß
m en,</w>
isch .</w>
he i
grou p</w>
de l</w>
d one</w>
ch en.</w>
c lim
atember aub
N et
Frü hl
u ten</w>
tion al</w>
stu d
other s</w>
lau t</w>
kl är
ke t
geh en"</w>
fä hrt</w>
comfor t
c t.</w>
bes ten</w>
be wus
ba d</w>
L esen</w>
wir d."</w>
wea ther</w>
w ell</w>
str eng
relax ing.</w>
p e</w>
me an
f ig
da s,</w>
bl ü
at h</w>
F rie
F ern
y oga</w>
t ä
sp ort</w>
schaf ten</w>
pro gra
organ iz
m als</w>
hom e.</w>
enou gh</w>
en te</w>
Sch ne
S ti
L achen</w>
ün st
sun se
st ."</w>
s oul
peac e</w>
D in
" Ein</w>
us ing</w>
so cie
sit ting</w>
s einen</w>
on s.</w>
mounta ins</w>
inn er</w>
enth usi
em a</w>
de ci
H or
Fit ness
D a
verbring en"</w>
te t,</w>
schaf t
mer k
ger e
ein ,</w>
con tro
be komm
Wet ter</w>
Hob b
Gesell schaft</w>
B il
Abenteu er</w>
no thing</w>
mo ve</w>
m t</w>
ke y</w>
insp ir
hig h</w>
he it.</w>
h in</w>
gen om
ent s.</w>
c tiv
b ly</w>
ar ing</w>
Mom ent</w>
En de</w>
E is
"Al so</w>
"" ,</w>
we it</w>
w and
vie w</w>
technolog y</w>
t au
pra c
k an
i hn
health y</w>
f iel
coun tr
col d</w>
chti g
auf zu
as s
Energ ie</w>
Be deut
B lä
"Y ester
ä t
wer t
wal ks</w>
ver .</w>
thou ght</w>
su ch</w>
sport s.</w>
sam mel
sa id</w>
passi er
ne .</w>
loo ks</w>
ig ar
glau b
fil m</w>
en k
einf ach
ein .</w>
coffe e.</w>
cit y.</w>
K u
K am
y -
un ver
steh en</w>
so und</w>
gel ern
exper im
ani mal</w>
a si
L u
war me</w>
sch ool</w>
sch me
hop e</w>
h ier
g ir
f antas
ern ,</w>
end ,</w>
build ing</w>
Leben s</w>
K ü
Fu ß
Al so</w>
wur den</w>
verbring en."</w>
us h
ti tu
respon si
r ö
p i
m men</w>
lear ned</w>
j u
impro ve</w>
imp res
ent ."</w>
eigen e</w>
d ge</w>
cle ar</w>
ac t</w>
wa y.</w>
un d,</w>
tra ge</w>
s al
letz te</w>
langu age</w>
l ine</w>
is ts</w>
gar den</w>
ation ."</w>
Or te</w>
K ind</w>
Ber ge</w>
toll ,</w>
sle ep
re c
me et</w>
lie gt</w>
k i
h im
f ron
ent en</w>
e ma
ber ü
S ie,</w>
Pe op
Flu g
travel ing</w>
t es
sta g</w>
spiel t</w>
se ."</w>
relax .</w>
pl at
or ,</w>
gan ze</w>
er e's</w>
da bei</w>
c tu
Gru ppe</w>
"W as</w>
ye ar</w>
ve get
um .</w>
toll es</w>
ta in
t op
t a</w>
str um
si gn
ra sch
ra di
et wa</w>
breath ta
ar e
ab sol
D uft</w>
2 .</w>
was ,</w>
verbring en</w>
out side.</w>
o ce
is t.</w>
he it,</w>
f .</w>
er füll
e hr
bra in</w>
b righ
T ier
Ru he</w>
Möglichke it,</w>
Milli onen</w>
zusam men</w>
war m
w he
ti ce</w>
te ach
sum mer</w>
res ear
rela x</w>
qu ick
ple as
l ö
l s</w>
inspi rier
hum an
h under
for est</w>
fo re
fes tiv
er c
aga in</w>
Peop le</w>
M en
J ob</w>
H ier</w>
For sch
D o
A ut
" (Gelächter)</w>
z ed</w>
ver sch
un den</w>
to s</w>
te m</w>
te chn
su ch
so zi
sag te</w>
qu ie
p s.</w>
häl t</w>
fin de,</w>
er inn
c at
bu ild</w>
b ought</w>
au ß
Me dit
Inter net</w>
Beisp iel</w>
A ll
" Z
tal king</w>
ta il
sun set</w>
s we
p ati
organ is
le ben
dur ing</w>
c af
Wol ken</w>
Kin o</w>
Frü h
Fe u
An t
1 .</w>
wonder ful</w>
poin t</w>
lan gen</w>
jour ne
f t,</w>
e i
dr ück
dis h
Frau en</w>
1 0
' d</w>
war ds</w>
ver n
tel li
s low
re gel
on ."</w>
isch es</w>
import ant.</w>
hat ten</w>
fre edom</w>
dream s.</w>
Te chn
Tag es</w>
Stra ß
K ä
G ra
E le
"Yester day,</w>
ö fter</w>
v ö
unser em</w>
tri ed</w>
spro b
re cei
ra in
har t</w>
fri e
enjo ying</w>
enc e.</w>
dec isi
bo d
au s,</w>
a maz
He ute</w>
H um
secon d</w>
se he</w>
me d</w>
ges tell
bes timm
zie mlich</w>
you .</w>
war ."</w>
unglaub lich</w>
th is,</w>
sp ar
se a.</w>
s es</w>
kann "</w>
ing s.</w>
il t</w>
gle ich</w>
ges und</w>
gegen über</w>
ex tre
es s,</w>
en ?"</w>
en :</w>
be d</w>
Sch ul
P a
M acht</w>
L a
Di ese</w>
Ab end
1 00</w>
war um</w>
t lich</w>
s now
n enn
mach en.</w>
en -
der ,</w>
da ys</w>
d ly</w>
convers ation</w>
any thing</w>
ad ing</w>
Vide o
M ein
Kre ativ
G leich
wa y,</w>
viel en</w>
vi de
si l
po tenti
oul dn't</w>
lar ge</w>
je des</w>
irgend wann</w>
genu g</w>
ge tr
er kenn
as k</w>
M al</w>
B al
öff ent
zur ück</w>
sh opp
ru n</w>
ro om</w>
me mor
ma ybe</w>
läs st</w>
ges t</w>
fra g
for m
delici ous</w>
con si
c am
W ind</w>
W i
Or gan
Land schaft</w>
E ar
Compu ter</w>
än der</w>
wen iger</w>
vac ation</w>
ti ere</w>
t ?</w>
sp i
soul .</w>
scho ol
re mem
me hr
k n
ha be,</w>
go es</w>
f f</w>
c le</w>
advent ur
a lity</w>
T E
Bedeut ung</w>
Arbe it
4 .</w>
ta ge</w>
re fle
kau ft</w>
ich tig
er te</w>
er es</w>
cre ativ
chil d</w>
bl ue</w>
b il
au sprob
Sy st
Je der</w>
H ow</w>
Ge fühl
Ent wick
Blä tter</w>
7 .</w>
z ,</w>
wei ß</w>
w ind</w>
w hat's</w>
und s</w>
ta g</w>
sum mer.</w>
or en</w>
on e,</w>
m eines</w>
li ves</w>
kre ativ</w>
hel fen</w>
heal th</w>
hal f</w>
frü h</w>
do c
arbe iten</w>
al one</w>
a way</w>
3 .</w>
"H e</w>
versu che</w>
verschieden en</w>
tra di
sp ra
sa ge</w>
q ue</w>
pa th
kl ar
fascin ating.</w>
ein g</w>
der .</w>
de fin
d oll
conc er
boo k.</w>
b it
yo ung</w>
we ar</w>
ti k
t old</w>
succ ess
opportun ity</w>
on es</w>
j a
it y,</w>
eri en</w>
ch ir
brea k
Seel e</w>
Proble m</w>
P u
Ar ten</w>
Ang st</w>
you ,</w>
st är
re fresh
r in
pho tograph
job .</w>
is su
g ri
d res
W enn</w>
Schu le</w>
Schl üs
Leben s
El tern</w>
" L
z ent
weit er</w>
tr ue</w>
spä ter</w>
se en</w>
s en.</w>
s and
qu ite</w>
ou t,</w>
olo gi
m a</w>
li ter
les en</w>
inspi ri
habe ."</w>
en ?</w>
e g
dr in
Chr ist
B uch
" Un
zusam men
zeu g</w>
wom en</w>
sen se</w>
seh en."</w>
s au
regel mäß
pre t
n a
gre at.</w>
end s.</w>
difficul t</w>
ah l</w>
P lat
M än
L äch
K rank
"" The</w>
z er
woll en</w>
wis sen,</w>
stell en</w>
sit u
sch ließ
s ch</w>
rest aur
leb en."</w>
k am</w>
ex erc
b illi
again st</w>
D is
" C
stell en,</w>
sam m
mom ent</w>
m ich.</w>
k tur</w>
in e
hi bi
hel ps</w>
f all</w>
ele f
da ch
c ting</w>
as tic</w>
ap pro
Wir k
Freund in</w>
C af
u re.</w>
some one</w>
sc ent</w>
our ce</w>
mach en,</w>
ih m</w>
hör en</w>
h y
go als.</w>
gen "</w>
ch ter</w>
car e
ble .</w>
Ze it,</w>
Se e</w>
Net fli
Ide e</w>
Fitness studi
F ri
Be weg
Ant wor
"M an</w>
"Di ese</w>
wichti g
simp ly</w>
sag te:</w>
s ü
or der</w>
off en</w>
ke l</w>
indi vidu
gre en</w>
fac t,</w>
excit ing.</w>
energ y</w>
c ele
and ,</w>
all en</w>
Yor k</w>
T V</w>
O p
6 .</w>
wel t</w>
sur pris
steh t</w>
stat t</w>
si cht</w>
posi tiv</w>
know le
ier t.</w>
hl en</w>
hel fen,</w>
for es
fin ally</w>
f te</w>
f ly</w>
d n
ct ure</w>
con tin
brau ch
bis schen</w>
W under</w>
Stra ßen</w>
Re gen
M an</w>
Kul tur</w>
5 0
. ""</w>
v in
to wards</w>
telli gen
te m
spe ak</w>
of fee</w>
milli on</w>
in s.</w>
hab en"</w>
glück lich,</w>
fin den,</w>
b al</w>
air .</w>
a o
W ahr
Th ank</w>
Läch eln</w>
J u
I m</w>
Gesprä ch</w>
D oll
"W e
w ine</w>
the m,</w>
schme ckt</w>
p sych
mö glich</w>
interessi ere</w>
großar tige</w>
go vern
excit ing</w>
en ter
al ."</w>
Re is
M u
Gr und
Far ben</w>
C offee</w>
B a
un t</w>
t s,</w>
s einem</w>
pr in
m ic
jo y</w>
her e.</w>
er klär
comp an
colle ct</w>
can not</w>
breathta king.</w>
all er</w>
alit ät</w>
S timm
Re zep
M äd
Kaf fe
Geb äu
Far be</w>
.. .</w>
" (
wel che</w>
w end
vi er</w>
unter schie
tre es</w>
ti er</w>
ta kes</w>
st ück</w>
ro bo
no vel
ko che</w>
i lie
he ar</w>
fi ve</w>
ess enti
er fol
einz igar
S itu
Gel d</w>
Fahrra d</w>
En gli
A t
A :</w>
"N un,</w>
y s,</w>
weiß ,</w>
w s</w>
stand ing</w>
mo ving</w>
k ä
ele c
dar auf,</w>
d s,</w>
clou ds</w>
ation s.</w>
al ong</w>
ab hän
Wel t.</w>
L icht</w>
L ern
F eh
B li
writ ing</w>
tic s</w>
s se</w>
r or
p at
on ce</w>
le t
k ul
k ra
ich te</w>
da s
cour se,</w>
be fo
apart ment</w>
all ,</w>
T re
St äd
Fam ilie
worl d,</w>
worl d
we is
w inter
vac ation.</w>
toge ther.</w>
schwi er
s an
opport uni
on e's</w>
natu ral</w>
m ood.</w>
m ."</w>
in dem</w>
get ro
ges sen</w>
f our</w>
da ta</w>
da für</w>
ch ing</w>
b y.</w>
ar chite
M at
Bä ume</w>
B ild</w>
Auto s</w>
5 .</w>
. 000</w>
"A n
usam men
un kt</w>
tast es</w>
l a</w>
kom ple
gemach t.</w>
er s.</w>
cu ri
compu ter</w>
ch t
c lear
bu y</w>
bi lity</w>
bes te
ant s.</w>
S ü
Pro du
Ide en</w>
F lo
Bild ung</w>
B est
wat er.</w>
um s</w>
th ,</w>
sp ent</w>
se hr
schön ,</w>
s wimming</w>
p ul
num ber</w>
l erne</w>
konn te</w>
k ."</w>
incredi bly</w>
f it.</w>
ex hibi
Spazier gänge</w>
Se ite</w>
Proz ent</w>
P h
Le hr
L änder</w>
G re
"A s</w>
ze it
wit sch
wir d,</w>
vis iting</w>
so on</w>
sm it
ser ies</w>
s ure</w>
proble m</w>
plac es.</w>
plac e.</w>
og a.</w>
m ust</w>
m ul
in du
ic i
hil ft</w>
er frisch
discover ing</w>
di vers
den "</w>
ck .</w>
c tion
bak ed</w>
al most</w>
S pe
Mut ter</w>
Kreativ ität</w>
Ko chen</w>
Boo ks</w>
Ar chite
"N ow</w>
s einer</w>
k or
inn en</w>
gr and
gen au
fü r
fli es</w>
fall s</w>
e ff
cou ple</w>
betra ch
ben utz
ap pe
Z usammen
Hand y</w>
Er inner
" Eine</w>
" A</w>
wo hn
wee k.</w>
tre i
relation shi
op er
n "</w>
mü ss
much .</w>
movi es</w>
le uch
lang sam</w>
je mand</w>
hob bi
her e,</w>
geb en,</w>
g ."</w>
ful fil
er war
er e
dream s</w>
coo king</w>
c es</w>
auf .</w>
au th
am m
Ver antwor
S te
S he</w>
Per son
Kle id
ver bra
sch t</w>
r ing</w>
prob ably</w>
plac es</w>
on es
mal e</w>
ki ds</w>
he u
gehör t</w>
fü n
f ie
f ern
erfol gre
desig n</w>
bi olog
be wunder
b at
T hat</w>
Spra chen</w>
Schne e</w>
Lieblings b
C ar
"" O
vor ,</w>
ver besser
tur n</w>
ti l</w>
ther ,</w>
simp le</w>
schaf t.</w>
s qu
now ,</w>
landscap e</w>
k u
k a</w>
ih rem</w>
i ,</w>
hr en</w>
fi re
f it
ev ol
en ;</w>
besu che</w>
beein druck
b are</w>
anim als</w>
anc ing</w>
an al
Wissenschaf t</w>
H ö
Gehir n</w>
Ge ist</w>
Erfahr ungen</w>
8 .</w>
year .</w>
week ends.</w>
up .</w>
tun ,</w>
t -
spe cial</w>
sp on
sm ile</w>
si e
par ents</w>
lo y
ll t</w>
le g
inter est
import ance</w>
habe "</w>
fun .</w>
fre und
flie gt</w>
fac e</w>
d ung</w>
ck s</w>
c e,</w>
blo om
at mosp
al one.</w>
a x
V o
Medit ation</w>
I' ll</w>
Ge gen
Frühl ing</w>
D an
" J
z witsch
tig .</w>
them sel
su per
roman t
ris e</w>
p or
m ut
le t's</w>
ke ep
informa tion</w>
in es</w>
ier en,</w>
ges tal
g res
fl us
f la
f en.</w>
en st
chocol ate</w>
c ast
blü hen</w>
bl u
b s</w>
at s</w>
Ro bo
Proble me</w>
P flan
Men ge</w>
L änder
K li
Herausforder ungen</w>
Ex per
D ok
Afri c
ö st
with in</w>
unterschie d
tra in</w>
te il</w>
ta in</w>
regelmäß ig</w>
p hi
off en
nach ,</w>
n er.</w>
li ke,</w>
l es.</w>
iz on
it en,</w>
health .</w>
he ad</w>
gen s</w>
coun try</w>
bir d</w>
autum n</w>
anim als.</w>
Rest aur
K ur
Gefühl ,</w>
wichti ger</w>
st eig
st al
si ve.</w>
si er
sh ort</w>
res ul
ra tion</w>
pie ce</w>
passi on.</w>
om e
mö ch
me an</w>
excit ed</w>
doc ument
dep end
b ut
b ele
ag o,</w>
Mensch .</w>
Kin d
Geburt stag</w>
Fl uss</w>
"F or</w>
wor ks</w>
woll te</w>
ver fol
ver bin
us ."</w>
tra in
tol er
sta in
s ou
s and</w>
r ück
par ty</w>
natür lich</w>
m ind</w>
lo st</w>
it z
in nov
ges ag
f alt</w>
ct s.</w>
arbe it</w>
an ."</w>
am .</w>
Som mer
Schlüs sel</w>
Sch wi
B as
th s</w>
stra li
sti tu
spre chen</w>
schn ell
sch lä
sch ir
re co
pret ty</w>
ko st
j um
it ze</w>
is h</w>
i ma
he ard</w>
ge be</w>
gab en</w>
countri es</w>
c tive</w>
c ell
b as
at el
W ein</w>
The at
Re gier
K rie
I ta
F ir
wer k</w>
wahr schein
u res</w>
stre ets</w>
stre et</w>
re t
ones el
ma s</w>
it ar
in ten
ges am
g s
ex pe
eigen es</w>
d au
cele br
brau chen</w>
bo th</w>
besu cht</w>
bess ere</w>
atemberaub end</w>
an gen
W es
Tag .</w>
S un
Re ading</w>
Möglichke iten</w>
Gl ück
F ic
Er de</w>
" V
zie hen</w>
w .</w>
v em
univer se</w>
the ma
sch wimm
s wi
ques tion</w>
publi c</w>
provi de</w>
ous ly</w>
ne igh
ke it,</w>
g ent
d -
chall eng
be kommen</w>
S a
Neu es</w>
N ow</w>
Kop f</w>
Kin dern</w>
Ita li
Frie den</w>
wonder s.</w>
wis senschaf
whe ther</w>
t t</w>
sp ir
schön en</w>
possi ble</w>
ob je
is .</w>
in n</w>
immer ,</w>
id d
her aus
gen heit</w>
enthusi astic</w>
dar an</w>
con tri
a den</w>
S tim
Fo tograf
"W ie</w>
u al</w>
st ag
schä tz
ri de</w>
re cor
pa y</w>
mel .</w>
les en"</w>
ep t</w>
c all
beruhig end</w>
anc e,</w>
Te il
P ick
Fra ge</w>
Bet t</w>
Au strali
1 5</w>
zeig t</w>
we ak
watch ed</w>
them ."</w>
person al</w>
per sön
or s.</w>
nam ens</w>
mo b
me al</w>
ihn ach
hi g</w>
geh en.</w>
ge kauft</w>
ffe ,</w>
f ,</w>
e ating</w>
di o
commun ic
b ic
as ked</w>
We ihnach
Um welt
R ich
P ati
Me er
I hr</w>
" "Ich</w>
year s,</w>
ur ch</w>
un til</w>
sy m
sm ells</w>
s h</w>
reas on</w>
mounta ins.</w>
m ung</w>
lern en."</w>
k ar
in vol
in ste
hal te</w>
gre at
fi c</w>
fa r</w>
f und
clas si
c ally</w>
bo ar
be weg
ad mir
Wis sen</w>
Stimm ung</w>
Organ is
Natur .</w>
Jahr es
Gr ün
Freund schaft</w>
Eu rop
C on
B ür
ö hn
z iel
z .</w>
x .</w>
wir ken</w>
wen ig</w>
typ es</w>
te a.</w>
sta un
sp o
richti g</w>
re ligi
p ut
lea ve</w>
kä mp
k er
inv es
h ause</w>
en ."""</w>
eig entlich</w>
ci ally</w>
c row
birth day</w>
an zen</w>
Um geb
Som e
Je tzt</w>
Geschich ten</w>
D ar
Abend essen</w>
"Th ere</w>
wür den</w>
well .</w>
ver wirk
un ge</w>
str ong</w>
ss en.</w>
samm le</w>
ro w</w>
p izza</w>
min d.</w>
m us</w>
l ate</w>
je dem</w>
in side</w>
gro ß</w>
glo bal</w>
flower s.</w>
erle di
en der</w>
d "</w>
ann ,</w>
ander er</w>
a s.</w>
a d.</w>
Kat zen</w>
Hor izon
Gen er
Frei en</w>
Di es
Ber gen</w>
9 .</w>
5 00</w>
"Be cause</w>
ü r</w>
ti ci
thou gh</w>
ter ."</w>
te am</w>
sp ort.</w>
ro ll
peop le,</w>
p ick
ne c
mob ile</w>
k tion</w>
ich er
fe l</w>
f est
er weit
er re
e as
c y</w>
brea k</w>
besch äf
au t</w>
ant ly</w>
L ös
D ank
D N
8 0
über zeu
win ter</w>
su stain
stän dig</w>
ste ck
sk ill
sin ce</w>
si ve</w>
s ens
rö h
ro te</w>
qu i
of ten.</w>
nich t.</w>
los op
geh en,</w>
g rill
experienc e.</w>
discover ed</w>
dar auf</w>
curr ently</w>
comp any</w>
c au
at titu
admir e</w>
ad ,</w>
Viel falt</w>
L auf
Her bst
Ge mü
Ch ance</w>
A si
"H ier</w>
" P
um mer</w>
te d.</w>
son g</w>
s ource</w>
s ."""</w>
respe ct</w>
oursel ves</w>
muse um</w>
lou d</w>
imag in
he its
gu t.</w>
gel n</w>
e tz
des cri
ch t.</w>
c tion.</w>
bere its</w>
ball .</w>
auß er
auf re
apart ment.</w>
ans wer</w>
ab zu
Z iel</w>
W ichtig
Univers um</w>
Um welt</w>
T er
Rom an
I' d</w>
B u
"A t</w>
zu ,</w>
we ch
vis i
ver l
tun ."</w>
th ir
sol u
so ft
re ise</w>
pho to
per spe
op ini
off n
ic s</w>
health y.</w>
gel e
ge ts</w>
gam es.</w>
fron t</w>
fre i</w>
den t</w>
col ors</w>
ch ild
angen eh
S tre
O b
N or
Mäd chen</w>
Lo ve</w>
Le t's</w>
G ute</w>
D u
Ber e
B rie
" K
ß .</w>
w on
w n</w>
w are</w>
ver bess
tur ns</w>
ti me."</w>
t l
se e,</w>
pic n
o cc
now .</w>
lo s</w>
li ves.</w>
le ft</w>
kur z</w>
iz e</w>
it en.</w>
iden ti
ide as</w>
ho ffe,</w>
histor y</w>
her um</w>
ha te</w>
genieß en."</w>
geb ack
fan gen</w>
environment al</w>
entspann end</w>
dish es.</w>
d y
am o
all .</w>
Wander n</w>
US A</w>
M al
Hob by</w>
H and</w>
For m</w>
F in
F el
Erfol g</w>
C ho
ver trau
ut z</w>
te mp
t ."""</w>
spac e</w>
show s</w>
se tze</w>
s af
ra ther</w>
potenti al</w>
po lit
per for
ou t.</w>
mo re.</w>
m s.</w>
l us
kauf en</w>
it er
ic e.</w>
ha ir
go als</w>
führ t</w>
fer ence</w>
er weise</w>
end es</w>
countri es.</w>
color ful</w>
cin ema</w>
au l
ab or
a -
Wh y</w>
To day</w>
T at
Stu di
M il
C he
A ktiv
" Ein
! "</w>
ä us
vol le</w>
vis ited</w>
tic ally</w>
star k</w>
setz en</w>
seh en.</w>
se x
se ver
remem ber</w>
ob ser
low s</w>
he art</w>
f ten</w>
f röh
examp le,</w>
er a</w>
entdeck en</w>
en zen</w>
en z</w>
d ul
cre am</w>
ca ke</w>
ate g
as sen</w>
War um</w>
Unter nehmen</w>
Th ere's</w>
T r
Muse um</w>
Milli ar
Mensch en.</w>
Kör per
H i
Geschen k</w>
E very</w>
D at
4 0</w>
well -
uni que</w>
the ater</w>
ta l</w>
li v
k öst
it al</w>
in ess.</w>
ig n
hi king</w>
h ing</w>
g ame</w>
fan tast
es e.</w>
erreich en</w>
en em</w>
e ten</w>
con v
con st
ch er</w>
c anc
boo k
at ely</w>
an z</w>
U mar
O K
H offn
D aten</w>
zu frie
wor d</w>
week end</w>
was n't</w>
u te,</w>
teu er
se eing</w>
se ar
mor gen</w>
m es
low ing</w>
life ,</w>
le i
hob by</w>
hel l</w>
ges p
fo c
ex ac
energ y.</w>
bet ter.</w>
b en.</w>
as ,</w>
ag es</w>
Y ou
Wir t
T al
R espe
P rä
Ku chen</w>
H il
C oo
y our
win dow
wa y."</w>
vide o</w>
un gefä
sing le</w>
ri ver</w>
peac e
o v
n y</w>
he ar
fir e</w>
fan .</w>
er s,</w>
enc e-
des sen</w>
d ance</w>
comfort able</w>
bo ard</w>
bi li
besu chen</w>
bar .</w>
Z iel
Verantwor tung</w>
Unter schie
Pro gra
Gr as</w>
Fitnessstudi o</w>
Entspann ung</w>
Amer ik
A ll</w>
"" I</w>
ä hn
y oga.</w>
wir ,</w>
unter stütz
ther e,</w>
tel y</w>
su che</w>
sh ar
run ning</w>
reg ularly</w>
qu o
n i
mon ey</w>
ma che</w>
leb en"</w>
la ge</w>
könn ten</w>
ke it.</w>
is ter</w>
il s</w>
hor iz
her r
h und
gib t,</w>
geb ra
fun den</w>
fores t.</w>
fis h</w>
fic tion</w>
faszinier end</w>
entspann en"</w>
em s</w>
di ch</w>
des er
day s.</w>
cultu res</w>
con t
col ate</w>
bl au</w>
bic y
begeister t</w>
auszuprob ieren"</w>
ander s</w>
Restaur ants</w>
Lieblings film</w>
G utes</w>
Din ge,</w>
C har
Bro t</w>
worl d."</w>
um en.</w>
seas on.</w>
sag te,</w>
s :</w>
pr o</w>
or y</w>
ne ,</w>
n on
mosp hä
mo ther</w>
mo der
les en."</w>
lern en"</w>
k new</w>
j e</w>
izz a.</w>
hu ge</w>
gi ving</w>
gam es</w>
fu n</w>
fore ign</w>
fl ying</w>
f än
enc es</w>
educ ation</w>
d inner</w>
cal m</w>
bewunder e</w>
beauti ful
be ha
b ild
ac tive</w>
Stra ße</w>
H unde</w>
Chin a</w>
B erg
19 9
" U
wunder schön.</w>
winter .</w>
wach sen</w>
versteh en,</w>
ver di
un s,</w>
u n</w>
tra ff
te x
recei ved</w>
reali ze</w>
oo th
og ra
mounta in</w>
loo ked</w>
lli g</w>
langua ges.</w>
k ti
je man
inter n
in st
gro w</w>
g oo
ein ig
denk en,</w>
com mit
co ol
calm ing.</w>
beein flus
b loo
Wel t
W ä
Rau m</w>
R ück
Part ner</w>
P ri
Kli ma
wus st
wh o
vi ol
ung er</w>
trin k
ti vi
some day.</w>
so unds</w>
schre iben</w>
s onn
ri ch</w>
optim is
nec ess
m en."</w>
l ess
know n</w>
in ."</w>
gew öhn
gemüt lich</w>
ge gan
deci ded</w>
d ür
challen ges.</w>
bu ilt</w>
be came</w>
be .</w>
b an
auszuprob ieren."</w>
an ge</w>
advent ure</w>
St at
S ou
R i
K ünst
Er leb
D ies</w>
Beisp iel
B eh
Americ an</w>
you 've</w>
wer s</w>
unser es</w>
tre ib
though ts.</w>
this .</w>
that .</w>
t ut</w>
st ü
slow ly</w>
schre i
schau en</w>
s now</w>
novel s.</w>
ment s</w>
leck er</w>
l y
kin ds</w>
k tr
impres sive.</w>
i de</w>
hour s</w>
he il
har mon
happ ens</w>
h and</w>
g ig
fa ir
f en"</w>
expres s</w>
et was,</w>
enc e,</w>
de ep
d ent
child h
c el
b ab
all es,</w>
Z we
Sonnenunter gänge</w>
Some times</w>
Re cht</w>
Konz er
Jap an</w>
Har ry</w>
Gr und</w>
G al
Fil men</w>
Cho colate</w>
year s.</w>
w ing</w>
v ari
ungefä hr</w>
that ."</w>
t our</w>
sit z
sat is
sam keit</w>
s he
marke t</w>
m mer
lo t.</w>
lie bt</w>
k it
inste ad</w>
ing u
imag ine</w>
ier en.</w>
gu t,</w>
gi ft</w>
er k
der s</w>
de m
contro l</w>
challen ge</w>
cent ur
be kann
autum n.</w>
alle in</w>
ak tiv</w>
Umar mung</w>
L in
Jahr hunder
G oo
F antas
B ri
"" N
" Meine</w>
y ed</w>
u f</w>
thing ,</w>
t ing.</w>
sch wer
s ent
s cal
ro ad</w>
reci p
ran k</w>
picn ic</w>
o p</w>
lau gh</w>
ke hr
k le
j a,</w>
it er</w>
hom e
ho ch</w>
gesch rie
gen ann
frisch em</w>
flie ß
fac t</w>
ent r
elef on
eh er</w>
ch em
ar y.</w>
ac tivi
Th ese</w>
Schokol a
Hobb ys</w>
Fähig keiten</w>
Früh stück</w>
F ris
F all
B ar
Au gen</w>
At mosphä
"W hat</w>
up ,</w>
un for
tier en."</w>
thou sand
ten zi
stor ies</w>
sa gen
rie cht</w>
refresh ing.</w>
oce an</w>
ne g
n ess.</w>
mat eri
m ich,</w>
kennenzulern en"</w>
keep s</w>
is e.</w>
happen ed</w>
grow ing</w>
ge fühl</w>
g le</w>
exac tly</w>
espe cially</w>
erre icht</w>
entdeck en"</w>
do ct
coo l</w>
con sci
comple tely</w>
chocol ate.</w>
bie ten</w>
al th</w>
a b</w>
Su per
R es
Mon d</w>
Lieblingsb uch</w>
Lern en</w>
K ir
J ah
Fo tos</w>
"I m</w>
ä h
ze it.</w>
wir t
wh er
wahrschein lich</w>
ther e
sto p</w>
star ting</w>
sch wer</w>
sag t</w>
s -
re du
re d.</w>
pre di
pop ul
ort ra
lit y.</w>
lern en,</w>
langua ge.</w>
journe y</w>
inspi red</w>
in telligen
in depend
i k</w>
histor y.</w>
happ iness</w>
gelern t</w>
fün f</w>
fl ü
fam ili
enti re</w>
en ga
el ,</w>
divers ity</w>
calm ing</w>
besch re
al lo
ac tion</w>
Wo hl
Un ited</w>
U hr</w>
Syst em</w>
S or
Netfli x</w>
Informa tionen</w>
In nov
Ger ichte</w>
G ood</w>
F ort
Entscheid ungen</w>
E hr
B ü
B ab
"T hat</w>
ü b
än k</w>
ze i
week end.</w>
vor bei
st y
spon tan
sich er
sh are</w>
sa h</w>
ru st
pur su
mit tel
lo g
in flu
h ell
ger n</w>
führ en</w>
fri ed
ern "</w>
environ ment.</w>
do .</w>
di r</w>
de ep</w>
cy cl
ch en,</w>
c t,</w>
c r
bi ke</w>
bere it,</w>
atten tion</w>
amaz ing</w>
W inter
Vor liebe</w>
U .
S inn
Po tenzi
Par k.</w>
K las
Herausforder ung</w>
Gebäu de</w>
Fahrra d
E is</w>
Doll ar</w>
zeu g
wor ked</w>
wer den.</w>
we g</w>
we aring</w>
ush i</w>
uni vers
tz lich</w>
te te</w>
sun .</w>
stän d
sp ät</w>
sch rit
s li
pic ture</w>
p an
om .</w>
ment al</w>
lieb sten</w>
li er
la ke</w>
jo y.</w>
is n't</w>
hat "</w>
hand el
hal ten."</w>
hab en.</w>
gemein sam</w>
geb en."</w>
flie gen</w>
entspann t</w>
effe ct</w>
de v
de ter
cre ating</w>
cre ated</w>
co ver
auf ge
W ach
Vo gel</w>
T y
Ne tz
I s
F en
Erfahr ung</w>
"I n
’ s</w>
zwitsch ern</w>
wal king</w>
ver wen
un eh
tig er</w>
this ."</w>
te "</w>
t aus
st un
so ci
ser ies.</w>
se qu
s ach
responsi bility</w>
psych olog
perfe kte</w>
p li
o s</w>
nä hr
me chan
ing ly</w>
ga ve</w>
fascin ating</w>
ev isi
de cor
billi on</w>
beschäf tig
be l</w>
Zu g</w>
Sci ence-
Him mel.</w>
G ol
F ol
Er geb
Be cause</w>
Antwor t</w>
Über rasch
y ?</w>
volu tion</w>
veränder n</w>
treff en</w>
t or</w>
se e
sa ve</w>
s en."</w>
pas t</w>
on e."</w>
off ers</w>
neu gier
mo on</w>
man ,</w>
m ess
lo se</w>
le be</w>
l .</w>
kau m</w>
it h</w>
ing e</w>
friend shi
fre i
en er</w>
el .</w>
d ly.</w>
consi der
besser en</w>
bere it</w>
auf gere
We ise</w>
T im
Schre iben</w>
Sch wä
Sch au
P ap
O ne</w>
Nach rich
Hau t</w>
G :</w>
Flug zeug</w>
Bli ck</w>
zeich n
wur de,</w>
vo c
verbesser n</w>
v ar
unbe d
u ally</w>
sy n
st es</w>
prac tic
ord in
no t
me tter
k il
hu g</w>
h iel
gen den</w>
for sch
faszin iert</w>
experienc es</w>
er staun
chir ping</w>
chan ging</w>
c ut</w>
c ro
c lu
arbeit et</w>
Y our</w>
We 're</w>
Sti lle</w>
Sport s</w>
M as
Kin der
Familie .</w>
Erinner ungen</w>
you ."</w>
w ell,</w>
verwirk lich
tri e
t y,</w>
t wo
sur ro
soll te."</w>
sk y
ru hig</w>
ro le</w>
proje ct</w>
perfor man
passi on
mo del
lie d</w>
it et</w>
it ali
interessan te</w>
if ic
ic .</w>
hel p
h .</w>
gi c</w>
gel esen</w>
g liche</w>
explor e</w>
en ted</w>
en or
e asi
dri ving</w>
dow n
da y."</w>
cul ture</w>
cour se</w>
ch ed</w>
beruhig t</w>
bedeu tet</w>
b .</w>
an g
aga in,</w>
adventur es.</w>
a da
Wirk ung</w>
Wel t,</w>
Science- Fic
Sch metter
S of
Mo tor
H app
Christ mas</w>
C O
Beweg ung</w>
1 2</w>
"D ies</w>
zeig en</w>
z el
wichti g.</w>
vel ing</w>
us s
to day,</w>
tig keit</w>
ti ert</w>
t est</w>
stell ungen</w>
sk in.</w>
sci ent
schn it
ren ov
quie t</w>
p en
n ame</w>
mic ro
lo ved</w>
lau fen</w>
komm en,</w>
itä ten</w>
it ra
in tro
he iten</w>
ha ven
h m
geseh en.</w>
fris chen</w>
friend .</w>
fo tograf
fall en</w>
en 't</w>
com e
ch en."</w>
ble iben</w>
bau en</w>
at ,</w>
alit y.</w>
af fe
Str and.</w>
St unden</w>
Schu he</w>
Proje kt</w>
Musi k.</w>
Fern sehen</w>
Er nähr
Ein stellung</w>
Coo king</w>
Caf é
Aus sicht</w>
- F
woll en,</w>
unbed ingt</w>
thousand s</w>
though ts</w>
the y
sing ing</w>
schaf fen</w>
ri cht</w>
ra in.</w>
pur po
outdo ors.</w>
losop h
li z
li k
ke t</w>
in e.</w>
ic k</w>
hat te,</w>
ha sse</w>
glo bal
ge funden</w>
flu g</w>
evol u
er möglich
entspann en."</w>
drin king</w>
dow n.</w>
doll ars</w>
cle an
bloom ing</w>
b lau
b en,</w>
b ell
Wel tre
V in
Sch w
Sch rit
S inn</w>
R ol
Nach bar
Ma sch
D ur
D u</w>
Bau m</w>
"T o
wat er
wal k.</w>
w rote</w>
ta k
t ungen</w>
ser i
sch ütz
resear ch</w>
rec ently</w>
r ing
prote ct</w>
pro gres
pop ular</w>
poli tical</w>
pain ting</w>
optim ist
ok a
nic k</w>
neigh bor
n ick
mo le
mat ter</w>
lieb ha
ier t,</w>
her e's</w>
gib t."</w>
genom men</w>
fre ed
fas hi
f elt</w>
ex tra
en ken</w>
einzigar tig</w>
do ,</w>
devel op</w>
d d
cle an</w>
chtig keit</w>
c ouldn't</w>
c as
bus iness</w>
break fast</w>
beha vi
be wirken</w>
be vor</w>
ap er</w>
am eri
Sonnen auf
Sach e</w>
Respe kt</w>
Pu bli
Potenzi al</w>
Pflan zen</w>
P ho
K olle
K er
G u
Fü hr
Fuß ball</w>
zwe ite</w>
zeig en,</w>
wor th</w>
wor ds</w>
ver bre
valu able</w>
tion s,</w>
ter i
sub je
st ad
pre ference</w>
pp ing</w>
po sed</w>
physi cal</w>
on line</w>
on d</w>
nor mal
m idd
lä uft</w>
life ."</w>
lie gen</w>
lass en."</w>
las s</w>
k tur
j us
ho li
her auszu
haven 't</w>
fie d</w>
dru ck</w>
dar über
curi ous</w>
ck ing</w>
car b
c li
br ü
befo re.</w>
be we
be h
alle m</w>
ad s</w>
Plan eten</w>
Muse en</w>
Le ute,</w>
K l
Gar ten.</w>
E ig
Bo den</w>
An fan
un da
to ol
tel evisi
te t."</w>
t ball</w>
stu dy</w>
stell t</w>
schön er</w>
s ?</w>
res t</w>
perfe kt</w>
p ac
nehm en,</w>
mit einander</w>
lo ve.</w>
kl ar</w>
hin ter</w>
happ iness.</w>
gro und</w>
gr und
ger ä
geback enem</w>
ga be</w>
el y.</w>
e :</w>
de mo
con fi
comp li
chan ges</w>
bewus st</w>
al er</w>
af ra
Ze ich
Trau m</w>
The ater</w>
N ä
Milliar den</w>
Le ist
G i
Ent deck
C re
Bezieh ung</w>
3 0
" Life</w>
" (Applause)</w>
um p
treff e</w>
tie f</w>
thing ."</w>
th es
sit zen</w>
si x</w>
si g
setz en."</w>
seh en"</w>
s cre
ru hig
roman tic</w>
relax ing</w>
relax ation.</w>
r ul
possi bili
om e</w>
nach zu
mensch liche</w>
m ou
le is
la ke.</w>
l y."</w>
kur z
kennenzulern en."</w>
inspiri ert</w>
i th
histor ical</w>
gro und.</w>
gra ss</w>
ge -
fig ure</w>
beg ann</w>
ba sed</w>
at ur</w>
Zu hause</w>
Viel leicht</w>
Str ess</w>
Schwi mmen</w>
S ol
S er
S and</w>
Pick nick</w>
O ze
Möglich keit</w>
Medi z
Leb en,</w>
L es
Kleid ung</w>
Horizon t</w>
G itar
Feu er</w>
vir tu
to day
se i
sch u
s ere</w>
ri es
perspe ctiv
passi ert</w>
new s</w>
mus ste</w>
medi a</w>
mar k
li es</w>
k en
k alt</w>
indu str
ic es</w>
gy m</w>
glück lich.</w>
glaub en,</w>
fin den."</w>
es s."</w>
erreich en."</w>
er in</w>
em ent</w>
ck ,</w>
c ris
c op
c ak
bei den</w>
begeister ter</w>
arbeit e
al so,</w>
Y og
W at
Ver trau
Umgeb ung</w>
T enn
Spa ß.</w>
P il
Män ner</w>
Mat eri
Kü che</w>
K rä
Hum or</w>
Eu ro
Ding en</w>
Bes te</w>
8 0</w>
6 0</w>
"M an
" und</w>
v es
um s.</w>
sur vi
stud ents</w>
spr ing.</w>
sich er</w>
ri es</w>
quick ly</w>
onesel f.</w>
nehm en."</w>
music al</w>
min d
me an,</w>
lich t</w>
inspir e</w>
il ing</w>
hi king.</w>
ger ,</w>
fascin ated</w>
every thing.</w>
einz el
cultu ral</w>
cul ture.</w>
clim ate</w>
chan ged</w>
chan ge.</w>
challeng es</w>
ab ili
Veränder ungen</w>
T anzen</w>
Straß en
S icher
Poli tik</w>
Par ty</w>
M ü
Le uten</w>
H än
H el
Fra gen</w>
De mo
z ing</w>
y s
wä hl
wander n</w>
veget ab
tre iben</w>
ti red</w>
th im
sk i
si on.</w>
se cur
peop le
olog ie</w>
off er</w>
mo dern</w>
ment ,</w>
ke ."</w>
in strum
ic s.</w>
h ung
gr und</w>
gleich en</w>
gen de</w>
fü g
ex pla
ex is
en tier
do g.</w>
de t,</w>
clo se</w>
ck tail
cin ema
char ac
blu e.</w>
bleib en."</w>
belie b
ar g
ameri kan
ag he
ach te</w>
T u
T ie
Sch ü
S h
S al
Re i
Nach thim
L age</w>
Kom m
J og
I h
Her e's</w>
F es
Büch ern</w>
Bil der</w>
' m</w>
"T hat's</w>
"I 'm</w>
z en
ver br
v ier
un abhän
tre e</w>
traff ic</w>
throu gh
ter ri
ta ken</w>
ta il</w>
t on</w>
t ;</w>
some body</w>
se cre
se ch
schwi mmen</w>
re p
proc ess</w>
pl es</w>
or ig
ob vi
mul ti
me a
lo ver.</w>
lern en.</w>
lea d</w>
k ap
j a</w>
is te</w>
in te
in fin
ig .</w>
i den</w>
heiß t</w>
entdeck en."</w>
dür f
des tin
concer ts.</w>
comp ani
ck er</w>
big gest</w>
bi o
ber ,</w>
ben ö
b ute</w>
Veränder ung</w>
Tra veling</w>
T it
T V
S ie
Qu elle</w>
Meer es
M us
J ob
In spi
G rill
G ele
F all</w>
Exper im
E mo
Dok ument
Archite ktur</w>
you 'll</w>
ten s</w>
stu ff</w>
si e,</w>
sa ys,</w>
r .</w>
pres ent</w>
pa st
pa ir</w>
p izza.</w>
p f
ori th
lo ves</w>
las se</w>
konn ten</w>
kon zent
interest ing.</w>
im m
ier ung</w>
g orith
fantas tic.</w>
experienc es.</w>
every body</w>
eng ine
e ."""</w>
ch oo
c ir
bl ack</w>
ben e
beh ind</w>
ba hn</w>
b s
al low</w>
afra id</w>
Trau m
Str u
Sk i
R isi
R ad
Ph ysi
Or dn
Mein ung</w>
Le ar
K ri
Ge di
Fall schir
Compu ter
20 1
"O ne</w>
"Di es
"D ann</w>
" (Applaus)</w>
zu g</w>
y ."""</w>
y 's</w>
wi l
v e."</w>
uni k
un ge
un ch</w>
tur ned</w>
tu i
tri p.</w>
tal ked</w>
t our
swi m</w>
sunse t.</w>
sich t
sch war
r ate</w>
produ zier
p t
p fle
opportuni ties</w>
nich t."</w>
nam ed</w>
mü de</w>
lou dly.</w>
la p
knowle dge</w>
k el
incredi ble</w>
hobbi es.</w>
ho ff
getro ffen</w>
g ol
for ce</w>
ex am
ell ing</w>
econom ic</w>
d inn
conv inc
com par
ber s</w>
bar en</w>
atel y,</w>
ap poin
Ver bin
The y're</w>
T ran
St ück</w>
Situ ation</w>
Sci ence</w>
O ff
Mensch en
Liebling sm
Ho ch
Her z</w>
He im
Ger e
Entwick lung</w>
Entwick l
D enn</w>
Ch il
C ol
Bezieh ungen</w>
Bes onder
2 00</w>
"D enn</w>
wer t</w>
vor bei</w>
vel y</w>
travel ing.</w>
tom or
toll en</w>
th en,</w>
t as
sin d"</w>
si gh
show er</w>
reco gn
pro fes
ou t."</w>
nutz en</w>
lon ger</w>
lo ts</w>
lo cal</w>
ligh t.</w>
le vel
l ying</w>
ko chen</w>
it at</w>
is mus</w>
ie gel
happ en</w>
gra s
funktion iert</w>
fun da
fin is
fa st.</w>
environ ment</w>
e ben
di ver
dar k</w>
d cast
commun ity</w>
comfor t</w>
chan ce</w>
besonder e</w>
b and</w>
ak tiv
af ter
ad di
ab ,</w>
V og
TE D
T on
Sp iel</w>
Schwä che</w>
Re ligi
P sych
M ag
M :</w>
Ge wal
Ge heim
G lau
Ein en</w>
B ib
Afri ka</w>
! """</w>
über all</w>
wor k,</w>
wech sel
ur r
um zu
um in
su p
spiel en."</w>
speci es</w>
sing en</w>
sha pe</w>
sh el
s timm
positiv en</w>
po st
pl an</w>
p ,</w>
outdo ors</w>
onn en</w>
mo tor
me as
is m</w>
in ed</w>
if f</w>
ide a.</w>
he av
größ te</w>
gemüt lichen</w>
fiel d</w>
f ör
exp lo
ent fern
en er
elec tri
ein igen</w>
dra w</w>
den ce</w>
d or
d anc
colle cting</w>
but ter
bring en,</w>
bli ck</w>
ber .</w>
bedeu tet,</w>
ar ten</w>
ander es</w>
am bi
all er
ab o
Wer k
V ir
St är
Rezep te</w>
P rin
Mo d
M is
Lieblings getr
Hi king</w>
Gemü se</w>
Chil dr
B r
.. ."</w>
wh ite</w>
ver an
ver ,</w>
tre at</w>
travel .</w>
themsel ves</w>
tan z
stron om
sch utz</w>
s ä
reis en"</w>
re ly</w>
re gi
pursu e</w>
pro mis
photo s.</w>
pain t</w>
nis .</w>
m it,</w>
ka y,</w>
k t.</w>
k lass
inc lu
ik ro
hour s.</w>
he it
gir l</w>
gi f
genie ßen</w>
genau so</w>
geb or
g s.</w>
flo wer</w>
every day</w>
ess en"</w>
er kun
en s,</w>
el s</w>
e vi
dire kt</w>
de al</w>
d un
ch urch</w>
ch ter
cal ms</w>
bring en."</w>
br an
beeindruck end</w>
auszu drück
aus ."</w>
ath on</w>
an g</w>
ag o</w>
a hn
Unter stütz
Rol le</w>
Per spe
Her z
Gesch ä
F r
D ann</w>
C y
B rit
A d
"Th ese</w>
ür z
zufrie den</w>
z us
x i
wur de."</w>
wonder ful.</w>
wi der
war m.</w>
ver wand
under standing</w>
um n</w>
tri ff
tim es.</w>
thin k
te d,</w>
su chen</w>
stun den
si on,</w>
sch ul
s tim
s es
recip es.</w>
pres ent
peac e.</w>
nie mals</w>
n ut
mor gens</w>
mensch lichen</w>
maj est
li st</w>
lat er,</w>
l ös
kon tro
k alten</w>
her e."</w>
ha ps</w>
g er.</w>
g al
fris che</w>
fol low</w>
fe i
en ed</w>
el se</w>
convinc ed</w>
ch a
ch ."</w>
cer tain
c ells</w>
bere ich
be wegen</w>
b üch
au di
ar e,</w>
air plane</w>
acc ess</w>
a il
Techn ologi
TE D</w>
Spra ch
Sonnen bl
Robo ter</w>
Publi k
N ahr
Kind heit</w>
He alth</w>
F a
E -
Atmosphä re</w>
6 0
Ä r
w ,</w>
versteh en</w>
us h</w>
ti es,</w>
te ten</w>
ta ste</w>
str en
sol ve</w>
sehr .</w>
righ t?"</w>
re cht</w>
par tici
p oll
of .</w>
o ther.</w>
majest ät
maj es
lä u
lo ssen</w>
lich ."</w>
la gen</w>
ket ball</w>
k rie
in s
he art.</w>
gu y</w>
gre if
gi ven</w>
geb en.</w>
ge wal
fröh lich</w>
fe ar</w>
f ung</w>
er sch
e ah
dr it
dis e
deter min
den s</w>
con di
comm on</w>
color s.</w>
colle ag
cinema .</w>
ch i
c oll
bleib en"</w>
ble ,</w>
beschre ib
ativ en</w>
ar ,</w>
ac e
ab le,</w>
Z o
Wichtig ste</w>
W ell
Vog el
V ortra
Sch wes
Mit gefühl</w>
Me tho
Lear ning</w>
Kon zep
K an
Ger äu
Dur ch
7 0
y l</w>
y l
y et</w>
un e</w>
tr ust</w>
te xt</w>
t ten</w>
t s."</w>
t ar
succ ess.</w>
stor ies.</w>
st an
shopp ing</w>
schlä ft</w>
sagen :</w>
room .</w>
peop le."</w>
p en</w>
on to</w>
off er.</w>
ob wohl</w>
n ur
mon ths</w>
medi cin
lä che</w>
ll en</w>
li mit
le ast</w>
l ker
kl ingt</w>
j en
j ahr
hou se.</w>
hei ße</w>
ha te
gr enz
ge wor
fä l
f y</w>
f and</w>
ev ent
et s.</w>
e uch</w>
dis c
des t</w>
da chte</w>
d om
const antly</w>
bus in
brea d</w>
be ."</w>
ath le
al s,</w>
advent ure.</w>
Weltre ise</w>
Wach st
Schre ib
P la
Ma thema
M ich
H I
Fotograf ie</w>
Fit ness</w>
F as
E ssen.</w>
B ru
Aut umn</w>
"U m</w>
"To day,</w>
z y.</w>
x ,</w>
weit ere</w>
wa it</w>
ver bun
v il
tra gen</w>
thir d</w>
success ful</w>
stunden lang</w>
sever al</w>
se i</w>
s it</w>
ra tion.</w>
pu zz
pp ed</w>
pla ys</w>
par ts</w>
o the
n ali
m m</w>
leben s
laugh .</w>
l er
knowle d
kl ein
it y."</w>
isch ,</w>
is ."</w>
inspiri eren</w>
i al</w>
hal ten,</w>
h tem</w>
go al</w>
gestell t</w>
ges unde</w>
fur ther</w>
festiv als.</w>
fahr t</w>
erfrisch end</w>
en e
emo tion
da für
da ,</w>
contri bute</w>
childr en.</w>
besuch en"</w>
bal con
ate d.</w>
arbeit en."</w>
amo unt</w>
al -
Y ester
W ort</w>
Theat erst
T ro
Stim me</w>
S eh
P ast
O n
L ap
Kaffe e.</w>
K or
Hoffn ung</w>
H in
Fü r</w>
Freund en.</w>
Fam ily</w>
Du sche</w>
C ats</w>
C A:</w>
B ra
"W h
"" D
ze hn
z ul
weiter zu
we ili
thin k,</w>
ther e."</w>
ten :</w>
tell ing</w>
st eri
si ze</w>
ru p
re ma
proble ms</w>
part ner</w>
our c
nah m</w>
leck eres</w>
le vel</w>
la un
l en</w>
könn en"</w>
k al
i ff
hob by.</w>
her aus,</w>
hat ten,</w>
ha ben
gi g</w>
ge ment</w>
fre m
fin det</w>
fe hl
faszinier end.</w>
ex ist
ess en."</w>
el o
einz ige</w>
contin u
commit ted</w>
colle ction</w>
c lass
c ase</w>
bie tet</w>
basi cally</w>
Te am
Ta ge</w>
Schl af
P unkt</w>
P al
Mediz in</w>
Lieblingsgetr änk</w>
L ab
Jo hn</w>
Frei zeit
Fes tiv
Entspann en</w>
D ancing</w>
Aus flug</w>
Arbe it.</w>
"F ür</w>
" R
wunder bare</w>
wo hl
wit ter</w>
weak ness</w>
vorbei .</w>
us hi
um ."</w>
t ting</w>
t able.</w>
stär k
sor gen</w>
sch rie
san ft</w>
ro r</w>
relation ship</w>
pro per
pro bi
probi ere</w>
on s,</w>
o ben</w>
neugier ig</w>
neu er</w>
nee ded</w>
nah men</w>
lie ber</w>
ke hr</w>
k ün
it en."</w>
il y.</w>
ier te</w>
govern ment</w>
geh t,</w>
fin an
f är
f iz
examp le</w>
er ing</w>
ent schie
enou gh
eng ag
en de
en ,"</w>
develop ing</w>
de m,</w>
conne cted</w>
c ell</w>
bo y</w>
beauti fully</w>
b ing</w>
am en</w>
a king</w>
Ver gan
Th ema</w>
Su che</w>
Sch at
S teuer
Po si
Per sön
P hi
M i
Freund schaften</w>
Fort schrit
Fen ster</w>
Ernähr ung</w>
Dies es</w>
D ru
Bib li
Bal k
B re
"A ll</w>
wr ong</w>
war en,</w>
tem per
techn ologi
tan zen</w>
system ,</w>
su d
stres s
st op
sh ines</w>
sh ine</w>
schaf ts
schaf fen."</w>
re min
ra ge</w>
pre ci
power ful</w>
partici p
p flan
ne ur
mo del</w>
ma s
lat er</w>
la f</w>
ktiv en</w>
kontro lli
k ör
ir e</w>
hei ß</w>
ger ne.</w>
ger ich
gen o
ge ha
f t."</w>
ex c
erst ör
entdeck t</w>
ein s</w>
e d."</w>
do or</w>
cri me</w>
consi der</w>
com pe
clas s</w>
br ought</w>
bin ."</w>
benö tig
be zahl
at ure</w>
at or
ad voc
Zo o</w>
W ör
T ieren</w>
Sch nee
S ushi</w>
S ummer</w>
S au
Regier ung</w>
Min uten</w>
Lieblings essen</w>
L on
I hn
I f</w>
H ü
H inter
Ges ich
Gere chtigkeit</w>
Forsch ung</w>
Flo wers</w>
Feh ler</w>
Childr en</w>
Café s</w>
Bibli othe
1 8
z es</w>
win d.</w>
we der</w>
v es,</w>
v ent
unbe zahl
to wn</w>
tier en,</w>
th ."</w>
t end</w>
system s</w>
ste p</w>
st ro
spiel en"</w>
so cc
sho es</w>
sh op
sech s</w>
sch w
prac tice</w>
pp en</w>
plan et</w>
n ütz
medi cal</w>
mach te</w>
li e</w>
laugh ter</w>
lang sam
l ach
kenn en</w>
k t,</w>
ier ten</w>
ho ch
hi ke</w>
her vor
h le</w>
gesch af
ge fund
g lass</w>
feel s</w>
exerc ise</w>
erfüll t</w>
ent sche
e t,</w>
dig keit</w>
di men
der en</w>
de pres
darüber ,</w>
ck et</w>
cer tain</w>
car s</w>
c tions</w>
c aus
bo t
b arbe
at tra
as se
al b
V ater</w>
Ta gen</w>
T ol
Sy m
Sou th</w>
S on
Ob je
Kon tro
Hil fe</w>
Happ iness</w>
H on
Gemein schaft</w>
Fre m
F ak
D enk
C ou
Be i
Ar t,</w>
"Th ere's</w>
"O n</w>
y s.</w>
wunder schöne</w>
won 't</w>
wa iting</w>
w hate
var ie
v our
unter weg
uni qu
tu res</w>
ther e.</w>
ther ."</w>
the at
te t.</w>
te ach</w>
ta x</w>
t ö
t elefon
stu ff
stru cture</w>
stra hl
st e,</w>
spe ak
sp iel</w>
sign ific
se ems</w>
sa ying</w>
re ds</w>
pri cel
pl ö
op en-
o ch</w>
näch stes</w>
mü s
li br
leb en.</w>
lass en,</w>
jog ging</w>
je doch</w>
i o
her ,</w>
ha ve.</w>
groß es</w>
great est</w>
gr ü
gesch l
ges s
gen e</w>
gefä hr
freed om.</w>
fit ness</w>
fa vour
f ight</w>
explor ing</w>
erfolgre ich
em en</w>
ein ander
des ser
da zu,</w>
ct ly</w>
com bin
ch ao
car .</w>
brea d.</w>
bod y.</w>
ble i
bl an
ber f
beg an</w>
aufgere gt</w>
ar um</w>
an t,</w>
ak tu
ag re
ag er</w>
T ex
Sch iff</w>
S amm
N a
M är
M ach
Goo gle</w>
Freun de.</w>
Feh l
Fallschir m
Des ign</w>
B la
B ad</w>
Al s</w>
überzeu gt,</w>
ü gen</w>
äl ter
äh ri
ä hr
win e.</w>
voll en</w>
up coming</w>
tt i</w>
trau ri
to -
tion -
t w
stru ctu
st ate</w>
sozi ale</w>
so for
sleep .</w>
sky di
sing t</w>
schließ lich</w>
s ?"</w>
s '</w>
ri ed</w>
relax ed</w>
relax ation</w>
reali zed</w>
passion ate</w>
part ner.</w>
p un
not wen
nie mand</w>
müss en."</w>
mom ent.</w>
marke ts.</w>
mal ,</w>
in en</w>
ib le</w>
hör en."</w>
ho sp
he ,</w>
hal t</w>
gras s.</w>
gr u
g t."</w>
g ing.</w>
fä llt</w>
fä hig
fre u
favour ite</w>
er zeu
equ i
em path
da bei
d augh
d ."""</w>
compan ies</w>
ch t,</w>
cent er</w>
bu zz
beautiful ly.</w>
be deck
basi c</w>
bar keit</w>
ausprob iert</w>
atten ded</w>
at or</w>
arbeit en,</w>
an statt</w>
aghe tti</w>
activi ties.</w>
Z immer</w>
We is
Wahr heit</w>
W är
Ur laub
Sta r</w>
St unde</w>
Schwes ter</w>
Mo de</w>
Länder n</w>
Kunst aus
K amp
H ig
Fallschirm spr
F oo
Ear th</w>
DN A</w>
D or
D I
C amp
Balk on</w>
B ier</w>
"" "
äch st</w>
zo gen</w>
z z</w>
z immer</w>
wissenschaf t
wer k
w ol
versuch en,</w>
ve -
toge ther,</w>
t est
su ff
stres s.</w>
stell en."</w>
st en,</w>
spontan e
socie ty.</w>
sleep ing</w>
sich tlich</w>
se ts</w>
schön es</w>
schaf fen,</w>
sch ri
roman tic.</w>
restaur ants.</w>
read ing.</w>
re ach</w>
r an</w>
quo te</w>
pri v
partic ular</w>
p unkt</w>
p ool</w>
lou dly</w>
liter ally</w>
lik ely</w>
li kes</w>
leb en,</w>
le tter</w>
le ist
lang weili
l ad
kü hl
könn en.</w>
j ac
it e.</w>
is sen</w>
influ ence</w>
hör en,</w>
hat te."</w>
fe u
ex o
es en.</w>
erzähl en</w>
end ."</w>
e ?</w>
desig ned</w>
desig n
demo cra
de kor
curr ent</w>
cra f
ci vi
beau ty.</w>
be finden</w>
attitu de</w>
ation s,</w>
atemberaub end.</w>
ari es.</w>
ab ri
T em
Sp ring</w>
Plat z</w>
M it</w>
Leben smit
Komm unik
Her zen</w>
Gr enzen</w>
Gesch ma
Eis cre
B .</w>
Aus wirk
Auf gabe</w>
Au gen
Arbe its
A pp
9 0</w>
7 0</w>
"D a</w>
"" A
ün kt
z war</w>
wür de,</w>
vö lker
vo ice</w>
vis u
verl or
ung sk
un er
tou ch</w>
teil en</w>
technolog y.</w>
steh en,</w>
sha p
schre ck
s car
ro ad.</w>
re le
re in
r än
per .</w>
people 's</w>
pe ts.</w>
pas s
p ol
o d
ne t,</w>
nach .</w>
mean ing</w>
m s,</w>
kul tu
kl eines</w>
it ely</w>
irgend wie</w>
in dis
ier .</w>
gu ys</w>
gar den
friend ship</w>
fan den</w>
exhibi tions.</w>
est y</w>
ess en.</w>
es ."""</w>
erfolgre ich</w>
e th
dinn er.</w>
da te</w>
da ily</w>
d eine</w>
col d.</w>
c ue</w>
c ast</w>
bekomm en.</w>
av ail
au l</w>
as s</w>
an er</w>
all y.</w>
activ ity.</w>
ab en</w>
Y eah
Wo chen</w>
T o</w>
Sch ri
R un
Nach hal
K no
In strum
Gitar re</w>
Gesprä che</w>
F isch
Er d
Ehr lichkeit</w>
E very
De ut
B :</w>
2 5</w>
"M it</w>
zo o</w>
zeig t,</w>
wichti gen</w>
wh i
we 'll</w>
wa ves</w>
wa ke</w>
w oo
vö llig</w>
voll es</w>
ver ur
vari ous</w>
unver gess
u g
tre at
sunse ts</w>
st off
spre che</w>
spir itu
se d.</w>
schlaf en</w>
sa ys</w>
s mo
s hed</w>
re tur
re qui
r y.</w>
put ting</w>
produ ce</w>
pricel ess.</w>
play ed</w>
pe ,</w>
p ünkt
o ."</w>
neh me</w>
lo ck
lass en.</w>
l led</w>
kl ing
k id
k eln</w>
inner halb</w>
hund reds</w>
happ ening</w>
h ur
h old</w>
gy m.</w>
ge gessen</w>
frag te</w>
finis hed</w>
f ."</w>
entspann en</w>
ell er</w>
descri b
des halb</w>
d ing
d ein</w>
coo king.</w>
clo th
c and
ber t</w>
appro ach
Wel ten</w>
W ellen</w>
V ol
Te am</w>
Tag ,</w>
T om
S wimming</w>
S m
S ha
S and
S achen</w>
S .</w>
Ra in</w>
O ut
O bst</w>
In se
Ih rem</w>
Gr unde</w>
Feu er
D og
Au f</w>
An ti
4 0
"D es
year ,</w>
woll ten</w>
unfor get
un ded</w>
stres si
st s</w>
soll ten."</w>
sich er,</w>
si ons</w>
si mil
se ven</w>
schreib en."</w>
sa y
s wimm
rit ing</w>
redu ce</w>
physi c
pe di
pa ir
om en
müss en,</w>
my steri
mon e
me tho
mag ic
m ur
liebha ber</w>
letz tes</w>
le iden
lau t.</w>
la g</w>
l i</w>
l achen</w>
l ,</w>
kurz em</w>
kam en</w>
k ünst
k us
k tive</w>
in e,</w>
il ,</w>
ier n</w>
ide as.</w>
her o
hel ping</w>
he ir
hau p
happ ily</w>
hand elt</w>
ha ft</w>
großar tig</w>
gerä um
freund lich</w>
fe et</w>
fahr en."</w>
fa ther</w>
f our
f igh
er -
enn t</w>
enc e."</w>
ein ge
differ ence</w>
con fli
ch en"</w>
carb on</w>
c e."</w>
bro w
bor n</w>
bes t
beginn t</w>
beginn ing</w>
aus ges
ast .</w>
ar e.</w>
ar .</w>
am ong</w>
am es</w>
advoc ate</w>
Ze iten</w>
Wor k
W riting</w>
W a
Technologi en</w>
Städ te</w>
Rau schen</w>
Pati enten</w>
Mit ta
Lieblings tier</w>
Lie b
Kä se</w>
Kam in</w>
Er fin
Anfan g</w>
"Al so,</w>
öff net</w>
z ü
z uneh
z ahl</w>
vor her
tre es.</w>
thing s."</w>
thing s,</w>
ter ms</w>
te ile</w>
star ts</w>
sprech en,</w>
sp or
sich ,</w>
se par
sch ne
sat z</w>
s oo
relax es</w>
re ach
po or</w>
ph en
ou s,</w>
ne ar
muse ums.</w>
midd le</w>
ment ."</w>
leiden schaft
kap ut
k tiv</w>
issu e</w>
is o
hon est</w>
h our</w>
geschl af
ge wis
g -
festiv als</w>
fan gen,</w>
fahr en.</w>
erreich en"</w>
enti fic</w>
en h
emo tional</w>
ei ther</w>
eff ici
e u
e chter</w>
da ta
cre ates</w>
con ta
c ru
c le.</w>
bun t</w>
brigh tly</w>
bicy cle</w>
be er</w>
be coming</w>
Z ahl
W ie
Tenn is</w>
Sch laf</w>
S to
S erien</w>
Ra di
Medi kam
Lieblings ser
Leben s.</w>
E- Ma
E m
Do ch</w>
C an</w>
B ur
Auf merk
An im
A m
1 00
"T o</w>
ür lich</w>
ä re</w>
zieh t</w>
wär mt</w>
woll en."</w>
wer ke</w>
wee k</w>
war en."</w>
w ron
voll .</w>
ver ges
ushi .</w>
ti e</w>
t able</w>
sun ny</w>
stad t</w>
spr ing</w>
spe ct
spann end</w>
shopp ing.</w>
setz en,</w>
sen si
sehr ,</w>
sch ick
s tic
ro m</w>
righ t,</w>
rea d.</w>
re ally,</w>
ra p
positiv ely</w>
plan en</w>
per haps</w>
p fel</w>
other ,</w>
ort h</w>
on es.</w>
ol der</w>
ne u</w>
mea dow
lö sen</w>
lo ver</w>
l ab
kör per
kom me</w>
kenn en
jeman den</w>
iz i
ist :</w>
invol ved</w>
interess ant</w>
inter net</w>
incre as
in stitu
ig keiten</w>
hät ten</w>
grün en</w>
gleich e</w>
getro ff
get an</w>
genieß en"</w>
g lass
fru it</w>
for tun
fl uss</w>
fantast isch</w>
f ing
even ings</w>
essenti al</w>
ent s,</w>
eas y</w>
dar in</w>
d ou
d ness</w>
con stru
co zy.</w>
be itra
atmosp here.</w>
at e,</w>
ar tic
appoin t
ak zep
absol ut
ab out,</w>
Yog a-
W ahl
Tol er
T ri
Sp an
Proz ess</w>
Nachthim mel</w>
N utz
Män n
Mensch heit</w>
Medi en</w>
Lieblingsm usi
L iter
Kon fli
Kar ao
Ihr er</w>
Ihr en</w>
I D
H :</w>
Gl as</w>
Ges icht</w>
Geburt stag
Fri end
Fil men.</w>
Famili en
E re
D ra
Caf é</w>
Afric a</w>
1 ,
ö ße</w>
äu ß
ß en.</w>
zu .</w>
year s."</w>
we ht</w>
warm es</w>
w ."</w>
ver y,</w>
v ing.</w>
us es</w>
unter stü
un te
tz u
treff en."</w>
tradi tional</w>
tomor row
tie f
though t,</w>
ter t</w>
t ische</w>
st ep
sp read</w>
sol che</w>
si de,</w>
se em</w>
schaf t,</w>
s n
ris es</w>
ri ere</w>
respe k
qu ality</w>
profes sion
pra kt
phi losoph
p aper</w>
outdo or</w>
o t</w>
ne t.</w>
ne ar</w>
mov ed</w>
milli ons</w>
mer ,</w>
mar kt</w>
man a
lie ben</w>
lear n.</w>
l am
kur z,</w>
kl einer</w>
it self
ing s,</w>
in de
ig eri
ic e,</w>
hand s</w>
größ ten</w>
geschrie ben</w>
gen re</w>
geb au
extre mel
experienc ing</w>
ev ents.</w>
enter tain
enjo yed</w>
enga ge</w>
do w</w>
develop ed</w>
cra ck
coo k.</w>
con s
clo thing.</w>
childh ood.</w>
canc er</w>
besuch t.</w>
be e</w>
bau en."</w>
au ch,</w>
ativ ity</w>
ar ies</w>
an stren
a vo
a ver
V is
T at</w>
Str and
Sonnenbl umen</w>
Sch mer
Re ak
P fer
Man chmal</w>
Haus tier</w>
Fo to
F er
D re
Ch anc
C hi
2 ,</w>
"A uf</w>
" Le
äus ch</w>
Ä n
wä l
wichtig ste</w>
vin tage</w>
vi d</w>
verbun den</w>
ver rück
ver me
ver antwor
ve d.</w>
und en.</w>
un beschreib
typ e</w>
tun .</w>
tro tz
tig es</w>
tic s.</w>
ti dy</w>
stra hlen</w>
st ück
sit zt</w>
sho wed</w>
sh or
seas on</w>
schwi eri
schwieri g</w>
ris k</w>
richti gen</w>
re ag
plö tzlich</w>
pli zier
per io
pe t</w>
p h</w>
nä mlich</w>
non -
new .</w>
n ar
ma in
län ger</w>
loy al</w>
li est</w>
li ber
köst lich</w>
komple tt</w>
ing -
il l</w>
he ad
h inter
grund le
gra du
gemüt liche</w>
ge :</w>
funktion ier
fu tu
for war
fle a</w>
fe et.</w>
fantas y</w>
extremel y</w>
exp en
er v
er :</w>
entwick eln</w>
ele ktr
denk en."</w>
de "</w>
cy cle</w>
cre am.</w>
bo x</w>
big .</w>
besuch en."</w>
beruhig end.</w>
be y
bac k,</w>
ba hn
ar ri
an gel
alit ä
achie vem
ac compli
Wasser .</w>
Vortra g</w>
Unterstütz ung</w>
Unterschie d</w>
Tim e</w>
Schü ler</w>
Run ning</w>
P rü
Or t,</w>
Mor gen
Lieblings sport
Lauf en</w>
L ö
K ap
H ol
Geschä ft
G ut</w>
Fri ends</w>
F le
E ben
De cke</w>
Buch ,</w>
Best and
Bes uch</w>
Be dürf
Ar m
1 7</w>
"Z um</w>
ü cke</w>
your self
year -
world 's</w>
wirt schaft
welt weit</w>
war ms</w>
veränder t</w>
ver öffent
valu able.</w>
up ."</w>
tru ly</w>
tru e.</w>
tre e.</w>
tool s</w>
ste me</w>
star s.</w>
ss en,</w>
sol l</w>
schreib en"</w>
schrei be</w>
saf e</w>
s he's</w>
reis en.</w>
re ich</w>
ques tion
produc tiv
prin ci
pre par
p rü
mus sten</w>
mi lit
mehr ere</w>
li eren</w>
lei der</w>
k ta
j ähri
is tic</w>
is ti
in describ
il .</w>
ig ,</w>
ie ."</w>
hel fen."</w>
gen e
geha bt</w>
geh t."</w>
fro h,</w>
frisch er</w>
fra gen</w>
ey es</w>
enn en</w>
dri ve</w>
di ge</w>
da .</w>
colleag u
classi cal</w>
challen ge.</w>
car s.</w>
bu il
beste h
beobach ten."</w>
be merk
be antwor
b om
arbeit en"</w>
ann t</w>
al on
ag no
ad op
a h</w>
W ert</w>
Viel en</w>
Sonnenunter gan
Sch we
S am
Re g
Past a</w>
P re
P or
Nat ürlich</w>
M ikro
Lo s</w>
Lieblingsser ie</w>
L ag
K la
Jahres zeit</w>
J an
H ir
Gener ation</w>
Frei heit,</w>
Fl ü
Dog s</w>
D unk
D el
D au
Bi enen</w>
B ir
19 8
"D och</w>
"" B
zeu ge</w>
zei tig</w>
y st
wor ds,</w>
well ."</w>
vin yl</w>
verbra cht</w>
ung en."</w>
tri ps</w>
tradi tion
ti ver</w>
ti kel</w>
th ri
th ank</w>
stell te</w>
sta ge</w>
sp lat
so li
sk in</w>
sho es.</w>
recor ds.</w>
rain y</w>
produc tive</w>
pho tos</w>
pas sing</w>
oursel ves.</w>
ort s</w>
or g
off ice</w>
o x
no is
n ann
mir .</w>
ma thema
ma ,</w>
leuch ten</w>
le ise</w>
komple x
kenn t
interess ant
i a</w>
hum ans</w>
he .</w>
h oo
g one</w>
for d</w>
es ?</w>
en heit</w>
de gre
de d.</w>
d ancing</w>
cak e.</w>
bro a
birth day.</w>
bes t.</w>
bar es</w>
archite cture</w>
ar en't</w>
ali sier
ali for
achie ved</w>
absolut ely</w>
a pe
a head</w>
Wor ld</w>
Wissenschaf t
Vertrau en</w>
Ver kehr</w>
V e
Tem per
Sch wimm
Risi ken</w>
Nachhal tigkeit</w>
Lös ung</w>
In n
Ger äusch</w>
Geb ie
Ge or
G ame</w>
Fre edom</w>
Fil m
F ace
Ere ig
Emo tionen</w>
Ein zel
Bür o</w>
Brie f</w>
An der
All tag</w>
A tom
5 ,</w>
1 8</w>
1 7
"S he</w>
"N un</w>
" Er
änder n</w>
ze iten</w>
y ?"</w>
wi cht</w>
wert voll</w>
wa i
versu chen</w>
veran stal
und ."</w>
tier en"</w>
tel le
sym bo
sp er
sofor t</w>
sil ence</w>
sel ben</w>
scient ists</w>
schle cht</w>
sag t:</w>
s wit
reis en."</w>
re den</w>
prote ction.</w>
proje cts.</w>
photograph y.</w>
par ties.</w>
ol .</w>
new sp
musi ci
mus s."</w>
mole cul
lä ssi
lo wer</w>
lo ss</w>
komm en."</w>
know s</w>
k ürz
j unger</w>
interessi er
interessan ten</w>
imp act</w>
ig es</w>
hobbi es</w>
hier ,</w>
grow th</w>
ge kauf
g la
for t
fin den.</w>
fac e.</w>
ex cell
erkenn en,</w>
er halten</w>
ent er</w>
el em
educ ation.</w>
e ight</w>
dres s</w>
dimen sion
dcast s</w>
dar um</w>
da mit,</w>
d ance.</w>
com passion</w>
cl ing</w>
caf é
br it
bell t</w>
be wirk
be es</w>
bau en,</w>
bal ance</w>
b us</w>
auf s</w>
auf rä
att end</w>
ast er</w>
angeneh m</w>
and s</w>
all ."</w>
Z ellen</w>
Wär me</w>
Vergan genheit</w>
Ver ständ
Umwelt schutz</w>
Th ron
Stad t.</w>
Science-Fic tion-
Sch o
Sch n
Pa ar</w>
P op
P an
M ex
M et
Lap top</w>
K a
Indi en</w>
H u
Geschma ck</w>
Geschen ke</w>
Fähig keit</w>
F ing
Europ a</w>
Eiscre me</w>
E cke</w>
Chin ese</w>
Bü ro
Bl umen.</w>
Au ß
"O der</w>
""W ell,</w>
über rasch
ö di
Überrasch ungen</w>
zwe i
z oo
y :</w>
wichtig sten</w>
wel ches</w>
w ouldn't</w>
ver wend
utz u
ur en</w>
ur b
um en
trei be</w>
tern ,</w>
streng th</w>
st opp
spect ac
son st</w>
so .</w>
sci entific</w>
schau en"</w>
sag t,</w>
s ent</w>
ro of.</w>
ri ding</w>
rea lity</w>
ques tions</w>
proc ess
popul ation</w>
plan ts</w>
pl ant</w>
pi an
ordin ary</w>
ogra ph
neu ro
ne ben</w>
möch te,</w>
mö gen</w>
mach ine</w>
m me</w>
lou d.</w>
le -
komm t,</w>
komm en.</w>
in tui
hör t</w>
hö ch
hal t
h es</w>
gi ft.</w>
gesp iel
gegan gen</w>
ge mä
ge fühl
for ms</w>
foo t
fire place</w>
far be</w>
fal sch</w>
fa .</w>
er hol
elec tr
el li
e "</w>
dro h
dri ves</w>
doll ar
do ."</w>
di ger</w>
deser ves</w>
defin i
dar in,</w>
d lich</w>
ct or</w>
creativ ity</w>
con sum
comple x</w>
clear .</w>
centur y</w>
cap able</w>
bin "</w>
berf läche</w>
bere it
bere is
b en."</w>
b ath</w>
acc ept</w>
ac ken</w>
abi lit
a de
Zu gang</w>
Z ahn
Wirt schaft</w>
W under
Ta geb
St ates</w>
St and
S ing
S atur
P ra
O der</w>
N igeri
Musi c
Motor ra
Lehr er</w>
Krie g</w>
J unge</w>
I s</w>
Gesund heits
Foo tball</w>
Fir ma</w>
D o</w>
Co cktail
Auf gaben</w>
A .</w>
3 00</w>
2 4</w>
"Man chmal</w>
"" Das</w>
zurück .</w>
z icht
wür de."</w>
whate ver</w>
wer den
trä um
tri ps.</w>
tin y</w>
tim es,</w>
ti z
ther s</w>
system .</w>
stri ve</w>
steh e</w>
stat t
si onen</w>
sex u
s inn
ra is
quick ly.</w>
qu ar
progra m</w>
plan e,</w>
pl ants.</w>
orig in
nor mal</w>
nach hal
n ing.</w>
muse ums</w>
mom ents</w>
m es</w>
lo k
leck er.</w>
langu ages</w>
l ungen</w>
k en.</w>
isch em</w>
individu al</w>
hä u
hn t</w>
har dly</w>
hal ten
glich en</w>
geseh en,</w>
ges tr
führ en."</w>
friend ly.</w>
fre ien</w>
fel d</w>
erwar ten,</w>
en ded</w>
einf achen</w>
dri ver
dre i
dre h
do k
deci de</w>
da mals</w>
d s."</w>
cu is
contin ue</w>
compan y.</w>
comp lic
ci ties</w>
chti g</w>
choo se</w>
che ese.</w>
c ed</w>
blan ket</w>
bey ond</w>
bestimm ten</w>
berü hrt</w>
beginn en</w>
be qu
be comes</w>
ation en.</w>
at om
are a</w>
anc ed</w>
al s."</w>
absol ute</w>
ab le."</w>
Yester day</w>
W ort
Vide o</w>
Tra di
Sinn e</w>
S :</w>
R el
P ause</w>
N ord
Mor gen.</w>
Lieblings lied</w>
L at
Kolle gen</w>
K en
Itali an</w>
Inspi ration</w>
In telligen
In du
Ge fühle</w>
Fuß ball
D a</w>
Cre ativity</w>
C ha
B an
Anim als</w>
Afric a,</w>
1 1</w>
"" Der</w>
z te</w>
z erstör
work ."</w>
will ,</w>
was ser
wach sen
vol unte
verbring en.</w>
verbin det</w>
ver sion</w>
us s.</w>
unver zicht
unda tion</w>
un ken</w>
un endlich</w>
tra ining</w>
ti es."</w>
ter m</w>
te ili
t ter.</w>
t an</w>
su g
stru g
stres s</w>
st ör
sel n</w>
se tt
school .</w>
s end</w>
ro ck</w>
re par
on ar
nut ri
mis tak
medi c
lich ke
könn te."</w>
kre ative</w>
konzent rier
jus tice</w>
je tz
inspir ing</w>
independ ent</w>
in se
ig en,</w>
ic ally</w>
him ,</w>
heu te.</w>
her um
hat ten."</w>
go .</w>
gesag t,</w>
gen d.</w>
geb aut</w>
for get</w>
foc us</w>
fin ding</w>
fe .</w>
fa st
f ing</w>
expla in</w>
ex hau
et t
er leben</w>
er ed</w>
entwick elt</w>
einfach e</w>
ehr lich</w>
dist ri
di g.</w>
di c
des to</w>
da her</w>
d in
creativ ity.</w>
beste ht</w>
b right</w>
b rech
b ,</w>
auß er</w>
atmosp here</w>
ati ver</w>
ar m</w>
ar e."</w>
anal y
an ci
after no
ac e</w>
Zu hör
Z entr
Verbin dung</w>
T au
Sp ort.</w>
So cial</w>
Schrit t</w>
Schnee flo
Rei he</w>
Re alität</w>
R ess
O ur</w>
Nach richt</w>
N ational</w>
N amen</w>
Möglichke iten,</w>
Mon ate</w>
Mit tel
Lieblings jahr
Ja zz
Haus tiere</w>
Geschich te.</w>
Engli sh</w>
Des ig
C ars</w>
Bla u</w>
Bibliothe k</w>
Besonder es</w>
Beh and
Be tra
Auswirk ungen</w>
Aktiv itäten</w>
: "</w>
- B
"We 're</w>
"D a
""O h,</w>
"" H
zi g</w>
wä re,</w>
window .</w>
wat er,</w>
w all</w>
utzu tage</w>
ur ing</w>
unglaub liche</w>
un a</w>
um welt
tr a</w>
th ank
sur face</w>
steh en."</w>
socie ty</w>
so ft</w>
snow fla
sle pt</w>
say ing,</w>
sam er</w>
s l
resul t</w>
rau scht</w>
ra tion
pro mo
opportuni ties.</w>
om en</w>
off .</w>
o il</w>
nenn en</w>
mon th
mis sion</w>
marke ts</w>
man i
man che</w>
mal en</w>
lu ck
li s
lat er.</w>
ktion en</w>
kom plizier
ke -
j unge</w>
it self</w>
it s.</w>
is s
inspir ing.</w>
ich ten</w>
i ti
hel fen"</w>
h er.</w>
gu ins</w>
gir ls</w>
gesch lossen</w>
gesag t</w>
ges pro
gebra cht</w>
ge ko
g ut
g ing
for med</w>
fließ end</w>
fest y
f ess
expres sion</w>
exhibi tion</w>
ent ly.</w>
ear ly.</w>
e tzt</w>
e li
do gs</w>
dar um,</w>
dar aus</w>
dan ger
dafür ,</w>
dach te,</w>
cra w
conne ct</w>
color .</w>
co st</w>
clo ck</w>
bo w</w>
bes itze</w>
beruhig ende</w>
b um
b ul
aro und.</w>
ange fangen</w>
al es</w>
ak ter
ad d</w>
ab .</w>
a way.</w>
We 've</w>
W ü
S ign
Po tter</w>
P res
Nä he</w>
Me er.</w>
Lieblingsjahr es
Lie d</w>
L iste</w>
Künst ler</w>
Ko hl
K e
Jahrhunder t</w>
J our
J ac
I ce</w>
H un
Gr öße</w>
Gewal t</w>
Ge dul
Energ ie
Ein fluss</w>
Eig enschaf
Cy cling</w>
Ber u
? ""</w>
. ,</w>
"S t
" Jetzt</w>
öffent lichen</w>
Ü b
zu zu
zent r
z w
your self</w>
x im
well- bein
wa sch
verbr in
ver lassen</w>
u z
u re,</w>
tre ten</w>
tre as
today ."""</w>
to tal</w>
to t
titu de</w>
through out</w>
ther n</w>
th rill
technolog y,</w>
t y."</w>
t ly.</w>
t isch</w>
stre et.</w>
st ö
sp ü
sp rich
so und
show s.</w>
show ing</w>
sh own</w>
schau en."</w>
s ister</w>
s ;</w>
robo t</w>
ri g
restaur ants</w>
respe kt
progra mm
po ver
po s
ph ones</w>
ph one.</w>
passier t,</w>
or ."</w>
on -
o -
n ö
majestät isch</w>
m ig
ligh ts</w>
lic en
le gen</w>
la w</w>
l inge</w>
komm un
knowled ge.</w>
kennenzulern en</w>
in fe
im medi
i vi
hei ßen</w>
gla d</w>
gener ation</w>
gen en</w>
ge führt</w>
för der
fil ls</w>
f aul
experim ent
erklär ung</w>
erinn ert</w>
ent scheid
e t."</w>
e chte</w>
di es.</w>
di e,</w>
d unk
con tra
certain ly</w>
bra chte</w>
bloo d</w>
beg in</w>
bac teri
aufre gend</w>
art ist</w>
ar ti
an steck
am s</w>
al y
al ter</w>
activ ity</w>
ach ,</w>
a wa
W ür
Vin ta
V iele</w>
Th er
T anz
Steuer erklärung</w>
So zi
S o,</w>
S an</w>
Regen bo
Prin zi
Nach t.</w>
Mar kt</w>
Ma ß
M ann,</w>
M ann
Konzep t</w>
Innov ation</w>
I st</w>
Ha wai
H ör
H am
Ge tr
Freun de,</w>
Flu g</w>
Euro pe
D ach</w>
CO 2</w>
Bä umen</w>
Be gle
Bas ketball</w>
B en
Afri can</w>
A m</w>
A ID
1 ,</w>
"O r</w>
"Be i</w>
" Jeder</w>
än g
zu erst</w>
z itat</w>
writ ten</w>
will ."</w>
wee ks</w>
ver ."</w>
vegetab les.</w>
v at
unterschied liche</w>
uniqu e.</w>
un ten</w>
um ent</w>
tig ,</w>
the or
ter s,</w>
televisi on</w>
t z</w>
stor y.</w>
stim ul
stell en.</w>
star ke</w>
st ood</w>
st om
splat z</w>
sp ür
sozi alen</w>
some thing.</w>
skill s.</w>
sin d.</w>
simil ar</w>
sh oo
sear ching</w>
sear ch</w>
se tzt</w>
schn urr
rul es</w>
righ t.</w>
richti ge</w>
re li
r y,</w>
qu ari
prote ction</w>
phen omen
peace ful</w>
pe t.</w>
pain t.</w>
our ces</w>
nie dri
n ational</w>
min ut
memor ies</w>
medicin e.</w>
meadow .</w>
ma li
m s."</w>
m ing</w>
ly mp
li festy
lan ger</w>
kü mmer
kü mm
klar ,</w>
k tu
iz ed</w>
itä t.</w>
it ar</w>
ir re
indu stri
horiz on.</w>
histor ischen</w>
help ed</w>
gre w</w>
go ,</w>
glau ben</w>
geh ol
fe ed
fahr er</w>
erledi gen</w>
erinn ere</w>
er o
er leb
decisi ons.</w>
de te</w>
de te
de cl
de b
creativ e.</w>
countr y.</w>
conc ep
ch e.</w>
c la
butter fly</w>
broa dens</w>
ble ."</w>
bil den</w>
ba th
b ol
avo id</w>
auszuprob ieren</w>
auf geräum
at ures</w>
appro ach</w>
ali en</w>
a sion
a gen
Zukun ft.</w>
Weihnach ten</w>
Vor stell
Vinta ge-
Toler anz</w>
The or
Sü ß
St elle</w>
Som e</w>
Sof t
Rich tung</w>
R at
Progra mm
P l
P ingu
P at
Ordn ung</w>
O ka
Nachrich ten</w>
Music )</w>
Lu ft.</w>
Lu ft
L oo
L ich
Kle i
I tal
I m
Har mon
H äl
Ges etz
Ger ä
Demo kra
Dank barkeit</w>
Chr is</w>
Bl ume</w>
Bestand teil</w>
Bes ser
Bere ich</w>
Ber g</w>
Ar tikel</w>
Abenteu er.</w>
Aben de</w>
00 0
"W ä
"A fter</w>
" Je
äu sch
ä tz
year- old</w>
worl ds.</w>
wal ks.</w>
trä gt</w>
to m</w>
th um
ter ror
sun flowers</w>
stud ying</w>
spe aking</w>
soll te"</w>
socc er</w>
sm ooth
sieh t,</w>
schnell er</w>
sch rank</w>
s wee
res ol
proje cts</w>
proble m,</w>
prob ieren"</w>
pro t
po e
plan s</w>
pho to</w>
ph ys
p hen</w>
optimis tic</w>
obser ve</w>
no tic
ne tz
ne t."</w>
n ation
musi k</w>
mov ie.</w>
mi x
memor ies.</w>
medi zin
ma ssi
lo c
leis ure</w>
le bt</w>
lat e.</w>
lan d.</w>
klar .</w>
je mals</w>
inspi ration.</w>
in telle
in -
ig nor
hy th
hor ror</w>
ho t.</w>
heal ing</w>
he at</w>
har t,</w>
h it</w>
h ing
gesam te</w>
gefä llt</w>
ge fe
ge arbeitet</w>
fil men</w>
fashi on.</w>
fall )</w>
f ach
exerc ise.</w>
erweit ert</w>
erst es</w>
er leben."</w>
er hö
ent re
dra w
dow n,</w>
document aries.</w>
cri min
consider ing</w>
coll abor
ck tail</w>
ck er
che ck</w>
celebr ate</w>
camp ing</w>
call s</w>
caf é</w>
buzz ing</w>
brigh ten</w>
be d.</w>
ation s
at ors</w>
ans wer
ann e</w>
an s,</w>
al lows</w>
ac k.</w>
ac coun
a ware</w>
a w
a do
a 's</w>
Ze u
Z ahl</w>
We il</w>
We g,</w>
W ell,</w>
W ein
W ahl</w>
Verständ nis</w>
Ver einig
V isi
Un sere</w>
U. S.</w>
Theaterst ück</w>
Th emen</w>
T or
T ar
Syst em
Stu die</w>
Sp aghetti</w>
S mar
Plan et
Pho tograph
P ol
N ach</w>
Me ter</w>
Ma hl
Liebling sk
L as
Konz erte</w>
Ko ch
Kir che</w>
Jahr en,</w>
Hau pt
Fr anc
Dan k.</w>
C ity</w>
Bo t
Bes ch
Bei fall)</w>
Be wusst
B rü
An gel
"Wä hrend</w>
"W issen</w>
"" "My</w>
önn en</w>
z ir
y n
y es,</w>
y el
y ball</w>
wär en</w>
wus ste</w>
wea ther.</w>
war men</w>
wa hr</w>
w ood</w>
visi on</w>
veget ari
unterweg s</w>
unterstü tze</w>
under stor
trotz dem</w>
tot ally</w>
tomorrow .</w>
to w
to ,</w>
the tic</w>
ta g
sup posed</w>
stu dent</w>
str ateg
stic k</w>
sti e
st ein</w>
sprech en."</w>
sport lich</w>
sp ru
sie ben</w>
schl ag
romant isch</w>
recogn ize</w>
re fu
pra kti
possi ble.</w>
poin t,</w>
plan et.</w>
pe ak</w>
pat tern
pain ting.</w>
p ha
over come</w>
other ."</w>
on s."</w>
on ce.</w>
o s
nutz en,</w>
now ."</w>
ne ed
nach dem</w>
n ine</w>
n im
motiv ated</w>
magic al.</w>
li ved</w>
lau te</w>
la w
könn te,</w>
komm t."</w>
k rä
k r
is h
intern ational</w>
ini ti
ima ge</w>
hör en"</w>
human ity</w>
hin der
high er</w>
hiel t</w>
hell .</w>
hal ten.</w>
ha ir</w>
gu itar</w>
grow .</w>
global en</w>
gir l
gestr es
gemüt licher</w>
gel esen.</w>
geb ie
g te</w>
ful ,</w>
fam ous</w>
fahr en"</w>
f est</w>
f en
essenti ally</w>
er wä
environment ally</w>
entwickel n."</w>
en rich</w>
du f
disc us
den ti
das s,</w>
co ver</w>
cloth es.</w>
clean ed</w>
ck s.</w>
cam era</w>
caf es.</w>
c ture.</w>
bere chtig
ben u
be handel
be deut
ba st
b ild</w>
ausprob ieren</w>
ate gi
anci ent</w>
all y."</w>
actu ally,</w>
ab ends</w>
W af
Ver halten</w>
Techn ik</w>
T ür
T el
Sp inn
Sp iele</w>
Seel e.</w>
Se iten</w>
Schmetter ling</w>
Sch ick
Samm lung</w>
S ur
S ter
Ro ad
R :</w>
Prä si
P län
Mo st</w>
Mich a
Lieblings zitat</w>
Informa tion</w>
Indi vidu
H oll
Grill en</w>
Geräu sche</w>
G rü
Fähig keit,</w>
For men</w>
Fo to</w>
Energ ie.</w>
E ffe
Dank e.</w>
D r.</w>
D eine</w>
Be völker
Australi en</w>
Aus druck</w>
"V or</w>
"Dies es</w>
"An d,</w>
"A m</w>
über win
ü p
öffent liche</w>
äch t
zeich nen</w>
ze ige</w>
z og
z au
will ing</w>
vor zu
veränder n.</w>
verwirklich en."</w>
versu cht</w>
ver kauf
ver b
varie ty</w>
ut ter
ut h</w>
us ually</w>
ur laub</w>
ung spro
un end
u re
trink en."</w>
tran sport</w>
tou ches</w>
tion en,</w>
th y</w>
te d."</w>
t um
swimm ing.</w>
streng th.</w>
sti ll
stand ,</w>
st in
spiel en.</w>
sp l
sch lim
sch .</w>
scal e</w>
satis fied</w>
ro o
righ ts</w>
ra c
r ying</w>
preci ous</w>
pick nick
pic k</w>
pho togra
pati ents</w>
pati ent</w>
pas s</w>
pa st.</w>
p s,</w>
p ite</w>
p ack
ox y
or s,</w>
op e</w>
on 't</w>
occ asion
o se</w>
nigh t,</w>
neg ative</w>
necess ary</w>
n chen</w>
mor ali
m in</w>
lie ßen</w>
laugh ing</w>
l unch</w>
kün f
kommun iz
ko chen"</w>
kle in</w>
ke pt</w>
k ri
ja zz</w>
is :</w>
id ing</w>
hän gt</w>
ha st</w>
ges etz
ges ell
gefund en.</w>
ge hab
ge brü
fühl en</w>
funda mental</w>
frü her</w>
frü h
fli ght</w>
ff e</w>
fel low</w>
ey e</w>
exerc is
es o</w>
er öff
er kann
er fris
enor m
em er
dise a
di e
de ath
dabei ,</w>
d on</w>
cor ner</w>
compe ti
color ful.</w>
ch ick
bu b
bring en.</w>
bele bt</w>
beitra gen</w>
bar ,</w>
asse t.</w>
as ."</w>
all s</w>
al tern
al gorith
Wor te</w>
Wissenschaft ler</w>
We ge</w>
Wal d.</w>
Video )</w>
Ver kehr
V or</w>
US -
Tra ining</w>
Tat sach
T isch</w>
T ha
Stru ktur
Ste phen</w>
Sp ir
Sof a</w>
Sm ooth
Sch ool</w>
Sch all
Rezep t</w>
Re gi
R oll
Par is</w>
P ul
OK ,</w>
O per
O lymp
Musik )</w>
Mo unta
Mo le
Mitta gessen</w>
Mensch ,</w>
Lieblings -
Kom ödi
Kar riere</w>
Jahr zehn
H y
Geschich te,</w>
Gehir n
Frem d
F ran
Entscheid ung</w>
E ich
C ra
C an
Bl ü
) "</w>
"Th en</w>
"T at
"C A:</w>
är en</w>
Über zeug
zu vor</w>
zu ver
z one</w>
z en.</w>
wi ld</w>
we ich
we ap
wan ts</w>
w hat
vis ual</w>
verl oren</w>
use ment</w>
u ri
tä glich</w>
ts am</w>
tr uth</w>
to .</w>
ter -
teach er</w>
sü ß</w>
swe et</w>
surpris es.</w>
sud den
studi er
str ument
st elle</w>
spra che</w>
speci al.</w>
spe e
son ,</w>
sol ar</w>
sm i
si ght</w>
school ,</w>
sau ber</w>
sammel n</w>
sam en</w>
s ushi.</w>
rema in</w>
re volu
rau m</w>
pr ene
possibili ties.</w>
poli ce</w>
pleas ant.</w>
plan ned</w>
plac e,</w>
performan ce</w>
p -
op ens</w>
om at
nic e.</w>
neh mer</w>
ne ak
mus ,</w>
mom ent
min utes</w>
medit ate</w>
mal t</w>
mach t,</w>
m ine</w>
laun dr
lar gest</w>
kaput t</w>
k ali
it ?</w>
inter ac
imag es</w>
hund red</w>
high -
hau pt</w>
großar tig.</w>
gre en.</w>
gew inn
gen et
gelern t.</w>
fur n
frem de</w>
fra ge</w>
foo t</w>
fis hing</w>
er forsch
ent liche</w>
en 's</w>
eg al</w>
dy nam
di gen</w>
di en
di ed</w>
develop ment</w>
decisi ons</w>
das ?</w>
d :</w>
compu ters</w>
comple te</w>
comfort able.</w>
co unter
ca se,</w>
c ut
c ure</w>
c t."</w>
c en
bre wed</w>
boo k,</w>
bild ung</w>
beobach ten"</w>
beg ann
b y
auf steh
auf en</w>
au b</w>
ation s."</w>
are as</w>
ant s,</w>
am usement</w>
again ."</w>
ad ul
Wä sche</w>
Tra vel</w>
T ür</w>
T elef
Sta at
Spiel en</w>
Situ ationen</w>
Schri ft
Schokola de.</w>
Schick s
Schau en</w>
Ro ck
Prü fung</w>
Prä sent
Mon at</w>
Mit te</w>
Medi a</w>
M y
Kom for
Jap an.</w>
Ide e,</w>
Häl fte</w>
Hor ror
Gele gen
Gar ten
Fü ßen</w>
Fortschrit t</w>
F ren
Erleb nis</w>
Eich hör
Da vid</w>
C lu
Beispiel ,</w>
Be au
Americ a</w>
Abenteu er
A maz
19 6
1 6</w>
- -
"St ellen</w>
"N ach</w>
"F ir
ün sti
über haupt</w>
z er</w>
vor stellen,</w>
viel fäl
verbra cht.</w>
verbess ern.</w>
v ent</w>
tur ning</w>
triff t</w>
toll er</w>
tion s
thre e-
tes ten</w>
t to</w>
system ."</w>
sur ger
subje ct</w>
stor e</w>
ste u
stand s</w>
son g.</w>
soft ly</w>
sh ir
serv ice</w>
se tting</w>
sch ar
sammel t</w>
ret ten</w>
radi o</w>
r und</w>
purpo se</w>
polit ische</w>
plat z</w>
p ush</w>
organiz e</w>
opini on</w>
ol d.</w>
o der
nah me</w>
mistak es.</w>
medit ation.</w>
me ant</w>
ma tic</w>
ma s.</w>
ma gic</w>
m utz
list en
lin e-
kom bin
know ."</w>
k rat
journe y.</w>
jog gen</w>
ist s,</w>
intro ver
inter est</w>
inspi res</w>
import ant
il en</w>
ih res</w>
hol ds</w>
hm är
her um.</w>
her ausge
hal ten"</w>
gleich zeitig</w>
gen i
gen des</w>
gel ö
ge führ
ge ben
g ingen</w>
fun keln</w>
friend ly</w>
for men</w>
fin al</w>
fil m
fil led</w>
fer tig
fahr e</w>
f rea
experim ent</w>
evi dence</w>
es cap
ern ähr
en rich
einzel nen</w>
dis h</w>
dio x
de t."</w>
dan ach</w>
d cast</w>
cu stom
ct s,</w>
cra zy</w>
cover ed</w>
countr y,</w>
cor ding</w>
coo ked</w>
convers ations</w>
conta gi
cl in
ck ed</w>
chan ge
ch ts
camp ing.</w>
c tion,</w>
brea k.</w>
bes itz
berü hr
bei de</w>
be wahr
balcon y</w>
außer halb</w>
ate d,</w>
any one</w>
an o
am ,</w>
allo wed</w>
Z it
Wel t."</w>
W äl
W and</w>
Technolog y</w>
Ta ke</w>
St ar
Smar t
Schneeflo cken</w>
S um
Pu zz
Po st
Plän e</w>
Part ner
P unk
P fle
Neu ro
N u
N orth</w>
N o</w>
Mom ente</w>
Mole kü
Me eting</w>
Mar athon</w>
Lab or</w>
Kre uz
K ö
J ung
Indi a</w>
Ihn en,</w>
Ide e.</w>
He y,</w>
HI V</w>
H äus
H af
Gleich berechtig
Geheim nisse</w>
Geb or
Ge mä
G lo
Flo hmär
Fantas y-
Fahrrad fahren</w>
F rank
Dies er</w>
D enken</w>
B el
B at
Aufmerk samkeit</w>
Ar zt</w>
9 0
5 ,000</w>
2 1.</w>
19 7
"Th e
"O b
ü bri
är t
än de</w>
ä r</w>
z e,</w>
you 'd</w>
we 'd</w>
warm th</w>
w in</w>
vor bere
ver ständ
ur .</w>
unforget table.</w>
unbezahl bar</w>
unabhän gig</w>
tran sport
toge ther."</w>
to day."</w>
ti me
they 've</w>
that ?</w>
th and
teach ing</w>
t was</w>
t ungs
t ors</w>
sunse ts.</w>
stat is
stan den</w>
st ab
soll ten"</w>
soll te,</w>
snowfla kes</w>
situ ation.</w>
selbst .</w>
schön ste</w>
schlaf en."</w>
schlaf e</w>
schau en,</w>
sch mer
s ing.</w>
ro t</w>
retur n.</w>
responsi ble</w>
respe ct.</w>
relationshi p.</w>
reci pe</w>
quie t.</w>
pünkt lich</w>
proble ms.</w>
ph on
past a.</w>
part y.</w>
par ks.</w>
organiz ed</w>
or e</w>
ol ph
of ,</w>
no tice</w>
no ise</w>
natu re,</w>
mus s,</w>
mp tom
mo re,</w>
mes sage</w>
mes sa
mein e,</w>
maj or</w>
lon g-
les s.</w>
le ads</w>
landscap e.</w>
lan g.</w>
l ag
k le</w>
jeman dem</w>
inv ited</w>
inv en
intern ation
inter pre
ing s
i .</w>
hosp it
histor ische</w>
her aus</w>
hel d</w>
h en.</w>
getroff en.</w>
gebrü htem</w>
ge heim
ge e</w>
g ste</w>
fä lle</w>
frü hen</w>
fre qu
fe ,</w>
fa ir</w>
f its</w>
ev ents</w>
es si
er leben"</w>
er lau
ent in</w>
emo tions.</w>
ein kaufen</w>
dre ht</w>
document ary</w>
dig it
differ ence.</w>
dies el
di er
deep ly</w>
dan ke</w>
d ungen</w>
cris is</w>
countr ysi
classi c</w>
cap ac
c ted.</w>
bor ing.</w>
bod y,</w>
bl in
bevor steh
betrach ten"</w>
bekomm en."</w>
bekomm en,</w>
be wer
avail able</w>
au to
atur en</w>
ati ves</w>
as soci
as king</w>
ar ily</w>
an te</w>
an t."</w>
ambi ti
alifor ni
ali ve</w>
al og
activ e.</w>
acc ep
ab end</w>
a stronom
Wie der
Wel l</w>
Wander ung</w>
W ik
Ton ight</w>
Tha il
Ter ror
T es
Stad t
Sonnenauf gang</w>
Sicher heit</w>
Se kun
Sch iff
S il
Religi on</w>
Regenbo gen</w>
Re geln</w>
Re gel
Person .</w>
P un
P f
No t</w>
Nachbar n</w>
N ame</w>
L an
Künst l
Kunstaus stellungen</w>
Kop f
Kontro lle</w>
Kom bin
J ust</w>
Instrum ent</w>
In stitu
H igh
Gr und,</w>
Gemä l
Ge fän
Fern seh
Fallschirmspr ingen</w>
Every one</w>
Ele k
Dunk el
C olle
Bre tt
Bl umen
Bi ene</w>
Be g
Bal ance</w>
Aus land</w>
Al ter</w>
A S
1 .
"We 've</w>
"W ith</w>
"" Die</w>
" G
zu fä
z ös
z ellen</w>
y s."</w>
wür den."</w>
wur den."</w>
writ ing.</w>
wir r
win digkeit</w>
wh om</w>
we tter</w>
wan del</w>
verbess ern."</w>
ver teil
ver mut
vel y.</w>
v ic
unfor tun
und en."</w>
ul tim
tr ou
tr it
ter n.</w>
te en
tau ght</w>
succ ess</w>
speci fic</w>
sonn ig</w>
sm aller</w>
sei tig</w>
schwimm t</w>
schwier ige</w>
schnurr t</w>
schnell .</w>
schle chte</w>
sa hen</w>
ri ver.</w>
respekt voll</w>
relationshi ps.</w>
reg net</w>
re pe
rain bow</w>
ra ys</w>
produ ktiv</w>
present ation</w>
prakti zier
pas st</w>
pas sed</w>
p ath</w>
or d</w>
onesel f</w>
ol d,</w>
num bers</w>
nu clear</w>
ner v
mä chti
mov em
ma .</w>
lo sen</w>
leck ere</w>
le hr
kontrolli er
konn te,</w>
k s,</w>
k rank
k op
jog ging.</w>
itali en
interessant es</w>
instrum ent.</w>
ing )</w>
incre ase</w>
inclu ding</w>
high ly</w>
gra ph
gekauf t.</w>
g ung</w>
g lie
ful ly.</w>
fließ t</w>
fin e</w>
fic ial</w>
fer tig</w>
extre m</w>
evolu tion</w>
es sed</w>
ere i</w>
er se
er ie</w>
enthusi ast.</w>
enc ou
emp lo
dr ank</w>
dig ital</w>
develop ment.</w>
der ."</w>
cy c
coo k
con serv
ck ets</w>
ck en.</w>
cho ice</w>
cap tiv
büch er</w>
busin ess
bu d
bit te</w>
big ger</w>
bi lit
berü hren</w>
berü hm
beeinflus sen</w>
be ach
bat ter
barbe cue</w>
bab y</w>
b lowing</w>
b end</w>
auszudrück en."</w>
at e."</w>
ar ts</w>
appe ar
anstren gend</w>
ann i
al ing</w>
abi lity.</w>
You 're</w>
Wi ese</w>
Wi ese.</w>
Weihnach ts
Wachst um</w>
Ver wand
To d</w>
Th rill
Sü da
St art</w>
Sonnenuntergan gs</w>
Se e.</w>
Schmetter linge</w>
R as
Proje kte</w>
Par ks</w>
P i
Op tim
On line-
Netfli x.</w>
N ation
Mu ster</w>
Mo unt</w>
Micha el</w>
Mex ic
Mein ungen</w>
M al,</w>
Lieblings farbe</w>
Kun st.</w>
Kre bs</w>
Karao ke</w>
K :</w>
I mag
H istor
Grü n</w>
Gre e
Ger man
Gal ax
Friend ship</w>
Fin anz
F erne</w>
Ergeb nis</w>
Er kennt
Eichhör nchen</w>
E he
D ro
D ein</w>
Camp ing</w>
C a
Ber l
B rea
B lu
B all</w>
Asi an</w>
A uch</w>
A ra
A cht
A -
3 ,</w>
1 4
& amp
"Un sere</w>
"I 've</w>
"B y</w>
zurück ,</w>
y m
wichti ges</w>
wher e,</w>
wer en't</w>
vol le
veröffent lich
verwen den</w>
versuch t,</w>
versteh en."</w>
verbring en,</w>
unterstütz en</w>
ul ti
tz one</w>
th understor
tell s</w>
t at</w>
stö b
studi ed</w>
stru ktur</w>
spontane ous</w>
spiel er</w>
so wohl</w>
so genann
so fa.</w>
si e.</w>
schlaf en"</w>
sch utz
s w
room s</w>
res ist
requi res</w>
remin ds</w>
re pair
r uns</w>
provi des</w>
phi c</w>
perfe k
p lo
or ity</w>
on om
on ic</w>
on i
obser ving</w>
nis ,</w>
nim mt</w>
ne ."</w>
mo st
mil es</w>
me ist
mat h</w>
marke t.</w>
man u
ma sch
m än
m ich
m ensch</w>
leuch tet</w>
lea ves.</w>
land s</w>
land ,</w>
la y
l ung
kre ativer</w>
kit chen.</w>
kauf en.</w>
k y</w>
industr y</w>
imp an
hon esty</w>
hn ung</w>
happ ily.</w>
ha t.</w>
ha m
ha b</w>
h of</w>
gy p
gu itar
gu ess</w>
grü n</w>
gre i
gre ater</w>
glück lich
getr unken</w>
gesch ie
ges t
gal ax
g s,</w>
fried lich</w>
form ing</w>
forder t</w>
flo ws</w>
fes tzu
fall ing</w>
fac tor
f ying</w>
exam ples</w>
erfrisch end.</w>
er laub
entsche iden
entre prene
ensch ein</w>
en ?"""</w>
ele ph
ein gel
effe ctiv
effe ct.</w>
do or
dar f</w>
d olph
d es.</w>
d enten</w>
countrysi de.</w>
contagi ous.</w>
conne cts</w>
cl usi
ci es</w>
c at.</w>
bri dge</w>
bo und
bo at</w>
belie f
ba se
b lows</w>
außer gewöhn
attitu de.</w>
ate boar
artic le</w>
an ger
alb um</w>
affe ct</w>
a ge,</w>
Ze it.</w>
Z um</w>
Wohl befinden</w>
Wik i
We b
W ild
Vereinig ten</w>
Ver füg
T ur
T um
Spir itu
Sonnen strahlen</w>
Sch ach</w>
Sau erst
S now
Rich ard</w>
Qu e
Photograph y</w>
Oze an</w>
O r</w>
Nach t
N ie
N icht</w>
Musi kin
Mathema tik</w>
Masch inen</w>
M ut</w>
M elo
M c
Lieblings ort</w>
Leist ungen</w>
L ist
Komfor tzone</w>
K uns
K ,</w>
Jap an
Is ra
I ra
He il
Hau t.</w>
H om
H em
Grund lage</w>
Go tt</w>
Gedul d</w>
Gedi chte</w>
Festiv als</w>
Familie ,</w>
F ische</w>
Europ e</w>
Entwickl ungs
Engli sh
Em path
Dis kus
Co un
Ch ic
Ch ance,</w>
Berg gi
Beisp iele</w>
Be zug</w>
Aut or
Afri k
"We il</w>
"S e
"O ur</w>
"O f</w>
"N ot</w>
" Vielleicht</w>
über le
üb ern
ü tzt</w>
Ü ber</w>
ze d.</w>
wunder bar</w>
wor ks.</w>
wo hne</w>
wer de."</w>
wer de"</w>
well-bein g.</w>
wal ked</w>
viol ence</w>
ver mittel
v it
ut en,</w>
univer se.</w>
tra gen."</w>
tier en.</w>
tic ,</w>
ther ap
th row
ten nis</w>
temp or
techn i
te i
sym me
such en,</w>
stre t
str ange</w>
ste ckt</w>
st am
spü re</w>
sp ic
so dass</w>
snow .</w>
shi ps</w>
setz en"</w>
robo ts</w>
ro t
ring ing</w>
redu zier
ra ining</w>
predi ct
poli cy</w>
po ol.</w>
plat ten</w>
plac ed</w>
pic tures</w>
persön liche</w>
p ens
ou ris
opp ing</w>
on lin
ob ses
ob by</w>
net work</w>
min des
mindes tens</w>
min d,</w>
me et
materi al</w>
mach t."</w>
ma p</w>
m id
los sen
lo s.</w>
liter at
lin ks</w>
le er</w>
l äch
l es,</w>
kt or</w>
konn te."</w>
k er.</w>
je wel
inv est</w>
inv ented</w>
interessi ert</w>
inte gr
ing ."""</w>
indescrib able.</w>
impro vis
imp ac
ik o</w>
ig keit</w>
ho he</w>
high .</w>
heiß t,</w>
go tten</w>
gew esen</w>
ges sen.</w>
ges ."</w>
gen der</w>
g t.</w>
führ en,</w>
fulfil ling</w>
ful ness</w>
ful les
fol ge</w>
foc used</w>
flower .</w>
finan cial</w>
fil ms.</w>
fi g</w>
feel ing.</w>
fa i
f s
exhau st
excell ent.</w>
event ually</w>
eri en.</w>
erfris cht</w>
ent weder</w>
ent lang</w>
ema il
eh men</w>
eh en</w>
ear li
dun kl
do gs.</w>
distri bu
dish es</w>
die jen
di et.</w>
defin itely</w>
de ath</w>
data ,</w>
da ma
d ding</w>
d ?</w>
cu te.</w>
cra ft</w>
cor re
conc ept</w>
con f
comm uni
childh ood</w>
charac ter
call ing</w>
c o</w>
blau .</w>
bewus st
ber ich
bein gs</w>
befo re,</w>
b s.</w>
b es</w>
auf gaben</w>
att ac
ast ,</w>
asi at
anc es</w>
amerikan ischen</w>
ali zed</w>
ali sm
actu al</w>
ab en
a war
Zusammen arbeit</w>
Z ügen</w>
Wat ching</w>
W o</w>
V ie
Tre ffen</w>
Sun day</w>
Stär ke</w>
Sor gen</w>
Sk i</w>
Ser ie</w>
Sch mu
Radi o</w>
Ra in
R ät
R icht
R est</w>
Produ kte</w>
Persön lichkeit</w>
Nach mit
N ow,</w>
Musi k,</w>
Mensch en."</w>
L ust</w>
Kommunik ation</w>
Klima wandel</w>
Klas si
Kla vier</w>
Kar te</w>
K rise</w>
Jog gen</w>
Gru pp
Groß es</w>
Go d</w>
Glau ben</w>
Gesund heit.</w>
Gesch le
Ge witter</w>
Fantas ie</w>
Erd be
En gl
E mp
E ating</w>
D en
Chanc en</w>
Büch er
Au ge</w>
All es</w>
A spe
A k
A ,</w>
2 -
1 4</w>
"The y're</w>
"Tat sächlich</w>
"" You</w>
" Heute</w>
ü t
ü h
ö se</w>
zu künf
zu hause</w>
ze hn</w>
z weit
z ell
z ar
year ."</w>
ye t,</w>
y -S
woll te,</w>
wir d"</w>
wi lli
wert volle</w>
verwand el
verfol gen."</w>
ver gessen</w>
v es."</w>
v al</w>
use ful</w>
univers al</w>
ungsk ra
trink en"</w>
trans l
too ."</w>
toler ant</w>
tion s."</w>
though ,</w>
thou sand</w>
te te,</w>
ta ph
sustain able</w>
surro und
sudden ly</w>
su per</w>
spazier en.</w>
spann end,</w>
sor gt</w>
sho p</w>
shar ed</w>
selbst ,</w>
sel e
sel be</w>
secur ity</w>
schätz en</w>
schwier igen</w>
schrie b</w>
sch al
sa iling</w>
s lo
rust le</w>
reich en</w>
re mark
re d,</w>
put s</w>
proje ct.</w>
proc ess.</w>
priv ate</w>
play er.</w>
pic nic
physi cally</w>
peace ful.</w>
p it
p ing.</w>
ous ly,</w>
ou se</w>
oll en</w>
o es</w>
nehm en.</w>
mor al</w>
mo re."</w>
me al.</w>
ma ss</w>
ma ga
kit chen</w>
k einer</w>
je m
is m,</w>
intro duc
inten si
innov ation</w>
inn ere</w>
incredi ble.</w>
in o</w>
ich ts</w>
ho hen</w>
her unter
he utzutage</w>
han g</w>
gestal ten</w>
geschlaf en</w>
ga ther
führ ung</w>
fühl t</w>
funda ment
friend s,</w>
fortun ately,</w>
fle xi
fe ar
far mer
fa il
f on
f ern</w>
es tim
es e
entspann end.</w>
ent lichen</w>
enc y</w>
emo tions</w>
ein iger</w>
e ben</w>
differ ences</w>
day ."""</w>
crow ded</w>
cool .</w>
contri bu
comple ted</w>
come dy</w>
come dies.</w>
ck ."</w>
cit y,</w>
che er
ch tes</w>
ch t."</w>
ch es
caus es</w>
care er</w>
c ent</w>
build ings</w>
bra in,</w>
bl ing</w>
bin ,</w>
bes or
behavi or</w>
be grenz
bau en"</w>
b b
b and
auth or</w>
app le</w>
an del</w>
ah n</w>
a ge.</w>
Z ivi
Wör ter</w>
W ur
W ater</w>
To chter</w>
Teil en</w>
Tageb uch</w>
Super markt</w>
Straß e.</w>
St an
Sport art</w>
Son ne.</w>
Schwi er
Schrift stell
Sch war
Sach e,</w>
S we
S at
Ress ourc
Re gent
Ra ke
R iding</w>
Qu entin</w>
P ool</w>
P as
Mil ch</w>
Leiden schaft.</w>
Kü hl
Kuns thand
Kam era</w>
Jour nali
Jo hn
Jah re,</w>
J a,</w>
In genie
I denti
I ,</w>
Hir n
Groß el
Gleichberechtig ung</w>
Gen au</w>
Fil me.</w>
Far ben.</w>
F ach
Ein k
Eben e</w>
E volution</w>
E ver
De tail
Che m
Bür ger
Best es</w>
Berggi pfel</w>
Bere ich
Begle iter</w>
Ar z
Al gorith
A R
8 ,</w>
7 5</w>
"Y ou
"O kay,</w>
"O h,</w>
"Ein ige</w>
"A n</w>
"" I'm</w>
" Zu
ähn lich</w>
ß en,</w>
Är zte</w>
zuver lässi
zusam men.</w>
wär men</w>
wusst e,</w>
wol ken
whi le,</w>
wa ve</w>
wa ste</w>
vi le
un gen
u ter</w>
u t,</w>
trei bt</w>
tol l</w>
this ?</w>
the ory</w>
taus ende</w>
ta p
t ät</w>
t wi
t ,"</w>
surro unded</w>
sug ges
su cht</w>
ster b
st e.</w>
sprech en.</w>
so wie</w>
skill s</w>
situ ation</w>
sig n</w>
schwer ,</w>
schreib en.</w>
sch e.</w>
sam .</w>
sa v
sa fe
s la
s ""</w>
romant ische</w>
ro und</w>
ro mo
ri er</w>
respe ct
relationshi ps</w>
refle k
proc ess,</w>
pri mar
pre c
pra s
persön lichen</w>
pe l</w>
par ents.</w>
p tion</w>
ord n
olog y</w>
o s.</w>
neigh b
ne y</w>
ne te</w>
natür liche</w>
möglich en</w>
mi ra
mar k</w>
mar athon</w>
mach ten</w>
lieb ste</w>
lie f</w>
li ke
li ert</w>
leg al</w>
lar ger</w>
lap top</w>
ke iten.</w>
ju d
it ."""</w>
issu es</w>
irgend wo</w>
inv est
intelligen ce</w>
indis pens
i es,</w>
hor se</w>
home made</w>
hom e,</w>
hi on</w>
hi d
heu tigen</w>
harmon y</w>
har d.</w>
ha ve,</w>
h us
h en,</w>
guitar .</w>
groß .</w>
gri ff</w>
gesam ten</w>
genom men,</w>
geno ssen</w>
gene tic</w>
ge wicht</w>
fun ny</w>
for m.</w>
fo undation</w>
fil l</w>
fe iern</w>
f er.</w>
experienc ed</w>
et ro
ens wür
en ever</w>
eh ic
e ;</w>
doct or</w>
dire ctly</w>
di agno
denk en.</w>
decisi on</w>
de tail
de mon
daugh ter</w>
da durch</w>
d ächt
cro ss
convers ations.</w>
cont ent</w>
confi den
comp on
commun ity.</w>
col og
co cktail</w>
clim bing</w>
civi liz
chan ce.</w>
ch er
c es.</w>
bu st
break fast.</w>
bli ck
bi ke.</w>
ber n</w>
benötig t</w>
ba ke</w>
att ending</w>
arbeit en.</w>
app ly</w>
an ten</w>
an ten
all ein
abhän gig
ab stra
ab le
a way."</w>
a sed</w>
Zeit ung</w>
Z oo
Z ell
Wochen en
Wer te</w>
Ver besser
V olle
Urlaub .</w>
TV .</w>
T elefon
Ski fahren</w>
Ro tw
Re volution</w>
Re chn
R ä
Präsent ation</w>
Poli ze
Pla ying</w>
P en
O hne</w>
N ur</w>
N ummer</w>
Motorra d</w>
Ma ybe</w>
M ob
Lös ungen</w>
List ening</w>
Li ve-
Le t</w>
L är
K il
Jac ke</w>
Inse kten</w>
Indi an</w>
Harmon ie</w>
Gele genheit</w>
Ge müt
Ge hen</w>
Feuer werk</w>
Fehl ern</w>
Fas hion</w>
F ood</w>
F i
Ergeb nisse</w>
Er hol
Dat en
DI Y</w>
D am
Chin a,</w>
C am
Be obach
Be at
Auto bahn</w>
Amerik a</w>
Al le</w>
A chter
6 ,</w>
4 ,</w>
20 .</w>
10 ,</w>
"W ith
"S ome</w>
"S ome
"Des halb</w>
""W as</w>
Überzeug ungen</w>
Ö l</w>
zwe iten</w>
wür den,</w>
we b
wat er."</w>
was hed</w>
war .</w>
wa ch</w>
w on</w>
w en</w>
vertrau e</w>
vermut lich</w>
ver se</w>
v ehic
ush ing</w>
urb an</w>
unter sche
unbeschreib lich</w>
un ächst</w>
u red</w>
u chen</w>
trin ken</w>
theat er.</w>
tern ."</w>
teach ers</w>
te ur
t ons</w>
stär ker</w>
stor y,</w>
squ e
spr ün
spe zi
spazier en"</w>
sm ar
skydi ving</w>
sitz en."</w>
sich .</w>
sensi tive</w>
sel t
schle chten</w>
sch eln</w>
sag ten:</w>
s old</w>
room ,</w>
rie f</w>
reg ular
reas ons</w>
re chte</w>
prob ieren."</w>
possibili ties</w>
posi tiver</w>
posi tion</w>
po p</w>
po or
pleas ure</w>
person ality.</w>
pa in</w>
p unk
ort ing</w>
open- min
nä her</w>
nur ,</w>
normal erweise</w>
no body</w>
nigh t's</w>
nat ur
möch te."</w>
mov ement</w>
morn ing,</w>
mon it
mit tl
mis takes</w>
milit ary</w>
medic ine</w>
meas ure</w>
low -
lie ß</w>
li ft</w>
l auf</w>
kämp fen."</w>
kil l</w>
ke d.</w>
k nis
k ingly</w>
k ill
jus tic
j ungen</w>
inter ag
in fra
important ly,</w>
igh t,</w>
hä us
hop e
ho tel</w>
histor y,</w>
he it."</w>
he ."</w>
hal tung</w>
ha p
h ood</w>
größ er</w>
gestal ten."</w>
gel an
ge kommen</w>
ge iz
ge bo
g as</w>
g as
führ en.</w>
funktionier t."</w>
frie den
famil y,</w>
fahr en,</w>
f -
ey es.</w>
exp and</w>
ex tra</w>
et c
es ten</w>
es t.</w>
er s."</w>
ep .</w>
entspann e</w>
entdeck en.</w>
ener gi
en s.</w>
en i
en ess</w>
el ess</w>
einzel ne</w>
eff izi
duf tet</w>
di r
des pite</w>
day s,</w>
danc ing.</w>
d opp
d ing.</w>
d ann,</w>
d ?"</w>
cre ati
co de</w>
clou d
clo ser</w>
celebr ated</w>
cat s.</w>
cap ture</w>
café .</w>
bun ten</w>
bu ying</w>
bre chen</w>
bra ins</w>
br u
bot tom</w>
beweg en."</w>
benutz en</w>
bekann t</w>
be teili
bau t</w>
b ist</w>
archite cture.</w>
and ing</w>
anc e."</w>
af ri
ac ci
ab road.</w>
ab ende</w>
Zwe ck</w>
You Tu
W hat's</w>
Vin yl
Ver sion</w>
Tra in
Tar ant
T witter</w>
T i
T aus
T :</w>
T -
Sy n
Städ ten</w>
Stru ktur</w>
Sport arten</w>
S äu
Res ear
Re iten</w>
Progra mm</w>
Phi losoph
Person en</w>
O berfläche</w>
N un,</w>
Mar s</w>
Mar kt
M alen</w>
M R
Liter atur</w>
Lieblingssport art</w>
Liebling sh
Lieb ha
L assen</w>
Kultur en.</w>
Krank en
Klas sen
Kin o.</w>
Kamp f</w>
Kam er
K n
J ames</w>
In fra
Holl y
Her kun
Gr öß
Go t
Geor ge</w>
Gemäl de</w>
G an
G a
Freu de.</w>
Forsch er</w>
Din ge.</w>
Des halb</w>
Dat en,</w>
Com ed
Brie f
Bir ds</w>
Besser es</w>
Be itra
B run
B on
B illi
Aus stellung</w>
Amerik aner</w>
A stronom
A ction
. )</w>
( Beifall)</w>
""W h
"" Hey,</w>
z y
z ies</w>
y ing.</w>
wur den,</w>
win z
wieder hol
weiter hin</w>
we isen</w>
vie w.</w>
verdi ent</w>
up s</w>
unverzicht bar</w>
um geben</w>
u ra
two ,</w>
treff en"</w>
train ed</w>
tra in.</w>
tra ck</w>
top ics.</w>
top .</w>
to x
thin king.</w>
tem pl
system s,</w>
stron g.</w>
st off</w>
spr ingt</w>
spiel en,</w>
soo thing.</w>
some day</w>
solu tion</w>
soft ware</w>
sitz en"</w>
situ ations.</w>
sh aring</w>
separ ate</w>
sel t</w>
sel l</w>
s low</w>
s ligh
s end
s )</w>
rän k
ru fen</w>
resear ch
rele v
rel ativ
refresh ing</w>
re i
re fres
progres s</w>
produ cts.</w>
practic ing</w>
positiv ely.</w>
par ks</w>
optimist isch</w>
opini ons</w>
offen sichtlich</w>
obvi ously</w>
notwen dig</w>
nehm en"</w>
n ers</w>
motiv ate</w>
mom ent,</w>
memor y</w>
me ."""</w>
mar ried</w>
ma xim
m ood</w>
liv es."</w>
lich erweise</w>
less on</w>
les en,</w>
leidenschaft licher</w>
lea der
le isten</w>
konn ten."</w>
kling elt</w>
jour nali
j unk
j ag
interess ant.</w>
inspirier end</w>
in strument
imp le
ic ro
ic ,</w>
i ds</w>
hol ding</w>
hin zu
herr lich</w>
heil ende</w>
hand eln</w>
gu cke</w>
global e</w>
ges und.</w>
gemä htem</w>
gehab t.</w>
ge zeigt</w>
ge gessen.</w>
ful ."</w>
friendshi ps.</w>
fre e.</w>
fra gen,</w>
flu ently.</w>
fil me</w>
fiel d.</w>
festiv al</w>
fas s
f ting</w>
f abri
expe ct</w>
ex ten
erreich en,</w>
erledi gt</w>
erinn ern</w>
er ung</w>
er 's</w>
emp ty</w>
em s.</w>
em bra
einfach ,</w>
eben so</w>
drit te</w>
dra w.</w>
diver se</w>
determin ed</w>
destin ation</w>
de -
dar k.</w>
d lichen</w>
craf ts.</w>
conne ction</w>
con ven
con sequ
communic ate</w>
com po
colleagu es</w>
co w</w>
clear ly</w>
ch ron
celebr ating</w>
cau se,</w>
car rying</w>
capac ity</w>
cal cul
c s</w>
bo tt
blei bt</w>
bl ä
bicy cle.</w>
bewe gt</w>
bestimm te</w>
bes ter</w>
beobach ten</w>
bege gn
bedeck t</w>
b on
b a</w>
aver age</w>
auf grund</w>
at ."</w>
ar y,</w>
appoint ment</w>
anz uneh
an s.</w>
ag ri
activi ties</w>
abo ve</w>
Zivi lis
Zahl en</w>
Y oga.</w>
Wal d
W here</w>
Ve get
V ari
Tradi tionen</w>
Telef on</w>
Sta aten</w>
St un
St ro
S in
Reis e
Rad fahren</w>
Proje kten</w>
Proje k
Pre is</w>
Pick nick
Oka y.</w>
No t
N un</w>
Mon aten</w>
Mit mensch
M er
M I
Lon don</w>
Lieblingsjahres zeit</w>
Lebensmit tel</w>
Lebens sti
La une</w>
L aub</w>
L :</w>
Kur z
K ön
K äl
K ing</w>
K al
K ak
Jan u
Itali en</w>
Inter ak
Hö hen</w>
Hän de</w>
H unger</w>
Groß brit
Gesch äf
Gebor genheit</w>
Ge dächt
Früh aufsteh
Franc is
Fra ge,</w>
F la
F isch</w>
Engli sch</w>
E-Ma ils</w>
E th
Des ign
De fin
D ie
Com ics</w>
Be i</w>
B us
B eine</w>
An zahl</w>
Al b
A f
7 ,</w>
20 00</w>
"W arum</w>
"V on</w>
"V iele</w>
"H ere</w>
"Dies er</w>
" Natürlich</w>
ß ,</w>
zeig en.</w>
z heim
wä hlen</w>
work out</w>
who 's</w>
wend ung</w>
weiter es</w>
was h</w>
wa ves.</w>
w ächst</w>
w esen</w>
vor .</w>
ver letz
ver gan
ver ein
vegetab les</w>
v ul
un s.</w>
umin dest</w>
um ge
tz e
ty pic
two -
trauri g</w>
too l</w>
tig ung</w>
this :</w>
there fore</w>
the o
ten ?"</w>
televisi on.</w>
technologi es</w>
taus end</w>
tal ent</w>
ta g.</w>
t liche</w>
t is
t ;
sustain ability</w>
success ful.</w>
sty le</w>
streng th
steig en</w>
st ür
st en.</w>
st ar</w>
st and.</w>
st -
spra ch</w>
spann end.</w>
sp in
sp iegel
soll ."</w>
so ."</w>
smit tel</w>
ski ing</w>
sing s</w>
si ert</w>
sho wer
seri ous</w>
sel ten</w>
se ite</w>
schaf ft</w>
sch we
s weise</w>
righ t."</w>
ren e
rel le</w>
regular ly.</w>
re qu
re de</w>
r y
r ar
proble m.</w>
proble m."</w>
prakt isch</w>
possi bility</w>
polit ischen</w>
pla y.</w>
per s</w>
passier t."</w>
pas ses</w>
p are</w>
p al
or der
op enn
oka y,</w>
off ."</w>
oder ?"</w>
occ ur
no vel</w>
nigh t
neu n</w>
nee d.</w>
near ly</w>
n imm
myself ,</w>
moder ne</w>
min im
medit ate.</w>
materi als</w>
mag n
m ann
lus tig</w>
literat ure.</w>
list ened</w>
le x
le d.</w>
lau ten</w>
la ws</w>
l ing.</w>
kultu re
ko chen."</w>
ket ball.</w>
k espe
it zen</w>
it ung</w>
it e,</w>
isch ."</w>
ill a</w>
i let
hin .</w>
him .</w>
he ad.</w>
he a
hand ,</w>
h aus
h and.</w>
h ."</w>
glass es.</w>
gh .</w>
gesp annt</w>
gesch ick
ges etzt</w>
gemach t,</w>
g ä
g es,</w>
fä hig</w>
friendshi ps</w>
forwar d.</w>
fol gen</w>
fo ssi
fin ally,</w>
fic tion.</w>
faszinier ende</w>
famili ar</w>
fall .</w>
fa ster</w>
extra ordinary</w>
exo tic</w>
exis tier
ex e
evolu tion
es t,</w>
es :</w>
equ ality</w>
equ al</w>
environment ,</w>
energ y,</w>
en det</w>
emplo ye
emp ty.</w>
dun kel</w>
du ften</w>
drück en</w>
dro p</w>
dream .</w>
dist ance.</w>
dise ase</w>
denk en"</w>
de t.</w>
de dic
dau er
cycl ing</w>
coo per
con ver
con tex
co cktail
clo thing</w>
cl es</w>
childr en,</w>
chan ges.</w>
cam pa
cam er
c tion."</w>
c .</w>
bus y</w>
bring ing</w>
bot tle</w>
bo x
blo ck
bis her</w>
biolog ical</w>
bewirk en.</w>
bei zu
beg le
beeindruck end.</w>
be kam</w>
bal lo
back ."</w>
b ung</w>
b t,</w>
auf merk
au to</w>
at temp
app lic
an a</w>
all ge
ad es</w>
ad ."</w>
ac cording</w>
aben teuer
a spe
a o</w>
Zu frieden
Zentr um</w>
Wü ste</w>
Wiki pedi
Wi der
Was hing
Trä u
Theor ie</w>
Te ile</w>
T ä
Sha kespe
Seh en</w>
Schwimm bad</w>
Schmu ck</w>
Schat ten</w>
Roman e</w>
Regen wetter</w>
Rau m
R is
Proble men</w>
Pro t
Pingu ine</w>
Part ys</w>
Par k
P aul</w>
Organis ation</w>
Or ten</w>
Nahr ung</w>
Möglichke iten.</w>
Musikin strum
Me chan
Materi al</w>
Mahl zeit</w>
Lie ben</w>
Li fe
Leiden schaften</w>
Leb en."</w>
L augh
Kom pli
Ju li
Ju gend
Hig h</w>
Her r</w>
Haus aufgaben</w>
H ere</w>
Großel tern</w>
Groß mut
Ger icht</w>
G o</w>
Frau en,</w>
Fo togra
Fern se
Face book</w>
F enst
En ga
E duc
Dokument ationen</w>
D ri
D ing</w>
Cou ch</w>
Com m
C or
Bri lle</w>
Boo t</w>
B eing</w>
Auto fahren</w>
Al zheim
Al so,</w>
A ch
2 ,
10 ,000</w>
"J ust</w>
"E very</w>
"E ven</w>
"D u</w>
"B ut,</w>
’ t</w>
üs se</w>
ück en</w>
ät sch
Ö l
zieh en,</w>
zeig te</w>
zeich net</w>
z e.</w>
wor ry</w>
wor den</w>
wohn er</w>
wh el
wen ig
water fall</w>
wa ys,</w>
w s.</w>
vor her</w>
vil la
vi es</w>
veränder n."</w>
ver lier
ver füg
unter rich
und en,</w>
um m
treib en."</w>
treib en"</w>
ti k.</w>
think ing,</w>
ther 's</w>
ten nis.</w>
telefon iert</w>
te t:</w>
te e</w>
swee t.</w>
supp or
su gar
stu dies</w>
stress ful.</w>
sti c</w>
spe kta
sp lan
sou p</w>
sou l</w>
some time.</w>
se x</w>
sci ence.</w>
schau t</w>
sam es</w>
sa d</w>
s na
s es.</w>
rit u
ri de.</w>
rep ort</w>
re gn
re duc
rap id
quari um</w>
pre pare</w>
positiv e.</w>
pleas ant</w>
pl ätsch
pic ture.</w>
photogra ph</w>
perfek ter</w>
perfe ct.</w>
perc ep
perc ent."</w>
passi eren</w>
pa id</w>
p ."</w>
ou s."</w>
ord entlich</w>
on e-
ome ter</w>
om ,</w>
ok e.</w>
o sau
o c
no ther</w>
no ch
no ,</w>
newsp a
nenn e</w>
ne l</w>
möglich ,</w>
mö gliche</w>
musici an</w>
mus h
most ly</w>
min is
mel t</w>
medit ation</w>
medi a.</w>
mean ing
massi ve</w>
mag isch</w>
mach ines</w>
lo ve,</w>
lo sing</w>
lit t
lie be
lich keit.</w>
libr ary.</w>
letz ter</w>
les en.</w>
leck eren</w>
lea ving</w>
le y</w>
langweili g</w>
la den</w>
könn ten,</w>
kultu relle</w>
kre ativen</w>
k ol
j ün
iz ing</w>
is on</w>
inv it
inspi ration</w>
individu als</w>
ie d</w>
identi fy</w>
ide t</w>
i tion</w>
häl t
hum or
hr ,</w>
horiz ons.</w>
ho ch.</w>
her z
he d.</w>
he aring</w>
größ eren</w>
großar tiger</w>
gli tz
gi ant</w>
gh an
gestell t.</w>
gestell t,</w>
gespro chen</w>
ges unden</w>
gerich tet</w>
genu tzt</w>
gen d,</w>
gemein same</w>
gegen seitig</w>
geb il
ge geben</w>
garden ing.</w>
ga in</w>
füll t</w>
führ en"</w>
fär bt</w>
fulles t.</w>
fores ts</w>
fi x</w>
fer enz</w>
fei ern"</w>
f ein
extre me</w>
ev ent</w>
escap e</w>
erklär en,</w>
erkenn en</w>
entscheid en,</w>
ent lang.</w>
end "</w>
en der
em .</w>
el y,</w>
el n."</w>
ein ."</w>
dra wing</w>
dow n."</w>
door -
don e.</w>
document aries</w>
dist ance</w>
dis ku
di g,</w>
desser t.</w>
desig ning</w>
der ung</w>
de cke</w>
d ly,</w>
d ings</w>
d es,</w>
cuis ine.</w>
cou ch</w>
cor por
che ese</w>
chan ge."</w>
chan ge,</w>
cas es</w>
car e.</w>
bun te</w>
bun ch</w>
brigh tly.</w>
bri lli
breathta kingly</w>
bra in
bestimm t</w>
bereich ern</w>
be er.</w>
basi er
bas is</w>
bar er</w>
ba u</w>
b ells</w>
aufrä umen</w>
ast rop
arti ficial</w>
aro und,</w>
arbeite t."</w>
ar m
any body</w>
and a</w>
an no
amaz ing.</w>
ali z
al le,</w>
al co
ah ,</w>
adv an
a bet
Zahn ar
W illi
W hen</w>
Univers ums</w>
Trä umen</w>
To m</w>
Tit an
Th en</w>
Te e.</w>
T emp
Stu denten</w>
Str ateg
Spe zies</w>
Sol ar
Schicks al</w>
Ri es
Polize i</w>
Poli tics</w>
Perspe ktive</w>
Pa in
P ort
P lä
P las
P ic
Out door-
Net z</w>
Ne ue</w>
Musik festivals</w>
Mo vies</w>
Me eres</w>
M idd
M icro
Länder .</w>
Le uten,</w>
L a</w>
Ku h</w>
Komödi en</w>
In te
I mp
Heim at
HI V
Gre at</w>
Go d
G ri
Fel d</w>
Famili en</w>
Europe an</w>
Erfol ge</w>
Erfahr ungen,</w>
Dor f</w>
Demokra tie</w>
Dau men</w>
Christ mas.</w>
C E
Brit ish</w>
Bl ut
Bedürf nisse</w>
Ba hn
B lau
B ig</w>
B arbe
B ank
Aus zeit</w>
Ab schl
6 00</w>
2 .
"Z u</w>
"With out</w>
"O n
"H ow</w>
"A u
"" S
"" .</w>
" [
“ "</w>
änder t</w>
z iel</w>
z .
z. B.</w>
wär ts</w>
wor king.</w>
won der</w>
who se</w>
wer den"</w>
weit er.</w>
we ir
we b</w>
was ser</w>
warm ly</w>
wahr e</w>
wa chen</w>
w uch
w ber
viel es</w>
vi ous</w>
ves ti
ver s</w>
ver kauft</w>
ver hinder
v elling</w>
us ual</w>
us si
unver gleich
unterschied lichen</w>
under stand
unabhän g
um :</w>
tran spor
tiv en</w>
ti ker</w>
th row</w>
tas ks</w>
swe at
such en."</w>
stron g
stress ful</w>
str ö
ster ben</w>
st ets</w>
st er.</w>
spre chen
spo t</w>
spekta kul
spazier gang</w>
solu tions</w>
soll ten,</w>
soll en</w>
sol chen</w>
so :</w>
sm art
sligh tly</w>
si mul
selbst gemach
secur ity.</w>
se a
schaf t."</w>
sch er</w>
s ushi</w>
s es,</w>
s cul
ru ft</w>
ri es.</w>
ri eren</w>
ri c</w>
resul ts</w>
res ources</w>
rel ated</w>
rec ent</w>
rea lit
re turn</w>
re den,</w>
re ac
rais ed</w>
prä sen
po se</w>
pl us</w>
pie ces</w>
perio d</w>
p tem
over whel
origin al</w>
olog n
olo gen</w>
off ,</w>
num ber
net t</w>
nach ts</w>
n ess,</w>
n er,</w>
n en.</w>
mu tig</w>
motiv iert</w>
model s</w>
mis sing</w>
mi an</w>
me ters</w>
man age</w>
majes tic.</w>
mag ical</w>
ma tion</w>
ma tically</w>
läs st."</w>
lo ving</w>
lo s,</w>
lie bst
licen se</w>
li fel
lear ning.</w>
la ven
kümmer n</w>
kü hl</w>
kri min
komm enden</w>
kam ,</w>
jum ping</w>
job s</w>
it i</w>
ir s</w>
infin ite</w>
in f
in ev
inev it
in come</w>
in ary</w>
impro vem
ic s,</w>
i an</w>
hung ri
hervor ra
her zu
heav y</w>
he mian</w>
he ben</w>
haup ts
hap so
hand s.</w>
gän gen</w>
gu t."</w>
gif ts.</w>
gestres st</w>
gesch ä
gesch ichte</w>
gesch ich
gehör t.</w>
ge träum
ge dul
ge "</w>
gan zes</w>
fär ben</w>
fun n
fulfil led</w>
fulfil l</w>
friendshi p.</w>
for got</w>
fol lowing</w>
fl äch
fl at
fire works</w>
fin ish</w>
fess or</w>
fan gen.</w>
f iel</w>
expres sing</w>
expe ct
es cop
ersch ein</w>
ermöglich t</w>
erkun den"</w>
erk unden."</w>
er inner
equi p
equ ality.</w>
ep res
entspann en.</w>
enti rely</w>
enough .</w>
enorm ous</w>
en ""</w>
el se
el le,</w>
einfach er</w>
ehr geiz
econom y</w>
e colog
e ?"</w>
driver 's</w>
drau ßen.</w>
dra g
doct ors</w>
di vi
di d."</w>
di ary.</w>
des tru
des tro
den e</w>
de ten</w>
da s.</w>
d ;</w>
cou ra
consci ous
compu ter.</w>
communic ation</w>
com passion.</w>
com mer
clu b</w>
ci ties.</w>
chir p</w>
cat ch</w>
c ute</w>
c tions.</w>
c ing</w>
c a</w>
bu ch
bloo m</w>
be dro
bar king</w>
balcon y.</w>
b uch</w>
b ou
auth en
ausprob iert.</w>
ateg or
at es.</w>
art istic</w>
arbeit er</w>
ank s</w>
an spru
adventur ous</w>
ad en.</w>
ac i
abili ties.</w>
ab les</w>
a oke.</w>
Yor k,</w>
Wirk lichkeit</w>
Wahr schein
Wahr nehm
W est</w>
Ver letz
V ier
U N
Theat er
Ta king</w>
Sonnenauf gänge</w>
Som mer.</w>
Se ptem
S he
Re par
R igh
R hapso
Po dcasts</w>
Perspe ktiven</w>
Par is.</w>
Pap ier</w>
Off enheit</w>
Ne ur
N er
Mein ung,</w>
Lieblings sport</w>
Lieblings beschäftig
Lauf e</w>
La ge,</w>
L icht
Kon ta
Kohl enst
Klei der
Japan ese</w>
Intelligen z</w>
I r
Herausforder ungen.</w>
Ha are</w>
H itze</w>
H alt</w>
H allo
H al
Gra d</w>
Gr enz
Geschäft s
Ger man</w>
Führ erschein</w>
Fu ß</w>
Fren ch</w>
Frei willi
Frei heit.</w>
Fitnessstudi o.</w>
Fa vor
F ru
Entspann ung.</w>
Empath ie</w>
Ear th
E ch
Dan ke</w>
D rit
Che f</w>
Büch ern.</w>
Bü hne</w>
Brit a
Bo st
Bo hemian</w>
Bo den.</w>
Bi o
Beitra g</w>
Be ge
Bau m
Bau ch
B us</w>
Arbeit stag</w>
Arbeit sk
Acht samkeit</w>
A th
199 0
1 2.</w>
"Un ser</w>
"Un fortunately,</w>
"N ein,</w>
"In ste
"D am
""W arum</w>
"" Wir</w>
ö l
Ö ko
Ö ff
zurück zu
zu gän
zu ."</w>
zer o</w>
ze ."</w>
yel low</w>
y a</w>
writ er.</w>
wonder s</w>
wirk t</w>
winter ,</w>
wi fe</w>
wel cher</w>
weit eren</w>
vul ner
vil lage</w>
verur sach
verbin den</w>
verantwor tlich</w>
ver wirr
uns ch</w>
under stood</w>
um s
ul l
tur es,</w>
tro ver
trie ben</w>
tri ck
tiv e.</w>
ti red.</w>
thre at
themsel ves.</w>
th rop
t tern</w>
t ing,</w>
t ent</w>
sy steme</w>
supp ort.</w>
sun ris
stressi g</w>
streng then</w>
str au
st ens</w>
sprech en"</w>
sor g
some where</w>
simp li
sie :</w>
si de
shor t,</w>
scul p
schütz en</w>
schö p
schwimm en."</w>
schl and</w>
sch lagen</w>
sch lag</w>
sch en."</w>
sch ,</w>
sammel n."</w>
s orts</w>
s neak
s is
rust ling</w>
restaur ant.</w>
respon se</w>
respon d</w>
read y.</w>
re war
re d."</w>
re chn
ra ce</w>
r hyth
qu es</w>
puzz les.</w>
publi shed</w>
promo te</w>
produc tion</w>
pleas ure.</w>
ple x
plac e."</w>
pl astic</w>
per man
pas sen</w>
optimis tic.</w>
op ened</w>
off ice.</w>
off ene</w>
obje cts</w>
obje ct</w>
nütz lich</w>
nä h
nigh ts</w>
neh men
necess arily</w>
na he</w>
much ."</w>
mo m</w>
mil k.</w>
mehr .</w>
mehr ,</w>
me t
mani pul
mach in
lifel ong</w>
li c</w>
la y</w>
la p.</w>
l ust</w>
köst lich.</w>
kur s</w>
kt es</w>
kon om
kann te</w>
k s
k id</w>
jo in</w>
it ting</w>
ist ische</w>
ing re
in compar
imagin ation.</w>
im possible</w>
igh t
iel le</w>
iden t</w>
i der</w>
hör te</w>
hät te,</w>
her ."</w>
hel p.</w>
hair dres
hab it
ha s
ha f
gu tem</w>
glo cken</w>
gh t.</w>
gewor den</w>
gespiel t</w>
gelern t,</w>
geko cht</w>
geheim nis
ge wasch
gab ,</w>
g keit</w>
fä ll
ful l.</w>
fru it.</w>
flü ge</w>
fit ness.</w>
fiel ds</w>
fe ed</w>
fan gen."</w>
fa ith</w>
exc ept</w>
ess en,</w>
erwä hn
er r
er fas
entwickel ten</w>
ent wer
ele ct
einzu tau
einz igen</w>
ein fühl
eben falls</w>
easi er.</w>
e ""</w>
draw ing.</w>
di es,</w>
decor ate</w>
de aling</w>
de ad</w>
dar kn
da ten</w>
d ün
cri tical</w>
chem ical</w>
car ,</w>
bro ke</w>
bro aden</w>
bri d
bleib en,</w>
bes ei
begann en</w>
beein dru
be handelt</w>
be ding
barbe cu
bar ks</w>
bar ."</w>
bal ance.</w>
ba d.</w>
b ill
b ag
ant um</w>
ansteck end</w>
angeneh m.</w>
and el
an ischen</w>
an geh
an e</w>
all es.</w>
al though</w>
agre e</w>
ag ra
advent ures</w>
ada p
achievem ents</w>
ab out."</w>
ab ge
a gen</w>
Zeit punkt</w>
Yor k.</w>
Yeah ,</w>
Werk zeuge</w>
Wasser fall</w>
Wasser ,</w>
W and
Video spiele</w>
Univers ity</w>
Un abhängig
Ther ap
Ter min</w>
Sym bo
Sy steme</w>
St ellen</w>
Spe zi
Sp itze</w>
Sch utz</w>
Sa una</w>
S ingen</w>
S im
S i
Road trip</w>
Re volu
Pap ier
O ma</w>
N .</w>
Musi cal
Midd le</w>
Medi zin
Lieblingsh obby</w>
Lieblings ger
Le ktion</w>
Land schaft.</w>
Lag er
L im
L ib
Kur s</w>
Kre is
K üch
Je de</w>
Jah res</w>
Inter esse</w>
In tui
Hinter grund</w>
Hel den</w>
Gra s.</w>
Gesch wis
Gen au
G P
Fris e
Fl üch
Fil ma
F äl
F ein
F an
Enga gement</w>
Ein fach
Deut schland</w>
DI Y
C aliforni
C D
Bau m.</w>
B row
B all
Auß en
Arm ut</w>
AID S</w>
A me
A da
9 ,</w>
2 1
- year-old</w>
- life</w>
( Music)</w>
"N icht</w>
""Wh y</w>
""W hat</w>
"" This</w>
"" -
" Ver
äng sti
zwe if
zufä llig</w>
z wan
y ar
win dow</w>
wi de</w>
wi d
wen den</w>
welt we
weit er."</w>
we ver,</w>
we ig
wander n."</w>
wander n"</w>
wahr er</w>
w ör
w est
verwirk lichen</w>
verwen det</w>
veranstal tungen</w>
ver lieren</w>
ver le
v an
ur laub
unter halten</w>
unglaub lich.</w>
um ?</w>
u tion</w>
tre u
tre m
to ."</w>
thum b</w>
ther ape
temper ature</w>
tel ,</w>
teil en."</w>
teen ag
tanz en"</w>
tan zt</w>
sü ß
swit ch</w>
swi m.</w>
survi ve</w>
sur ve
sun rise</w>
strong ly</w>
step s</w>
stell t,</w>
steh t,</w>
sta ying</w>
st rier
st e."</w>
sm art</w>
sieh t."</w>
si li
sho t</w>
sen se,</w>
see med</w>
se li
schnit t</w>
sc op
sc en
s th
ro ck.</w>
rich tung</w>
religi ous</w>
rel ativ</w>
reg ul
refle ct</w>
recei ve</w>
re pres
re por
re mind</w>
pur ring</w>
progra ms</w>
productiv e.</w>
produc ts</w>
prin t</w>
pr äch
possi bly</w>
pian o.</w>
pflan z
perspectiv es.</w>
pat tern</w>
past a</w>
passi ons.</w>
pas sen
ow l</w>
other s,</w>
opportun ity.</w>
o h,</w>
ner vö
nenn t</w>
nach denken,</w>
män n
multi ple</w>
much ,</w>
mou se</w>
mon th.</w>
mer ik
meist ens</w>
mar ath
mag ne
m ann</w>
lös en."</w>
lu x
low .</w>
lok ale</w>
lo t,</w>
limit ed</w>
li ked</w>
les e,</w>
lern te</w>
leich t,</w>
le ts</w>
laundr y.</w>
lau tet:</w>
las sen
lang fris
la st
l ück
l ack</w>
l abor
künst ler
krä f
kost en
konn ten,</w>
klass ische</w>
kenn e</w>
keep ing</w>
ke ys</w>
k rit
j ene</w>
j ap
ist s.</w>
inter act</w>
ingre di
ing ?</w>
in t
immer se</w>
il ."</w>
ic e."</w>
höch ste</w>
hö her</w>
hin ein
heiß er</w>
he art
har te</w>
h is
h ill
gru ppe</w>
grou ps</w>
gr an
go al.</w>
gif ts</w>
gesch aut</w>
ger ."</w>
gener al</w>
geb ro
ge m</w>
ge br
gam e.</w>
g sten</w>
g all
fur nis
fun ction
fu hr</w>
fru its.</w>
foo tball</w>
flü ssi
fl at</w>
fin anz
fi x
fi re.</w>
f ische</w>
f erne</w>
f and
exp an
es te</w>
ern d</w>
erle dig
erkun den</w>
ep iso
entwickel t,</w>
ent sch
ent führen</w>
enh aus</w>
encou rage</w>
em pa
ell es</w>
el ."</w>
e wi
diver se.</w>
differ ent.</w>
di e.</w>
der s.</w>
de e
de d,</w>
das selbe</w>
d um
d eln</w>
cycl ing.</w>
curi ous.</w>
ctu al</w>
countri es,</w>
countr y
cou rage</w>
confi dence</w>
concer ts</w>
con text</w>
comple x
commun ity,</w>
colle ctive</w>
ch s
ch in
cap it
cam p</w>
build ings.</w>
brow se</w>
bring t."</w>
bod y's</w>
bl es</w>
bet ro
bes ag
belie ved</w>
bedeu ten</w>
be kommt</w>
be frei
bas ketball</w>
aufgeräum t</w>
art ists</w>
ar ms</w>
ar ch
appe ars</w>
appe ar</w>
anc y</w>
aktu elle</w>
ak s</w>
ag o."</w>
ag ne</w>
afterno on.</w>
ad ver
a way,</w>
Z elle</w>
Z au
Wäl der</w>
Wor k</w>
Wichtig keit</w>
Wes tern</w>
W unsch</w>
W er</w>
Vor ur
Video s</w>
U m</w>
U S</w>
Tre ib
T rin
Sun sets</w>
Studi en</w>
Stern en
St amm
Sp r
So hn</w>
Schlüs sel
Schl ag
Sch le
Sch ach
S icht</w>
S ho
S ar
S af
S -
Roman en</w>
Risi ko
Ressourc en</w>
Resear ch</w>
Rel ax
Re chte</w>
R itu
Publik um</w>
Prinzi p</w>
Pri vat
Po tter
Pil ze</w>
Pati ent
Par te
P izza.</w>
P hän
O k
No .</w>
Nachmit tag</w>
N äch
N erv
Musi cal</w>
Mus li
Mor e</w>
Mod ell</w>
Mo tiv
Mo der
Mit gefühl
Medikam ente</w>
Mar vel</w>
M und</w>
M ir</w>
M au
Liebha ber</w>
Lie be,</w>
Leist ung</w>
Le be
Land ,</w>
Kä mp
Kre bs
Krank heit</w>
Kin der.</w>
K i
Inter net,</w>
Indu stri
Hobb y
Histor y</w>
Him mel
Herbst .</w>
Go tt
Gesell schafts
Gesell schaft.</w>
Gelegen heit,</w>
Fremd sprache</w>
Fenst er.</w>
F un
Erfin dung</w>
Er füll
Ele ktr
Ele fan
Ear th,</w>
E s
De bat
C D</w>
Buch es</w>
Ber uf</w>
Beg inn</w>
Bab y</w>
Ba de
B ologn
Archite ktur
Arbeit splatz</w>
Ar m</w>
An aly
Ad vent
A t</w>
4 00</w>
19 .</w>
. “</w>
- Musik</w>
' s,</w>
"Ob wohl</w>
"N o</w>
"J a,</w>
"I hr</w>
"F rom</w>
Än gste</w>
zo g</w>
wor se</w>
wo ke</w>
with ,</w>
wher e.</w>
wh enever</w>
we g.</w>
wach s
wa gen</w>
wa cht</w>
w ü
w inn
w ein
vis ible</w>
verwend en,</w>
verges sen,</w>
verdi enen</w>
ver liebt</w>
ur sprün
up on</w>
unterstütz en."</w>
unterschied lich</w>
unter .</w>
un k</w>
uch en.</w>
trä ge</w>
tro tz</w>
tri es</w>
treff en,</w>
tre ated</w>
tran spar
tim es."</w>
tier ten</w>
tier te</w>
tie fe</w>
thin k.</w>
they 'll</w>
the -
terri ble</w>
te am
t win
t ung,</w>
t in</w>
t ation</w>
symbo l</w>
sur fac
super market</w>
sum mt</w>
stü cke</w>
stu ck</w>
strahl t</w>
stor y
stoff e</w>
st en
spon tan</w>
spi der</w>
spe ziel
spar kle</w>
spac e.</w>
sp las
some what</w>
some times.</w>
som it</w>
snow boar
skydi ving.</w>
sing e</w>
signific ant</w>
sich ten</w>
si eren</w>
si e."</w>
si chti
sh in
sens es.</w>
sel y</w>
sein es</w>
se e.</w>
schütz en."</w>
s ung
remem ber
remark able</w>
reich e</w>
recor d</w>
rech ten</w>
re present</w>
re in</w>
pro to
pres er
prepar ed</w>
pras selt</w>
post car
poin ts</w>
poin t.</w>
perspe ctive</w>
perfe ctly</w>
per ,</w>
pattern s</w>
p ure</w>
p ad
opini on.</w>
onar do</w>
olog ical</w>
nis se.</w>
ne i
my ster
mone y.</w>
mit ten</w>
min ute</w>
mer ."</w>
men te</w>
medizin ischen</w>
me ter</w>
me ister
manu fac
ma ßen</w>
m essen</w>
luck y</w>
lon g.</w>
lo ssen,</w>
ligh t
liebha ber.</w>
lich em</w>
li t</w>
li mm
let ting</w>
less ons</w>
lea ders</w>
le un
le m
le ft,</w>
le ft
kürz lich</w>
könn ten."</w>
ku chen</w>
kre ativ
ke t.</w>
kauf en."</w>
k te.</w>
k olle
k m</w>
k en."</w>
job ,</w>
jewel ry.</w>
it ?"</w>
inves tieren</w>
inv ite</w>
instrum ent</w>
infin itely</w>
inde ed,</w>
increas ing</w>
import ant,</w>
ill umin
ig or
ide al</w>
ic ."</w>
hop e.</w>
hol .</w>
high est</w>
hiel ten</w>
heir ate
haupts ächlich</w>
hau se.</w>
har d
happ y."</w>
hal be</w>
hair .</w>
größ ter</w>
größ ere</w>
großar tigen</w>
grate ful.</w>
gradu ate</w>
gesell schaft
ges chn
ger s</w>
ger ing
gelö st</w>
gehör t,</w>
geb acken</w>
ge plan
ge dach
ga in,</w>
g ünsti
g st</w>
g ie
fur cht
fru its</w>
fire place.</w>
fin det,</w>
fin den"</w>
fes t,</w>
fes sel
fashi on</w>
f ran
f erien</w>
exc ep
ex am</w>
et s,</w>
es i
erzähl te</w>
erzähl en.</w>
erweit ern</w>
erweit ern."</w>
ern en</w>
er mu
entwickel n,</w>
enth äl
ent steht</w>
ens wer
enc es.</w>
en g</w>
email s.</w>
el s.</w>
el et
einf ach.</w>
e o
e co
dr innen</w>
dist ant</w>
dis crimin
diejen igen,</w>
di et</w>
deut lich</w>
desser t</w>
desig n.</w>
d 's</w>
craw ls</w>
cou ch.</w>
consci ous</w>
confiden ce.</w>
con templ
compar ed</w>
com ics.</w>
co tt
ch at
centur y,</w>
cau ght</w>
cat s</w>
car ry</w>
car ries</w>
c y.</w>
bun gee</w>
br un
bo x.</w>
bo w
bo dies</w>
besuch en.</w>
beg onnen</w>
be mer
be haup
bas ketball.</w>
b ase</w>
außer dem</w>
auszudrück en"</w>
at t</w>
ari a</w>
ar en</w>
any where</w>
any more.</w>
anspru chs
an schau
an ger</w>
an en</w>
amerikan ische</w>
all erg
al d</w>
air p
afri kan
ad a</w>
ach ten</w>
ach ten."</w>
ac cur
abili ties</w>
a de.</w>
Zuhör er</w>
Yeah .</w>
Wer t
W est
Visi on</w>
Vie t
V at
Unterschie de</w>
Unter such
Um wel
Tit el</w>
T onnen</w>
Symbo l</w>
Su ppe</w>
Sp ending</w>
Schön eres</w>
Schreib tisch</w>
Schokola denk
Schokola den
Sch e
Rotw ein</w>
Reis e,</w>
Psych ologie</w>
Post kar
Po tter.</w>
Pfer d</w>
Person ,</w>
Pe ace</w>
P r
P ha
P aul
OK .</w>
O kay,</w>
O h,</w>
O ber
Netz werk</w>
Ne w
Mounta ins</w>
Mit tel</w>
Mi lit
M uss</w>
Li ve</w>
Li ke</w>
Land wirt
Land schaften</w>
L ou
L auf</w>
L and.</w>
Käl te</w>
Kunst werke</w>
Konz ent
Kon tin
Kir chen
K önnen</w>
Job .</w>
In vesti
Hö he</w>
Häus er</w>
Hob bi
H under
H aben</w>
Großmut ter</w>
Getr änk</w>
Gesich t.</w>
Gesch windigkeit</w>
Ger ich
Frühl ing.</w>
Freu den</w>
Fotograf ieren</w>
Fir men</w>
Experim ent</w>
Er wachsen
Entdeck ungen</w>
Eink lang</w>
Educ ation</w>
E i
Des ser
D y
D epres
Char les</w>
C enter</w>
Brü cke</w>
Bru der</w>
Bro t.</w>
Bewusst sein</w>
Berl in</w>
Be droh
Bat ter
Aus bildung</w>
Au di
Antwor ten</w>
Angel es</w>
An blick</w>
Af ghan
- jähri
, 000
"Z weit
"W er</w>
"O K,</w>
"Man che</w>
"D o</w>
"A uch</w>
"A ll
""W ie</w>
"" Le
über prü
ä tze</w>
zusammen zu
zeig en."</w>
zeichn en."</w>
zeich en</w>
z en,</w>
ye d.</w>
y ra
wus sten</w>
wom en,</w>
wh ist
wen ige</w>
weak ness.</w>
we dding</w>
watch .</w>
wach sen."</w>
vorher seh
verur s
vers org
verme ide</w>
verfol gen</w>
verbrin ge."</w>
ver w
ver stand
veget ar
ve d."</w>
ve ."""</w>
valu es</w>
val ent</w>
ut ter</w>
unvergess lich</w>
unk en.</w>
ungs fähig
ung lück
un des</w>
tz en</w>
tre at.</w>
tran si
tra g</w>
tra f</w>
ton ight</w>
toler ance</w>
tic s,</w>
ti k,</w>
thri lled</w>
thank ful</w>
ter ing</w>
technologi es.</w>
tal ks</w>
ta x
ta gs
t ung.</w>
sustain ability.</w>
sum mer,</w>
stär ken</w>
structu re,</w>
stell ten</w>
star k.</w>
stand ard</w>
stand ar
st um
st one</w>
st ation</w>
spr ung</w>
spo ke</w>
spe ich
spe ed</w>
spann ende</w>
sp rü
sp richt</w>
sp hä
sol ving</w>
soft ly.</w>
sm all
si m
setz en.</w>
ser .</w>
se i,</w>
se cure</w>
sci ence,</w>
schön sten</w>
schle chter</w>
sc ri
sag ten,</w>
sag en.</w>
sa h,</w>
s m</w>
s ister
ro cket</w>
ris ks</w>
ries igen</w>
ri d</w>
research ers</w>
rech t
reas on
reach ed</w>
re volution</w>
re lea
re den."</w>
rasch eln</w>
r en</w>
proje ct,</w>
produzier en</w>
produc ed</w>
produ ktiv
pro fit</w>
pre vious</w>
pre vent</w>
power .</w>
po dcasts</w>
plätsch ert</w>
pic tures.</w>
photograph s.</w>
par ties</w>
pa per.</w>
organ i
op o
on e
off enen</w>
obses sed</w>
notic ed</w>
nis sen</w>
nich t
nachzu denken."</w>
mü de.</w>
music ,</w>
motor cycle</w>
mor ta
mone y,</w>
mo ves</w>
mo ther.</w>
mit tel</w>
mir :</w>
mem bers</w>
mem ber</w>
mel od
medi tieren</w>
mas sage</w>
man .</w>
m oo
liv es,</w>
list .</w>
lifesty le.</w>
lie f
libr ary</w>
le ading</w>
lau fen.</w>
lau fen."</w>
lat est</w>
landscap es.</w>
l le.</w>
l acht</w>
kra ft
knis tert</w>
ke y
ke iten,</w>
ke it."</w>
ke d,</w>
k olog
k ing,</w>
k es.</w>
k at
jum ps</w>
jum p</w>
it dem</w>
is mus,</w>
ir ur
incompar able.</w>
immedi ately</w>
il lu
i ken</w>
hör en.</w>
human ity.</w>
hum or</w>
him ."</w>
he ad,</w>
ha dn't</w>
grün e</w>
gro und,</w>
grill ing</w>
gr au
gn is</w>
gewasch ener</w>
gew onnen</w>
ges und
gener ate</w>
gen es</w>
gefe iert</w>
geb ung</w>
geb oren</w>
g ten</w>
g ilt</w>
g il
g an</w>
für s</w>
fän gt</w>
futu re,</w>
funktion ieren</w>
fun ction</w>
forsch ung</w>
flo ck</w>
fir st,</w>
figh ting</w>
far m</w>
fantast isch.</w>
fantas tic</w>
famil y."</w>
fal schen</w>
f las
f ell</w>
f aul</w>
et z</w>
es en,</w>
erzähl en,</w>
erfolgreich er</w>
er y</w>
er schein
er neu
er leich
er for
entfern t</w>
entdeck t.</w>
ent s."</w>
energ iegel
en am
ell .</w>
electri c</w>
el n.</w>
ein halb</w>
ein deu
effici ent</w>
effe cts</w>
educ ation,</w>
e tze</w>
dru g</w>
drin k.</w>
dollar s,</w>
dist ance,</w>
diesel be</w>
deser ve</w>
des per
deb ate</w>
dan ach,</w>
d it</w>
d ann
craf ts</w>
cra sh
cra ft
country side</w>
conc ent
compu ter
complic ated</w>
combin ation</w>
com e.</w>
co gn
cle an.</w>
cau sed</w>
cand le
camp en"</w>
cal m.</w>
c oul
bs ite</w>
brauch en,</w>
bod y."</w>
bi lity.</w>
betra chten</w>
besser ,</w>
beruhig en</w>
beobach tet</w>
benutz en,</w>
be at</w>
back en"</w>
bab ies</w>
b at</w>
aut or</w>
aut omat
aufzu stehen</w>
ation en,</w>
as sen
as i</w>
arbeite te</w>
ar ran
anal ysi
an :</w>
ali ve.</w>
al t.</w>
al lowing</w>
al e
ag o.</w>
addi tion</w>
ad vis
absol ut</w>
Wochen enden</w>
Wirt schafts
Wel trau
Weihnach t
W ars</w>
Ver such
Ver gleich</w>
V on</w>
Um feld</w>
Ty p</w>
To ilet
To des
Techn ik
Te a</w>
T ru
Süß igkeiten</w>
Sum men</w>
Science-Fic tion</w>
Schmer z</w>
Schau spiel
Rät sel</w>
Rom an</w>
Ro bert</w>
Rhapso dy
Reis e.</w>
Reak tion</w>
Re d
Re alitä
R ussi
R og
Proje kt,</w>
Po tenti
P it
Obje kt</w>
O hr
O bst
Mom ent,</w>
Mitmensch en</w>
Min ut
Metho de</w>
Mas sage</w>
M any</w>
Lieblingsb and</w>
Le onardo</w>
L ü
L ord</w>
Kunsthand werk</w>
Kultur .</w>
Kri m
Krank heiten</w>
Kra ft,</w>
Konzer ten</w>
Kombin ation</w>
Kin der,</w>
Kap it
K ris
K lang</w>
K ing.</w>
K ell
Jahres zeit.</w>
J ungen</w>
Ital y.</w>
Infra struktur</w>
Informa tion
In tern
I mm
I P
Hü hn
Herbst es</w>
Herausforder ungen,</w>
H it
Glück ,</w>
Ges tal
Gerä te</w>
Gen e</w>
Ge we
Ge ist
G and
G am
Fü ße</w>
Flug ha
Fla sche</w>
Fitness -
Fe ier
F rank</w>
F :</w>
Erhol ung</w>
Engl and</w>
Elek tro
Ein stell
D :</w>
Chin es
Ch irur
C lim
Büch er.</w>
Buch .</w>
Bra z
Bi en
Beau ty</w>
Bab ys</w>
B elo
B ank</w>
Australi a</w>
Aus stellungen</w>
Asi en</w>
Anti qu
Americ ans</w>
Amaz on</w>
Algorith men</w>
Al ko
A s</w>
A ff
8 00</w>
2 1</w>
19 60
19 4
1 6
1 5
1 3</w>
1 3
00 ,</w>
) .</w>
&amp ;
"W ell</w>
"S o
"N o,</w>
"E very
"" ]</w>
"" Es</w>
"" "A</w>
" Sch
" People</w>
äuß erst</w>
änder n."</w>
än ger</w>
zie he</w>
z umindest</w>
z one.</w>
z ess</w>
you ."""</w>
y ""</w>
wä s
wor st</w>
wo hin</w>
wissenschaft lichen</w>
wissenschaft liche</w>
wis dom</w>
window si
wei ße</w>
wee k,</w>
web sit
war ten,</w>
wan t.</w>
w and</w>
vor stellen</w>
verwirklich en"</w>
versch win
ver steck
ver gleich
vegetari an.</w>
usi on</w>
un usual</w>
un predict
ular .</w>
ul l</w>
u te.</w>
tur ing</w>
tun "</w>
tu re,</w>
tri lli
travel s.</w>
travel ed</w>
trans forma
tradition ellen</w>
tra de</w>
toll .</w>
to es.</w>
tiv es</w>
tig en,</w>
tier t.</w>
tier e.</w>
thunderstor m</w>
th in</w>
tes te</w>
tel .</w>
tau chen</w>
tan ze</w>
tan den</w>
ta r</w>
t lichen</w>
t ele
sü ße</w>
swe ets.</w>
sung lass
stre ets.</w>
stre be</w>
stor y."</w>
stopp ed</w>
sti t
steh en"</w>
ste cken</w>
sta at
squ irre
squirre l</w>
spä t,</w>
spra chen</w>
spr ingen</w>
spiel e.</w>
spe c
sp read
sion s.</w>
sign als</w>
sigh t.</w>
shoo ting</w>
sel ber</w>
secre ts.</w>
se ag
schwimm en"</w>
schwier ig,</w>
schreib en,</w>
sch i
sch en
sat z
samm lung</w>
s äch
rä ume</w>
ru ral</w>
rou t
room s.</w>
roll ing</w>
roll er</w>
rie chen</w>
respek tiere</w>
res ource</w>
religi on</w>
reli able</w>
re ve
re gar
re fer
re -
rapid ly</w>
r unter
r aus</w>
r aus
question :</w>
ques tion,</w>
qu antum</w>
pul l</w>
pu tzt</w>
produ ct</w>
primar y</w>
pri vile
pres cri
predi ct</w>
prac tical</w>
po ems.</w>
play er</w>
photograph y</w>
photograph er.</w>
ph a</w>
persön lich</w>
person ,</w>
per s
p ed</w>
openn ess</w>
open-min ded</w>
obvi ous</w>
o g</w>
nutz en."</w>
no t,</w>
nie der
newsp aper</w>
neighbor hood</w>
n om
molecul es</w>
mo ther,</w>
ment s.</w>
mea dow</w>
mana gement</w>
maga zin
ma ster</w>
ma in</w>
m är
m en"</w>
lö sen,</w>
lus tige</w>
listen er.</w>
lich keit,</w>
li qu
li .</w>
le tter
le mon
le d,</w>
lar ge.</w>
kon stru
komm en"</w>
kennen gelernt</w>
kauf e</w>
kar aoke.</w>
kam ."</w>
k lo
k let
k ick
jud g
jac ket</w>
itä t,</w>
is ol
is hing</w>
inv igor
ing :</w>
informa tion,</w>
indi c
in ci
ier ter</w>
i -
hö her
hung ry</w>
hunder t</w>
herauszu finden,</w>
her ausforder
he iten,</w>
hand le</w>
han di
haben ?"</w>
ha m</w>
ha fte</w>
h ü
h ellen</w>
gri ff
grei fen</w>
glück licher</w>
get ö
geschn it
gesch lossen
ger en</w>
genann t</w>
gen ;</w>
gemüt lich.</w>
gel eg
ge wähl
ge fall
g s."</w>
g ere</w>
furn itu
funktion iert,</w>
friend s."</w>
fotograf ieren</w>
for ced</w>
fle x
fe male</w>
fascin ates</w>
famili es</w>
f isch
ex ist</w>
ex change</w>
even ings.</w>
erstaun lich</w>
erinn ern,</w>
erfüll tes</w>
er we
er ster</w>
er rich
er fahren</w>
entwick lung</w>
entsche iden</w>
ent t
eng li
end en,</w>
empath y</w>
em power
elektr on
electr onic</w>
elect ro
el se."</w>
el n,</w>
el er
einzigar tige</w>
einander .</w>
ein setzen."</w>
e- J
e cht</w>
e ar</w>
dri ven</w>
down lo
don e,</w>
do ?</w>
discover .</w>
dis che</w>
di am
design ers</w>
des ert</w>
der n,</w>
denk t,</w>
den s
degre e</w>
da t
da hin</w>
da cht</w>
d y.</w>
cr yst
cover ing</w>
coun ter</w>
cor e</w>
const ant</w>
confi dent</w>
conf id
concer t.</w>
concer ned</w>
compani ons.</w>
comp ut
communi ties</w>
com ic</w>
colle cts</w>
co aster</w>
co ast
clou ds.</w>
clo sed</w>
cit y."</w>
cho ice.</w>
chin es
ch ess.</w>
bur ning</w>
bro ken.</w>
bring en"</w>
brea thing</w>
brau chte</w>
bra in."</w>
book s,</w>
bo ys</w>
blo ß</w>
bl as
bie ten.</w>
bet on
bes uch</w>
benu tzt</w>
belieb tes</w>
belie v
bein hal
beg ins</w>
be herr
be ar
ba g</w>
aus sehen</w>
auf ."</w>
atur es.</w>
att ack</w>
ate d."</w>
ari an</w>
ar t,</w>
ar i</w>
ar gu
appro pri
any thing.</w>
an fangen,</w>
ambiti ous</w>
am a</w>
all en
ali ze</w>
al a</w>
ak u
ag n
ag ing</w>
af ford</w>
ad mit</w>
ad dress</w>
activ ely</w>
achie ving</w>
ac y</w>
ab sor
Zusammen halt</w>
Zufrieden heit</w>
Zeich en</w>
Ze hen</w>
Z ü
Z im
Winter .</w>
Weis e,</w>
W il
W andel</w>
Vor stellung</w>
Volle yball</w>
Ver an
V an</w>
V alle
Unter haltung</w>
Tre es</w>
Tie f
Thron es
Temper aturen</w>
Technolog ie,</w>
Tal ent</w>
Ta ges
Sü d
Stu dent
Stand ar
St ück
Spinn e</w>
Soft war
Sk y
Sk la
Se gel
Schön heit.</w>
S icht
S ex
S en
Ro ck</w>
Ris iko</w>
Reis en.</w>
R unde</w>
R ah
Publik um:</w>
Posi tion</w>
Physi k</w>
P in
O ri
O per</w>
Nerv enz
N AS
Mü ll
Mär kte</w>
Mod elle</w>
Medi en
Mar i
Man hat
Mag ie</w>
M ä
M ulti
M erk
M ent
M aus</w>
Life -
Lieblingsmusi k
Lieblings restaurant</w>
Lieb sten</w>
Le tz
Körper s</w>
Kä se
Krank enhaus</w>
Kom plex
Ko sten</w>
Klima wand
K lar
K .</w>
Imag ine</w>
I ll
Herausforder ung.</w>
Gu t.</w>
Gra fi
Go ing</w>
Glück .</w>
Gleich gewicht</w>
Fris ur</w>
Freun d.</w>
Freizeit aktiv
Fol ge</w>
Fle isch</w>
Fernse her</w>
F res
F ig
Erinner ung</w>
Ein stein</w>
E v
E p
Dri ving</w>
Diskus sion</w>
DIY -
D .</w>
Compu ters</w>
Comm un
Chic ago</w>
Car pe</w>
C ro
Bücher reg
Brett spiele</w>
Bil d,</w>
Behand lung</w>
Be we
B und
B lo
Australi a.</w>
Arbe it,</w>
Americ a,</w>
Aktiv ität</w>
Afric a.</w>
Afri kan
Afghan ist
Achter bahn
Aben teur
A ffen</w>
A ."</w>
7 00</w>
50 ,000</w>
19 5
10 .000</w>
-- "</w>
- K
"N ur</w>
"N ach
"D enken</w>
"D ar
"" If</w>
"" How</w>
"" "The</w>
" die</w>
" Re
" Me
" Let's</w>
ünst ler</w>
ü be</w>
ö konom
ärt n
än z
älter en</w>
äl ter</w>
zu gleich</w>
z üch
y lli
work -life</w>
wom en."</w>
wir st</w>
whe el
wh is
wes entlich</w>
weit er,</w>
week ends</w>
wach sen.</w>
wa ys."</w>
wa schen</w>
vor stell
vor aus
voll kommen</w>
virtu al</w>
vie w,</w>
versch mutz
verme id
verlor en.</w>
verbrin ge"</w>
verbre itet</w>
ver si
ver ab
v ast</w>
ungskra ft</w>
unend liche</w>
und ing</w>
un gewöhn
un believ
um ul
tter t</w>
tro p
tow n.</w>
top ic</w>
too s</w>
toler ance.</w>
tig t</w>
tic ."</w>
thing :</w>
thin ks</w>
th ro
th i
th al
tes t,</w>
teil t</w>
tat en</w>
t ti
t ischen</w>
t ask</w>
t ack
syn thes
su it
stär kt</w>
stän dig
stän de</w>
str ategi
sto ck</w>
stie g</w>
sti ck
star ry</w>
stag ra
spä ter,</w>
spiritu al</w>
spir it</w>
spann enden</w>
son :</w>
son .</w>
sogenann te</w>
so zus
so il</w>
smi le.</w>
ski ing.</w>
sk ateboar
sing ing.</w>
si bling
sh oul
sex ual</w>
ser ve</w>
secon d,</w>
se d,</w>
schwimm en.</w>
schlaf en.</w>
schir m</w>
sch üch
sch were</w>
sag en."</w>
sa ving</w>
sa il
s ul
s elling</w>
s ac
run .</w>
rou tin
ro ad
ris ks.</w>
ries ige</w>
rie ch
ri des</w>
relax ed.</w>
regn er
refres hed</w>
re gen</w>
re cent
ra li
qu anti
qu ali
proble ms."</w>
proble m
possi ble,</w>
pos ite</w>
poe try</w>
po dcast</w>
plan ting</w>
pl es.</w>
pl as
person 's</w>
pa ying</w>
pa th.</w>
p el
oxy gen</w>
organiz ation</w>
optimist ischer</w>
op ening</w>
op am
off ici
nor m
nich t-
ne ig
n un,</w>
n one</w>
müs ste</w>
musi cal
month s,</w>
moment an</w>
moder nen</w>
mis sed</w>
mil k</w>
melod y.</w>
mel n</w>
medi tieren"</w>
medi tiere</w>
me taph
me is
mat ters</w>
man y,</w>
mal en."</w>
majes tic</w>
magn ific
ma ."</w>
m ate</w>
lus tig.</w>
long- term</w>
lon g,</w>
lo r</w>
lo hnt</w>
lin es</w>
ligh t,</w>
level s</w>
le m</w>
le gs</w>
lau g
langweili g.</w>
langua ge,</w>
l un
l amp
kt oren</w>
kra ft</w>
know ing</w>
kl u
k ne
k is
k en,</w>
k ein
jo g</w>
ja hr</w>
itä ten.</w>
is land</w>
is h.</w>
interessan t,</w>
intelligen t</w>
inst in
inst ance,</w>
impres sed</w>
import ant."</w>
ier t."</w>
ide m
ide as,</w>
id ylli
ich :</w>
i Po
häu fig</w>
hom e."</w>
ho l</w>
hin aus</w>
high way</w>
heiß .</w>
health ,</w>
heal ing.</w>
h aus</w>
gu n</w>
grün den</w>
gra phic</w>
govern ment,</w>
go ."</w>
gi ven
getr unken.</w>
geschlaf en.</w>
gehör en</w>
gegan gen.</w>
gefund en,</w>
ge is
g lu
führ te</w>
führ er</w>
fühl en."</w>
fühl en,</w>
fröh lich.</w>
fru str
frag ten</w>
fra gt,</w>
foo d,</w>
fl y.</w>
fis her
finan zier
ff izi
feel ings</w>
fe ."</w>
faszinier end,</w>
fa ith
expen sive.</w>
expe cted</w>
exe cu
ex trover
est ab
estab li
erzähl en."</w>
er stre
er scheint</w>
er klingt</w>
entwickel te</w>
entschie d</w>
entertain ing.</w>
ent decke</w>
enswür dig
enough ,</w>
ema il</w>
em is
ele g
el son</w>
eingel aden</w>
ehr liche</w>
effe ctive</w>
easi ly</w>
e ze</w>
e chten</w>
dunk le</w>
dra mat
dr ücke</w>
dom in
do ors</w>
dis play</w>
dis eas
dire ct</w>
di um</w>
desig ner</w>
dau ert</w>
d liche</w>
d einen</w>
crack ling</w>
countr y."</w>
consider ed</w>
com e,</w>
colle ge</w>
coll ap
col on
cogn i
co sts</w>
clim b</w>
ck en,</w>
ci pl
ch te,</w>
ch ess</w>
ch air</w>
cell s,</w>
c a.</w>
butter flies</w>
bur g</w>
bro ken</w>
brea king</w>
brauch en."</w>
br uch</w>
big ,</w>
bie tet."</w>
bewusst sein</w>
bewus ster</w>
bereis en."</w>
beobach te</w>
bele b
bel ow</w>
beeinflus st</w>
beeindru ckt</w>
be isp
be et
bal m</w>
back ground</w>
bac k.</w>
b ank</w>
audi ence</w>
ativ e,</w>
at ta
as sum
as le
ar tige</w>
anzu sehen</w>
ander en.</w>
ander em</w>
anc est
an on
amo un
am m</w>
altern ative</w>
alon g.</w>
al in
al a
air plan
adv ance</w>
ach ten"</w>
ac tion.</w>
ac qu
a wes
a di
Zwe i</w>
Zahnar zt</w>
Z ä
Z u</w>
Z er
Work -
Win d.</w>
Wh o</w>
We g.</w>
Vir g
Verfüg ung</w>
V i
V en
Univers ität</w>
U -
Traum job</w>
Th ose</w>
Te en
Tatsach e,</w>
T ö
T est
Süda fri
Stär ken</w>
Stre et</w>
Stra hl
Sternen him
Stad t,</w>
St ör
St rom</w>
Sonn enschein</w>
Septem ber</w>
Selbst vertrau
Se con
Schw äch
Sch loss</w>
Sch impan
S how</w>
S atel
R ö
Pun kte</w>
Produ kt</w>
Proble m.</w>
Pl an</w>
Obje kte</w>
O x
Nachthim mel.</w>
N ick
Mut ter
Milli on</w>
Masch ine</w>
M ün
M r.</w>
M andel
Lin ie</w>
Lim on
Lager feu
L ar
L ach
Krie gs
Konzer te.</w>
Kleider schrank</w>
Kleid ungs
Kleid ung.</w>
Kirchen glocken</w>
Kar rier
K ern</w>
Jah re.</w>
J un
J ack
Intui tion</w>
Inter ess
In stagra
I ran</w>
Hobbi es</w>
Ho tel</w>
He al
Haus tieren</w>
Hau se.</w>
Hand lungen</w>
Ha ve</w>
Ha iti</w>
H e's</w>
Getr än
Geschen k,</w>
Ges tern</w>
Ges etze</w>
Ges etz</w>
Gen uss</w>
Gen ie
Fü ßen.</w>
Frau ,</w>
Frank reich</w>
Flüch tl
Filma bend</w>
Fak tor
Fahrrad tour</w>
F unk
Ever est</w>
Er war
Ein kauf
E d
E ast</w>
D utz
D on
D ach.</w>
D V
D -
Com ic
Cocktail s</w>
Chi ps</w>
Brie fe</w>
Bl ut</w>
Bi ologie</w>
Behand l
Be ach</w>
Bal sam</w>
B äu
B utter
B unge
B rück
B or
B ein
Auß er
An ru
An gebo
Afri ca
A re</w>
A li
A lex
A ir
A hn
50 .</w>
30 .</w>
2 3</w>
2 ,000</w>
19 70
1 ."</w>
- L
"On ce</w>
"L assen</w>
"" No
"" Bohemian</w>
" Reisen</w>
übri gens</w>
ß en."</w>
zä hle</w>
zieh en."</w>
zi pl
zeichn en"</w>
z ens</w>
wünsch te</w>
wä hr
wunder volle</w>
wunder schöner</w>
writ e.</w>
wor ds.</w>
wom en's</w>
wissenschaf ten</w>
wis e</w>
will "</w>
wil d
wi eso</w>
wh o,</w>
wert volles</w>
wel chen</w>
wei ßen</w>
weg zu
we t
war dro
wander n.</w>
w ein</w>
volunte er</w>
volle yball</w>
vielfäl tig</w>
vie ws</w>
veränder n,</w>
versu chte</w>
verbre ite
ve d,</w>
us hed</w>
ur y</w>
up set</w>
unter nehmen</w>
unter hal
ung ?</w>
ung :</w>
un t
un a.</w>
um ping</w>
um her</w>
tä glich
tri g
treat ment</w>
trans lat
trans form</w>
too ,</w>
tomor row</w>
ti li
ti ckt</w>
thrill ers.</w>
there ?</w>
th or
teu er</w>
t on,</w>
t ""</w>
surpris e</w>
sugar .</w>
su chte</w>
stre am</w>
stra tion</w>
str ie</w>
story tell
stit ute</w>
stimm t</w>
still .</w>
statt dessen</w>
sta yed</w>
st ers</w>
st ein
st ac
spr ing
speci fic
spac e,</w>
sor gen.</w>
some thing,</w>
sol ved</w>
so bald</w>
sim pl
sicht bar</w>
shi p.</w>
shi ft</w>
sh ort
sent ence</w>
self- confidence.</w>
sein ?</w>
see k</w>
se es</w>
schri ft</w>
school s</w>
schaf ten,</w>
schaf fen"</w>
sch on,</w>
sch lu
satis fac
sag ten</w>
s the
s ite</w>
s ending</w>
rout ine</w>
rop ä
ris k
rich tungen</w>
rich ten</w>
recip es</w>
reali z
re pair</w>
rar ely</w>
r es.</w>
ques tion.</w>
qu ick</w>
qu alität</w>
prote cted</w>
pri ce</w>
pres su
pre gn
power ,</w>
pover ty</w>
possi ble."</w>
poli tics</w>
poin t."</w>
poe tr
ple ase</w>
play ground.</w>
plan et
pl au
pick ed</w>
pian o</w>
physic s</w>
person ."</w>
pe ts</w>
pe ."</w>
passier te</w>
part ner
par ado
p ill
o ber
no chmal</w>
new s.</w>
nervö s</w>
nar ra
nann te</w>
n ation</w>
mö chten</w>
mysteri ous</w>
ment s,</w>
men ted</w>
mean ing.</w>
mar rie
mar ri
magne tic</w>
ma ster
lu ft</w>
lo wed</w>
lie gen"</w>
level ,</w>
leun ig
le y.</w>
le an</w>
lau f
las si
las agn
langsam .</w>
landscap es</w>
la b</w>
kontrolli eren</w>
komplex e</w>
klar en</w>
kenn en."</w>
ke it
kauf en,</w>
kann st</w>
k fast</w>
k ers</w>
justic e.</w>
ju ic
j ung
j am
itself .</w>
it te</w>
is st</w>
is ier
ir on
introduc ed</w>
inter action</w>
inte gra
ins ul
in telli
in stru
in her
in form
in a</w>
impro ving</w>
il la
il a</w>
ihn en,</w>
ide .</w>
ide ,</w>
ic ed</w>
ic ally,</w>
i or</w>
i es."</w>
i Ph
hum or.</w>
hier ."</w>
han ging</w>
gu ar
großar tig
grow th.</w>
grow n</w>
grill en</w>
grill en"</w>
grand parents</w>
gra de</w>
goo d,</w>
gl es</w>
gesch lo
ges ün
genom men.</w>
gen :</w>
gel assen</w>
geh al
geführ t.</w>
ge wohn
ge ber</w>
gar den,</w>
gall eri
g ing,</w>
furnitu re.</w>
fur ther.</w>
fre und</w>
fre ie</w>
four th</w>
for ce,</w>
foot ball.</w>
foo d."</w>
fol gt</w>
fin den
fe der
expres sion.</w>
experim ents</w>
exist ing</w>
evi den
even ing,</w>
etc ."</w>
es ts</w>
erzeu gt</w>
erle i</w>
erhö h
er schaffen</w>
er halten.</w>
er halten."</w>
entwickel n"</w>
entreprene ur
ent isch</w>
el ev
el der
einz ul
ed it
easi er</w>
dis tra
dis or
dev ast
dem ic</w>
deli ver</w>
decor ating</w>
d ue</w>
d einem</w>
cul inary</w>
crow ded.</w>
cre ation</w>
crack les</w>
conc entr
comfort ably</w>
co co
clas s.</w>
ci tiz
ci ti
cho se</w>
char m.</w>
cha in</w>
ch ur
ch e,</w>
cele bra
cast le</w>
care er.</w>
car d</w>
cap itali
c y."</w>
c rat
c ally,</w>
busin ess,</w>
bro ther</w>
bil der</w>
bet ter,</w>
besser es</w>
besor gt</w>
bes ie
bere ith
benu tze</w>
ben de</w>
beisp iel
bein gs.</w>
be mü
be komme</w>
be frie
bal anced</w>
bacteri a</w>
bac ken</w>
b ö
b ine</w>
b ank
b ad
awa k
aufgere gt,</w>
auf hören,</w>
auf führ
ati vely</w>
at or.</w>
at es,</w>
at -
ast ro
arg ue</w>
ar ten.</w>
ar me</w>
ant ly.</w>
ann ien</w>
ander e,</w>
and -
an sehen,</w>
an ische</w>
al one,</w>
ak ist
ach ing</w>
accoun t</w>
acc eler
abzu bauen"</w>
ab l
ab el
ab and
a k.</w>
a c</w>
Zeich nen</w>
Work- Life-
Wohn ung.</w>
Wochenen de.</w>
We iß
We iter
We i
Wahrnehm ung</w>
Waf fen</w>
W ill
Veran stal
Ver stand</w>
Ver lust</w>
Ver gn
Veget ar
Un ser</w>
U hr
Tra g
Tr ends</w>
Tier e,</w>
Te u
Taus ende</w>
Tal ente</w>
T ier</w>
T est</w>
Str ategi
Stim men</w>
Spiel zeug</w>
Sp innen</w>
Sp in
Sonnen licht</w>
Soft ware</w>
Sel bst</w>
Seh enswürdig
Se e
Schul en</w>
Schne em
Sch weiß
Sch utz
Sch af
Sauerst off</w>
S tur
Res ul
Repar atur</w>
Re publi
Re gel</w>
Re de</w>
R en
R ed</w>
Pro to
Poli tik
Pil ates</w>
Philosoph ie</w>
P le
P fe
Op fer</w>
Nation al
Mö bel</w>
Mut ter,</w>
Mon d
Mom ent
Molekü le</w>
Men gen</w>
Melo die</w>
M ess
Lär m</w>
Lie be.</w>
Lebenssti l</w>
L it
L ang
L E
Kühl schrank</w>
Konfli kte</w>
Kon ferenz</w>
Kompli ment</w>
Ken y
Jog ging
Jahr en.</w>
J er
Indi e-
Indi a,</w>
In fe
Identi tät</w>
Hör en</w>
Horizon t.</w>
Hon esty</w>
Hobb y.</w>
Ho tel
Her r
Heim at</w>
Har v
Ha ar</w>
H ope</w>
H aut
Gru ppen</w>
Groß teil</w>
Gr and</w>
Glau be</w>
Gemein de</w>
Gefän g
G anz
Frühaufsteh er</w>
Früh stück
Frei zeit.</w>
Fra ge:</w>
Fol gen</w>
Flug zeu
F abri
Europ e.</w>
Erleb nis.</w>
Erfahr ung.</w>
Ereig nisse</w>
Er zähl
Entdeck ung</w>
Elefan ten</w>
E d</w>
Dunkel heit</w>
Dokument ar
Ding en,</w>
Din osau
Di re
Defin ition</w>
D on't</w>
D ere
D H:</w>
Chr isti
Chem ik
CO 2-
C :</w>
Bür ger</w>
Butter flies</w>
Bu d
Brea kfast</w>
Bli ck
Bevölker ung</w>
Be griff</w>
Bau ern
Ba y
Auto s.</w>
Aus druck
Au st
Atmosphä re.</w>
Ar g
Ang st,</w>
An ima
Ab end.</w>
A cc
50 ,</w>
3 5</w>
21 st</w>
1 7.</w>
1 1.</w>
- to-
- Filmen</w>
( Video)</w>
' t,</w>
"Zu erst</w>
"You 're</w>
"S econ
"J e</w>
"Fir st</w>
"A nother</w>
"( Video)</w>
"( Musik)</w>
"" K
" Most</w>
" He
’ re</w>
öff nen</w>
zä h
z unächst</w>
z ität</w>
work s,</w>
work place</w>
wor thy</w>
woll te."</w>
wis s
wieder um</w>
wieder .</w>
wher ever</w>
wh ich,</w>
wer de,</w>
weis en,</w>
we t</w>
wan t,</w>
wa kes</w>
w äch
w ra
w est</w>
w all.</w>
vor han
vo ic
versuch te,</w>
verrück t</w>
verbesser t</w>
ver schön
ver mögen</w>
ven irs</w>
ve ?</w>
valu es.</w>
univer sel
universel le</w>
unfortun ately</w>
unforget table</w>
un less</w>
un fair
twi ce</w>
tu al</w>
trä umen</w>
tru st
tru he</w>
tru g</w>
trit t</w>
trilli on</w>
treib en.</w>
transport ation.</w>
tra gen"</w>
tik a</w>
ti cking</w>
they 'd</w>
ter ra
ter e
teil ung</w>
technolog y."</w>
tal k,</w>
t sch
t ank
sy mptom
sunris e.</w>
structu res</w>
stres sed.</w>
stre am
sti r
stell ungen.</w>
star ken</w>
stand ."</w>
st äd
st amp
st af
spi ders.</w>
spee ch</w>
spar kl
sp aghetti</w>
some how</w>
sk op
setz te</w>
selbstgemach te</w>
se ct
schwier ig
schwi mme</w>
schwar zen</w>
schul dig
schri ften</w>
schau te</w>
schaf ten.</w>
schaf fen.</w>
sch wit
sc rat
sau ber
sammel e</w>
sa ß</w>
s ing,</w>
s co
rä u
rou gh
romant isch.</w>
ring ing.</w>
resear ch,</w>
rele ase</w>
recei ving</w>
reali zing</w>
re tin
re d
ran ge</w>
puzz le</w>
promis e</w>
produ ktiven</w>
prob ieren</w>
pre fer
power ."</w>
poli tics.</w>
po sit
pen guins</w>
par ent
pa y
p per
p ag
ow l.</w>
ori entier
organis iert</w>
organi zed.</w>
or t,</w>
or s."</w>
or ange</w>
or al</w>
or 's</w>
oper ating</w>
oper a</w>
oo per
offen es</w>
oce an.</w>
o sit
o red</w>
o mas</w>
novel s</w>
neighbor hoo
neg ativen</w>
ne ben
natür lich,</w>
na h</w>
n de</w>
n ap
n -
mä chtig
my th
mou th</w>
mon th</w>
mo di
min ds</w>
mer n</w>
me tal</w>
me tal
mal er
ma y
ma mm
m ie
lin ken</w>
lim its</w>
ligh t."</w>
life ."""</w>
lie gt."</w>
lichke its
li vely.</w>
li ve.</w>
left -
le d."</w>
le cture</w>
le :</w>
lau fen"</w>
lap top.</w>
langua ge."</w>
kühl es</w>
kta r</w>
kt or
kost et</w>
kost bar</w>
klass ischer</w>
kenn t</w>
kenn en,</w>
ke its
kann .</w>
k äu
k ten.</w>
k ten,</w>
j ah
ist isch</w>
ist ?"</w>
inves tig
inv ent
industr y.</w>
in t</w>
ihr ,</w>
ie gel</w>
ie -
ich ."</w>
i ous</w>
i led</w>
hö f
hät ten,</w>
hät te."</w>
hungri g</w>
hunder te</w>
hu st
hou se,</w>
hosp ital</w>
hon est.</w>
home work.</w>
hol en</w>
hier .</w>
hid den</w>
herr lich.</w>
heim lich</w>
harmon y.</w>
har der</w>
happ in
ha ck
h un
h all
gri ll</w>
gra titude</w>
govern ments</w>
gl ing</w>
geschie h
gent le
gen des
gen de
gen ?</w>
gebra cht.</w>
ge zeigt,</w>
ge lieb
ge be
galleri es.</w>
g old</w>
fühl te</w>
fü gen</w>
för dern</w>
fund en,</w>
fulfil l
fro m,</w>
friend ."</w>
fotograf ieren"</w>
flo w</w>
fis h,</w>
fic i
fi ve-
farmer s</w>
far ben
fa ther
experim en
experienc e."</w>
experienc e,</w>
exo tische</w>
es ?"</w>
erzähl t</w>
erzähl t,</w>
erledi gen.</w>
er he
er fordert</w>
equi valent</w>
equ ally</w>
episo de</w>
entdeck t,</w>
enc e:</w>
en able</w>
emp loy
el se.</w>
el le.</w>
ehr enam
e ds</w>
durch schnit
durch s</w>
drit ten</w>
dok ument
do zens</w>
divers ity.</w>
disea se,</w>
dis appoin
dimension al</w>
descri be</w>
des ."</w>
der zeit</w>
der s,</w>
der e</w>
democra cy</w>
dekor ieren"</w>
defini tion</w>
de mp
de ca
dau er</w>
danger ous</w>
cultu re,</w>
ctiv e.</w>
ction s."</w>
cor n</w>
cook ies.</w>
confli ct</w>
condi tion
colle cted</w>
cocktail s.</w>
ci l</w>
chick en</w>
chen s</w>
chem ic
che a
ch em</w>
ch air
cent ral</w>
c run
büch ern</w>
bub ble</w>
brea ks</w>
bre ll
bre ath</w>
bra chten</w>
br ennt</w>
bo ss</w>
ble d</w>
bl ack.</w>
billi ons</w>
bevorsteh enden</w>
betrach ten."</w>
betra chte</w>
besser er</w>
besch wer
bes tell
bereith äl
bene fits</w>
bene fit</w>
ben s</w>
bel on
beginn en."</w>
befo re."</w>
be ängsti
be findet</w>
be e
be cause,</w>
ba king</w>
b eln</w>
b att
b ."</w>
aut onom
aus reich
aufmerk sam</w>
auf tau
atur .</w>
at en.</w>
associ ated</w>
ass ist
as es</w>
arg ument</w>
ar is
app ar
anti que</w>
an throp
an other,</w>
an o</w>
algorith ms</w>
alco hol.</w>
akter ien</w>
ad dres
achie ved.</w>
ach t
ac tor
ab er,</w>
a ge
Zu cker</w>
Zeu g</w>
Z wei
Work-Life- Balance</w>
Wohn zimmer</w>
Wet t
Wes ten</w>
W :</w>
Vis iting</w>
Virg ini
Vinyl -
Ver sch
Ver ab
V ern
Um gang</w>
Tro st</w>
Thail and</w>
Th em
Ter ra
Tarant ino</w>
T our
Säu ge
Straßen lat
Spiritu alität</w>
Sozi al
Sommer ferien</w>
Sh opping</w>
Schwier igkeiten</w>
Schre i
Schokoladenk uchen</w>
Schall platten</w>
S ,</w>
Ru he.</w>
Regi on</w>
Re icht
Re ich
Ra dio
R et
Qu anten
Proz ess
Pro fessor</w>
Pri or
Plat t
Pen guins</w>
Par kin
Pain ting</w>
P ass
P akist
Op en</w>
OK ?"</w>
O li
O K</w>
Nachbar schaft</w>
Nach truhe</w>
N icht
N i
N ep
N elson</w>
N am
Muse en.</w>
Mit arbeiter</w>
Milit är
Mil ch
Mexic an</w>
Materi alien</w>
Mach t,</w>
M ig
M aga
Lieblings film
Lieblings autor</w>
Lan gu
L ong</w>
Krim is</w>
Kra ft
Kl eine</w>
Kl ein
Karao ke-
Kak ao</w>
K ern
Job s</w>
Je ans</w>
Jahres zeiten</w>
J us
Inter essen</w>
In st
In ner
In iti
Ih res</w>
Hom o</w>
Herkun ft</w>
Her stell
Hawai i</w>
Happ y</w>
Hand ys</w>
Hand werk
Ha ving</w>
H olo
Grün en</w>
Gre en
Gol f
Geschäf te</w>
Ger ät</w>
Gegen war
Geburtstag s
Ge wohn
Ge gend</w>
G at
G ang</w>
Fä llen</w>
Fran zös
Flohmär kten</w>
Fl uss.</w>
Fern sehen.</w>
Fe der
Fa ible</w>
F ro
F liegen</w>
F aul
Erfüll ung</w>
Er klär
El tern
Ein samkeit</w>
Eigenschaf ten</w>
Ech tze
E ing
Dru ck</w>
D ä
D em
Comed y-S
Bücherreg ale</w>
Bra sili
Br enn
Bot schaft</w>
Bet rie
Bes timm
Bege gn
B ob</w>
B ill
B alle
B ack
B G:</w>
Auto .</w>
Ath le
Ap fel
Al tern
Afri can
A l</w>
A del
A bl
4 5</w>
2 2.</w>
1 8.</w>
1 3.</w>
0 ,
- J
) ."</w>
"Th en,</w>
"F in
"A gain,</w>
""W enn</w>
"" We</w>
"" Game</w>
" Musik</w>
" Meditation</w>
" Here's</w>
überwin den</w>
ü l
ö kolog
änder n,</w>
älter er</w>
ähn liche</w>
zurück ."</w>
zukünf tige</w>
zoo .</w>
y ,""</w>
wunder schönes</w>
wunder bar.</w>
wis sen."</w>
wirtschaft lichen</w>
wh ere
weak ness
we igh
we ib
was ."</w>
war ten</w>
wa ys.</w>
wa ff
vo ices</w>
virtu e.</w>
viel leicht,</w>
viel .</w>
vic tim
verurs acht</w>
versu s</w>
verfol gen"</w>
ver pas
ver halten</w>
ver geht</w>
vem ber</w>
vehic le</w>
vegetari an</w>
veget able</w>
ve gan
unterhal tsam</w>
unbezahl bar.</w>
un vorherseh
un s."</w>
un erwar
ul p
u pp
typic al</w>
typ e.</w>
trem end
tre u</w>
tran qui
tra ins</w>
tr o</w>
tr enn
to- do</w>
ti tle</w>
ti ble</w>
the me</w>
the mat
the it</w>
ter e</w>
tell .</w>
tat säch
tal ents.</w>
tain ed</w>
t ön
surround ings.</w>
surpris ed</w>
surger y</w>
sur ge
su bst
stür zt</w>
stöb ern"</w>
stän den</w>
sty le.</w>
stuff ."</w>
stu re.</w>
strug gle</w>
stron ger.</w>
stres sed</w>
strateg y</w>
stor es.</w>
stimul ate</w>
st amm
sprich t,</w>
so gar
so f
sm us</w>
sm all,</w>
sing en"</w>
sier ung</w>
si de."</w>
shir t</w>
shap es</w>
sha dow
sh ouldn't</w>
setz ung</w>
ser ves</w>
se ien</w>
se e."</w>
schö pf
schwar ze</w>
schwar z</w>
schrei bt</w>
sch on
sc ra
sc ann
satis fie
sa ge,</w>
sa d.</w>
s is</w>
s hr
s at</w>
room ."</w>
romant ischen</w>
robo tic</w>
ro ll</w>
rig in
ri di
res ourc
requ ire</w>
repair .</w>
renov ate</w>
remem ber,</w>
reg ne
refle ction</w>
rech ar
reas on.</w>
reach ing</w>
rea lity.</w>
re je
re e</w>
re com
ra tion,</w>
r ush
r um
r t</w>
r ennt</w>
quick ly,</w>
ques tions,</w>
pun ctu
psycholog y.</w>
psycholog ical</w>
progres s.</w>
profession al</w>
pro fi
pro ce
princi p
pri vac
pri mi
pre -
plan et,</w>
picknick en"</w>
pf lich
perfe ct
per sever
pe ti
part ys</w>
pain ted</w>
p ushing</w>
p ortra
p lea
p her
ous ly.</w>
ou gh</w>
other s."</w>
os aur
organis ms</w>
or row</w>
op posite</w>
op ath
oo d
on ed</w>
om ob
off ic
of ."</w>
occ up
o s,</w>
nutri tion</w>
nich t."""</w>
nenn en."</w>
neg ativ
natu re."</w>
n ungs
n ess."</w>
musi kali
muse um.</w>
mom ent."</w>
molecul ar</w>
mo d
mis take</w>
minut es.</w>
minis tra
min d."</w>
mensch .</w>
men tion
meaning ful</w>
me ist</w>
mana ged</w>
main tain</w>
ma hl
m ill
m ikro
lä uten</w>
lu ck</w>
lifesty le</w>
lich sten</w>
li um</w>
li ke.</w>
li ke."</w>
laug hed</w>
lasagn a.</w>
la zy</w>
kulture llen</w>
kra bb
kr ist
know .</w>
kn üp
