#version: 0.2
t h
e r
i n
e n
e s
a n
a r
c o
t i
o r
r e
d e</w>
t o</w>
a l
q u
o s</w>
c i
a s</w>
t e
o n
i s</w>
th e</w>
o u
d e
. "</w>
c a
i t
qu e</w>
s e
o n</w>
s t
r a
u n
r o
in g</w>
p o
d o</w>
d i
l i
l e
m e
t a
d a
o f</w>
h a
m a
o s
s i
en t
a c
p ar
an d</w>
m p
i n</w>
r i
e n</w>
o r</w>
a t</w>
T h
a r</w>
s o
e s</w>
e r</w>
a s
o u</w>
d a</w>
co n
v i
v e</w>
m i
a t
n o
m o
es t
a b
p er
e c
u s
u r
e l
m e</w>
u l
h a</w>
p ro
t o
s .</w>
th at</w>
v er
m os</w>
Th e</w>
par a</w>
c h
l o
ci ó
r es
" "
f i
b e
l e</w>
un ha</w>
d o
u n</w>
e d</w>
a n</w>
s e</w>
e x
a l</w>
n e
m en
p e
t er
f or
t e</w>
s a
m ent
l a
in g
o p
co m
i l
i s
f or</w>
ti on
t r
' s</w>
l y</w>
b e</w>
th e
d es
w h
s u
y ou</w>
m a</w>
ou r</w>
ar e</w>
ció n</w>
k e</w>
b i
g h
g u
a .</w>
r e</w>
c an
w e</w>
ti on</w>
ca n</w>
p a
e .</w>
o l
t ra
a d
' t</w>
p re
g o
s h
m an
it h</w>
ã o</w>
n on</w>
i mp
w ith</w>
m á
s ,</w>
ha ve</w>
i r
es .</w>
s o</w>
n d</w>
m y</w>
f e
o .</w>
or t
c e</w>
ti v
N on</w>
er e</w>
l u
c u
th is</w>
a g
no t</w>
ou t</w>
w as</w>
i t</w>
n o</w>
da de</w>
d u
te s</w>
d os</w>
t u
w or
v e
f a
w a
c e
í a</w>
y .</w>
te r</w>
p i
f er
ció n
" A
m or
r u
d er
h o
se r</w>
c a</w>
m in
co mp
n i
b o
f ac
l l
n a</w>
ha t</w>
u t</w>
c ul
al i
i r</w>
b le
g o</w>
c re
h i
má is</w>
c ar
p l
a u
E st
g e
da de
h e
v er</w>
W e</w>
on 't</w>
ver y</w>
p en
li ke</w>
l d</w>
po de</w>
al l</w>
t en
c o</w>
te d</w>
os .</w>
g ra
a p
d as</w>
es ta
ñ a</w>
on e</w>
com o</w>
a m
s en
y ,</w>
an t</w>
t a</w>
ar i
n os
m u
l a</w>
imp ort
po r</w>
f o
d .</w>
"" "</w>
ment e</w>
r en
co r
c h</w>
ó n</w>
p res
te .</w>
qu i
us t</w>
a ,</w>
an te</w>
g i
o ,</w>
es ,</w>
s ."</w>
y our</w>
ab out</w>
en t</w>
a m</w>
en ci
" S
i to</w>
g a
f u
u s</w>
u m</w>
al l
e ,</w>
co n</w>
i x
po de
m b
al ly</w>
f ro
c er
w e
w hat</w>
o b
d s</w>
b a
ne ed</w>
s on</w>
th ing</w>
it y</w>
f in
an do</w>
n os</w>
an i
un i
k ing</w>
ent e</w>
gh t</w>
u ma</w>
est á</w>
n a
e l</w>
pe op
es e</w>
e t
or i
ou ld</w>
di s
the y</w>
th er</w>
t ur
fro m</w>
th er
e m</w>
I '
y ou
in ter
d on't</w>
f ec
do .</w>
ó n
n ec
x i
de r</w>
- -</w>
mor e</w>
c es
a mos</w>
e v
ú a</w>
er o</w>
. """</w>
a o</w>
p or
d en
ta r</w>
us e</w>
le s</w>
d ,</w>
men to</w>
er a</w>
mi ña</w>
k no
ç ão</w>
t s</w>
r on
di f
p ri
as .</w>
s er
O s</w>
"A nd</w>
r an
h u
z a</w>
g e</w>
c l
e mp
s te
ci on
h as</w>
ca l</w>
" P
ing .</w>
z a
se d</w>
s ti
al .</w>
me u</w>
m os
me di
v a
mo i</w>
" I
tion .</w>
pro ble
b ut</w>
p ec
co l
t .</w>
i f</w>
t ri
i de
f un
m o</w>
at e</w>
s it
m es
l o</w>
p u
r ou
c al
a x
b ra
e ar
b y</w>
m un
r o</w>
se l
the ir</w>
m ar
t os</w>
w il
nec es
m on
so me
da .</w>
I' m</w>
th in
h el
wa y</w>
s ur
peop le</w>
de s</w>
p as
k e
t 's</w>
wh en</w>
so b
me ll
c ri
o d</w>
so ci
' re</w>
t ro
re la
re ci
os ,</w>
s ab
it e</w>
est e</w>
é n</w>
t ing</w>
tra b
o w
s on
li f
M y</w>
es t</w>
a f
ch e
b le</w>
per so
per i
de ci
os e</w>
m er
j ust</w>
ho w</w>
ha i</w>
l l</w>
v el
co s</w>
r a</w>
re s</w>
men t</w>
fac er</w>
i st
s úa</w>
h e</w>
te n</w>
u d
est a</w>
ab le</w>
A nd</w>
can do</w>
p la
Est ou</w>
se gu
ar .</w>
o f
ha p
co me
wil l</w>
qu e
ou tr
g ar</w>
for ma</w>
it 's</w>
v ol
u a
es ti
a do</w>
si on
b er
re c
st a</w>
? "</w>
th at
tr an
po si
n 't</w>
per o</w>
no v
ou s</w>
" I</w>
t al
ca use</w>
kno w</w>
da r</w>
ción s</w>
b u
y s</w>
sob re</w>
sen ti
ma ke</w>
ca r</w>
ch an
e mos</w>
" N
ma is</w>
Th is</w>
ti ve</w>
s in
a v
te ,</w>
vi da</w>
g re
" E</w>
so lu
wh o</w>
pre ci
i s.</w>
f al
a ."</w>
pro du
go ing</w>
st ar
Y ou</w>
co m</w>
te c
es s</w>
el l
ir a</w>
t ,</w>
B ut</w>
t or
to do</w>
v or
ta l</w>
w ere</w>
g en
e mo
for ma
g h</w>
thin k</w>
p on
p h
ge t</w>
in di
c ha
y ."</w>
s a</w>
sit ua
lo o
enci a</w>
t h</w>
wh i
o ther</w>
d í
w ant</w>
c in
e f
ñ o</w>
ne w</w>
m as</w>
n at
v en
le ar
w i
th ing
o ."</w>
ha d</w>
th ese</w>
ou r
d ing</w>
s t</w>
te mp
in to</w>
ou nd</w>
w ould</w>
" E
t ar
á s</w>
es ."</w>
t re
u p</w>
tion s</w>
pl an
v al
me .</w>
e le
ex peri
t y</w>
ción .</w>
b a</w>
í n
l on
a da</w>
" C
pe ci
g ar
s y
en ce</w>
x a</w>
Q u
h er
p o</w>
" (
" D
pode mos</w>
import ant</w>
st a
dade s</w>
m .</w>
" W
dade .</w>
ca m
g un
ch o
s k
an tes</w>
tran s
m ul
b ac
dif fer
st ru
d ."</w>
c k
d or
fe el</w>
f ri
fo i</w>
co us
al go</w>
be cause</w>
l it
u sed</w>
y ing</w>
po s
i ma
fa vor
P reci
" A</w>
m al
x e
ti me</w>
v ing</w>
I t</w>
se s</w>
ver y
" "</w>
ma n</w>
st an
se u</w>
se e</w>
ú as</w>
mo it
me s</w>
fu l</w>
sh ould</w>
a ción</w>
d or</w>
co ul
hi st
l an
y ear
th ere</w>
en tes</w>
n u
be t
hu man
gh ter
c ur
as e</w>
do ,</w>
A s</w>
p r
D e
or a</w>
ou n
as ,</w>
b ri
d ur
wa ys</w>
s ó</w>
ap ren
re ally</w>
ac tu
hel p</w>
e ."</w>
x ente</w>
e 's</w>
man y</w>
L a</w>
ra r</w>
pl ac
h is</w>
L au
ti c
mos t</w>
is to</w>
cam bi
bi li
th an</w>
v o
fi r
" The</w>
á n</w>
m s</w>
is ,</w>
a qu
Lau ghter
p ra
a tion</w>
m ust</w>
Laughter )</w>
b li
"S o</w>
in e</w>
ci a</w>
import ante</w>
so me</w>
w ar
se n</w>
l os</w>
he al
" T
j ec
t an
e very
ac h</w>
si on</w>
de ix
x en
le d</w>
s or
en c
an y</w>
co a</w>
res pon
wor k</w>
p in
fi ci
ir o</w>
g ur
" O</w>
e qui
trab all
some thing</w>
b r
ón s</w>
pa ci
o w</w>
nat u
fa mi
le .</w>
the m</w>
S o</w>
di fer
p ort
go od</w>
os ."</w>
comp le
par ti
s ci
g ran
se i</w>
ca da</w>
co me</w>
per son
men tal</w>
a d</w>
n ing</w>
coul d</w>
e u</w>
wor k
un der
it s</w>
er .</w>
whi ch</w>
l le</w>
. .
ter i
t in
c en
a is</w>
s ão</w>
wh ere</w>
ta ke</w>
por que</w>
to dos</w>
ta n</w>
C o
nos a</w>
h ar
re .</w>
le v
con tro
ment os</w>
si mp
ad os</w>
st o
er s</w>
ca .</w>
j u
de d</w>
si g
ing ,</w>
sh i
ca p
al ways</w>
t w
lo w
f ul
un a</w>
Th ere</w>
c li
in v
R is
t as</w>
c ent
ra l</w>
in forma
Th e
th ose</w>
or es</w>
b en
t or</w>
indi ca
o ther
ar y</w>
v es</w>
st ra
H a
cre a
wi th
p ul
lo ve</w>
g ú
0 0</w>
li ci
be en</w>
ra z
pro ces
x e</w>
h er</w>
i m
sur e</w>
differ ent</w>
se .</w>
wor l
b an
" Non</w>
ta m
n as</w>
est ou</w>
p es
or g
co un
an ti
du ca
d an
cer e
sa i
p el
a os</w>
z ar</w>
fin d</w>
si ón</w>
ci r
ce p
b us
ma r</w>
al so</w>
a mi
x ec
no lo
mun do</w>
d n't</w>
s í</w>
esta r</w>
c r
s al
fi ca
that 's</w>
g a</w>
th ou
li ca
an t
po l
te ñ
x o
lif e.</w>
th rou
mell or</w>
n s</w>
j o
i g
c k</w>
po lo</w>
h o</w>
can 't</w>
il l
c er</w>
in i
c es</w>
temp o</w>
f re
can not</w>
be ing</w>
I t's</w>
re ali
l les</w>
k es</w>
thing s</w>
da y</w>
v a</w>
lif e</w>
se ,</w>
se mp
po st
le t</w>
to .</w>
d re
b re
a da
in s
kno w
tam én</w>
me ,</w>
po la</w>
e p
al ,</w>
nos o</w>
" But</w>
th en</w>
t le</w>
trab al
n or
qu er
vi da.</w>
ar e
u p
on ly</w>
qu en
ble .</w>
ne e
hist ori
" O
esta ba</w>
b ar
in f
ó s</w>
it y.</w>
u ti
perso as</w>
pen s
ve z</w>
te mos</w>
an y
k in
ax u
so l
m ,</w>
is o</w>
tion al</w>
ma l</w>
Preci so</w>
te ."</w>
he ar
d ía</w>
e duca
le c
b ro
p ou
in te
ti c</w>
bo d
c ces
es co
com m
sa mos</w>
ma de</w>
c e.</w>
ve l</w>
ev en</w>
st or
fun da
" We</w>
on de</w>
mo ito</w>
pri me
mu ch</w>
co ñ
it a</w>
do w
ti vi
mi l
d un</w>
m ú
con si
é s</w>
tr u
o ver</w>
ing u
es peci
po der
k s</w>
as ."</w>
b est</w>
an os</w>
é n
ec e</w>
do ."</w>
al mente</w>
h an
throu gh</w>
h or
tiv o</w>
c le
e t</w>
e p</w>
d in
c ro
i a</w>
be for
tion ,</w>
ur e</w>
re du
ma i
re qui
The y</w>
res ul
pode n</w>
est án</w>
tur e</w>
lu gar</w>
co .</w>
t úa</w>
o me
c lu
semp re</w>
fri en
es per
e very</w>
b or
D on't</w>
ta in</w>
cous as</w>
á n
s úas</w>
ci r</w>
l er
at ing</w>
k ed</w>
an te.</w>
d ar
ci al</w>
ab or
en g
a in
it ar</w>
sy ste
P o
m é
produ c
o l</w>
mell or
ti s
lo w</w>
se e
fir st</w>
di ver
b o</w>
é x
s to</w>
e ve</w>
N ão</w>
ide a</w>
ch il
it a
sel f
loo k</w>
si ste
I n
P ero</w>
se us</w>
gre at</w>
n en
lo t</w>
be mos</w>
b il
"" ."</w>
chan ge</w>
o k</w>
c la
ta .</w>
actu ally</w>
tw o</w>
n un</w>
v ed</w>
z e</w>
Est e</w>
" B
se gur
g ro
b ab
t ."</w>
imp ro
í ci
lit tle</w>
e con
tion s.</w>
su b
res pec
re g
per fec
le ,</w>
d unha</w>
c as</w>
tr y</w>
i ra
it .</w>
gu sta</w>
L i
v ari
ç a</w>
ent s</w>
mu si
as t</w>
H e</w>
ín da</w>
r á
f es
ow n</w>
i d</w>
uti li
z o</w>
ent re</w>
x er
mú si
heal th
en er
ag e</w>
v ec
f on
at a</w>
par te</w>
neces s
in ten
c ó
su per
sh e</w>
r y</w>
p al
n unha</w>
d ra
v os</w>
teñ en</w>
os )</w>
me an
en vi
E l</w>
sel f</w>
a mp
with out</w>
Ha i</w>
o cu
l ar
c ra
ha t's</w>
s an
con fi
com a</w>
b al
ri ght</w>
mi s
en ti
al gú
you 're</w>
l in
f e</w>
am bi
te ch
fi cul
hu man</w>
h ere</w>
fami li
es a</w>
mo ment
de .</w>
le r</w>
at op
po is</w>
na da</w>
hel p
wor ld</w>
pos si
mes mo</w>
b ro</w>
er ,</w>
con stru
M e</w>
ó xi
t s.</w>
so .</w>
com uni
s peci
i li
ch e</w>
as )</w>
g y</w>
re ad
b en</w>
favor ite</w>
de ma
plac e</w>
lear n</w>
befor e</w>
W hat</w>
A p
bet ter</w>
g os</w>
c é
apren der</w>
ex pres
bac k</w>
cul tu
"" "I</w>
u se
con ver
u ro
s p
el a</w>
Ris as)</w>
to o</w>
.. .</w>
ti tu
un ca</w>
hap pen
ro .</w>
pro te
to das</w>
ar ound</w>
org ani
tur a</w>
re f
ã o.</w>
con tra
at en
l y.</w>
r as</w>
pre gun
po w
it os</w>
E n
gi ve</w>
? """</w>
ke y</w>
year s</w>
val u
al gu
af ter</w>
N o</w>
x o</w>
st and</w>
" M
den ti
R e
w at
ro o
mb er</w>
es senti
re d</w>
pres en
k .</w>
you .</w>
te m
ri s
ti es</w>
po li
on s</w>
" F
pa ti
ne ver</w>
it as</w>
di st
sa me</w>
ma .</w>
pro pi
bu il
con ta
de ber
an ce</w>
soci al</w>
T o
po ñ
op ort
E u</w>
v en</w>
th re
s pe
inter es
"( Laughter)</w>
í n</w>
o ver
pre par
í an</w>
su cces
gra n</w>
z as</w>
ab il
mu ito</w>
"I n</w>
ón .</w>
v e.</w>
oport uni
le a
p at
i da
ent en
T e
g er
dif íci
s os</w>
no w</w>
ing ."</w>
ac h
sa ú
n es
( Laughter)</w>
' ve</w>
sig ni
n er
the y
l es
est as</w>
ma t
x u
chan g
ab a</w>
z a.</w>
st u
or .</w>
mo st
li ght</w>
el l</w>
mi ñ
be au
ari o</w>
ac tiv
se xa</w>
no w
f í
en ,</w>
emo cion
de n</w>
t on
po pul
pe quen
outr a</w>
l as</w>
l ac
bra in</w>
su p
go t</w>
fa i</w>
fe el
pi ra
i ón</w>
f ron
dur ante</w>
to ge
p an
g in
ce ,</w>
p e</w>
con di
ê n
coñ ec
bod y</w>
t y
min ha</w>
õ es</w>
pro tec
pro fes
inv esti
ag ain
f ru
ción ,</w>
be li
a di
ti mes</w>
ow ,</w>
men te.</w>
da ,</w>
d s.</w>
a par
m ."</w>
vi r
qu ero</w>
ha b
we 're</w>
st ud
am or</w>
ele c
dif ficul
ti ca</w>
en fer
U n
di d</w>
"P ero</w>
nos os</w>
e i
ri gh
os o</w>
pu e
n ed</w>
me us</w>
m y
ar a</w>
ha bili
ma kes</w>
x ía</w>
de pen
to ,</w>
me l
qu era</w>
di se
"S e</w>
op port
ú ni
r it
aqu í</w>
tion ."</w>
fun cion
con nec
ca us
i denti
n ess</w>
k i
d os.</w>
a índa</w>
h on
g er</w>
ch ar
dade ,</w>
l y,</w>
envi ron
x in
i o</w>
f ol
er ci
y si
ob xec
al ."</w>
ad as</w>
men te,</w>
gen er
fo o
ment .</w>
essenti al</w>
w ell
ti po</w>
c ru
bi o
tiv a</w>
sh ow
s pec
po in
di c
ter min
ba ix
con tin
co mi
ar ti
mé di
da d</w>
pro gra
po .</w>
it ."</w>
ma king</w>
hap p
bo a</w>
te u</w>
pu bli
d ent
a ca
sion .</w>
pre ocu
do es
ar ,</w>
you r
músi ca</w>
do ing</w>
uni ver
al ity</w>
pr in
every thing</w>
co ur
a ju
ex emp
as í</w>
shi p
fi l
g rou
funda mental</w>
fu tu
est u
di dn't</w>
pou co</w>
f á
de vel
Qu e</w>
C h
se ver
al e
ti ca
s ing</w>
segu ir</w>
f l
e ach</w>
pa í
f ra
co ra
c ell
de fin
for m</w>
f ar
en vol
does n't</w>
di rec
a ted</w>
"I f</w>
n e</w>
b el
ón ,</w>
des .</w>
siste ma</w>
des pois</w>
A l
us o</w>
nee ds</w>
ma y</w>
traball o</w>
come z
vec es</w>
s as</w>
lan gu
f as
po do</w>
ef fec
t á
sti ll</w>
re co
econ o
c are</w>
z ed</w>
it ,</w>
f er</w>
par t</w>
os a</w>
ob jec
pol í
l ing</w>
Preci samos</w>
w al
r in
ol d</w>
kin d</w>
qu es
perso a</w>
p un
necess ary</w>
ke ep</w>
k ,</w>
under stand</w>
ther e's</w>
n ão</w>
d ous</w>
esta mos</w>
ca paci
so ,</w>
t é
rela x
proble ma</w>
nov o</w>
e i</w>
st ron
no thing</w>
h en</w>
f t</w>
d ou
a si
A sí</w>
u r</w>
con sci
moit as</w>
lo .</w>
c lo
2 0
utili za
they 're</w>
te ll</w>
bre a
outr os</w>
on .</w>
ma teri
ani mal</w>
u ra
ti ña</w>
rela tion
g lo
Te ño</w>
l .</w>
in cre
p er</w>
is ."</w>
ser i
re li
lo ,</w>
f en
op ini
qu e,</w>
p ut</w>
on ,</w>
natu ral</w>
lac k</w>
impro ve</w>
da y.</w>
d ro
"N ow,</w>
l ess</w>
dow n</w>
í fi
t ly</w>
cal quera</w>
an o</w>
Y our</w>
go .</w>
ci dade</w>
De bemos</w>
sai d,</w>
m i</w>
abil ity</w>
" You</w>
t í
re ce
ta mente</w>
s h</w>
mo .</w>
emp res
star t</w>
w o
th is.</w>
me d</w>
cal led</w>
Li fe</w>
L o
e qu
b on
ph ysi
mi ti
d est
ta in
lo gi
li m
to mar</w>
st er
ani mal
a ção</w>
E s
"A sí</w>
worl d.</w>
sa y</w>
ou t
ir os</w>
cor rec
cere bro</w>
b an</w>
w an
tec nolo
saú de</w>
l os
en do</w>
comp a
ch i
th .</w>
si de</w>
t ting</w>
n ex
outr as</w>
g g
de termin
tech nolo
moit os</w>
l ingu
ex amp
es tes</w>
e d
ag ora</w>
ac hi
0 00</w>
"I t</w>
soci e
it o.</w>
difer entes</w>
consi der
ca se</w>
lu z</w>
a de
un s</w>
te x
pi c
e ira</w>
wor king</w>
qu en</w>
pa z</w>
me ."</w>
ca me</w>
bi r
au to
ap pro
í as</w>
n unca</w>
min u
we en</w>
mo mento</w>
lon g</w>
h ou
fin an
L et
man ter</w>
in stru
T hat</w>
Est a</w>
tr a</w>
b ol
at ten
ar te</w>
us ti
ur a</w>
ti l</w>
st ri
mo l
j e
gro w
enfer mi
nos as</w>
Un ha</w>
x un
in clu
d on
, "</w>
éx ito</w>
v in
o per
r os</w>
mun do.</w>
mi ll
ma in
li gh
i gh
co ,</w>
atop ar</w>
res ol
i gu
b lo
va i</w>
n ós</w>
ing s</w>
in fec
ce le
c el
ax ud
Let 's</w>
e fec
A n
t os.</w>
ser vi
r ar
pode r</w>
en te.</w>
d este</w>
ca mp
w in
read y</w>
pens ar</w>
p a</w>
hi gh
des envol
v an
men ta
li fe
i dade</w>
contro l</w>
"W hen</w>
ti cal</w>
í r</w>
s our
ou s
est ra
pal ab
li ve</w>
indica dor</w>
heal th</w>
" H
fac e</w>
bet ween</w>
a z
re vi
in a</w>
fal ar</w>
all y,</w>
I sto</w>
tal k</w>
os to</w>
f ound</w>
ac t</w>
ver dade
t es
t ent
nex t</w>
mi ght</w>
t y.</w>
men os</w>
en d</w>
comm uni
st s</w>
natu re
U ni
í a.</w>
s ound</w>
s m
av o
a po
"P or</w>
pes so
t ou
go ,</w>
ta do</w>
a do
U n</w>
per son</w>
fi ll
c ent</w>
in cl
fe lici
a ma
" This</w>
ex ist
z .</w>
shi p</w>
o c
ex pl
al s</w>
a y
wh o
de l</w>
cha ma
ali dade</w>
indica tor</w>
da ."</w>
cl as
ce ."</w>
cambi ar</w>
a do.</w>
S u
bac teri
an za</w>
1 9
ç ão.</w>
mo tiv
e d.</w>
dí n</w>
"D on't</w>
segur o</w>
l í
beli eve</w>
ex erci
equi po</w>
di cir</w>
res s</w>
res ist
p os</w>
ne ga
n .</w>
l ti
histori a</w>
fi x
es pec
Qu ero</w>
whi le</w>
v ar</w>
star ted</w>
e ver</w>
do es</w>
bra in
inf lu
ac tivi
xe ito</w>
te d.</w>
medi ca
me mor
com par
car a</w>
tr ying</w>
l es.</w>
dis co
des cu
wh y</w>
proble mas</w>
pro jec
l ul
en to</w>
d ru
contin u
ari a</w>
af fec
re me
ad or
ac ces
traball ar</w>
po ten
p ú
on e.</w>
a vi
des a
a is.</w>
te am</w>
se x
b at
ad or</w>
st e</w>
pro bab
mo ve</w>
p ar</w>
g ni
el y</w>
wa ter</w>
u si
tra di
te ly</w>
se gun
s w
e y
"C ando</w>
g ru
ev ol
algu én</w>
mellor ar</w>
li ber
cla ve</w>
ani mais</w>
signi fi
re al</w>
g al
er e's</w>
ción ."</w>
T emos</w>
"A s</w>
vi si
su ch</w>
some one</w>
se ."</w>
d ri
come s</w>
pra c
devel op
d é
ca ,</w>
por t</w>
ho me</w>
ell ,</w>
C on
vi r</w>
vi du
ex p
algú n</w>
ada p
vi ol
proble m</w>
ment o.</w>
import an
D o</w>
, ""</w>
spe a
le g
ex ci
cl ar
we e
w as
thre e</w>
outr o</w>
imp res
di cir
ch all
ar ."</w>
a mente</w>
in du
dema si
us .</w>
to ler
ou l
n ó
indi vidu
i on
deix ar</w>
ç ões</w>
titu de</w>
s pen
re as
n este</w>
ti es.</w>
s ing
h y
ment s</w>
it o,</w>
ar on</w>
an other</w>
n er</w>
informa ción</w>
i l</w>
ex pec
á ri
ne ur
mi cro
ex ac
Ap pla
s i</w>
ra .</w>
prin ci
mul ler
ma te</w>
it al</w>
es col
en jo
de ,</w>
con su
st ante</w>
opport un
nov a</w>
g an
fi car</w>
cé lul
I' ve</w>
pú bli
fac el
es pa
ên cia</w>
w ent</w>
senti r</w>
requi res</w>
re almente</w>
e mb
e ar</w>
ar re
S o
Ris os)</w>
st re
co s.</w>
( Risas)</w>
ú lti
to gra
se man
difficul t</w>
v ent
per m
p es</w>
en contra
de mos</w>
bi g</w>
v ou</w>
ti me.</w>
t i</w>
fe li
dade ."</w>
a th
Appla use
tra ta
si l
lev ar</w>
l ar</w>
ful l</w>
fi c</w>
deci si
ción s.</w>
as u
tiv os</w>
inter est
cre ate</w>
op e</w>
má s</w>
j o</w>
i do</w>
fa z
de pres
cor re
bo o
" Th
í ,</w>
s es
ha ving</w>
glo b
es enci
bi t</w>
Applause )</w>
of ten</w>
fí si
f res
f el
des ,</w>
ac e</w>
n ing
musi c</w>
mo vi
li v
g or
us ar</w>
ma s
en ou
p ó
li st
expl or
e fici
difíci l</w>
de tec
cele bra
c á
í a
sour ce</w>
sa .</w>
pue de</w>
gran de</w>
fe w</w>
á re
se c
nov as</w>
i ce</w>
fi gur
a i
ment res</w>
en .</w>
a tion.</w>
S he</w>
"I t's</w>
sh ow</w>
feel ing</w>
1 0</w>
sti tu
solu ción</w>
lear ning</w>
fas cin
et .</w>
de fen
comp u
O ur</w>
G ú
A pla
sh o
peop le.</w>
ins pira
enc e.</w>
con ec
at ra
te ño</w>
no i
miñ as</w>
di r</w>
" Os</w>
vi v
t res</w>
requi re</w>
reg ul
da s.</w>
ca s
í .</w>
ima g
vi de
to da</w>
te m</w>
ta ble</w>
soci et
pro b
mer i
l ast</w>
ir as</w>
respon si
res ear
l at
es p
e as
c .</w>
b ran
s cho
re ,</w>
r í
mi ra
mai or</w>
c t</w>
beau ti
v és</w>
situa tion</w>
loo king</w>
e vi
"N o</w>
rá pi
op tion</w>
nen os</w>
le mente</w>
com for
ap p
G o
sm all</w>
ne w
me d
H ow</w>
r .</w>
fe ito</w>
cul ar</w>
ca be
sen ón</w>
per cent</w>
g r
P e
"" "
vi ax
syste m</w>
si ve</w>
re cor
po sta</w>
fo od</w>
de mo
ch o</w>
an sw
per miti
p ren
fon te</w>
ex tra
ch ing</w>
c y</w>
P or</w>
S into</w>
other s.</w>
li on</w>
hap pin
fer ra
ev itar</w>
ec es
P ar
A meri
v í
sta me</w>
mo der
mer ca
er i
e w</w>
con se
m s.</w>
con f
mean s</w>
in vol
ide as</w>
fá ci
er an</w>
ag ra
ac e
z on
work .</w>
situa ción</w>
pre v
per spec
har d</w>
ent es.</w>
emp re</w>
comp ro
an k</w>
your self</w>
tiv a.</w>
that ,</w>
ta s
se con
popul ar</w>
ist o.</w>
fal ta</w>
e w
cu ri
co as</w>
ali za
" É</w>
ve mos</w>
v ac
t ori
pre fer
possi ble</w>
lon g
informa tion</w>
f an
communi ca
T hat's</w>
' ll</w>
ó ri
raz ón</w>
ou tro
n on
cre ar</w>
ci ty</w>
axu dar</w>
ar se</w>
E uro
sk ill
s ent
mill óns</w>
B e
vel .</w>
prime iro</w>
par ece</w>
ob ser
n in</w>
le mb
la .</w>
hi m</w>
h os
en sin
cu sto
com ing</w>
P er
prime ira</w>
p ur
of f</w>
er ."</w>
capaci dade</w>
that .</w>
te l
tan to</w>
preci sa</w>
or s</w>
me ta
me r</w>
i da</w>
g ora</w>
d úas</w>
respon sab
person al</w>
da y,</w>
da y
c ed</w>
us os)</w>
i amos</w>
demasi ado</w>
"( Risas)</w>
toge ther
pa in
mul ti
mi c</w>
man eira</w>
gran des</w>
f ag
dor es</w>
da des.</w>
Est amos</w>
under stan
to ok</w>
sa y,</w>
sa tis
com b
co r</w>
c tion</w>
al low
war ds</w>
te le
i ,</w>
gu e</w>
ble s</w>
bi r</w>
D es
w on
tr o</w>
simp le</w>
s le
relation ship
ment a</w>
deci sion
ci ent
c all</w>
an os,</w>
algú ns</w>
a fec
N eces
"C o
sto p</w>
pla y
organi za
n ú
i mos</w>
hear t</w>
g an</w>
f ó
e ti
be le
ab ri
v os
te mente</w>
medi cin
dist in
c us
al low</w>
N o
Gú stame</w>
z in
li k
fel t</w>
ar s</w>
" They</w>
v ali
redu ce</w>
or y</w>
opportun ity</w>
m ing</w>
langu ag
it u
hi gh</w>
emp e
de l
d s,</w>
ch es</w>
ç o</w>
trans por
mar k
il l</w>
difer en
descu bri
chil d
evol u
solu tion</w>
see ms</w>
s í
pro vi
other s</w>
no va
f la
z ing</w>
ta ,</w>
t os,</w>
par e
deix es</w>
c unha</w>
al ready</w>
ti me,</w>
t est
par t
or ía</w>
l abor
ba si
ti co</w>
st ,</w>
prev ent</w>
oportuni dade</w>
neces it
i ro
au di
vir tu
pen sa
min d</w>
lu gar
li mp
de cora
be ha
ac u
ú n</w>
toge ther</w>
pro xec
n esta</w>
con tra</w>
c un</w>
ag or
a con
T i
"E n</w>
sur pri
s ou
pow er</w>
mo ve
f an</w>
c le</w>
us ing</w>
tru e</w>
sci enti
ge tting</w>
co o
ad ul
Apla usos)</w>
peop le
os a.</w>
ne uro
mo le
h al
est ud
compa ñ
ca u
aten ción</w>
pow er
lo go</w>
ci o</w>
z os</w>
utiliza do</w>
ti m
su a</w>
pla y</w>
perfec t</w>
on g</w>
help s</w>
con du
pro g
mos ,</w>
ma ,</w>
con cer
b ase</w>
us ,</w>
thin king</w>
th ing.</w>
pode s</w>
ob st
est r
enci as</w>
enci a.</w>
dur ing</w>
di ag
can to</w>
"W ell,</w>
wan ted</w>
tra vés</w>
ni gh
fami ly</w>
te ll
le xi
cul o</w>
beha vi
X a</w>
" V
par ec
health y</w>
dre n</w>
ari os</w>
ac ep
to wards</w>
st as</w>
sol ve</w>
se t</w>
physi cal</w>
or ta
me do</w>
est ás</w>
ant es.</w>
am os
thou gh
ta king</w>
so f
si dade</w>
re di
p ho
m in</w>
habili dade</w>
f oun
es cri
enten der</w>
des de</w>
den de</w>
de be</w>
as k</w>
E x
res posta</w>
p á
men tar</w>
h un
faz er</w>
de b
cri min
cambi o</w>
axu da</w>
Lo ve</w>
thou ght</w>
5 0</w>
w ell</w>
sen sa
s ."""</w>
po ,</w>
ima xin
de lici
cu ra
c y
ab le.</w>
t s,</w>
sel ves</w>
sa u
pres ent
medi o</w>
l ine</w>
h ,</w>
da ta</w>
con ta</w>
ac cep
we a
ro s
r est
presen ta
nu est
ke t</w>
g ri
g n
com mun
c ha</w>
any thing</w>
3 0</w>
you ,</w>
vi bra
l as
j ud
imp ac
educa ción</w>
d one</w>
"P o
we 've</w>
st al
parti ci
op en</w>
nu mber</w>
investi ga
des ig
de vi
cient ífi
a pi
tic as</w>
ol o</w>
main tain</w>
happ y</w>
for war
encontra r</w>
cul tura</w>
crea tiv
D N
ve ,</w>
self -
poin t</w>
der e
cor po</w>
be come</w>
b ur
an .</w>
al can
a way</w>
C re
2 0</w>
tem po.</w>
so u</w>
re gi
p ac
or ,</w>
o y</w>
m oun
ca so</w>
al g
C ada</w>
ñ ar</w>
v ul
ter .</w>
st .</w>
qu il
p p
it y,</w>
do c
ca sa</w>
at o
M o
who le</w>
tion s,</w>
o ?</w>
esenci al</w>
es es</w>
bili dade</w>
h ope</w>
di men
des cri
con cent
comp ren
ci a.</w>
cere bro
an al
ve z
ti cos</w>
te i</w>
ma y
go ver
en can
chil dren</w>
chall eng
roo m</w>
qu ality</w>
pre ven
er at
dre am
bo ok</w>
b all</w>
á si
know ,</w>
ha cer</w>
com parti
"E n
te us</w>
sab er</w>
rela ción</w>
re fu
ra di
p it
oul dn't</w>
j ar</w>
en ta
comuni ca
comp lica
animal s</w>
won der
wa y.</w>
to ."</w>
situa tion.</w>
self .</w>
re cu
r un
pun to</w>
glob al</w>
fo cu
den ce</w>
conver sa
c ni
F o
s ha
redu cir</w>
n ingu
des e</w>
des e
cultu ral</w>
cle ar</w>
buil d</w>
be b
as pec
an a</w>
á r
v es
reme mber</w>
p si
experi ence</w>
es as</w>
enou gh</w>
de bemos</w>
Co mo</w>
té cni
so l</w>
s ac
protec t</w>
pr óxi
g s</w>
fu tur
e li
de ira</w>
al o</w>
ab er
a w
un til</w>
ter s</w>
tecnolo xía</w>
ta mos</w>
succes s.</w>
stor y</w>
segu ri
ra i
ne go
n al</w>
lon go</w>
in o</w>
in .</w>
i d
comi da</w>
baix o</w>
al gun
G osto</w>
s ar</w>
op ción</w>
man ag
l li
di x
d ge</w>
b re</w>
avo id</w>
an z
H is</w>
0 0
s ?</w>
rec ur
or der</w>
moit a</w>
mo ment</w>
ami gos</w>
al ter
again st</w>
W e
vi sit
per sever
on e
mon e
m os.</w>
in do</w>
enc es</w>
da tos</w>
an ,</w>
achi eve</w>
H e
A qu
to ld</w>
sai d</w>
respec t</w>
il u
en d
cous a</w>
ci ar</w>
al s.</w>
S ome
re ac
pro mo
mi sta
m ero</w>
ing redi
in nova
i c
ex tre
dise a
cr í
ar es</w>
"S o,</w>
v o</w>
te des</w>
ta dos</w>
r y,</w>
es s.</w>
con segu
co u</w>
ci as</w>
ca paz</w>
bele za</w>
w hat's</w>
medi cal</w>
ig nor
i es</w>
han d
enjo y</w>
deber ía</w>
ba d</w>
ar t</w>
"P ara</w>
wh e
neur on
ma ñ
bus in
a cor
- -
( Applause)</w>
vol u
nat ur
g as</w>
es te
célul as</w>
ambi ente</w>
x es</w>
ro w
inte gra
in e
her e.</w>
at ori
ali z
a pro
us u
tech ni
reali dade</w>
proces o</w>
posi tive</w>
le ft</w>
le ad
l ,</w>
i ght</w>
fu ture</w>
di r
cul tur
comm on</w>
co ci
ba sed</w>
ar ía</w>
pe l</w>
op ção</w>
emo tional</w>
eas y</w>
co ."</w>
ci encia</w>
ca miñ
ar d</w>
, 000</w>
"" ,</w>
ó mi
tur n</w>
t ó
os o.</w>
op le</w>
g li
f y</w>
d esta</w>
comp orta
ch .</w>
ar ri
S er
P ro
" He</w>
éx ito.</w>
tic s</w>
technolo gy</w>
ome n</w>
muller es</w>
logi cal</w>
li br
hear d</w>
esti ón</w>
P re
"D e</w>
w ron
recu per
re al
mat ter</w>
h ing</w>
ca min
bri ll
vi su
se cur
mai oría</w>
is h</w>
inter i
inte li
ga do</w>
fáci l</w>
d i</w>
ani ma
ag re
â n
wa y,</w>
t t
signi fica
s ity</w>
qu es</w>
m it
ir .</w>
coun tri
c ally</w>
bil ity</w>
beauti ful</w>
be gin
al u
M usi
í amos</w>
t un
sup port</w>
reli gi
or que</w>
me j
lea ve</w>
inter na
i c</w>
ha r</w>
h y</w>
h ora</w>
er s.</w>
e co
col le
bus car</w>
bo th</w>
v an</w>
tivi dade</w>
the m
res our
qu ite</w>
publi c</w>
per for
gu i
de u</w>
be d</w>
V ou</w>
to ol</w>
ti ñ
stud y</w>
st ren
stren g
posi ble</w>
pas ar</w>
la do</w>
fe ito,</w>
con stan
ab an</w>
L e
Ap ren
í cul
wil ling</w>
tiv as</w>
re ."</w>
ma ch
famili a</w>
f un</w>
c es.</w>
ba stante</w>
au ga</w>
atten tion</w>
ar nos</w>
ad ver
sa w</w>
po los</w>
li ving</w>
ide a.</w>
habili dades</w>
futur o</w>
du ra
de ve</w>
apren di
ap pe
a mento</w>
V amos</w>
P en
N ow</w>
úni ca</w>
ver ed</w>
tre at
sh ar
sen se</w>
in ing</w>
h our
h o.</w>
e it
d os,</w>
co s,</w>
cces s</w>
ca s.</w>
ca ix
ble ,</w>
b ul
ab solu
a ción.</w>
uni que</w>
st res
pre dic
perm ite</w>
mi r
le ad</w>
di stan
cru cial</w>
comple x
co ll
ca mi
beau ty</w>
an ça</w>
a ter</w>
Th ere's</w>
ç as</w>
with in</w>
signifi ca</w>
s un
p sy
now .</w>
ira .</w>
ex per
comp as
G u
th is,</w>
prog res
pos to</w>
over come</w>
n ,</w>
mo ,</w>
mes ma</w>
felici dade</w>
ev ent
e d,</w>
che gar</w>
/ a</w>
"F or</w>
t ón</w>
secon d</w>
s we
my self</w>
j usti
experi encia</w>
exemp lo,</w>
deci ded</w>
cer tain</w>
bo l</w>
aju da</w>
Y ou
M ar
C an
z o.</w>
st r
ra pi
poder ía</w>
it y."</w>
he ad
e ci
S e
B o
é cul
tor s</w>
the m.</w>
the m."</w>
re i</w>
indu stri
in ,</w>
de ."</w>
d y</w>
b es</w>
ti ca.</w>
ten er</w>
st a.</w>
sel v
se en</w>
resol ver</w>
ra n</w>
po se</w>
ni vel</w>
me n</w>
li ves</w>
la ,</w>
is su
fin al</w>
di ab
de di
cour se,</w>
con ex
an s</w>
ad os.</w>
áre as</w>
th is
k ."</w>
frien ds</w>
esco it
b lu
Th ank</w>
D i
tal king</w>
st ar</w>
ser ía</w>
s cre
pesso as</w>
mon os</w>
langu age</w>
h os</w>
est ru
es for
do cu
dent ro</w>
con ven
ami g
you n
un der</w>
ref lec
pro fun
mel h
may be</w>
interest ing</w>
ho xe</w>
ge ,</w>
fi sh
every one</w>
ec er</w>
e di
dor .</w>
cion al</w>
au th
ad ores</w>
y ear</w>
vi sión</w>
pas o</w>
ou s.</w>
on e,</w>
ob je
j our
is t</w>
ef for
e mer
dor o</w>
coun tr
comp eti
au tis
allow s</w>
al most</w>
Some times</w>
w omen</w>
valu able</w>
s oun
p le
nú mero</w>
mon th
lear ned</w>
elec tri
e u
da n</w>
car e
tar ef
sab or</w>
ra s
ne igh
k en</w>
j a</w>
ck s</w>
ó ni
ver ,</w>
va ção</w>
show ed</w>
se em</w>
s es.</w>
res pe
na i</w>
in ste
f lo
de li
de al</w>
cre o</w>
con ti
as ked</w>
a ta
T E
H o
x ar
v it
su f
responsab ili
proble m.</w>
list en
li bro</w>
hab ía</w>
h in
gover n
e asi
ble ."</w>
an os.</w>
ac ci
ía me</w>
worl d,</w>
s us
p s</w>
or din
n ing.</w>
fi xo</w>
fa ci
der .</w>
dema is.</w>
coñec e
A doro</w>
A cho</w>
í a,</w>
te am
ta mb
sa y
pr á
or den
no ti
nature za</w>
mu itas</w>
incre di
gru po</w>
do ll
da s,</w>
ali mentos</w>
ver dade</w>
trabal lo.</w>
st in
solu tion.</w>
so mos</w>
so ."</w>
ri sk
qu er</w>
proces s</w>
opport uni
mo ther</w>
mi d
favor ito</w>
f lu
a mor
"N ow</w>
! "</w>
resear ch</w>
per der</w>
ou se</w>
incl uso</w>
e les</w>
d rin
"B en,</w>
x el
w rit
vi vir</w>
sor pren
re mo
re ma
propi a</w>
pe .</w>
paci entes</w>
ment s.</w>
l y."</w>
health .</w>
en or
á sti
á gu
tiv os.</w>
ti pos</w>
sci ence</w>
qu ando</w>
proble ms</w>
plan e
man i
ma s.</w>
m ari
los t</w>
g e.</w>
ent ly</w>
diver ti
T en
1 00</w>
" My</w>
understan ding</w>
t ando</w>
sing le</w>
pro per
pol as</w>
le ."</w>
know le
for on</w>
concent ra
( Risos)</w>
ver .</w>
t ou</w>
t es.</w>
segun do</w>
os os</w>
g ir
fac endo</w>
est ão</w>
demo cra
de ep
comp ani
ca ."</w>
at h</w>
I' ll</w>
( Aplausos)</w>
í ni
tion s."</w>
the m,</w>
preci so</w>
mo de
lo ca
in ed</w>
g .</w>
co ura
c have</w>
br ing</w>
an ce.</w>
ó ti
v ex
v as
us ado</w>
scho ol
sab emos</w>
rece i
profes sion
pres er
pode m</w>
mes mo.</w>
lo cal</w>
il y</w>
i a.</w>
ho od</w>
fre e</w>
do m</w>
di a</w>
ch ed</w>
car re
aju dar</w>
a da.</w>
"T o
" L
tr os</w>
te d,</w>
re ad</w>
prac ti
poñ er</w>
fe ar</w>
f all
esta ban</w>
child ren
ac ros
"W hat</w>
wor ds</w>
well -
tiv e.</w>
ta tion</w>
t ão</w>
super ar</w>
sen si
pen so</w>
pa y</w>
neces ario</w>
mes a</w>
materi al</w>
lo y
ful .</w>
ferra menta</w>
ent .</w>
di sa
d encia</w>
cho i
cell s</w>
ben ,</w>
T es</w>
' d</w>
"" W
x e.</w>
vul ner
tri bu
tra tar</w>
t úas</w>
sh are</w>
pati ents</w>
pa ix
le av
l ab
jo b</w>
gre at
frien d
for get</w>
enfermi dades</w>
econ ómi
co ida
can cer
S ta
P a
N unca</w>
C ar
" Hai</w>
wor d</w>
st ori
neces aria</w>
ne t</w>
ment ,</w>
loo ked</w>
li c
f our</w>
ener gy</w>
e pi
de ca
b as
algun has</w>
societ y.</w>
sob re
peop le,</w>
palab ras</w>
on es</w>
fo togra
de mais</w>
de lica
c tu
c s</w>
I s
proble ma.</w>
po día</w>
ou ght</w>
ment o,</w>
men te."</w>
le t's</w>
ins ul
in stitu
he 's</w>
go es</w>
fre e
fi el
exp li
dí as</w>
comp an
av ent
acros s</w>
A gora</w>
su fici
spen d</w>
righ t
o do
i so.</w>
ga me</w>
es qu
e des</w>
d á
con cep
c ing</w>
ben efici
be gan</w>
aprendi za
L os</w>
"I n
Á s</w>
t ty</w>
speci al</w>
sin to</w>
probab ly</w>
of fi
lo g
in tent
in side</w>
igu al
ge ts</w>
cr it
con for
come zar</w>
a is,</w>
So me</w>
vi o
va il
tiv o.</w>
so ñ
simp lemente</w>
qui ck
pa i
natu re.</w>
mol écul
mi les</w>
go o
es pin
dra g
dis crimin
den do</w>
coul dn't</w>
comm it
co s
b all
alter na
ade cu
Neces ito</w>
"B e
ty pe</w>
to p</w>
ta ."</w>
sy m
ou t,</w>
ningu én</w>
me mb
me as
ki ds</w>
in tro
in s</w>
fac er
do en
des er
col lec
ca bel
Co mp
" There</w>
stron g</w>
relation ship</w>
reas on</w>
ph one</w>
now ,</w>
nor mal</w>
na me</w>
ll a</w>
la w
ho mes</w>
di sh
de ta
d le</w>
can ti
ar ro
ar me</w>
a cións</w>
1 0
za is</w>
wal k</w>
ve ."</w>
ta s.</w>
si mil
segu in
se a</w>
re xi
pel ícul
o cor
nov os</w>
no me</w>
mell ores</w>
ch u
cap tu
am én</w>
A u
" Est
us ."</w>
tra in</w>
t ê
situa ción.</w>
sen do</w>
ri ed</w>
preci samos</w>
pre tty</w>
poten ti
neigh bor
hu mil
g osto</w>
fron t</w>
for mas</w>
figur e</w>
exac tly</w>
ex cep
es cal
di o
d r
alg unha</w>
I so</w>
é ri
vi ru
ti z
succes s</w>
so mb
ra s.</w>
li n</w>
ima gin
for te</w>
facel o</w>
f low
enci a,</w>
defin i
dedi ca
d ó
col or</w>
ción s,</w>
ch ur
c ali
ad vent
ac coun
"T o</w>
í sti
you ."</w>
t ari
permiti r</w>
mo mentos</w>
j ob
i >
hist óri
g ing</w>
est re
ent ón</w>
ent er
effec tive</w>
e dade</w>
dí a.</w>
cir cu
ad van
Pe ople</w>
C u
1 5</w>
worl d
wh er
se xu
se par
ra ,</w>
power ful</w>
ni ght</w>
import antes</w>
i ci
he ad</w>
ge m</w>
fac t,</w>
exemp lo</w>
examp le</w>
ex pla
es tiv
e iro</w>
desenvol ve
comp any</w>
co stu
cion ar</w>
ca tro</w>
am oun
20 0
up ,</w>
th ,</w>
senti r
s port
pu i
provi de</w>
poli tical</w>
pe di
mar ab
le vel</w>
in ver
ide al</w>
hist ory</w>
fi sh</w>
f ar</w>
e ?</w>
an ten
trans forma
thou gh</w>
t est</w>
socie dade</w>
sh or
proble ms.</w>
posi ción</w>
nos sas</w>
medi a</w>
happen s</w>
ga ve</w>
er ía</w>
dicir ,</w>
col abor
co p
a pe
.. ."</w>
á li
un has</w>
tr ust</w>
to day.</w>
temp or
ste p</w>
pl an</w>
person .</w>
on ce</w>
inf la
in e.</w>
g a.</w>
f r
can cer</w>
c ro</w>
an si
ag em</w>
a vail
a des</w>
J o
I' d</w>
"( Risos)</w>
"" O
z a,</w>
xo g
vi ew
tê m</w>
st ing</w>
st ant</w>
ra g
pri va
pri ori
par tes</w>
p .</w>
op p
ment al.</w>
marab ill
lar ge</w>
la u
know n</w>
et s</w>
environ ment</w>
ef fici
econo m
e za</w>
ba se
ax eit
ar á</w>
S e</w>
ón ."</w>
w ha
us h</w>
ste n</w>
so m</w>
so li
o x
nat ure</w>
m ort
l en
in cri
ima xe</w>
har mon
es sen
d s
confi anza</w>
chang es</w>
buil ding</w>
acon te
Su ccess</w>
" Life</w>
year s,</w>
wa it</w>
us ada</w>
some times</w>
se m</w>
s pi
s mo
s hap
ro r</w>
rela cións</w>
reco gni
qu í
ort h</w>
mon ta
lugar es</w>
import ante.</w>
gar anti
et y</w>
d ú
cu mp
caus a</w>
ca f
a ç
G raz
En gli
ñ a.</w>
people 's</w>
p ir
ous ly</w>
mun do,</w>
mil lion</w>
lingu ax
gi a</w>
examp le,</w>
enti re</w>
ec u
comple x</w>
comple tely</w>
ci dade.</w>
che mi
ca sa.</w>
ca de
affec t</w>
úni co</w>
ñ as</w>
wa y
v as</w>
to ol
ti mi
sau da
rela cion
psy cho
oportuni dades</w>
of fer
moment o.</w>
inte lli
inste ad</w>
in ha</w>
futu re.</w>
fol low
et ,</w>
en ce,</w>
educa tion</w>
e m
che g
all ,</w>
ac ter
a st
Po demos</w>
án do
vide o</w>
vi sta</w>
us to</w>
ti .</w>
stra te
s un</w>
pas t</w>
pa in</w>
no ite</w>
life ,</w>
it able</w>
is /
imag ine</w>
hou se</w>
g ,</w>
finan cial</w>
diag nos
d y
comez ou</w>
In ter
A fri
õ es.</w>
é ,</w>
vo ca
temp erat
simp ly</w>
sever al</w>
sa fe
recur sos</w>
qu é</w>
p t</w>
ne t
merca do</w>
l ose</w>
jour ne
j un
h ur
h old</w>
focu s</w>
f esta
encan ta</w>
di ante</w>
cul tiv
connec t</w>
comb in
To dos</w>
Ch in
"A o</w>
verdade ira</w>
ve m</w>
utiliza da</w>
te ma</w>
sp ac
s ar
ques tion</w>
pre vi
pi ece</w>
mul ler</w>
ma ."</w>
l á
is h
i .</w>
h ol
gu er
go ber
f in</w>
esta do</w>
es que
equi li
di es</w>
de por
col or
clo th
ce i</w>
c res
be came</w>
an cia</w>
al to</w>
ag ri
Ser á</w>
H u
Cre o</w>
"P er
" I'm</w>
wor ry</w>
ta ble.</w>
sub jec
sac ri
ri ch</w>
pres ent</w>
preocu pa
po bo
pel o</w>
paí ses</w>
pa is</w>
nu tri
ning ún</w>
nes s.</w>
melh or</w>
ins pi
grou p</w>
estu do</w>
emp re
cor por
cli mate</w>
c lear
b ly</w>
at ur
ari o.</w>
aqu í.</w>
R o
E la</w>
" Unha</w>
vi sion</w>
ta ción</w>
se ar
s car
qu ere</w>
mor e.</w>
li sten</w>
l es,</w>
is n't</w>
go ."</w>
fi ca</w>
di go</w>
di g
des ex
de mon
da ys</w>
con seguir</w>
co che</w>
be hin
be bi
any one</w>
answ er</w>
ad mira
a ur
M a
ñ en</w>
x én
worl d."</w>
vi da,</w>
ve is</w>
ve ge
tri ed</w>
to -
su post
star íame</w>
re n</w>
our selves</w>
of fer</w>
ob vi
o ce
nor mal
ne g
nature za.</w>
lo ."</w>
her e,</w>
foun da
favor ita</w>
el é
e d."</w>
dow n
do min
der s</w>
co up
co gni
ay be</w>
at u
appro pri
anal y
al ta</w>
a ?</w>
"I sto</w>
"Co mo</w>
z z
z o
youn g</w>
tr as</w>
tem po,</w>
se mos</w>
ref res
re pe
r ão</w>
profes ion
produc t</w>
po sed</w>
pel a</w>
min .</w>
man u
m us
it ing</w>
is mo</w>
est er
coñ eci
constru ír</w>
bu y</w>
are as</w>
M on
whe ther</w>
was n't</w>
tur ned</w>
thing ,</w>
spea k</w>
pl as
perso as.</w>
os as</w>
nos sa</w>
mar ket</w>
k new</w>
ir má
human os</w>
gú ns</w>
gu ar
for za</w>
ex ces
econo mic</w>
ear ly</w>
dest ru
de most
d ose</w>
d ente</w>
cl ini
ch ,</w>
b os</w>
b os
al ity.</w>
ab ili
C an</w>
t ing.</w>
t es,</w>
s ín
pe ix
mo do</w>
me asu
loo ks</w>
is/ her</w>
happin ess</w>
fi ve</w>
des po
des ."</w>
da mos</w>
d ão</w>
con tribu
c ,</w>
bac k
ap preci
a tions</w>
T er
"D es
ón s.</w>
viru s</w>
use ful</w>
to ma
ter api
t s."</w>
sta y</w>
st ress</w>
speci fic</w>
pre fer</w>
pi o</w>
op tion.</w>
mo ."</w>
mi r</w>
labor atori
in for
gra te
frien d</w>
ener xía</w>
emo cións</w>
e ment</w>
a ver
wee k
ti r</w>
te ac
ro de
ro ,</w>
resul tado</w>
prá c
preocu p
men sa
m al.</w>
fi t</w>
expec ta
ent re
dó lar
d ra</w>
d os."</w>
con stant</w>
clas si
cl ose</w>
ci do</w>
ch ec
cap able</w>
ca ta
b ought</w>
an g
O ne</w>
G :</w>
"" I</w>
thing s.</w>
th o
su ce
sin xel
s ó
s :</w>
res i
quí mi
produ tos</w>
princi p
pas a</w>
or ."</w>
ob ter</w>
nego ci
li mi
ist o,</w>
investiga ción</w>
in ner</w>
he li
g on
esper ar</w>
esco itar</w>
den tes</w>
conta c
cambi os</w>
accep t</w>
a í</w>
a in</w>
ó le
you 've</w>
vo c
tr á
to day</w>
ta kes</w>
su st
sin al</w>
ser á</w>
polí tica</w>
po ."</w>
pequen as</w>
o il</w>
l y
kin ds</w>
inter ac
i dades</w>
histori as</w>
ha .</w>
ex is
en sure</w>
din os
da d.</w>
co razón</w>
ci pl
ch or
ca mente</w>
bo t
an te
a me
W hy</w>
F ri
Est oy</w>
E very</w>
. 000</w>
"A l
vel o
valu e</w>
senti do</w>
sa ír</w>
s is</w>
re ach</w>
quer ía</w>
prote x
pati ent
mos ."</w>
ga da</w>
g rá
finan ce
en s</w>
deci di
de tal
curi os
can cro</w>
an xi
again .</w>
S empre</w>
" Este</w>
é m</w>
s al</w>
ran ge</w>
produ to</w>
perfor man
paí s</w>
o :</w>
mu dan
mo ving</w>
min d.</w>
m p</w>
k ing.</w>
k e.</w>
gro w</w>
f f
enfermi dade</w>
empe z
emo tions</w>
conex ión</w>
brea k</w>
az u
an o.</w>
an ."</w>
ai re</w>
acces s</w>
a ir</w>
R es
Musi c</w>
A r
tor es</w>
tim es,</w>
ten tar</w>
t ón,</w>
sion ,</w>
san ds</w>
pequen a</w>
obst á
ment ."</w>
li ña</w>
inv est
grate ful</w>
f fe
da mente</w>
cul ture</w>
cour se</w>
al th</w>
S on</w>
E E
De ix
va ca
us a</w>
tre es</w>
ti co.</w>
sti c</w>
star ting</w>
sta in
sle ep
scho ol</w>
sa í
s á
produc tion</w>
pla ying</w>
ou me</w>
médi co</w>
le ase</w>
i o
ge ."</w>
ga mos</w>
g ol
fi ed</w>
du e</w>
dru g</w>
dis posi
coun try</w>
conven i
con ser
co ver</w>
cl ou
at ta
To do</w>
E ar
"S ome
én ,</w>
ç a.</w>
w r
vi c
tiv as.</w>
s mi
ro u</w>
res post
ou t.</w>
mi l</w>
ment os.</w>
m ó
m s,</w>
lik e,</w>
life ."</w>
futu ro.</w>
fre quen
en ."</w>
des tes</w>
deci sion.</w>
col ler</w>
5 0
work s</w>
tecnolo x
res ili
parti cul
obxec tos</w>
no .</w>
mo ther
medi a
li qui
it ch
hal f</w>
gen e
g ar.</w>
feli z</w>
dis cipl
dest in
desa fi
defin e</w>
decisi óns</w>
deci sión</w>
ac ti
ab o
a tes</w>
"Be cause</w>
val or
to tal
tes ou
ter m</w>
te ach</w>
tar de</w>
succes s
s po
res ta
qu in
po ida</w>
mu y</w>
mone y</w>
li dar</w>
im post
il lu
gran d
g las
g es</w>
g el
frequen temente</w>
elec tr
da s."</w>
custo mer
cl íni
ci s
at tra
ap lica
an o
an ci
ag ar
L ear
E very
Co m
C or
wr ite</w>
vi da."</w>
vi a</w>
val or</w>
trabal la
sor t</w>
ra te</w>
neces ita</w>
má xi
lit er
ir itu
in ven
i ro.</w>
h and</w>
gu st
fun c
f -
e at</w>
di o</w>
contro l
chang ing</w>
chama da</w>
c í
ba mos</w>
an áli
The y
E s</w>
E duca
DN A</w>
v én</w>
together .</w>
th ro
th es
t ?</w>
stra tion</w>
sk in</w>
siste mas</w>
se cre
satis fac
ro ."</w>
r un</w>
pue do</w>
mi ent
hun dre
her o
er r
en fo
empres a</w>
compu ter</w>
cami ño</w>
apar ec
an to</w>
ami za
ad mi
Y or
T ra
Est ados</w>
"E ,</w>
" Un</w>
vol un
up .</w>
tur ns</w>
tra vel</w>
tra ta</w>
tel é
stori es</w>
skill s</w>
secur ity</w>
sal a</w>
r ma
pat h</w>
org an
obst ac
objec ts</w>
o me</w>
ix o</w>
i mer
i me</w>
i m</w>
human o</w>
he ar</w>
ener g
diver sidade</w>
dise ase</w>
co oper
car ne</w>
cabe za</w>
ca st
ben .</w>
be m</w>
av an
a ir
Qu i
C ol
é r
to do,</w>
ter ri
sy n
supost o,</w>
signifi can
s '</w>
ru p
qu e.</w>
pro ce
pr ó
po e
on ."</w>
necess ar
mun do."</w>
ma j
k a
incl in
happ en</w>
exci ted</w>
estr és</w>
difer ente</w>
comuni dade</w>
ck .</w>
cin co</w>
ca sa
c alidade</w>
ar ly</w>
ar gu
ñ os</w>
ty pes</w>
thou sands</w>
telé fon
ta da</w>
so la
shor t</w>
s )</w>
relationship s.</w>
nigh t.</w>
moun tain</w>
most ra</w>
min ist
me an</w>
man e
m or</w>
j et
imp act</w>
i so,</w>
fica ción</w>
e -
comporta mento</w>
científi cos</w>
b b
appro ach
a preci
Uni ted</w>
E ra</w>
águ a</w>
á ron
v al</w>
ta sk
ta par</w>
sí mb
su m
sin ce</w>
sig n
ser es</w>
sensa ción</w>
ris k</w>
que les</w>
propi o</w>
per fu
pa pel</w>
obxec tivo</w>
nos sos</w>
m í
m ou</w>
ing l
hor as</w>
ho me
go als.</w>
ex cel
environ ment.</w>
dan ger
cre di
cre ating</w>
con stante</w>
cli má
cle an
busin ess</w>
a go,</w>
M i
"S he</w>
vos tedes</w>
vi ew</w>
utili z
that ."</w>
te d."</w>
t os."</w>
st y
si ón.</w>
s ul
roo m.</w>
ri que
res t</w>
protex er</w>
projec t</w>
ol óxi
n el
movi e</w>
me io</w>
l ou
knowle dge</w>
inter pre
inteli x
fá rma
ful ly</w>
foo d.</w>
es cu
er s,</w>
d ari
d al
crea tive</w>
con tex
comparti r</w>
ck ed</w>
ci vi
cho ice</w>
c án
blo od</w>
as si
al í</w>
ado les
achi ev
ab an
F ran
á ni
xu í
wor ry,</w>
vol ver</w>
tra ba
throu gh
technolo gi
t ul
t os
st ro
seguri dade</w>
poli c
pho togra
impac to</w>
il .</w>
hor mon
happen ed</w>
gra zas</w>
gi ving</w>
fó ra</w>
founda tion</w>
experi enc
estr é
esper anza</w>
es ?</w>
e th
devel o
des af
cur ren
connec tion</w>
con v
co ffe
cl ase</w>
ci da
be l</w>
at .</w>
acces o</w>
a do,</w>
P orque</w>
I mos</w>
G ra
"N ão</w>
z es</w>
xen é
su gg
rou pa</w>
rou n
ra in</w>
pres ente</w>
plac e.</w>
pl ásti
pat ter
nu mb
nee ded</w>
le vel
ima ge</w>
hos pit
hab it
ha ir</w>
eng an
de ben</w>
d os
coñec er</w>
coup le</w>
continu e</w>
conse cu
col ate</w>
canti dade</w>
at mos
amoun t</w>
a men
a king</w>
T amén</w>
Est á</w>
Ameri can</w>
á .</w>
y 's</w>
wat ch</w>
tí sti
trata mento</w>
thing ."</w>
ther e,</w>
t u</w>
sp ace</w>
profession al</w>
proces s.</w>
pregun ta</w>
p é
of rec
micro bi
mellor .</w>
mel hor
me tros</w>
l ate</w>
jud ge</w>
grow th</w>
fa i
f ran
ey es</w>
esta bli
es crit
ec h
dro plan
dre am</w>
de mi
d ul
d res
d -
come r</w>
cer to</w>
ca t
bus ca</w>
blu e</w>
behin d</w>
avail able</w>
a xi
V i
N ew</w>
"E s
ç ar</w>
wo man</w>
wa ste</w>
show ing</w>
seguin te</w>
see ing</w>
pp ed</w>
pode des</w>
po lici
pe ac
of f
nu ev
necesit amos</w>
me et</w>
ing s.</w>
help ed</w>
frien ds.</w>
for e
fac emos</w>
dise as
conec tar</w>
cho ose</w>
cabel o</w>
at titude</w>
appropri ate</w>
agra deci
a ve</w>
They 're</w>
M aybe</w>
.. .
"A gora</w>
x usti
tra f
th is."</w>
stud ents</w>
se mell
sa ying</w>
pro por
o lo
nen o</w>
mos qu
mes sa
m ou
lí mi
long -
lim ita
le x
le t
l ha</w>
it amos</w>
in ci
import a</w>
hap s</w>
h á
ga ñ
fun ción</w>
for tun
f ur
dist ri
di ci
contro l.</w>
con tr
communica tion</w>
ci ty.</w>
cer tain
ban di
b ási
b ar</w>
are i</w>
apo i
an te,</w>
al mente,</w>
agor a.</w>
Th ese</w>
Al gúns</w>
á vel</w>
wh ite</w>
wat ching</w>
wa y."</w>
w ouldn't</w>
viax e</w>
vec es,</w>
tim es.</w>
su stain
st ro</w>
outro s.</w>
nov o.</w>
neces idades</w>
min ,</w>
happin ess.</w>
funcion a</w>
fl or
figur a</w>
f ren
f all</w>
ex cell
en e</w>
di ñ
cu ida
compro mi
chang ed</w>
bacteri a</w>
L et</w>
A D
za ."</w>
w n</w>
vi das</w>
vi ar</w>
v ó
tiv ely</w>
ti me."</w>
te ach
sym bol</w>
su d
situa ção</w>
sex an</w>
see med</w>
s or</w>
s ali
ro s.</w>
ris co</w>
right ?"</w>
resour ces</w>
re de</w>
ra ther</w>
prepar ar</w>
op en
ma in</w>
inten tar</w>
incre ase</w>
hour s</w>
for a</w>
experi mentar</w>
estud antes</w>
emp reg
eli min
dí a,</w>
di ficul
desaf í
des ser
cul os</w>
comp li
ci mento</w>
cal m</w>
ca sti
bi do</w>
b les.</w>
a j
I s</w>
E n</w>
í do</w>
xo go</w>
w orth</w>
vo z</w>
técni ca</w>
t y,</w>
símb olo</w>
sh ouldn't</w>
self ,</w>
run ning</w>
pi cal</w>
neces ari
médi cos</w>
mu itos</w>
help .</w>
fru tar</w>
f ose</w>
er a
en te
en a</w>
econo mi
e fica
do or</w>
develo p</w>
d s."</w>
d ly</w>
cul in
countri es</w>
come za</w>
coll abor
co raz
co lo
co la
ce i
camp o</w>
bo as</w>
al ong</w>
ada s.</w>
ac titude</w>
S i
"En tón,</w>
"E u</w>
ú til</w>
í a."</w>
x e,</w>
vi zin
tran qui
spec ta
resta ur
re fer
que ta</w>
produ ce</w>
peri g
nega tive</w>
n ."</w>
musi c.</w>
ma g
los ing</w>
lon ger</w>
jet os</w>
gra p
fac t</w>
ex i
espin af
espec ífi
es tion
en fron
emb ar
efec tos</w>
di vi
d ing.</w>
cu estión</w>
consi der</w>
chall en
car .</w>
b lack</w>
appe ar
ali dade.</w>
acep tar</w>
You 're</w>
F a
Educa tion</w>
D e</w>
A :</w>
xer on</w>
wonder ful</w>
ve d.</w>
v a.</w>
tor .</w>
tiv ity</w>
ta ken</w>
sion s</w>
se lec
se cu
re gener
proxec to</w>
ori gin
or ix
opportuni ties</w>
ob es
me et
ma tic</w>
listen ing</w>
le ast</w>
import ant
imp ul
esta va</w>
eng ine
di xo</w>
d ress</w>
conse qu
comunica ción</w>
chama do</w>
ch as</w>
bo mb
b un
at s</w>
ali zed</w>
Pen so</w>
Fo i</w>
! """</w>
w el
total mente</w>
titu de.</w>
ther ap
tell ing</w>
ta se</w>
spen t</w>
soci al.</w>
s li
rece itas</w>
pin ach</w>
ma te
l and</w>
k itch
ira ,</w>
in depen
high ly</w>
han ds</w>
gra r</w>
garanti r</w>
g in</w>
foo ds</w>
esta ble
e a
da do</w>
d ent</w>
comple tamente</w>
comfor table</w>
cer .</w>
bol a</w>
b la
app lica
an do.</w>
actu ar</w>
ac es</w>
N a
F i
A ,</w>
ú ti
z ,</w>
wron g</w>
well ,</w>
vari ous</w>
tra s
to do.</w>
su ici
so a
si ze</w>
se e,</w>
ro man
post os</w>
pi ec
moun tain
moment .</w>
ma gi
lik ely</w>
l s</w>
in o
g am
fru stra
fa il
ex a
empres as</w>
el as</w>
dis cus
ci cle
chil d</w>
as í,</w>
acor do</w>
a k
a co
O u
Ch ri
- lo</w>
" G
últi mos</w>
wo men
wat er
tor ti
sy mp
ster i
si empre</w>
se d.</w>
res er
ren o
produ ción</w>
po ida
parti cular</w>
on e's</w>
multi p
ment as</w>
mean ,</w>
m ous</w>
iro ,</w>
influ ence</w>
ide as.</w>
hist or
foo t
f abri
espec ta
er ing</w>
disa p
dis poñ
d ando</w>
cra stin
coñece mento</w>
compa ix
cle an</w>
c all
bli o
al le
De bo</w>
C al
"( Applause)</w>
" J
ver i
together ,</w>
ter ,</w>
so lici
simil ar</w>
s wi
s me
ro ck</w>
res pira
re qu
re lev
preocup es,</w>
plac es</w>
per man
par ts</w>
p as</w>
n ac
mej or</w>
lim it
li to</w>
k ing,</w>
ho me.</w>
fe z</w>
fami ly.</w>
est res
equi p
ele mento</w>
ele g
el se</w>
dan ce</w>
cur so</w>
cre ce
commun ity</w>
co ch
ción s."</w>
ci tiz
begin ning</w>
as h
amig os.</w>
ami go</w>
al go
Ho xe</w>
Gu staríame</w>
4 0</w>
1 2</w>
"O ne</w>
"A n
á vel.</w>
year -
tre at</w>
transpor te</w>
syste m.</w>
su ces
sig n</w>
righ t,</w>
resul ta</w>
quer emos</w>
pres cri
pequen o</w>
on line</w>
ning unha</w>
neuron as</w>
ne u
lingu a</w>
lan ds
l la
k s.</w>
interes ted</w>
impres ion
gh ter</w>
exerci se</w>
ex clu
est .</w>
espa zo</w>
dis h</w>
differ ence</w>
deber iamos</w>
con clu
co ld</w>
brain ,</w>
bet ter.</w>
ben ef
aç ú
axud ar
ag ain</w>
af ra
Po der
2 5</w>
z i
well .</w>
visu al</w>
vide o
v esti
ul ar</w>
sur vi
sh ed</w>
s low
read ing</w>
re uni
r on</w>
qui zais</w>
plan ning</w>
pl ani
pic ture</w>
pes o</w>
pai sa
noi te.</w>
mi ú
ment o."</w>
lo c
li sta</w>
lemb rar</w>
in si
ho o
gre ater</w>
ex ten
esti ma
es qui
ent es,</w>
emp loy
ef ul
de ep</w>
day s.</w>
có mo</w>
cous as.</w>
com ún</w>
caix a</w>
buil t</w>
bil lion</w>
ay u
au tori
apo io</w>
an se</w>
agre e</w>
activ ity</w>
acti te</w>
a tion,</w>
a fe
W or
"W e
work ed</w>
we ight</w>
v ós</w>
ul y</w>
tre n</w>
ti red</w>
sur roun
sor ri
sme ll</w>
skill s.</w>
sk ill</w>
si x</w>
segun da</w>
se is</w>
sa ve</w>
sa fe</w>
s co
resul t</w>
ra do</w>
polí ticas</w>
poli ce</w>
per cep
p ron
on es
má is.</w>
mo di
min has</w>
me t</w>
lev a</w>
in cen
grou n
fol low</w>
ferra mentas</w>
fer mos
fan ta
f esta</w>
en ce."</w>
dis posto</w>
der ,</w>
cá mar
con tar</w>
ch á
can sa
bi blio
beb és</w>
b it
at os</w>
análi se</w>
al co
afra id</w>
ac he
Aqu í</w>
you 'll</w>
x or
w on't</w>
ví de
v osa</w>
v in</w>
tu s</w>
trans par
ta de</w>
s es,</w>
respec to</w>
projec t.</w>
possi bili
palab ra</w>
or ity</w>
new s</w>
mole cul
limp eza</w>
libr os</w>
ilu min
gor a,</w>
gi ven</w>
fres h</w>
f lexi
expla in</w>
es pel
environ mental</w>
en 't</w>
dispoñ i
devi ce</w>
descubri r</w>
curren t</w>
cu ando</w>
contro lar</w>
conta gi
consi go</w>
cion al.</w>
cen to</w>
captu rar</w>
cap aces</w>
ca ke</w>
c ell</w>
basi c</w>
ama zing</w>
acu mul
activi dade</w>
ab on
To day</w>
R u
6 0</w>
"T hat</w>
ón s,</w>
x ul
ur y</w>
tic ally</w>
th ir
su fri
sa ud
s pre
res to</w>
pes ar</w>
pen sab
pe ,</w>
our selv
objec t</w>
nó s.</w>
moder n</w>
mil li
go al</w>
gi ves</w>
fin ding</w>
di ri
con ten
compro me
cere bra
bal an
arti fici
are a</w>
al ing</w>
C a
"" S
v ital</w>
v amos</w>
soci ais</w>
safe ty</w>
r g
qu al
pro vo
pro crastin
películ a</w>
par ty</w>
ou tra
ol los</w>
o g
neces ito</w>
month s</w>
mean ing</w>
ma z
linguax e</w>
i dade.</w>
for d</w>
fi co</w>
exac tamente</w>
et as</w>
esti lo</w>
es go
elé c
desig n</w>
des can
de ad
conf lic
co is
cl ási
che a</w>
bo li
behavi or</w>
b ú
at é</w>
at r
am on
accoun t</w>
a pa
E le</w>
< i>
< /
zon a</w>
z he
xun tos</w>
xo gos</w>
war d</w>
val ores</w>
tw are</w>
tiv en</w>
sob revi
sk y</w>
show s</w>
ship .</w>
scienti sts</w>
s per
respon se</w>
ra ."</w>
quer es</w>
públi co</w>
preocu pes</w>
pre to</w>
on s.</w>
o cé
neces idade</w>
mu se
mista k
mes mos</w>
mes es</w>
li es</w>
gra du
fix emos</w>
ex ter
en sai
emp ath
desenvolve mento</w>
da m</w>
cho colate</w>
che ese</w>
bri o</w>
bab ies</w>
açú car</w>
av a</w>
anti bio
anti bi
am ong</w>
alcan zar</w>
G re
AD N</w>
A ll</w>
óle o</w>
é ron
za tion</w>
vi vi
u ts</w>
tt on</w>
trans for
tran quil
ter ."</w>
te x</w>
symp to
some body</w>
sof tware</w>
si ti
s u</w>
ro bo
resul tados</w>
pra tos</w>
pe dir</w>
p es.</w>
ou t."</w>
opini ón</w>
mon tan
lími tes</w>
lo ve.</w>
li b
le n</w>
l ing
ho t</w>
fi cou</w>
fac er.</w>
expres sion</w>
excell ent</w>
especi ally</w>
enc y</w>
en ri
efec to</w>
e iros</w>
distri bu
dis cu
di e
comple te</w>
co zin
cir c
cere br
bir ds</w>
b ra</w>
as soci
an te."</w>
all .</w>
ali menta
ag o</w>
a de</w>
Cu sto
B a
"Some times,</w>
za ción</w>
year ,</w>
to xi
to car</w>
th ."</w>
ter ms</w>
t én
super fici
suf fer
solu ción.</w>
sle ep</w>
sil enci
re pu
re dor</w>
partici p
other .</w>
op tions</w>
on e."</w>
ob ra</w>
o fer
n y</w>
n ur
interes ante</w>
ima xes</w>
identi dade</w>
he av
físi ca</w>
for ce</w>
fo tos</w>
fi ght</w>
exci ting</w>
ent ,</w>
ed it
do ?</w>
delici ous</w>
deci sion</w>
de le
cli entes</w>
car ga</w>
ca ma</w>
ban queta</w>
b rou
ar te.</w>
ar qui
al er
ac tion</w>
ab ó
We 're</w>
S ent
Ha ve</w>
C ando</w>
20 1
"S e
" Esta</w>
tr uly</w>
to day,</w>
ta s,</w>
t -
su as</w>
sab e
rápi do</w>
ref lexi
reali ze</w>
reali dade,</w>
re com
pu ide
pobo ación</w>
pe ace</w>
on a</w>
nó s,</w>
me at</w>
ke ep
k e,</w>
it a.</w>
importan t.</w>
gu star
grow ing</w>
gar den
ga mes</w>
fa ir
ent s.</w>
en e
do g</w>
diver sity</w>
de man
de les</w>
da te</w>
da qu
d ou</w>
d estas</w>
con fer
ca used</w>
al a</w>
a ti
a queles</w>
a man
T al
N or
L ev
I S
C R
A d
"Per o,</w>
í ."</w>
x usto</w>
wa iting</w>
voc ê</w>
ver se</w>
vari os</w>
ta u
sto ol</w>
st ."</w>
si óns</w>
sab e</w>
refu xi
re des</w>
progra ma</w>
posi bili
man s</w>
interi or.</w>
intelli gen
import ance</w>
fe ed
especi almente</w>
er on</w>
en te,</w>
doll ars</w>
dese ñ
da y."</w>
da ma
d á</w>
cultu re.</w>
cu mul
constru c
che iro</w>
cha r</w>
car bon
caf é</w>
ca do</w>
boo ks</w>
bo x</w>
apro ve
an o,</w>
S ó</w>
M an
"" The</w>
zhe imer
your self.</w>
w it
tiñ an</w>
te ver</w>
syste ms</w>
su gar</w>
si st
se gre
sab or
s mar
responsi ble</w>
ra ce</w>
qu ar
probab lemente</w>
preci sa
pra to</w>
ple as
per di
paci encia</w>
pa i</w>
ner vi
moment s</w>
mole cu
mode lo</w>
mis s</w>
med it
lo ved</w>
ll o</w>
li ca</w>
l óxi
forwar d.</w>
fo to</w>
felici dade.</w>
evi dence</w>
es :</w>
enou gh
el o</w>
decision s</w>
d ness</w>
corre r</w>
coo king</w>
connec ted</w>
comp rar</w>
bo ard</w>
blo que
bir th
as king</w>
ar t.</w>
am .</w>
ag e.</w>
acci dent
8 0</w>
"D e
ç ões.</w>
z ap
y ed</w>
x estión</w>
work ,</w>
win d</w>
va tion</w>
v oso</w>
tí pi
traball ando</w>
tr ou
socie dade.</w>
si ento</w>
si a</w>
shap e</w>
seri e</w>
rique za</w>
recom men
re presenta
produc ts</w>
proble mas.</w>
prob as</w>
pati ent</w>
pa per</w>
me :</w>
liber dade</w>
l le
inter ven
imp lica
igual dade</w>
i th
hu ge</w>
gra f
f ast</w>
ex ha
emp at
di xo
di re
develop ed</w>
con fu
co s."</w>
cl on
cent ro</w>
ba da</w>
ar ma
ambi ente.</w>
ali zar</w>
al es</w>
ad .</w>
Ten go</w>
F or
D is
últi mo</w>
áre a</w>
y o
y ."""</w>
vo ice</w>
them selves</w>
t on</w>
t ar.</w>
sh e
sexu al</w>
s ú
s cal
pregun tas</w>
potenti al</w>
possi ble.</w>
perspec tiva</w>
min ds</w>
m ming</w>
ke pt</w>
investi g
h ori
gene tic</w>
f at
extra ordin
expres s</w>
expres ión</w>
es cen
en ga
dar k</w>
cu ar
compan y.</w>
com ú
carre ira</w>
cap ture</w>
cal cul
brou ght</w>
be ,</w>
al s,</w>
al qui
af ter
ab sor
a gu
a :</w>
U U
S in
G i
0 ,</w>
"P en
" e</w>
we b
tra ining</w>
tiv e,</w>
stres s.</w>
soun ds</w>
ro mp
ques tions</w>
quer en</w>
pá s
pró pri
prefer ido</w>
preci s
port a</w>
pas ado</w>
neur ons</w>
mo lo</w>
mark et.</w>
man do</w>
long- term</w>
is m</w>
instru mento</w>
incredi ble</w>
in vi
imp or
imp er
hi m
gu e
gre en</w>
fer i
fa ir</w>
escri bir</w>
es cap
equi pa
en o
eléc tri
el e</w>
coura ge</w>
constru í
con sul
cent os</w>
ce o</w>
bo x
be ach
ar o
al one</w>
ad vi
ad os,</w>
ab les</w>
Uni ver
T o</w>
P ri
Be cause</w>
"P orque</w>
xen te.</w>
xe ñ
wal king</w>
w is
vez ,</w>
v or</w>
v ita
v ar
ul t</w>
traf fic</w>
tradi tional</w>
tra vel
tica ,</w>
ti es,</w>
technolo g
streng th</w>
self ."</w>
s cen
resul ta
que i
que da</w>
photogra ph
per ten
or s.</w>
nes s,</w>
mu dar</w>
mb le</w>
mate má
mark et
m es.</w>
interna tional</w>
for tal
ex pan
er ed</w>
empe zar</w>
dru gs</w>
disco ver
develop ment</w>
deta il
de bido</w>
d ."""</w>
có mo
creativ ity</w>
cor r
compani es</w>
cin e</w>
celebra te</w>
car b
av ali
an t.</w>
ali ment
ale gr
again ,</w>
ac cor
ac ari
S pinach</w>
Par ece</w>
Ex pres
E mp
E ach</w>
C he
Al zheimer
A índa</w>
we ar</w>
verdade iro</w>
usu ally</w>
trans fer</w>
tou ch</w>
torti lla</w>
tor rão</w>
th en,</w>
ter mos</w>
ten d
teac her
te l</w>
ta mente.</w>
sín to
sor pres
ses ión</w>
seri ous</w>
resol u
resist ant</w>
re volu
ra pa
qual quer</w>
pás sar
pa per
na vi
n ese</w>
my self.</w>
mi lit
man ,</w>
mach in
m -
intro du
individu al</w>
in va
in ."</w>
ide s</w>
hon esti
high -
hi po
h es</w>
forwar d</w>
fla vor
fi ro</w>
ex pen
essen cial</w>
en xeñ
en ds</w>
dra w
desenvol ver</w>
deber íamos</w>
cu alqui
cualqui er</w>
come cei</w>
celebra r</w>
caus ar</w>
biblio te
b oun
at ure</w>
at er
arre dor</w>
aprendiza xe</w>
appreci ate</w>
animal s.</w>
af ron
ado p
adap ta
ad ,</w>
aban don
M u
M ais</w>
Is so</w>
"Th ese</w>
vio la
ti ver
ti g
ther ,</w>
ten do</w>
tau ght</w>
su itable</w>
stru gg
star ts</w>
solu ção</w>
societ y</w>
sit ting</w>
seri es</w>
sear ch</w>
righ t.</w>
recuper ar</w>
re cep
ra is</w>
poten cial</w>
posi tion</w>
pic tu
perfec to</w>
net work</w>
ner v
n am
má s.</w>
m est
leg al</w>
leav es</w>
i as</w>
hon est
ha y</w>
grap hi
finan ci
fac ía</w>
f ú
experi ment
escol ha</w>
ent ra
enci a."</w>
en ce
empres a.</w>
emocion al</w>
effor t</w>
ec e
e ta
e ."""</w>
dur o</w>
dixo :</w>
diseas es.</w>
diferen za</w>
di u</w>
confi dence</w>
con cre
can o
bot to
attra c
at ri
as se
aqu í,</w>
ab a
W al
S el
Lear ning</w>
C ali
"Th ere's</w>
"A gora,</w>
"( Aplausos)</w>
" R
últi ma</w>
ô ni
é tica</w>
u ses</w>
to tal</w>
ti sti
ther e.</w>
techni que</w>
st ry</w>
st op
st ate</w>
sobre mesa</w>
seman a</w>
responsabili dade</w>
reme mb
re p
re ach
p lu
p ital</w>
mu ch.</w>
mor r
mor al</w>
medi das</w>
meas ure</w>
liv es.</w>
l un
interi or</w>
in crea
grou nd</w>
great est</w>
govern ment</w>
g ed</w>
fix en</w>
exp lo
en der</w>
do los</w>
cump ri
coo ki
comfor t</w>
cir ur
car eful
ca s,</w>
at ing.</w>
as í.</w>
are as.</w>
ade qu
a ke</w>
Po de</w>
M inha</w>
K ,</w>
Ha y</w>
A c
"N a</w>
"A t</w>
ú e</w>
é .</w>
y et</w>
y ?</w>
ve ment</w>
valu es</w>
ur ing</w>
treat ment</w>
through out</w>
terapi a</w>
team .</w>
te ?</w>
t ort
so a</w>
sk ul
sit y.</w>
si ve.</w>
si n</w>
ro le</w>
perfu me</w>
peac e.</w>
par ents</w>
organi z
musi cal</w>
mid dle</w>
glas s</w>
fi s
fi jar</w>
fac ing</w>
fa ther</w>
equip ment</w>
ele ment</w>
e f</w>
di stra
cres cimento</w>
conversa tion</w>
con ci
col óxi
col lea
co bre</w>
clas s</w>
che gar
car acter
can cro
ca sos</w>
bi cicle
bacteri as</w>
as sa
Po do</w>
B en,</w>
/ a.</w>
á ,</w>
we 'll</w>
vo i
ve is.</w>
ul ti
tru th</w>
trabal ho</w>
tor y</w>
thin k,</w>
th an
ter ía</w>
sacri fi
reci pes.</w>
organ is
ocor re</w>
oc ê</w>
má is,</w>
mor te</w>
min i
me ?</w>
mar .</w>
lar g
la ."</w>
l ."</w>
k id</w>
informa tion.</w>
in stal
i dar</w>
fi gu
feli z.</w>
exerci cio</w>
excel ente</w>
est al
er am</w>
epi demi
dou b
disco vered</w>
disco ver</w>
difer ente.</w>
d ry</w>
cu is
cro w
cri tical</w>
crea tividade</w>
comez amos</w>
co u
co st
ca bal
c les</w>
bu t
bil ity.</w>
beli ev
bar b
bal ance</w>
auth ori
ato par
ar ing</w>
ap pin
an za.</w>
an os."</w>
al one.</w>
actu al</w>
abó bada</w>
a per
a ción,</w>
TE D</w>
S ab
P ara</w>
En tón</w>
D r.</w>
7 0</w>
" Re
ó gi
ári a</w>
wha tever</w>
ve ter
ve hi
vari as</w>
tu do</w>
tool s</w>
tic .</w>
taref a</w>
ta ste</w>
ta st
t ."""</w>
solu cións</w>
situa cións</w>
segu i
se as
say s,</w>
ri ca</w>
res .</w>
rela ted</w>
reali zar</w>
re r</w>
re ly</w>
ph er
p il
ou s,</w>
os t</w>
os ing</w>
ones el
na tional</w>
la un
l ite</w>
j ar
is co
ira s.</w>
igu al</w>
fun ction</w>
f rí
especi e</w>
especi al</w>
ener x
en temente</w>
drin k</w>
doc tor</w>
decision s.</w>
cul p
cu t</w>
cro s
co ber
cli entes.</w>
cin a</w>
ch ron
cerebro ,</w>
ce der</w>
car i
bod y.</w>
basi cally</w>
ba ter</w>
ar es.</w>
appin ess</w>
amiza de</w>
ad d</w>
"M ais</w>
ân cia</w>
y on
y -
un o</w>
tas k</w>
tar se</w>
tan to,</w>
sud den
stru ctu
son ,</w>
pres sure</w>
pres ence</w>
prepar ing</w>
posi ble.</w>
pe tr
pas sion</w>
o xi
nu vem</w>
n it
mo del</w>
mo del
min a</w>
medica tion</w>
ma xin
lin e.</w>
li cor</w>
lat er,</w>
ith out</w>
inclu ding</w>
in crí
hab er</w>
gar den</w>
fre cu
fi re</w>
fer ves
fac e.</w>
est s</w>
es to</w>
emp o</w>
emocion al.</w>
dor es.</w>
dere itos</w>
de z</w>
de i</w>
da u
da ily</w>
có r
contac to</w>
consider ed</w>
consci ous
co ment
che o</w>
challen ge</w>
caracter ísti
bar ri
at ,</w>
as un
ar e,</w>
ap u
ag ger
ac er
G ar
Engli sh</w>
- la</w>
"S on</w>
za ção</w>
xun to</w>
xen te,</w>
writ ing</w>
ven do</w>
u li
tr end</w>
tiv amente</w>
th ank</w>
ter ce
ta mento</w>
sit e</w>
sig nal</w>
sh e's</w>
segur ança</w>
segu ro
sal u
s and</w>
regul ar</w>
reali zed</w>
re médi
qu em</w>
prob ar</w>
pres ión</w>
p per</w>
p ,</w>
ol l
na ve
ho li
hi on</w>
happ y.</w>
h is/her</w>
fill os</w>
fill o</w>
famili a.</w>
estu dos</w>
estra te
es sa</w>
enor me</w>
emo tions.</w>
develop ing</w>
des cen
de ath
con he
compu ta
commun ity.</w>
ch ."</w>
c en</w>
bor n</w>
ben ."</w>
b ín</w>
b ag
analy sis</w>
ac compli
a te
a segur
O n
M edi
In di
ên cia.</w>
wat er.</w>
vege tari
v on
tó dolos</w>
tri p</w>
ther e."</w>
tain ing</w>
stron g
seman a.</w>
segu e</w>
see k</w>
se ñ
san it
righ ts</w>
reci bir</w>
r ando</w>
progra m</w>
pra zo.</w>
pp ing</w>
po ño</w>
pequen os</w>
people ."</w>
pan tal
ou .</w>
nuest ra</w>
mun di
mon it
molécul as</w>
me ters</w>
me ly</w>
me can
manag ement</w>
ma xi
lo gy</w>
li z
le f
ir m
invol ved</w>
interes ante.</w>
incre as
hou se.</w>
ho j
hear t.</w>
h á</w>
fra caso</w>
ferves c
explor e</w>
es ca
ent a</w>
en tal</w>
dú bi
di vin
depres i
decisi ón.</w>
cy cle</w>
cur a</w>
crece mento</w>
ci an</w>
cha mp
ces ."</w>
ca bo</w>
bo m</w>
b l
ar chi
ac cura
a ci
V ocê</w>
Sel f-
Qu er
- year-
"W ith</w>
"T hat's</w>
visi ble</w>
ven to</w>
ur ban
ty pical</w>
tor n
tiv a,</w>
ti do</w>
th i
surpri se</w>
sufici ente</w>
so on</w>
si s
sh opp
scienti fic</w>
saú de.</w>
san gu
sab en</w>
s ?"</w>
responsi bility</w>
re d.</w>
ra pac
qu anto</w>
popul ation</w>
play ed</w>
per haps</w>
op cións</w>
n ing,</w>
mu tu
mo ved</w>
mi gra
merca do.</w>
men ti
mb o</w>
lit erat
li der
is so</w>
ingredi ente</w>
incredi bly</w>
in os</w>
in er</w>
gi ft</w>
g ul
for ni
fes tiv
f ying</w>
f it
establi sh</w>
er ros</w>
emocion ado</w>
ele mentos</w>
e o
e a</w>
des ta
des i
des as</w>
demon stra
de bu
cultur es.</w>
confi gu
compren der</w>
clou d</w>
circ un
ba i
b ru
ari as</w>
apro xi
apo y
ap res
ant es,</w>
an c
ac ción</w>
ab ur
ab le,</w>
T V</w>
Est ás</w>
Comp rei</w>
9 0</w>
"T emos</w>
"S ab
"A índa</w>
" U
én .</w>
z e
year .</w>
well ."</w>
ti empo</w>
ther .</w>
ter r
te ña</w>
te odo
ta ma
ta ge</w>
st o.</w>
sport s</w>
speci es</w>
son s</w>
son g</w>
si to</w>
relax .</w>
reco men
re par
re ality</w>
próxi mo</w>
próxi ma</w>
princi pi
present a</w>
prepar ed</w>
pregun tar
predic t</w>
practi ce</w>
prac tic
play er</w>
pa ir</w>
ofrec er</w>
obje to</w>
o í
nos so</w>
n er.</w>
mos lles</w>
medi da</w>
m s."</w>
lo ts</w>
isco itos</w>
ingredi ent</w>
i óns</w>
i ção</w>
happen ing</w>
ha ven
gustar ía</w>
gen der</w>
fa st
f .</w>
ex change</w>
esp í
equi po.</w>
dólar es</w>
dor ,</w>
di ed</w>
crea ted</w>
consi st
con vin
clini cal</w>
cion es</w>
cal es</w>
c )</w>
br in
bi gg
be yon
be coming</w>
be comes</w>
avent ura</w>
av anz
ar m</w>
an a.</w>
amen do
am ar
agor a,</w>
ag it
ad ora</w>
TE D
H ar
Fri end
De ber
Cali forni
5 00</w>
í xen
á de
za do</w>
xen es</w>
xe o</w>
to dos.</w>
teodo lito</w>
ten dencia</w>
taref as</w>
ta ba</w>
t ly.</w>
si t</w>
repe ti
refu ge
reci pro
quick ly</w>
pro to
pos so</w>
pen samos</w>
pe ace
parti r</w>
non -
ne a</w>
má n
mosqu et
mosquet ão</w>
minu tos</w>
meta de</w>
memor y</w>
melhor ar</w>
mani pul
ma gn
m is</w>
li st</w>
know ing</w>
is la
inv it
ini ci
influ enci
hundre ds</w>
her e's</w>
he iros</w>
gru pos</w>
gi f
g ent</w>
fi a</w>
f f</w>
experi ence.</w>
estru tura</w>
esqui var</w>
es quer
es pre
eri can
diver si
dis frutar</w>
direc ción</w>
de ath</w>
cri ar</w>
crea tivi
co res</w>
co lec
chur ras
chang e.</w>
car ab
c ú
br ush</w>
barb ecu
atr ás</w>
ama z
advent u
ada ,</w>
a tion."</w>
a for
S te
S ci
P u
I f</w>
Graz as</w>
B re
2 00</w>
1 8
"P olo</w>
"" N
z as.</w>
xe it
vol ta</w>
ver ."</w>
velo cidade</w>
un ci
trabal lo,</w>
tr ás</w>
tr en
ta me</w>
t ú
sustain able</w>
sur ger
sup port
stru c
st at
spea king</w>
smi le</w>
sen t</w>
que i</w>
pássar os</w>
pro pó
poder ían</w>
pi z
pesso as.</w>
per cei
on to</w>
odo lite</w>
na da.</w>
moment o,</w>
miú do</w>
medi ante</w>
ju i
jo y</w>
inspira tion</w>
industri a</w>
in stan
importan cia</w>
i gre
gra ti
gh ting</w>
ga ñar</w>
g en</w>
every thing.</w>
every body</w>
esque zas</w>
en vel
electr óni
dig ital</w>
dere ito</w>
có digo</w>
cre ación</w>
conv enci
con t
co le
chu va</w>
cho cola
cheg ou</w>
cer ca</w>
c ."</w>
be gin</w>
b s</w>
atten tion.</w>
am os,</w>
algo dão</w>
agradeci do</w>
ac tive</w>
a mente,</w>
a er
Ti ña</w>
D o
"S en</w>
"C ada</w>
ñ a,</w>
ver mel
v am</w>
us ando</w>
univer sal</w>
tre ated</w>
to ma</w>
thing s,</w>
t ese</w>
su peri
st ran
so ft</w>
skul l</w>
sion ."</w>
sin cer
sh ort
sa ys</w>
rest ri
prote ín
progra ma
plan tas</w>
pl en
perso as,</w>
perso a.</w>
pens ando</w>
pe li
pas sa
os as.</w>
op timi
obstá cul
noi se</w>
mo bi
instru c
importan te,</w>
illu min
identi fy</w>
i a,</w>
hos pital</w>
gober no</w>
g y
favor ,</w>
f ter</w>
exist e</w>
estrate xi
es paci
enc es.</w>
dri ving</w>
differ ences</w>
des es</w>
custo mer</w>
consider ar</w>
cloth es</w>
cin e
challeng es</w>
c es,</w>
brain s</w>
as su
ar ran
ar e.</w>
achiev ing</w>
absolu tely</w>
a tive</w>
a tions.</w>
a te.</w>
Engli sh
Co tton</w>
"" A
á is</w>
wh ist
ve ñen</w>
vari ety</w>
up ."</w>
tri ste
to t
teléfon o</w>
tell s</w>
sab ía</w>
s ão.</w>
reli xi
pro per</w>
pri vac
posi tiva</w>
po b
plan s</w>
pi ques</w>
per í
os op
org ul
monta ña</w>
mi rar</w>
menta is</w>
men tes</w>
med ita
mal a</w>
lo grar</w>
journe y</w>
imp e
il osop
hur t</w>
human a</w>
histori a.</w>
haven 't</w>
ful ,</w>
for te.</w>
for ms</w>
fon do</w>
famili ar</w>
fa ilu
explor ar</w>
ev it
estable cer</w>
es pon
ent es."</w>
enci as.</w>
ei ther</w>
econom ía</w>
easi ly</w>
disposi tivo</w>
deber ías</w>
de a</w>
cu st
cor ri
consu mi
constan tly</w>
con tar
con fir
coffe e</w>
circu m
c ción</w>
avent ura
audi ence</w>
ar ra
amos ou</w>
amendo im</w>
abur ri
a is."</w>
No va</w>
Musi c)</w>
L u
Every thing</w>
Es pero</w>
E sa</w>
Co me
C ent
"" "We</w>
who 's</w>
w er
vel y</w>
vac in
tur as</w>
te ce</w>
syste m,</w>
sto od</w>
spe ed</w>
sk y.</w>
situa tions.</w>
significan t</w>
servi ce</w>
s é
s pon
s os
roo m,</w>
re ver
re gar
ra in
r ú
pu zz
pro ba</w>
par que</w>
paci ente</w>
pa sou</w>
out side</w>
ou co</w>
os ?</w>
opini on</w>
mu cho</w>
mir ror</w>
medica mento</w>
medi ate</w>
mar ca</w>
man ex
li bro
inter net</w>
ig n</w>
human s</w>
human a.</w>
hel o</w>
ha cia</w>
ha cer
g ger</w>
ex agger
estré s.</w>
esti mate</w>
es s
es pe
er s."</w>
el .</w>
el ,</w>
dificul ta
di n</w>
despo is,</w>
cultur as</w>
cu esti
ck ,</w>
chemi cal</w>
cer te
cau ses</w>
carab iner</w>
cap it
can te</w>
ca dra</w>
br ings</w>
beyon d</w>
bac k.</w>
axu da.</w>
anci ent</w>
an tar</w>
am erican
al o.</w>
T ru
S y
R ob
Pe an
Go og
F u
F in
Custo mi
C hi
"S u
"O n</w>
ó li
â ni
án .</w>
zap atos</w>
z o,</w>
xo gar</w>
x ef
wea ther</w>
visi t</w>
viax ar</w>
v ou
tica s.</w>
ti ble</w>
them selv
the ma
stan dar
solu tions</w>
solu cionar</w>
sh own</w>
s cra
recogni ze</w>
proxec to.</w>
propi as</w>
permiti r
peace ful</w>
par ty.</w>
par k</w>
pa se
pa gar</w>
p s.</w>
ob ri
mis sion</w>
inclu de</w>
in nov
in ho</w>
im mun
ho ok</w>
ha ir
h .</w>
fú t
fal ando</w>
extre mely</w>
esta tísti
esqu ec
esco la</w>
employ e
el a.</w>
ei ght</w>
effici ent</w>
effec ts</w>
e g
e as</w>
dor a</w>
di a.</w>
deser ve</w>
depres ión</w>
demo stra
de más.</w>
cur e</w>
cri a
cor po.</w>
com un
com erci
coci ña</w>
cida d
bo ar
bi qu
bebi da</w>
be i
aspec to</w>
ape tece</w>
affec ted</w>
ad or.</w>
ac k</w>
S ol
Neces itamos</w>
K e
Euro pe
C op
B i
B e</w>
"W ithout</w>
"E very</w>
""" My</w>
" Quero</w>
w ide
vi ñ
vi ve</w>
ve z.</w>
univer si
tama ño</w>
stu dies</w>
stor y.</w>
sti mul
spre ad</w>
spea k
so ño</w>
so lo</w>
so le
sentir me</w>
se ven</w>
se i
sab one
s qu
res ,</w>
re tener</w>
perí o
per ci
p a.</w>
ori a</w>
o ca
nuest ros</w>
n os.</w>
molecu les</w>
mi sión</w>
mer ec
m ur
il led</w>
ha ve.</w>
gu y</w>
ga star</w>
g ent
fe min
est ar
esfor zo</w>
es se</w>
ent rar</w>
eng ag
enfo que</w>
en ro
e ating</w>
disea ses</w>
de trás</w>
da des,</w>
d it
consu mo</w>
consegu i
conf lit
condu c
condi cións</w>
con o
con gel
co pi
ci cl
carb on</w>
car ry</w>
brea k
ble mente</w>
bab y</w>
axud arnos</w>
aw are</w>
au tén
ar e."</w>
am in</w>
all ."</w>
algu mas</w>
al os</w>
ag e,</w>
ab le."</w>
a me</w>
R i
IS P
B raz
5 ,</w>
1 2
"P or
" Ás</w>
à s</w>
xar dín</w>
was hing</w>
vos te
von tade</w>
vibra tion</w>
v es.</w>
us ados</w>
u .</w>
tiv es</w>
tin a</w>
thing s."</w>
tem po."</w>
ta x
stan ding</w>
st opp
st a,</w>
se quera</w>
scre en</w>
re ti
re presen
r é
r ul
pu ido</w>
protec ción</w>
probab ili
prime iros</w>
prepar e</w>
pre vir</w>
poder iamos</w>
per da</w>
partici pa
par el
ou ,</w>
or e</w>
o fi
medicin a</w>
ma thema
lu gar.</w>
k et
it self</w>
is :</w>
ide a,</w>
ha bil
g ate</w>
físi ca.</w>
fre qu
follow ing</w>
fi x</w>
f our
enc ed</w>
dí an</w>
dur a</w>
don os</w>
doc tor
der ."</w>
den te.</w>
dema is,</w>
conver sa</w>
constru ir</w>
comuni dades</w>
comp e
citiz en
cir cul
ben e
be ach</w>
aqu ela</w>
appro ach</w>
ame a
afec tar</w>
advent ure</w>
adoles c
ab le
a stron
a soci
S ou
O u</w>
. ""</w>
" La</w>
ín do</w>
ã os</w>
xen i
x en</w>
x ar</w>
w as,</w>
virtu al</w>
val ori
ur ante</w>
trabal har</w>
tis su
though t,</w>
ther e
tesou ro</w>
sub stan
sor s</w>
sol ar</w>
senti mento</w>
ris cos</w>
relationship s</w>
re min
ra is.</w>
r us
p an</w>
ol lar</w>
offer s</w>
of re
now ."</w>
ni ce</w>
má tica</w>
mes ."</w>
medi os</w>
man .</w>
ll ing</w>
les s
le i</w>
lands cap
ka y,</w>
irmá n</w>
imag es</w>
i dio
grow th.</w>
gir l</w>
fe ita</w>
fe ars</w>
ex ax
este a</w>
dí xen
dream s.</w>
differ ent
difer entes.</w>
di xen
den ce.</w>
de ce
dar lle</w>
cri se</w>
compren sión</w>
co vered</w>
clar o</w>
ci ans</w>
chec k</w>
char ac
cer tas</w>
car ried</w>
car apu
can ción</w>
ca te
be y</w>
b er</w>
au ti
atop amos</w>
are a.</w>
all y.</w>
again ."</w>
af ford</w>
adi ante.</w>
acari ciar</w>
I n</w>
H on
CR ISP
Aqu ela</w>
"M o
"E x
"C on
"" Non</w>
year s.</w>
xén ero</w>
vi mos</w>
ve u</w>
van co</w>
vali oso</w>
ur ban</w>
to- me</w>
tiv o,</w>
thir d</w>
ter o</w>
ten da</w>
tel esco
tal ked</w>
t óxi
sub stitu
st age</w>
solici tu
sola vanco</w>
sol ving</w>
soa p</w>
senti mentos</w>
segur a</w>
res is
priva cidade</w>
princip al</w>
po es
plan .</w>
ph ilosop
pe or</w>
p ha
organi zed</w>
obser v
o -
no ,</w>
n on,</w>
motiv ación</w>
mo tor
mi x
mej or
ma se</w>
la v
ist o?</w>
is tic</w>
ing ly</w>
i ón.</w>
ho xe.</w>
gu ei</w>
gar gan
fu er
forma ción</w>
focu sed</w>
fl ores</w>
fin ally</w>
faci l
ex tra</w>
estu dar</w>
estra té
esp iritu
esco va</w>
do w</w>
dimen sión</w>
des p
der on</w>
deci de</w>
de fe
d ?</w>
có p
conta ct</w>
comp on
ci o.</w>
ci al.</w>
carapu ço</w>
ca se,</w>
c hat</w>
bio logical</w>
beach .</w>
anten na</w>
anten a</w>
allow ed</w>
al tura</w>
achi e
F ear</w>
An helo</w>
- se</w>
"N o
"H o
"E l</w>
"A fter</w>
""" I'm</w>
"" What</w>
" [
" Xa</w>
í si
ári o</w>
z ."</w>
wo o
war m</w>
w ish</w>
vi das.</w>
ver s
vel a</w>
v ía</w>
tra i
to pic
ti co,</w>
tamb ori
sú pe
su s</w>
sta tisti
st one</w>
sing ing</w>
sabone te</w>
s pin
s can
ri to</w>
ri es</w>
ri can
ren de
rela x</w>
re lease</w>
ra se</w>
puide n</w>
proble m,</w>
pro funda
pres su
pou cos</w>
per mi
pen ci
paí s.</w>
ox y
ori enta
organi ze</w>
natur al.</w>
músi ca.</w>
má quin
men te
medica mentos</w>
me mber</w>
man age</w>
m bi
m all
lo gos</w>
li dade</w>
le an
la p
job .</w>
is so.</w>
intent ando</w>
ins pir
identi ty</w>
her e."</w>
help ing</w>
heli cóp
heli cop
ha mb
go als</w>
ge o
expres ar</w>
expec ted</w>
event u
equipa mento</w>
en i
en d.</w>
edi fici
e ter
dru g
distin tas</w>
disco very</w>
dinos aur
den se</w>
danger ous</w>
da ba</w>
cr y
clean ing</w>
circum stan
char acter
care ful</w>
cal ,</w>
bigg est</w>
be d
b lin
as somb
ar m
ar en't</w>
anz ol</w>
al ma</w>
ain da</w>
ad dic
activi dades</w>
a do."</w>
U .
H appiness</w>
Euro pa</w>
Apren der</w>
"P e
"O ur</w>
"" M
" Un
ñ o.</w>
z ir</w>
z h
xusti za</w>
wea k
w ro
vulner able</w>
viol encia</w>
vi ven</w>
vi da
u ,</w>
transpor tation</w>
ti le</w>
ti fica
tem or</w>
tec no
sp iritu
so lit
si ,</w>
seman as</w>
qui .</w>
psi có
prác tica</w>
pra ia.</w>
po or</w>
orix in
orden ador</w>
objec tive</w>
nú mer
my ster
most rar</w>
mos lle</w>
mo tor</w>
me tá
ma stro</w>
m uni
lo it
lim its</w>
li ved</w>
laboratori o</w>
know s</w>
ingl és</w>
informa ción.</w>
im media
ignor e</w>
hor ri
hoj e.</w>
gra ph
ga in</w>
fe ar
espinaf re</w>
er ro</w>
el a,</w>
ei ro.</w>
easi er</w>
dí xo
dor a.</w>
doc tors</w>
dish es.</w>
dis or
dimen sion</w>
difíci l.</w>
des per
demost rar</w>
de m
de la</w>
correc t</w>
conta min
comp en
commit ted</w>
cion ais</w>
children .</w>
ch in
cerebr os</w>
car tos</w>
car dio
cal ma</w>
ca viar</w>
ca so,</w>
ca mer
c y.</w>
bus cando</w>
bro ther</w>
bo w
bandi t</w>
alegr ía</w>
al tos</w>
al o
ab adi
a go
Yor k</w>
Sin to-me</w>
Cop per</w>
A t
-year- old</w>
"A qu
"A ll</w>
" Y
í fica
za da</w>
z ar
x ir</w>
work ."</w>
ur es.</w>
tu ra.</w>
tra u
toler ate</w>
tiñ amos</w>
tele vision</w>
te at
swe et</w>
strate gi
st al</w>
so ph
soph is
sophis tica
sho es</w>
sa mp
rapac es</w>
ra bi
qu alidade</w>
pur pose</w>
prote ger</w>
piec es</w>
peri od</w>
particul arly</w>
ob jetos</w>
nó s."</w>
mor e,</w>
minu tes</w>
mi ento</w>
medi r</w>
me lo
mai ores</w>
mai l</w>
languag e.</w>
lan ter
inter cambiar</w>
ini ti
inf anti
in stin
human o.</w>
honesti dade</w>
ho me,</w>
hi droplan
hidroplan o</w>
guar ante
gen es</w>
expli car</w>
esti mul
espa da</w>
equili brio</w>
equili bra
ent al
ensin ar</w>
emer gen
dí as.</w>
disea se,</w>
diferen zas</w>
cór tex</w>
custo mi
cur ta</w>
credi to</w>
cor respon
co men
ci u
ce gon
cancer ,</w>
camp a
camin o</w>
bo y</w>
biqu ín
bi olóxi
beauti ful.</w>
archi tec
ar lles</w>
any more.</w>
an d,</w>
ac tion.</w>
ab raz
S or
P i
P as
Inter net</w>
G er
C ho
A credito</w>
? ""</w>
</ i>
/ she</w>
é po
ç ã
Á fri
zh é
ze peli
z ou</w>
xen o
xe ito,</w>
xe ."</w>
wi de</w>
whist le</w>
wher e.</w>
w ri
volu me</w>
vit amin</w>
vari edade</w>
tre e</w>
tiv emos</w>
tin y</w>
this ?</w>
the odolite</w>
th ri
tal ent
success ful</w>
stu ff
struc ture</w>
stor e</w>
sti r</w>
star s</w>
sorri so</w>
so fi
sofi sti
sin ais</w>
significa do</w>
sali va</w>
risk s</w>
ri d</w>
ri cos</w>
resist ente</w>
relationship .</w>
re lo
re ally,</w>
ra s,</w>
qu is
qu ina</w>
pri ce</w>
prefer ida</w>
plac es.</w>
ph ere</w>
perspec tive</w>
per cent
pen as</w>
pe dra</w>
os os.</w>
or b
ni veis</w>
neighbor hood</w>
n a.</w>
mor ning</w>
mobi le</w>
milli ons</w>
mi steri
ma car
li car</w>
it o
ist o."</w>
inter est</w>
intelix encia</w>
influ enced</w>
in tu
in sec
imaxin ar</w>
hi p
helicop ter</w>
head .</w>
h os.</w>
h op
gu it
fron te</w>
fascin ating</w>
estre las</w>
est y
especi al.</w>
energ y.</w>
empat ía</w>
emo ción</w>
dream s</w>
dis postos</w>
dimen sion
difíci l,</w>
di cin
determin e</w>
cri ti
costu me</w>
confi ar</w>
collea gu
coida do</w>
coch e.</w>
che ga</w>
car s</w>
car ,</w>
c re</w>
bri ght</w>
bi kin
bar co</w>
baix a</w>
assomb ro</w>
ari dade</w>
ar mar</w>
al zhé
after no
abadi a</w>
R a
Qui zais</w>
Qu é</w>
J ap
H er</w>
F re
D é
D avi
"Des pois</w>
óti ma</w>
én do
À s</w>
year s."</w>
x a
vita mina</w>
trabal ho.</w>
to w
to mor
this :</w>
therap y</w>
teñ an</w>
tas y</w>
si v
si mul
se te</w>
respec t.</w>
recei ved</w>
re gre
ra mos</w>
pá xin
protec tion</w>
polici es</w>
performan ce</w>
paix ón</w>
other ,</w>
opportuni ties.</w>
ol er
má quina</w>
move mento</w>
mone y.</w>
mista kes</w>
medicin e</w>
me ."""</w>
lí qui
lif esty
lear ning.</w>
larg est</w>
knowle d
inv est</w>
ing s,</w>
in toler
in de
immun e</w>
im mediate</w>
histor y.</w>
hi m,</w>
hi bi
helicóp tero</w>
heav y</w>
h it</w>
g one</w>
fiel d</w>
every one.</w>
esti ver
es o</w>
equ ality</w>
emo tion
ele ments</w>
dor ."</w>
do ce</w>
do /a</w>
diñ eiro</w>
diag no
des mor
des a</w>
da des."</w>
countr y.</w>
cor rup
compas sion</w>
compar e</w>
com mon
cois as</w>
co ordin
co ol</w>
cli ma</w>
chron ic</w>
cat ch</w>
can te.</w>
bi u</w>
be .</w>
ayu da</w>
axeit ada</w>
auto ma
ar oun
al ma
ad s</w>
aca dar</w>
abil ity.</w>
aber to</w>
a ção.</w>
a jud
V I
The ir</w>
S tan
M any</w>
H is/her</w>
19 9
ç o.</w>
zepeli m</w>
y :</w>
xun tos.</w>
x ur
wee ks</w>
vizin han
vi dade</w>
vas o</w>
tur ning</w>
tre as
titu d</w>
tent ando</w>
tele visión</w>
ta mp
sínto mas</w>
su ave</w>
stu ff</w>
son ar</w>
si ?"</w>
shar ed</w>
school ,</w>
sa ,</w>
ro er</w>
rit mo</w>
rg ani
re mol
re main
re fin
raz óns</w>
r ing</w>
que ?</w>
pur su
promo te</w>
poida n</w>
plane ta</w>
pin heiros</w>
pens an</w>
pen a</w>
pe i</w>
par tí
other ."</w>
offi ce</w>
nolo gy</w>
má is."</w>
mo ver</w>
min ar</w>
mi ca</w>
mer .</w>
maj or</w>
mach ine</w>
m es,</w>
lingu as</w>
l led</w>
j ol
irm á</w>
ira mente</w>
instru ment</w>
inspira ción</w>
identi ficar</w>
humil dade</w>
human os.</w>
high er</w>
health i
har d
gu ar</w>
grá fi
gen e</w>
ga st
g lu
fun .</w>
fru it</w>
forma r</w>
fil led</w>
feel ings</w>
feed back</w>
est á
espre me
en de
ech nology</w>
disap pe
depres sion</w>
depen de</w>
de gre
dar k
d 's</w>
cultu ras.</w>
cuis ine.</w>
cous as."</w>
conti go.</w>
comprome ti
comp re
col he
cl ara</w>
can tos</w>
ca mente,</w>
bebi das</w>
be ing.</w>
bar ul
ba th
ba il
b al</w>
aliza ción</w>
ali ze</w>
agra da
affec ts</w>
adul tos</w>
activi ties</w>
ab amos</w>
a ul
a segu
Wal king</w>
Pa ti
P ine</w>
N u
He alth</w>
F ix
Est aba</w>
Ch ina</w>
A re</w>
ár vor
xul gar</w>
wan ts</w>
ver sa
ver s</w>
usi as
under estimate</w>
tran si
tra stor
that ?</w>
ten d</w>
t es."</w>
sympto ms</w>
stron ger</w>
st s,</w>
sou l</w>
soci ais.</w>
reco ver</w>
re jec
ques tion
poñ er
pos ing</w>
pi r</w>
parti do</w>
pare cia</w>
ol a</w>
n í
mo stra
min d,</w>
microbi os</w>
messa ge</w>
mell ora</w>
mean ing
ligh ts</w>
ligh t.</w>
le iro</w>
law y
ing ing</w>
indu str
in timi
in st
in a.</w>
igh t.</w>
h es
grou ps</w>
g a,</w>
fárma co</w>
fri gi
fotogra fia</w>
for ça</w>
for ge
fla vor</w>
fi xeron</w>
fag o</w>
evolu ción</w>
esta des</w>
enfer me
el abor
econo my</w>
dis par
desa je
cumul ation</w>
cre r</w>
cre ation</w>
ci ca
cata pul
ca ste
bri lli
bran ch</w>
bo at</w>
bil li
at or</w>
amp li
am os.</w>
admira ble.</w>
ad dress</w>
accor ding</w>
ab stra
ab bey</w>
T oler
P lease</w>
No t</w>
M i</w>
L emb
De bes</w>
Ameri ca</w>
3 0
1 1</w>
ón s."</w>
zon as</w>
x estion
wee k</w>
we ver,</w>
ver dade.</w>
u se.</w>
to o
tiv es.</w>
tica mente</w>
ten ho</w>
technologi es</w>
tamb ém</w>
ta das</w>
t ch</w>
sup pose</w>
sub esti
stu ck</w>
spen ding</w>
so por
sin ton
simp lici
sensi tive</w>
s word</w>
ren ew
religi ão</w>
pu x
psi colóxi
progra mas</w>
produc ts.</w>
presen za</w>
prac tical</w>
posi tivo</w>
polic ía</w>
po u</w>
po bre
plas tic</w>
perío do</w>
os o,</w>
o ín</w>
o di
o corre
nee ds.</w>
mistak es.</w>
mi t</w>
mer s</w>
medi ção</w>
measu res</w>
m be
lu ck
libr ary</w>
lib re.</w>
li ke
lec tu
languag e,</w>
justi ce</w>
jol t</w>
issu e</w>
inter ese</w>
il li
hy droplan
hydroplan e</w>
hori zon
ga me.</w>
fron te
frien d.</w>
for mul
fla g</w>
fac e
expec t</w>
esta dou
estadou ni
est ra</w>
envel le
engan char</w>
ener gi
en quanto</w>
en car
emocion ante.</w>
emo tion</w>
emer x
electri cal</w>
el se
e ment.</w>
dow n.</w>
dix o,</w>
direc tor</w>
di e</w>
di ce</w>
desp ite</w>
dese ño</w>
des aparec
cu ali
cre mall
consci ous</w>
consci encia</w>
complica ted</w>
co xin
co st</w>
co ol
co ok</w>
co de</w>
cli ente</w>
ci as.</w>
cer to,</w>
bri l
botto m</w>
bat ter
ban deira</w>
b loo
b in
b i</w>
b as</w>
aver age</w>
au mentar</w>
at titude.</w>
ari o,</w>
api to</w>
an ge
ad di
actu ally,</w>
Tal vez</w>
S .</w>
M in
Ke ep</w>
H I
Chri st
C ha
A si
7 0
. ,</w>
"In ste
í ase</w>
á mo
xer ación</w>
wro te</w>
wor ds.</w>
w ing</w>
vi vir
ver mell
ven ti
van ta
v ing.</w>
v est
v ate</w>
up on</w>
tu a</w>
tras paso</w>
tiv os,</w>
tiv e."</w>
tic s,</w>
ti ene</w>
techni cal</w>
te cido</w>
stre et</w>
sp ir
simp les</w>
shopp ing</w>
seguro /a</w>
s y</w>
s ;</w>
ro cha</w>
re vel
re plac
ra paz</w>
quei jo</w>
pó dese</w>
pue den</w>
pu tting</w>
produ cir</w>
prin t</w>
pra ia</w>
poin t,</w>
plan ts</w>
pi c</w>
person as</w>
perso al</w>
pen sei</w>
peix e</w>
pe ti
pe lin</w>
partí cul
par k.</w>
ourselv es.</w>
other s,</w>
or es.</w>
op io
oc cu
nov o,</w>
no body</w>
na med</w>
mes mo."</w>
memor ia</w>
memor i
meet ing</w>
mañ á</w>
man ."</w>
m ma
la ter</w>
j á</w>
intu i
ing ?</w>
ide as,</w>
hon est</w>
ha m</w>
gu il
fút bol</w>
funda ção</w>
fin al,</w>
fi si
facel o.</w>
f os
ex er
ex ecu
est y</w>
es ."""</w>
ep pelin</w>
ental he</w>
e go
distin tos</w>
determin ar</w>
detec tar</w>
des en
depor te</w>
deep er</w>
de teñ
cremall era</w>
consecu encias</w>
communica te</w>
com bus
colabor ación</w>
coci ñ
co ti
clo ser</w>
cli mb
char la</w>
cha ir</w>
ch imp
cerebro .</w>
cardio vas
ca )</w>
c raz
brain .</w>
brain ."</w>
bili dade.</w>
bibliote ca</w>
benef its</w>
bat h</w>
au ga.</w>
artifici al</w>
aproxi ma
ap h
ansi e
ani mal.</w>
al á</w>
aju dam</w>
ag es</w>
adver si
Uni dos</w>
Pean uts</w>
L on
CRISP R</w>
C y
Bo st
1 ,</w>
"S ome</w>
"Pe ople</w>
"En tón</w>
"C on</w>
win dow
wa ke</w>
volun te
visit ar</w>
un certain
trans miti
trans mit
tion ."""</w>
tin ha</w>
thin k.</w>
the tic</w>
tecnolox ías</w>
tast y</w>
streng th.</w>
siste ma.</w>
sis ter</w>
sin tas</w>
shar ing</w>
sh oul
sever ance</w>
ser en
semp re.</w>
se tt
se ja</w>
s ões</w>
s che
ron se</w>
requ est</w>
repu gn
remol que</w>
preven ir</w>
pra zo</w>
posi tiva.</w>
plásti co</w>
performan ce.</w>
pas sion
par a
ol d,</w>
ob ses
o m
nes tes</w>
n esa</w>
montan ha</w>
ment s,</w>
mensa xe</w>
memor ies</w>
me ta</w>
me dos</w>
mane iras</w>
manag ed</w>
man ten
m ali
lo go,</w>
li ña.</w>
li bre</w>
lat er
l es."</w>
ke ys</w>
inclin ación</w>
impres sive.</w>
he ada
han d,</w>
guer ra</w>
gre w</w>
g ando</w>
free dom</w>
for e</w>
fag a</w>
fac es</w>
f as</w>
experi ment</w>
experi encias</w>
espí rito</w>
ent ón,</w>
electri c</w>
elec ción</w>
e ding</w>
do :</w>
desenvol vi
des t</w>
der a</w>
deber ían</w>
da ção</w>
customer s.</w>
cul pa</w>
cr óni
comi da.</w>
come zo</w>
cion a</w>
ci os</w>
chama mos</w>
capaci ty</w>
can s</w>
cambi ou</w>
ca mos</w>
brea thing</w>
bor ra
b ill
azu l</w>
atra c
at ."</w>
associ ated</w>
arre pio</w>
ant es."</w>
ad ing</w>
aconte ce</w>
W here</w>
S ha
O rgani
O r</w>
N ig
N e
Mo itas</w>
I m
Graz as.</w>
Friend ship</w>
F ren
F ace
Euro pe</w>
A s
1 6</w>
"T e
ó xen
ó ticos</w>
á ra
zi pper</w>
z io</w>
w all</w>
viol ence</w>
vez es,</w>
v ín</w>
univer so</w>
técni cas</w>
traba j
tra in
ton ,</w>
tic s.</w>
ti cos.</w>
tend ência</w>
temperat ura</w>
te ci
tar on</w>
só li
sur viv
sup posed</w>
su c
sol .</w>
sen d</w>
se gú
say ing,</w>
s es."</w>
respe ito</w>
re ale
rai se</w>
r is</w>
proces so</w>
proble ma
pro sper
pro mi
pri vi
pregun ta
pre mi
pre gn
po ver
pensa mentos</w>
pensa mento</w>
pen sa</w>
pas s</w>
pare de</w>
p ran
organi zar</w>
opini ons</w>
onesel f</w>
on das</w>
on as</w>
oc ca
o cul
nuest ras</w>
nee d.</w>
necessar y.</w>
molécul a</w>
mi st
me do.</w>
mar in
main taining</w>
logi sts</w>
le d.</w>
ki lo
it ."""</w>
ish ed</w>
invol u
inten se</w>
intelligen ce</w>
imp lica</w>
imp le
hi d
gu ys</w>
g ."</w>
ful l
frigi deira</w>
flavor .</w>
fal la</w>
fail ure</w>
faci lit
fa mos
ey e</w>
experienc ed</w>
et ."</w>
es condi
er y</w>
equ al</w>
en te."</w>
effec t</w>
ec emos</w>
e dades</w>
dri ve</w>
die ta</w>
da dos</w>
cooki es</w>
con temp
compaix ón</w>
commit ment</w>
circun stan
chi f
cerebro ."</w>
cerebra l</w>
cer ta</w>
casti dade</w>
casa ,</w>
bú s
bod y,</w>
bi l</w>
behavi or.</w>
bac k,</w>
as :</w>
ari a.</w>
apren dín</w>
an ts</w>
alu cin
af rican
adap t</w>
ac tions</w>
ac cións</w>
abri r</w>
a ir.</w>
a i</w>
a fir
a ?"</w>
UU .</w>
Ten ho</w>
Sta tes</w>
Sent i</w>
Sci ence</w>
Qu e
Per severance</w>
L as</w>
Jo h
Hon esty</w>
F ol
Es tes</w>
De ci
Alzheimer 's</w>
3 00</w>
1 8</w>
"To dos</w>
"D urante</w>
"D o</w>
"C A:</w>
" Que</w>
z an</w>
y ing.</w>
xog ador</w>
xen er
writ ten</w>
w ine</w>
vi lla
ver sión</w>
va ia</w>
va ción</w>
v ag
us amos</w>
tra pé
ti es."</w>
they 've</w>
teac her</w>
tar de.</w>
sé culo</w>
sur ve
sty le</w>
sti ty</w>
stal actite</w>
st range</w>
st as.</w>
shi ver</w>
se qu
sa pati
s que
s par
s at
respec tar</w>
reas ons</w>
re presenta</w>
pun tos</w>
prime iras</w>
posibili dades</w>
pel os</w>
pe d
pati ence</w>
part ner</w>
oce an</w>
non ?"</w>
n algún</w>
mi ro</w>
measu re
low er</w>
liter ally</w>
liqui dar</w>
lar ger</w>
la w</w>
l é
k s,</w>
k ill</w>
interest ing.</w>
i te
hi m.</w>
her .</w>
gu ide
ga ."</w>
flow ers</w>
fill ing</w>
fil os
fi ll</w>
fanta sia</w>
fal a</w>
f li
f fer
estal actite</w>
est o.</w>
espreme dor</w>
espel ho</w>
es s,</w>
ent or
enjo ying</w>
ear li
drag óns</w>
desmor on
depen ding</w>
deep est</w>
deci dín</w>
de pois</w>
de mic</w>
dan os</w>
célul a</w>
cora ção</w>
cor ren
contin ua
communi ties</w>
come .</w>
co ast
cica tri
car e.</w>
b ó
b iscoitos</w>
avi ar</w>
autis m</w>
au ment
ar y.</w>
apren dendo</w>
apreci ar</w>
app le</w>
apar ece</w>
ange l</w>
an teri
amon ton
am os."</w>
al ar
afron tar</w>
ad dres
ac o</w>
abo li
ab out,</w>
a penas</w>
a mente.</w>
Th en</w>
T ry</w>
Pati ence</w>
F e
Es se</w>
Es sa</w>
E res</w>
D an
C aviar</w>
A rabi
A mé
A R
8 ,</w>
"" You</w>
" Lo
ó r
é g
z er</w>
we aring</w>
w in</w>
vi able</w>
veter in
ver án</w>
vali osa</w>
v é
u me</w>
u mb
tw o,</w>
trans la
ti r
thro at</w>
ter ra</w>
tecno lóxi
te mb
sus pen
super viv
sudden ly</w>
subjec t</w>
stor y."</w>
son .</w>
sen sor</w>
se co</w>
sa il
sa d</w>
s now
rápi do.</w>
resul ts</w>
resear ch
res id
reale jo</w>
re pres
re al,</w>
quick ly.</w>
psycho logical</w>
pri ma
pos sí
pol y
plan e</w>
pl at
perso al.</w>
per sist
pat r
parec er</w>
pa z.</w>
p rou
obxec tivos.</w>
mes mo,</w>
mañ á.</w>
mas co
mar avi
man te
liv es."</w>
lit t
lin es</w>
lev an
la y
la b</w>
ju mp
itu de</w>
ir á</w>
ingl é
ing res
il la</w>
ignor ar</w>
i led</w>
ho xe,</w>
g la
for zas</w>
fi xer
festa .</w>
fac tor</w>
f éri
f ing
exp lica
exha us
exax er
event os</w>
esper an
enten do</w>
en fren
distan cia</w>
dis to</w>
di et.</w>
deix ou</w>
da mente.</w>
cour o</w>
countr y,</w>
condi tions</w>
clo ck</w>
clas s
certain ly</w>
car dí
can .</w>
busin ess.</w>
bod y."</w>
biquín i</w>
b y
b a,</w>
autis mo</w>
au mento</w>
anxi ety</w>
anxi et
ant én</w>
ani vers
amor .</w>
alu m
afec ta</w>
acumul ação</w>
acon tec
ab un
T en</w>
T echnology</w>
S h
Res ul
M c
H i
Ear th</w>
E sto</w>
Dé ix
Com muni
4 00</w>
4 ,</w>
"Por én,</w>
"O u
"" O</w>
"" .</w>
" Let's</w>
ú si
é :</w>
É s</w>
z os.</w>
y el
w ar</w>
víde o</w>
viv o</w>
vio lin</w>
video xogos</w>
vi u</w>
vec es.</w>
valu ed</w>
trapé zio</w>
traba jo</w>
toxi c</w>
tot ally</w>
tomor row
this ."""</w>
th s</w>
t ching</w>
syste m."</w>
surroun ded</w>
superfici e</w>
strate gy</w>
sta te
situa tions</w>
sh el
sel l</w>
segu en</w>
secre t</w>
se d,</w>
sci s
rece ita</w>
re tro
re compen
ra mient
pui dese</w>
privac y</w>
pri mi
pla ta
per pe
pe ."</w>
parec ía</w>
outro s,</w>
organiza ción</w>
or s,</w>
on es.</w>
ocu pa
o ito</w>
no t,</w>
n un
mol ho</w>
mode los</w>
mo o
micro bes</w>
meta ph
me tro
mani festa
m ble.</w>
m ?</w>
lí der
lugar ,</w>
limp ar</w>
ligh t,</w>
lead s</w>
languag es</w>
l ying</w>
k is
j us
it os.</w>
inter fer
in fin
in feri
in corpor
il o</w>
hy th
gun has</w>
gener al</w>
gal ho</w>
fron tal</w>
fon tes</w>
fir me
fica tion</w>
fer ro</w>
experi menta
eu ,</w>
esp uma</w>
er ia</w>
equi pe</w>
ent revi
en o</w>
en d,</w>
dí as,</w>
doll ar
docu ment
di do</w>
desig ned</w>
defen sa</w>
cur r
cumpri r</w>
cultiv ar</w>
cu rar</w>
cr é
correc to.</w>
consu mp
constru ction</w>
constan te.</w>
con tent
compar ed</w>
cloth es.</w>
chur ch</w>
caus ing</w>
caste lo</w>
cast le</w>
cansa do</w>
bos s</w>
befor e.</w>
balan ced</w>
auto esti
ate ly,</w>
at temp
ar se.</w>
ant ásti
answ er.</w>
an do,</w>
an a
al tamente</w>
ad ded</w>
activ ar</w>
ac el
a hon
W ater</w>
Th ose</w>
Su poño</w>
S a
F un</w>
B u
B row
A DN
3 ,</w>
"We 're</w>
"O u</w>
"E ven</w>
"" V
"" A</w>
á monos</w>
z as,</w>
y et,</w>
xef e</w>
work ing.</w>
win dow</w>
we ap
wat er,</w>
wal ked</w>
w all
ví ti
utili zar</w>
us an</w>
u ten
trá fico</w>
tre men
trans fer
tra pe
tor s.</w>
tor ,</w>
tiv o."</w>
ti car</w>
su é
stud ying</w>
stopp ed</w>
sor ry,</w>
sof t
si z
sal var</w>
ri se</w>
reli able</w>
relax ar</w>
reflexi on
recei ve</w>
rec ent</w>
reas on
re fri
rag ons</w>
qu o
pur cha
propi ciar</w>
produ ção</w>
prob able</w>
pro jetos</w>
pro fis
preci se</w>
plane ta.</w>
plan et</w>
pi ck</w>
per form</w>
penci l</w>
pas ado,</w>
pain .</w>
p í
p ing</w>
obser var</w>
nó sti
nuest ro</w>
nego ti
mí li
mudan ças</w>
motiv ation</w>
mor ning.</w>
mi ll</w>
m on</w>
m b</w>
líder es</w>
ligh thou
liber ar</w>
li que
leav ing</w>
lea ther</w>
keep ing</w>
ke y
it o."</w>
ir rit
inspi red</w>
ins cri
ing ."""</w>
inf ra
industr y.</w>
in medi
in ju
impro ve.</w>
im possible</w>
histori cal</w>
hap pi
ha te</w>
ha ber
h ão</w>
h ed</w>
go t
gener ate</w>
g res
g ou</w>
funda mental.</w>
free do
fi re
fe mal
far ol</w>
fag as</w>
fa v
fa míli
estud ante</w>
ent s,</w>
en ded</w>
en de</w>
empath y</w>
e mail</w>
dé ca
drag ão</w>
discipl in
difficul t,</w>
diab e
di á
determin ación</w>
desser t</w>
des cober
den i
de vem</w>
de crea
d ings</w>
d :</w>
cámar a</w>
cri si
coun ter
corre o</w>
coraz ón.</w>
consci ente</w>
configu ra
condi ción</w>
classi cal</w>
ck ers</w>
children 's</w>
che go</w>
chan ce</w>
cha mar</w>
cade a</w>
ca cho
ca bri
cabri to</w>
c king</w>
bre ath</w>
bo dies</w>
bir th</w>
bi gger</w>
base ada</w>
barbecu e</w>
b low
b and</w>
aten ción.</w>
ar án</w>
ar tísti
ar mos</w>
all y."</w>
al go.</w>
admi re</w>
ad os."</w>
abo ve</w>
aber ta</w>
a ""."</w>
S al
R us
P olo</w>
Ma ke</w>
M úsi
H e's</w>
F D
Est as</w>
De vemos</w>
C in
C han
B an
Al gu
A no
A n</w>
19 8
1 4</w>
' s,</w>
"P ar
"E ra</w>
""W ell,</w>
" Às</w>
ç os</w>
án dose</w>
you ."""</w>
yo ga</w>
wor ried</w>
wis dom</w>
ver án.</w>
ver ti
ver sion</w>
vege ta
utiliz ados</w>
tre pi
trans form</w>
tra ck</w>
tis mo</w>
tic ,</w>
ther n</w>
terri ble</w>
ter rit
tele vi
teach es</w>
tambori m</w>
sur face</w>
suc ce
stor y,</w>
sou l.</w>
soft war
sk in.</w>
sa car</w>
s s</w>
s ing.</w>
rou nd</w>
resist encia</w>
remédi o</w>
redu zir</w>
re xe
re mark
ra in.</w>
r hyth
públi co.</w>
progres s.</w>
prog ress</w>
proble ma,</w>
presen te.</w>
preci sab
poli cy</w>
plan et.</w>
pi led</w>
petr óleo</w>
parec en</w>
pa usa</w>
p en</w>
outro .</w>
os i
oper a
ocor r
molecul e</w>
mo inho</w>
mir r
me ch
manu al</w>
macar rão</w>
lon xe</w>
loc al.</w>
limi t</w>
level s</w>
lev ou</w>
lead er
kitch en</w>
it as.</w>
inv ent
innova tion</w>
individu als</w>
i so
hundre d</w>
he ight</w>
h ec
gui de</w>
gir ls</w>
gal o
gal axi
g ente</w>
func tion
fres co</w>
fin ish</w>
fil me</w>
fall ing</w>
fa z</w>
f antásti
exagger ate</w>
ev ents</w>
er o.</w>
er es</w>
en ch
ele va
efici ente</w>
effec tiv
económi co</w>
e k</w>
dí a."</w>
dra ma
disea se.</w>
di minu
di af
diaf rag
desser t.</w>
des bo
depen ds</w>
deix a</w>
defen se</w>
de pu
de gra
de cep
de bo</w>
dal as</w>
da tos.</w>
d algún</w>
cura ción</w>
cor do</w>
condi tion</w>
comuni dade.</w>
compromi so</w>
compe ten
col ors</w>
co ver
co cin
ci a."</w>
churras co</w>
ce mos</w>
car to
c ren
c ket</w>
bro ke</w>
bor e
ben estar</w>
ban ho</w>
b ud
auth en
aur ora</w>
as ?</w>
ar an</w>
ar ?</w>
aqu í
aqu el</w>
aprove itar</w>
aph rag
alterna tive</w>
al ma.</w>
al is
adul ts</w>
ad estra
acer ca</w>
ac er</w>
abor dar</w>
abon do</w>
Wor ld</w>
We 've</w>
S é</w>
N ow,</w>
M e
I t
I ra</w>
F al
E se</w>
D ragons</w>
D a
C E
B ri
2 .</w>
"N os</w>
"I so</w>
"B y</w>
"B G:</w>
ári as</w>
án ,</w>
z en</w>
x ,</w>
vizinhan ça</w>
ver sá
ver de</w>
ve ci
univer se</w>
trata mentos</w>
to pic</w>
to mar
than ks</w>
ter se</w>
ten sion</w>
tele visi
teach ing</w>
tamp ouco</w>
t ing,</w>
suces so</w>
spe ec
some thing.</w>
soli d</w>
slow ly</w>
si ón,</w>
si l</w>
ser ve</w>
secur e</w>
sec un
se x</w>
sauda ble.</w>
s si
s ne
s low</w>
rápi da</w>
ro m</w>
ri c</w>
respost as</w>
relo xo</w>
religi ous</w>
re quer</w>
quer i
qu ali
publi ca
prou d</w>
proper ly</w>
profun da</w>
pre di
po dían</w>
ph eno
percep ción</w>
pas sed</w>
pa dr
pa de
p ti
p he
origin al</w>
obxec tivos</w>
o ton
o )</w>
o ""."</w>
no c
natur ale
nam on</w>
mor e."</w>
mo da</w>
medi a.</w>
mech ani
me chan
ma ter
m m
limi ted</w>
li ga
le on</w>
le gen
l ent
k il
infec ción</w>
indu stry</w>
in mun
in come</w>
import antes.</w>
imp lan
igu ana</w>
her ,</w>
harmon y</w>
ha ce</w>
ge ome
gargan ta</w>
ga sol
funda ment
fe itos</w>
fal amos</w>
f light</w>
f le
f e.</w>
exis ten</w>
every day</w>
esper a</w>
es por
es pero</w>
ent res</w>
ent reco
drag on</w>
dis far
dicir .</w>
di a
desaje it
demon stration</w>
d ros</w>
cuida do</w>
cuar to</w>
cu estion
cous as,</w>
correc tamente.</w>
condu cir</w>
col on
co t
co bra</w>
ci a,</w>
chi ck
cent ral</w>
cen ter</w>
care er</w>
car ni
can ela</w>
camiñ o.</w>
ca ve
ca su
bran co</w>
boo k.</w>
bicicle ta</w>
be ."</w>
batter y</w>
bas ket
bal on
az ul
axeit ado</w>
aspec tos</w>
antibi óticos</w>
antibi óti
an jo</w>
an gu
al mente.</w>
acu dir</w>
ac tions.</w>
a tivi
a ."""</w>
Y ea
To das</w>
S ac
Pre firo</w>
N i
I r
H ere's</w>
Fren ch</w>
Fol low</w>
EE .
Cre a
C ould</w>
B ar
A b
19 6
"Su ccess</w>
ç ado</w>
z amos</w>
xar dí
x ir
win ter</w>
vibra ção</w>
ver y,</w>
ve h
vac cin
u g
u do</w>
tur ri
tu re.</w>
trepi dação</w>
transforma r</w>
trans port</w>
to l
to day
tion ?</w>
though ts</w>
tes te
temp os</w>
ta ção</w>
ta xa</w>
ta il
t ing."</w>
surpri sed</w>
sugg es
stud ent</w>
stres s
soñ os.</w>
sor te</w>
sor es</w>
solu tions.</w>
sinxel o</w>
sil ence</w>
servi zos</w>
sent ín</w>
se ly</w>
se d."</w>
s mal
smal ler</w>
s ligh
ri es.</w>
responsi bili
resi du
recuper ación</w>
rec y
re lea
re d
rai sed</w>
qu ente</w>
proteín as</w>
pro ve
princi pais</w>
preven ción</w>
prepar ados</w>
pol lu
poder osa</w>
plani ficación</w>
plan etas</w>
pes ca
person ,</w>
par ar</w>
pan turri
pa sta</w>
p ."</w>
ori th
numb ers</w>
no stal
ne ar</w>
ne ,</w>
n s.</w>
mes mos.</w>
mes mas</w>
mejor ar</w>
me tho
materi ais</w>
mar k</w>
lon ga</w>
lo xía</w>
li gi
la da</w>
k ill
jui cer</w>
it an</w>
interna cional</w>
innova tive</w>
ic s</w>
i dade,</w>
i P
hy po
hu mor</w>
hu mor
hou bo</w>
health care</w>
he iro</w>
hal lu
h us
goo d.</w>
gener ation</w>
ge ons</w>
fres h
fr ying</w>
foot ball</w>
fa ith</w>
expen sive</w>
exi ge</w>
ex act</w>
eventu ally</w>
est ran
essenti al.</w>
espinaf res</w>
escol ler</w>
er ra
enter tain
en ess</w>
en da</w>
ele var</w>
do l
dixen :</w>
detec t</w>
des car
der ra
de vemos</w>
de par
de clar
dama ge</w>
da l</w>
d ar.</w>
cí r
cá l
cul ar.</w>
countri es,</w>
cor po,</w>
consequ ences</w>
co her
clear ly</w>
cl ari
civi l</w>
choi va</w>
chan ge
cha stity</w>
car d</w>
cap ital</w>
ca ses</w>
c ally,</w>
bri gh
bra r</w>
bo di
bas is</w>
bar re
ban do
ba me</w>
b les,</w>
atu res</w>
asi st
anima is.</w>
al on
ahon dar</w>
aba ixo</w>
a to</w>
a ted.</w>
W hi
Ter ra</w>
T ur
Na tional</w>
Músi ca)</w>
K an
J usti
Fo od</w>
Chin a,</w>
C i
Be ing</w>
Afri can</w>
A f
& amp
"T i
"T amén</w>
"O r</w>
"O n
"O f</w>
"F in
"D ix
""O h,</w>
ç as.</w>
ár b
árb ores</w>
á -
wor st</w>
wh el
we 'd</w>
was h</w>
w ,</w>
vex o</w>
v ine</w>
tá culo</w>
tur ing</w>
transpor tar</w>
trans port
tra du
tr y.</w>
though ,</w>
ther s</w>
te ly.</w>
te en
ta c
t é</w>
swe et
sum mer</w>
suffer ing</w>
su e
spac e.</w>
sophistica ted</w>
so zin
so )</w>
sleep .</w>
si do</w>
si de.</w>
sh ir
sh ine</w>
sh in
ses sion.</w>
segre do</w>
se a.</w>
sci ence,</w>
sauda ble</w>
saud ável</w>
sau ce</w>
s í,</w>
s as.</w>
ru ído</w>
ri ch
reuni ón</w>
regul ar
reg ras</w>
refres hing</w>
reflec t</w>
re war
re produ
re bo
ra io</w>
r y.</w>
r ust</w>
r ,</w>
pul l</w>
propó sito</w>
propor cion
projec ts</w>
profun di
princi pio</w>
practi car</w>
pow er.</w>
possi ble."</w>
posi bles</w>
po ta
pheno men
patter n</w>
pas ado.</w>
part es.</w>
pac ífi
pa ,</w>
p is
over whel
obxec to</w>
ob ras</w>
nigh t,</w>
nes s."</w>
neces itas</w>
na da."</w>
n ers</w>
mu ta
mis mo</w>
minist ra
men ,</w>
memb ros</w>
me ter</w>
mb rar</w>
magi cal</w>
ma tri
ma ca
lu mb
lo t.</w>
lo ita</w>
lique ur</w>
li xe
lemb ran
lead ing</w>
le is</w>
la var</w>
ke d,</w>
ist o
is ?</w>
invest ment</w>
in ar</w>
impro vement</w>
ida d</w>
i so."</w>
i de</w>
hy dro
human os,</w>
hor se</w>
históri a</w>
hand le</w>
hallu cin
ha n</w>
h our</w>
guarante e</w>
gu ess</w>
gor it
g er.</w>
g ados</w>
futu re."</w>
fotogra fí
fill a</w>
feel s</w>
favor ito.</w>
favor ita.</w>
fas hion</w>
famili as</w>
fa uno</w>
fa un</w>
f ell</w>
ey es.</w>
et ting</w>
esqu ecer</w>
escol as</w>
en ing</w>
en ig
emocion ante</w>
educa tional</w>
e m.</w>
dur mir</w>
doen ças</w>
do ?"</w>
direc tion</w>
diagno sed</w>
diag nósti
detal les</w>
descu br
desa st
des gra
des fi
de iro</w>
day s,</w>
dau ghter</w>
convin ced</w>
compas s</w>
comez an</w>
com um</w>
colle ge</w>
cogni tive</w>
co -
classi c</w>
cion ais.</w>
científi ca</w>
challeng es.</w>
challeng e.</w>
cha n</w>
ch es.</w>
ch e.</w>
cer tifica
cen ta
cel ular</w>
c al.</w>
bro ken</w>
borra cha</w>
be ver
aw k
arri ved</w>
aro ma</w>
app ly</w>
antibio tics</w>
ansi edade</w>
an no
am o</w>
ali viar</w>
alg orith
ale ão</w>
al gorit
acel er
W ash
Qu en</w>
Po des</w>
O c
N ever</w>
J á</w>
In stitu
I ,</w>
Goog le</w>
Expres sing</w>
Expres ar</w>
Europe an</w>
Crea tivity</w>
C A:</w>
B ra
A .</w>
7 5</w>
2 4</w>
) "</w>
"P reci
"No t</w>
"C ome
í na</w>
í da</w>
í culo</w>
z eppelin</w>
wo od</w>
vic ti
vi aj
vez es</w>
vesti do</w>
un ning</w>
típi ca</w>
tru e.</w>
travel ing</w>
trai ler</w>
traballa mos</w>
tor no</w>
ti l
tex tura</w>
tesou ra</w>
ter s,</w>
temp er
temb lar</w>
te is</w>
tan ta</w>
ta do.</w>
t y."</w>
t ante</w>
t all
surpri sing</w>
spo ke</w>
so st
sh ing</w>
seri ous
see king</w>
se t
sangu í
sab edes</w>
s os.</w>
rí o</w>
rou pas</w>
robo t</w>
ro s,</w>
rit u
ri t</w>
rema tar</w>
relax ing</w>
reali dade.</w>
re ve
re move</w>
re coñecer</w>
r ying</w>
quími ca</w>
qui ck</w>
proper ly.</w>
preci sar</w>
pre zo</w>
pre ju
pre da
pre -
pou co,</w>
po site</w>
po i
perspec tive.</w>
person alized</w>
per dendo</w>
pel .</w>
pe zas</w>
paí s,</w>
pa id</w>
oportuni dades.</w>
ocu par
objec ts.</w>
o fici
necesit an</w>
n ali
mó bil
movi e.</w>
moment ,</w>
mo ves</w>
mes es,</w>
market ing</w>
mal o</w>
m ã
low -
lo ck</w>
lighthou se</w>
li ked</w>
kis s</w>
kilo meters</w>
inte gri
in her
in esper
importan t,</w>
ig ers</w>
hel d</w>
ha s.</w>
g l
fur ther</w>
forwar d."</w>
fe i
fa mous</w>
f ía</w>
f ly</w>
exper to</w>
exemp los</w>
exclu si
ex teri
est oy</w>
est an
es pi
es ;</w>
equ ation</w>
enough .</w>
empres ari
eit onas</w>
educa tion.</w>
e ma
dy na
dow n,</w>
dish es</w>
di et</w>
des ollar</w>
des esper
der i
deli ver</w>
de d.</w>
de -
d ying</w>
d ing,</w>
cu idar</w>
cri an
cre a</w>
coun t</w>
conhe ci
con xunto</w>
colo car</w>
co sts</w>
co leg
cl ing</w>
civi li
ci lin
cer tos</w>
cell s,</w>
careful ly</w>
característi cas</w>
can d
cam era</w>
ca s."</w>
c s.</w>
bús so
brill ante</w>
birth day</w>
bi ke</w>
arti stas</w>
arre pen
arqui tec
ari os.</w>
ar vos</w>
ar tes
ap ós</w>
ap ne
ami ga</w>
ambi que</w>
ambi entes</w>
algu i
al s."</w>
al ambique</w>
advan ced</w>
ador es.</w>
ada ."</w>
ab les.</w>
a somb
V ol
Tru e</w>
Ti me</w>
T aking</w>
S an</w>
Resul ta</w>
M antén</w>
J an
I maxin
G ran
F O
E les</w>
Chin ese</w>
C ul
C O
Bre aking</w>
Braz ili
B er
Apla u
1 00
- to-
"Po de</w>
"" Que</w>
xe mel
wea ter</w>
we b</w>
water fall</w>
wa ves</w>
vi ver</w>
vi a
vehi cle</w>
ve d."</w>
v u
v es,</w>
un e</w>
tó dalas</w>
tu mor
tra to</w>
tort a</w>
tis m</w>
te :</w>
tar ta</w>
tal ento</w>
t antes</w>
sué ter</w>
sust enta
su por
sp it</w>
soñ os</w>
sor ry</w>
soci al,</w>
so c
sne ak
smo ke</w>
siti o</w>
ses sion</w>
segu ro.</w>
sec tor</w>
satisfac tori
s weater</w>
s now</w>
s na
ro w</w>
rexi ón</w>
respost a.</w>
responsi bility.</w>
respon der</w>
remo te</w>
ref le
radi o</w>
ra ça</w>
ra mi
que ixo</w>
protec ted</w>
posi bilidade</w>
pl ant</w>
pictu res</w>
perfec ta</w>
percei ve</w>
pel o
pas tel</w>
parti es</w>
parel la</w>
ou vi
ou s."</w>
ou nos</w>
new .</w>
ne l</w>
na qu
na da,</w>
mú s
my self,</w>
mudan ça</w>
mon u
mon key</w>
mo tivo</w>
me tal</w>
maj ority</w>
lá p
los s</w>
li p
landscap e</w>
la do.</w>
ke d.</w>
k a</w>
issu es</w>
ir on</w>
inte gr
ingu én</w>
incri ble</w>
increa sed</w>
in media
in k</w>
in a,</w>
im pose</w>
il ,</w>
hou se
histori a."</w>
histori a,</w>
ha xa</w>
gir l
gi ven
gh .</w>
g all
futu ro."</w>
fre gar</w>
fish ing</w>
fish er
fin e</w>
fer a</w>
fe minist
facil mente</w>
fac er."</w>
f ,</w>
expres sion.</w>
ex posición</w>
ex o
evolu cion
ev ent</w>
es en</w>
es curi
enfren tar</w>
elec tro
ele v
el a."</w>
educa tion,</w>
e uro
e gg
e :</w>
du ro.</w>
diver sity.</w>
distan ce</w>
dispoñi ble</w>
diab et
di al</w>
determin ation</w>
desex o</w>
descober ta</w>
des tapar</w>
de leg
de baixo</w>
d on</w>
cre mos</w>
conti go</w>
conten t</w>
consci entes</w>
con mi
comi go</w>
col or.</w>
col li
co ste
climá tico</w>
ck ."</w>
ción ?</w>
chocola te.</w>
certe za</w>
cer to.</w>
cen a</w>
car se</w>
car ro</w>
car as</w>
ca t</w>
c ron
brilli ant</w>
bol so</w>
bel .</w>
bando leiro</w>
ba ño</w>
b lan
ax e</w>
av estru
ath le
aten ção</w>
at rá
at ory</w>
apren der.</w>
ape u
anc est
an aliz
am y
adi ante</w>
activi ties.</w>
Wash ing
W o
U S</w>
S tu
Re ligi
R en
O K
M un
M edit
Lear n</w>
I mp
G ali
F an
Davi d</w>
B on
Ar t</w>
Apren dín</w>
9 ,</w>
"S ó</w>
"Aqu í</w>
" Estamos</w>
ég ano</w>
án donos</w>
á veis.</w>
z o."</w>
y es,</w>
xestion ar</w>
x as</w>
world 's</w>
wa i
w on</w>
viol ino</w>
vi s
vi o</w>
val ent
va ult</w>
v ese</w>
under stood</w>
u ar</w>
tí tul
tru th.</w>
tri p.</w>
to o."</w>
tiv ity.</w>
tig res</w>
tica ."</w>
ter s.</w>
te or
ta tion.</w>
ta s."</w>
ta ble,</w>
t én</w>
t ?"</w>
sup por
spi rit</w>
speci fi
sofisti ca
simp le,</w>
si de,</w>
si ble</w>
sentir se</w>
scal e</w>
sapati lha</w>
s pr
s pic
s nac
s ""</w>
ru les</w>
ro ad</w>
rexi óns</w>
rema in</w>
regi on</w>
redu cing</w>
reco very</w>
rec ently</w>
re o</w>
rapi damente</w>
r úa</w>
ques tion,</w>
qu ality.</w>
públi ca</w>
profes or</w>
proble m."</w>
pro je
presen ted</w>
pr é
poida mos</w>
person aliza
pas aría</w>
partícul as</w>
par tic
par que.</w>
pa ying</w>
pa y
p lea
over coming</w>
os ity</w>
or égano</w>
oportuni dade.</w>
opini óns</w>
op posite</w>
noti ce</w>
non ."</w>
nen os.</w>
neighbor s</w>
mor ea</w>
moment o."</w>
moit o.</w>
min e</w>
men or</w>
meas uring</w>
ma ke
ll as</w>
lex isla
le i
languag e."</w>
kitch en.</w>
jo in</w>
is hing</w>
ir re
ir on
investi r</w>
inver no.</w>
inven ted</w>
innova ción</w>
inclin ation</w>
impresion ante.</w>
il ure</w>
ide a."</w>
him self</w>
her ramient
han d.</w>
ha w
gra vidade</w>
go al.</w>
garden .</w>
fáci l.</w>
frien ds,</w>
fortun ately,</w>
for ces</w>
fl ying</w>
fi ghting</w>
facel o."</w>
exter nal</w>
experi mento</w>
experi ences</w>
expecta tivas</w>
estadouni den
est ."</w>
est ,</w>
es s."</w>
equ ação</w>
envi ar</w>
electr on
e ur
e fervesc
dra w</w>
do m
diverti do.</w>
discrimin ación</w>
dis fra
difíci les.</w>
dificulta des</w>
di vine</w>
di d.</w>
desi re</w>
desafí os</w>
des lumb
des ent
der s.</w>
democra cia</w>
decisi óns.</w>
de part
de más</w>
de des</w>
de ad</w>
d ding</w>
creativ ity.</w>
cre cer</w>
cra f
cor tar</w>
cor pos</w>
con fun
comun hão</w>
compañ ía</w>
comp ra</w>
communica tion.</w>
com mer
co sas</w>
co mo
cir cular</w>
cion es.</w>
cine ma</w>
ci dades</w>
che gamos</w>
che es
char u
ch ol
cen der</w>
carbon o</w>
cancer ."</w>
c íci
c tos</w>
bow l</w>
bol sa</w>
benefici os</w>
beli ef
be at</w>
b les
ay ud
ax e
avan zar</w>
av es</w>
atmos phere</w>
at or
at o.</w>
aprendiza xe.</w>
applica tion</w>
appear ance</w>
apne ia</w>
apar i
any thing.</w>
ani l</w>
an as</w>
amos ar</w>
algu ém</w>
al go,</w>
al ?</w>
aconte ce
acon chego</w>
ab ía</w>
a te,</w>
a ""</w>
V ex
T ran
S ec
S an
R espec
R ace</w>
Per dín</w>
Nig eri
N ós</w>
N ature</w>
J ud
It ali
I D
H ere</w>
G e
Des oín</w>
De us</w>
C ó
B us
Aplau so)</w>
9 0
6 .</w>
5 .</w>
( Music)</w>
"We 've</w>
"Th en</w>
"O kay,</w>
"An d,</w>
"A sí,</w>
" Li
ú r
ín dice</w>
ía :</w>
í de
á ."</w>
you 'd</w>
xen e</w>
wor se</w>
wor ds,</w>
wi se</w>
way s.</w>
wat ched</w>
war m
w inter
versa tile</w>
vent ing</w>
v ast</w>
ul gar</w>
ua is</w>
u m,</w>
trabal la</w>
tra ined</w>
toler ar</w>
together ."</w>
to ?</w>
ti e</w>
thre at</w>
thin k
ther api
test ing</w>
terr or
ten sión</w>
temperat ure</w>
technologi cal</w>
t ful</w>
sport s.</w>
sk in
sion s.</w>
simp li
sil ên
servi zo</w>
self- este
sal va
s at</w>
row ing</w>
ro i
ri sa</w>
responsab le</w>
rela ção</w>
reci bi
real ity.</w>
re mos</w>
ra í
ra to</w>
ra cial</w>
r aridade</w>
r are</w>
qu in</w>
qu anti
prepar ado</w>
pregun tá
preci sión</w>
polí tica.</w>
pol tr
plan ets</w>
pe gada</w>
pa xar
p on</w>
oun ds</w>
os :</w>
op tions.</w>
obstac les</w>
nu clear</w>
nov o."</w>
normal mente</w>
nerv ous</w>
ne quin</w>
na is</w>
mó bil</w>
multip le</w>
mp re</w>
most ly</w>
mellor ar.</w>
man nequin</w>
man equi
manequi m</w>
mal as</w>
ma st</w>
m ouse</w>
lu x
les son</w>
lean ing</w>
keep s</w>
k er
ita da.</w>
it ting</w>
invol ved.</w>
inter pon
inspi re</w>
impres sion
import ância</w>
imper ador</w>
ill ness</w>
i ds</w>
human ity</w>
haw k</w>
ha s
groun d.</w>
grand mother</w>
foo d,</w>
fir st,</w>
fin ally,</w>
exper tos</w>
exer cíci
ex po
et h</w>
est í
est rar</w>
especi arias</w>
escal a</w>
equ ita
entreco sto</w>
ensai os</w>
eng ine</w>
en con
emo cións.</w>
emergen cy</w>
el in
do dge</w>
dix it
disea se."</w>
di gni
di gn
dest ro
des coñeci
des bloque
dent es.</w>
deli vered</w>
debu x
deb ru
deb es</w>
d less</w>
có modo</w>
customer s</w>
curi ous</w>
culin ária</w>
cuesti óns</w>
cu bri
coñec emos</w>
continu ar</w>
contagi ous.</w>
constru ción</w>
conscious ness</w>
compañ eiros</w>
come ç
coida dos</w>
co ches</w>
ci gar
ci dade,</w>
cha me
cere mon
cambi a</w>
bússo la</w>
bun ch</w>
bri dge</w>
bra si
br as</w>
believ ed</w>
begin s</w>
bai ac
baiac u</w>
b bed</w>
axi ña</w>
av ó</w>
au ga,</w>
atra vés</w>
as í
ar y,</w>
ali ve.</w>
ali mento</w>
alcan çar</w>
al ed</w>
al as</w>
ac to</w>
abor da
ab el
a way."</w>
a mento.</w>
a compañ
T on
T igers</w>
T :</w>
Sac ri
S har
Pre ven
On de</w>
O b
O K,</w>
M ag
H el
FO X
Deix a</w>
Cin namon</w>
Ca minar</w>
C am
Brazili an</w>
Ac cumulation</w>
2 ,</w>
"T ra
"" I'm</w>
"" D
"" "You</w>
" X
ú en</w>
ári os</w>
xer al</w>
work s.</w>
won der</w>
wil d</w>
well- being.</w>
we ir
view .</w>
via jar</w>
va i
un expected</w>
tiver on</w>
tiv ese</w>
tiv a."</w>
ti ous</w>
ti ,</w>
ten se</w>
ten .</w>
tem po
te mas</w>
te a</w>
tar nos</w>
sust ent
stre ets</w>
speec h</w>
sour ces</w>
soli dari
socie dad</w>
sinton ia</w>
sin al
silenci o</w>
si gue</w>
sh ining</w>
segú rate</w>
seguri dade.</w>
scis sors</w>
sanguí ne
sa ur
roman tic</w>
ro ad
ris os)</w>
righ t."</w>
ri de</w>
resolu ción</w>
res on
regi ons</w>
re tain</w>
rar ity</w>
rapa za</w>
r r
pu xo</w>
progres o</w>
profesion al.</w>
probabili dade</w>
pro vação</w>
pri vate</w>
pres s</w>
preocu par
precisa m</w>
possi bility</w>
por tra
poltr ona</w>
pleas ant</w>
pesso a</w>
person 's</w>
perfec tly</w>
pe za</w>
par af
p us
p ru
p le</w>
p h</w>
out door</w>
ori o</w>
organi c</w>
opportun ity.</w>
opini on.</w>
ofer ece</w>
of fen
oc cur
obstá culos</w>
nor mas</w>
no tic
ni eve</w>
ne ve</w>
na da
my steri
mp li
move ment</w>
most rou</w>
model s</w>
mo bili
mi m.</w>
mi a</w>
mes mo
mensa xes</w>
me tas</w>
mat ch</w>
láp is</w>
low .</w>
loo k.</w>
lon ing</w>
lo itar</w>
lo ad</w>
lec ción</w>
lear n.</w>
le iros</w>
justi fy</w>
j u</w>
it ?"</w>
is ing</w>
invi ted</w>
industri al</w>
impro ving</w>
im poñer</w>
ill nes
i tei</w>
i sola
human o,</w>
human idade</w>
har d.</w>
ha bit</w>
h en
grá fico</w>
graphi c</w>
g est
g es.</w>
ful ."</w>
forma .</w>
fascin ante.</w>
fal o</w>
fag an</w>
fac er,</w>
experienc ing</w>
exper t</w>
estratexi a</w>
estiv ese</w>
esta bilidade</w>
escap e</w>
es cur
er or</w>
engine ering</w>
en se</w>
en fr
en coura
ell os</w>
efec tiva</w>
dor es,</w>
dinos au
difíci les</w>
dest ino</w>
des cre
depen d</w>
decidi r.</w>
daqu ela</w>
da s)</w>
da qui.</w>
cultu re,</w>
cu ber
ctu ally,</w>
correc tly.</w>
cor ti
comple xo</w>
collec tive</w>
colle mos</w>
colhe ita
clu m
clon agem</w>
cilin dros</w>
ch ose</w>
car e,</w>
can dle</w>
ca so.</w>
c én
c le.</w>
bra zo</w>
bo ,</w>
bikin i</w>
bet ter."</w>
bene fit</w>
bel on
beb é</w>
be er</w>
be a
ba g</w>
au dit
atra er</w>
ato pei</w>
aspec t</w>
artes an
are ia</w>
ar a
apres enta
approach .</w>
aplica ción</w>
an s,</w>
an o."</w>
ambi ental</w>
am ,</w>
alma cen
adventu re.</w>
ach es</w>
absolu te</w>
abili ties.</w>
a propi
a head</w>
a fi
a colle
a ción."</w>
Z i
W hen</w>
Te ñen</w>
T u
T it
Sou th</w>
K ar
Fri ends</w>
Fa i</w>
EE .</w>
E mo
Do es</w>
C al</w>
C ,</w>
A li
19 7
1 ,
00 0
"J ust</w>
"Es tes</w>
" Estou</w>
úni ca.</w>
ó .</w>
yel low</w>
xe itos</w>
wron g.</w>
wher e,</w>
wer en't</w>
w o</w>
w are</w>
voi ce.</w>
virtu de</w>
vi ão</w>
vi st
veri ficar</w>
v o.</w>
usu arios</w>
univer sit
u m.</w>
tu ri
tri l
to wn</w>
to que</w>
tivi dade.</w>
tig ela</w>
ten ,</w>
te oría</w>
te ma.</w>
tan e
t wi
sweet ness</w>
sum mer.</w>
stri ches</w>
st ac
spac e,</w>
some where</w>
smo o
smar t</w>
skill .</w>
sin ta</w>
sex as</w>
senti do.</w>
salu da
sab i
s é</w>
s ort
s la
s ani
rou tin
resul ts.</w>
respe to</w>
res u
reg alo</w>
refri ger
reci pes</w>
re port</w>
re al.</w>
que ix
próxi mos</w>
própri a</w>
prote xi
prote in</w>
profis sion
pro pri
present .</w>
poñ ía</w>
post ura</w>
pob res</w>
plani ficar</w>
plac e,</w>
perso as."</w>
peri o
pec ha
pe t</w>
patient s,</w>
par al
palab ras.</w>
p tion</w>
ou ."</w>
os íxen
or es,</w>
one -
off .</w>
obje tivos</w>
obje tivos.</w>
ob liga
o li
númer os</w>
nos ,</w>
noc tur
no te</w>
ne t,</w>
ne arly</w>
natu rais.</w>
n ace
min d
materi a</w>
mag ine</w>
ma p</w>
m na
literat ura</w>
ligh t."</w>
law s</w>
la sting</w>
know .</w>
ke y.</w>
jun tos.</w>
j ac
it ?</w>
instruc tions</w>
ini mi
influ ir</w>
infla ma
in tr
i ></w>
hy gi
hon or</w>
har der</w>
guit ar
gu y
gen ous</w>
ga vião</w>
g as.</w>
friend ly</w>
fore ver.</w>
for est</w>
fin al.</w>
fe et</w>
far inha</w>
extre me</w>
experi encia.</w>
evolu tion</w>
ev al
eth i
esquer da</w>
esco ll
ent usias
enough ,</w>
ener gia</w>
en th
ele vação</w>
efervesc ência</w>
ef fervesc
e des,</w>
e ?"</w>
do ç
do ors</w>
diñ eiro.</w>
dis play</w>
dis pens
dic ía</w>
descri bes</w>
descri be</w>
des frutar</w>
deleg ate</w>
del ve</w>
de vor
countri es.</w>
costu mes</w>
cor tex
conti do</w>
conf li
comple ta</w>
co inci
clási ca</w>
cli ente.</w>
cion al,</w>
ci ty,</w>
char ge</w>
cha ma</w>
camin ho</w>
ca deira</w>
ca b
bus y</w>
br us
bir d</w>
befor e,</w>
basket ball</w>
bacteri al</w>
bab i
axud arte</w>
avestru ces</w>
authen tic</w>
audi encia</w>
ativi dades</w>
aten uar</w>
asun to</w>
as in
arti sts</w>
arti go</w>
ar rin
apar encia</w>
ant ."</w>
ambi ent
al li
ador o</w>
ac es
a war
a ve
W ould</w>
Univer sidade</w>
Th an
Religi on</w>
Re member</w>
R N
N ix
M en
Fre e
Fan tasy</w>
Ch il
Ca stration</w>
C loning</w>
C har
C ac
B G:</w>
Ad miro</w>
A gra
A ."</w>
</ i></w>
3 .</w>
"I maxin
" Your</w>
" They're</w>
ó rg
ên cias</w>
é ticos</w>
é mo
águ a.</w>
á ticos</w>
á mi
xer ar</w>
xe o
wee k.</w>
we igh
voc ê
ve des</w>
vali osa.</w>
ur as</w>
up da
ul tra
trape zo
trans cen
toler ancia</w>
tic ."</w>
the ory</w>
teste mu
tar de,</w>
tar ,</w>
t ter
swi mming</w>
str ali
spiritu al</w>
son o</w>
son ."</w>
solicitu de</w>
soli dar
sin x
si vo</w>
si .</w>
servi ces</w>
ser oton
segur os</w>
se xo</w>
scre w</w>
san d
sacrifi ce</w>
sabor osa.</w>
sabe dor
sabe des,</w>
s oul
s ces
righ ts.</w>
resour ces.</w>
refuxi ados</w>
recommen ded</w>
recei ving</w>
re habil
ra za</w>
ra cis
r úas</w>
públi ca.</w>
publi shed</w>
propi os</w>
pro ve</w>
previ ous</w>
pres o</w>
prefer i
precis an</w>
pre ma
pran cha</w>
poder .</w>
plan et
pic ni
pi pe</w>
per o,</w>
peix es</w>
pas ando</w>
par ra
pa th.</w>
ou ton
ou ri
os o."</w>
organiza tion</w>
or al</w>
oportuni dad</w>
op ti
olo xía</w>
ol ógi
oc ci
o par
noi te,</w>
neces si
neces itar</w>
ne a.</w>
mus cle</w>
mos :</w>
month s,</w>
monta ñ
mole cular</w>
mo on</w>
mil ity</w>
micro sco
mi m</w>
mer ece</w>
ment os,</w>
mecan ismo</w>
meaning ful</w>
materi al.</w>
mat ter.</w>
m ite</w>
líqui do</w>
lu z.</w>
lin ders</w>
lev an</w>
le que</w>
le ite</w>
l ã</w>
l as.</w>
k er</w>
jud g
j os</w>
it a,</w>
iro s.</w>
involu cra
integra r</w>
infec tion</w>
incri blemente</w>
in se
impres sive</w>
il le</w>
ig n
i mer</w>
high .</w>
herramient a</w>
harmon i
ha ve,</w>
gú sti
gu en</w>
gran de.</w>
gh t.</w>
gam es.</w>
gal la
ga do.</w>
g os
fárma cos</w>
funcion ar</w>
fu r</w>
fru its</w>
foo t</w>
fo le</w>
feli ces</w>
fascin ated</w>
famili es</w>
famili a,</w>
fabri c</w>
f estas</w>
extre ma
expres são</w>
exist ence</w>
ex tin
ester n</w>
esta .</w>
essen ce</w>
especta dor</w>
especi ali
es ?"</w>
en han
ele gan
el se.</w>
el ."</w>
effervesc ence</w>
e j
dé be
dur mi
dur as</w>
doç ura</w>
dou tor
do me</w>
distra c
dis fru
din ner</w>
di as</w>
detail s</w>
des parra
der ro
deep ly</w>
decidi u</w>
de fec
de cre
dau ghter
da ta
d outro</w>
cé u</w>
cultu ra.</w>
cri sis</w>
coñ ece</w>
control ."</w>
contro l,</w>
connec ting</w>
comunica ção</w>
compas sion
col ori
co se</w>
co idar</w>
cl os
cho osing</w>
ch ope</w>
ch is
cancro ,</w>
can tas</w>
can ,</w>
camiñ ar</w>
cal f</w>
cacho eira</w>
ca se
ca ctos</w>
bu ena</w>
boo k,</w>
bla me</w>
bat t
ball o</w>
ba ñ
b á
az eitonas</w>
au ton
ath y</w>
as í."</w>
arro j
anti ci
an gústi
amor ti
agar rar</w>
ag ing</w>
afe tar</w>
adi ante."</w>
ace ite</w>
aca dé
ac titud</w>
a ções</w>
a ther</w>
a paix
a mes</w>
a -
a !</w>
We alth</w>
W ell,</w>
T i</w>
S op
Rob er
R igh
Ou vi
O striches</w>
O ri
N ada</w>
M exi
K u
Is ra
Hu mility</w>
E ,</w>
D ev
D ar
Customi zation</w>
Communi on</w>
Cac ti</w>
C en
B ur
A o</w>
? ]</w>
7 .</w>
4 .</w>
10 ,</w>
1 .</w>
"Po der
"Po demos</w>
"P ro
"M entres</w>
"Ho wever,</w>
"H ow</w>
"B u
épo ca</w>
árvor es</w>
ár bor
áde me</w>
z ando</w>
y rami
y a</w>
women ,</w>
wh en
well- being</w>
way s,</w>
vó s,</w>
vó l
vin do</w>
vibra ting</w>
vi agem</w>
ver dade,</w>
ve te</w>
val e</w>
u ri
trou ble</w>
tri als</w>
trapezo id</w>
trabaj o.</w>
tou ri
to o,</w>
tin do</w>
ti en
ti ci
thre e-
thou sand</w>
tent a</w>
teat ro</w>
te ime</w>
sur f
su posto</w>
st ers</w>
sorpres a</w>
sorpren dente</w>
sligh tly</w>
sleep ing</w>
simp le.</w>
sign als</w>
sh op
ser án</w>
sec tion</w>
san gue</w>
sa y.</w>
s ?"""</w>
ri co</w>
restri c
repres ents</w>
reme dy</w>
relax ar.</w>
ref lic
redu ci
recor dos</w>
reci pe</w>
re d,</w>
quil ô
qui x
projec ts.</w>
profun do</w>
profesion ais</w>
proces s,</w>
pro s
presenta ción</w>
pre firo</w>
pre dicir</w>
pou cas</w>
poten ci
poder oso</w>
po tism</w>
piz za</w>
pil a</w>
ph arma
persever anza</w>
persever ance.</w>
per d
ped ras</w>
pat ri
partici par</w>
par ty
par adi
pan ts</w>
pac k
p ill
ori al</w>
org áni
on line.</w>
oll os.</w>
ol d.</w>
ofi cin
nov as.</w>
nigh t
nego cio</w>
na cional</w>
n estas</w>
má n</w>
mp ada</w>
mort alidade</w>
moit o,</w>
mini mi
meta boli
mer car</w>
medi o
me tri
me d.</w>
mat ters</w>
mas sa
magi c</w>
ma tely</w>
ma inten
lon x
liv ro</w>
liv es,</w>
lead ers</w>
lands ca
l â
it i</w>
is mo.</w>
is he
iro s,</w>
ir st</w>
inver no</w>
inter nal</w>
intelli gent</w>
integra ção</w>
instru cións</w>
influenci ada</w>
infec cións</w>
indi ca</w>
impost or</w>
important ly,</w>
im posible</w>
ida des.</w>
i ding</w>
i dade."</w>
ho me."</w>
har ves
har m
han g</w>
hamb ur
habili dades.</w>
h usar</w>
graf ía</w>
gra ve</w>
got ten</w>
galo chas</w>
ga stron
g ers</w>
futu re,</w>
for .</w>
fol ks</w>
figu red</w>
fi car
fe ar.</w>
fami ly,</w>
fa me</w>
f low</w>
expli car
exerci se.</w>
examp les</w>
eval ua
ev ento</w>
ethi cal</w>
este an</w>
estatísti cas</w>
espin ha
escondi din
es ix
er ros.</w>
equi voca
entra da</w>
enten de
ent ly,</w>
ent ."</w>
enri ba</w>
en contr
elé tri
elimin ar</w>
e zo</w>
e go</w>
e du
dura ción</w>
do g
dis curso</w>
difficul t.</w>
di ,</w>
develop ment.</w>
despo tismo</w>
descri b
descre ve</w>
der ly</w>
den o
demostra ción</w>
dele gado</w>
decora tive</w>
deci dir</w>
debru çado</w>
de ter
de ba
cú mpli
crow d</w>
cora gem</w>
cor ner</w>
consequ ences.</w>
consegui u</w>
conflit os</w>
confli ct</w>
condi tions.</w>
con ve
come çar</w>
combus ti
colheita deira</w>
coffe e.</w>
clar a.</w>
cl uso</w>
cion ado</w>
cha má
cha mar
cel ul
cancer .</w>
can ary</w>
can ario</w>
camp ain
cabe za.</w>
ca dra
br and</w>
bos que</w>
bon ito</w>
bomb óns</w>
bod y's</w>
bo ys</w>
ble d</w>
bi en</w>
be m-
bat al
barul ho</w>
bandi do</w>
b lac
axudar che</w>
auto -
atur as</w>
attra ct</w>
atmos pher
asu mir</w>
assi stir</w>
as cen
arti stic</w>
ari es</w>
ar ru
ar ren
ar me.</w>
ar lle</w>
ap or
anti oxi
an ça.</w>
an alizar</w>
amorti guar</w>
alle vi
ale gri
al ta.</w>
al one,</w>
al lo
al e,</w>
advan tage</w>
activ ate</w>
achie ve
a way,</w>
a sen</w>
W ho</w>
U S
S ur
S pan
S le
Respec t</w>
P ol
In te
H an
Go li
G od</w>
F :</w>
Es per
E l
Apren de</w>
&amp ;
"Preci samos</w>
"Est as</w>
"" Por</w>
óti mo</w>
âni o</w>
Áfri ca</w>
z as."</w>
z ados</w>
your self."</w>
we al
vi br
ves sel
verdade iramente</w>
vas os</w>
v árias</w>
u re.</w>
tru e."</w>
tren ó</w>
tre ating</w>
tradi tion</w>
tion ary</w>
ti co."</w>
they 'll</w>
th y</w>
test s</w>
terce ira</w>
tempor al</w>
task s</w>
ta da.</w>
t ment</w>
syste ms.</w>
stre et
strate g
so amente</w>
sinx ela</w>
separ ate</w>
sensa ção</w>
se tting</w>
se t.</w>
sat ura
sa dness</w>
sa d
s -
risk .</w>
resul tou</w>
relev ant</w>
re e</w>
radi o
ra mente</w>
qu é
qu ece
pó tamos</w>
pur po
pul led</w>
produc ed</w>
pro pa
pro me
prima ver
preser vação</w>
preci sion</w>
preci ous</w>
pre xuí
poñ en</w>
poñ emos</w>
popul ares</w>
poin ts</w>
poin t.</w>
poder emos</w>
po mb
pleas ure</w>
pho to</w>
pes ca</w>
perso a."</w>
perm itas</w>
pen se
pati ence.</w>
pas sion.</w>
parti es.</w>
par te,</w>
pantal la</w>
p é</w>
or an
ol .</w>
ocupar nos</w>
obvi ously</w>
obstácul os.</w>
ob tain</w>
nu mer
noti cias</w>
normal ,</w>
nen as</w>
natu rais</w>
n on.</w>
mé tri
mé todo</w>
mna si
ment s."</w>
mas s</w>
marabill osa</w>
manu fac
mani f
manag ement.</w>
ma ster
ma pa</w>
ma che
m íni
m n</w>
lu min
lo gro
li qu
li dade.</w>
le vel.</w>
le :</w>
lat er.</w>
lar an
lanter na</w>
la mos</w>
la d
knowled ge.</w>
k s."</w>
j ury</w>
j e</w>
j an
it s.</w>
ira ."</w>
institu cións</w>
inspira tion.</w>
infla mma
increas ingly</w>
in ti
impro ve
identi ty.</w>
human as</w>
hoo d.</w>
ho b
hipo pótamos</w>
happen ing.</w>
han ds.</w>
hab ita
ha ir.</w>
ha do</w>
gif t.</w>
ge m.</w>
ga to</w>
ga ción</w>
g le</w>
fotogra fía</w>
forge t
fo sen</w>
fl our</w>
fin almente</w>
fi xe
festa ?</w>
fas ter</w>
far ma
fac tors</w>
fa ul
f at</w>
estiv en</w>
essenti ally</w>
espa ñ
era ser</w>
equ itable</w>
equ il
enga dir</w>
enc y.</w>
en do.</w>
en caix
el o.</w>
económi ca</w>
e ze</w>
doen za</w>
do orb
diverti do</w>
diver sas</w>
discover ing</w>
discipl ina</w>
dis pon
diabe tes</w>
destru c
descen deu</w>
des con
depen dencia</w>
den te
den tal</w>
delici ous.</w>
delica te</w>
defin ed</w>
deb ate</w>
de va
de p
d ing."</w>
cá ni
curr ently</w>
cri aturas</w>
credi t</w>
contribu te</w>
conten to</w>
confi dent</w>
conec tado</w>
con fron
coment arios</w>
com bater</w>
cla si
ci po
che gan</w>
character is
cha .</w>
cent ur
car go</w>
can di
cambi o.</w>
c s,</w>
brea king</w>
bre ast</w>
boun dari
be i</w>
be be
ball s</w>
bac k."</w>
avali ar</w>
atra ves
arre bat
arm chair</w>
ari an</w>
ar tic
ar emos</w>
appear ance.</w>
ap lau
ansi oso</w>
an n
ami go.</w>
alterna tiva</w>
alimenta ção</w>
alco holi
al o,</w>
ag er</w>
acu diu</w>
activ ity.</w>
ab ces
a way.</w>
a k</w>
a "</w>
X ulgar</w>
W a
V ou
Te am
T al</w>
Po is</w>
P h
Joh n</w>
He aling</w>
H ou
Go od</w>
Free dom</w>
FD A</w>
F ac
Every one</w>
Est án</w>
D id</w>
Christ mas</w>
Ch ris</w>
Ch ope</w>
Californi a</w>
A x
9 .</w>
50 ,</w>
1 3</w>
"S o
"P ri
"O b
"C o</w>
’ s</w>
é c
çã o."</w>
ç al</w>
ári o.</w>
á -lo</w>
¿ Qué</w>
zon a.</w>
z e.</w>
y ri
xo me</w>
xo gue
xe ar</w>
world wide
wh ose</w>
w .</w>
virtu e</w>
venti la
un forget
tu mor</w>
triste za</w>
tri s
treas ure</w>
trabal hos</w>
tion :</w>
ti da</w>
technolog y.</w>
technolog y,</w>
ta man
t ine</w>
súpe to</w>
su xi
su bir</w>
stu di
sti ck</w>
stat us</w>
st ag
sort s</w>
soc cer</w>
sob ri
so mou</w>
silên cio</w>
secur ity.</w>
se ts</w>
se al</w>
sal tar</w>
sal a.</w>
sab es</w>
sa me,</w>
s éri
rou pa.</w>
roi der
ro s."</w>
ro ad.</w>
ri ver</w>
ri r</w>
rexe ita
restaur ant</w>
respira ción</w>
resist ance</w>
rende mento</w>
relacion ado</w>
regre t</w>
regener ação</w>
regener ation</w>
regar dless</w>
reflec tion</w>
recor d</w>
reci cla
ra da</w>
quilô metros</w>
qui si
pu és</w>
pu ri
prote ína</w>
profesion al</w>
proces os</w>
pri son
pri ority</w>
pri or
previ são</w>
pou co.</w>
possibili ties</w>
pos su
poin ted</w>
po p</w>
po or
po cket</w>
pho tos</w>
patter ns</w>
part ner
paraf uso</w>
panturri lha</w>
pa st.</w>
pa st,</w>
p ush</w>
ous ly,</w>
other s."</w>
ori es</w>
orgul l
orden ador
on da</w>
offi ce.</w>
obstac les.</w>
o vos</w>
o d
no vela</w>
no t."</w>
neu ral</w>
necessar ily</w>
n s,</w>
má gi
myster y</w>
muller es,</w>
mu ita</w>
move mentos</w>
most ras</w>
most rando</w>
mor ning,</w>
moo d.</w>
mis sing</w>
mis mo.</w>
mira mos</w>
minu tes,</w>
melh ores</w>
me th
me cáni
mari ju
manten er
mal ,</w>
ma s."</w>
ma s,</w>
m í.</w>
long er.</w>
loca ted</w>
lo ve,</w>
ll os</w>
li t</w>
li ed</w>
lev amos</w>
leader ship</w>
le y</w>
le d,</w>
le -
lan d,</w>
la mp</w>
l úa</w>
k -
ir ía</w>
ir ds</w>
invol ves</w>
indi genous</w>
inclu índo</w>
in tri
ima x
há b
high- quality</w>
hid den</w>
healthi er</w>
heal ing</w>
happen .</w>
habit ación</w>
hab lar</w>
h ó
gu ía</w>
gh ten
gen o
g os.</w>
for med</w>
fol las</w>
fish .</w>
fir st.</w>
fen ó
fear s.</w>
far m</w>
fal ar.</w>
fair ly</w>
facel o,</w>
f ab
extra ct</w>
estí mul
esta bamos</w>
esp é
er 's</w>
environ ments.</w>
ent ra</w>
enor mes</w>
enfr ent
eleg ant</w>
ele ph
el s</w>
e do</w>
dul e</w>
du re
dro p</w>
doub t</w>
don '
do mes
diá logo</w>
discu tir</w>
discrimin ation.</w>
dir ía</w>
din ner.</w>
di so</w>
di da</w>
detec ción</w>
deslumb ran
desfi la
desent ona</w>
descubri mos</w>
defen der</w>
decrea sed</w>
de za</w>
de las</w>
dan o</w>
da bon
d ary</w>
curios idade</w>
cur to</w>
cri me</w>
cr ânio</w>
coñeci da</w>
cor da</w>
contex to</w>
constru ção</w>
confi anza.</w>
condi tion
concep t</w>
con ut</w>
con tempor
comp ras</w>
comp la
colleagu es</w>
collabor ation</w>
co la</w>
clar o.</w>
cicl o</w>
chá cara</w>
children ,</w>
chan ge."</w>
chan ge,</w>
cele iro</w>
cegon has</w>
cave ira</w>
cate gor
casti çal</w>
cas os,</w>
cap ace
can dea</w>
cam po.</w>
cal or</w>
boo ks.</w>
beau ty.</w>
be t</w>
be ar
bar n</w>
b or</w>
b est.</w>
aventura .</w>
atta ck</w>
ata que</w>
at ro
as ing</w>
aqu i</w>
anti -
animal s,</w>
ama zed</w>
am osa</w>
al to.</w>
al though</w>
al es.</w>
afir ma
ador a.</w>
adecu ada</w>
aca b
ac ú
ac ción.</w>
ab out.</w>
ab ly</w>
a ;</w>
W hat's</w>
U. S.</w>
Team work</w>
T rust</w>
Su gar</w>
Sta tes,</w>
S en</w>
S cot
P hi
O N
En cán
Des potism</w>
Cy linders</w>
Customi zação</w>
Chan ge</w>
C leaning</w>
Ameri ca,</w>
8 0
7 ,</w>
( Música)</w>
"Pen so</w>
" I've</w>
ân cia.</w>
â mi
áron se</w>
year ."</w>
y e</w>
xer al,</w>
x a.</w>
work ers</w>
wi fe</w>
we alth</w>
wat er."</w>
vol ver
voca bul
vin ho</w>
vi sta.</w>
ven ,</w>
vegetari an</w>
vacin as</w>
ura .</w>
univer se.</w>
un predic
un cover</w>
twi ce</w>
tradi cional</w>
tr on
topic .</w>
teñ as</w>
terce iro</w>
ten ta
ten s</w>
ten go</w>
task .</w>
tar me</w>
tan tas</w>
ta is</w>
t ing
sud den</w>
suce de</w>
stor y
stor e.</w>
ster n</w>
speci alized</w>
spe ech
some thing,</w>
solu tion."</w>
sent indo</w>
sen i
school s</w>
sal vação</w>
s cent</w>
rou gh</w>
risk s.</w>
respec to.</w>
res cu
requi ren</w>
reach ing</w>
reac cion
re turn</w>
re coñecemento</w>
re -
rapi dly</w>
rapi damente.</w>
ra tes</w>
ra po
pu ffer
puffer fish</w>
prote xer
progra mming</w>
preser ve</w>
presen tar</w>
pre venting</w>
pre frontal</w>
posi tion.</w>
posi ble."</w>
pos í
por que,</w>
por k</w>
polí tico</w>
poes ía</w>
po di
plan o</w>
pla y.</w>
pl ena</w>
physi ci
petr óle
pesca dor</w>
perci bir</w>
pelo ta</w>
palab ras,</w>
pa th
pa ir
p ira</w>
orix e</w>
oran ge</w>
olo gy</w>
ol der</w>
of .</w>
nov a.</w>
normal ."</w>
nen os,</w>
negoci o.</w>
neg ra</w>
ne y</w>
ne gro
na i
n outros</w>
n er,</w>
n arra
n ar
n algúns</w>
n '
músi cos</w>
mundi al</w>
multip lica
mu ch
movi es</w>
mo tion</w>
mo m</w>
mista ke</w>
min ."</w>
mient ras</w>
mi dade</w>
menti ra</w>
mecan is
me tro</w>
me dos.</w>
mb ling</w>
materi als</w>
mar y</w>
mar ine</w>
man ter
ma is.</w>
ma deira</w>
m ness</w>
lu z
liqui d</w>
ling ü
les s.</w>
le opar
jun tos</w>
j or
ist a</w>
investig adores</w>
inten si
integra te</w>
integra l</w>
inici a
in xec
in visible</w>
in su
in jec
in -
imaxin ación</w>
i ades</w>
humil ity</w>
human as.</w>
hu g</w>
hour s.</w>
he at</w>
gra v
go at</w>
glob al.</w>
gen ome</w>
fó r
frí o</w>
freedo m.</w>
fo am</w>
flo or</w>
firme za</w>
filos of
fi le</w>
fe ed</w>
fav ori
fal se</w>
fal an</w>
facer se</w>
fa inos</w>
f rec
extra er</w>
exci te
evol ved</w>
ev alu
euro pe
est án
est en
est ar.</w>
especi es</w>
es tivo</w>
er a.</w>
equil í
empez ou</w>
el es.</w>
el aquí</w>
ej erci
eas y,</w>
dúbi da</w>
dou ro</w>
do bre</w>
discrimin ation</w>
disco ura
dis gui
direc tly</w>
dir on</w>
difficul ty</w>
difficul ties</w>
dif í
di to</w>
di so,</w>
di min
di :</w>
destru ción</w>
desig n.</w>
der s,</w>
depen der</w>
depen dendo</w>
demonstra te</w>
da tos,</w>
d uns</w>
cy cles</w>
cry stal</w>
cru mble.</w>
crea tes</w>
cor tex</w>
conver te
conv ér
concep to</w>
complica do</w>
comple to</w>
coci ñar</w>
co z
co li
cla ses</w>
cl á
ck er</w>
ci f
child hood</w>
ch y</w>
cerebra is</w>
cano e</w>
ca stra
ca se.</w>
ca mar
brea k.</w>
bra ve</w>
br inging</w>
be ings</w>
bat ería</w>
ba do</w>
b ata</w>
b ad
autori dades</w>
atra pa
aspec ts</w>
arren da
aqu ilo</w>
apaix on
ap par
anti ga</w>
angústi a</w>
an os
am s</w>
allevi ate</w>
algui en</w>
al ty</w>
al o."</w>
ag ne</w>
advi ce</w>
ade ar</w>
ada mente</w>
ac cumul
a tely</w>
a mar</w>
a a
Toler ance</w>
T or
T ake</w>
T V
Si empre</w>
Sa ú
S we
S tre
S er</w>
S :</w>
Per haps</w>
P al
No thing</w>
M ou
Li ghting</w>
Justi ce</w>
H un
Gre at</w>
G ran</w>
En cender</w>
DN A,</w>
Cho osing</w>
Bost on</w>
B run
A to
A somou</w>
A mo</w>
8 .</w>
2 3</w>
1 7</w>
"To do</w>
"To day,</w>
"F o
"E la</w>
"" How</w>
" Qu
é molo</w>
za mento</w>
xén er
xen te."</w>
x é
x ac
who m</w>
when ever</w>
week end.</w>
w s</w>
vo la
vizin hos</w>
viv o.</w>
vi sto</w>
ver go
v os.</w>
v i</w>
un ir</w>
u ."</w>
ty pic
tu ber
tra uma</w>
tra pped</w>
tica s,</w>
thro w</w>
thre w</w>
the ater</w>
tex t</w>
ter ed</w>
tecnolo gia</w>
te eth</w>
tar xe
sym boli
sus cep
survi ve</w>
sur pre
support .</w>
sup p
suf fici
suf fer</w>
su je
stress ful</w>
sti cer
statisti cs</w>
st o,</w>
specta cular</w>
sp illed</w>
son o.</w>
some one's</w>
socie dades</w>
so il</w>
si ón."</w>
si eve</w>
sho es.</w>
ship s</w>
sh ine.</w>
ser mos</w>
sen so</w>
segu imos</w>
sec ción</w>
scra t
saud ável.</w>
s écul
s pira
s ente</w>
rá tase</w>
ro mán
restaur ante</w>
respon sá
reli eve</w>
relax ed</w>
relax ante.</w>
rela tion</w>
refuge es</w>
reac ción</w>
re to</w>
re por
re husar</w>
re for
re coñec
re al."</w>
raz o
radi cal</w>
ra s."</w>
r ar.</w>
pu mp
provi ded</w>
profes ores</w>
pressu re.</w>
possibili ties.</w>
pomb os</w>
polí ticos</w>
po co</w>
pl ing</w>
pit ting</w>
person a</w>
perso a,</w>
perm í
perm it
pen ici
pen ding</w>
pat ent</w>
pas sar</w>
pas e</w>
pain ting</w>
p ed</w>
os a,</w>
on al
on ?</w>
of en
obser va
o ?"</w>
no vel
new s
ne t.</w>
n ari
mountain s.</w>
motor cycle</w>
mo v
mo to
minu te</w>
metá for
mes a.</w>
men .</w>
mas cul
mari hu
marihu ana</w>
maravi l
mar ri
man y,</w>
man era</w>
mai or
ma do</w>
li x
lexisla ción</w>
let ter</w>
len ço</w>
laboratori o,</w>
la y</w>
l ing.</w>
is ter</w>
investi mentos</w>
intro ver
interes antes</w>
ino vação</w>
ingres os</w>
informa tion,</w>
in sur
impe dir</w>
imagin ation</w>
hor as.</w>
honest y</w>
ho pe
hi dra
he /she</w>
harves ter</w>
ha ,</w>
gu staríame</w>
grow n</w>
galla das)</w>
g as
fun er
ful filling</w>
fol has</w>
fill os.</w>
fil m</w>
fas ti
far ía</w>
failu re.</w>
fa ther
expl osi
exper ts</w>
expecta tions</w>
expec tan
exaxer ar</w>
esta vam</w>
es encia</w>
er ra</w>
equi val
environ ment,</w>
ensai o</w>
enci ar</w>
en sal
en os</w>
emp ati
embar ras
emb race</w>
effor t.</w>
e jo</w>
du bi
dri ver
down ."</w>
do /a.</w>
disfar ce</w>
discus s</w>
dis infec
dis coun
direc tamente</w>
dinos saur
difí ce
differ ent.</w>
diab óli
devor ador</w>
destru ction</w>
desgra za,</w>
deno min
decora ção</w>
decora tion</w>
de la.</w>
de jar</w>
da ta,</w>
d outras</w>
cír culo</w>
cultu res</w>
cultu rais</w>
cr ani
coñec ín</w>
conversa tions</w>
conver ter</w>
conveni ent</w>
consump tion</w>
confi ança</w>
conf lito</w>
con sel
con fes
comunica ción.</w>
complex os</w>
combin ation</w>
coci ña.</w>
co :</w>
clo thing</w>
clar o,</w>
ci ties</w>
choi ce.</w>
chemi stry</w>
chang es.</w>
caus as</w>
cano a</w>
can cel
can ."</w>
camp os</w>
cali dad</w>
caf é.</w>
ca er</w>
ca chi
c úti
c ía</w>
c use</w>
bro w
bro k
brasi le
bo ca</w>
bio mbo</w>
behavi or."</w>
be ating</w>
balon ces
baix o.</w>
baix ar</w>
ba ."</w>
b ound</w>
b es
b ble</w>
azu cre</w>
avo a</w>
av ing</w>
at ors</w>
asegur arnos</w>
as ter</w>
as pira
ar teri
ar ma</w>
ar es,</w>
aqu í."</w>
apren demos</w>
apo logi
ant í
an ese</w>
an do."</w>
an dar</w>
alzhé imer</w>
aliza da</w>
al í,</w>
ag rí
ag resi
ag gres
ag es.</w>
adi c
ade mais</w>
ade lan
ad voca
ad ren
ad just</w>
acú sti
aco pla
acadé mi
ac tor</w>
aba ix
ab y
You 've</w>
W in
W ell</w>
U m</w>
T R
Sor risos)</w>
So y</w>
S i,</w>
R unning</w>
R el
Qui ero</w>
O lives</w>
No bel</w>
M ain
M I
I denti
G a
Des enganchar</w>
D B
C las
C D
C .</w>
Afri ca</w>
A ni
A gar
4 0
1 50</w>
"W hi
"S i</w>
"Po is</w>
"P re
"O h,</w>
"F rom</w>
"A ctually,</w>
"( Music)</w>
"" We</w>
"" F
óri o</w>
ñ os.</w>
í an
ándo lles</w>
z u
y mous</w>
xuí z</w>
xi g
x an
winter .</w>
vo z.</w>
virtu e.</w>
vir on</w>
video xog
vi são</w>
vi das."</w>
vaca cións</w>
v ías</w>
v al.</w>
univer so.</w>
un ir
tru ck</w>
tro pical</w>
tri ste</w>
tri al</w>
tre asu
trabal lo."</w>
tra c
tou me</w>
toma mos</w>
to day."</w>
tica s."</w>
ti cos,</w>
though t.</w>
teacher s</w>
tarxe ta</w>
sw it
surviv al</w>
surger y</w>
sur fac
superi or</w>
sup ón</w>
su av
stre am</w>
spon ge</w>
sos pe
sear ching</w>
sche dule</w>
scar ed</w>
sacri fici
sa v
s os,</w>
s an</w>
rápi do,</w>
roo m."</w>
ro ll
rin das</w>
research ers</w>
resear ch,</w>
remédi os</w>
remark able</w>
relax ing.</w>
recommen d</w>
recogni zed</w>
reci bín</w>
re produc
re act</w>
r ita
quil o</w>
qui et</w>
quen te.</w>
que ira</w>
que ira
que dar</w>
que dan</w>
proxec tos</w>
protec ting</w>
prote ins</w>
promo ver</w>
proble ma."</w>
pro of</w>
pro cura
priori dade</w>
principi os</w>
pres tar</w>
possi bly</w>
po camp
pi e</w>
photogra ph</w>
ph one.</w>
ph eri
pes quis
person ality.</w>
persever ance</w>
per fe
pen eira</w>
pec uli
paí ses.</w>
passion ate</w>
pal av
pa vio</w>
outro s."</w>
os te
opini ón.</w>
ofi cina</w>
offer ed</w>
of ,</w>
océ ano</w>
o tros</w>
nor m
nen a</w>
n one</w>
mú lti
má tico</w>
mysteri ous</w>
mor re
moment s.</w>
moder na.</w>
mo od</w>
mill ón</w>
mi cs</w>
meta s.</w>
men os,</w>
memb ers</w>
meet ing.</w>
medi a,</w>
mar ,</w>
mal os</w>
make up</w>
mag ne
ma is,</w>
m ."""</w>
loca is</w>
liqu or</w>
lau ghter</w>
lab i
la te.</w>
la do,</w>
l esti
lesti ck</w>
l est</w>
ke ."</w>
k in</w>
jus tic
j a.</w>
it ate</w>
iro ."</w>
interes ado</w>
inter personal</w>
indica te</w>
in test
in fer
in cu
in compar
important ."</w>
il s</w>
il ing</w>
igre ja</w>
ide as."</w>
hus band</w>
hori z
hip pocamp
high est</w>
hi m."</w>
hear ts</w>
hear ing</w>
has n't</w>
goo d."</w>
ge d.</w>
físi co.</w>
futu ro,</w>
funcion an</w>
funcion a.</w>
fu el</w>
fro tar</w>
frecu encia</w>
foun tain</w>
for ced</w>
follow ed</w>
flexi ble</w>
fi ero</w>
fac tor
extraordin ary</w>
exerci ses</w>
ex it
ex hibi
evi dencia</w>
eu .</w>
estru tu
est alo</w>
es cán
er e
entre pren
ent os</w>
ensin a</w>
enc ender</w>
en ví
empreg ados</w>
embar az
ed ge</w>
ear s</w>
e y</w>
drin king</w>
dre w</w>
dou s,</w>
dix en</w>
diri xi
din do</w>
dimension al</w>
dicin do</w>
di xeron</w>
di xer
di alo
determin ation.</w>
des infec
des co
depen dence</w>
den temente</w>
democra cy</w>
de vou
dar lles</w>
da ta.</w>
d d
cus to</w>
cur sos</w>
cultiv ate</w>
cru cial.</w>
criti cis
cre am</w>
cozin har</w>
conversa tion.</w>
contr ario</w>
confor tá
confor to</w>
competi ción</w>
compañ eiro</w>
commun ity,</w>
comfor table.</w>
color s.</w>
co co</w>
clá ssi
clum sy</w>
cli ents</w>
clar amente</w>
cla im</w>
ck s.</w>
cirur xi
cicl os</w>
che ."</w>
champ an
challeng ing</w>
ch ão</w>
car ta</w>
cand lestick</w>
cam aleão</w>
cali dade.</w>
ca pa
c y,</w>
busin es
bu en</w>
bio loxía</w>
bi a</w>
bb ing</w>
b ese</w>
avo iding</w>
au menta</w>
ato pou</w>
at ura</w>
ast on
assa ult</w>
as asin
arrin con
arri ba</w>
ari o."</w>
argu ment</w>
appe ar</w>
ap on
ap licar</w>
anz e
any body</w>
anima do</w>
an ce,</w>
an aco</w>
alzhé imer
ali ve</w>
al -
agri cultural</w>
agra de
agor a."</w>
afterno on.</w>
adoles cent
aca ba</w>
abstra c
abili dade</w>
ab ra
a í,</w>
W i
V ide
V ac
Univer sity</w>
So cial</w>
S pitting</w>
S imp
Par í
P ort
P erci
N inguén</w>
M é
M áis</w>
M ost</w>
M al
M ad
M R
Jo e</w>
Jap anese</w>
J ust</w>
J u
J as
Go d,</w>
Face book</w>
Emp athy</w>
Ear th.</w>
E mb
Deci dín</w>
Cor ação</w>
Chi ca
Can ad
B el
Au strali
Al gunhas</w>
A S
8 00</w>
2 7</w>
- free</w>
( Aplauso)</w>
"Pri me
"On ce</w>
"N este</w>
"H e's</w>
"Est aba</w>
" You're</w>
ñ an</w>
é vete</w>
á to
á tico</w>
á c
z er
your self,</w>
you ?</w>
xun tos,</w>
x il
wor n</w>
wide ly</w>
vos as</w>
vo ar</w>
vivi mos</w>
verdade iros</w>
ver b
ve d,</w>
utili za</w>
us os</w>
ur x
uni dade</w>
un .</w>
tu bar
tu al</w>
tranquil o</w>
traball an</w>
tra tando</w>
tissu e</w>
thre e,</w>
the me</w>
tex ture.</w>
tes ted</w>
ter apeu
tas te.</w>
tar ge
tal ent</w>
ta il</w>
surroun ding</w>
superviv encia</w>
sufri r</w>
stu died</w>
streng then</w>
stre t
stre et.</w>
stor ed</w>
sti cks</w>
sta ir
st s.</w>
spi ce</w>
speci es.</w>
soun d.</w>
si ve,</w>
si li
sho ck</w>
sever e</w>
sent ía</w>
sent ence</w>
sen sor
semell a</w>
segu indo</w>
saú de,</w>
sa ir</w>
sa gra
s port</w>
s mo</w>
s culp
ru ral</w>
ro l
ro ck.</w>
ris co.</w>
resulta dos.</w>
responsab les</w>
respec tful</w>
resour ce</w>
res ist</w>
remin der</w>
religi on</w>
relacion adas</w>
rela ción.</w>
recor dar</w>
rebo te</w>
reali dade."</w>
re lat
rar se</w>
rar on</w>
rar me</w>
ra w</w>
qu estão</w>
públi cas</w>
psi co
pros peri
propó sit
proces o.</w>
present ou</w>
pres id
preci sas</w>
pre ver</w>
pre cau
por centa
popul ation.</w>
plen a.</w>
ple ase</w>
piz za.</w>
pin tura</w>
physi cally</w>
pesso al.</w>
person al.</w>
perso ais.</w>
permitir nos</w>
perman ec
perfor ming</w>
per der
pens ar.</w>
películ as</w>
pase ar</w>
pas an</w>
pas amos</w>
particul ar,</w>
particip ate</w>
pal m</w>
p ra</w>
p per
p ing
orgull oso</w>
org an</w>
or de</w>
open ed</w>
on :</w>
olo x
offi cer</w>
of fici
obvi ous</w>
noti cia</w>
nos ."</w>
nor mal.</w>
neg ó
necessi dades</w>
n ing."</w>
n as
máxi mo.</w>
máquin as</w>
mun do
mu ch,</w>
mother .</w>
mort ality</w>
mon tón</w>
mole ta</w>
mer gul
mellor ,</w>
measure ment</w>
me tal
me ant</w>
maz á</w>
mar on</w>
man tener</w>
mache te</w>
ma dure
li ñas</w>
lev o</w>
lev aba</w>
le mon</w>
lar go</w>
l er.</w>
ki ds,</w>
ke d."</w>
k espe
justi ficar</w>
ju mp</w>
job ,</w>
it ali
isla tion</w>
investi gar</w>
intro spec
insul t</w>
institu tions</w>
instan ce,</w>
inspira ção</w>
inspira ción.</w>
ins pira</w>
incre í
in evit
in equ
imp revi
i u</w>
human ity.</w>
human idade.</w>
hi pó
her ir</w>
head ,</w>
hard ware</w>
ha t
h ecer</w>
gú n
gru po.</w>
gra ves</w>
gr ãos</w>
gober nos</w>
go st
go ?</w>
geome tri
gen es
ga ther
g il
g ger
fun ny</w>
fro itas</w>
friend ship</w>
fri ghten
fra cas
for za.</w>
for tes</w>
for got</w>
for am</w>
fo mos</w>
fo li
fl ash
fisher man</w>
fin ais</w>
femal e</w>
feel ings.</w>
far á</w>
fan tas
fac ão</w>
extrema damente</w>
expo sure</w>
experi men
exp and</w>
excep t</w>
exa min
ex plan
ev o
eta pa</w>
et c."</w>
estraté gia</w>
espé ci
espon xa</w>
espa zos</w>
er ing.</w>
er gu
er a,</w>
er -
enti rely</w>
empre go</w>
empre gar</w>
emp ty</w>
emo ções</w>
elin ess</w>
eli xir</w>
el y.</w>
el lo</w>
ego í
effor ts</w>
efec tiva.</w>
edifici os</w>
econom y.</w>
e ta</w>
díxo me:</w>
dé cada</w>
do iro</w>
do ado</w>
dispoñi bles</w>
disposi tivos</w>
digni dade</w>
detec tion</w>
desfila deiro</w>
descu ber
desafí o</w>
des pués</w>
depres sion,</w>
delica tes
defen d</w>
dedica tion</w>
de tall
de les.</w>
de le</w>
da f-
d y.</w>
d outros</w>
cust os</w>
cultur al.</w>
cu tting</w>
crí tica</w>
crit eri
cri stal</w>
cre amos</w>
cr un
coñeci do</w>
cor po."</w>
cooper ación</w>
contro la
contex t</w>
competi tion</w>
comp any
common ly</w>
comi go.</w>
comez aron</w>
comez ando</w>
comb at</w>
com poñ
cogni tion</w>
coast al</w>
co ral</w>
clíni ca</w>
ci encia,</w>
choi ces</w>
cell ,</w>
celebra tion</w>
cegon ha</w>
ce d.</w>
cau sou</w>
cata dor</w>
cas es,</w>
carni ça</w>
cardiovas cular</w>
car rying</w>
camp ing</w>
ca br
ca ble</w>
ca ballo</w>
c indi
bru ñ
brill ar</w>
bio logy</w>
ben s</w>
balonces to</w>
ball .</w>
bal ance.</w>
b é
awk ward</w>
aten der</w>
at ó
as y
aprove it
ap la
anxiet y.</w>
ann oun
ani a</w>
an unci
amor ,</w>
ambi enta
amaz ing.</w>
aman sar</w>
alu mbrar</w>
alimenta ción</w>
alcan ce</w>
al tas</w>
al ity,</w>
advan ta
ad ministra
a wa
W ill</w>
V er
S pe
Ro man</w>
R os
R ain</w>
Pre fiero</w>
Poder ía</w>
P or
Ouvi ase</w>
N in</w>
M yri
Le g
L ou
J uli
In dia</w>
I A</w>
Hi p
He /she</w>
He /
Es co
E U
Di ver
D u
Col labor
C as
C ab
B irds</w>
Amé rica</w>
A t</w>
A P
A L
A C
</i> ,</w>
5 ."</w>
"W ell</w>
"S i,</w>
"Inste ad</w>
"" the</w>
"" "The</w>
óxi do</w>
ó is</w>
í mos</w>
í as.</w>
é monos</w>
y p
y ?"</w>
women .</w>
wan t.</w>
voste de</w>
vez ."</w>
verdade ."</w>
vent u
ven u
vel la</w>
valu es.</w>
valor ar</w>
va do</w>
v as.</w>
us ão</w>
us adas</w>
univer s
un ciar</w>
tí o</w>
typic ally</w>
tuber cul
tru mp
tris te.</w>
tri un
trastor nos</w>
traf fi
tradi ción</w>
too th
titu des</w>
ti mes."</w>
they 'd</w>
thes is</w>
there fore</w>
themselv es.</w>
themselv es,</w>
test .</w>
ter á</w>
team s</w>
ta m</w>
ta ble
ta ban</w>
t res
t one</w>
t ente</w>
sun .</w>
suje tar</w>
sty le.</w>
strong ly</w>
sto ck</w>
ste m</w>
squ irre
speci al.</w>
son :</w>
some how</w>
so idade</w>
so des</w>
si ght</w>
sho o
shar p</w>
seman as.</w>
se a
san grar</w>
s care</w>
s ase</w>
rou tine</w>
ro se</w>
ro sa</w>
rexi st
rest .</w>
resol ve</w>
relea sed</w>
recur so</w>
recomen da
recep tor</w>
real istic</w>
real is
re tra
re pair</w>
re medi
ra tos</w>
ra dos</w>
quer er</w>
que ima
que dar
qu it
páxin a</w>
pui dé
psycho log
proje to.</w>
progra ms</w>
profes sor</w>
profes or
proble ms."</w>
pro voca
pro pos
presen ça</w>
pres entes</w>
pou ca</w>
pon to</w>
poe try</w>
plata forma</w>
plac e."</w>
pla ys</w>
permi ten</w>
peri go</w>
percent ."</w>
per do
per das</w>
pensa des</w>
pens ar
pen e
pel ,</w>
pe tro
paxar os</w>
party ?</w>
pare za</w>
pan tas
pan crea
paisa xe</w>
pa st
pa sei</w>
pa ga</w>
p és</w>
p ani
p ace</w>
ori gem</w>
organiza tion.</w>
organiza cións</w>
opini ons.</w>
op ción.</w>
on al</w>
ofre cer
ofre ce</w>
o mb
noi tes</w>
no ve</w>
no tas</w>
neces sidade</w>
neces arios</w>
neces ario.</w>
n isto</w>
n a,</w>
médi ca</w>
mé sti
máxi mo</w>
má is
musi c,</w>
most rar
mor rer</w>
monit or</w>
mo bilidade</w>
mira da</w>
mir ando</w>
min er
mil leiros</w>
mil k</w>
mid d
mi ser
mi ra</w>
men o</w>
men ci
mellor ."</w>
medicin e.</w>
ma sa</w>
ma gia</w>
lí der</w>
lâ mpada</w>
lu ces</w>
lo ving</w>
lingü ísti
lik e.</w>
le ve</w>
le gi
lab or</w>
l via</w>
l os.</w>
k ing."</w>
jo y.</w>
jo go</w>
ix a</w>
ita do.</w>
issu e.</w>
ir ing</w>
ir an
investi mento</w>
inv ite</w>
interac ción</w>
inter face</w>
inten ción</w>
integri dade</w>
instru mentos</w>
ingredi entes</w>
infanti l</w>
inclu sion</w>
in visi
in s.</w>
in cómo
hu mble</w>
horri ble</w>
ho pe.</w>
hero es</w>
hear d.</w>
he igh
har m</w>
ha dor</w>
ha da</w>
groun d,</w>
gra tion</w>
gra s
goo d,</w>
gañ ou</w>
ga tion</w>
ga da.</w>
g dal
g as,</w>
fun n
forma n</w>
fore ign</w>
flow ers.</w>
fl as
fin ,</w>
fiel d.</w>
fi gh
fi el</w>
fi c
farma cé
fal ar,</w>
expres sing</w>
experi ence."</w>
exist ence.</w>
exci ting.</w>
ex ist</w>
every thing,</w>
estu di
espec ífica
espec táculo</w>
espa ço</w>
escal ada</w>
es con
er to</w>
epidemi a</w>
envelle ce
enter rar</w>
encontra do</w>
enc án
en señ
en ni
el as.</w>
ei me</w>
efica z</w>
effici ency</w>
educa ción.</w>
ec ía</w>
eas y.</w>
ear th
ear n</w>
dri ves</w>
doll ar</w>
do mésti
diverti da</w>
diver sos</w>
dist ingu
dise ño</w>
dis cre
diferen te."</w>
determin ed</w>
detec tor</w>
deta iled</w>
deslumbran te.</w>
descri bed</w>
descan so</w>
desajeit ado</w>
desa tar</w>
depar tamento</w>
den ,</w>
dedica ción</w>
decre ase</w>
decora ción</w>
de d,</w>
de bili
de aling</w>
da wn</w>
d enci
cá li
cus hion</w>
cu p</w>
cu p
cros s</w>
creativi dade.</w>
coxin has</w>
correc to</w>
condi tion,</w>
concer t</w>
concer ned</w>
concer n</w>
concentra te</w>
con viv
con ce
compañ ei
comp res
comb ine</w>
col d.</w>
co res.</w>
co lu
climb ing</w>
cli ents.</w>
cle ,</w>
ck s,</w>
cirur xía</w>
cipo al</w>
científi co</w>
cient ífica
ci ma</w>
chimp anze
chil d,</w>
che w</w>
charac ters</w>
chame leon</w>
cha ir
cha in</w>
ch ment</w>
cen do</w>
car te
car on</w>
car ne
car a.</w>
can ta</w>
cambi ando</w>
cachi mbo</w>
c ân
c ress</w>
bri d
bot tle</w>
bol o</w>
bol ero</w>
benefici al</w>
befor e."</w>
be ar</w>
basi camente</w>
bal ón</w>
bacteri a,</w>
bab a</w>
b us</w>
b a.</w>
azu is</w>
axud alo</w>
av am</w>
autoesti ma</w>
au ten
asegu rar</w>
ari as.</w>
ar ris
ar gue</w>
apren den</w>
apari ción</w>
ap li
any one.</w>
answ er."</w>
an other.</w>
amy lo
amoun ts</w>
ami lo
ama ble</w>
algun s</w>
alegri a</w>
alcoholi c</w>
agri ão</w>
adul t</w>
ada mente.</w>
actu al.</w>
acor do.</w>
accura te</w>
acci dente</w>
acces i
abraz o</w>
a compan
a cións.</w>
V al
T ex
T el
Sha kespe
Sal vation</w>
S tor
S o,</w>
Ru bi</w>
R ,</w>
Po den</w>
P rin
O cu
M atur
L ag
K en
J ames</w>
He/ She</w>
H ol
H ig
H abía</w>
Fu e</w>
Fran cis
En g
Des pois</w>
D ,</w>
Con tro
Collabor ation</w>
Ap ple</w>
An der
A ge</w>
: "</w>
3 5</w>
2 5
10 ,000</w>
"T en</w>
"Se gun
"Sab emos</w>
"S in
"M ost</w>
"M aybe</w>
"Inste ad,</w>
"Ho xe</w>
"H is</w>
"Est á</w>
"D i
" que</w>
​ ​
ín s</w>
éron me</w>
éri o</w>
én ."</w>
áron me</w>
án cre
á ns</w>
á base</w>
á ban
za tion,</w>
z os,</w>
y i
yi el
xené tica</w>
weak nes
wall s</w>
wa ve</w>
wa it
w er</w>
volun tari
vi ño</w>
vi sion.</w>
vi ag
ver ing</w>
valu e.</w>
vaca tion.</w>
va da</w>
v os,</w>
v ary</w>
use ."</w>
up s</w>
uni dos</w>
unforget table</w>
un ,</w>
u ser</w>
u re
treat ments</w>
trata mos</w>
trans mi
tra mp
tr y,</w>
tool .</w>
ton ight.</w>
tomorrow .</w>
to dos,</w>
to do."</w>
ti tul
ti po
ti me
ti ght</w>
th res
tex to</w>
ter ror</w>
tecnolox ía.</w>
teci dos</w>
techni ques</w>
te mente.</w>
te a.</w>
te ."""</w>
tar get</w>
tan ce</w>
tam bi
tal k,</w>
ta mañ
t ons</w>
t al.</w>
sus pec
sur a</w>
success fully</w>
stron g.</w>
speak ers</w>
sou bo</w>
solu cion
so ñar</w>
so fre
sit y,</w>
sin té
simp lest</w>
si x
si vely</w>
sho p</w>
shi ft</w>
shi f
servi r</w>
ser .</w>
ser ,</w>
sen tado</w>
sel le</w>
seas on.</w>
se es</w>
scienti st</w>
scen e</w>
sabedor ía</w>
sa e</w>
sa do.</w>
sa ciar</w>
s mell
s lo
s ke
s enten
s cri
ron me</w>
romp er</w>
respon d</w>
resist entes</w>
reno var</w>
recor do</w>
reali z
re tos</w>
re port
re dor.</w>
rapo sa</w>
ra stre
ra dor</w>
r al
quil ó
pí lul
puide mos</w>
publi c.</w>
pu ts</w>
psy chi
prác tica.</w>
provo car</w>
provi ding</w>
provi des</w>
produc t.</w>
proce de
pro f
pro activ
preven ção</w>
preser var</w>
pregun te
pre ce
port as</w>
pon te</w>
persever ancia</w>
perdi do</w>
per feito</w>
pensab a</w>
pas teis</w>
para í
pancrea tic</w>
pa tho
pa sión</w>
p áncre
p les</w>
ourselv es,</w>
oper ación</w>
on s,</w>
on es,</w>
ocorre u</w>
obser vamos</w>
o il.</w>
nun ca.</w>
nostal gi
no ta</w>
nel .</w>
na val</w>
n ine</w>
mé todos</w>
musi cians</w>
mor te,</w>
mon th</w>
moment ."</w>
mo zos</w>
mo to</w>
mo da.</w>
mista ke.</w>
minu tos.</w>
milit ary</w>
mi la
messa ges</w>
ment os."</w>
ment al,</w>
men tion
men cion
memb ro</w>
medi ev
mecanis mos</w>
me do,</w>
mas sive</w>
mar cha</w>
mar abil
m mer</w>
lo :</w>
lle :</w>
life ."""</w>
li ver</w>
li sto</w>
li cen
laun ched</w>
k ers</w>
justic e.</w>
ju sta</w>
journe y,</w>
jo gos</w>
j es</w>
it aba</w>
ist o:</w>
invol un
interes s
inter view
inter cambio</w>
insu lin</w>
instin c
ing s."</w>
infor má
imp ida</w>
ill ness.</w>
háb itos</w>
há bit
hy dra
humor .</w>
hor a.</w>
home made</w>
históri as</w>
histor y,</w>
hi ding</w>
hi de</w>
hel met</w>
health ."</w>
health ,</w>
harm ful</w>
haber á</w>
hab itu
h itting</w>
gu es
grati fi
gra zas.</w>
gra y</w>
gra ci
gi ant</w>
ge les</w>
gar gar
gargar ejo</w>
físi co</w>
fres cos</w>
fres ca</w>
fos sil</w>
fo x</w>
fl at</w>
fin ished</w>
fin almente,</w>
fe ature</w>
fat ores</w>
fascin ating.</w>
fascin ante</w>
fall .</w>
fa vor</w>
fa ded</w>
fa cial</w>
f a</w>
evi dence.</w>
estadouniden ses</w>
est ing</w>
est ará</w>
esco la,</w>
esco itei</w>
escap ar</w>
er á</w>
equi pos</w>
ene my</w>
encan ta
en d."</w>
en able</w>
employe es</w>
empath y.</w>
emotion ally</w>
emer g
el o
el es."</w>
eco logical</w>
ec ei</w>
doorb ell</w>
docu menta
do ors.</w>
diver se</w>
direc t</w>
dicir :</w>
diagnos is</w>
di as.</w>
devou rer</w>
dese ñar</w>
desbloque ar</w>
des pe
den y</w>
den cy</w>
dem ôni
defini ción</w>
decidi mos</w>
death ,</w>
de fici
dar nos</w>
dan ce.</w>
da zz
d ro</w>
d outra</w>
d are</w>
cy cli
cuali fica
cru ci
crisi s.</w>
cra ft</w>
cozin ha.</w>
correc t.</w>
cop y</w>
cooper ation</w>
construc tive</w>
consegu imos</w>
conec tados</w>
con xun
con vi
con uts</w>
con ta.</w>
con den
con ciencia</w>
compro bar</w>
compar es</w>
color ful</w>
co sta</w>
co modi
co id
co di
co ck
cle ar.</w>
circu í
children ."</w>
chif res</w>
chick en</w>
champan he</w>
cen sura</w>
casa ."</w>
care er.</w>
car ."</w>
capaci dad</w>
canti dades</w>
campain ha</w>
cabr itos</w>
ca tion</w>
ca st</w>
ca is</w>
ca dos</w>
ca ba</w>
c ó</w>
bu ying</w>
bon ito.</w>
bon ds</w>
blo cked</w>
bir on</w>
billi ons</w>
bi to</w>
bel ow</w>
beb er</w>
ban k</w>
b its</w>
ayu dar</w>
authori ties</w>
aul a</w>
atten tion,</w>
ater cress</w>
as al
apoi ar</w>
aphrag matic</w>
ansie dade.</w>
ani st
anal ysi
an t,</w>
am ."</w>
all er
ali mentos.</w>
al titude</w>
agit ada</w>
adver tis
addi tional</w>
ada s,</w>
accoun t.</w>
aca bar</w>
ac ceder</w>
abel has</w>
abandon o</w>
ab u
ab rai
ab a.</w>
a ín
a post
a h
a go."</w>
a cous
Vac cin
Th ink</w>
Tel esco
Span ish</w>
S il
Rober t</w>
Quer emos</w>
Ocu par</w>
N a</w>
Mi cha
M el
L in
Ha via</w>
HI V</w>
H ist
H allo
Gra titude</w>
Gi ve</w>
G al
Fa ilure</w>
FOX O</w>
E C
Déix ame</w>
Con tin
Come cei</w>
Clas si
C are
B ill</w>
Ameri cans</w>
ADN ,</w>
A segúrate</w>
6 0
1 .
- up</w>
% ."</w>
"Fo i</w>
"De bemos</w>
"Al gúns</w>
""W hy</w>
"" C
ñ a."</w>
ín .</w>
ári os.</w>
ári a.</w>
á l
za ción,</w>
z ero</w>
y et.</w>
xu sta</w>
xor nali
work s."</w>
wi ck</w>
web si
wea k</w>
vol vín</w>
vol veu</w>
viol ence.</w>
vi ral</w>
vi l
versá til</w>
ver te
valu able.</w>
vac cine</w>
v ase</w>
un less</w>
un able</w>
tu res</w>
tremen dous</w>
trata da</w>
trastor no</w>
tranqui lidade</w>
traballa dores</w>
tou ching</w>
to me</w>
to m</w>
tiñ as</w>
titu ição</w>
tion ?"</w>
tic s."</w>
ti ."</w>
thre aten
the at
that ."""</w>
ter mo</w>
temp esta
te ch</w>
te ars</w>
tan tos</w>
súpe to,</w>
sun ny</w>
sugg est</w>
suav e.</w>
su it
strugg le</w>
sta ying</w>
spic y</w>
sor ship</w>
societ y."</w>
soci o
sobrevi vir</w>
so on.</w>
so m
skin ning</w>
sk i
sin o</w>
si ck</w>
sha pe.</w>
sha ke</w>
servi ces.</w>
seguri dad</w>
segur anza</w>
scar y</w>
saí u</w>
satis fy</w>
salu d</w>
sa mb
s ando</w>
s ""."</w>
rú a.</w>
ru g
routin e.</w>
rol ler</w>
ro ll</w>
ro b
ri cul
ri ba</w>
revi ew
responsabili dades</w>
respec ted</w>
resis tir</w>
residu os</w>
res pir
rememb er,</w>
rela tively</w>
rela j
reflexion ar</w>
reas on.</w>
re pen
re bel
raz ón.</w>
r ush</w>
r i</w>
ques tion.</w>
qu es.</w>
pó dense</w>
pursu e</w>
psi qui
psi colo
proper ty</w>
pron to</w>
profunda mente</w>
pri son</w>
presenta tion</w>
pregunta :</w>
posi cións</w>
popul ar.</w>
polic y.</w>
poder íamos</w>
po is,</w>
plac e
pin k</w>
person alidade</w>
person ."</w>
percei ved</w>
per ce
pen sen</w>
pel liz
pe dí
paci encia.</w>
p yrami
oxy gen</w>
ou ro</w>
ou lle</w>
os aur
ori gin</w>
ordin ary</w>
or ch
onesel f.</w>
om ía</w>
obes idade</w>
o ster
o k
o ;</w>
nur sing</w>
nuev os</w>
now ?</w>
notic ed</w>
nor te</w>
no is
no ."</w>
ningu én.</w>
nervi oso</w>
neigh bor</w>
neg ros</w>
na mor
mus cles</w>
mu m</w>
movi es.</w>
motiv ation.</w>
motiv ated</w>
mo i,</w>
mi li
memor y.</w>
medica ción</w>
mechan is
me lan
matemá ticas</w>
man tén</w>
man s.</w>
lou d</w>
lo ves</w>
literat ure</w>
liqui date</w>
lin ked</w>
lifesty le</w>
liber dade.</w>
les s,</w>
lea se,</w>
le ar</w>
l ógi
k ing
journe y.</w>
jour n
job s</w>
invol ve</w>
inter rup
inteli xente</w>
inspi res</w>
in t</w>
in díxen
impor tar</w>
imp orta
imag e.</w>
ima xe,</w>
il les</w>
human o."</w>
human a,</w>
human ,</w>
hor n</w>
ho bb
her mos
happin ess,</w>
happi er</w>
happen ed.</w>
gu e.</w>
grá fica</w>
graph y</w>
gra de</w>
go zar</w>
gg ing</w>
fí o</w>
funcion amento</w>
fun cións</w>
fu ma
fru tas</w>
fro zen</w>
fresh ly</w>
for nec
fo mentar</w>
fix era</w>
fir me</w>
finance ira</w>
fill os,</w>
fi deli
ff iti</w>
fermos o</w>
felici dade,</w>
felici dad</w>
favor ."</w>
fas hi
fal ei</w>
fac í
f íci
expres sed</w>
explor ing</w>
expla ined</w>
experi ência</w>
exist ing</w>
exis ti
exercíci os</w>
exa me</w>
ex a</w>
evi den
eth ics</w>
estu pen
esta ción</w>
est aría</w>
espec tro</w>
escri bi
escol her</w>
esco ita</w>
escen ario</w>
escal e
er ror</w>
er ro.</w>
equita tiva.</w>
equilí brio</w>
entor no</w>
enfron tar</w>
enerx ía.</w>
enc es,</w>
en courage</w>
electron ic</w>
egg s</w>
efici encia</w>
effec tively</w>
e colóxi
dou tor</w>
don e,</w>
diversi dade.</w>
discipl ine</w>
dis gu
dire itos</w>
diagnos e</w>
diab éticos</w>
detal le</w>
deta il</w>
des tituição</w>
des pre
des arro
depresi ón,</w>
dem and</w>
delici osa.</w>
delicates sen</w>
deix e</w>
deix amos</w>
deci r</w>
decep cion
de d."</w>
de af
dar ."</w>
dan za</w>
da -
d ust</w>
d ly,</w>
d ?"</w>
có di
cu ts</w>
cru el
crimin al</w>
countr ysi
corpor ate</w>
cora ção.</w>
cor te</w>
cor on
cop y
conver sas</w>
contro le.</w>
contra dic
contra ,</w>
constan temente</w>
connec tion.</w>
conf us
condi tion.</w>
complica ted.</w>
comple xi
compan y,</w>
comp ri
comp asi
commit ment.</w>
combin ación</w>
com ment</w>
coleg as</w>
cois a</w>
co ?</w>
clini c</w>
ción :</w>
citizen ship.</w>
circunstan cias</w>
cicatri ces</w>
chá mase</w>
cho o
chemi cal
che guei</w>
cha mou</w>
ch er
celebra ting</w>
ce ñ
ce o.</w>
ce do</w>
cau se,</w>
car ecer</w>
can tes</w>
cabe ça</w>
bur y</w>
box .</w>
bo y
bo tt
blin d</w>
bet ter,</w>
bel ong</w>
bei ju</w>
bath room</w>
ba ñar</w>
axud ou</w>
avi ón</w>
avan ces</w>
autén tico</w>
auti stic</w>
asu st
asomb ro
asist encia</w>
arti gos</w>
ari a."</w>
ari a,</w>
ar que
ar by</w>
apoy a</w>
aplica cións</w>
ap un
an cia.</w>
amp la</w>
am bos</w>
ali dade,</w>
ale atori
al so,</w>
al go."</w>
al ento</w>
afor rar</w>
adren al
ada s."</w>
ache g
ach ing</w>
accor di
aca demic</w>
ac he</w>
ac cións.</w>
abili ties</w>
ab sces
a id</w>
a fer
W estern</w>
VI H</w>
Uni dos,</w>
U C
Tra ta</w>
Ter ra.</w>
T e</w>
Sy lvia</w>
Ste ve</w>
Stan ford</w>
Sop la</w>
S tar
Re cognition</w>
Preven tion</w>
Nix eri
M ulti
M or
M eu</w>
M as
Lev o</w>
Lev ant
Inte gration</w>
Hu man
H er
H as
Gú stan
G ol
En soño</w>
Emo tional</w>
Ear th,</w>
Deber iamos</w>
De pen
Co ñ
Chri sti
Cent ral</w>
C ri
Al ways</w>
A sper
A ID
9 9
6 00</w>
6 ,</w>
20 ,</w>
2 ,000</w>
1 9</w>
1 5
1 3
"Y es,</w>
"Te ño</w>
"S econ
"Prime iro,</w>
"O ver</w>
"Des de</w>
"" a</w>
"" G
"" E
"" Ben,</w>
últi mas</w>
óxen o</w>
ó dese</w>
í ti
é ."</w>
án ."</w>
á ti
á -la</w>
y ing."</w>
xi mnasi
xer i
xardí n.</w>
wron g
wri ter</w>
wee k,</w>
vibra va</w>
ver bal</w>
ven da</w>
velo ci
vel o</w>
vari ar</w>
univer sidade</w>
ul hador</w>
u rar</w>
títul os</w>
té r
tubar ões</w>
tu ris
tru st.</w>
tri go</w>
tre mble</w>
trata dos</w>
transmiti r</w>
tra il</w>
tra de</w>
torn ar</w>
tor ."</w>
to mando</w>
tiv as,</w>
ter ra
tambi én</w>
t ress</w>
t res,</w>
stud ents,</w>
strategi es</w>
strateg y.</w>
sti ll
star t.</w>
standar d</w>
some times.</w>
sol di
societ y,</w>
soa ked</w>
simp les
sex a,</w>
ser ved</w>
senti a</w>
sensa tion</w>
selec tion</w>
secun d
secon ds</w>
sec tor.</w>
se at</w>
satis fied</w>
sacri ficar</w>
sa f
s wor
s now.</w>
s ing,</w>
s ,""</w>
robo ts</w>
ris cos.</w>
resear ch.</w>
rescu e</w>
res pi
requi red</w>
ren di
remin ded</w>
reg res
reflec ts</w>
rec la
ra c
r ía</w>
r ."</w>
quími cos</w>
pui des
protec ts</w>
preven tion</w>
pres u
pres ion
preocupa ción</w>
pre zos</w>
pre gún
practic ing</w>
poñer se</w>
potenti ally</w>
posi ção</w>
porcenta xe</w>
plásti cos</w>
plan tação</w>
plan tation</w>
plac a</w>
ph an
perfec tamente</w>
pel u
pel e</w>
pe ça</w>
pe da
partic les</w>
pare des</w>
pare ci
par te.</w>
par ent
pal me
pain t</w>
pain ,</w>
p y</w>
p lo
ow n.</w>
over ,</w>
ori en
or ing</w>
oper ation</w>
oper ating</w>
open ing</w>
open -
op pres
op cións.</w>
ol dest</w>
ol ,</w>
obxec tivo.</w>
o m</w>
o be
o "</w>
nú cle
ní vel</w>
new s.</w>
nes as</w>
negoci os</w>
necessar y."</w>
necess ário</w>
necesari amente</w>
ne phe
n outras</w>
n outra</w>
mutu al</w>
muller es.</w>
moto cicle
mon tar</w>
mis sal</w>
minu tos,</w>
min or
min d."</w>
mient o.</w>
microbi al</w>
melhor .</w>
mechani cal</w>
me dra
maxi mi
mar car</w>
ma sti
ma d
ma ci
lí mite</w>
lon xe
loca tion</w>
liter almente</w>
ligh ted</w>
lider ança</w>
legen dary</w>
lef t,</w>
lec tura</w>
lea der</w>
le ta</w>
le mos</w>
lau gh
lan ds</w>
ki d
je wel
j az
it self.</w>
issu es.</w>
ish .</w>
is land</w>
innova tion.</w>
indica tes</w>
increas ing</w>
in toxi
in hi
in e,</w>
impres cindi
imper fec
imp ri
imp li
immedia tely</w>
im poten
il ity</w>
iP hon
i medi
i an</w>
human it
hor ror</w>
hor m
hobb y.</w>
ho le</w>
hi xi
hes itate</w>
hel l</w>
hamb úr
gradu ate</w>
gor ge</w>
go l</w>
go ing.</w>
gener ations</w>
gen s</w>
gar ,</w>
ga ther</w>
ga do,</w>
fol d</w>
flow er</w>
fix ed</w>
feel ing.</w>
fai led</w>
ey es,</w>
exo tic</w>
exist encia</w>
exerci cios</w>
ex pedi
ex cur
estré s,</w>
estru turas</w>
esper ança</w>
esper ando</w>
espel lo</w>
especi ais</w>
es cus
enxeñ ería</w>
entrepren eur
entre te
ent ren
enhan ce</w>
end ario</w>
en ing.</w>
en coun
efica cia</w>
edifici o</w>
economi a</w>
e pin
e mi
e ds</w>
e ager</w>
díxo me</w>
dura tion</w>
draw ing</w>
dra ma</w>
don e.</w>
doen zas</w>
divi de</w>
distin ta</w>
direc tion.</w>
dinosaur s</w>
differ ent,</w>
die ta.</w>
di so.</w>
di d,</w>
di ario</w>
devi ces</w>
descan so.</w>
des fru
des enganchar</w>
dere ita</w>
der ec
dent ro.</w>
den te,</w>
demo cr
demasi ada</w>
delica deza</w>
degra da
decision -
deca teime</w>
deb ulhador</w>
de primi
d ani
cri mes</w>
cre ou</w>
craz y</w>
countr y's</w>
conver ter
continu ous</w>
contemp la
conta xi
consist ent</w>
consider ing</w>
consider ado</w>
consegu e</w>
consecu encias.</w>
conflic ts.</w>
confi dence.</w>
concer ns</w>
con stitu
con g
comú ns</w>
compromi so.</w>
company 's</w>
com po
colu m
color ed</w>
colle u</w>
coch e,</w>
co cos</w>
co at</w>
co a
clíni cas</w>
ciu dad</w>
citizen s.</w>
cine ma.</w>
ci ous</w>
ci n</w>
ci gar</w>
cho sen</w>
charu to</w>
char las</w>
champ agne</w>
chama das</w>
cell s."</w>
cele br
ce ."""</w>
cau ght</w>
car ing</w>
capaci dades</w>
capa zes</w>
camer a.</w>
ca sas</w>
ca ?</w>
c hap
buil dings</w>
bu ra
bruñ ir</w>
bra ke</w>
bra id</w>
bor do</w>
boo k
bomb a</w>
bol .</w>
bo tón</w>
be ings.</w>
be ing,</w>
be d.</w>
bar cos</w>
b ell
ax ú
ax es</w>
au menta
ati n</w>
aten ción,</w>
as ?"</w>
architec ture</w>
apoy o</w>
anti go</w>
ano tar</w>
an der
an ce."</w>
am bul
alum nos</w>
allow ing</w>
aler ta</w>
alegr ía.</w>
al mor
al ist</w>
ai re.</w>
ai a,</w>
agrada ble.</w>
ag ul
adequ ada</w>
ad s.</w>
ad qui
activ a</w>
achiev ed</w>
aca bar
aber tos</w>
a tividade</w>
a th.</w>
a stern</w>
a qui.</w>
a ...</w>
a 's</w>
Yea h,</w>
V alle
Uni dos.</w>
U ma</w>
U N
T uring</w>
Shar ks</w>
Se gu
Sab emos</w>
S enti
S ei</w>
Poder iamos</w>
P arti
Na cional</w>
Medit er
Lo ok</w>
Li ber
L it
J oy</w>
Itali an</w>
Indi a,</w>
In g
I ra
I N
Gre ek</w>
Go ats</w>
Gali cian</w>
G lo
G eo
G abri
Fix en</w>
F or</w>
Ex tra
English ,</w>
Encán tame</w>
Dev o</w>
D ix
Classi cal</w>
Brow n</w>
B lu
B lo
Ano ther</w>
A dam</w>
4 5</w>
1 6
- year</w>
"Un fortunately,</w>
"Te ñen</w>
"P lease,</w>
"N on,</w>
"N o,</w>
"L ev
"H ere</w>
""" Your</w>
"" This</w>
" Á</w>
úti l.</w>
ú pi
óri o.</w>
ícul os</w>
í tul
éx ito,</w>
ándo me</w>
á semos</w>
á molo</w>
z es.</w>
youn ger</w>
y ester
xu rado</w>
xo go.</w>
xa mais</w>
x ose</w>
wis do
wha t?</w>
week s.</w>
week end</w>
wat ch
w ra
w all.</w>
víti mas</w>
vo o</w>
visi ted</w>
viola ción</w>
vi das,</w>
vex a</w>
vermell o</w>
veh ículo</w>
va ."</w>
us ers</w>
univer sity</w>
understan ding.</w>
umb re
ul le</w>
típi co</w>
tri gger
treasu re.</w>
trans cri
tra xec
tra er</w>
tor na</w>
toler ant</w>
toler ance</w>
to y</w>
to do
ti ll</w>
thin king,</w>
test oster
ter án</w>
ter m.</w>
ter emos</w>
tem os.</w>
tecnolox ía,</w>
te e
tar e
tar ."</w>
tam én,</w>
tal vez</w>
ta gon
ta dos.</w>
surpre en
super vi
sufici ente.</w>
strugg ling</w>
stres s,</w>
stor k</w>
stan ce</w>
st a."</w>
spir it.</w>
spi ces</w>
specta tor</w>
specifi cally</w>
spe ed.</w>
son ido</w>
sol ved</w>
socie ties</w>
so ?</w>
sm all,</w>
sleep ,</w>
sin cron
significan tly</w>
significa tivo</w>
short -
shir t</w>
servi ce.</w>
ser io</w>
sen se.</w>
segu ía</w>
se e.</w>
se du
se ."""</w>
sci ence.</w>
saí da</w>
sauda bles.</w>
satisfac ción</w>
sab er
sa ving</w>
s wal
s ter</w>
ru pt</w>
ritu al</w>
ri val</w>
ri os</w>
ri gor
ri di
rhyth m</w>
revi ew</w>
reti re
responsabili dade.</w>
respon se.</w>
represen ted</w>
ren ew</w>
rela cións.</w>
regul ation</w>
regul ación</w>
reg ano</w>
refres cante</w>
refin ed</w>
ref use</w>
reach ed</w>
reac tion</w>
re present</w>
re place</w>
re per
re mat
re confor
rar o</w>
ra tion
qui ño</w>
qui e
puidé semos</w>
produc tion.</w>
proces o,</w>
privi lexi
pres são</w>
post as</w>
posibili dades.</w>
pollu tion</w>
poli ti
podi amos</w>
pobre za</w>
po bre</w>
pi le</w>
physi cs</w>
peti ción</w>
person aliz
perso ais</w>
perig oso</w>
peri go.</w>
perfec t.</w>
per deu</w>
pens as</w>
paí s."</w>
patient s."</w>
paper ,</w>
paci entes,</w>
p oun
ox ito
over all</w>
ou vir</w>
os idade</w>
organis mos</w>
op ções</w>
op pon
on ."""</w>
on -
off ."</w>
off ,</w>
obje tivo</w>
o il
o dio</w>
nuev as</w>
nos otros</w>
no che</w>
neuro genes
nec k</w>
ne o</w>
ne gra
naturale za.</w>
natur ally</w>
na dar</w>
n uns</w>
my self."</w>
mou th</w>
motiv os</w>
mos o
mon io</w>
moit ísi
mo verse</w>
mis sion.</w>
min as</w>
mi o</w>
mi gran
mest ura</w>
mean ing.</w>
me al</w>
mañ á,</w>
materi als.</w>
marabill oso</w>
mar ried</w>
mar cha
manex ar</w>
mainten ance</w>
machin es</w>
maca co</w>
ma to
ma ke.</w>
m í</w>
m ing,</w>
lu z,</w>
lo ve."</w>
litt le,</w>
listen ed</w>
lin e,</w>
limita cións</w>
li bre
lev ando</w>
les i
lemb ra
le tting</w>
landsca pe.</w>
k m</w>
invest ments</w>
intimi da
intest in
interes ados</w>
inter ro
inter act</w>
inten to</w>
inte lectu
inte g
inscri ción</w>
ing ly,</w>
informa ções</w>
influ ír</w>
influ encia</w>
individu os</w>
incrí vel.</w>
increa ses</w>
inclu des</w>
in o.</w>
in dis
in da</w>
in as</w>
imag ing</w>
ill as</w>
identi dade.</w>
i ze</w>
i ther</w>
hygi en
horm one</w>
hol ds</w>
hol ding</w>
ho mo
ho mes,</w>
her self</w>
hel pl
har d,</w>
h ã
h ill
h ar.</w>
h ando</w>
grow .</w>
grou p,</w>
grou p
great .</w>
govern ments</w>
govern ment,</w>
glob al,</w>
gg ed</w>
gen ,</w>
gar se</w>
gar da</w>
g old</w>
g ling</w>
g ently</w>
g as."</w>
g ali
funda mentais</w>
fu te
fu me</w>
free zing</w>
fra g
forma tion</w>
for th</w>
for an</w>
fon dos</w>
